{"[SOT]":0,"[PAD]":1,"[EOT]":2,"[UNK]":3,"[MASK]":4,"[CLS]":5,"[SEP]":6,"!":7,"\"":8,"#":9,"$":10,"%":11,"&":12,"'":13,"(":14,")":15,"*":16,"+":17,",":18,"-":19,".":20,"/":21,"0":22,"1":23,"2":24,"3":25,"4":26,"5":27,"6":28,"7":29,"8":30,"9":31,":":32,";":33,"<":34,"=":35,">":36,"?":37,"@":38,"A":39,"B":40,"C":41,"D":42,"E":43,"F":44,"G":45,"H":46,"I":47,"J":48,"K":49,"L":50,"M":51,"N":52,"O":53,"P":54,"Q":55,"R":56,"S":57,"T":58,"U":59,"V":60,"W":61,"X":62,"Y":63,"Z":64,"[":65,"\\":66,"]":67,"^":68,"_":69,"`":70,"a":71,"b":72,"c":73,"d":74,"e":75,"f":76,"g":77,"h":78,"i":79,"j":80,"k":81,"l":82,"m":83,"n":84,"o":85,"p":86,"q":87,"r":88,"s":89,"t":90,"u":91,"v":92,"w":93,"x":94,"y":95,"z":96,"{":97,"|":98,"}":99,"~":100,"¡":101,"¢":102,"£":103,"¤":104,"¥":105,"¦":106,"§":107,"¨":108,"©":109,"ª":110,"«":111,"¬":112,"®":113,"¯":114,"°":115,"±":116,"²":117,"³":118,"´":119,"µ":120,"¶":121,"·":122,"¸":123,"¹":124,"º":125,"»":126,"¼":127,"½":128,"¾":129,"¿":130,"À":131,"Á":132,"Â":133,"Ã":134,"Ä":135,"Å":136,"Æ":137,"Ç":138,"È":139,"É":140,"Ê":141,"Ë":142,"Ì":143,"Í":144,"Î":145,"Ï":146,"Ð":147,"Ñ":148,"Ò":149,"Ó":150,"Ô":151,"Õ":152,"Ö":153,"×":154,"Ø":155,"Ù":156,"Ú":157,"Û":158,"Ü":159,"Ý":160,"Þ":161,"ß":162,"à":163,"á":164,"â":165,"ã":166,"ä":167,"å":168,"æ":169,"ç":170,"è":171,"é":172,"ê":173,"ë":174,"ì":175,"í":176,"î":177,"ï":178,"ð":179,"ñ":180,"ò":181,"ó":182,"ô":183,"õ":184,"ö":185,"÷":186,"ø":187,"ù":188,"ú":189,"û":190,"ü":191,"ý":192,"þ":193,"ÿ":194,"Ā":195,"ā":196,"Ă":197,"ă":198,"Ą":199,"ą":200,"Ć":201,"ć":202,"Ĉ":203,"ĉ":204,"Ċ":205,"ċ":206,"Č":207,"č":208,"Ď":209,"ď":210,"Đ":211,"đ":212,"Ē":213,"ē":214,"Ĕ":215,"ĕ":216,"Ė":217,"ė":218,"Ę":219,"ę":220,"Ě":221,"ě":222,"Ĝ":223,"ĝ":224,"Ğ":225,"ğ":226,"Ġ":227,"ġ":228,"Ģ":229,"ģ":230,"Ĥ":231,"ĥ":232,"Ħ":233,"ħ":234,"Ĩ":235,"ĩ":236,"Ī":237,"ī":238,"Ĭ":239,"ĭ":240,"Į":241,"į":242,"İ":243,"ı":244,"Ĳ":245,"ĳ":246,"Ĵ":247,"ĵ":248,"Ķ":249,"ķ":250,"ĸ":251,"Ĺ":252,"ĺ":253,"Ļ":254,"ļ":255,"Ľ":256,"ľ":257,"Ŀ":258,"ŀ":259,"Ł":260,"ł":261,"Ń":262,"à¦":263,"à§":264,"à¦¾":265,"à¦°":266,"à§ĩ":267,"à§į":268,"à¦¿":269,"à¦¨":270,"à¦ķ":271,"à¦¬":272,"à¦¤":273,"à¦¸":274,"à¦®":275,"à¦²":276,"à¦ª":277,"à¦¦":278,"à¦¯":279,"à§ģ":280,"à¦°à¦":281,"à§Ł":282,"à¦¹":283,"à¦Ł":284,"à§ĭ":285,"à¦ľ":286,"à¦¶":287,"à§Ģ":288,"à¦Ĺ":289,"à¦ĩ":290,"à¦Ĩ":291,"à¦ı":292,"à¦Ľ":293,"à¦ļ":294,"à¦ķà¦°":295,"à¦·":296,"à¦Ń":297,"à¦§":298,"à¦¥":299,"à¦ĸ":300,"à¦ĵ":301,"à¦¼":302,"à¦Ĥ":303,"à¦¡":304,"à¦ħ":305,"à¦°à¦¸":306,"à¦ī":307,"à¦«":308,"à¦°à¦ķ":309,"à¦°à¦¬":310,"à¦°à¦®":311,"à¦°à¦ª":312,"à¦£":313,"à§§":314,"à§¨":315,"à§ľ":316,"à§¦":317,"à¦°à¦¤":318,"à¦ªà¦°":319,"à§Ĥ":320,"à¦¸à¦®":321,"à§ĥ":322,"à¦®à¦¨":323,"à¦ıà¦ķ":324,"à¦ł":325,"à¦ľà¦¨":326,"à¦¬à¦²":327,"à¦°à¦¦":328,"à¦Ĩà¦®":329,"à¦°à¦¨":330,"à¦°à¦ľ":331,"à¦°à¦¹":332,"à¦ģ":333,"à¦¬à¦¨":334,"à¦Ļ":335,"à¦°à¦Ĩ":336,"à¦¹à§Ł":337,"à¦¼à¦¾":338,"à¦¾à¦Ĥ":339,"à¦¼à§ĩ":340,"à¦¨à¦¬":341,"à¦ħà¦¨":342,"à¦ĵà§Ł":343,"à§§à§":344,"à¦ĺ":345,"à¦°à¦£":346,"à¦ŀ":347,"à¦¨à¦¤":348,"à¦ıà¦¬":349,"à¦ªà¦¨":350,"à¦¨à¦¸":351,"à¦¬à¦°":352,"à¦¬à¦¸":353,"à¦°à¦ħ":354,"à¦¾à¦ģ":355,"à¦°à¦¶":356,"à¦²à¦ķ":357,"à§¨à§¦":358,"à¦¨à¦ķ":359,"à¦¹à¦¬":360,"à¦°à¦ı":361,"à¦ĩà¦¨":362,"à¦¤à¦¬":363,"à¦¨à¦ª":364,"à¦ıà¦ĩ":365,"à¦°à¦ļ":366,"à¦°à¦ľà¦¨":367,"à§©":368,"à¦¸à¦¬":369,"à¦°à¦ĵ":370,"à¦ĥ":371,"à¦Ĩà¦²":372,"à¦¨à¦¨":373,"à§ª":374,"à¦ĩà¦¸":375,"à§Į":376,"à¦°à¦Ĺ":377,"à§«":378,"à¦¶à¦¨":379,"à¦¤à¦°":380,"à¦ķà¦®":381,"à¦¨à¦®":382,"à¦¹à¦²":383,"à§Ī":384,"à¦ķà¦°à¦¤":385,"à¦°à¦Ń":386,"à¦ıà¦ķà¦Ł":387,"à¦ķà¦¬":388,"à¦¹à¦¤":389,"à§İ":390,"à¦°à¦ī":391,"à¦¿à¦Ĥ":392,"à¦īà¦¨":393,"à§Łà¦¨":394,"à¦Ĩà¦ªà¦¨":395,"à¦²à¦¨":396,"à¦īà¦ª":397,"à¦ķà¦²":398,"à¦¯à¦¬":399,"à¦°à¦Ľ":400,"à¦Ĩà¦¬":401,"à¦°à¦ķà¦°":402,"à§®":403,"à§¬":404,"à¦²à¦¬":405,"à¦°à¦¯":406,"à§Ń":407,"à¦¨à¦¦":408,"à§¯":409,"à¦®à¦¤":410,"à¦¯à¦ķ":411,"à¦°à¦°":412,"à¦®à¦¸":413,"à¦¹à¦¯":414,"à¦°à¦¥":415,"à¦Ĩà¦¸":416,"à¦¤à¦¨":417,"à¦ĩà¦²":418,"à¦¦à¦ķ":419,"à¦°à¦§":420,"à¦ķà¦Ł":421,"à¦ļà¦²":422,"à¦ĩà¦ķ":423,"à¦Ŀ":424,"à¦ıà¦¸":425,"à¦¦à¦¨":426,"à¦ªà¦¤":427,"à¦°à¦²":428,"à¦°à¦ĩ":429,"à¦·à¦£":430,"à¦¤à¦®":431,"à¦ķà¦¸":432,"à¦²à¦®":433,"à¦ĸà¦¨":434,"à¦¤à¦ķ":435,"à¦°à¦¸à¦®":436,"à¦ĵà¦¯":437,"à¦Łà¦¨":438,"à¦²à¦¤":439,"à¦°à¦«":440,"à¦ļà¦¨":441,"à§Łà¦¸":442,"à¦ĩà¦¬":443,"à¦§à¦°":444,"à¦¸à¦¹":445,"à¦īà¦¦":446,"à¦¨à¦Ĩ":447,"à¦ĩà¦®":448,"à¦ĩà¦¤":449,"à¦ªà§ľ":450,"à¦°à¦®à¦§":451,"à¦°à¦ªà¦°":452,"à¦°à¦ĸ":453,"à¦ķà¦¦":454,"à¦¸à¦¨":455,"à¦¯à¦¦":456,"à¦®à¦¹":457,"à§Łà¦ķ":458,"à¦¸à¦°":459,"à¦¯à¦¨":460,"à¦¨à¦ķà¦°":461,"à¦¯à¦®":462,"à¦ķà¦¤":463,"à¦¨à¦ľ":464,"à¦ħà¦Ń":465,"à¦®à¦¦":466,"à¦ĩà¦Ł":467,"à¦¨à¦°":468,"à¦Ĩà¦Ľ":469,"à¦°à¦Ł":470,"à¦®à¦²":471,"à¦ķà¦¨":472,"à¦®à¦¬":473,"à§¨à§§":474,"à¦ħà¦°":475,"à¦²à¦¸":476,"à¦¨à¦Ĺ":477,"à¦¨à¦ı":478,"à¦¨à¦Ń":479,"à¦¶à¦ķ":480,"à¦¦à¦°":481,"à¦ĵà¦¬":482,"à§Łà¦¬":483,"à¦®à¦ķ":484,"à¦¸à¦ķ":485,"à¦Ĩà¦Ĺ":486,"à¦¢":487,"à¦®à¦ª":488,"à§§à§¯":489,"à§ĩà¦¾":490,"à¦Ĩà¦°":491,"à¦¸à¦ª":492,"à¦¬à¦ķ":493,"à¦Ĩà¦¨":494,"à¦¦à¦¸":495,"à¦ķà¦ª":496,"à¦¤à¦ķà¦°":497,"à¦ĩà¦¸à¦²":498,"à¦¬à¦¬":499,"à¦¨à¦¯":500,"à¦°à¦ħà¦¨":501,"à¦°à§Ł":502,"à¦Ĩà¦®à¦°":503,"à¦Łà¦ķ":504,"à¦®à¦°":505,"à¦ıà¦Ł":506,"à¦¨à¦¶":507,"à¦¬à¦ª":508,"à¦ĵà¦¸":509,"à¦ĵà¦ª":510,"à¦²à¦ª":511,"à¦¯à¦¬à¦¸":512,"à¦ĩà¦ª":513,"à¦ĩà¦°":514,"à§Łà¦¦":515,"à¦ķà¦ķ":516,"à§Łà¦¤":517,"à¦ħà¦¬":518,"à¦°à¦¸à¦Ļ":519,"à¦Ĩà¦ľ":520,"à¦¯à¦¸":521,"à§§à§¦":522,"à§Łà¦ª":523,"à¦Ĺà¦ŀ":524,"à¦¤à¦ª":525,"à¦¬à¦Ľ":526,"à¦¹à¦ļ":527,"à¦¤à¦¸":528,"à¦ªà¦ķ":529,"à§¨à§¦à§¨à§§":530,"à¦¯à¦ª":531,"à¦¯à¦¬à¦¹":532,"à§Łà¦®":533,"à¦ĩà§Ł":534,"à¦Ĩà¦¦":535,"à¦ľà¦¶":536,"à¦ĸà¦¬":537,"à¦Ĺà¦¤":538,"à¦¯à¦¤":539,"à¦¼à¦¿":540,"à¦Ĩà¦°à¦ĵ":541,"à¦ªà¦¦":542,"à¦¶à¦°":543,"à¦Ĺà¦²":544,"à¦²à¦¹":545,"à¦ĩà¦ľ":546,"à¦ıà¦²":547,"à¦¨à¦®à¦¨":548,"à¦īà¦¤":549,"à¦Ĺà¦°":550,"à¦¨à¦ĵ":551,"à¦¸à¦°à¦ķ":552,"à¦īà¦ľ":553,"à¦¦à¦²":554,"à¦¸à¦®à§Ł":555,"à¦Ĩà¦ķ":556,"à¦ķà¦¥":557,"à¦·à§Ł":558,"à¦ķà¦°à¦²":559,"à¦°à¦īà¦ª":560,"à¦¤à¦¦":561,"à¦ľà¦®":562,"à¦¤à¦¥":563,"à¦¨à¦Ł":564,"à¦¶à¦¬":565,"à¦Ĺà¦£":566,"à¦°à¦®à¦¤":567,"à¦ĸà¦¤":568,"à¦ķà¦°à¦¬":569,"à¦¨à¦¹":570,"à¦ĩà¦Ń":571,"à¦¹à¦®":572,"à¦ĩà¦¬à¦¨":573,"à¦°à¦ĺ":574,"à¦¾à¦ĥ":575,"à¦¸à¦²":576,"à¦ĩà¦¦":577,"à¦¬à¦¹":578,"à¦ħà¦¸":579,"à¦Ĩà¦¤":580,"à¦§à¦¨":581,"à¦ĵà¦®":582,"à¦²à§Ł":583,"à¦°à¦Ĩà¦Ĺ":584,"à¦ħà¦§":585,"à¦°à¦¡":586,"à¦ľà¦¸":587,"à¦¨à¦ļ":588,"à¦°à¦ķà¦¥":589,"à¦¸à¦Ń":590,"à¦¤à¦¹à§Ł":591,"à¦°à¦¬à¦°":592,"à¦«à¦°":593,"à¦°à¦¹à¦®":594,"à§ģà¦ģ":595,"à¦ħà¦¤":596,"à¦¹à¦°":597,"à§¨à§¦à§§à§":598,"à§¨à§ª":599,"à¦Łà¦¬":600,"à¦ħà¦¬à¦¸":601,"à¦ħà¦«":602,"à¦Ĺà¦¬":603,"à¦¬à¦¦":604,"à§İà¦¸":605,"à¦īà¦²":606,"à¦ĵà¦¤":607,"à¦Ī":608,"à¦¶à¦¤":609,"à¦°à¦ıà¦ķà¦Ł":610,"à¦ĩà¦īà¦¨":611,"à¦ªà¦¡":612,"à¦«à¦²":613,"à¦ıà¦®à¦¨":614,"à¦·à¦ķ":615,"à¦¸à¦¤":616,"à§§à§¨":617,"à¦ħà¦ª":618,"à¦²à¦Ĺ":619,"à¦Łà¦¸":620,"à¦ľà¦¬":621,"à¦ĺà¦Łà¦¨":622,"à¦Ĩà¦ĩà¦¨":623,"à¦Ĺà¦¨":624,"à¦ıà¦ĸ":625,"à¦ıà¦ĸà¦¨":626,"à¦²à¦¦":627,"à¦°à¦ħà¦Ń":628,"à¦Ľà¦¨":629,"à¦°à¦®à¦¨":630,"à¦¶à¦®":631,"à¦¹à¦¸":632,"à¦īà¦ªà¦ľ":633,"à¦Łà¦ª":634,"à¦¬à¦¤":635,"à¦ĵà¦ķ":636,"à¦ħà¦ªà¦°":637,"à§¦à§¦":638,"à¦Łà¦Ĺ":639,"à¦°à¦¹à¦£":640,"à¦®à¦®":641,"à¦«à¦¤":642,"à¦ħà¦ķ":643,"à¦Ľà¦¬":644,"à¦ķà¦Ń":645,"à¦²à¦Ń":646,"à¦īà¦ł":647,"à¦¤à¦¤":648,"à¦°à¦īà¦¦":649,"à¦¦à¦ª":650,"à¦¨à¦ıà¦¬":651,"à¦¬à¦¶":652,"à¦ķà¦°à¦Ľ":653,"à¦ľà¦°":654,"à¦ıà¦®":655,"à¦¸à¦¦":656,"à§§à§«":657,"à¦°à¦°à¦¹à¦®":658,"à¦ĸà¦²":659,"à¦¸à¦¸":660,"à¦ĩà¦¯":661,"à¦ĩà¦¡":662,"à¦¨à¦²":663,"à¦ĩà¦ī":664,"à¦¶à¦¸":665,"à¦·à¦¤":666,"à¦°à¦ıà¦ķ":667,"à¦ļà¦Ł":668,"à¦īà¦ļ":669,"à§§à§®":670,"à¦®à¦ķà¦°":671,"à§§à§ª":672,"à¦Ĺà¦ł":673,"à§Łà¦°":674,"à¦°à¦¥à¦®":675,"à¦¶à¦ª":676,"à¦ĩà¦«":677,"à§§à§Ń":678,"à¦¯à¦ķà¦°":679,"à§Łà¦Ĺ":680,"à¦ķà¦¶":681,"à¦·à¦¦":682,"à¦²à¦ĩà¦¸à¦²":683,"à¦Łà¦®":684,"à¦¥à¦¬":685,"à¦¹à¦ĵà§Ł":686,"à¦ıà¦ķà¦ľà¦¨":687,"à¦¨à¦Ĩà¦®":688,"à¦¦à¦®":689,"à¦ĩà¦¹":690,"à§§à§§":691,"à¦¥à¦¨":692,"à¦ĵà¦¦":693,"à¦§à¦¬":694,"à§·":695,"à¦ıà¦¨":696,"à¦¨à§Ł":697,"à¦®à¦Ĺ":698,"à¦¸à¦®à¦¸":699,"à¦Łà¦ķà¦°":700,"à§§à§©":701,"à¦Ĳ":702,"à¦¯à¦°":703,"à¦Ĩà¦¶":704,"à§¨à§¦à§¦":705,"à¦ĵà¦¨":706,"à¦ļà¦ķ":707,"à¦¶à¦ķà¦°":708,"à¦ĺà¦°":709,"à¦¨à¦ĸ":710,"à¦²à¦¯":711,"à¦°à¦¸à¦Ń":712,"à¦°à¦®à¦£":713,"à¦¦à¦¬":714,"à§©à§¦":715,"à¦¤à¦²":716,"à¦¨à¦¡":717,"à¦°à¦Ĩà¦²":718,"à¦®à¦§":719,"à¦Ĺà¦¬à¦¨":720,"à¦²à¦ľ":721,"à§§à§¬":722,"à¦ıà¦¨à¦ª":723,"à¦ĺà¦Ł":724,"à¦Ĺà¦ķà¦°":725,"à¦¨à¦ªà¦°":726,"à¦Ĺà¦®":727,"à¦¨à¦¥":728,"à¦¨à¦«":729,"à¦ľà¦ķà¦°":730,"à¦²à¦°":731,"à¦ķà¦ķà¦°":732,"à¦°à¦ķà¦²":733,"à¦īà¦Ł":734,"à¦¸à¦®à¦¯":735,"à¦ıà¦¤":736,"à¦¬à¦²à¦²":737,"à¦¬à¦Ľà¦°":738,"à¦Ĺà¦¦":739,"à¦°à¦£à¦ķà¦°":740,"à¦®à¦¸à¦ľ":741,"à¦®à¦ľ":742,"à¦ªà¦¸":743,"à¦ıà¦ª":744,"à¦ĩà¦ļ":745,"à¦¶à¦¦":746,"à§Łà¦ķà¦°":747,"à¦¶à¦¹":748,"à¦ľà¦ª":749,"à¦¯à¦¥":750,"à¦¨à¦ıà¦ĩ":751,"à¦£à¦¬":752,"à¦°à¦¸à¦¬":753,"à¦Ĩà¦ĵà§Ł":754,"à¦ĵà¦Ń":755,"à¦¤à¦¹":756,"à§¨à§«":757,"à¦°à¦ıà¦¬":758,"à¦ĩà¦Ĺ":759,"à¦·à¦¯":760,"à¦ıà¦¦":761,"à¦ıà¦Ĺ":762,"à¦®à¦¶":763,"à¦Ńà¦¬":764,"à¦§à¦ķà¦°":765,"à¦¹à¦ķ":766,"à¦¼à§ĭ":767,"à§İà¦ķ":768,"à¦²à¦ķà¦°":769,"à¦Ńà¦°":770,"à§ĩà¦ģ":771,"à¦¬à¦²à¦¤":772,"à¦Ĩà¦Łà¦ķ":773,"à¦§à¦°à¦¨":774,"à¦²à¦Ľ":775,"à¦¶à¦Ĺ":776,"à¦ķà¦ļ":777,"à¦ľà¦²":778,"à¦ªà¦¬":779,"à¦¦à¦¶":780,"à¦¤à¦ľ":781,"à¦·à¦®":782,"à¦²à¦¥":783,"à¦īà¦ķ":784,"à¦ķà¦¹":785,"à¦Łà¦°":786,"à¦¹à§Łà¦¨":787,"à§İà¦ª":788,"à¦¤à¦Ľ":789,"à¦¹à¦ľ":790,"à¦·à¦®à¦¤":791,"à¦ıà¦°à¦ª":792,"à¦¬à¦®":793,"à§¨à§®":794,"à¦¨à¦ħà¦¨":795,"à¦Ĩà§Ł":796,"à¦Ĺà¦ª":797,"à¦¨à¦¸à¦®":798,"à¦§à¦¤":799,"à¦¤à¦Ń":800,"à§Łà¦¶":801,"à¦ªà¦Ł":802,"à¦ĵà¦²":803,"à¦Ĩà¦¬à¦¦":804,"à¦°à¦ķà¦®":805,"à¦ĩà¦¶":806,"à¦¸à¦ļ":807,"à¦°à¦ĵà¦ª":808,"à¦īà¦ĩà¦ķ":809,"à¦Łà¦¦":810,"à§ĭà¦ģ":811,"à§¨à§¨":812,"à¦¨à¦ħ":813,"à¦¬à¦Ļ":814,"à¦ľà§Ł":815,"à¦Ĩà¦«":816,"à¦¸à¦Ļ":817,"à¦ľà¦ķ":818,"à¦ħà¦¬à¦¶":819,"à¦¨à§Łà¦¨":820,"à¦ªà¦¶":821,"à¦ĵà¦¶":822,"à¦°à¦¸à¦°à¦ķ":823,"à¦°à¦ħà¦°":824,"à¦ĵà¦°":825,"à¦°à¦¸à¦¨":826,"à¦²à¦Ł":827,"à¦ķà¦°à¦£":828,"à¦°à¦¬à¦¨":829,"à¦ıà¦ĩà¦ļ":830,"à¦¤à¦¶":831,"à¦ıà¦¸à¦¬":832,"à§«à§¦":833,"à¦°à¦ħà¦§":834,"à¦²à¦²":835,"à¦¹à§Łà¦¤":836,"à§Łà¦¯":837,"à¦°à¦Ĩà¦®":838,"à¦¬à§ľ":839,"à¦ķà¦Ĺ":840,"à¦¸à¦Ł":841,"à¦ľà¦¨à¦ª":842,"à¦°à¦¸à¦°":843,"à¦¼à§Ģ":844,"à¦¦à¦¦":845,"à¦¤à¦¹à¦¯":846,"à¦°à¦Ĩà¦¨":847,"à¦ªà¦£":848,"à¦īà¦ªà¦¸":849,"à¦¸à¦ķà¦°":850,"à¦ľà¦¨à¦ķ":851,"à¦Ĩà¦°à¦¬":852,"à¦¤à¦°à¦£":853,"à§¨à§¬":854,"à¦ªà¦²":855,"à¦ķà¦¸à¦®":856,"à¦Ĩà¦ĩ":857,"à¦Ĺà¦¸":858,"à¦ļà¦°":859,"à¦ĵà¦Ĺ":860,"à¦ķà¦¯":861,"à§Łà¦ľ":862,"à¦°à¦ªà¦ķ":863,"à§¨à§©":864,"à¦¯à¦®à¦¨":865,"à¦°à¦Ĩà¦¬":866,"à¦ķà¦ľ":867,"à¦²à¦«":868,"à¦ĵà¦ľ":869,"à¦ıà¦ĩà¦¬":870,"à¦¯à¦ĸ":871,"à¦·à¦¸":872,"à¦¡à¦¸":873,"à¦¡à¦ķ":874,"à§¨à§¦à§¨à§¦":875,"à¦²à¦¶":876,"à§¨à§Ń":877,"à¦¨à¦Ĩà¦ªà¦¨":878,"à¦ıà¦ķà¦¦":879,"à¦¸à¦¦à¦¸":880,"à¦·à¦ķà¦°":881,"à¦¡à¦¬":882,"à¦¯à¦¶":883,"à¦¨à¦¬à¦²":884,"à¦¡à¦²":885,"à¦¯à¦ľ":886,"à¦Ĩà¦Ĺà¦¸":887,"à¦°à¦ĺà¦Łà¦¨":888,"à¦°à¦ªà¦¤":889,"à¦®à¦ļ":890,"à§¨à§¯":891,"à¦¸à¦«":892,"à§Łà¦Ń":893,"à¦ıà¦Ľ":894,"à¦¬à¦ľ":895,"à¦¸à¦ľ":896,"à¦ħà¦¨à¦²":897,"à¦¨à¦Ľ":898,"à§®à§¦":899,"à¦ıà¦¸à¦¸":900,"à¦ıà¦«":901,"à¦ĩà¦Ľ":902,"à¦ľà¦¦":903,"à¦ĵà¦ļ":904,"à¦£à¦®":905,"à¦ĺà¦£":906,"à¦Ĺà§ľ":907,"à¦¨à¦Ĩà¦²":908,"à¦¤à¦¹à¦¬":909,"à¦ĩà¦Ĩà¦®":910,"à¦¹à¦¨":911,"à¦Ĩà¦¸à¦²":912,"à¦ıà¦ķà¦¬":913,"à¦£à¦¨":914,"à¦Īà¦¦":915,"à¦²à¦Ĩ":916,"à¦¤à¦ĸ":917,"à¦ıà¦ĩà¦¸":918,"à¦¯à¦Ĺ":919,"à¦²à¦ļ":920,"à§Łà¦²":921,"à¦ªà¦¥":922,"à¦ĸà¦¹":923,"à¦®à¦Ĩ":924,"à¦¡à¦®":925,"à¦ľà¦§":926,"à¦ĺà¦¨":927,"à¦°à¦®à¦¹":928,"à§ªà§¦":929,"à¦ļà¦®":930,"à¦¦à¦¤":931,"à¦¸à¦ķà¦²":932,"à¦¬à¦²à¦Ľ":933,"à¦Ĩà¦ľà¦ķ":934,"à§ľà¦ķ":935,"à¦°à¦¸à¦¦à¦¸":936,"à¦¯à¦¯":937,"à¦ļà¦²à¦Ľ":938,"à¦ĩà¦īà¦ª":939,"à¦Łà¦Ł":940,"à¦¥à¦®":941,"à¦ľà¦¤":942,"à¦°à¦«à¦²":943,"à¦°à¦²à¦ķ":944,"à¦ĩà¦¨à¦¸":945,"à¦¡à¦ª":946,"à¦ħà¦Ĺ":947,"à¦ļà¦¤":948,"à¦Ĩà¦¸à¦Ľ":949,"à¦¦à¦ķà¦°":950,"à¦¥à¦ķ":951,"à¦°à¦¬à¦²":952,"à¦¨à¦ıà¦ķ":953,"à§Łà¦¹":954,"à¦°à¦¨à¦¤":955,"à¦¿à¦ĥ":956,"à¦īà¦®":957,"à¦°à¦īà¦¤":958,"à¦łà¦ķ":959,"à¦°à¦¹à¦£à¦ķà¦°":960,"à¦ĸà¦Ľ":961,"à¦Łà¦²":962,"à¦ıà¦°":963,"à¦¨à¦¬à¦¨":964,"à¦§à¦ķ":965,"à¦ªà¦ª":966,"à¦¤à¦Ĺ":967,"à¦ĵà¦¹":968,"à¦·à§Łà¦Ł":969,"à¦ħà¦®":970,"à¦¯à¦¹":971,"à§¨à§¦à§§à§¯":972,"à¦°à¦¹à§Ł":973,"à¦¼à§ģ":974,"à¦¡à¦¨":975,"à¦Ĩà¦ª":976,"à¦ĩà¦ķà¦°":977,"à¦°à¦£à¦¸à¦®":978,"à¦Ĺà¦łà¦¨":979,"à¦Ĩà¦°à¦ķ":980,"à¦¶à¦²":981,"à¦°à¦ķà¦°à¦¤":982,"à¦·à¦¬":983,"à¦¨à¦Ĺà¦°":984,"à¦¶à¦Ł":985,"à¦®à¦¯":986,"à¦²à¦¨à¦ķà¦°":987,"à¦·à¦¨":988,"à¦ľà¦¨à¦ķà¦°":989,"à¦ıà¦ĩà¦ª":990,"à¦°à¦§à¦°":991,"à¦·à¦ĸà¦¬":992,"à¦ķà¦ªà¦°":993,"à¦¤à¦Ł":994,"à¦ħà¦²":995,"à¦Ĩà¦¹":996,"à¦·à¦ª":997,"à¦Ĺà¦ķ":998,"à¦¤à¦ļ":999,"à¦°à¦¸à¦®à§Ł":1000,"à¦°à¦¸à¦¹":1001,"à¦ĭ":1002,"à¦¶à¦¶":1003,"à¦£à¦ķ":1004,"à¦°à¦ĸà¦¬":1005,"à¦°à¦Ĩà¦°":1006,"à¦°à¦ħà¦¬à¦¸":1007,"à¦¬à¦¡":1008,"à¦Ĺà¦²à¦¬":1009,"à¦°à¦ªà¦¥":1010,"à¦°à¦Ĺà¦²":1011,"à¦°à¦ĵà¦¬":1012,"à¦Łà¦¬à¦²":1013,"à¦ķà¦Ľ":1014,"à¦ľà¦Ł":1015,"à¦°à¦¹à¦¤":1016,"à¦ļà¦¬":1017,"à¦®à¦¡":1018,"à¦°à¦Ĩà¦¶":1019,"à¦°à¦¶à¦°":1020,"à¦Łà¦«":1021,"à¦Łà¦¤":1022,"à¦°à¦¸à¦ķ":1023,"à§Įà¦ģ":1024,"à¦Ľà¦°":1025,"à¦ĸà¦®":1026,"à¦īà¦¨à¦²":1027,"à¦¤à¦«":1028,"à¦¬à¦Ń":1029,"à¦ĸà¦ķ":1030,"à¦īà¦ªà¦²à¦ķ":1031,"à¦®à¦¨à¦¸":1032,"à¦īà§İà¦ª":1033,"à¦ĵà¦¸à¦®":1034,"à¦ħà¦¶":1035,"à¦¤à¦Ĩà¦¦":1036,"à§ĭà¦ĥ":1037,"à¦ĩà¦¨à¦¬":1038,"à¦ĵà¦ł":1039,"à¦¬à¦Ĺà¦ŀ":1040,"à¦¯à¦Ń":1041,"à¦£à¦ª":1042,"à¦¦à¦¹":1043,"à¦°à¦ĩà¦¤":1044,"à¦Łà¦¹":1045,"à§Łà¦ļ":1046,"à¦²à¦ĸ":1047,"à¦Łà¦ľ":1048,"à¦ıà¦®à¦¨à¦ķ":1049,"à¦Ĩà¦¯":1050,"à¦¦à¦ľ":1051,"à¦ŀà¦¤":1052,"à¦§à¦®":1053,"à¦Ĩà¦Ł":1054,"à¦ªà¦®":1055,"à¦ķà¦ĸ":1056,"à¦ķà¦ĸà¦¨":1057,"à¦°à¦¤à¦¥":1058,"à¦¯à¦Ł":1059,"à¦£à¦¸":1060,"à¦ĵà¦Ł":1061,"à¦°à¦Ŀ":1062,"à¦²à¦¡":1063,"à¦īà¦¬":1064,"à¦Ńà¦¬à¦¨":1065,"à¦¶à¦«":1066,"à¦¤à¦¯":1067,"à¦Ĩà¦¹à¦¤":1068,"à¦°à¦ĵà§Ł":1069,"à¦®à§Ł":1070,"à¦¸à¦¬à¦ļ":1071,"à¦°à¦īà¦ªà¦°":1072,"à¦ķà¦«":1073,"à¦ĸà¦°":1074,"à¦ıà¦®à¦ª":1075,"à¦ķà§Ł":1076,"à§©à§©":1077,"à¦Ĩà¦°à¦ı":1078,"à¦°à¦īà¦¨":1079,"à¦ĵà¦¡":1080,"à¦ľà¦¹":1081,"à¦ĩà¦ĸ":1082,"à¦ĩà¦«à¦¸":1083,"à¦ıà¦°à¦¸":1084,"à¦Ńà¦ķ":1085,"à¦£à¦¤":1086,"à¦ľà¦¨à¦¸":1087,"à¦¤à¦ªà¦°":1088,"à¦¬à¦Ĺ":1089,"à¦²à¦Ĩà¦²":1090,"à¦¡à¦ķà¦°":1091,"à¦¯à¦ĸà¦¨":1092,"à¦¤à¦¹à¦²":1093,"à¦ķà¦ł":1094,"à¦Ĩà¦§":1095,"à¦°à¦Ĺà¦ŀ":1096,"à¦ıà¦¶":1097,"à¦ĩà¦¥":1098,"à¦ĵà¦ªà¦°":1099,"à¦¤à¦ķà¦°à¦¤":1100,"à¦²à¦ªà¦°":1101,"à¦°à¦Ļ":1102,"à¦ľà¦Ĺ":1103,"à¦¡à¦Ł":1104,"à¦ħà¦¥à¦¬":1105,"à¦¤à¦ĸà¦¨":1106,"à¦ĵà¦ħà¦¨":1107,"à¦«à¦Ł":1108,"à¦°à¦īà¦ªà¦ľ":1109,"à¦ıà¦¡":1110,"à¦°à¦¬à¦ķ":1111,"à¦°à¦Ĩà¦¸":1112,"à¦°à¦¸à¦®à¦¯":1113,"à¦Ľà§ľ":1114,"à¦ķà¦²à¦ķ":1115,"à¦ĸà¦ķà¦°":1116,"à¦°à¦ļà¦¨":1117,"à¦ªà¦Ľà¦¨":1118,"à¦°à¦¦à¦°":1119,"à¦ŀà¦ª":1120,"à¦¨à¦¤à¦¬":1121,"à¦ķà¦ľà¦¨":1122,"à¦¦à¦£":1123,"à§Łà¦«":1124,"à¦īà¦¡":1125,"à¦Ĩà¦¹à¦®":1126,"à¦ħà¦ŀ":1127,"à¦°à¦¢":1128,"à§ªà§«":1129,"à¦ıà¦ķà¦®":1130,"à¦¸à¦®à¦°":1131,"à¦ıà¦Ń":1132,"à¦·à¦°":1133,"à§¬à§¦":1134,"à¦®à¦Ń":1135,"à¦ķà¦¡":1136,"à¦®à¦Ļ":1137,"à¦ļà¦²à¦ļ":1138,"à¦°à¦ĩà¦īà¦¨":1139,"à§ªà§©":1140,"à¦¨à¦§à¦°":1141,"à¦°à¦Ĩà¦ķ":1142,"à¦Ŀà¦¤":1143,"à¦°à¦ŀ":1144,"à¦®à¦Ł":1145,"à¦®à¦£":1146,"à¦°à¦Ĺà¦¤":1147,"à¦ıà¦°à¦ķ":1148,"à¦®à¦ĸ":1149,"à¦°à¦Ľà¦¬":1150,"à¦Łà¦Ń":1151,"à¦¹à¦ķà¦°":1152,"à¦°à¦ħà¦¸":1153,"à¦Ĺà¦ľ":1154,"à¦¤à¦¸à¦®":1155,"à¦Łà¦Ľ":1156,"à¦¨à¦Ĩà¦¬":1157,"à¦īà¦¸":1158,"à¦°à¦Ĩà¦¤":1159,"à¦¤à¦®à¦¨":1160,"à¦Ĩà¦ªà¦¡":1161,"à¦·à¦ľ":1162,"à¦īà¦ªà¦¨":1163,"à¦¶à¦ľ":1164,"à¦ĩà¦¸à¦®":1165,"à§Łà¦Ł":1166,"à¦²à¦ķà¦¡":1167,"à¦Ĩà¦«à¦Ĺ":1168,"à§¯à§¯":1169,"à¦¨à¦ķà¦®":1170,"à¦Ĩà¦°à¦¸":1171,"à¦¥à¦²":1172,"à¦²à¦ķà¦²":1173,"à¦ľà¦¨à¦¨":1174,"à¦Ĩà¦¨à¦¨":1175,"à¦§à¦¨à¦ķà¦°":1176,"à¦¯à¦ļ":1177,"à¦ľà¦¯":1178,"à¦®à¦«":1179,"à¦ļà¦²à¦¤":1180,"à¦¦à¦ķà¦®":1181,"à¦¸à¦¬à¦ķ":1182,"à¦°à¦Ĩà§Ł":1183,"à¦ĵà¦«":1184,"à§§à§¦à§¦":1185,"à¦°à¦ıà¦ĩ":1186,"à¦¹à§Łà¦ķ":1187,"à§§à§¯à§Ń":1188,"à¦¯à¦²":1189,"à¦¯à¦¸à¦®":1190,"à¦§à¦¸":1191,"à¦°à¦ªà¦¦":1192,"à¦¹à¦¹":1193,"à¦¬à¦°à¦ħ":1194,"à¦¨à¦ħà¦Ń":1195,"à¦ļà§Ł":1196,"à¦°à¦Ĩà¦¹":1197,"à¦¯à¦¤à¦®":1198,"à¦ľà§ľ":1199,"à¦°à¦¥à¦®à¦ª":1200,"à¦Ĩà¦°à¦ĵà¦ªà§ľ":1201,"à¦¬à¦§":1202,"à¦ĸà¦Ł":1203,"à¦ĩà¦īà¦°":1204,"à¦¨à¦ıà¦ķà¦Ł":1205,"à¦ıà¦°à¦¬":1206,"à¦¬à¦²à¦¬":1207,"à¦ħà¦ľ":1208,"à¦¹à¦ª":1209,"à¦¸à¦²à¦®":1210,"à¦¯à¦¹à¦¬":1211,"à¦īà§İ":1212,"à¦Ĩà¦¸à¦¤":1213,"à§¨à§¦à§§à§®":1214,"à¦Īà¦¶":1215,"à¦°à¦ł":1216,"à§ģà¦ĥ":1217,"à¦Ĺà¦¤à¦ķ":1218,"à¦£à¦Ń":1219,"à¦ĵà¦ķà¦°":1220,"à¦Ĺà¦Ń":1221,"à¦¦à¦¸à¦®":1222,"à¦¤à¦ıà¦¬":1223,"à¦¤à¦°à¦¬":1224,"à¦¶à¦Ń":1225,"à§¦à§Ń":1226,"à¦ľà¦ľ":1227,"à§¨à§¦à§§à§Ń":1228,"à§ľà¦¤":1229,"à¦ĩà¦¨à¦®":1230,"à¦ıà¦ĩà¦®":1231,"à¦¬à¦°à¦¸":1232,"à¦¨à¦ľà¦¨":1233,"à¦Łà¦¥":1234,"à¦Ľà¦¥":1235,"à¦®à¦¨à¦ķ":1236,"à¦§à¦ª":1237,"à§Łà¦ħà¦¨":1238,"à¦¸à¦¹à¦ľ":1239,"à¦īà¦°":1240,"à¦¨à¦ķà¦°à¦¤":1241,"à¦Ĩà¦¸à¦¬":1242,"à§©à§«":1243,"à¦ªà¦¨à¦ķà¦°":1244,"à¦Ĺà¦¤à¦¬":1245,"à¦Ńà§Ł":1246,"à¦ªà§ľà¦¤":1247,"à¦Ĳà¦¤":1248,"à¦¨à¦ĵà¦ª":1249,"à¦·à¦¥":1250,"à¦¦à¦Ĺ":1251,"à¦īà¦ªà¦ķ":1252,"à¦Ĺà¦¡":1253,"à¦ĩà¦¬à¦²":1254,"à¦«à¦¸":1255,"à¦°à¦ħà¦ª":1256,"à§Łà¦Ľ":1257,"à¦²à¦Ĩà¦®":1258,"à§§à§¯à§¯":1259,"à¦£à¦¦":1260,"à¦¬à¦¯":1261,"à¦Łà¦¶":1262,"à¦¨à¦¹à§Ł":1263,"à¦¸à¦¡":1264,"à¦¶à¦¥":1265,"à¦¬à¦ľà¦¨":1266,"à¦·à§Łà¦ķ":1267,"à¦Ĩà¦ļ":1268,"à¦°à¦Ĩà¦¦":1269,"à¦¥à¦ª":1270,"à¦Łà¦¸à¦®":1271,"à¦°à¦¹à¦¬":1272,"à¦°à¦ĵà¦ªà¦°":1273,"à§©à§§":1274,"à§Łà¦ĸ":1275,"à¦°à¦¸à¦®à¦¸":1276,"à¦Ĩà¦¸à¦¨":1277,"à¦¸à¦Ĺ":1278,"à¦ıà¦ĩà¦ķ":1279,"à¦°à¦Ĩà¦ĵà¦¤":1280,"à¦¤à¦¹à¦¤":1281,"à¦ĩà¦ªà¦°":1282,"à¦°à¦£à¦ķ":1283,"à§Łà¦ªà¦°":1284,"à¦ĵà¦ĸ":1285,"à¦¥à¦¤":1286,"à¦¨à¦¸à¦°à¦ķ":1287,"à¦¦à¦«":1288,"à¦¹à¦«":1289,"à¦¨à¦Ĩà¦®à¦°":1290,"à¦°à¦¦à¦²":1291,"à¦ıà¦°à¦®":1292,"à¦¡à¦Ń":1293,"à¦¹à§Łà¦¸":1294,"à§¨à§¦à§§à§©":1295,"à¦¬à¦ķà¦°":1296,"à¦°à¦Ĩà¦ĩà¦¨":1297,"à¦¬à¦¦à¦²":1298,"à¦°à¦¬à§Łà¦¸":1299,"à¦¦à¦Ł":1300,"à¦¦à¦ķà¦¬":1301,"à¦°à¦¨à¦Ń":1302,"à¦°à¦ľà¦®":1303,"à§İà¦¬":1304,"à¦¨à¦ħà¦¤":1305,"à¦°à¦¸à¦¬à¦ļ":1306,"à¦ıà¦°à¦Ĩà¦Ĺ":1307,"à¦ıà¦ĩà¦¦":1308,"à¦¨à¦ıà¦Ł":1309,"à¦ıà¦°à¦®à¦§":1310,"à¦®à¦Ľ":1311,"à¦®à¦¥":1312,"à¦²à¦ıà¦¬":1313,"à¦¨à¦Ĩà¦Ĺ":1314,"à¦¤à¦¦à¦¨":1315,"à¦Łà¦°à¦¸":1316,"à¦°à¦ħà¦¤":1317,"à¦°à¦ıà¦²":1318,"à§ľà¦Ľ":1319,"à§¦à§¬":1320,"à¦°à¦¹à¦¸":1321,"à¦£à¦ķà¦°":1322,"à¦¤à¦ħà¦¨":1323,"à¦¦à¦ĸ":1324,"à§¨à§¦à§§à§¬":1325,"à¦ĩà¦¸à¦¬":1326,"à¦ªà¦°à¦¬à¦°":1327,"à¦Ĩà¦ķà¦°":1328,"à¦¬à¦¬à¦°":1329,"à¦¹à¦¯à¦°à¦¤":1330,"à¦¤à¦°à¦ª":1331,"à¦°à¦ĵà¦¸":1332,"à¦°à¦¸à¦¦":1333,"à¦®à¦ªà¦°":1334,"à¦¸à¦¸à¦®":1335,"à¦®à¦¹à¦¤":1336,"à¦ªà¦ķà¦°":1337,"à¦¬à¦°à¦¬":1338,"à¦°à¦ıà¦¸":1339,"à¦¬à¦°à¦¦":1340,"à¦¨à¦¬à¦¬à¦¨":1341,"à¦¯à¦ªà¦°":1342,"à¦¯à¦ħà¦¨":1343,"à¦¹à¦¦":1344,"à¦ıà¦ķà¦¸":1345,"à¦Ńà¦ķà¦°":1346,"à¦ĵà¦Ĩà¦®":1347,"à¦Ĩà¦°à¦¤":1348,"à¦°à¦¹à¦²":1349,"à¦°à¦ĩà¦¨":1350,"à¦ħà¦¸à¦®":1351,"à¦°à¦ĩà¦®":1352,"à¦°à¦¸à¦ķà¦²":1353,"à¦¬à¦²à¦®":1354,"à¦Ĩà¦ĩà¦¸":1355,"à¦īà¦¦à¦¯":1356,"à¦Ĺà¦Ĺ":1357,"à¦¶à¦¹à¦°":1358,"à¦¥à¦¸":1359,"à¦Łà¦ļ":1360,"à§ªà§¬":1361,"à¦Łà¦ĸ":1362,"à¦®à¦¬à¦Ļ":1363,"à¦°à¦¥à¦®à¦¬":1364,"à¦¸à¦ł":1365,"à¦¶à¦¯":1366,"à¦¯à¦ıà¦ķà¦Ł":1367,"à¦¸à¦¶":1368,"à¦·à¦ķà¦¦":1369,"à¦ķà¦Ĩ":1370,"à§©à§Ń":1371,"à¦¨à¦§":1372,"à¦ĩà¦ŀ":1373,"à¦¯à¦Ľ":1374,"à¦¬à¦°à¦ª":1375,"à§¦à§¯":1376,"à¦¬à¦¤à¦¨":1377,"à¦¤à¦°à¦¦":1378,"à¦®à¦¸à¦®":1379,"à¦ĸà¦¬à¦°":1380,"à¦¤à¦¹à¦ļ":1381,"à¦ľà¦¨à¦Ĺà¦£":1382,"à§¨à§¦à§§à§ª":1383,"à¦¨à¦ľà¦°":1384,"à¦¬à§Ł":1385,"à¦°à¦ĩà¦¬à¦¨":1386,"à§¯à§®":1387,"à¦ªà¦·":1388,"à¦¦à¦°à¦ķ":1389,"à¦·à¦£à¦ķà¦°":1390,"à¦ļà¦¸":1391,"à¦ĵà¦ĩ":1392,"à¦ħà¦Ļ":1393,"à§Łà¦Ĩà¦ķ":1394,"à§¨à§¦à§§à§«":1395,"à¦ıà¦ĩà¦¨":1396,"à¦ħà¦Ł":1397,"à¦²à¦¨à¦ķ":1398,"à¦¬à¦ĩ":1399,"à¦¸à§ľà¦ķ":1400,"à¦°à¦ªà¦°à¦¤":1401,"à¦·à¦ªà¦°":1402,"à¦ªà¦Ĺ":1403,"à¦Ĩà¦ĩà¦ª":1404,"à¦°à¦ªà¦°à¦ª":1405,"à¦¨à¦¸à¦®à§Ł":1406,"à¦īà¦ªà¦°":1407,"à¦¸à¦ĸ":1408,"à¦¬à¦ļ":1409,"à¦ħà¦¦":1410,"à¦ĩà¦īà¦Ł":1411,"à¦¨à¦¬à¦°":1412,"à¦¦à¦¶à¦®":1413,"à§©à§ª":1414,"à¦Ĺà¦Ľ":1415,"à¦°à¦ķà¦¬":1416,"à¦ľà¦¥":1417,"à¦¹à¦ĩà¦¬à¦¨":1418,"à¦°à¦ľà¦¬":1419,"à§®à§®à§¦":1420,"à¦ĵà¦ľà¦¨":1421,"à¦°à¦Ĩà¦ªà¦¨":1422,"à¦ĩà¦¸à¦°":1423,"à¦¹à¦°à¦£":1424,"à¦ĵà¦Ľ":1425,"à§Łà¦Ĩà¦®":1426,"à¦ľà¦Ľ":1427,"à¦ľà¦ķà¦°à¦¤":1428,"à¦¤à¦¹à¦ĵà§Ł":1429,"à¦°à¦ķà¦¨":1430,"à¦°à¦¤à¦¬":1431,"à¦°à¦ĵà¦¯":1432,"à¦²à¦ĺ":1433,"à¦¦à¦¨à¦ķà¦°":1434,"à¦¨à¦ħà¦°":1435,"à¦īà§ľ":1436,"à¦°à¦Ĩà¦°à¦ĵ":1437,"à¦¦à¦¯":1438,"à¦¯à¦ĩ":1439,"à¦ıà¦ľ":1440,"à¦²à¦¹à¦ķ":1441,"à¦ªà¦ļ":1442,"à¦¨à¦¸à¦Ń":1443,"à¦°à¦¬à¦¸":1444,"à¦°à¦¹à¦¯":1445,"à¦¬à¦°à¦£":1446,"à¦ªà¦ľ":1447,"à¦ªà§ľà¦²":1448,"à¦ħà¦¥":1449,"à¦¨à¦Ĩà¦¹à¦®":1450,"à§Łà¦¥":1451,"à§«à§«":1452,"à§©à§¬":1453,"à¦°à¦·":1454,"à§Łà¦ıà¦¬":1455,"à§ªà§®":1456,"à¦ķà¦ħà¦¨":1457,"à¦¨à¦īà¦ª":1458,"à¦ķà¦ıà¦¬":1459,"à¦¸à¦¹à¦¯":1460,"à¦®à¦Ĩà¦®":1461,"à§§à§¨à§¦":1462,"à§Łà¦¸à¦®":1463,"à¦²à¦Ļ":1464,"à¦°à¦¨à¦¬":1465,"à¦¬à¦¸à¦¬":1466,"à¦²à¦¸à¦®":1467,"à¦Ĩà¦°à¦®":1468,"à¦°à¦ļà¦²":1469,"à¦¨à¦ĩà¦®":1470,"à¦°à¦ªà¦°à¦¬":1471,"à¦¥à¦Ĺ":1472,"à§Łà¦ıà¦ķ":1473,"à§ªà§Ń":1474,"à¦ĩà¦²à¦¸":1475,"à¦§à¦¦":1476,"à§ľà¦²":1477,"à§Łà¦£":1478,"à¦ĩà¦®à¦¨":1479,"à¦ķà¦ĵ":1480,"à¦¦à¦°à¦¬":1481,"à¦¦à¦¨à¦¬":1482,"à¦¦à¦ĩà¦¬à¦¨":1483,"à¦¨à¦®à¦¹":1484,"à¦¨à¦Ĩà¦°":1485,"à¦ķà¦¤à¦Ł":1486,"à¦ıà¦ĩà¦ļà¦ıà¦¸à¦¸":1487,"à¦¨à¦ĵà¦Ĺ":1488,"à¦¬à¦ĸ":1489,"à¦²à¦ķà¦ª":1490,"à¦¨à¦Ĩà¦¦":1491,"à¦ªà¦Ń":1492,"à¦¹à¦ĵà¦¯":1493,"à¦Łà¦¡":1494,"à¦°à¦Ī":1495,"à¦¶à¦ĸ":1496,"à¦°à¦°à¦¹":1497,"à¦¦à¦¨à¦ª":1498,"à¦Ĩà¦²à¦®":1499,"à¦°à¦¦à¦ķ":1500,"à¦¦à¦¨à¦¶":1501,"à¦¤à¦°à¦ķ":1502,"à¦ľà¦¨à¦¬":1503,"à¦¸à¦¹à¦ķ":1504,"à¦łà¦¶":1505,"à¦¹à§Łà¦¬":1506,"à¦¡à¦¹":1507,"à¦°à¦Ĩà¦Ľ":1508,"à¦¸à§ľ":1509,"à¦¯à¦Ĩà¦®":1510,"à¦ĺà¦¦":1511,"à¦°à¦Ĺà¦¨":1512,"à¦²à¦®à¦¨":1513,"à¦Ĩà¦ŀ":1514,"à§¯à§¦":1515,"à¦īà¦ľà¦¬":1516,"à¦¯à§Ł":1517,"à¦¯à¦ıà¦¬":1518,"à¦°à¦¥à¦®à¦¦":1519,"à¦Ĺà¦£à¦®":1520,"à¦¡à¦¦":1521,"à¦¨à¦Ĩà¦ľ":1522,"à¦®à¦Ĺà¦ŀ":1523,"à¦¶à¦¨à¦¸":1524,"à¦¶à¦¨à¦ķà¦°":1525,"à¦¥à¦°":1526,"à§©à§¨":1527,"à§Łà¦¡":1528,"à¦Ĺà¦ªà¦°":1529,"à¦ĩà¦ħà¦¨":1530,"à§ľà¦¬":1531,"à§İà¦¸à¦ķ":1532,"à¦°à¦ªà¦¶":1533,"à§Ńà§¦":1534,"à¦§à¦Ń":1535,"à§Łà¦¨à¦ªà¦°":1536,"à¦ıà¦¸à¦®":1537,"à¦°à¦¬à¦¹":1538,"à¦ªà¦¦à¦ķ":1539,"à¦ĩà¦¸à¦Ļ":1540,"à¦·à¦Ł":1541,"à¦°à¦ªà¦°à¦¸":1542,"à¦°à¦ħà¦¬":1543,"à¦īà§İà¦¸à¦¬":1544,"à¦¨à¦ĩà¦¬à¦¨":1545,"à¦īà¦Ń":1546,"à¦°à¦īà¦ļ":1547,"à¦łà¦ķà¦°":1548,"à¦Łà¦ªà¦°":1549,"à§ĩà§":1550,"à¦ľà¦ķà¦°à¦Ľ":1551,"à¦Ĩà¦²à¦¹":1552,"à¦¬à¦¸à¦®":1553,"à¦ĩà¦ı":1554,"à¦¦à¦Ń":1555,"à¦ķà¦°à¦ª":1556,"à¦¯à¦«":1557,"à¦ľà¦Ļ":1558,"à¦°à¦£à¦¬":1559,"à¦ªà¦ŀ":1560,"à¦Ĺà¦¥":1561,"à¦ĩà¦ıà¦ķ":1562,"à¦°à¦ĺà¦°":1563,"à§ĩà§Ĺ":1564,"à¦°à¦ļà¦°":1565,"à¦¹à¦ł":1566,"à¦°à¦£à¦®":1567,"à§©à§®":1568,"à¦ĩà¦²à¦«":1569,"à¦¬à¦Ł":1570,"à¦§à¦°à¦£":1571,"à¦°à¦Ĺà¦£":1572,"à§¯à§¬":1573,"à¦¸à¦¥":1574,"à¦²à¦¬à¦²":1575,"à¦Ĩà¦¹à¦®à¦¦":1576,"à¦°à¦®à¦ľ":1577,"à¦ıà¦¨à¦ı":1578,"à¦§à¦¬à¦¨":1579,"à¦²à¦Ĺà¦ŀ":1580,"à§¦à§«":1581,"à¦¨à¦¢":1582,"à¦ĩà¦Ĩà¦ªà¦¨":1583,"à¦·à¦Ń":1584,"à§Łà¦Ĩ":1585,"à¦§à¦¹à§Ł":1586,"à¦¼à§į":1587,"à¦ľà¦¨à¦¤":1588,"à¦¡à¦«":1589,"à¦²à¦ķà¦¬":1590,"à¦ļà¦¦":1591,"à¦¨à¦¹à¦²":1592,"à¦®à¦°à¦£":1593,"à¦²à¦ħà¦¨":1594,"à¦¸à¦¬à¦ľ":1595,"à¦ļà¦¯":1596,"à¦¡à¦°":1597,"à¦ĩà¦²à¦¬":1598,"à¦¨à¦īà¦¦":1599,"à¦°à¦ªà¦°à¦®":1600,"à¦¦à¦Ĩà¦²":1601,"à¦£à¦Ĺ":1602,"à¦īà§İà¦¸":1603,"à¦ľà¦¨à¦®":1604,"à¦¸à¦¤à¦°":1605,"à¦ĸà¦¸":1606,"à¦ķà¦ħ":1607,"à¦ĩà¦¨à¦ķ":1608,"à¦¶à¦®à¦ķ":1609,"à¦®à¦ıà¦¬":1610,"à¦£à¦°":1611,"à¦¡à¦¡":1612,"à¦¨à§Łà¦¨à¦ª":1613,"à¦¸à¦¹à¦¬":1614,"à§Łà¦ķà¦®":1615,"à¦®à¦ŀ":1616,"à¦ļà¦ª":1617,"à¦°à¦¸à¦¹à¦¯":1618,"à¦²à¦ĵà§Ł":1619,"à¦¨à§Łà¦¨à¦¬":1620,"à¦¨à¦¤à¦¥":1621,"à¦Ĩà¦¤à¦¸à¦®":1622,"à§¦à§§":1623,"à¦°à¦ªà¦°à¦¥":1624,"à¦°à¦£à¦ª":1625,"à¦¨à¦¨à¦¤":1626,"à¦§à¦¸à¦®":1627,"à¦¨à¦ªà¦¦":1628,"à¦ķà¦¬à¦°":1629,"à¦ľà¦¡":1630,"à¦¶à¦¨à¦ķ":1631,"à¦ĸà¦ª":1632,"à¦¤à¦¨à¦ķà¦°":1633,"à¦®à¦¬à¦²":1634,"à¦¸à¦®à¦ķ":1635,"à¦Ĺà¦£à¦¤à¦¨":1636,"à¦°à¦ĵà¦®":1637,"à¦Ĺà¦ķà¦°à¦¤":1638,"à§Ńà§«":1639,"à¦Ĩà¦ĩà¦¡":1640,"à¦Ŀà§ľ":1641,"à¦°à¦ħà¦«":1642,"à¦¨à¦Ĩà¦°à¦ĵ":1643,"à¦Ńà¦¦":1644,"à¦¡à¦Ĺ":1645,"à¦¶à¦¨à¦¬":1646,"à¦ıà¦¸à¦®à§Ł":1647,"à¦¬à¦°à¦¨à¦Ń":1648,"à¦²à¦¹à§Ł":1649,"à¦¨à¦ķà¦²":1650,"à¦¬à¦¸à¦ª":1651,"à¦¨à¦§à¦°à¦¨":1652,"à¦£à¦¹":1653,"à¦°à¦£à¦¤":1654,"à¦ĵà¦ıà¦ķ":1655,"à¦¨à¦ĩ":1656,"à¦®à¦īà¦¦":1657,"à¦¶à¦®à¦¶":1658,"à¦°à¦ķà¦°à¦Ľ":1659,"à¦ªà¦ªà¦°":1660,"à¦ĵà¦ıà¦ķà¦Ł":1661,"à¦ľà¦¨à¦Ĺ":1662,"à¦Ĩà¦°à¦¨":1663,"à¦¥à¦¦":1664,"à¦°à¦®à¦ª":1665,"à¦¨à¦ıà¦ĸ":1666,"à¦ıà¦ĺà¦Łà¦¨":1667,"à¦ħà¦¸à¦¹":1668,"à¦Ķ":1669,"à¦Ĩà¦ĸ":1670,"à¦¨à¦¸à¦¹":1671,"à¦°à¦Ĳ":1672,"à¦Ĩà¦Łà¦ķà¦ķà¦°":1673,"à¦¨à¦ħà¦ªà¦°":1674,"à¦ıà¦°à¦ªà¦°":1675,"à¦īà¦ªà¦¹":1676,"à¦¤à¦¨à¦¤":1677,"à¦ľà¦¨à¦¦":1678,"à¦°à¦¨à¦®":1679,"à¦Ĭ":1680,"à¦¸à¦ªà¦°":1681,"à¦¤à¦ıà¦ķà¦Ł":1682,"à¦ªà§Ł":1683,"à¦¾à§ĩ":1684,"à¦Īà¦®":1685,"à¦°à¦Ĺà¦°":1686,"à¦ĩà¦ķà¦®":1687,"à¦§à¦¶":1688,"à¦ıà¦°à¦¨":1689,"à¦°à¦ıà¦ķà¦®":1690,"à¦°à¦¥à¦®à¦¸":1691,"à¦¬à¦°à¦ħà¦ķ":1692,"à¦²à¦ĵ":1693,"à§Łà¦Ĩà¦°à¦ĵ":1694,"à¦ĩà¦¹à¦¬":1695,"à¦Ľà¦²":1696,"à¦®à§ľ":1697,"à¦ĩà¦ľà¦¨":1698,"à¦ĩà¦¨à¦«":1699,"à¦¬à¦¨à¦¯":1700,"à¦¬à¦Ľà¦°à¦ª":1701,"à¦¨à¦¹à¦¤":1702,"à¦®à¦£à¦¬":1703,"à¦®à¦¤à¦ª":1704,"à¦¿à¦ģ":1705,"à¦¤à¦°à¦¸":1706,"à¦¦à§Ł":1707,"à¦Ńà¦¬à¦¤":1708,"à¦¸à¦ħ":1709,"à¦ľà¦¨à¦¶":1710,"à¦°à¦°à¦ķ":1711,"à¦®à¦ĵ":1712,"à¦®à¦¤à¦¬":1713,"à¦¨à¦¸à¦¬":1714,"à¦°à¦ĵà¦ķ":1715,"à§ªà§ª":1716,"à¦ķà¦®à¦¨":1717,"à¦ľà§Łà¦¨":1718,"à¦Ĩà¦°à¦ĵà¦¬":1719,"à¦¦à¦¨à¦ľ":1720,"à¦¦à¦ļ":1721,"à¦Ĩà¦°à¦ª":1722,"à¦¨à¦Ĩà¦¨":1723,"à¦ıà¦ľà¦¨":1724,"à¦ĩà¦Łà¦¬":1725,"à¦¯à¦Ĩà¦ªà¦¨":1726,"à§Łà¦Ĩà¦¨":1727,"à¦Łà¦ĵà§Ł":1728,"à¦°à¦¸à¦ļ":1729,"à¦°à¦¶à¦ķ":1730,"à¦¸à¦¦à¦¸à¦¦à¦¸":1731,"à¦¯à¦ķà¦®":1732,"à¦ıà¦ķà¦¥":1733,"à¦¦à¦ķà¦¸":1734,"à¦¨à¦Ĩà¦ķ":1735,"à¦¨à¦·":1736,"à¦ķà¦·":1737,"à¦°à¦ıà¦ĩà¦¦":1738,"à¦ıà¦ĩà¦Ń":1739,"à§§à§¯à§®":1740,"à¦¬à¦°à¦ķ":1741,"à§¦à§ª":1742,"à¦¤à¦¨à¦¬":1743,"à¦¨à¦¸à¦°":1744,"à§©à§¯":1745,"à¦¸à¦¯":1746,"à¦ĸà¦¬à¦°à¦ª":1747,"à¦¨à¦Ĩà¦¸":1748,"à¦¬à¦°à¦®":1749,"à¦²à¦ħ":1750,"à¦¹à¦Ľ":1751,"à¦ĸà¦¯":1752,"à¦ĸà¦°à¦ļ":1753,"à¦°à¦®à¦°":1754,"à¦°à¦ĩà¦ļ":1755,"à¦ĩà¦ķà¦¬":1756,"à§Łà¦§":1757,"à¦ıà¦¸à¦ª":1758,"à¦¯à¦ħà¦§":1759,"à¦°à¦ķà¦°à¦²":1760,"à¦Ĩà¦ĺ":1761,"à§¬à§Ń":1762,"à¦Ĩà¦°à¦ĵà¦¬à¦²":1763,"à¦ķà¦¶à¦¨":1764,"à¦®à¦®à¦¤":1765,"à¦¨à¦ĵà¦¯":1766,"à¦¤à¦¡":1767,"à¦¨à¦ĵà¦¬":1768,"à§Łà¦®à¦¨":1769,"à¦¬à¦¨à¦¬":1770,"à¦¨à¦ĵà¦¸":1771,"à¦ķà¦¸à¦¹":1772,"à¦¶à¦ªà¦°":1773,"à¦°à¦¬à§ľ":1774,"à¦ıà¦ķà¦ĩ":1775,"à¦¨à¦°à¦¹":1776,"à¦°à¦£à¦¨":1777,"à¦²à¦ķà¦®":1778,"à§¦à§®":1779,"à¦ķà¦ħà¦«":1780,"à§«à§®":1781,"à¦Łà¦«à¦°":1782,"à¦¸à¦ŀ":1783,"à§Łà¦ħ":1784,"à¦¶à¦¨à¦¸à¦®":1785,"à¦¦à¦°à¦¹":1786,"à§Łà¦¨à¦¬":1787,"à¦§à¦ľ":1788,"à¦Łà¦ıà¦¬":1789,"à¦Ĺà¦¯":1790,"à¦°à¦¹à¦ķà¦°":1791,"à¦¨à¦ĵà§Ł":1792,"à¦¶à¦īà¦¦":1793,"à¦ļà¦¨à¦ķà¦°":1794,"à¦ıà¦°à¦¦":1795,"à¦¨à¦ķà¦¬":1796,"à¦ıà¦¸à¦ıà¦¸à¦¸":1797,"à¦ĸà¦¦":1798,"à¦ıà¦ĩà¦Ł":1799,"à¦¶à¦ļ":1800,"à§¨à§¦à§¨":1801,"à¦Łà¦¹à§Ł":1802,"à§«à§¦à§¦":1803,"à¦Ĳà¦ķ":1804,"à¦Łà¦¸à¦ħ":1805,"à§Łà¦£à¦Ĺà¦ŀ":1806,"à¦²à¦īà¦¦":1807,"à¦ıà¦°à¦ľà¦¨":1808,"à¦ļà¦¶":1809,"à¦§à¦¥":1810,"à¦¨à¦ķà¦°à¦²":1811,"à¦ĭà¦£":1812,"à¦ªà¦¯":1813,"à¦ĵà¦·":1814,"à¦ļà¦°à¦®":1815,"à§«à§¬":1816,"à¦ķà¦ħà¦°":1817,"à¦¤à¦Ĩà¦®":1818,"à¦Ľà¦¡":1819,"à¦°à¦Ĩà¦¯":1820,"à¦¨à¦ķà¦°à¦Ľ":1821,"à§Ŀ":1822,"à¦ĩà¦ıà¦ķà¦Ł":1823,"à§Łà¦¸à¦°à¦ķ":1824,"à¦ıà¦¨à¦ľ":1825,"à¦°à¦ħà¦ªà¦°":1826,"à¦°à¦ĩà¦¬":1827,"à¦īà¦°à¦°à¦¹à¦®":1828,"à§¨à§¦à§§à§¨":1829,"à§¨à§¦à§§à§§":1830,"à¦īà¦łà¦¤":1831,"à§ªà§§":1832,"à§¨à§¦à§¦à§¯":1833,"à¦ĵà§ľ":1834,"à¦°à¦¹à¦ĵà§Ł":1835,"à¦ĩà¦¨à¦ª":1836,"à¦ļà¦²à¦®":1837,"à¦¨à¦¶à¦¨":1838,"à¦ĩà¦Ĩà¦®à¦°":1839,"à¦«à¦ķ":1840,"à¦¹à§Łà¦ª":1841,"à¦°à¦ķà¦°à¦¬":1842,"à¦¨à¦ıà¦²":1843,"à¦Ľà¦¦":1844,"à¦¤à¦®à¦¬":1845,"à¦¶à¦¸à¦®":1846,"à¦°à¦īà¦²":1847,"à¦Ńà¦Ļ":1848,"à¦ıà¦ĩà¦°":1849,"à¦¥à¦¹à§Ł":1850,"à¦ħà¦ªà¦¸":1851,"à¦¸à¦Ľ":1852,"à¦°à¦¸à¦¤":1853,"à§ľà¦¯à¦¨":1854,"à§ªà§¯":1855,"à¦īà¦ªà¦¯":1856,"à¦¬à¦«":1857,"à§İà¦°":1858,"à¦¬à¦°à¦¥":1859,"à¦¹à¦°à¦¹":1860,"à¦ĩà¦ĺ":1861,"à¦¯à¦ķà¦°à¦¤":1862,"à¦¹à¦Ĺ":1863,"à¦ĵà¦¥":1864,"à¦°à¦ªà¦°à¦ĵ":1865,"à¦¨à¦ıà¦Ľ":1866,"à¦ļà¦²à¦¬":1867,"à§ªà§¨":1868,"à¦°à¦£à¦¸":1869,"à¦°à¦¸à¦®à¦°":1870,"à¦¨à¦ħà¦§":1871,"à¦ıà¦ķà¦ª":1872,"à¦°à¦ıà¦ķà¦¬":1873,"à¦¶à¦¨à¦¦":1874,"à¦ĩà¦®à¦°":1875,"à¦¨à¦ĵà¦®":1876,"à¦¤à¦Ĩà¦²":1877,"à¦°à¦īà¦ªà¦ķ":1878,"à¦¤à¦°à¦¬à¦Ļ":1879,"à¦¡à¦ıà¦¬":1880,"à¦¨à¦¸à¦¨":1881,"à¦¹à¦īà¦¦":1882,"à¦·à¦¶":1883,"à¦¬à§Łà¦¸":1884,"à¦Ĩà¦¤à¦Ļ":1885,"à¦¨à¦ĺ":1886,"à¦¨à¦¹à¦¬":1887,"à¦¬à¦°à¦¹":1888,"à¦¤à¦ķà¦®":1889,"à¦Łà¦¯":1890,"à¦°à¦īà§İ":1891,"à¦¦à¦Ĩà¦®":1892,"à¦ľà¦ļ":1893,"à¦ķà¦¹à§Ł":1894,"à¦Łà¦ħ":1895,"à¦Łà¦ķà¦°à¦¤":1896,"à¦°à¦ħà¦Ĺ":1897,"à¦¸à¦īà¦ªà¦ľ":1898,"à¦¯à¦ĵ":1899,"à¦¸à¦ķà¦°à¦¤":1900,"à¦¬à¦¨à¦ķ":1901,"à¦ħà¦¬à¦¦":1902,"à¦¨à¦¡à¦²":1903,"à¦°à¦ªà¦Ľà¦¨":1904,"à¦ķà¦Ĩà¦®":1905,"à¦ķà¦īà¦¦":1906,"à¦°à¦ĩà¦²":1907,"à¦ĵà¦ı":1908,"à¦¡à¦¶":1909,"à¦ķà¦¸à¦Ń":1910,"à¦¤à¦ķà¦°à¦¬":1911,"à¦°à¦¤à¦ª":1912,"à¦ħà¦¡":1913,"à¦ķà¦²à¦®":1914,"à¦Ĩà¦¬à¦¹":1915,"à¦¬à¦Ľà¦°à¦¬à§Łà¦¸":1916,"à¦¦à¦¨à¦ķ":1917,"à¦°à¦ªà¦°à¦¦":1918,"à¦²à¦¸à¦¹":1919,"à¦°à¦ķà§Ł":1920,"à§Ńà§§":1921,"à¦°à¦ıà¦ķà¦ľà¦¨":1922,"à§¨à§¦à§¦à§®":1923,"à¦«à¦Ń":1924,"à¦¸à¦ıà¦¬":1925,"à¦¶à¦¨à¦¶":1926,"à¦īà¦łà¦²":1927,"à¦¸à¦¬à¦¨":1928,"à¦ıà¦ķà¦°":1929,"à¦īà§Ł":1930,"à¦ıà¦ķà¦ķ":1931,"à¦ħà¦¬à¦¹":1932,"à¦®à¦ħà¦¨":1933,"à¦°à¦°à¦¸":1934,"à¦¸à¦Ĩà¦ŀ":1935,"à¦ľà¦Ń":1936,"à¦ıà¦°à¦¶":1937,"à§«à§¨":1938,"à¦²à¦Ĩà¦°":1939,"à¦Ĩà¦ĩà¦Ł":1940,"à§¬à§¬":1941,"à¦°à¦ĩà¦¸à¦²":1942,"à¦¶à¦¨à¦ª":1943,"à¦°à¦¤à¦°":1944,"à¦ıà¦ªà¦°":1945,"à¦§à¦Ł":1946,"à¦ĩà¦ıà¦ĩ":1947,"à¦°à¦ıà¦ķà¦¦":1948,"à¦¬à¦°à¦ħà¦ªà¦°":1949,"à¦®à¦°à¦¹":1950,"à¦®à¦Ĩà¦²":1951,"à¦¤à¦ĺ":1952,"à¦ľà¦«":1953,"à¦°à¦ļà¦Ł":1954,"à¦°à¦ıà¦®à¦¨":1955,"à¦ĩà¦¨à¦¡":1956,"à¦ªà§ľà¦Ľ":1957,"à¦¨à¦¨à¦¬":1958,"à¦Ĺà¦Ł":1959,"à¦ħà¦¬à¦°":1960,"à¦°à¦Ĩà¦®à¦°":1961,"à¦²à¦ķà¦ķ":1962,"à¦¤à¦Ĩ":1963,"à§©à§¦à§¦":1964,"à¦£à¦Ĩà¦«":1965,"à¦¸à¦°à¦¬à¦°":1966,"à§Łà¦ħà¦Ń":1967,"à¦Ĩà¦¨à¦¤":1968,"à¦Ńà¦®":1969,"à§«à§Ń":1970,"à¦¨à¦¦à¦²":1971,"à¦¤à¦®à¦¹":1972,"à¦ıà¦ĸà¦¨à¦ªà¦°":1973,"à¦¦à¦¨à¦¦":1974,"à¦ıà§Ł":1975,"à¦«à¦ĸà¦°":1976,"à¦¦à¦ķà¦ķ":1977,"à¦¤à¦°à¦£à¦ķà¦°":1978,"à¦Ĺà¦ļ":1979,"à¦ļà¦¨à¦ķà¦®":1980,"à¦ıà¦¸à¦ıà¦®":1981,"à¦°à¦ªà¦°à¦ķ":1982,"à¦ĵà¦ıà¦¬":1983,"à¦°à¦Ĩà¦²à¦®":1984,"à§Łà¦ķà¦°à¦¤":1985,"à¦ľà¦ĸ":1986,"à¦Ľà¦¤":1987,"à¦ķà¦Ĺà¦ŀ":1988,"à¦¬à¦ªà¦°":1989,"à§Łà¦¬à¦²":1990,"à¦īà¦ªà¦¦":1991,"à¦Ĩà¦ľà¦¬":1992,"à¦Ĩà¦ĩà¦¨à¦¶":1993,"à¦Ķà¦·":1994,"à¦Ĩà¦Ļ":1995,"à¦Ĩà¦ĵà¦¯":1996,"à¦°à¦ıà¦Ł":1997,"à¦¸à¦¬à¦¬":1998,"à¦¤à¦Ĩà¦Ľ":1999,"à¦īà¦ĩà¦¨":2000,"à¦¯à¦¬à¦§":2001,"à¦°à¦¯à¦¦":2002,"à¦ķà§ľ":2003,"à§Łà¦ıà¦ķà¦Ł":2004,"à¦¹à¦¤à¦°":2005,"à¦¸à¦ĵà§Ł":2006,"à¦®à¦¦à¦¸":2007,"à¦ĩà¦ıà¦¬":2008,"à¦ªà¦¹":2009,"à¦¦à¦¨à¦¸":2010,"à¦§à¦ķà¦°à¦¤":2011,"à¦īà¦Ĺ":2012,"à¦¬à¦¹à¦¨":2013,"à¦²à¦¹à¦¬":2014,"à¦¸à¦¬à¦¸à¦®à§Ł":2015,"à¦ĩà¦īà¦¸":2016,"à¦¨à¦¯à¦¦":2017,"à¦¯à¦¡":2018,"à¦Ĺà¦¶":2019,"à¦¤à¦°à¦ķà¦°":2020,"à¦ķà¦¸à¦®à§Ł":2021,"à¦·à¦¹à§Ł":2022,"à¦§à¦ıà¦¬":2023,"à¦°à¦¬à¦Ľ":2024,"à¦°à¦¤à¦ķ":2025,"à¦ªà§ľà¦¬":2026,"à¦¤à¦ıà¦ķ":2027,"à¦®à¦ķà¦®":2028,"à¦°à¦Ĩà¦ªà¦¡":2029,"à¦¬à¦°à¦°":2030,"à¦ĩà¦¨à¦¦":2031,"à¦ıà¦ĩà¦ļà¦¡":2032,"à¦Ĩà¦°à¦Ł":2033,"à§¨à§¦à§§à§¦":2034,"à¦¸à¦¬à¦®":2035,"à¦°à¦Ńà¦°":2036,"à§İà¦ķà¦°":2037,"à¦īà¦ªà¦¸à¦°":2038,"à¦¤à¦ķà¦°à¦£":2039,"à§ĩà¦¾à¦ģ":2040,"à¦¨à¦ĩà¦¤":2041,"à¦ķà¦Ĩà¦²":2042,"à¦ªà¦°à¦Ĺà¦¨":2043,"à¦Ńà¦¨":2044,"à¦ıà¦ķà¦¤":2045,"à§«à§¯":2046,"à¦¨à¦īà¦¤":2047,"à¦¤à¦¬à¦°":2048,"à¦ªà¦°à¦°":2049,"à¦°à¦£à¦ķà¦°à¦¤":2050,"à¦°à¦ĵà¦¨":2051,"à¦īà¦ªà¦Ń":2052,"à¦®à¦¤à¦ķ":2053,"à§Łà¦®à¦¨à¦¸":2054,"à¦°à¦ļà¦£":2055,"à¦Ĩà¦ĩà¦¨à¦ľ":2056,"à§Łà¦ħà¦°":2057,"à¦ĸà¦¨à¦¤":2058,"à¦¹à¦¬à¦§":2059,"à¦°à¦¸à¦ł":2060,"à¦ĩà¦²à¦ķà¦°":2061,"à¦¤à¦ĵ":2062,"à¦ĩà¦®à¦¸":2063,"à¦Ľà¦¹":2064,"à¦£à¦¶":2065,"à§¦à§©":2066,"à¦ķà¦Ĩà¦Ľ":2067,"à¦¦à¦Ľ":2068,"à¦°à¦®à¦¶":2069,"à§§à§¯à§Ńà§§":2070,"à¦¯à¦¸à¦¹":2071,"à¦Ĩà¦°à¦¦":2072,"à¦¥à¦®à¦¨":2073,"à¦Ľà¦ķ":2074,"à¦°à¦¹à¦ļ":2075,"à¦¯à¦¹à¦²":2076,"à¦·à¦¹":2077,"à¦¨à¦¬à¦¤":2078,"à¦®à¦ĩà¦¬à¦¨":2079,"à¦¶à¦ķà¦°à¦¤":2080,"à¦ļà¦ķà¦°":2081,"à¦¸à¦®à¦¨":2082,"à¦Ĺà¦®à¦¨":2083,"à¦Ńà¦¸":2084,"à¦¤à¦§à¦°":2085,"à¦²à¦ıà¦ķ":2086,"à¦Ĩà¦¬à¦°":2087,"à¦²à¦§":2088,"à¦Ĩà¦¦à¦°":2089,"à¦¸à¦¹à¦¸":2090,"à¦ıà¦¨à¦ıà¦¨à¦¬":2091,"à§°":2092,"à¦¤à¦¨à¦ª":2093,"à¦¬à¦¸à¦¤":2094,"à¦®à¦¨à¦¬":2095,"à¦°à¦ıà¦®à¦ª":2096,"à¦Ńà¦Ł":2097,"à¦Ĺà¦°à¦®":2098,"à¦ĩà¦¬à¦°":2099,"à¦¶à¦ķà¦®":2100,"à¦°à¦¤à¦²":2101,"à¦¹à§Łà¦¯":2102,"à¦¶à¦¨à¦¨":2103,"à¦°à¦ħà¦ķ":2104,"à¦¨à¦ıà¦¦":2105,"à¦ķà¦ħà¦¬à¦¸":2106,"à¦ľà¦²à¦¬":2107,"à¦°à¦¤à¦¦à¦¨":2108,"à¦°à¦Ĩà¦Ĺà¦¸":2109,"à¦ĵà¦®à¦¨":2110,"à¦°à¦£à¦ľ":2111,"à¦ĩà¦Łà¦Ĩà¦ĩà¦¨":2112,"à¦ĸà¦¬à¦°à¦¬":2113,"à¦·à¦ħà¦¤":2114,"à¦°à¦ªà§ľ":2115,"à¦°à¦ĩà¦¸":2116,"à¦®à¦ļà¦Ł":2117,"à§Łà¦Ĩà¦²":2118,"à¦°à¦ľà¦°":2119,"à¦°à¦Ĩà¦ĵà§Ł":2120,"à¦ľà¦Ĺà¦ŀ":2121,"à¦°à¦Ńà¦¬":2122,"à¦°à¦ĩà¦īà¦ª":2123,"à¦¶à¦ķà§Ł":2124,"à¦¸à¦ıà¦ķ":2125,"à¦¯à¦ħà¦°":2126,"à¦Ĺà¦ĸ":2127,"à¦īà¦ĸ":2128,"à¦°à¦Ĩà¦¨à¦¨":2129,"à¦¨à¦¸à¦ķ":2130,"à¦¶à¦®à¦īà¦¨":2131,"à¦¨à¦īà¦ªà¦ľ":2132,"à¦«à¦¹":2133,"à¦¹à§Łà¦®":2134,"à¦ķà¦®à¦¬":2135,"à¦¨à¦ł":2136,"à¦ķà¦¬à¦²":2137,"à¦¸à¦°à¦£à¦ķà¦°":2138,"à¦Łà¦ĵà¦¯":2139,"à¦°à¦ľà¦¨à¦ª":2140,"à¦°à¦¬à¦¡":2141,"à¦°à¦īà¦ªà¦¸":2142,"à¦°à¦Ĩà¦¹à¦®":2143,"à¦ıà¦¨à¦¸":2144,"à¦ļà¦«":2145,"à¦łà¦ª":2146,"à¦ĩà¦¨à¦ľ":2147,"à§«à§©":2148,"à¦¨à¦ļà¦²":2149,"à¦¤à¦¤à¦¥":2150,"à¦¨à¦¬à¦Ļ":2151,"à¦¨à¦ıà¦¤":2152,"à¦ĸà¦ĸ":2153,"à¦ĩà¦¸à¦ļ":2154,"à¦¨à¦ķà¦°à¦¬":2155,"à¦¯à¦ıà¦ķ":2156,"à¦ļà§ľ":2157,"à¦¨à¦ĩà¦¸à¦²":2158,"à¦ľà¦²à¦ª":2159,"à¦ıà¦ĩà¦Ĺ":2160,"à¦ıà¦ķà¦ľà¦¨à¦®":2161,"à¦ľà¦īà¦ªà¦ľ":2162,"à¦§à¦¹à¦¬":2163,"à¦Ĺà¦«":2164,"à¦¯à¦¹à§Ł":2165,"à¦°à¦Ĩà¦ľ":2166,"à¦°à¦¸à¦®à§Łà¦ķ":2167,"à¦¹à¦®à¦¦":2168,"à¦¨à¦ħà¦¬à¦¸":2169,"à¦²à¦¤à¦¬":2170,"à¦§à¦ĸ":2171,"à¦°à¦¤à¦¨":2172,"à¦°à¦¶à¦¹":2173,"à§«à§ª":2174,"à§¯à§®à§¨à§ª":2175,"à¦¤à¦¨à¦¸":2176,"à¦¤à¦°à¦®":2177,"à¦ĩà¦²à¦ķ":2178,"à¦·à¦Ĺ":2179,"à§Łà¦¬à¦°":2180,"à¦Ĺà¦£à¦¤":2181,"à¦¨à¦ıà¦®à¦¨":2182,"à¦¬à¦¥":2183,"à¦¦à¦°à¦ľ":2184,"à¦Łà¦ķà¦®":2185,"à¦¥à¦¹":2186,"à¦Ļà¦ļ":2187,"à¦ķà¦®à¦¤":2188,"à§³":2189,"à¦¸à¦ĵ":2190,"à¦®à¦ı":2191,"à¦«à¦«":2192,"à¦ıà¦ĸà¦¨à¦¸":2193,"à¦¨à¦¸à¦®à¦¸":2194,"à¦¦à¦Ĩà¦¤":2195,"à¦¦à¦ĸà¦²":2196,"à¦¶à¦ĵ":2197,"à¦Ĩà§ľ":2198,"à¦ħà¦¨à¦¨":2199,"à¦ķà¦¹à¦²":2200,"à¦¤à¦ħà¦Ń":2201,"à¦ķà¦ªà¦ł":2202,"à¦ıà¦ĸà¦¨à¦ķ":2203,"à¦¨à¦ıà¦¸":2204,"à¦ľà¦īà¦¦":2205,"à¦Ĩà¦¹à¦²":2206,"à§¨à§¦à§¦à§¦":2207,"à¦°à§Łà¦ķà¦°":2208,"à¦ĩà¦īà¦ı":2209,"à§Łà¦¢":2210,"à¦¹à¦°à¦¨":2211,"à¦ıà¦§à¦°à¦¨":2212,"à¦°à¦¶à¦¬":2213,"à¦ĩà¦¨à¦Ń":2214,"à§¬à§®":2215,"à§Ńà§¨":2216,"à§Ńà§©":2217,"à¦¨à¦īà¦¨":2218,"à¦ıà¦°à¦ļ":2219,"à¦¤à¦ıà¦ĩ":2220,"à¦ªà¦Ĺà¦ŀ":2221,"à¦ıà¦¯":2222,"à¦Ńà¦¯":2223,"à¦¬à¦£":2224,"à§Łà¦ĵ":2225,"à¦¶à¦Ľ":2226,"à¦¥à¦ķà¦°":2227,"à¦°à¦¬à¦¦à¦²":2228,"à§Łà¦¨à¦ķà¦°":2229,"à¦°à¦¸à¦®à§Łà¦¬":2230,"à¦Ĩà¦²à¦ķ":2231,"à¦ħà¦¬à¦®":2232,"à¦°à¦īà¦ªà¦¹":2233,"à¦¯à¦¹à¦¤":2234,"à¦Ĺà¦¸à¦®":2235,"à§Łà¦¸à¦Ń":2236,"à¦ĸà¦¬à¦°à¦ĵà¦¬":2237,"à¦²à¦¬à¦¨":2238,"à¦ĭà¦¤":2239,"à¦Ĩà¦®à¦²":2240,"à¦ıà¦ĩà¦¸à¦®à¦¯":2241,"à§¬à§«":2242,"à¦¨à¦¬à¦ľ":2243,"à§§à§¦à§¦à§¦":2244,"à¦ĩà¦«à¦¤":2245,"à¦ĩà¦²à¦Ł":2246,"à¦Ĺà¦¤à¦®":2247,"à¦Ĩà¦®à¦¦":2248,"à§¨à§¦à§¨à§¨":2249,"à¦®à¦¬à¦°":2250,"à¦®à¦Ĩà¦¬":2251,"à¦°à¦Ĩà¦ĺ":2252,"à¦ķà¦Ĩà¦Ĺ":2253,"à¦ĩà¦Ĩà¦²":2254,"à¦°à¦®à¦¸":2255,"à¦Ĺà¦¬à¦°":2256,"à§ĭà¦Ĥ":2257,"à¦«à¦¨":2258,"à¦ľà¦¸à¦¦":2259,"à¦Ĺà¦łà¦¨à¦ķà¦°":2260,"à¦¯à¦§à¦°":2261,"à¦°à¦«à¦°":2262,"à¦ķà¦¦à¦²":2263,"à¦ıà¦®à¦¨à¦ıà¦ķà¦Ł":2264,"à¦°à¦ıà¦ĩà¦¸":2265,"à¦°à¦¸à¦®à§Łà¦¸":2266,"à¦¸à¦Ĩà¦²":2267,"à¦¨à¦ıà¦ĸà¦¨":2268,"à¦¨à¦¹à¦¯":2269,"à¦īà¦ľà¦¡":2270,"à¦¬à¦Ĩà¦²":2271,"à¦¤à¦ħà¦°":2272,"à¦¸à¦¬à¦ª":2273,"à§¬à§ª":2274,"à¦¯à¦¸à¦°à¦ķ":2275,"à¦²à¦ķà¦°à¦¤":2276,"à¦²à¦Ĩà¦ľ":2277,"à¦¹à§Łà¦°":2278,"à¦·à¦£à¦¦":2279,"à¦¸à¦¹à¦¨":2280,"à¦¨à¦ĩà¦¨":2281,"à¦ķà¦Ĩà¦¤":2282,"à¦²à¦¹à¦²":2283,"à¦Ĩà¦®à¦¨":2284,"à¦Ĩà¦ĩà¦ľ":2285,"à¦°à¦ıà¦ĩà¦ª":2286,"à¦¤à¦°à¦¨":2287,"à¦¤à¦®à¦¸":2288,"à¦Ĩà¦¨à¦¸":2289,"à¦°à¦°à¦¶":2290,"à¦ıà¦ĩà¦ªà¦°":2291,"à¦¤à¦ªà§ľ":2292,"à§Łà¦¦à¦ª":2293,"à¦¨à¦°à¦¸":2294,"à¦¯à¦ħ":2295,"à¦ıà¦°à¦ĩ":2296,"à¦¡à¦ľ":2297,"à¦°à¦ıà¦ĸ":2298,"à¦¨à¦«à¦²":2299,"à¦¤à¦§":2300,"à¦²à¦ĵà¦¯":2301,"à¦£à¦«":2302,"à¦ıà¦ĸà¦¨à¦¬":2303,"à§Łà¦ĺ":2304,"à¦°à¦®à¦°à¦¦":2305,"à¦¬à¦¨à¦ķà¦°":2306,"à§Ńà§®":2307,"à¦¨à¦¶à¦°":2308,"à¦ķà¦ıà¦ķ":2309,"à¦¨à¦¤à¦ĸà¦¨":2310,"à¦°à¦Ńà§Ł":2311,"à§Łà¦¸à¦°":2312,"à¦ĩà¦ķà¦°à¦¤":2313,"à¦°à¦ľà¦¨à¦ķ":2314,"à¦°à¦Ĩà¦§":2315,"à¦Īà¦¦à¦®":2316,"à¦¤à¦ħ":2317,"à¦¸à¦°à¦£":2318,"à§Łà¦°à¦²":2319,"à¦§à¦°à¦¤":2320,"à¦¨à¦¬à¦¸":2321,"à¦¤à¦¬à¦¤":2322,"à§Łà¦Ĩà¦°":2323,"à¦¹à¦¶":2324,"à¦®à¦¹à¦²":2325,"à¦¯à¦¬à¦°":2326,"à¦«à¦°à¦¯":2327,"à¦°à¦ĵà¦¤":2328,"à¦ķà¦§":2329,"à¦Ĺà¦²à¦ķ":2330,"à§¦à§¨":2331,"à§¦à§§à§Ń":2332,"à¦°à¦¹à¦°":2333,"à§İà¦¨":2334,"à¦²à¦Ĩà¦¬":2335,"à¦¯à¦Ĩà¦²":2336,"à¦ĵà¦ħ":2337,"à¦ıà¦ĩà¦ľ":2338,"à¦ĩà¦ıà¦Ł":2339,"à¦°à¦ķà¦ķ":2340,"à¦ıà¦ķà¦¨":2341,"à¦²à¦¨à¦ķà¦°à¦¤":2342,"à¦®à¦¤à¦²":2343,"à¦¬à¦Ľà¦°à¦Ĩà¦Ĺ":2344,"à§¨à§¦à§¦à§§":2345,"à¦¦à¦¬à¦²":2346,"à¦®à¦¨à¦Ĺ":2347,"à¦°à¦¦à¦¤":2348,"à¦Ĩà¦°à¦ĵà¦ªà¦¡":2349,"à¦¨à¦ĺà¦Łà¦¨":2350,"à¦ıà¦ĩà¦¤":2351,"à¦¹à¦¤à¦¹à§Ł":2352,"à§Łà¦¨à¦¤":2353,"à¦°à¦¸à¦¹à¦ķ":2354,"à¦«à¦Ĺ":2355,"à¦²à¦ı":2356,"à¦ĩà¦¤à¦¬":2357,"à¦¨à¦ªà¦¤":2358,"à¦¬à¦Ľà¦°à¦§à¦°":2359,"à§¨à§¦à§¦à§¬":2360,"à¦¡à¦ħ":2361,"à¦¬à¦Ľà¦°à¦¬":2362,"à¦ħà¦¥à¦ļ":2363,"à¦¸à¦¨à¦ķ":2364,"à¦¦à¦īà¦²":2365,"à¦ľà¦ķà¦°à¦¬":2366,"à¦¶à¦ıà¦¬":2367,"à¦ĩà¦Ĩà¦Ĺ":2368,"à¦°à¦£à¦¦":2369,"à¦¤à¦¬à¦²":2370,"à¦ĩà¦ĵà§Ł":2371,"à¦ıà¦ķà¦ľà¦¨à¦¬":2372,"à§¨à§§à§®":2373,"à¦ªà¦¦à¦¤":2374,"à¦²à¦ıà¦ķà¦Ł":2375,"à¦ªà¦¨à¦¬":2376,"à¦¦à¦ıà¦¬":2377,"à¦¯à¦Łà¦¨":2378,"à¦Ĺà¦¹":2379,"à¦·à¦ķà¦¨":2380,"à¦ĸà¦²à¦®":2381,"à¦°à¦¬à¦Ļ":2382,"à¦°à¦ıà¦ĸà¦¨":2383,"à¦¯à¦¤à¦¥":2384,"à¦¨à¦ħà¦¸":2385,"à¦ķà¦ħà¦Ń":2386,"à¦®à¦Ĩà¦ľ":2387,"à§Łà¦Ĩà¦¸":2388,"à¦¸à¦¹à¦¦":2389,"à¦°à¦Ĩà¦¶à¦Ļ":2390,"à¦¦à¦¨à¦²":2391,"à¦°à¦Ĳà¦¤":2392,"à¦ľà¦¨à¦°":2393,"à¦Ĺà¦£à¦¨":2394,"à¦«à¦ľà¦²":2395,"à¦°à¦¨à¦Ĺ":2396,"à¦¬à¦¸à¦īà¦ªà¦²à¦ķ":2397,"à¦ĩà¦Łà¦¸":2398,"à¦°à¦¹à¦£à¦ķ":2399,"à¦¡à¦Łà¦ķà¦®":2400,"à¦ıà¦ķà¦¹":2401,"à¦¨à¦ķà¦¥":2402,"à§®à§®":2403,"à¦¤à¦ķà¦°à¦²":2404,"à¦¯à¦Ĩà¦¬":2405,"à¦ľà§Łà¦¦":2406,"à¦®à¦¨à¦¦":2407,"à¦ĩà¦¸à¦ª":2408,"à¦¨à¦Ĩà¦Ľ":2409,"à¦¤à¦ħà¦¬à¦¸":2410,"à¦°à¦ªà¦£":2411,"à¦°à¦ªà¦°à¦°":2412,"à¦²à¦ķà¦Ń":2413,"à¦°à¦ıà¦ĩà¦¬":2414,"à¦Ĺà¦¤à¦Ń":2415,"à¦¸à¦ķà¦®":2416,"à¦¦à¦¥":2417,"à¦·à§ľà¦¯à¦¨":2418,"à¦°à¦ıà¦ķà¦ª":2419,"à¦°à¦Ĺà¦¬":2420,"à¦ľà¦¸à¦®":2421,"à¦Ĩà¦°à¦¯":2422,"à¦Ĩà¦ĩà¦¬":2423,"à¦°à¦ħà¦¬à¦¶":2424,"à¦Ĺà¦¤à¦ľ":2425,"à¦¹à¦°à¦ķ":2426,"à¦ıà¦°à¦ķà¦®":2427,"à¦°à¦ķà¦ª":2428,"à§§à§§à§¦":2429,"à¦°à¦¦à¦°à¦ķ":2430,"à¦¸à¦¹à¦ª":2431,"à¦¨à¦ĵà¦ķ":2432,"à¦īà¦łà¦Ľ":2433,"à¦Ĩà¦ĩà¦¨à¦¬":2434,"à¦·à¦¦à¦¨":2435,"à¦°à¦¸à¦®à¦¨":2436,"à¦ĩà¦Ńà¦ķà¦°":2437,"à¦²à¦Ĺà¦¸":2438,"à¦ļà¦¡":2439,"à¦ķà¦¬à¦¨":2440,"à¦ķà¦¹à¦¬":2441,"à¦¬à¦°à¦¤":2442,"à¦ĩà¦īà¦ľ":2443,"à¦Ĩà¦ī":2444,"à¦¯à¦ĵà¦ª":2445,"à¦ĩà¦ĵ":2446,"à¦ĩà¦²à¦ª":2447,"à§ĩà¦ĥ":2448,"à¦¦à¦¡":2449,"à§Łà¦¤à¦¬":2450,"à¦Ĩà¦īà¦Ł":2451,"à¦¤à¦¨à¦ķ":2452,"à¦¤à¦ĵà¦ª":2453,"à¦®à¦°à¦¤":2454,"à¦ıà¦ĩà¦²":2455,"à¦¶à¦ħà¦¨":2456,"à¦Ĩà¦¶à¦°":2457,"à¦ıà§ľ":2458,"à¦Ńà¦ľà¦¨":2459,"à¦°à¦¥à¦®à¦®":2460,"à¦¬à¦ķà¦ķ":2461,"à¦Ĩà¦ĩà¦¨à¦Ĩà¦¦":2462,"à¦¶à¦¸à¦°à¦ķ":2463,"à¦°à¦®à¦¤à¦¬":2464,"à¦¬à¦¸à¦¨":2465,"à¦ĩà¦Łà¦¦":2466,"à¦²à¦ķà¦ªà¦²à¦ķà¦ª":2467,"à¦ķà¦īà¦¨":2468,"à¦Łà¦¹à¦¬":2469,"à¦Ĺà¦²à¦¨":2470,"à¦ıà¦®à¦¨à¦Ł":2471,"à¦ªà¦¦à¦¸":2472,"à¦¸à¦ķà¦²à¦ķ":2473,"à¦¨à¦¸à¦®à¦¯":2474,"à¦®à¦§à¦°":2475,"à¦§à¦²":2476,"à¦łà¦¬":2477,"à¦²à¦Ĺà¦²":2478,"à¦ıà¦¹":2479,"à¦ıà¦®à¦ķ":2480,"à¦Ľà¦¦à¦ľ":2481,"à¦°à¦®à¦ķà¦°":2482,"à¦¬à¦¨à¦¤":2483,"à¦°à¦ļà¦ķ":2484,"à¦°à¦ĩà¦ª":2485,"à§Łà¦¸à¦¬":2486,"à¦Ĩà¦¸à¦®":2487,"à¦ĩà¦¦à¦¹":2488,"à§¨à§®à§ªà§©":2489,"à¦¤à¦īà¦¦":2490,"à¦ĩà¦Ĩà¦¬":2491,"à¦·à¦¹à¦²":2492,"à¦ĵà¦Ĩà¦²":2493,"à¦°à¦ħà¦Ļ":2494,"à§«à§§":2495,"à¦¨à¦Ĩà¦ĵà§Ł":2496,"à¦°à¦¹à¦£à¦¯":2497,"à¦¨à¦ħà¦¥à¦¬":2498,"à¦ªà¦«":2499,"à¦¹à¦ķà¦¦":2500,"à¦ĩà¦ķà¦²":2501,"à¦ĵà¦¬à¦²":2502,"à¦¸à¦®à¦Ĺ":2503,"à¦¶à¦¨à¦Ł":2504,"à§§à§«à§¦":2505,"à¦ĩà¦Ĩà¦Ľ":2506,"à§¬à§¯":2507,"à¦¨à¦Ľà¦¬":2508,"à¦¨à¦īà¦ĩà¦ķ":2509,"à§Łà¦ıà¦ĩ":2510,"à¦ĩà¦¨à¦¤":2511,"à¦Ńà¦ª":2512,"à¦°à¦¥à¦®à¦ķ":2513,"à¦·à¦£à¦ķ":2514,"à¦·à¦£à¦ª":2515,"à§¨à§¦à§¦à§¨":2516,"à¦¡à¦¥":2517,"à¦°à¦ħà¦¨à¦²":2518,"à¦«à¦ª":2519,"à¦°à¦®à¦¬":2520,"à¦°à¦¤à¦¦":2521,"à¦Łà¦ĩà¦¨":2522,"à¦Ĺà¦²à¦ª":2523,"à¦¸à¦¹à¦ħà¦¨":2524,"à¦Ĩà¦°à¦ĵà¦¦":2525,"à¦¤à¦¨à¦®":2526,"à¦Łà¦ħà¦«":2527,"à§®à§¯":2528,"à§¬à§§":2529,"à§Ńà§Ń":2530,"à¦¦à¦®à¦¨":2531,"à§Łà¦®à¦¹":2532,"à¦ıà¦¤à¦¥":2533,"à¦°à¦ķà¦£":2534,"à¦¸à¦®à§Łà¦ķ":2535,"à¦°à¦¨à¦¦":2536,"à¦°à¦¥à¦®à¦¤":2537,"à¦ĩà¦²à¦®":2538,"à¦®à¦®à¦¹":2539,"à§ģà¦Ĥ":2540,"à¦ľà¦ªà¦°":2541,"à¦Ńà¦°à¦ķà¦°":2542,"à§İà¦¦":2543,"à¦°à¦ĸà¦¬à¦°":2544,"à§Łà¦¦à¦²":2545,"à¦¸à§ľà¦ķà¦¦":2546,"à¦¯à¦ĵà¦¸":2547,"à§Łà¦ıà¦¸":2548,"à¦Ĩà¦ªà¦¤":2549,"à¦Ĩà¦°à¦Ĩà¦®":2550,"à¦¶à¦¸à¦¦à¦¸":2551,"à¦Łà¦ħà¦¨":2552,"à¦§à¦Ĺ":2553,"à¦°à¦ªà¦°à¦¬à¦°":2554,"à¦ıà¦ķà¦¯":2555,"à¦¨à¦ķà¦¶":2556,"à¦°à¦ıà¦¨":2557,"à¦®à¦¦à¦®":2558,"à§¨à§¦à§¦à§Ń":2559,"à¦¦à¦ħà¦¨":2560,"à¦§à¦¹":2561,"à¦ıà¦ĸà¦¨à¦ĵ":2562,"à¦²à¦¹à¦¤":2563,"à¦¯à¦ķà¦°à¦¬":2564,"à¦Ľà¦ª":2565,"à¦¡à¦¤":2566,"à¦¬à¦²à¦¸":2567,"à¦¬à¦°à¦ªà¦°":2568,"à¦¦à¦¨à¦®":2569,"à¦«à¦ľ":2570,"à¦²à¦ķà¦¸":2571,"à¦¸à¦¬à¦¦":2572,"à¦¨à¦Ĺà¦°à¦¬":2573,"à§Łà¦¤à¦¥":2574,"à¦Ĩà¦¡":2575,"à¦ıà¦®à¦¬":2576,"à¦¨à¦Ĩà¦¤":2577,"à¦°à¦Īà¦¦":2578,"à¦¤à¦¨à¦¦":2579,"à¦ıà¦¤à¦¦":2580,"à¦°à¦¸à¦ª":2581,"à¦¬à¦°à¦¶":2582,"à¦²à§ľ":2583,"à¦°à¦Ĭ":2584,"à¦ıà¦ĩà¦¯":2585,"à¦¸à¦¬à¦¶":2586,"à¦Ĺà¦¤à¦¦":2587,"à¦¦à¦ĵ":2588,"à§ģà§į":2589,"à¦ĩà¦ļà¦²":2590,"à¦°à¦¤à¦¤":2591,"à¦¬à¦¨à¦¨":2592,"à¦°à¦ıà¦ķà¦¸":2593,"à¦īà¦ªà¦²à¦¬":2594,"à¦Ĩà¦¬à¦¶":2595,"à¦¤à¦ķà¦°à¦Ľ":2596,"à¦īà¦ľà¦Ł":2597,"à¦¬à¦°à¦¨":2598,"à¦ľà§Łà¦ª":2599,"à¦£à¦¸à¦®":2600,"à¦ıà¦ķà¦¸à¦Ļ":2601,"à¦ħà¦ªà¦Ł":2602,"à¦¬à¦°à¦Ĩà¦Ĺà¦¸":2603,"à¦¦à¦Ĩà¦¹à¦®":2604,"à¦°à¦ªà¦²":2605,"à¦ľà¦¨à¦ķà¦¨":2606,"à¦ıà¦¸à¦ıà¦«":2607,"à¦ıà¦ĸà¦¨à¦¤":2608,"à¦®à¦ĺ":2609,"à§Łà¦ªà¦¤":2610,"à¦°à¦¤à¦®":2611,"à¦°à¦¥à¦®à¦Ĩà¦²":2612,"à¦¨à¦ıà¦ĩà¦¬":2613,"à¦¹à¦¬à¦²":2614,"à¦Ĺà¦Ļ":2615,"à¦ĩà¦ıà¦¸":2616,"à¦¥à¦¬à¦Ľà¦°":2617,"à¦¦à¦ķà¦¦":2618,"à¦¤à¦®à¦ª":2619,"à¦¨à¦°à§Ł":2620,"à¦ĩà¦īà¦ķ":2621,"à¦¸à¦ħà¦¨":2622,"à¦¯à¦¬à¦²":2623,"à¦Ĩà¦ĩà¦ķ":2624,"à¦°à¦ªà¦°à¦¨":2625,"à¦Ŀà¦¡":2626,"à§Łà¦Ĩà¦¬":2627,"à¦Łà¦ĵ":2628,"à¦Ĩà¦°à¦¶":2629,"à¦¡à¦¯":2630,"à¦«à¦²à¦ª":2631,"à¦°à¦Ĩà¦¨à¦¤":2632,"à¦¤à¦¬à¦Ľ":2633,"à¦°à¦īà¦ªà¦¨":2634,"à¦·à¦£à¦¬":2635,"à¦ªà¦ķà¦®":2636,"à¦·à¦£à¦¨":2637,"à¦īà¦ľà¦ª":2638,"à¦¸à¦ķà¦°à¦²":2639,"à¦¯à¦ĩà¦¤":2640,"à¦°à¦®à¦¤à¦¨":2641,"à§§à§§à§¨":2642,"à¦°à¦ħà¦¶":2643,"à¦¸à¦¹à¦Ĩà¦Łà¦ķ":2644,"à¦ķà¦¤à¦¥":2645,"à¦°à¦ĭ":2646,"à¦¥à¦¶":2647,"à¦ĵà¦Ĩà¦ªà¦¨":2648,"à¦°à¦¹à¦£à¦ķà¦°à¦¤":2649,"à¦¤à¦¨à¦¨":2650,"à¦¸à¦«à¦²":2651,"à¦ĩà¦§à¦°":2652,"à¦ĸà¦£":2653,"à¦ħà¦¯":2654,"à¦¬à¦°à¦¡":2655,"à¦ĵà¦ĩà¦¬":2656,"à§¦à§¦à§¦à§¦":2657,"à¦¬à¦ĩà¦Ł":2658,"à¦¶à¦Ļ":2659,"à¦ĩà¦īà¦¤":2660,"à¦ĸà¦¡":2661,"à¦¨à¦ªà¦Ľà¦¨":2662,"à¦¬à¦ıà¦¬":2663,"à¦¸à¦īà¦¦":2664,"à¦Łà¦ķà¦²":2665,"à¦¶à¦¡":2666,"à¦Ĺà¦¸à¦Ń":2667,"à¦«à¦¸à¦²":2668,"à¦¬à¦¨à¦§":2669,"à¦¤à¦¦à¦ĸà¦²à¦®":2670,"à¦ľà¦Ĩà¦ªà¦¨":2671,"à¦ĩà¦¹à¦²":2672,"à¦¨à¦ħà¦¨à¦²":2673,"à¦ıà¦ķà¦ĩà¦¸à¦Ļ":2674,"à¦¤à¦°à¦¤":2675,"à¦£à¦ļ":2676,"à¦°à¦¨à¦¨":2677,"à¦ĩà¦¨à¦¨":2678,"à¦ĩà¦¸à¦¨":2679,"à¦ķà¦®à¦²":2680,"à¦°à¦²à¦ķà¦¡":2681,"à¦®à§Łà¦®à¦¨à¦¸":2682,"à¦¨à¦ıà¦ķà¦ľà¦¨":2683,"à¦²à¦°à¦ļà¦¨":2684,"à¦Łà¦ĩà¦¤":2685,"à§§à§¨à§§":2686,"à¦¬à¦²à¦¨":2687,"à§Ńà§¬":2688,"à¦°à¦°à§Ł":2689,"à¦°à¦«à¦¤":2690,"à¦¨à¦īà¦²":2691,"à¦¸à¦¨à¦ª":2692,"à¦ıà¦®à¦¸":2693,"à¦¼à¦Ĥ":2694,"à¦®à¦¨à¦Ł":2695,"à¦°à¦¶à¦¹à¦°":2696,"à¦ĩà¦ķà¦¥":2697,"à¦ķà¦¡à¦ĩà¦¨":2698,"à¦¹à¦Ĩà¦²":2699,"à¦ľà¦ĵà¦ķ":2700,"à¦ĩà¦²à¦¨":2701,"à¦¥à¦Ń":2702,"à¦ıà¦ķà¦¶":2703,"à¦ķà¦®à¦¹":2704,"à¦°à¦īà§İà¦¸":2705,"à¦Ĺà¦£à¦ªà¦°":2706,"à¦°à¦īà¦ªà¦°à¦¨":2707,"à¦¡à¦īà¦¤":2708,"à§Ĥà¦ģ":2709,"à¦¤à¦°à§Ł":2710,"à¦°à¦°à¦¬":2711,"à¦¤à§İà¦ķ":2712,"à¦Ĺà¦²à¦®":2713,"à¦°à¦ľà¦²":2714,"à¦ĩà¦¨à¦ķà¦°":2715,"à§İà¦ľ":2716,"à¦°à¦¸à¦¹à¦¸à¦Ń":2717,"à¦¬à¦ĩà§Ł":2718,"à¦¹à¦¨à¦ķ":2719,"à¦°à¦ľà¦¨à¦Ĺà¦£":2720,"à¦°à¦«à¦°à¦®":2721,"à¦¨à¦¯à¦¥":2722,"à¦Ĩà¦°à¦ĵà¦ľ":2723,"à¦¨à¦ĩà¦īà¦¨":2724,"à¦·à¦ĸà¦¬à¦°":2725,"à¦¥à¦ķà¦¦":2726,"à¦ĵà¦ķà¦¨":2727,"à¦«à¦®":2728,"à¦°à¦ķà¦°à¦£":2729,"à¦ıà¦ĩà¦¸à¦®à§Ł":2730,"à¦¦à¦¨à¦ĸ":2731,"à¦¯à¦¸à¦ļ":2732,"à¦¨à¦ħà¦ª":2733,"à¦¬à¦ĩà¦¬":2734,"à¦ĵà¦ħà¦Ń":2735,"à¦ĵà¦®à¦°":2736,"à¦²à¦ķà¦¨":2737,"à¦Ĩà¦ĩà¦¨à¦ª":2738,"à¦¯à¦ĸà¦¨à¦¤":2739,"à¦¨à¦«à¦°":2740,"à¦ªà¦Ľ":2741,"à¦¦à¦²à¦ķ":2742,"à¦¯à¦ľà¦¨":2743,"à¦°à¦ıà¦ĩà¦ļ":2744,"à¦°à¦Ĺà¦ł":2745,"à¦¶à¦¨à¦Ĺ":2746,"à¦¦à¦ķà¦ĵà¦ª":2747,"à¦ıà¦¸à¦ķ":2748,"à¦¨à¦ıà¦¨":2749,"à¦¤à¦°à¦ĵ":2750,"à¦¶à¦ķà¦¦":2751,"à¦£à¦ªà¦°":2752,"à§ľà¦®":2753,"à§ľà¦¦":2754,"à¦¸à¦¹à¦®":2755,"à¦¨à§Łà¦¨à¦ªà¦¤":2756,"à¦¸à¦ı":2757,"à¦®à¦¦à¦¨":2758,"à¦¹à¦Ń":2759,"à¦°à¦¹à¦ķ":2760,"à¦¹à§Łà¦ıà¦¬":2761,"à¦¹à¦¤à¦¦":2762,"à¦°à¦¯à¦¤":2763,"à¦²à¦Ĩà¦¹à¦®":2764,"à¦ªà¦ħà¦¨":2765,"à¦¯à¦§":2766,"à¦Ĩà¦ĩà¦Ń":2767,"à¦°à¦Ĩà¦ļ":2768,"à¦Ŀà¦°":2769,"à¦ĸà¦¬à¦°à¦¦":2770,"à¦¨à¦ıà¦ĩà¦¸à¦®à¦¯":2771,"à¦ĩà¦īà¦ıà¦¨à¦ĵ":2772,"à¦°à¦°à¦®":2773,"à¦ķà¦ĵà¦¸":2774,"à¦°à¦ıà¦ª":2775,"à¦¤à¦®à¦®":2776,"à¦¨à¦ıà¦®à¦ª":2777,"à¦īà¦Ńà¦¯":2778,"à¦¬à¦ŀ":2779,"à¦Ĩà¦ĩà§Ł":2780,"à¦Ľà¦Ł":2781,"à¦·à¦ļ":2782,"à¦ĵà¦¹à¦¤":2783,"à¦ĩà¦¨à¦¶":2784,"à§®à§«":2785,"à¦ĩà¦¬à¦ķà¦°":2786,"à¦¯à¦¤à¦Ł":2787,"à¦ķà¦ķà¦®":2788,"à§Łà¦Ĩà¦Ľ":2789,"à¦ļà¦Ĺ":2790,"à¦ħà¦¬à¦²à¦®":2791,"à¦īà¦ĩà§Ł":2792,"à¦łà¦¤":2793,"à¦łà¦¸":2794,"à¦¨à¦®à¦ľ":2795,"à¦ĩà¦®à¦ª":2796,"à§®à§®à§¦à§§à§Ń":2797,"à¦¨à¦ħà¦¬":2798,"à¦®à¦ĩ":2799,"à§Łà¦Ĩà¦®à¦°":2800,"à¦īà¦¥":2801,"à¦Ĩà¦ľà¦¸":2802,"à¦ªà¦£à¦ķà¦°":2803,"à¦¸à¦«à¦°":2804,"à¦Łà¦ĩ":2805,"à¦ĵà¦¬à¦¨":2806,"à¦²à¦¬à¦ķ":2807,"à¦®à¦¤à¦¦":2808,"à§Łà¦¦à¦«":2809,"à¦ķà¦ĵà¦®":2810,"à§Łà¦ķà¦¸":2811,"à¦£à¦®à¦¨":2812,"à¦¦à¦ķà¦ľ":2813,"à¦Ĩà¦¨à¦¹":2814,"à¦°à¦Ĭà¦°":2815,"à¦¬à¦ķà¦®":2816,"à¦¤à¦¸à¦°":2817,"à§Łà¦Ĺà¦ŀ":2818,"à¦ĩà¦ħ":2819,"à¦·à¦¸à¦®":2820,"à¦īà¦¸à¦®":2821,"à¦¸à¦¹à¦Ĺ":2822,"à¦ıà¦ķà¦ľà¦¨à¦ķ":2823,"à¦¨à¦°à¦¬":2824,"à§Łà¦Ĩà¦Ĺ":2825,"à¦Łà¦ı":2826,"à¦ĩà¦¹à§Ł":2827,"à¦ļà¦¹":2828,"à¦°à¦ªà¦ł":2829,"à¦°à¦Ĩà¦®à¦²":2830,"à¦°à¦ĵà¦¦":2831,"à§Łà¦¤à¦ª":2832,"à§Łà¦ªà§ľ":2833,"à¦Ĩà¦ķà¦¬":2834,"à¦ļà¦£":2835,"à¦ļà¦ķà¦¨":2836,"à¦§à¦Ľ":2837,"à¦łà¦¦":2838,"à¦°à¦¦à¦°à¦ľ":2839,"à§İà¦®":2840,"à¦²à¦¸à¦¬":2841,"à¦Ĺà¦ªà¦¤":2842,"à¦īà¦ĩ":2843,"à¦°à¦ªà¦°à¦¶":2844,"à¦°à¦ħà¦¡":2845,"à¦¦à¦¨à¦ķà¦°à¦¤":2846,"à¦ıà¦¤à¦Ł":2847,"à¦¯à¦ķà¦²":2848,"à¦°à¦¸à¦«":2849,"à¦°à¦®à¦¡":2850,"à¦°à¦ªà¦ŀ":2851,"à§¨à§©à§¦":2852,"à¦īà¦ĩà§Łà¦°":2853,"à¦ķà¦£":2854,"à¦¬à¦ªà¦¨":2855,"à¦¸à¦°à¦ŀ":2856,"à¦®à¦ħ":2857,"à¦°à¦¤à¦°à¦«":2858,"à¦¨à¦¤à¦¨":2859,"à¦¨à§ľ":2860,"à¦¯à¦ĵà¦¯":2861,"à¦Łà¦ıà¦ķ":2862,"à¦¶à¦®à¦¨":2863,"à¦ļà¦Ĺà§ľ":2864,"à¦ĸà¦¥":2865,"à¦¨à¦¬à¦Ľà¦°":2866,"à¦¨à¦¨à¦®":2867,"à¦°à¦Ĩà¦ĩà¦¨à¦ľ":2868,"à¦·à¦ķà¦ķ":2869,"à¦§à¦¨à¦¸":2870,"à¦¥à¦¥":2871,"à¦Ĺà¦ıà¦¬":2872,"à§¨à§¦à§¦à§«":2873,"à¦¨à¦ħà¦Ł":2874,"à¦¤à¦Ĩà¦¸":2875,"à¦¤à¦Ĩà¦°à¦¬":2876,"à§Łà¦¨à¦¸":2877,"à¦īà¦¹":2878,"à¦°à¦¬à¦Ľà¦°":2879,"à¦ľà¦¨à¦ıà¦¬":2880,"à¦¬à¦¸à¦¹à¦ľ":2881,"à§ªà§¦à§¦":2882,"à¦¤à¦¨à¦¯":2883,"à¦¨à¦Ĩà¦¶":2884,"à¦ĩà¦Łà¦ħà¦ªà¦Ł":2885,"à¦ĩà¦ľà¦¡à¦ıà¦¬":2886,"à¦ĩà¦Ńà¦Ł":2887,"à¦¬à¦ħà¦¨":2888,"à¦¨à¦ķà¦²à¦ķ":2889,"à¦²à§Łà¦¥":2890,"à¦Ĩà¦ĩà¦¨à¦®à¦¨":2891,"à¦ıà¦¡à¦ľà¦ĵà¦ķ":2892,"à¦¯à¦ķà¦®à¦ª":2893,"à¦¤à¦ķà¦¬":2894,"à¦¸à¦¬à¦¸":2895,"à¦Ńà¦°à¦¶":2896,"à¦®à¦¨à¦ª":2897,"à¦¶à¦ķà¦¶":2898,"à¦¤à¦¹à§Łà¦¨":2899,"à¦°à¦®à¦£à¦ķ":2900,"à¦ķà¦Ĩà¦¨":2901,"à¦¤à¦¬à¦¨":2902,"à¦®à¦ĩà¦®":2903,"à¦ªà¦ĸ":2904,"à¦¦à¦Ĺà¦ŀ":2905,"à¦¹à¦ĸ":2906,"à¦¡à¦ķà¦°à¦¤":2907,"à¦£à¦ľ":2908,"à¦°à¦ľà§Ł":2909,"à¦¨à¦¬à¦ķ":2910,"à¦ıà¦ĩà¦¹":2911,"à¦ħà¦ªà¦®":2912,"à¦ıà¦¸à¦¬à¦ķà¦¥":2913,"à¦°à¦ĸà¦¬à¦°à¦ª":2914,"à¦¯à¦Ŀ":2915,"à¦·à§Łà¦¨":2916,"à§ľà¦ķà¦°":2917,"à¦®à¦¨à¦¯":2918,"à§§à§ªà§¨à§®":2919,"à¦¹à¦Ł":2920,"à¦¶à¦ķà¦°à¦²":2921,"à¦ĩà¦Ĩà¦¸":2922,"à¦§à¦ĺ":2923,"à¦°à¦¬à¦£à¦¤":2924,"à¦°à¦ıà¦ķà¦¨":2925,"à¦°à¦īà¦ªà¦¦":2926,"à§¬à§¨":2927,"à¦°à¦īà¦ªà¦°à¦¹":2928,"à¦ķà¦¨à¦¸":2929,"à¦¸à¦ĩà¦®":2930,"à¦Łà¦¨à¦®":2931,"à§İà¦ªà¦°":2932,"à¦¨à¦Ĺà¦¤":2933,"à¦¬à¦ĵà¦ª":2934,"à¦¤à¦ķà¦²":2935,"à¦§à¦¯":2936,"à¦īà§İà¦ķ":2937,"à¦°à¦Ĩà¦°à¦ķ":2938,"à¦°à¦£à¦Ń":2939,"à¦ķà¦¬à¦Ľ":2940,"à¦ķà¦ĵà¦¬":2941,"à¦¤à¦Ĩà¦°":2942,"à¦ªà¦¸à¦®":2943,"à§Łà¦¬à¦¨":2944,"à¦Łà¦¸à¦°":2945,"à¦ľà¦Ĺà¦¤":2946,"à¦ļà¦¥":2947,"à¦ļà¦¨à¦¨":2948,"à¦£à¦Ĩà¦¦":2949,"à§ľà¦ª":2950,"à¦¬à¦¨à¦°":2951,"à¦°à¦ħà¦®":2952,"à¦ĩà¦¸à¦¹":2953,"à¦°à¦Ĺà¦Ń":2954,"à¦®à¦¶à¦¤à¦¬":2955,"à¦¤à¦ĸà¦¨à¦¤":2956,"à¦Ĭà¦°":2957,"à¦¸à¦§à¦°":2958,"à¦¯à¦®à¦¤":2959,"à¦¯à¦Ĩà¦®à¦°":2960,"à¦¹à¦¸à¦°à¦ķ":2961,"à¦Ĺà¦¤à¦¸":2962,"à¦¡à¦ļ":2963,"à¦īà¦·":2964,"à¦īà¦ĩà¦¸":2965,"à¦°à¦ªà¦¦à¦¤":2966,"à¦°à¦£à¦¹":2967,"à¦¬à¦Ĩà¦®":2968,"à¦²à¦¨à¦ª":2969,"à¦¦à¦°à¦ª":2970,"à¦·à¦ķà¦¸":2971,"à¦£à¦Ł":2972,"à¦°à¦ļà¦¤":2973,"à¦¨à¦®à¦¤":2974,"à¦°à¦¯à¦¥":2975,"à¦¨à¦Ĩà¦¹à¦®à¦¦":2976,"à¦ĸà¦¬à¦°à¦¨":2977,"à¦£à¦¬à¦Ļ":2978,"à¦ķà¦¹à¦¤":2979,"à¦®à¦¹à§Ł":2980,"à¦Ĺà¦Ĩà¦¨":2981,"à¦ıà¦°à¦ľ":2982,"à¦·à¦ķà¦®":2983,"à¦īà¦¶":2984,"à¦®à¦¨à¦®":2985,"à¦īà¦łà¦¬":2986,"à¦§à¦¨à¦ķà¦°à¦²":2987,"à¦ķà¦ĩà¦¤":2988,"à¦¬à¦°à¦¸à¦ķ":2989,"à¦¤à¦°à¦¥":2990,"à¦¤à¦ĵà¦¬":2991,"à§Łà¦ħà¦¸":2992,"à¦ĺà¦®":2993,"à¦°à¦ħà¦²":2994,"à¦ıà¦ĩà¦¡":2995,"à¦¸à¦¬à¦Ĺ":2996,"à¦²à¦¤à¦ª":2997,"à¦ĩà¦Łà¦Ĺ":2998,"à¦¨à¦¹à¦ĵà§Ł":2999,"à¦¬à¦ıà¦ķà¦Ł":3000,"à¦Łà¦ıà¦ķà¦Ł":3001,"à¦ķà¦°à¦¦":3002,"à¦§à¦¨à¦¬":3003,"à¦¥à¦¨à¦ķà¦°":3004,"à¦ħà¦ļ":3005,"à¦°à¦®à¦ªà¦°":3006,"à¦°à¦ıà¦¦":3007,"à¦°à¦«à¦¯":3008,"à¦¦à¦²à¦Ł":3009,"à¦°à¦ĵà¦ªà¦°à¦¨":3010,"à§ĩà§Ĺà¦ģ":3011,"à¦¦à¦°à¦®":3012,"à¦ĩà¦§":3013,"à¦Ĩà¦°à¦°":3014,"à¦£à¦¯":3015,"à¦®à¦¨à¦¤":3016,"à¦łà¦²":3017,"à¦Ĩà¦®à¦°à¦ĩà¦¬à¦¨":3018,"à¦¨à¦¸à¦¡":3019,"à¦¶à¦¨à¦®":3020,"à¦·à§Łà¦Ĺ":3021,"à¦¬à¦ĺ":3022,"à¦¤à¦°à¦ľ":3023,"à¦¤à¦®à¦¤":3024,"à¦ľà¦ıà¦¬":3025,"à¦ĩà¦¸à¦®à§Ł":3026,"à¦Ĩà¦°à¦ľ":3027,"à¦ĵà¦ķà¦®":3028,"à¦¬à¦¨à¦¸":3029,"à¦°à¦Ĩà¦Łà¦ķ":3030,"à¦¹à§Łà¦¤à¦¬":3031,"à¦°à¦ĩà¦ķ":3032,"à¦¤à¦®à¦¶":3033,"à¦ıà¦ĸà¦¨à¦ª":3034,"à¦¤à¦¹à¦ĵà¦¯":3035,"à¦ķà¦ħà¦§":3036,"à¦¬à¦°à¦Ĺ":3037,"à¦¯à¦¤à¦¬":3038,"à¦ļà¦¨à¦ķ":3039,"à¦¹à§Łà¦¦":3040,"à¦ıà¦ĩà¦¶":3041,"à¦¬à¦°à¦ľ":3042,"à¦²à§Łà¦¬":3043,"à¦Łà¦¬à¦°":3044,"à¦ĸà¦¶":3045,"à¦ĵà¦ĩà¦¨":3046,"à¦¨à¦¸à¦¤":3047,"à§¯à§Ń":3048,"à¦¦à¦ķà¦ĵà¦¬":3049,"à§¨à§¦à§¦à§©":3050,"à¦¯à¦Ľà¦¬":3051,"à§Łà¦¬à¦¸":3052,"à¦¶à¦ķà¦°à¦¬":3053,"à¦ľà¦¨à¦ķà¦°à¦¤":3054,"à¦°à¦¹à¦¨":3055,"à¦¹à§Łà¦¶":3056,"à¦¨à¦¸à¦Ļ":3057,"à¦¨à¦ĵà¦¤":3058,"à¦ķà¦ĺ":3059,"à¦¸à¦¬à¦²":3060,"à¦ªà§Łà¦¸":3061,"à¦¦à¦°à¦¸":3062,"à¦·à¦Ľ":3063,"à¦ĵà¦Ĩà¦Ľ":3064,"à¦ıà¦ķà¦ľ":3065,"à¦°à¦¨à¦ľ":3066,"à¦ĩà¦¨à¦°":3067,"à§¯à§«":3068,"à¦¨à¦ıà¦°à¦ª":3069,"à¦ıà¦®à¦ıà¦®":3070,"à¦ıà¦«à¦¸":3071,"à¦·à¦²":3072,"à¦°à¦Ĩà¦¹à¦¬":3073,"à¦°à¦Ĩà¦ľà¦ķ":3074,"à¦°à¦ĩà¦ī":3075,"à¦§à¦¨à¦Ľ":3076,"à¦ıà¦°à¦ĩà¦®à¦§":3077,"à¦Ĺà¦¤à¦°":3078,"à¦¬à¦¨à¦®":3079,"à¦°à¦ħà¦ľ":3080,"à¦ıà¦ĩà¦«":3081,"à¦°à¦ĩà§Ł":3082,"à¦²à¦¹à¦ĵà§Ł":3083,"à¦²à¦¹à¦ķà¦®":3084,"à¦ħà¦ªà¦¹à¦°à¦£":3085,"à§¯à§®à§¨à§ªà§¦à§¬":3086,"à¦¬à¦¬à¦²":3087,"à¦¸à¦ĺ":3088,"à¦°à¦Ĩà§ľ":3089,"à¦ªà¦¨à¦¸":3090,"à¦°à¦ıà¦Ĺ":3091,"à¦¦à¦ķà¦¹":3092,"à¦·à¦£à¦®":3093,"à¦¤à¦¸à¦²":3094,"à¦Ĩà¦°à¦ĵà¦ħà¦¨":3095,"à¦°à¦īà¦ªà¦°à¦¬":3096,"à¦¨à¦²à¦ķ":3097,"à¦ķà¦¤à¦¬":3098,"à¦¤à¦Ĩà¦¬":3099,"à¦²à¦Ĩà¦¨":3100,"à¦¦à¦ªà¦¤":3101,"à¦¹à¦¨à¦ª":3102,"à¦ŀà¦°":3103,"à¦ĩà¦¨à¦Ĺ":3104,"à¦¤à¦®à¦ľà¦¨":3105,"à¦Łà¦¨à¦ľ":3106,"à¦Ĩà¦ĩà¦ıà¦¸à¦¬":3107,"à¦²à¦¨à¦¬":3108,"à¦²à¦¬à¦°":3109,"à¦¯à¦ĵà¦¬":3110,"à§Łà¦ķà¦°à¦²":3111,"à§Łà¦ħà¦§":3112,"à¦ĩà¦ħà¦Ń":3113,"à¦°à¦£à¦¶":3114,"à¦Ŀà¦ĸ":3115,"à¦ķà¦ªà¦¦":3116,"à¦¯à¦¤à¦¦":3117,"à¦ħà¦ªà¦¬":3118,"à¦·à¦ĸà¦¬à¦°à¦¬":3119,"à¦¨à¦°à¦ķ":3120,"à¦ªà¦°à¦ķ":3121,"à§Łà¦¹à§Ł":3122,"à¦Ĩà¦¹à¦¸":3123,"à¦°à¦®à¦ķ":3124,"à¦¨à¦¬à¦¬":3125,"à¦¨à¦ªà¦¶":3126,"à§¬à§©":3127,"à¦°à¦¯à¦¨":3128,"à¦ıà¦®à¦¡":3129,"à¦¤à¦¶à¦°":3130,"à¦¶à¦Ĩà¦®":3131,"à¦ħà¦£":3132,"à¦°à¦¶à¦¤":3133,"à¦ıà¦ĩà¦ĺà¦Łà¦¨":3134,"à¦°à¦ĵà¦Ń":3135,"à¦°à¦īà§İà¦ª":3136,"à¦°à¦¸à¦®à§Łà¦®":3137,"à¦ĩà¦¬à¦Ľ":3138,"à¦°à¦ĸà¦°à¦ļ":3139,"à¦¸à¦¨à¦¬":3140,"à¦®à¦®à¦¨":3141,"à¦¯à¦īà¦¦":3142,"à§Łà¦ı":3143,"à§ľà¦¨":3144,"à¦°à¦£à¦¯":3145,"à¦¨à¦ıà¦°à¦Ĩà¦Ĺ":3146,"à¦ªà¦°à¦¤":3147,"à¦·à¦ķà¦¬":3148,"à¦ĵà¦®à¦¹":3149,"à¦°à¦¸à¦ŀ":3150,"à¦ĩà¦®à¦¹":3151,"à¦®à¦Ĩà¦°à¦Ľ":3152,"à¦ļà¦®à§İà¦ķ":3153,"à¦¯à¦ıà¦Ł":3154,"à¦¶à¦ļà¦¨":3155,"à¦Ĺà¦ķà¦°à¦²":3156,"à¦§à¦¨à¦ķ":3157,"à¦¶à¦¨à¦°":3158,"à¦ķà¦¬à¦°à¦¸":3159,"à¦ıà¦¸à¦¡":3160,"à¦Łà¦¹à¦²":3161,"à¦ľà¦¨à¦Ľ":3162,"à¦°à¦ľà¦¨à¦¸":3163,"à¦²à¦ķà¦¦":3164,"à¦·à¦£à¦¸":3165,"à¦¨à¦ĵà¦¨":3166,"à¦Ĩà¦ĩà¦ıà¦¸":3167,"à¦Ŀà§ľà¦ľ":3168,"à¦ķà¦Ĩà¦ªà¦¨":3169,"à¦Ĩà¦°à¦²":3170,"à¦ĸà¦¨à¦ķ":3171,"à¦«à¦²à¦¨":3172,"à§¬à§¯à§¯":3173,"à¦ĸà¦¬à¦°à¦¸":3174,"à¦²à¦¨à¦ķà¦°à¦Ľ":3175,"à¦ķà¦Ĩà¦ª":3176,"à¦®à¦¦à¦ķ":3177,"à¦²à¦¢":3178,"à¦°à¦®à¦¸à¦ľ":3179,"à¦¤à¦¸à¦¨":3180,"à¦¸à¦¦à¦¨":3181,"à¦¦à¦Ĩà¦¬":3182,"à¦¯à¦īà§İà¦ª":3183,"à§Łà¦ľà¦¨":3184,"à¦Łà¦°à¦¬":3185,"à¦Łà¦¦à¦²":3186,"à¦·à¦·":3187,"à¦ĸà¦ľ":3188,"à¦¸à¦®à§Łà¦¬":3189,"à¦¨à¦¤à¦¦":3190,"à¦ĩà¦¨à¦Ł":3191,"à¦ıà¦ĩà¦§à¦°à¦¨":3192,"à§¯à§¨à§¦à§¨à§§":3193,"à¦°à¦®à¦£à¦ķà¦°":3194,"à¦ķà¦ĩà¦¬à¦¨":3195,"à¦¸à¦¹à¦¤":3196,"à¦¸à¦¨à¦¦":3197,"à¦²à¦¤à¦ķ":3198,"à¦¹à¦¤à¦¬":3199,"à¦¡à¦ı":3200,"à¦ıà¦ķà¦²":3201,"à¦¸à¦¬à¦¸à¦®à¦¯":3202,"à¦ªà¦¦à¦¬":3203,"à¦ªà¦ķà¦²":3204,"à¦·à¦ķà¦¥":3205,"à¦Ńà¦²":3206,"à¦īà¦ĩà¦®":3207,"à§Ńà§¯à§¬":3208,"à¦ĩà¦Łà¦Ł":3209,"à¦²à¦¨à¦¸":3210,"à¦ªà¦ıà¦¬":3211,"à¦¦à¦°à¦¦":3212,"à§Łà¦¶à¦°":3213,"à¦ĵà¦ĩà¦¦":3214,"à¦¦à¦ķà¦ª":3215,"à¦ĩà¦Łà¦®":3216,"à¦¯à¦ªà¦¦":3217,"à§¦à§¦à§¦":3218,"à¦Ĺà¦ħà¦¨":3219,"à¦Ļà¦²":3220,"à¦ķà¦¨à¦Ń":3221,"à¦Ĩà¦¹à¦¤à¦¹à§Ł":3222,"à¦°à¦°à¦«":3223,"à¦¨à¦¹à¦ļ":3224,"à¦¨à¦Ĳ":3225,"à¦ķà¦Ĩà¦¬":3226,"à¦ķà¦ħà¦¸":3227,"à¦¨à¦¤à¦°":3228,"à¦¤à¦¬à¦Ľà¦°":3229,"à¦ıà¦¸à¦ľ":3230,"à¦²à¦¤à¦¶":3231,"à¦ªà¦¦à¦ª":3232,"à¦¨à¦ĵà¦¦":3233,"à¦°à¦īà¦ªà¦¯":3234,"à¦ķà¦ĵà¦ª":3235,"à¦¬à¦°à¦£à¦ķà¦°":3236,"à¦¤à¦Ĩà¦ķ":3237,"à¦²à¦Ĩà¦Ľ":3238,"à¦§à¦¹à¦¯":3239,"à¦°à¦ķà¦·":3240,"à¦ªà¦¨à¦¦":3241,"à¦°à¦ħà¦¬à¦¦":3242,"à¦°à¦²à§ľ":3243,"à¦¨à¦ıà¦¶":3244,"à¦¤à¦°à¦Ĩ":3245,"à¦¯à¦¸à¦¬":3246,"à¦¹à¦ĩà¦¤":3247,"à¦ĩà¦¯à¦¦":3248,"à¦¡à¦ªà¦°":3249,"à¦¨à¦¤à¦®":3250,"à¦°à¦ħà¦ŀ":3251,"à¦ķà¦®à¦ª":3252,"à§®à§ª":3253,"à¦īà¦ľà¦°":3254,"à¦ľà¦ĵà§Ł":3255,"à¦Ĺà¦®à¦°":3256,"à¦·à¦ıà¦¬":3257,"à¦ĵà¦Ĩà¦¬":3258,"à¦£à¦ıà¦¶":3259,"à¦£à¦ľà§Łà¦¨":3260,"à¦¸à¦®à¦¤":3261,"à¦²à¦ķà¦¹":3262,"à¦®à¦¤à¦Ĩà¦ªà¦¡":3263,"à¦ķà¦ķà¦²":3264,"à¦¸à¦ĩà§Ł":3265,"à§Łà¦¨à¦ķ":3266,"à¦·à¦ĸ":3267,"à¦«à¦ķà¦°":3268,"à¦°à¦ªà¦°à¦ıà¦ķ":3269,"à¦ľà¦¨à¦Ń":3270,"à¦²à¦¨à¦¶":3271,"à¦¨à¦Ĩà¦ľà¦ķ":3272,"à¦¨à¦ļà¦°":3273,"à¦ıà¦ķà¦ľà¦¨à¦¸":3274,"à¦Ĩà¦¶à¦Ļ":3275,"à§¨à§¯à§¦à§Ń":3276,"à¦Īà¦¦à¦Ĺ":3277,"à¦¨à¦ĩà¦¸":3278,"à¦²à¦¸à¦¨":3279,"à¦¹à¦¥":3280,"à¦¦à¦¨à¦ĵà¦¬":3281,"à¦¨à¦ľà¦°à¦¦":3282,"à¦¤à¦¸à¦°à¦ķ":3283,"à¦¨à¦ļà¦Ł":3284,"à¦¬à¦¤à¦¨à¦ķà¦°":3285,"à¦ĩà¦ľà¦¨à¦ķà¦¨":3286,"à¦®à¦ħà¦¬à¦¸":3287,"à¦ĩà¦ĵà¦¯":3288,"à¦ĩà¦ħà¦ªà¦°":3289,"à¦ļà¦ľ":3290,"à¦īà¦¯":3291,"à¦«à¦¬":3292,"à¦ľà¦¨à¦¯":3293,"à¦ĺà¦¸":3294,"à¦°à¦¸à¦®à§Łà¦ª":3295,"à¦ªà¦ķà¦Ń":3296,"à¦ıà¦ķà¦ľà¦¨à¦¨":3297,"à§®à§®à§¦à§¨à§®à§ªà§©":3298,"à§®à§®à§¦à§§à§Ńà§¨à§¯à§¦à§Ń":3299,"à§®à§®à§¦à§§à§Ńà§¨à§¯à§¦à§Ńà§¬à§¯à§¯":3300,"à¦°à¦°à¦¹à¦¸":3301,"à¦¨à¦Ŀ":3302,"à¦¬à¦īà¦¦":3303,"à¦¤à¦ı":3304,"à¦¹à¦ħà¦¨":3305,"à¦¶à§Łà¦¤":3306,"à¦ķà¦°à¦¸":3307,"à¦§à¦°à¦²":3308,"à¦°à¦®à¦¯":3309,"à¦°à¦¦à¦ĸà¦²":3310,"à¦¨à¦¬à¦¦":3311,"à¦¯à¦¬à¦¦":3312,"à¦¦à¦ķà¦¨":3313,"à¦®à¦¦à¦ª":3314,"à¦Ĩà¦ľà¦¥":3315,"à§¨à§¦à§¨à§¦à§¨à§¦à§¨à§§":3316,"à¦ķà¦°à¦ĵà¦ª":3317,"à¦Łà¦¬à¦¨":3318,"à¦°à¦ķà¦¯":3319,"à¦°à¦¤à¦¬à¦°":3320,"à¦łà¦Ńà¦¬à¦¨":3321,"à¦°à¦Ĩà¦¦à¦°":3322,"à¦°à¦ıà¦°à¦¸à¦¦à¦¸":3323,"à§®à§Ń":3324,"à¦Ŀà¦²":3325,"à¦¯à¦®à¦ķ":3326,"à§©à§©à§®à§¦":3327,"à¦¬à¦ľà¦¨à¦ķà¦¨":3328,"à¦¨à¦¨à¦¸à¦¡":3329,"à¦¤à¦¤à¦¬":3330,"à¦¤à¦²à¦®":3331,"à¦¯à¦°à¦ķ":3332,"à¦Łà¦ķà¦ª":3333,"à¦ĸà¦Ń":3334,"à¦ĵà¦¢":3335,"à¦ĩà¦²à¦ĩà¦ľà¦¨à¦ķà¦¨":3336,"à¦¦à¦ķà¦ķà¦¤":3337,"à¦¤à¦¸à¦Ń":3338,"à¦°à¦īà¦ªà¦°à¦ķ":3339,"à¦°à¦īà¦ªà¦°à¦Ń":3340,"à§¨à§¦à§¦à§ª":3341,"à¦Ĺà¦®à¦ĸ":3342,"à¦ĵà¦ľà¦¨à¦ķà¦¨":3343,"à¦ķà¦ķà¦°à¦¤":3344,"à¦Łà¦ħà¦Ń":3345,"à¦ĩà¦¹à¦¤":3346,"à¦ľà¦¨à¦ľ":3347,"à¦¬à¦¨à¦¦":3348,"à¦¨à¦Ĩà§Ł":3349,"à¦Ĩà¦ľà¦®":3350,"à¦¬à¦¹à¦¨à¦ķà¦°":3351,"à¦²à¦Ĩà¦²à¦®":3352,"à¦¨à¦§à¦¨":3353,"à¦¤à¦¬à¦¸":3354,"à¦¤à¦ľà¦®":3355,"à¦Ĩà¦ªà¦²":3356,"à¦°à¦¸à¦°à¦¬à¦°":3357,"à¦łà¦ķà¦¦":3358,"à¦¹à§Łà¦ľ":3359,"à¦¹à¦²à¦¸":3360,"à§¯à§§":3361,"à¦Ĺà¦£à¦ª":3362,"à¦Īà¦¸":3363,"à¦ļà§Łà¦ªà¦¤":3364,"à¦¤à¦¸à¦®à§Ł":3365,"à¦®à¦ĵà¦®":3366,"à¦®à§Łà¦¸à¦Ń":3367,"à¦ªà¦ķà¦¬":3368,"à§Łà¦ıà¦Ł":3369,"à¦¹à¦Ĩà¦®":3370,"à¦Ĺà¦¢":3371,"à¦ķà¦°à¦¨":3372,"à¦ħà¦¹":3373,"à¦ħà¦·":3374,"à¦°à¦¸à¦¬à¦ķ":3375,"à¦°à¦ĵà¦ľ":3376,"à§®à§©":3377,"à¦¦à¦ķà¦¸à¦®":3378,"à§¨à§¦à§¨à§§à§¦":3379,"à¦Ĺà¦£à¦¹à¦¤":3380,"à¦Ńà¦¬à¦ķà¦°":3381,"à§ĩà¦Ĥ":3382,"à¦¬à¦ĩà¦¸":3383,"à¦¤à¦īà¦ª":3384,"à¦¸à¦Ĩà¦®":3385,"à¦®à§İà¦¸":3386,"à¦¦à¦ªà¦°":3387,"à¦Ĩà¦°à¦¹":3388,"à¦·à¦¦à¦¸":3389,"à¦ĵà¦¬à¦°":3390,"à¦°à¦ªà¦°à¦¯":3391,"à¦®à¦¨à¦ľ":3392,"à¦łà¦Ń":3393,"à¦ļà¦²à¦¬à¦¨":3394,"à¦Ńà¦ķà¦®à¦¨":3395,"à¦ķà¦°à¦¹":3396,"à¦ķà¦īà¦ª":3397,"à¦¶à¦¢":3398,"à¦¥à¦¹à¦²":3399,"à¦¡à¦ĵà§Ł":3400,"à¦°à¦ķà¦¦":3401,"à¦°à¦¹à¦²à¦¦":3402,"à¦Ĺà¦¤à¦¬à¦Ľà¦°":3403,"à¦¦à¦«à¦¤à¦°":3404,"à¦¬à¦ķà¦¬":3405,"à¦¬à¦¦à¦¨":3406,"à¦¬à¦ķà¦¦":3407,"à¦¯à¦Ĩà¦Ľ":3408,"à¦¶à¦ıà¦ķ":3409,"à¦īà¦¶à¦¨à¦¶":3410,"à¦²à¦ªà¦®":3411,"à¦¯à¦¸à¦ķà¦²":3412,"à¦¨à¦ıà¦ĩà¦ª":3413,"à¦¨à¦ĩà¦²":3414,"à¦ķà¦ı":3415,"à¦¤à¦ıà¦²":3416,"à¦¹à¦ķà¦°à¦¤":3417,"à¦Ĺà¦°à¦ª":3418,"à¦Ľà¦®":3419,"à§§à§§à§ª":3420,"à§§à§§à§©":3421,"à¦ĩà¦²à¦Ĺ":3422,"à¦¨à¦Ĩà¦ĩà¦¨":3423,"à¦ķà¦¤à¦Ĩà¦²":3424,"à¦ķà¦¤à¦ķ":3425,"à¦¸à¦ĩà¦¬à¦¨":3426,"à§Łà¦ıà¦²":3427,"à¦ļà¦®à¦ķ":3428,"à¦¸à¦®à§Łà¦¸":3429,"à¦®à¦¨à¦Ń":3430,"à¦¤à¦°à¦¯":3431,"à§¯à§ª":3432,"à¦°à¦ĩà¦°":3433,"à¦ķà¦¸à¦¨":3434,"à¦²à¦¤à¦¥":3435,"à¦¨à¦ıà¦ĩà¦¸":3436,"à¦ķà¦¶à¦ķ":3437,"à¦²à¦ŀ":3438,"à¦·à¦ķà¦¤":3439,"à¦ıà¦ķà¦ĩà¦¸":3440,"à¦¬à¦²à¦ķ":3441,"à¦ªà¦ķà¦¥":3442,"à¦°à¦ĵà¦ªà¦°à¦¹":3443,"à¦ķà¦ĵà§Ł":3444,"à¦¸à¦ļà¦²":3445,"à¦¸à¦Ĩà¦Ĺ":3446,"à¦²à¦°à¦¹":3447,"à¦¹à¦Ĩà¦²à¦®":3448,"à¦ľà¦Ĩà¦¦":3449,"à¦°à¦Ĩà¦ª":3450,"à¦¬à¦¸à¦²":3451,"à¦ıà¦ĩà¦¸à¦®à¦¸":3452,"à¦¸à¦¬à¦§à¦°à¦¨":3453,"à¦·à¦£à¦ļ":3454,"à¦°à¦¥à¦®à¦Ł":3455,"à¦¨à§Łà¦ķà¦°":3456,"à¦Łà¦¬à¦²à¦ķ":3457,"à¦¨à¦īà§İà¦ª":3458,"à¦¤à¦ıà¦°à¦¸":3459,"à¦®à¦Ĩà¦¦":3460,"à¦ªà¦°à¦¸":3461,"à¦ľà¦Ĩà¦²":3462,"à¦ıà¦¨à¦Ĩ":3463,"à¦°à¦ķà¦ł":3464,"à¦¸à¦®à§Łà¦¨":3465,"à¦°à¦¹à¦®à¦¤":3466,"à¦ıà¦®à¦¨à¦ª":3467,"à¦¤à¦Ĩà¦°à¦¬à¦Ĩà¦®":3468,"à¦¬à¦ĩà¦®":3469,"à¦£à¦ıà¦¬":3470,"à§§à§§à§«":3471,"à¦°à¦£à¦°":3472,"à¦¨à¦ªà¦ŀ":3473,"à¦Ĩà¦²à¦®à¦Ĺ":3474,"à¦¨à¦®à¦°":3475,"à§İà¦ªà¦°à¦¤":3476,"à¦°à¦°à¦Ļ":3477,"à¦®à§Łà¦²":3478,"à¦²à§Łà¦¸":3479,"à¦ĩà¦ıà¦ĸà¦¨":3480,"à¦§à¦¬à¦ª":3481,"à¦ĵà¦ıà¦Ł":3482,"à§ľà¦ķà¦¦":3483,"à¦°à¦¨à§Ł":3484,"à¦¹à¦¤à¦¨":3485,"à¦²à¦®à¦¹":3486,"à¦¨à¦Ĩà¦«à¦Ĺ":3487,"à¦²à¦¸à¦°à¦ķ":3488,"à¦¨à§Łà¦¨à¦ķà¦°":3489,"à¦ıà¦¸à¦¬à¦¬":3490,"à§§à§¯à§¯à§¬":3491,"à¦¨à§Łà¦ķ":3492,"à¦¬à¦°à¦Ĺà¦ŀ":3493,"à¦¤à¦°à¦Ľ":3494,"à¦²à¦¨à¦¨":3495,"à¦ĺà¦¡":3496,"à§Ńà§ª":3497,"à¦ķà¦ķà¦°à¦²":3498,"à§Łà¦ķà¦¬":3499,"à¦Ĺà¦ķà¦°à¦¬":3500,"à¦ĩà¦Ļ":3501,"à¦®à¦¨à¦ķà¦°":3502,"à¦®à¦¨à¦ĸ":3503,"à¦ľà¦¨à¦¸à¦®":3504,"à¦¨à¦¬à¦Ľ":3505,"à¦°à¦ĩà¦¨à¦ļ":3506,"à¦¨à¦ĸà¦¬à¦°":3507,"à¦¨à¦ªà¦°à¦°":3508,"à¦¨à¦ħà¦¬à¦¶":3509,"à¦¬à¦ĵà§Ł":3510,"à¦¯à¦ķà¦¬":3511,"à¦¹à¦°à¦¸":3512,"à¦ķà¦®à¦ªà¦ķ":3513,"à¦ķà¦¤à¦¦":3514,"à¦¨à¦ıà¦ª":3515,"à¦¤à¦°à¦£à¦ķ":3516,"à¦²à¦ľà¦¬":3517,"à¦ªà¦°à¦®à¦¤":3518,"à¦Ĺà¦ĵ":3519,"à¦·à¦¸à¦°":3520,"à¦īà¦ıà¦ĩà¦ļ":3521,"à¦°à¦ªà¦°à¦ĩ":3522,"à¦¸à¦®à§Łà¦¤":3523,"à¦¹à§Łà¦ªà¦°":3524,"à¦ŀà¦¦":3525,"à¦¨à¦ľà¦¬":3526,"à¦¸à¦°à¦¹":3527,"à¦²à¦ĩà¦¨":3528,"à¦²à§Łà¦ķ":3529,"à¦²à¦ħà¦°":3530,"à¦¯à¦ĩà¦¬":3531,"à¦Łà¦Ĩà¦ķ":3532,"à¦Łà¦ħà¦ªà¦°":3533,"à¦Ĩà¦°à¦ļ":3534,"à¦Ĩà¦°à¦Ń":3535,"à¦ıà¦°à¦«à¦²":3536,"à¦Ľà¦§à¦°":3537,"à¦ļà¦¨à¦¸":3538,"à¦°à¦ķà¦¤":3539,"à¦°à¦¤à¦Ń":3540,"à¦łà¦®":3541,"à¦°à¦Ĩà¦Ļ":3542,"à¦Ĩà¦²à¦ľ":3543,"à¦¶à¦ķà¦¯":3544,"à¦ķà¦§à¦°":3545,"à¦²à¦Ĩà¦ķ":3546,"à¦Ĺà¦¨à¦¸":3547,"à¦ĩà¦²à¦ľ":3548,"à¦¤à¦ķà¦¥":3549,"à¦²à¦¤à¦²":3550,"à¦¨à¦Ĺà¦£":3551,"à¦°à¦®à¦£à¦¬":3552,"à¦°à¦¸à¦ķà¦²à¦ķ":3553,"à¦°à§Łà¦¨":3554,"à¦ķà¦²à¦¨":3555,"à¦¬à¦ķà¦²":3556,"à§Łà¦Ĺà¦¤":3557,"à¦Ĺà¦īà¦ł":3558,"à¦ĵà¦ħà¦¸":3559,"à¦¬à¦²à¦¦":3560,"à¦¬à¦¸à¦īà¦¦à¦¯":3561,"à¦°à¦ıà¦¤":3562,"à¦§à¦¤à¦¦à¦¨":3563,"à¦°à¦¬à¦¹à¦°à¦®à¦ª":3564,"à¦ķà¦Ĩà¦°":3565,"à¦¸à¦¬à¦°":3566,"à¦Łà¦¨à¦ª":3567,"à¦¶à¦¬à¦¨":3568,"à¦¶à¦¤à¦ķ":3569,"à¦·à¦¹à¦ĵà§Ł":3570,"à¦§à¦ķà¦¤":3571,"à¦®à¦¨à¦¨":3572,"à¦°à¦Ĩà¦¸à¦²":3573,"à¦ĩà¦¸à¦¤":3574,"à¦¹à¦¤à¦¥":3575,"à§İà¦«":3576,"à¦¬à¦ĩà¦¬à¦¨":3577,"à§Łà¦°à¦ķ":3578,"à§Łà¦°à¦Ĩà¦¬":3579,"à¦ĩà¦¦à¦²":3580,"à¦ıà¦®à¦®":3581,"à¦ĸà¦¨à¦¸":3582,"à¦°à¦¸à¦¤à¦°":3583,"à¦£à¦¨à¦Ĺà¦°à¦¬":3584,"à¦¨à¦¤à¦ķà¦°":3585,"à¦ĩà¦²à¦ļ":3586,"à¦·à¦£à¦¶":3587,"à¦¬à¦Ľà¦°à¦°":3588,"à¦¸à¦¦à¦°":3589,"à¦¦à¦¤à¦¥":3590,"à¦¯à¦Ĩà¦¨":3591,"à¦¯à¦ħà¦ª":3592,"à§Łà¦§à¦°":3593,"à¦Łà¦°à¦ª":3594,"à¦ıà¦¨à¦¬":3595,"à¦«à¦°à¦®":3596,"à¦°à¦ªà¦¡":3597,"à¦ıà¦ķà¦ªà¦°":3598,"à¦ľà¦¨à¦¡":3599,"à§Łà¦¨à¦¡à¦²":3600,"à§®à§¬":3601,"à¦Ĩà¦¸à¦°":3602,"à¦ªà¦ķà¦¡":3603,"à¦¯à¦¤à¦®à¦¸":3604,"à¦ĩà¦ľà¦¬":3605,"à¦ªà¦°à¦®à¦¤à¦¸à¦¹":3606,"à¦®à¦ĩà¦¨":3607,"à§Łà¦ħà¦¬à¦¸":3608,"à¦Łà¦®à¦¨":3609,"à¦¶à¦¹à§Ł":3610,"à¦§à¦ļ":3611,"à¦ĵà¦ħà¦°":3612,"à¦°à¦¬à¦¯":3613,"à¦ĺà¦Łà¦Ľ":3614,"à¦ķà¦¸à¦¬":3615,"à¦¦à¦¸à¦°":3616,"à¦¯à¦īà¦¨":3617,"à¦Ĺà¦ļà¦Ł":3618,"à¦ļà§Łà¦¤":3619,"à¦ħà¦¬à¦ķ":3620,"à¦£à¦¤à¦¹à§Ł":3621,"à¦°à¦Ľà§ľ":3622,"à§®à§¦à§¦":3623,"à¦²à¦¬à¦°à¦¹à¦®":3624,"à§Łà¦¸à¦¨":3625,"à¦¨à¦ĵà¦°":3626,"à¦°à¦ĺà¦¨":3627,"à¦°à§Łà¦¬":3628,"à¦ķà¦¸à¦¬à¦ľ":3629,"à¦®à¦ıà¦ķà¦Ł":3630,"à¦®à¦°à¦£à¦ķà¦°":3631,"à¦¯à¦¤à¦ķ":3632,"à¦¯à¦§à¦¨":3633,"à¦Łà¦Ĺà¦²":3634,"à¦ľà¦ĵ":3635,"à¦Ľà¦¯":3636,"à¦ļà¦²à¦¨":3637,"à¦°à¦ıà¦ĩà¦ķ":3638,"à¦¨à¦ªà¦°à¦¬à¦°":3639,"à¦°à¦ĵà¦·":3640,"à¦ķà¦Łà¦ķ":3641,"à¦°à¦¸à¦®à§Łà¦¤":3642,"à¦ħà¦¤à¦ıà¦¬":3643,"à¦ıà¦®à¦¨à¦Ń":3644,"à¦¨à§Łà¦¨à¦¶":3645,"à¦¯à¦ĸà¦¨à¦¬":3646,"à¦ıà¦«à¦ª":3647,"à¦ķà¦ĩà¦¨":3648,"à¦¬à¦Ĩà¦²à¦¹":3649,"à¦¤à¦ĵà¦®":3650,"à¦¸à¦¨à¦¸":3651,"à¦¦à¦Ĩ":3652,"à§Łà¦®à¦ķ":3653,"à¦Łà¦¨à¦¦":3654,"à¦°à¦ªà¦¤à¦¨":3655,"à¦ıà¦ķà¦Ĺ":3656,"à¦ľà¦¨à¦¹":3657,"à¦°à¦Ĩà¦¸à¦¨":3658,"à¦ªà¦¨à¦ķ":3659,"à¦°à¦¶à¦¸":3660,"à¦¯à¦ķà¦¥":3661,"à¦ķà¦ªà¦¡":3662,"à§İà¦¸à¦ķà¦°":3663,"à¦Ĩà¦ļà¦°à¦£":3664,"à¦Ńà¦ľà¦¨à¦ķà¦¸":3665,"à¦¨à¦ĩà¦¬":3666,"à¦ķà¦§à¦¨":3667,"à§Łà¦īà¦¦":3668,"à¦¹à¦°à¦ª":3669,"à¦Łà¦®à¦¹":3670,"à¦ľà¦¹à¦¬":3671,"à¦°à¦¨à¦ª":3672,"à¦°à¦¹à¦¨à¦ķà¦°":3673,"à¦ĵà¦ıà¦°à¦Ĺ":3674,"à¦²à¦ĩà¦¤":3675,"à¦¯à¦®à¦¹":3676,"à¦¹à¦¸à¦®":3677,"à¦¹à¦ıà¦¬":3678,"à¦ĩà¦ħà¦°":3679,"à¦ıà¦²à¦¬":3680,"à¦·à¦¹à¦¤":3681,"à¦ªà¦¨à¦ª":3682,"à¦°à¦¶à¦¨":3683,"à¦¶à¦¨à¦¥":3684,"à¦ĩà¦Łà¦ª":3685,"à§¦à§¯à§¨à§¦à§¨à§§":3686,"à¦®à¦Ĩà¦ªà¦¨":3687,"à¦ªà¦ĺ":3688,"à¦ľà¦ħà¦¨":3689,"à¦Ĺà¦¦à¦ķ":3690,"à¦ļà¦ĸ":3691,"à¦·à¦ķà¦ª":3692,"à¦¡à¦ıà¦ķ":3693,"à¦ľà¦¨à¦¬à¦²":3694,"à¦²à¦ķà¦¥":3695,"à¦¨à¦ªà¦¥":3696,"à¦Ĩà¦²à¦¬":3697,"à¦°à¦Ĺà§ľ":3698,"à¦¹à¦²à¦¬":3699,"à¦ĩà¦²à¦ħ":3700,"à¦ĩà¦²à¦¸à¦®":3701,"à¦Ĩà¦ľà¦°":3702,"à¦¨à¦ĵà¦¹":3703,"à¦¨à¦ĩà§Ł":3704,"à¦ķà¦ıà¦ķà¦Ł":3705,"à¦¬à¦ķà¦¨":3706,"à¦¸à¦¹à§Ł":3707,"à¦¦à¦ķà¦°à¦¤":3708,"à¦¯à¦īà¦ª":3709,"à¦ľà¦ķà¦²":3710,"à¦ĩà¦°à§Ł":3711,"à¦§à¦ķà¦°à¦Ľ":3712,"à¦£à¦²":3713,"à¦£à¦ķà¦°à¦¤":3714,"à¦°à¦ĵà¦°":3715,"à¦Ĳà¦¬":3716,"à¦°à¦ĵà¦ªà¦°à¦¦":3717,"à¦ķà¦ıà¦®à¦ª":3718,"à¦®à¦¸à¦®à¦°":3719,"à¦¦à¦²à¦¬":3720,"à§Łà¦¦à¦°":3721,"à¦¹à¦°à¦¦":3722,"à¦¶à¦ķà¦¸":3723,"à¦¶à¦ķà¦¤":3724,"à¦Ĩà¦¹à¦¬":3725,"à¦Ĩà¦¶à¦ª":3726,"à¦ıà¦°à¦Ń":3727,"à¦ıà¦°à¦ıà¦ķà¦Ł":3728,"à¦·à¦ķà¦°à¦¤":3729,"à¦īà¦Ńà§Ł":3730,"à¦¸à¦®à¦¬":3731,"à¦®à¦¤à¦¹à¦ļ":3732,"à§¨à§¦à§¨à§§à§¨à§¨":3733,"à¦®à¦ĩà¦¸à¦²":3734,"à¦ªà¦Łà¦ª":3735,"à§Łà¦°à§Ł":3736,"à¦¶à¦ħà¦ªà¦°":3737,"à¦Ĺà¦°à§Ł":3738,"à¦Ĩà¦°à¦ıà¦ķà¦Ł":3739,"à¦°à¦ķà¦¬à¦²":3740,"à¦°à¦ªà¦°à¦ľ":3741,"à¦°à¦£à¦Ľ":3742,"à¦°à¦īà¦°":3743,"à§®à§¨":3744,"à¦Ĺà¦£à¦¸":3745,"à¦¸à¦¦à¦°à¦īà¦ªà¦ľ":3746,"à¦¤à¦°à¦£à¦¸":3747,"à¦°à¦°à¦¸à¦ĸ":3748,"à¦¤à¦ĺà¦Łà¦¨":3749,"à¦¸à¦ķà¦°à¦¬":3750,"à¦¯à¦¨à¦¤":3751,"à¦ľà¦ªà§ľ":3752,"à¦Ľà¦Ĺ":3753,"à¦¬à¦²à¦ª":3754,"à¦®à¦¤à¦¹à¦¬":3755,"à¦°à¦¥à¦®à¦°":3756,"à¦²à¦¤à¦¸":3757,"à¦¨à¦ıà¦ľà¦¨":3758,"à¦¨à¦ĵà¦¶":3759,"à¦°à¦īà¦ªà¦°à¦¦":3760,"à¦¤à¦°à¦ĵà¦¦à¦ķ":3761,"à¦ķà¦¸à¦®à¦¯":3762,"à¦ķà¦ľà¦¨à¦ķ":3763,"à¦ªà¦Ļ":3764,"à§Łà¦¨à¦¨":3765,"à§Łà¦Ĩà¦ªà¦¨":3766,"à¦£à¦ĵà¦ª":3767,"à¦°à¦¨à¦ķ":3768,"à¦ĺà¦ķ":3769,"à¦ªà¦¨à¦°":3770,"à¦ķà¦Łà¦²":3771,"à¦ĩà¦¬à¦Ľà¦°":3772,"à¦¨à¦ıà¦®":3773,"à§Łà¦¬à¦Ļ":3774,"à§Łà¦¤à¦²":3775,"à¦¦à¦²à¦Ĺ":3776,"à§¨à§«à§¦":3777,"à¦Ĩà¦Łà¦ķà¦¸":3778,"à¦¬à¦ĵ":3779,"à¦²à¦ħà¦Ń":3780,"à¦¦à¦Ĩà¦ªà¦¨":3781,"à¦¯à¦Ĩà¦°":3782,"à¦ļà¦Ń":3783,"à¦ļà§Łà¦¦":3784,"à¦§à¦¨à¦®":3785,"à¦°à¦ĵà¦¶":3786,"à¦¨à¦¦à¦°":3787,"à¦Ĩà¦ľà¦¸à¦ķ":3788,"à¦īà¦ľà¦¸":3789,"à¦ĺà¦Łà¦¤":3790,"à¦Łà¦¬à¦²à¦Ł":3791,"à¦¨à¦ħà¦ķ":3792,"à¦²à§Łà¦¨":3793,"à¦¦à¦¨à¦¨":3794,"à¦¹à¦ªà¦°":3795,"à¦¨à¦ªà¦²":3796,"à§®à§§":3797,"à¦¤à¦®à¦ķ":3798,"à¦ļà¦¨à¦ªà¦°":3799,"à¦¨à¦ľà¦®":3800,"à¦¤à¦ªà¦ķ":3801,"à¦¤à¦ªà¦¦":3802,"à¦¨à¦īà¦ļ":3803,"à¦²à¦¹à¦¯":3804,"à¦¯à¦Ļ":3805,"à¦Łà¦¨à¦ķ":3806,"à¦Łà¦ıà¦²":3807,"à¦Ĩà¦°à¦Ĩ":3808,"à¦ĵà¦¨à¦¤":3809,"à¦°à¦¦à¦ª":3810,"à¦°à¦¨à¦ķà¦°":3811,"à¦®à¦¤à¦¨":3812,"à¦ķà¦¨à¦«":3813,"à¦¨à¦Ĺà¦²":3814,"à¦ĸà¦¬à¦°à¦Ł":3815,"à§§à§¨à§©":3816,"à¦ķà¦ĩà¦īà¦¨":3817,"à¦ķà¦¸à¦®à¦¸":3818,"à¦¤à¦¸à¦®à¦¸":3819,"à¦®à¦ıà¦ķ":3820,"à¦¯à¦ļà¦Ł":3821,"à¦¹à¦¬à¦¨":3822,"à§Ģà¦ĥ":3823,"à¦ķà¦°à¦ķ":3824,"à¦§à¦¨à¦¨":3825,"à¦¥à¦ł":3826,"à¦ĵà¦ķà¦²":3827,"à¦°à¦¦à¦¶à¦ķ":3828,"à¦°à¦ĵà¦ħà¦¨":3829,"à§Łà¦¨à¦Ĩà¦ĵà§Ł":3830,"à§Łà¦¦à¦®":3831,"à¦¸à¦²à¦ķà¦°":3832,"à¦Ĺà¦łà¦¨à¦¸":3833,"à¦°à¦ĸà¦¬à¦°à¦¬":3834,"à§¦à§¬à§¨à§¦à§§à§¯":3835,"à¦¬à¦ĩà¦ª":3836,"à¦¤à¦¢":3837,"à¦¦à¦īà¦¦":3838,"à¦Ĺà¦Ĩà¦Ľ":3839,"à¦ĩà¦¹à¦ļ":3840,"à¦§à¦ªà¦°":3841,"à¦¸à¦ķà¦°à¦Ľ":3842,"à¦ħà¦ªà¦¹":3843,"à¦¤à¦®à¦¸à¦ľ":3844,"à¦¸à¦ĵà¦¯":3845,"à¦¯à¦°à¦¬":3846,"à¦¯à¦ıà¦ĩ":3847,"à§Łà¦ıà¦ķà¦¦":3848,"à¦¥à¦ļ":3849,"à¦ĵà¦¸à¦¨":3850,"à¦°à¦ķà¦®à¦¬":3851,"à¦°à¦ªà¦¬":3852,"à¦°à¦¨à¦¸":3853,"à¦¨à¦¤à¦ª":3854,"à¦ªà¦¨à¦ľ":3855,"à¦¤à¦¨à¦Ń":3856,"à¦®à¦¦à¦¹":3857,"à¦¨à¦Ĺà¦¦":3858,"à¦ķà¦ķà¦¥":3859,"à¦°à¦¥à¦®à¦¶":3860,"à¦ıà¦ķà¦ľà¦¨à¦ª":3861,"à¦¹à¦¯à¦°à¦¤à¦®":3862,"à¦°à¦ıà¦¸à¦ıà¦¸à¦¸":3863,"à¦¤à¦Ĩà¦°à¦ĵ":3864,"à¦¦à¦°à¦¬à¦¨":3865,"à¦¯à§Łà¦ķà¦°":3866,"à§Łà¦īà¦¨":3867,"à¦¹à¦ĩà¦²":3868,"à¦Łà¦¹à¦¯":3869,"à¦Łà¦ķà¦°à¦¬":3870,"à¦Ĺà¦¹à§Ł":3871,"à¦ĩà¦ıà¦ĸ":3872,"à¦«à¦¦":3873,"à¦°à¦¨à¦ĵà¦Ĺ":3874,"à§İà¦¤":3875,"à¦²à¦¬à¦£":3876,"à¦¨à¦¦à¦ķ":3877,"à¦¤à¦¨à¦ĩà¦¤":3878,"à¦°à¦ĩà¦ľ":3879,"à§Łà¦ķà¦¥":3880,"à¦¨à¦ľà¦Ł":3881,"à¦¨à¦ĵà¦Ń":3882,"à§§à§©à§§":3883,"à¦Ĺà¦®à§Łà¦®à¦¨à¦¸":3884,"à¦Ĩà¦ĩà¦¨à¦¸":3885,"à¦¯à¦ĸà¦¨à¦¸":3886,"à¦°à¦Ĩà¦ĩà¦¨à¦Ĩà¦¦":3887,"à¦¸à¦ĩà¦¨":3888,"à¦¹à¦ĩà¦¬":3889,"à¦Łà¦°à¦ķ":3890,"à¦ıà¦¤à¦¬":3891,"à¦¥à¦¸à¦®":3892,"à¦«à¦ľà¦°":3893,"à¦ıà¦ķà¦ļ":3894,"à¦°à¦¹à§Łà¦¨":3895,"à¦¬à¦¨à¦Ĺ":3896,"à¦ıà¦¬à¦Ľ":3897,"à¦ªà¦¨à¦®":3898,"à¦°à¦ĵà¦¶à¦¨":3899,"à¦²à¦¨à¦ķà¦°à¦¬":3900,"à¦ķà¦¸à¦°à¦ķ":3901,"à¦²à¦¸à¦ķ":3902,"à§§à§®à§§à§¯":3903,"à¦ıà¦¸à¦¬à¦ķ":3904,"à¦¤à¦Ĩà¦ªà¦¨":3905,"à¦®à¦ĵà¦ľ":3906,"à¦ªà¦ķà¦ķ":3907,"à¦¯à¦ĩà¦¨":3908,"à¦Łà¦¨à¦¬":3909,"à¦Ĺà¦¤à¦ª":3910,"à¦ĵà¦§":3911,"à¦¡à¦¸à¦®":3912,"à¦°à¦¸à¦¹à¦ľ":3913,"à¦¤à¦¬à¦ķ":3914,"à¦¸à¦¹à¦ļ":3915,"à¦¤à¦ĸà¦¨à¦¸":3916,"à¦Ĺà¦¤à¦¬à¦Ľ":3917,"à¦°à¦īà§İà¦ªà¦¤":3918,"à¦¬à¦°à¦ĸ":3919,"à¦®à§Łà¦¦":3920,"à¦¯à¦ĵà¦¸à¦®":3921,"à¦Ĩà¦°à¦«":3922,"à¦ļà¦Ĺà¦¡":3923,"à¦Ńà¦Ĺ":3924,"à¦ĸà¦¨à¦¬":3925,"à¦°à¦ľà¦Ĺà¦¤":3926,"à¦²à¦¨à¦¡":3927,"à¦ĩà¦ľà¦¤":3928,"à¦¬à¦ĩà¦ªà¦¤":3929,"à¦¬à¦¹à¦¤":3930,"à¦²à¦Ĩà¦ªà¦¨":3931,"à¦ªà¦¸à¦®à§Ł":3932,"à¦¯à§Łà¦¬":3933,"à¦§à¦¨à¦¶":3934,"à¦ĵà¦īà¦¨":3935,"à¦°à¦®à¦¸à¦®":3936,"à¦£à¦ĸ":3937,"à§Ńà§¦à§¦":3938,"à¦¤à¦¨à¦¹à¦¯":3939,"à¦¨à¦Ĺà¦¬":3940,"à¦¨à¦ıà¦Ń":3941,"à¦·à§Łà¦Ń":3942,"à¦°à¦¡à¦²":3943,"à¦ıà¦ĸà¦¨à¦¨":3944,"à¦¶à¦®à¦ļ":3945,"à¦¦à¦¶à¦¶":3946,"à¦¨à¦ıà¦ķà¦¦":3947,"à¦ĩà¦Ĩ":3948,"à¦Ńà¦°à¦¯":3949,"à¦ĵà¦ĩà¦¸":3950,"à¦°à¦ªà¦°à¦Ĺ":3951,"à§§à§§à§¯":3952,"à¦°à¦¤à¦¸":3953,"à¦¬à¦²à¦¹":3954,"à¦°à¦£à¦ĸ":3955,"à¦¨à¦Ĺà¦¤à¦ķ":3956,"à¦ĩà¦ªà¦ķ":3957,"à¦¬à¦Ľà¦°à¦ķ":3958,"à¦īà¦²à¦ķà¦°":3959,"à¦¯à¦ĸà¦¨à¦ķ":3960,"à¦®à¦Ĩà¦°à¦¨":3961,"à¦¨à¦ħà¦«":3962,"à¦®à¦ĵà¦¬":3963,"à¦¯à¦ĺ":3964,"à§Łà¦°à¦®":3965,"à¦Ĺà¦ķà¦®":3966,"à¦§à¦¨à¦ª":3967,"à¦ĸà¦ļ":3968,"à¦ĸà¦¨à¦ª":3969,"à¦ĵà¦¸à¦°":3970,"à¦°à¦ķà¦¸":3971,"à§¨à§§à§Ń":3972,"à¦®à¦¨à¦ļ":3973,"à¦¨à¦¸à¦¦à¦¸":3974,"à¦°à¦ĵà¦Ĺ":3975,"à¦¹à¦¤à¦¸":3976,"à§İà¦¶":3977,"à¦¦à¦ķà¦¶":3978,"à¦°à¦ĩà¦ŀ":3979,"à¦¹à¦¨à¦Ľà¦¬":3980,"à¦®à¦Ĩà¦¹à¦®":3981,"à¦ıà¦¡à¦Ń":3982,"à¦¹à¦°à¦£à¦¸":3983,"à¦ķà¦Ĩà¦¯":3984,"à¦¤à¦ľà¦¨":3985,"à¦¸à¦°à¦¬":3986,"à¦®à¦°à¦¦":3987,"à§Łà¦īà¦ª":3988,"à¦£à¦Ĺà¦ŀ":3989,"à¦¬à¦¨à¦¶":3990,"à¦¬à¦¨à¦¥":3991,"à¦¹à§Łà¦ħà¦¨":3992,"à¦¨à¦¤à¦¤":3993,"à¦°à¦ıà¦ľ":3994,"à¦¤à¦ķà¦ª":3995,"à¦®à¦¦à¦ľ":3996,"à¦¨à¦ıà¦®à¦¨à¦ķ":3997,"à¦¬à¦ķà¦Ĺ":3998,"à¦®à¦Ĺà§ľ":3999,"à¦²à¦ķà¦ªà¦²à¦ķà¦ªà¦²à¦ķà¦ªà¦²à¦ķà¦ª":4000,"à¦®à§İà¦ķ":4001,"à¦®à¦ĵà¦²":4002,"à¦¯à¦¬à¦¨":4003,"à¦¶à§Ł":4004,"à¦łà¦¨":4005,"à¦°à¦¥à¦®à¦¨":4006,"à¦ĩà¦²à¦¶":4007,"à¦ıà¦¸à¦Ń":4008,"à¦°à¦¸à¦®à§Łà¦¦":4009,"à¦¨à¦¶à¦¹":4010,"à¦ªà¦¦à¦ľ":4011,"à¦īà¦ľà¦ķ":4012,"à¦ĩà¦īà¦ıà¦¸à¦¬":4013,"à¦īà§İà¦¸à¦°":4014,"à¦¬à¦°à¦«":4015,"à¦¬à¦°à¦ĵà§Ł":4016,"à¦®à¦Ĩà¦°":4017,"à¦ľà¦ķà¦°à¦²":4018,"à¦¶à¦²à¦¬":4019,"à¦ĩà¦ħà¦¸":4020,"à¦ļà¦ıà¦ª":4021,"à¦°à¦®à¦Ļ":4022,"à¦¬à¦¸à¦¹":4023,"à¦ıà¦ĩà¦¸à¦®":4024,"à¦°à¦ļà¦²à¦ļ":4025,"à¦¨à¦®à¦¸à¦ľ":4026,"à¦¹à¦²à¦¤":4027,"à§¬à§¦à§¦":4028,"à¦Ŀà¦¬":4029,"à¦Łà¦¨à¦¡":4030,"à¦²à¦¤à¦Ĩà¦Ľ":4031,"à¦ķà¦¤à¦¤":4032,"à¦¨à¦ıà¦¸à¦®à§Ł":4033,"à¦¬à¦ĩà¦Ĺ":4034,"à¦²à¦Ĩà¦¸":4035,"à¦²à¦§à¦°":4036,"à¦¯à¦ħà¦Ń":4037,"à§Łà¦¨à¦®":4038,"à§Łà¦¤à¦¨":4039,"à¦¶à¦¨à¦¤":4040,"à¦ĩà¦ł":4041,"à¦Ńà¦¬à¦ķ":4042,"à¦ĵà¦ĩà¦ª":4043,"à¦īà¦ĩà¦¯":4044,"à¦ıà¦ķà¦§à¦°à¦¨":4045,"à¦·à¦£à¦¡":4046,"à¦ķà¦¸à¦¹à¦¯":4047,"à¦ĩà¦Łà¦¥":4048,"à¦Ĺà¦£à¦ķ":4049,"à¦§à¦¨à¦ħà¦¨":4050,"à¦ıà¦¨à¦¡":4051,"à§§à§©à§¦":4052,"à¦ħà¦¸à¦®à¦¤":4053,"à¦¬à¦ĵà¦ªà¦¶":4054,"à¦¤à¦¸à¦¬":4055,"à¦®à¦ķà¦¬":4056,"à¦ªà¦¬à¦²":4057,"à¦¦à¦īà¦¤":4058,"à¦¶à¦¶à¦¤":4059,"à¦ĩà¦¶à¦°":4060,"à¦ĩà¦¶à¦¤":4061,"à¦ıà¦°à¦ħà¦¨":4062,"à¦ĵà¦ĺ":4063,"à¦°à¦®à¦¦":4064,"à¦°à¦¤à¦¶":4065,"à¦²à¦ķà¦¶":4066,"à¦ıà¦ĩà¦¸à¦¬":4067,"à¦ķà¦²à¦¬":4068,"à¦¶à¦ķà¦°à¦Ľ":4069,"à¦ķà¦¹à¦ĵà§Ł":4070,"à¦¬à¦ĩà¦ķ":4071,"à¦¤à¦ĩà¦¤":4072,"à¦¤à¦ıà¦Ł":4073,"à¦®à¦¬à¦¨":4074,"à¦²à¦īà¦²":4075,"à¦ªà¦Ĩà¦®":4076,"à¦ľà¦°à¦ľ":4077,"à¦·à¦¡":4078,"à§§à§¨à§ª":4079,"à¦łà¦ķà¦°à¦¤":4080,"à¦°à¦ıà¦®":4081,"à§İà¦¸à¦¬":4082,"à§İà¦īà§İà¦ª":4083,"à¦°à¦īà¦®":4084,"à¦Ĩà¦ľà¦¶":4085,"à¦¨à§Łà¦¨à¦¦":4086,"à¦°à¦Īà¦¶":4087,"à¦ķà¦ĺà¦Łà¦¨":4088,"à¦¤à¦¤à¦¦":4089,"à¦¸à¦¶à¦¸":4090,"à¦®à¦¹à¦¬":4091,"à¦®à§Łà¦¨":4092,"à¦¦à¦ªà§ľ":4093,"à§Łà¦°à¦¬":4094,"à¦¹à¦¨à¦ħ":4095,"à¦·à¦ħà¦¨":4096,"à§§à§¨à§¦à§¨à§§":4097,"à¦¬à¦¨à¦ª":4098,"à¦°à¦Ĩà¦¬à¦¦":4099,"à¦¨à¦¬à¦¹":4100,"à¦°à¦īà¦ªà¦°à¦ª":4101,"à¦ľà¦¨à¦Ĺà¦£à¦ķ":4102,"à¦¨à§Łà¦¤":4103,"à¦¯à¦ĩà¦¸":4104,"à¦īà¦§":4105,"à¦°à¦Ĩà¦°à¦¬":4106,"à¦°à¦ıà¦ķà¦ķ":4107,"à¦¨à¦®à¦®à¦¤":4108,"à¦Łà¦ķà¦°à¦Ľ":4109,"à¦ħà¦¬à¦§":4110,"à¦¶à¦¤à¦Ń":4111,"à¦¨à§Łà¦¨à¦ķ":4112,"à¦Ĺà¦ľà¦ªà¦¤":4113,"à¦ķà¦Ĩà¦¦":4114,"à¦²à¦¸à¦°":4115,"à¦ªà¦¶à¦¨":4116,"à§Łà¦ļà¦²":4117,"à¦Łà¦¢":4118,"à¦ľà¦ĵà¦¸":4119,"à¦¶à¦§":4120,"à¦¡à¦ķà¦²":4121,"à¦īà¦ĩà¦²":4122,"à¦£à¦¥":4123,"à§ľà¦¸":4124,"à§ľà¦¹":4125,"à¦¸à¦®à§Łà¦ª":4126,"à¦ĩà¦¸à¦¦":4127,"à¦°à¦īà¦ł":4128,"à¦®à¦¤à¦¸":4129,"à¦®à¦¸à¦²":4130,"à¦ĩà¦²à¦ł":4131,"à¦¸à¦ķà¦²à¦ª":4132,"à¦¤à¦°à¦Ĺ":4133,"à¦®à¦ļà¦¨":4134,"à¦ıà¦²à¦¸":4135,"à¦ļà¦ªà¦°":4136,"à¦ıà¦ĩà¦ĸ":4137,"à¦¸à¦¬à¦¹":4138,"à¦°à¦ĩà¦¦":4139,"à¦¯à¦¨à¦¯":4140,"à¦ħà¦ªà¦°à¦¦":4141,"à¦¤à¦°à¦Ł":4142,"à¦¯à¦¸à¦°":4143,"à¦¯à¦Ĩà¦Ĺ":4144,"à¦¯à¦īà¦¤":4145,"à¦Łà¦¸à¦¹":4146,"à¦Łà¦īà¦¤":4147,"à¦ĩà¦ĩà¦¤":4148,"à¦ĩà¦Ĩà¦°":4149,"à¦¥à¦Ł":4150,"à¦°à¦ķà¦²à¦ķ":4151,"à§§à§§à§¬":4152,"à¦°à¦¨à¦Ĺà¦°":4153,"à¦¼à¦¾à¦Ĥ":4154,"à¦Ĩà¦¸à¦¸":4155,"à¦ıà¦®à¦¨à¦¬":4156,"à¦°à¦¥à¦®à¦ªà¦°":4157,"à¦¨à¦«à¦¯":4158,"à¦¯à¦Ŀà¦Ł":4159,"à¦¨à¦ĸà¦¬à¦°à¦ķà¦°":4160,"à¦ķà¦°à¦¹à¦®":4161,"à¦¬à¦°à¦Ń":4162,"à¦¤à¦īà¦²":4163,"à¦¯à¦ĩà¦¸à¦®":4164,"à¦¹à¦ĩà¦¯":4165,"à¦Ĩà¦ĸà¦¤":4166,"à¦ļà¦¨à¦¦":4167,"à¦ĵà¦īà¦¤":4168,"à§§à§§à§®":4169,"à¦°à¦¶à¦Ļ":4170,"à¦ĩà¦¨à¦¥":4171,"à¦¦à¦¨à¦Ĺ":4172,"à¦°à¦®à¦£à¦¨":4173,"à¦°à¦®à¦£à¦ª":4174,"à¦ĺà¦Łà¦²":4175,"à§³à§³":4176,"à¦¬à¦Ľà¦°à¦¬à¦¯":4177,"à¦¨à¦ıà¦ķà¦¬":4178,"à¦®à¦°à¦ķ":4179,"à¦²à¦ıà¦Ł":4180,"à¦¯à¦ĩà¦ª":4181,"à¦¯à¦¥à¦¬":4182,"à§Łà¦Ĩà¦ĵà§Ł":4183,"à¦Łà¦ĺ":4184,"à¦·à¦¦à¦°":4185,"à¦§à¦ķà¦°à¦¬":4186,"à¦īà¦²à¦¹":4187,"à¦°à¦®à¦ŀ":4188,"à¦°à¦¹à¦¦":4189,"à¦ĩà¦²à¦°":4190,"à¦°à¦ĸà¦¨":4191,"à¦®à¦¦à¦°":4192,"à¦¤à¦°à¦¹":4193,"à¦¤à¦¸à¦¹":4194,"à¦¤à¦Ĩà¦¨":4195,"à¦¦à¦«à¦¤":4196,"à¦¥à¦ľ":4197,"à¦«à¦¨à¦ķà¦°":4198,"à¦°à¦¨à¦¯":4199,"à¦°à¦ľà¦¯":4200,"à¦ĺà¦¬":4201,"à¦ĩà¦¨à¦²":4202,"à¦ıà¦ĩà¦ĵà¦¯":4203,"à¦ķà¦®à¦°":4204,"à¦Ĩà¦ľà¦¦":4205,"à¦¨à¦ĵà¦ľ":4206,"à¦·à§Łà¦ħà¦¨":4207,"à¦Īà¦¨":4208,"à¦°à¦¥à¦®à¦ľ":4209,"à¦¤à¦°à¦¤à¦ħà¦¬à¦¸":4210,"à¦ķà¦ľà¦¨à¦ª":4211,"à¦¤à¦²à¦ķ":4212,"à¦ªà¦°à¦¶":4213,"à¦¦à¦°à¦Ń":4214,"à¦Łà¦¸à¦¬":4215,"à¦ľà¦¬à¦¨":4216,"à¦Ĩà¦«à¦¤":4217,"à¦ĺà¦°à¦¬":4218,"à¦¶à¦¨à¦ħ":4219,"à¦ķà¦®à¦¦":4220,"à§®à§§à§®":4221,"à¦ıà¦¸à¦ĩ":4222,"à¦ķà¦¸à¦Ļ":4223,"à¦¬à¦ķà¦¶":4224,"à¦īà¦²à¦Ĩà¦²":4225,"à¦ıà¦®à¦ı":4226,"à¦¨à§Łà¦¨à¦¸":4227,"à¦ĩà¦Ĩà¦Ĺà¦·":4228,"à¦ķà¦ıà¦²":4229,"à¦®à¦ł":4230,"à¦®à¦īà¦²":4231,"à¦²à¦¨à¦®":4232,"à¦²à¦Ŀ":4233,"à¦ªà¦°à¦®":4234,"à¦¯à¦¹à¦¯":4235,"à¦¯à¦°à¦ķà¦®":4236,"à¦Łà¦Ĩà¦®":4237,"à¦ĩà¦Ĩà¦¨":4238,"à¦ĵà¦°à¦¬":4239,"à¦ĵà¦¹à§Ł":4240,"à¦°à¦Ĺà¦¡":4241,"à§Łà¦¨à¦¶":4242,"à§Ńà§¯":4243,"à¦ıà¦ĸà¦¨à¦Ĩà¦®":4244,"à§¦à§§à§§à§®":4245,"à¦¤à¦¤à¦ķ":4246,"à¦²à¦ķà¦°à¦²":4247,"à¦¯à¦ı":4248,"à§Łà¦°à¦ľ":4249,"à§Łà¦ĩà¦¨":4250,"à¦Łà§Łà¦²":4251,"à¦¶à¦¸à¦®à§Ł":4252,"à¦ļà¦°à¦ķ":4253,"à¦·à¦¹à¦¬":4254,"à¦ıà¦ķà¦¸à¦®à§Ł":4255,"à¦ªà¦¨à¦ķà¦°à¦¤":4256,"à¦¨à¦ªà§ľ":4257,"à¦¤à¦¨à¦ķà¦°à¦¤":4258,"à¦¨à¦Ĩà¦°à¦¤":4259,"à¦²à¦¸à¦¤":4260,"à¦ħà¦«à¦ĩà¦¨":4261,"à¦°à¦¹à¦£à¦ķà¦°à¦²":4262,"à¦¦à¦ĸà¦²à¦ķà¦°":4263,"à¦ĵà¦ķà¦¨à¦Ł":4264,"à¦¨à¦ĩà¦°":4265,"à¦ķà¦ĩà¦¸à¦²":4266,"à¦²à¦°à¦ķ":4267,"à¦²à¦ĩà¦īà¦¨":4268,"à§Łà¦Ĩà¦¹à¦¤":4269,"à¦¶à¦Ĩà¦ĵà§Ł":4270,"à¦Ńà¦¸à¦®":4271,"à¦ĵà¦°à¦ķ":4272,"à¦ĵà¦°à§Ł":4273,"à¦ĵà¦īà¦ªà¦ľ":4274,"à¦«à¦°à¦¹":4275,"à¦°à¦ıà¦ĩà¦®":4276,"à¦¨à¦®à¦Ļ":4277,"à¦·à¦£à¦ªà¦°":4278,"à¦¤à¦®à¦ľ":4279,"à¦¨à¦Ĺà¦ŀ":4280,"à¦ħà¦ªà¦ª":4281,"à¦¯à¦¤à¦®à¦ª":4282,"à¦¨à¦īà¦ªà¦¦":4283,"à¦īà§İà¦ķà¦£":4284,"à¦¨à¦ľà¦¨à¦ª":4285,"à¦ķà¦Ĩà¦ĩà¦¨":4286,"à¦¸à¦ĩà¦īà¦¨":4287,"à¦¦à¦°à¦īà¦ªà¦ľ":4288,"à§Łà¦ĩà¦īà¦¨":4289,"à¦ĵà¦Ĩà¦¨":4290,"à¦īà¦¨à¦¬":4291,"à¦°à¦¬à¦¤":4292,"à¦°à¦¨à¦¸à¦®":4293,"à¦²à¦ķà¦ķà¦°":4294,"à¦ıà¦ĩà¦ħà¦¨":4295,"à¦¨à¦®à¦§":4296,"à¦ķà¦¸à¦°":4297,"à¦Łà¦¨à¦°":4298,"à¦®à¦ķà¦ķ":4299,"à¦¬à¦Ľà¦°à¦ªà¦°":4300,"à¦¯à¦ªà¦£":4301,"à¦ĸà¦¬à¦°à¦ľ":4302,"à¦ıà¦«à¦¬":4303,"à¦·à¦ĸà¦¬à¦°à¦¸":4304,"à¦¨à¦ľà¦¨à¦ķ":4305,"à¦ķà¦¹à¦¯":4306,"à¦¤à¦Ĺà¦¤":4307,"à§Łà¦°à¦ª":4308,"à¦Łà¦Ĩ":4309,"à¦Ĺà¦īà¦¤":4310,"à¦ĵà¦°à¦¸":4311,"à¦°à¦¸à§ľà¦ķ":4312,"à¦īà¦¶à¦¨":4313,"à¦°à¦¬à¦§":4314,"à¦ıà¦ķà¦ĩà¦Ń":4315,"à¦°à¦Ĩà¦ªà¦¤":4316,"à¦¬à¦°à¦¯":4317,"à¦¹à¦²à¦¨":4318,"à¦°à¦«à¦²à¦ª":4319,"à¦®à¦¦à¦Ĩà¦²":4320,"à¦ĵà¦ľà¦¨à¦ķà¦®":4321,"à¦¤à¦°à¦¸à¦®":4322,"à¦¤à¦ľà¦°":4323,"à¦®à¦īà¦¨":4324,"à¦®à¦ĺà¦Ł":4325,"à§Łà¦Ĩà¦ľ":4326,"à¦ĸà¦ķà¦¦":4327,"à§§à§§à§Ń":4328,"à§ľà¦°":4329,"à¦ıà¦ķà¦¸à¦ª":4330,"à¦°à¦Ĩà¦Ń":4331,"à¦²à¦ķà¦¬à¦²":4332,"à¦ıà¦ĩà¦ķà¦¥":4333,"à§¯à§©":4334,"à¦°à¦§à¦¨":4335,"à¦°à¦ĩà¦¯":4336,"à¦¨à¦Ĺà¦°à¦ª":4337,"à¦ĵà¦¸à¦°à¦ķ":4338,"à¦°à¦Ĩà¦Ĺà¦®à¦¨":4339,"à¦¨à¦ħà¦²":4340,"à¦¬à§ľà¦¬":4341,"à¦°à¦·à§ľà¦¯à¦¨":4342,"à¦°à¦²à¦¨":4343,"à¦¯à¦ħà¦¤":4344,"à§Łà¦Ĩà¦¦":4345,"à§Łà¦ľà¦°":4346,"à¦ľà¦¤à¦¨":4347,"à¦ĩà¦ıà¦Ĺ":4348,"à¦ĸà¦«":4349,"à¦ĵà¦§à¦°":4350,"à¦°à¦®à¦¤à¦ķ":4351,"à¦°à¦ªà¦°à¦Ĩà¦®":4352,"à¦£à¦¹à§Ł":4353,"à§ľà¦Ń":4354,"à¦°à¦¤à¦¸à¦°à¦ķ":4355,"à¦®à¦¨à¦Ĩà¦Ľ":4356,"à¦¹à§Łà¦Ĺ":4357,"à¦¬à¦¸à¦Ł":4358,"à¦¨à¦ªà¦£":4359,"à¦ıà¦ĩà¦ħ":4360,"à¦·à¦£à¦ķà¦°à¦¤":4361,"à¦²à¦ªà¦¦":4362,"à¦ħà¦¬à¦¤":4363,"à¦¤à¦¸à¦¦à¦¸":4364,"à¦ĩà¦Ńà¦¸":4365,"à§İà¦¸à¦ķà¦¨":4366,"à¦·à¦ķà¦¶":4367,"à¦ĩà¦¡à¦²":4368,"à¦Ĺà¦¤à¦¬à¦ķ":4369,"à¦¨à¦°à¦ķà¦®":4370,"à¦¬à¦¦à¦°":4371,"à¦²à¦ł":4372,"à§Łà¦°à¦¸":4373,"à¦°à¦ħà¦ªà¦¬":4374,"à¦²à¦¬à¦ª":4375,"à¦®à¦¸à¦°":4376,"à¦ıà¦¸à¦ı":4377,"à¦°à¦²à¦ľ":4378,"à¦²à¦®à¦Ļ":4379,"à¦°à¦«à¦ľ":4380,"à¦ĩà¦Łà¦ķà¦°":4381,"à¦ķà¦ªà¦¥":4382,"à§¦à§§à§§à§®à§ªà§«":4383,"à¦¨à¦Ĩà¦¬à¦¦":4384,"à¦¤à¦ħà¦§":4385,"à¦¸à¦ĩà¦¸à¦²":4386,"à¦¦à¦°à¦ķà¦¥":4387,"à¦¦à¦¬à¦Ľà¦°à¦°":4388,"à¦¯à¦Łà¦ķ":4389,"à§Łà¦¹à¦²":4390,"à¦¹à¦ĩà§Ł":4391,"à¦Ĺà¦¸à¦°à¦ķ":4392,"à¦ĩà¦¹à§Łà¦¤":4393,"à¦Ńà¦¶":4394,"à¦§à¦ķà¦°à¦²":4395,"à¦ĵà¦Ĩà¦°":4396,"à¦°à¦¤à¦ļ":4397,"à¦łà¦¥":4398,"à¦ıà¦ĩà¦ħà¦Ń":4399,"à¦°à¦Ńà¦ķ":4400,"à¦¤à¦¸à¦ļ":4401,"à¦ıà¦°à¦ªà¦°à¦¤":4402,"à¦ıà¦¸à¦®à§Łà¦¤":4403,"à¦¤à¦Ĩà¦®à¦°":4404,"à¦²à¦ıà¦¨":4405,"à¦¹à¦¨à¦¤":4406,"à¦ľà¦ķà¦¥":4407,"à¦ıà¦ļ":4408,"à¦§à¦¹à¦²":4409,"à¦°à¦£à¦ıà¦¬":4410,"à¦¨à¦¸à¦ķà¦²":4411,"à¦°à¦ĵà¦²":4412,"à¦°à¦īà¦ĩà¦ķ":4413,"à¦²à¦¬à¦Ļ":4414,"à¦®à¦¤à¦®":4415,"à¦°à¦§à¦°à¦¨":4416,"à¦°à¦ĩà¦īà¦Ł":4417,"à¦®à¦¦à¦¤":4418,"à¦¤à¦¸à¦ķà¦²":4419,"à¦ıà¦°à¦ªà¦ķ":4420,"à¦²à¦Ĩà¦¹à¦¸":4421,"à¦¥à¦²à¦¬à¦¨":4422,"à¦¤à¦°à¦«":4423,"à¦¦à¦ħà¦Ń":4424,"à§Łà¦ħà¦¤":4425,"à§Łà¦ıà¦ĩà¦¸":4426,"à¦¹à¦²à¦ķ":4427,"à¦ľà¦ħ":4428,"à¦ĩà¦Ľà¦¬":4429,"à¦ķà¦°à¦°":4430,"à¦·à¦®à¦¨":4431,"à¦§à¦§à¦°":4432,"à¦°à¦Ĩà¦¬à¦¹":4433,"à¦ĩà¦²à¦¹":4434,"à¦°à¦ĩà¦Ń":4435,"à¦¨à¦Ĩà¦Łà¦ķ":4436,"à¦¨à¦Ĩà¦ľà¦¸":4437,"à¦°à¦īà¦ªà¦ªà¦°":4438,"à¦¸à¦Ńà¦¬à¦¨":4439,"à¦Ńà¦¬à¦¹à¦¬":4440,"à¦¯à¦ĸà¦¨à¦ª":4441,"à¦¤à¦ĸà¦¨à¦ķ":4442,"à¦¤à¦ĵà§Ł":4443,"à¦²à¦ĩà§Ł":4444,"à¦¦à¦²à¦¨":4445,"à¦¯à¦®à¦¸":4446,"à¦¶à¦¦à¦²":4447,"à¦ĩà¦ĩ":4448,"à¦ĩà¦¢":4449,"à¦°à¦ķà¦ĸà¦¨":4450,"à¦°à¦£à§Łà¦¨":4451,"à¦°à¦ļà¦²à¦®":4452,"à¦¨à¦¨à¦Ń":4453,"à¦¹à¦¤à¦ķ":4454,"à§®à§¨à§¦à§¨à§§":4455,"à§§à§¨à§«":4456,"à¦¨à¦ıà¦ĩà¦®":4457,"à¦¨à¦ıà¦ĩà¦¸à¦®à§Ł":4458,"à¦¬à§ľà¦ª":4459,"à¦ĵà¦¸à¦®à¦®":4460,"à¦Ķà¦·à¦§":4461,"à¦®à¦ĩà¦°à¦¹":4462,"à¦¸à¦¸à¦°":4463,"à¦ªà¦ķà¦¸":4464,"à¦ªà¦®à¦§":4465,"à§Łà¦¹à¦¤":4466,"à§Łà¦ıà¦ķà¦ľà¦¨":4467,"à¦¹à¦°à¦¬":4468,"à¦Ĺà¦²à¦¸":4469,"à¦§à¦¨à¦°":4470,"à¦«à¦²à¦¬":4471,"à§¨à§¨à§¦":4472,"à¦¸à¦®à§Łà¦¦":4473,"à¦ıà¦ķà¦®à¦¹":4474,"à§ªà§¨à§¦à§¨à§§":4475,"à¦ıà¦¸à¦Ł":4476,"à¦ĵà¦¸à¦¦à¦¸":4477,"à¦·à¦ķà¦¸à¦®":4478,"à¦Ĳà¦¶":4479,"à¦®à¦Ĩà¦°à¦¦":4480,"à¦¯à¦Łà¦ķà¦¦":4481,"à¦¤à¦¶à¦¬":4482,"à¦¤à¦ħà¦¤":4483,"à¦®à¦ħà¦°":4484,"à¦²à¦ªà¦¤":4485,"à¦¯à¦ħà¦¸":4486,"à§Łà¦ķà¦²":4487,"à¦ľà¦Ĩà¦®":4488,"à¦Ĩà¦°à¦Ĺ":4489,"à¦¥à¦ªà¦¤":4490,"à¦¡à¦ĸ":4491,"à¦°à¦¸à¦«à¦°":4492,"à¦¨à¦¬à¦ª":4493,"à¦ªà¦¨à¦īà¦ªà¦²à¦ķ":4494,"à¦¨à¦¸à¦¹à¦ķ":4495,"à¦®à¦¸à¦¨":4496,"à¦°à¦«à¦Ł":4497,"à¦¨à¦Ĩà¦°à¦¸":4498,"à¦¨à¦¶à¦¬":4499,"à¦Ĩà¦°à¦ĵà¦ķ":4500,"à¦°à¦īà¦ªà¦¸à¦°":4501,"à§¨à§¦à§§à§¬à§¨à§¦à§§à§Ń":4502,"à¦¸à§ľà¦ķà¦ħà¦¬à¦°":4503,"à¦¨à¦Ĩà¦°à¦ĵà¦ªà§ľ":4504,"à¦¬à¦®à¦¹":4505,"à¦¤à¦°à¦Ń":4506,"à¦¯à¦¸à¦¨":4507,"à§Łà¦īà¦ªà¦ľ":4508,"à§Łà¦ıà¦¤":4509,"à¦¶à¦ĺ":4510,"à¦ĩà¦Ĩà¦¶":4511,"à¦ļà¦¨à¦ª":4512,"à¦Ńà¦°à¦¤":4513,"à¦ĸà¦ªà¦°":4514,"à¦ĵà¦ĩà¦®":4515,"à¦°à¦ıà¦ĩà¦¨":4516,"à¦ĩà¦¨à¦¹":4517,"à¦ķà¦Łà¦¥":4518,"à¦¦à¦¨à¦Ł":4519,"à¦¨à¦Ĩà¦«":4520,"à¦ĩà¦Łà¦Ń":4521,"à§§à§¦à§§à§§":4522,"à¦Ńà¦¬à¦¹à§Łà¦¨":4523,"à¦¨à¦Ĩà¦ľà¦ľà¦¨":4524,"à¦ķà¦ħà¦ħ":4525,"à¦®à¦Ĩà¦²à¦®à¦Ĺ":4526,"à¦ķà¦Ĺà¦²":4527,"à¦®à¦ķà¦²":4528,"à¦¦à¦°à¦ķà¦°":4529,"à¦¦à¦°à¦¥":4530,"à§ģà§ģ":4531,"à§Łà¦®à¦¸à¦ľ":4532,"à¦ĩà¦ıà¦²":4533,"à¦·à¦¹à¦¯":4534,"à¦ĵà¦°à¦ª":4535,"à¦ĵà¦Ĩà¦®à¦°":4536,"à¦²à¦ķà¦Ĺ":4537,"à§¨à§¦à§¨à§ª":4538,"à¦ıà¦ĩà¦Ľà¦¬":4539,"à¦ĩà¦¸à¦°à¦ķ":4540,"à¦°à¦īà¦ľ":4541,"à¦¤à¦¨à¦¥":4542,"à¦¦à¦ķà¦Ĩà¦¬":4543,"à¦¤à¦®à¦¦":4544,"à¦ĩà¦Łà¦¹":4545,"à¦¨à¦ıà¦Ĺ":4546,"à¦¨à¦¶à¦¹à¦°":4547,"à¦Ĩà¦°à¦ĵà¦¸":4548,"à¦¶à¦¤à¦¬à¦°":4549,"à¦°à¦¸à¦¬à¦ľ":4550,"à§§à§¯à§¯à§®":4551,"à¦·à§Łà¦ķà¦¸à¦®":4552,"à¦¬à¦Ĩà¦Ľ":4553,"à¦¦à¦īà¦ªà¦¸":4554,"à¦¦à¦°à¦Ĺà¦ŀ":4555,"à¦°à¦Ķ":4556,"à§Łà¦¨à¦ª":4557,"à¦¹à¦¨à¦¨":4558,"à¦¶à¦Ĩà¦¨":4559,"à¦Ľà¦ļ":4560,"à¦ļà¦²à¦ķ":4561,"à¦Ńà§Łà¦ª":4562,"à¦¡à¦ĵà¦¯":4563,"à¦°à¦ªà¦¦à¦ķ":4564,"à¦£à¦Ľ":4565,"à¦°à¦¦à¦²à¦¨":4566,"à¦¶à¦¨à¦ıà¦¬":4567,"à¦īà¦ªà¦ķà¦°à¦£":4568,"à¦®à¦¤à¦²à¦¬":4569,"à¦ĩà¦Łà¦ķ":4570,"à¦Ĩà¦°à¦ĵà¦Ń":4571,"à¦ĩà¦¬à¦¨à¦¸":4572,"à¦¯à¦¥à¦Ń":4573,"à¦ķà¦¨à¦ķ":4574,"à¦ķà¦Ĩà¦¹à¦®":4575,"à¦¤à¦°à¦Ļ":4576,"à¦ªà¦ļà¦°":4577,"à¦¯à¦°à§Ł":4578,"à¦Ĩà¦Ń":4579,"à¦ĵà¦īà¦¦":4580,"à¦°à¦ķà¦Ł":4581,"à¦£à¦ĺ":4582,"à¦°à¦¹à§Łà¦¤":4583,"à¦ĺà¦²":4584,"à§¨à§¦à§¨à§«":4585,"à¦°à¦ľà¦¨à¦¨":4586,"à¦ıà¦¸à¦ĩà¦¸":4587,"à¦²à¦¤à¦ĸ":4588,"à§Łà¦ķà¦ķà¦®":4589,"à¦²à§Łà¦Ĺ":4590,"à§Łà¦ľà§ľ":4591,"à¦īà¦¬à¦ļ":4592,"à¦Ĺà¦¤à¦ķà§Ł":4593,"à¦¨à¦°à¦®":4594,"à¦ķà¦ķà¦¬":4595,"à¦ķà¦Ŀ":4596,"à¦¤à¦Ľà¦¬":4597,"à¦¸à§Ł":4598,"à¦¸à¦°à¦¤":4599,"à¦®à¦ĵà§Ł":4600,"à¦²à¦²à¦ķ":4601,"à¦²à¦ıà¦¸":4602,"à¦²à¦ĩà¦®":4603,"à¦²à§Łà¦ª":4604,"à¦¦à¦°à¦¤":4605,"à¦¯à¦ħà¦ªà¦°":4606,"à¦¯à¦ĵà¦ªà¦°":4607,"à¦¹à¦Ĩ":4608,"à¦Łà¦¸à¦ķ":4609,"à¦¥à¦¹à¦¯":4610,"à¦ĵà¦°à¦®":4611,"à¦ĵà¦ķà¦°à¦¤":4612,"à¦«à§Łà¦¸":4613,"à¦°à¦ķà¦ļ":4614,"à¦£à¦¤à¦ķà¦°":4615,"à¦ıà¦ķà¦¦à¦®":4616,"à¦°à¦Ĩà¦®à¦¨":4617,"à¦°à¦ıà¦Ń":4618,"à¦¸à¦¬à¦ĸ":4619,"à¦¨à¦¨à¦¯":4620,"à¦¹à¦²à¦ª":4621,"à¦²à¦¨à¦¦":4622,"à¦ıà¦ĸà¦¨à¦¯":4623,"à¦¨à¦ħà¦®":4624,"à§©à§©à§©":4625,"à¦¨à¦ĺà¦Ł":4626,"à¦¬à¦ħ":4627,"à¦¬à¦ıà¦¶":4628,"à¦¤à§İà¦ª":4629,"à¦®à§Łà¦ķ":4630,"à¦ªà¦®à¦¨":4631,"à¦ªà¦ĵà¦¸":4632,"à¦ıà¦ıà¦®":4633,"à¦ķà¦°à¦®":4634,"à¦ĸà¦Ĺ":4635,"à¦¡à¦Ľ":4636,"à¦°à¦¤à¦ħà¦¬à¦¸":4637,"à¦°à¦Ĩà¦ĩà¦ª":4638,"à¦ĺà¦ª":4639,"à¦°à¦£à¦Ĩà¦®":4640,"à§¨à§¦à§¨à§¦à§¨à§§":4641,"à¦¨à¦ķà§Ł":4642,"à¦¦à¦¨à¦«":4643,"à¦°à¦īà¦ªà¦°à¦¸":4644,"à¦ıà¦ķà¦ľà¦¨à¦¶":4645,"à¦®à¦Ĩà¦°à¦ĸ":4646,"à¦¸à¦ķà¦²à¦¬":4647,"à¦¬à¦ľà¦¨à¦¦":4648,"à¦¬à¦ĩà¦¤":4649,"à¦²à¦ıà¦²":4650,"à¦¯à¦ĩà¦®":4651,"à§Łà¦¶à¦¨":4652,"à¦¹à¦¸à¦ª":4653,"à¦Ĩà¦Ĩà¦Ľ":4654,"à¦·à¦Ĩà¦®":4655,"à¦¥à¦ħà¦¨":4656,"à¦®à¦¨à¦²":4657,"à¦°à¦ħà¦¬à¦°":4658,"à¦°à¦ħà¦¨à¦¨":4659,"à¦ĩà¦¸à¦ķ":4660,"à¦īà¦¨à¦¶":4661,"à¦²à¦¬à¦¦":4662,"à¦®à¦¦à¦¶":4663,"à¦ķà¦¨à¦Ł":4664,"à¦¨à¦ıà¦°à¦®à¦§":4665,"à§Łà¦¬à¦ķ":4666,"à¦¨à¦ĵà¦ªà¦°":4667,"à§§à§¨à§§à§©":4668,"à¦²à¦Ĺà¦ĩà¦¨":4669,"à¦ıà¦ĸà¦¨à¦¥":4670,"à¦°à¦®à¦£à¦°":4671,"à¦ıà¦°à¦ªà¦°à¦¥":4672,"à¦¤à¦°à¦£à¦ķà¦°à¦²":4673,"à¦¤à¦ĸà¦¨à¦¬":4674,"à¦ĩà¦®à¦¸à¦ħà¦«à¦ĩà¦¨":4675,"à¦ķà¦ĸà¦¬":4676,"à¦®à¦ķà¦°à¦¤":4677,"à¦²à¦ħà¦¬":4678,"à¦Łà¦¸à¦¨":4679,"à¦Ĩà¦¨à¦¬":4680,"à¦Ĩà¦«à¦°":4681,"à¦ıà¦¤à¦ķ":4682,"à¦·à¦ľà¦¨à¦ª":4683,"à¦§à¦ħà¦¨":4684,"à¦¥à¦¡":4685,"à¦īà¦¦à¦ķ":4686,"à¦ıà¦ķà¦Ń":4687,"à¦°à¦ıà¦ķà¦¤":4688,"à¦¸à¦¬à¦ĸà¦¬":4689,"à¦¯à¦®à¦°":4690,"à¦Ĩà¦ľà¦¹":4691,"à§§à§¦à§§":4692,"à¦¸à¦®à§Łà¦²":4693,"à¦°à¦¹à¦£à¦ķà¦°à¦¬":4694,"à§¨à§¦à§§à§®à§¨à§¦à§§à§¯":4695,"à¦²à¦°à¦¬":4696,"à¦¦à¦¹à§Ł":4697,"à¦¯à¦¹à¦ļ":4698,"à¦ľà¦¹à§Ł":4699,"à¦¶à¦ĵà¦¬":4700,"à¦ıà¦°à¦¸à¦®":4701,"à¦Ńà¦¬à¦¸":4702,"à¦¥à¦ªà¦°":4703,"à¦ĸà¦¨à¦¨":4704,"à¦īà¦¸à¦¸":4705,"à¦¸à¦®à¦Ŀ":4706,"à¦ıà¦ķà¦®à¦¤":4707,"à¦¶à¦¨à¦«":4708,"à§Łà¦¨à¦¦":4709,"à¦¦à¦¨à¦°":4710,"à¦ĵà¦¯à¦¦":4711,"à¦Ĩà¦ľà¦¤":4712,"à¦ħà¦ªà¦°à¦ķ":4713,"à¦Ńà¦¬à¦ĺ":4714,"à¦Īà¦¦à¦ĩà¦¬à¦¨":4715,"à¦ķà¦ĵà¦īà¦ļ":4716,"à¦¬à¦ħà¦Ń":4717,"à¦Łà¦Ĩà¦²":4718,"à¦ľà¦ĺà¦°":4719,"à¦¶à¦¬à¦²":4720,"à¦¶à¦ħà¦Ń":4721,"à¦ĩà¦Łà¦¨":4722,"à¦ĩà¦īà¦¦":4723,"à¦ĩà¦ħà¦¬à¦¸":4724,"à¦ĩà¦¬à¦²à¦²":4725,"à¦ĩà¦ļà¦²à¦Ľ":4726,"à¦Ĩà¦ĩà¦²":4727,"à¦Ľà¦¶":4728,"à¦¥à¦¨à¦¦":4729,"à¦¼à§Ĥ":4730,"à¦«à¦²à¦¤":4731,"à¦°à¦ªà¦°à¦¹":4732,"à¦ıà¦ķà¦¬à¦Ľà¦°":4733,"à¦ľà¦¨à¦ªà¦°":4734,"à¦°à¦ħà¦¬à¦¨à¦¤":4735,"à¦°à¦ĵà¦ļ":4736,"à¦¹à¦²à¦®":4737,"à¦ĩà¦²à¦¦":4738,"à¦¦à¦ķà¦ķà¦°":4739,"à¦ļà¦²à¦²":4740,"à¦¨à¦ıà¦ĺà¦Łà¦¨":4741,"à¦ĩà¦ªà¦¥":4742,"à¦¤à¦¹à§Łà¦¤":4743,"à¦ĸà¦²à¦ķà¦°":4744,"à¦ľà¦ªà¦¥":4745,"à¦¬à¦ħà¦°":4746,"à¦²à¦ħà¦ķ":4747,"à¦ªà¦ĵ":4748,"à¦¯à¦ĩà¦ķ":4749,"à¦Ĺà¦¨à¦Ń":4750,"à¦ĩà¦ıà¦¦":4751,"à¦Ĩà¦°à¦¡":4752,"à¦Ĩà¦ĩà¦«":4753,"à¦·à¦®à¦¹":4754,"à¦°à¦Ĩà¦Ł":4755,"à¦¨à¦¸à¦¹à¦ľ":4756,"à¦°à¦ĵà¦¹":4757,"à¦¹à¦²à¦¦":4758,"à¦ĩà¦Łà¦«":4759,"à¦¨à¦ıà¦°":4760,"à¦°à¦¹à¦£à¦¶":4761,"à¦Ĺà¦łà¦¨à¦Ĺ":4762,"à¦Ĺà¦łà¦¨à¦Ł":4763,"à¦¯à¦ķà¦°à¦ķà¦°":4764,"à¦Łà¦®à¦¶":4765,"à§¨à§®à§¨à§¦à§¨à§§":4766,"à§§à§¯à§¯à§¦":4767,"à¦²à¦°à¦¸":4768,"à¦ľà¦²à¦ķ":4769,"à¦Ĩà¦Łà¦ķà¦°":4770,"à¦§à¦¹à¦¤":4771,"à¦īà¦¨à¦ķ":4772,"à¦īà¦¯à¦¦":4773,"à¦«à¦¨à¦ķ":4774,"à¦«à¦¤à¦°":4775,"à¦°à¦ªà¦°à¦ħà¦¨":4776,"à¦¸à¦®à¦¹":4777,"à¦¨à¦¬à¦¬à¦°":4778,"à¦°à¦ıà¦¶":4779,"à¦īà¦ªà¦®à¦¹":4780,"à¦¨à¦¦à¦ª":4781,"à¦¤à¦¨à¦¶":4782,"à¦°à¦ĩà¦¨à¦¸":4783,"à¦²à¦®à¦¡":4784,"à¦¨à¦Ĩà¦ª":4785,"à¦¹à¦°à¦°à¦¸":4786,"à¦ħà¦ªà¦¶à¦¨":4787,"à¦Ńà¦¬à¦ķà¦°à¦¤":4788,"à¦°à§Łà¦ķ":4789,"à¦¨à¦Ĩà¦¸à¦²":4790,"à¦ķà¦Ļ":4791,"à¦¸à¦°à¦¡":4792,"à¦¸à¦Ĳà¦¤":4793,"à¦®à¦°à¦¬":4794,"à§Łà¦ıà¦¦":4795,"à¦Łà¦¹à¦ļ":4796,"à¦ĩà¦ĩà¦¸à¦²":4797,"à¦ļà¦¨à¦¬":4798,"à¦ĵà¦ıà¦ĩ":4799,"à¦ĵà¦Ĩà¦¦":4800,"à¦ĵà¦Ĺà¦¬":4801,"à¦«à¦Ĩà¦²":4802,"à¦°à¦¬à¦£":4803,"à¦°à¦ªà¦°à¦ļ":4804,"à¦°à¦Ĩà¦ĩà¦¡":4805,"à¦°à¦Ĩà¦¶à¦ª":4806,"à¦¨à¦¤à¦ļ":4807,"à¦°à¦ħà¦¦":4808,"à¦°à¦§à¦°à¦ķà¦°":4809,"à¦¦à¦¨à¦Ń":4810,"à§Łà¦¸à¦¹":4811,"à¦ķà¦¤à¦¹":4812,"à¦Ĩà¦ľà¦ĩà¦ª":4813,"à§Łà¦ªà¦¡":4814,"à¦ĩà¦ľà¦®":4815,"à¦¸à¦®à§Łà¦Ĩà¦ªà¦¨":4816,"à¦ıà¦ĸà¦¨à¦®":4817,"à¦¬à¦¤à¦¤":4818,"à¦ıà¦®à¦ľ":4819,"à§§à§®à§®à§¦":4820,"à§§à§ªà§ª":4821,"à¦¨à¦ıà¦ĩà¦ķ":4822,"à¦°à¦¸à¦¦à¦°à¦īà¦ªà¦ľ":4823,"à¦¸à¦¸à¦¹":4824,"à¦¶à¦¬à¦°":4825,"à¦ĩà¦ªà§ľ":4826,"à¦Ĩà¦Ĩ":4827,"à¦Ńà¦Ĺà¦¬":4828,"à¦§à¦¶à¦¤":4829,"à¦ĵà¦ıà¦ĸà¦¨":4830,"à¦ľà¦¨à¦ħà¦¨":4831,"à¦¬à¦¨à¦Ń":4832,"à¦°à¦ıà¦°":4833,"à¦°à¦ĩà¦¶":4834,"à¦²à¦¤à¦¦":4835,"à¦°à¦«à¦¸à¦²":4836,"à§Łà¦ķà¦ķ":4837,"à¦°à§Łà¦Ł":4838,"à¦¤à¦ªà¦¡":4839,"à¦ªà¦¦à¦®à¦¨":4840,"à¦²à¦¹à¦ľ":4841,"à¦²à¦¹à¦ķà¦¸":4842,"à§İà¦¸à¦ķà¦¦":4843,"à§§à§ªà§¦à§§à§§à§®à§ªà§«":4844,"à¦°à¦ĵà¦ªà¦°à¦ª":4845,"à¦°à¦¸à¦¹à¦ª":4846,"à¦¿à¦¾":4847,"à¦¨à¦¨à¦ķ":4848,"à¦¨à§Łà¦¬":4849,"à¦¬à¦®à¦¨":4850,"à¦¬à¦ĩà¦¨":4851,"à¦¬à¦ĩà¦Ń":4852,"à¦ªà¦¹à§Ł":4853,"à¦¯à¦ĵà§Ł":4854,"à§Łà¦īà¦¤":4855,"à§Łà¦¶à¦¹":4856,"à¦¹à¦¨à¦¬":4857,"à¦ľà§Łà¦¬":4858,"à¦¶à¦¹à¦²":4859,"à¦¶à¦ĵà¦ª":4860,"à¦ĩà¦ħà¦ķ":4861,"à¦ļà¦°à¦£":4862,"à¦·à¦§":4863,"à¦§à¦¨à¦¦":4864,"à¦ĵà¦°à¦«":4865,"à¦°à¦ķà¦ļà¦ķ":4866,"à¦°à¦ªà¦¨":4867,"à¦°à¦¹à¦ª":4868,"à¦°à¦Ĩà¦¨à¦®":4869,"à¦ªà¦¨à¦¸à¦®":4870,"à§¨à§¦à§¨à§©":4871,"à¦ĩà¦¨à¦¯":4872,"à¦ķà¦¬à¦°à¦ĸ":4873,"à§İà¦ļ":4874,"à¦²à¦¨à¦Ĺ":4875,"à¦¤à¦¨à¦ļ":4876,"à¦ķà¦Łà¦ª":4877,"à¦°à¦²à¦®":4878,"à¦°à¦¸à¦®à§Łà¦¨":4879,"à§¨à§¦à§¨à§§à§§à§¦":4880,"à§¨à§ªà§ª":4881,"à¦Łà¦¸à¦ķà¦²":4882,"à¦ĵà¦ķà¦ĸà¦¨":4883,"à§§à§¬à§§à§Ń":4884,"à¦¨à¦§à¦°à¦£":4885,"à§®à§®à§¦à§¯à§¬":4886,"à¦ķà¦ĵà¦°":4887,"à¦¬à¦°à¦¢":4888,"à¦¤à¦ħà¦¸":4889,"à¦²à¦ħà¦«":4890,"à¦ªà¦°à¦¬":4891,"à¦Łà¦°à¦®":4892,"à¦Łà¦Ĩà¦¬":4893,"à¦Łà¦®à¦¸":4894,"à¦Łà¦Ĩà¦ª":4895,"à¦ľà¦ļà¦²à¦Ľ":4896,"à¦ĸà¦¬à¦¨":4897,"à¦ľà¦¨à¦ļ":4898,"à¦¬à¦¨à¦Ĩà¦¨à¦¨":4899,"à¦ĩà¦¡à¦¬":4900,"à¦¨à§Łà¦¶":4901,"à¦¬à§ľà¦¦":4902,"à¦Ĩà¦Łà¦ķà¦¬":4903,"à¦ªà¦¦à¦ķà¦ª":4904,"à¦ķà¦īà¦¤":4905,"à¦¬à¦ī":4906,"à¦¸à¦ĵà¦¸":4907,"à¦²à¦¤à¦®":4908,"à§Łà¦ĩà¦īà¦ª":4909,"à¦¹à§İ":4910,"à¦¹à¦ķà¦°à¦²":4911,"à¦Ľà¦¦à¦¸":4912,"à¦ĵà¦ĩà¦ķ":4913,"à¦ĵà¦ĩà¦¤":4914,"à¦ħà¦¬à¦¨":4915,"à¦īà¦¬à¦¸":4916,"à¦°à¦ķà¦¬à¦°":4917,"à¦£à¦ħà¦¨":4918,"à¦°à¦¤à¦¯":4919,"à¦ªà¦°à¦¦":4920,"à¦°à¦¨à¦¶à¦¨":4921,"à¦°à¦£à¦ĵà¦ª":4922,"à¦²à¦ķà¦¤":4923,"à¦ĩà¦¨à¦ļ":4924,"à¦ıà¦ĩà¦¤à¦¥":4925,"à¦¹à¦¤à¦¹":4926,"à¦°à¦¯à¦¶":4927,"à¦ķà¦¸à¦ª":4928,"à¦²à¦¤à¦ĸà¦¨":4929,"à¦ĩà¦ľà¦°":4930,"à¦ĩà¦Ńà¦ľ":4931,"à¦°à¦ıà¦ķà¦¶":4932,"à§¨à§Ńà§¨à§¦à§¨à§§":4933,"à¦ĭà¦£à¦¨":4934,"à¦¸à¦¹à¦²":4935,"à¦®à¦ħà¦Ń":4936,"à¦²à¦ĵà¦®":4937,"à¦¯à¦ķà¦°à¦²":4938,"à§Łà¦«à¦²":4939,"à§Łà¦ıà¦®à¦¨":4940,"à¦¹à¦°à¦°":4941,"à¦ľà¦ķà¦®":4942,"à¦¶à¦°à¦£":4943,"à¦¶à¦ħà¦°":4944,"à¦Ĩà§Łà¦ķà¦°":4945,"à¦ıà¦¸à¦®à¦¯":4946,"à¦ļà¦ķà¦ª":4947,"à¦ķà¦°à¦ķà¦®":4948,"à¦·à¦¬à¦²":4949,"à¦īà¦«":4950,"à§¨à§§à§¯":4951,"à§ľà¦«":4952,"à¦łà¦ķà¦ķà¦°":4953,"à¦°à¦¨à¦ľà¦°":4954,"à¦°à¦Ĩà¦¡":4955,"à¦¹à§Łà¦Ĩà¦®":4956,"à¦°à¦£à¦Ĺ":4957,"à¦¨à¦¤à¦ĸà¦¨à¦¤":4958,"à¦°à¦īà¦ķ":4959,"à¦ķà¦²à¦¸":4960,"à¦¤à¦ķà¦°à¦£à¦ķà¦°":4961,"à¦²à¦¤à¦¤":4962,"à¦ªà¦ķà¦°à¦«":4963,"à¦Ĺà¦¤à¦¤":4964,"à¦Ĩà¦°à¦ĵà¦ıà¦ķà¦Ł":4965,"à¦²à¦¹à¦ķà¦ļ":4966,"à¦·à§Łà¦¬à¦¸":4967,"à¦Ĩà¦¶à¦«":4968,"à§©à§¦à§¨à§¦à§¨à§§":4969,"à¦Ĺà¦®à¦ľ":4970,"à¦¤à¦²à¦¬":4971,"à¦¸à¦°à¦¸":4972,"à¦¸à¦°à¦®":4973,"à¦®à¦Ĩà¦¸":4974,"à¦®à¦Ŀ":4975,"à¦®à¦ĵà¦¸":4976,"à¦²à¦¶à¦¨":4977,"à¦¦à¦ĵà¦®":4978,"à¦Łà¦²à¦ķ":4979,"à¦Łà¦§à¦°":4980,"à¦Ĺà¦ķà¦°à¦Ľ":4981,"à¦ĩà¦ķà¦°à¦¬":4982,"à¦ıà¦°à¦®à¦¤":4983,"à¦·à¦ķà¦²":4984,"à¦²à¦®à¦ľ":4985,"à¦Łà¦¨à¦ķà¦°":4986,"à¦²à§Łà¦ľ":4987,"à¦ıà¦ĩà¦ļà¦ª":4988,"à¦ļà¦ªà¦ł":4989,"à¦«à¦°à¦¯à¦Ľ":4990,"à¦¨à¦ļà¦¨":4991,"à¦¸à¦ªà¦¤":4992,"à¦¸à¦ĩà¦¤":4993,"à¦²à¦ĵà¦¸":4994,"à¦²à¦Ľà¦¬":4995,"à¦¯à¦¢":4996,"à¦¯à¦īà¦ªà¦¯":4997,"à§Łà¦ĵà§Ł":4998,"à§Łà¦¯à¦¦":4999,"à¦Łà¦¹à¦¤":5000,"à¦Łà¦īà¦ªà¦ľ":5001,"à¦ĩà¦¹à¦¯":5002,"à¦¬à¦¨à¦Ł":5003,"à¦°à¦Ĩà¦¬à¦°":5004,"à¦¨à¦ķà¦¨":5005,"à¦Ĩà¦²à¦¤":5006,"à¦¶à¦¨à¦ļ":5007,"à¦ĩà¦²à¦Ľà¦¬":5008,"à¦¦à¦ķà¦¤":5009,"à¦ıà¦¸à¦ıà¦¸":5010,"à¦ĩà¦®à¦¦":5011,"à¦¶à¦ķà¦ķà¦°":5012,"à¦¶à¦¤à¦ĸ":5013,"à§§à§®à§¦":5014,"à§§à§ªà§ªà§©":5015,"à¦¨à¦ħà¦¶":5016,"à¦Łà¦¬à¦²à¦¬":5017,"à§¯à§¯à§¯":5018,"à¦°à¦¸à¦ķà¦²à¦ªà¦°":5019,"à¦¤à¦Ĺà¦²":5020,"à¦¸à¦ĵà¦¬":5021,"à¦¸à¦¶à¦°":5022,"à¦®à¦īà¦ª":5023,"à¦²à¦«à¦²":5024,"à¦²à¦®à¦¸à¦ľ":5025,"à§Łà¦ħà¦¬":5026,"à¦Łà¦Ĩà¦¨":5027,"à¦Łà¦¹à¦ĵà§Ł":5028,"à¦ľà¦ĺ":5029,"à¦¶à¦¤à¦¬":5030,"à¦ıà¦®à¦¤":5031,"à¦Ľà¦¦à¦®":5032,"à¦·à¦Ĩà¦ªà¦¡":5033,"à¦®à¦¨à¦¶":5034,"à¦°à¦¦à¦°à¦¬":5035,"à¦Ļà¦¨":5036,"à¦¹à§Łà¦¬à¦²":5037,"à¦¨à¦¬à¦¸à¦®":5038,"à¦ĺà§ľ":5039,"à¦°à¦ıà¦¡":5040,"à¦¤à¦¬à§Łà¦¸":5041,"à¦®à¦¤à¦Ń":5042,"à¦¨à¦Ĩà¦°à¦¬":5043,"à¦¯à¦¦à¦°à¦ķ":5044,"à¦Ĺà¦¤à¦¸à¦ª":5045,"à§§à§¨à§§à§«":5046,"à¦¬à¦¤à¦²":5047,"à¦Ķà¦ªà¦¨":5048,"à§¨à§¦à§§à§®à§¨à§¦à§§à§¯à§¨à§¦à§¨à§¦à§¨à§¦à§¨à§§":5049,"à¦¨à¦ĸà¦¬":5050,"à¦¬à¦¹à¦¬":5051,"à¦¤à¦ĵà¦¸":5052,"à¦®à¦Ĺà¦£":5053,"à¦²à¦®à¦¤":5054,"à¦²à¦ĵà¦¬":5055,"à¦²à§Łà¦®":5056,"à¦¯à¦°à¦ļà¦¨":5057,"à¦Łà¦¸à¦°à¦ķ":5058,"à¦Ĺà¦®à¦®":5059,"à¦ĩà¦īà¦ªà¦ľ":5060,"à¦ĩà¦ħà¦Ĺ":5061,"à¦ļà¦ķà¦¬":5062,"à¦ļà¦ķà¦¦":5063,"à¦¡à¦¢":5064,"à¦£à¦¤à¦¹à¦¬":5065,"à§¨à§¨à§¦à§¨à§§":5066,"à§ľà¦Ĺ":5067,"à¦°à¦Ĩà¦ĩà¦¸":5068,"à¦¤à¦¬à¦¯":5069,"à¦°à¦ĵà¦ľà¦¨":5070,"à¦Ĩà¦²à¦«":5071,"à¦¹à¦²à¦¯":5072,"à¦®à¦¸à¦¹":5073,"à¦ļà¦²à¦¸":5074,"à¦ĩà¦®à¦¬":5075,"à¦¶à¦ķà¦ĵà¦¸à¦®":5076,"à¦Ĩà¦ľà¦ª":5077,"à¦Ĩà¦«à¦¸":5078,"à¦¬à§ľà¦ķ":5079,"à§§à§¯à§¯à§¨":5080,"à¦¨à¦ĺà¦°":5081,"à¦ķà¦°à¦Ĺ":5082,"à¦¤à¦ĵà¦ľ":5083,"à¦¦à¦¹à¦¤":5084,"à§Łà¦¹à¦¬":5085,"à¦ĩà¦ıà¦®à¦¨":5086,"à¦ĩà¦ĵà¦Ń":5087,"à¦Ĩà¦ĩà¦®":5088,"à¦Ĩà¦°à¦ıà¦ķ":5089,"à¦Ńà¦°à¦ª":5090,"à¦¥à¦§":5091,"à¦°à¦¸à¦¸":5092,"à§§à§¨à§¦à§¦":5093,"à¦łà¦ªà¦°":5094,"à¦¬à¦¨à¦ľ":5095,"à¦¨à¦ķà¦ĸà¦¨":5096,"à¦ıà¦ĩà¦Ľ":5097,"à¦ļà¦¨à¦ħà¦¨":5098,"à¦ĩà¦¤à¦¥":5099,"à¦¶à¦ķà¦ª":5100,"à¦²à§Łà¦¶":5101,"à¦·à¦¦à¦ļ":5102,"à¦¯à¦ĸà¦¨à¦¦":5103,"à¦¸à¦«à¦Łà¦ĵà§Ł":5104,"à¦ĭà¦£à¦ª":5105,"à§§à§¯à§Ńà§¨":5106,"à§§à§¯à§Ńà§«":5107,"à¦°à¦Ĳà¦ķ":5108,"à§¨à§¦à§§à§¬à§¨à§¦à§§à§Ńà§¨à§¦à§§à§®à§¨à§¦à§§à§¯à§¨à§¦à§¨à§¦à§¨à§¦à§¨à§§":5109,"à¦¬à¦ķà¦¸":5110,"à¦®à¦§à¦¨":5111,"à¦¦à¦Ĩà¦¹à¦®à¦¦":5112,"à¦¯à§Łà¦¨":5113,"à¦ĩà¦¤à¦°":5114,"à¦ĩà¦īà¦²":5115,"à¦ĩà¦ĺà¦Łà¦¨":5116,"à¦ĩà¦¬à¦²à¦Ľ":5117,"à¦Ĩà¦ĸà¦²":5118,"à¦ļà¦ľà¦¨":5119,"à¦·à¦ħà¦Ń":5120,"à¦§à¦¡":5121,"à¦¥à¦¦à¦£":5122,"à¦ĵà¦ıà¦¸":5123,"à¦£à¦§":5124,"à¦°à¦ıà¦Ľ":5125,"à§«à§¨à§¦à§¨à§§":5126,"à¦®à¦¤à¦¥":5127,"à¦¯à¦ķà¦°à¦¹à¦¬":5128,"à¦¨à¦Ĩà¦°à¦¨":5129,"à¦®à¦¹à¦¸":5130,"à¦®à¦¦à¦ĸ":5131,"à¦Ĩà¦ľà¦ľ":5132,"à§§à§¦à§¬":5133,"à¦¤à¦ªà¦¶":5134,"à¦ªà¦¦à¦¦":5135,"à¦ĩà¦¬à¦¨à¦¹":5136,"à¦ıà¦ĸà¦¨à¦¦":5137,"à§§à§ªà§§à§«":5138,"à¦°à¦ĵà¦ªà¦°à¦¬":5139,"à¦°à¦ĵà¦ªà¦°à¦Ń":5140,"à¦°à¦īà§İà¦¸à¦¬":5141,"à¦¯à¦¯à¦¨":5142,"à¦¹à¦°à¦®":5143,"à¦ĩà¦¸à¦®à¦¯":5144,"à¦ıà¦°à¦Ĺ":5145,"à¦Ľà§Łà¦®":5146,"à¦ĸà¦ħà¦¨":5147,"à¦°à¦¬à¦Ĺ":5148,"à¦°à¦¬à¦²à¦¤":5149,"à¦łà¦ķà¦°à¦²":5150,"à¦°à¦Ĩà¦«à¦Ĺ":5151,"à¦°à¦£à¦Ł":5152,"à¦°à¦£à¦¹à§Ł":5153,"à¦°à¦ĵà¦¸à¦®":5154,"à¦²à¦¨à¦ķà¦°à¦²":5155,"à¦®à¦¤à¦¤":5156,"à¦ıà¦¸à¦Ĩà¦ĩà¦¬":5157,"à¦¦à¦¨à¦ħà¦¨":5158,"à¦·à¦£à¦Ĺ":5159,"à¦¤à¦ķà¦¤":5160,"à¦¤à¦ķà¦¦":5161,"à¦ķà¦¦à¦®":5162,"à§Łà¦ªà¦ķ":5163,"à¦¤à¦°à¦£à¦ª":5164,"à§¨à§§à§®à§¨":5165,"à¦ķà¦¢":5166,"à¦¤à¦Ĩà¦ªà¦¡":5167,"à¦®à¦¢":5168,"à¦²à¦ĩà¦¸":5169,"à¦¦à¦®à¦¤":5170,"à¦Łà¦Ĩà¦ªà¦¨":5171,"à¦Łà¦°à¦¯":5172,"à¦¶à¦ħà¦§":5173,"à¦ĩà¦Ĩà¦¤":5174,"à¦ıà¦ħà¦¬à¦¸":5175,"à¦ļà¦Ĩà¦¦":5176,"à¦·à¦«":5177,"à¦ĸà¦ĺ":5178,"à¦°à¦¬à¦²à¦Ľ":5179,"à¦°à¦ªà¦°à¦«":5180,"à¦°à¦Ĩà¦ĸ":5181,"à¦¬à¦¸à¦ķ":5182,"à¦°à¦ĵà¦Ł":5183,"à¦°à¦Ńà¦Ĺ":5184,"à¦°à¦²à¦¡":5185,"à¦§à¦¨à¦ķà¦°à¦¤":5186,"à¦·à¦®à¦¹à§Ł":5187,"à§¨à§©à§ªà§¬":5188,"à§¨à§©à§§à§©à§§":5189,"à¦°à¦ľà¦¨à¦ķà¦¬à¦Ļ":5190,"à§®à§®à§¦à§¯à§¬à§§à§¨à§§":5191,"à¦®à¦ªà¦¨":5192,"à¦ªà¦§":5193,"à¦¦à¦Ĩà¦¨":5194,"à¦¯à¦Ĩà§Ł":5195,"à¦¹à¦°à¦¤":5196,"à¦Łà¦¨à¦¸":5197,"à¦Łà¦ĩà¦īà¦¨":5198,"à¦ľà¦²à¦®":5199,"à¦ľà¦Ĺà¦¨":5200,"à¦Ĩà¦ĩà¦°":5201,"à¦ļà¦¬à¦Ľà¦°":5202,"à¦ĸà¦¨à¦¦":5203,"à¦°à¦®à¦®":5204,"à§ľà¦Ł":5205,"à¦°à¦¤à¦ķà¦°":5206,"à¦ıà¦ķà¦ĩà¦ªà¦°":5207,"à¦°à¦ıà¦®à¦¨à¦ķ":5208,"à¦¸à¦¬à¦¥":5209,"à§¬à§®à§®à§¦à§§à§Ńà§¨à§¯à§¦à§Ńà§¬à§¯à§¯":5210,"à¦¦à¦¨à¦¯":5211,"à¦·à¦£à¦Ń":5212,"à¦¸à¦¨à¦ķà¦°":5213,"à¦¨à¦ıà¦ľ":5214,"à¦¯à¦¸à¦Ń":5215,"à§§à§¨à§¨à§¯":5216,"à¦Ĺà¦łà¦¨à¦¬":5217,"à¦¶à¦ªà¦¥":5218,"à¦²à¦ľà¦²":5219,"à¦²à¦Ľà§ľ":5220,"à§¨à§§à§®à§§à§®à§®à§¦":5221,"à§¨à§®à§ªà§©à§¨à§§à§®à§¨":5222,"à§®à§®à§¦à§¨à§®à§ªà§©à§¨à§©à§ªà§¬":5223,"à§®à§®à§¦à§¨à§®à§ªà§©à§¨à§§à§®à§§à§®à§®à§¦":5224,"à§®à§®à§¦à§§à§Ńà§¨à§¯à§¦à§Ńà§¬à§¯à§¯à§¬à§®à§®à§¦à§§à§Ńà§¨à§¯à§¦à§Ńà§¬à§¯à§¯":5225,"à§®à§®à§¦à§¯à§¬à§§à§¨à§§à§¨à§©à§§à§©à§§":5226,"à§®à§®à§¦à§¨à§®à§ªà§©à§¨à§§à§®à§§à§®à§®à§¦à§¨à§®à§ªà§©à§¨à§§à§®à§¨":5227,"à§®à§®à§¦à§§à§Ńà§¨à§¯à§¦à§Ńà§¬à§¯à§¯à§¬à§®à§®à§¦à§§à§Ńà§¨à§¯à§¦à§Ńà§¬à§¯à§¯à§¯":5228,"à¦°à¦°à¦¯":5229,"à¦ķà¦ıà¦¸":5230,"à¦¬à¦Ĩà¦¬":5231,"à¦¸à¦ıà¦ķà¦Ł":5232,"à¦®à¦¸à¦¬":5233,"à¦²à¦¬à¦¸":5234,"à¦²à¦ĵà¦ª":5235,"à¦²à¦Ĺà¦¬":5236,"à¦Łà¦°à¦¦":5237,"à¦Łà¦ķà¦°à¦²":5238,"à¦Ĺà¦¹à¦²":5239,"à¦ĩà¦Ŀ":5240,"à¦ķà¦°à¦®à¦¨":5241,"à¦·à¦ľà¦¨":5242,"à¦°à¦®à¦¬à¦°":5243,"à¦°à¦ªà¦Ł":5244,"à¦°à¦¤à¦«à¦¸":5245,"à¦°à¦¨à¦ł":5246,"à¦¶à¦¨à¦¯":5247,"à§İà¦§":5248,"à¦ļà¦²à¦ª":5249,"à¦¤à¦ķà¦ķ":5250,"à¦¨à¦Ĺà¦°à¦Ĩà¦ĵà§Ł":5251,"à¦¸à¦ķà¦ķ":5252,"à¦¸à¦®à§Łà¦Ł":5253,"à¦¤à¦¹à§Łà¦¬":5254,"à¦¤à¦¹à§Łà¦ª":5255,"à¦ıà¦®à¦¨à¦¸":5256,"à¦°à¦¥à¦®à¦¡":5257,"à¦°à¦Ĺà¦£à¦¤à¦¨":5258,"à¦ĸà¦°à¦ļà¦ķà¦°":5259,"à¦°à¦ıà¦ĩà¦ļà¦ıà¦¸à¦¸":5260,"à¦°à¦ĩà¦īà¦ı":5261,"à¦°à¦²à¦¬":5262,"à¦¤à¦ĩà¦¨":5263,"à¦¸à¦¨à¦®":5264,"à¦¸à¦Ĩà¦Ľ":5265,"à¦¦à¦¨à¦¤":5266,"à¦¶à¦®à¦¸":5267,"à¦¶à¦¸à¦¹":5268,"à¦ĩà¦ªà¦¤":5269,"à¦Ĩà¦°à¦ħà¦¨":5270,"à¦Ńà¦ľ":5271,"à¦Ńà¦ķà¦°à¦¬":5272,"à¦ĵà¦ħà¦§":5273,"à¦°à¦¸à¦°à¦ŀ":5274,"à¦£à¦¹à¦¬":5275,"à§¦à§§à§¯":5276,"à¦¬à¦²à¦¶":5277,"à¦°à¦Ĩà¦¨à¦¹":5278,"à¦ĩà¦¨à¦ªà¦Ľà¦¨":5279,"à¦ıà¦ĩà¦§":5280,"à¦¶à¦¨à¦¹":5281,"à¦¶à¦¨à¦Ľ":5282,"à¦¶à¦¨à¦Ń":5283,"à¦¶à¦ķà¦ķ":5284,"à¦¤à¦ªà¦£":5285,"à¦°à¦īà¦ªà¦°à¦®":5286,"à§¨à§ªà§Ń":5287,"à¦·à¦ķà¦¹":5288,"à¦¨à¦ıà¦ĩà¦¦":5289,"à¦¯à¦ĸà¦¨à¦®":5290,"à§±":5291,"à¦ķà¦Ĺà¦¬":5292,"à¦¸à¦¨à¦¨":5293,"à¦¸à¦ķà¦¬":5294,"à¦®à¦¬à¦²à¦²":5295,"à¦²à¦īà¦¤":5296,"à¦²à¦ķà¦°à¦¬":5297,"à¦ªà¦ħ":5298,"à¦¯à¦ıà¦¶":5299,"à§Łà¦°à¦¤":5300,"à§Łà¦Ŀ":5301,"à¦Łà¦ķà¦¨":5302,"à¦ĩà¦ıà¦ĩà¦¬":5303,"à¦§à¦¹à¦ļ":5304,"à¦ĵà¦īà¦ªà¦¸à¦°":5305,"à§¨à§§à§«":5306,"à¦°à¦Ĩà¦°à¦¸":5307,"à¦¹à§Łà¦ıà¦¤":5308,"à¦ªà¦¨à¦¨":5309,"à¦¶à¦¨à¦²":5310,"à¦¹à¦¤à¦ķà¦°":5311,"à¦ķà¦¤à¦¸":5312,"à§¨à§§à§¨":5313,"à¦®à¦ķà¦ª":5314,"à¦¤à¦¸à¦¤":5315,"à¦¬à¦¹à¦¨à¦®":5316,"à¦¸à¦«à¦²à¦¤":5317,"à§©à§«à§¯":5318,"à¦¬à¦ĩà¦¯":5319,"à¦¤à¦īà¦¤":5320,"à¦²à¦Ĩà¦Ĺ":5321,"à¦¦à¦°à¦¨":5322,"à¦¯à¦Ĩà¦¦":5323,"à§Łà¦ĺà¦Łà¦¨":5324,"à¦¹à¦°à¦Ľ":5325,"à¦Łà¦ķà¦¬":5326,"à¦Łà¦ħà¦°":5327,"à¦Łà¦ĵà¦®":5328,"à¦ľà§Łà¦ķ":5329,"à¦¶à¦ı":5330,"à¦Ĺà¦ĺ":5331,"à¦ĩà¦°à¦ķ":5332,"à¦ĩà¦ħà¦§":5333,"à¦Ĩà¦īà§Ł":5334,"à¦Ľà¦¦à¦¬":5335,"à¦ļà¦Ľ":5336,"à¦ļà¦ķà¦®":5337,"à¦¥à¦ĵà¦ªà¦°":5338,"à¦ĸà¦«à¦ľà¦²":5339,"à¦ĵà¦¸à¦¹":5340,"à¦ĵà¦Ĩà¦Ĺ":5341,"à¦¡à¦ħà¦¨":5342,"à¦īà¦«à¦²":5343,"à¦ıà¦ķà¦ĩà¦¬":5344,"à¦¬à¦²à¦ķà¦°":5345,"à¦¹à§Łà¦¹":5346,"à¦¶à¦¨à¦ķà¦°à¦¤":5347,"à¦ķà¦®à¦Ľ":5348,"à¦Ĩà¦¸à¦ķ":5349,"à¦ıà¦¸à¦Ĩà¦ĩ":5350,"à¦²à¦®à¦°":5351,"à¦¬à¦ķà¦Ĩà¦Łà¦ķ":5352,"à¦Ĩà¦¨à¦²":5353,"à¦ĵà¦¸à¦¤":5354,"à¦ªà¦¦à¦®":5355,"à¦ĩà¦Ńà¦Ĩà¦°":5356,"à¦Ĺà¦łà¦¨à¦ķ":5357,"à¦ıà¦¸à¦¬à¦ª":5358,"à¦²à¦Ĩà¦¯":5359,"à¦¦à¦ĸà¦²à¦®":5360,"à¦¦à¦¨à¦ªà¦¤":5361,"à¦ıà¦°à¦¦à¦¶à¦ķ":5362,"à¦ĭà¦£à¦ªà¦°":5363,"à¦ķà¦ıà¦Ł":5364,"à¦¬à¦¶à¦ķ":5365,"à¦¤à¦Ĺà¦°":5366,"à¦ªà¦ķà¦¨":5367,"à¦ªà¦¦à¦°":5368,"à¦ªà¦ķà¦ª":5369,"à¦Łà¦ħà¦¬":5370,"à¦¶à¦ıà¦ĸà¦¨":5371,"à¦Ĺà¦°à¦£":5372,"à¦Ĩà¦°à¦ĸ":5373,"à¦·à¦Ļ":5374,"à¦Ńà¦°à¦¸":5375,"à¦«à¦²à¦¸":5376,"à¦°à¦ªà¦°à¦ıà¦¬":5377,"à¦ıà¦ķà¦¨à¦ľà¦°":5378,"à¦°à¦¶à¦ª":5379,"à¦°à¦ıà¦ķà¦Ń":5380,"à¦ıà¦ĩà¦®à¦¹":5381,"à¦¨à¦®à¦ŀ":5382,"à§Łà¦¨à¦°":5383,"à¦²à¦¨à¦ļ":5384,"à¦ķà¦Łà¦¸":5385,"à¦°à¦ĩà¦īà¦°":5386,"à¦¨à¦Ĩà¦°à¦ķ":5387,"à¦ĩà¦Łà¦°":5388,"à¦ĩà¦Łà¦ļ":5389,"à¦²à¦ªà¦¥":5390,"à¦ªà¦¦à¦¥":5391,"à¦¤à¦¹à§Łà¦¸":5392,"à¦°à¦¹à¦£à¦ļà¦²à¦Ľ":5393,"à¦¤à¦°à¦£à¦°":5394,"à§¨à§¬à§¨à§Ń":5395,"à¦°à¦ıà¦ĩà¦ªà¦°":5396,"à¦°à¦Ĩà¦¹à¦®à¦¦":5397,"à¦¸à¦ıà¦¸":5398,"à¦®à¦ĩà¦¤":5399,"à¦ªà¦¦à¦¨":5400,"à¦¯à¦Ĺà¦¤":5401,"à¦¯à¦¶à¦°":5402,"à§Łà¦Ĩà¦¤":5403,"à¦Łà¦¸à¦®à§Ł":5404,"à¦·à¦²à¦ķ":5405,"à¦·à§Łà¦¬":5406,"à¦¥à¦¸à¦¹":5407,"à¦ĸà¦¨à¦®":5408,"à¦°à¦¸à¦¹à¦¬":5409,"à¦īà¦¬à¦²":5410,"à¦°à¦ķà¦®à¦²":5411,"à¦£à¦ªà¦¶":5412,"à¦°à¦¹à¦¶":5413,"à¦¨à¦¤à¦ķ":5414,"à¦¨à¦¸à§ľà¦ķ":5415,"à¦°à¦ħà¦·":5416,"à¦¨à¦ķà¦ķ":5417,"à§Łà¦¨à¦Ĺ":5418,"à¦ıà¦¸à¦ªà¦°":5419,"à§Łà¦ķà¦¤":5420,"à¦¨à¦ıà¦¸à¦¬":5421,"à¦Ĩà¦ľà¦®à¦Ļ":5422,"à§§à§¦à§®":5423,"à¦Ĩà¦¤à¦¤":5424,"à¦ĵà¦®à¦°à¦°":5425,"à¦ħà¦«à¦¬":5426,"à¦²à¦Ĺà¦ĩà¦¨à¦ķà¦°":5427,"à¦Ľà¦¨à¦¥":5428,"à¦¶à¦Ĺà§ľ":5429,"à¦¤à¦ĸà¦¨à¦Ĩà¦®":5430,"à¦¸à¦¨à¦¤":5431,"à¦®à¦ĵà¦ķ":5432,"à¦²à¦Ĩà¦®à¦°":5433,"à¦²à¦Ĩà¦¦":5434,"à¦²à¦īà¦ªà¦ľ":5435,"à§Łà¦ıà¦¨":5436,"à§Łà¦ıà¦°à¦ª":5437,"à¦¡à¦²à¦¸":5438,"à¦«à¦ļ":5439,"à¦°à¦ªà¦°à¦Ĩà¦¬":5440,"à¦£à¦Ĩà¦®":5441,"à¦°à¦¨à¦¬à¦¨":5442,"à¦°à¦¹à¦ķà¦°à¦¤":5443,"à¦¹à§Łà¦Ń":5444,"à¦°à¦£à¦¸à¦Ń":5445,"à¦°à¦¶à¦ªà¦¥":5446,"à¦°à¦ļà¦°à¦®":5447,"à¦ķà¦®à¦ľ":5448,"à¦ķà¦¬à¦Ľà¦°":5449,"à¦ĩà¦ķà¦Ĺ":5450,"à¦ĩà¦ķà¦ķà¦°":5451,"à¦®à¦¦à¦ĩà¦¬à¦¨":5452,"à¦Ĩà¦Ĺà¦®à¦¨":5453,"à¦ĵà¦¸à¦¹à¦¯":5454,"à¦¬à¦Ľà¦°à¦ķà¦°":5455,"à¦·à¦®à¦¹à¦¬":5456,"à¦ªà¦Łà¦²":5457,"à¦ıà¦«à¦¡":5458,"à¦Ĺà§ľà¦¤":5459,"à¦ķà¦ľà¦¨à¦¬":5460,"à¦¤à¦®à¦¸à¦ª":5461,"à¦ĵà¦ķà¦¨à¦«":5462,"à¦¨à¦°à¦¯":5463,"à¦ķà¦Ĩà¦ķ":5464,"à¦¬à¦¹à§Ł":5465,"à¦®à¦Ĺà¦¤":5466,"à¦²à¦Ĺà¦£":5467,"à¦¦à¦ı":5468,"à¦¦à¦ķà¦°à¦²":5469,"à§Łà¦®à¦°":5470,"à¦¹à¦¹à¦¬":5471,"à¦¹à¦¨à¦ķà¦°":5472,"à¦Łà¦ıà¦¨":5473,"à¦¶à¦¬à¦Ľà¦°":5474,"à¦ĩà¦¸à¦®à¦¸":5475,"à¦Ĩà¦ķà¦¸":5476,"à¦Ĩà¦Łà¦Ł":5477,"à¦·à¦ħ":5478,"à¦·à¦¬à¦°":5479,"à¦ĵà¦ħà¦¬":5480,"à¦°à¦ķà¦®à¦ª":5481,"à¦£à¦ıà¦ķà¦Ł":5482,"à¦®à¦¨à¦°":5483,"à¦łà¦ķà¦¶":5484,"à¦°à¦¨à¦ķà¦¶":5485,"à¦°à¦ħà¦¬à¦ķ":5486,"à¦°à¦ıà¦ĩà¦Ń":5487,"à¦¶à¦¨à¦¡":5488,"à¦°à¦ĩà¦ķà¦¬":5489,"à¦ĩà¦®à¦ļ":5490,"à¦¸à¦ķà¦·":5491,"à¦ªà¦¦à¦ĸ":5492,"à¦ħà¦«à¦²":5493,"à¦ķà¦Ńà¦¬à¦¨":5494,"à¦·à¦¦à¦¬":5495,"à¦¨à¦ıà¦ĩà¦ļ":5496,"à¦¨à¦ħà¦ŀ":5497,"à¦ıà¦¸à¦¬à¦¤à¦¥":5498,"à¦·à¦ĸà¦¬à¦°à¦ª":5499,"à¦·à¦ĸà¦¬à¦°à¦¶":5500,"à¦¬à¦ľà¦¨à¦°":5501,"à¦¬à¦«à¦ľà¦²":5502,"à¦ķà¦ħà¦ªà¦°":5503,"à¦¬à¦ı":5504,"à¦¬à¦ĩà¦¦":5505,"à¦®à¦ķà¦¸":5506,"à¦®à¦Ĩà¦¨":5507,"à¦²à¦ıà¦ĩ":5508,"à¦¦à¦ķà¦°à¦¬":5509,"à¦¯à¦Ĩà¦¸":5510,"à§Łà¦ıà¦ĸà¦¨":5511,"à¦Ĺà¦Ńà¦°":5512,"à¦Ĩà¦ľà¦¨":5513,"à¦ıà¦°à¦¤":5514,"à¦Ľà¦¸":5515,"à¦ļà¦ħà¦ªà¦°":5516,"à¦ļà¦®à¦§":5517,"à¦¥à¦²à¦¥":5518,"à¦ĵà¦ľà¦²":5519,"à§ľà¦ªà¦¤":5520,"à¦°à¦£à¦ħà¦§":5521,"à¦īà¦ªà¦¬":5522,"à¦°à¦¯à¦ĸà¦¨":5523,"à¦®à¦¸à¦°à¦ķ":5524,"à¦ĩà¦ķà¦¨":5525,"à¦°à¦²à¦¤":5526,"à¦¤à¦®à¦§":5527,"à§§à§¦à§¨à§¦à§¨à§§":5528,"à§¨à§ªà§¨à§«":5529,"à¦īà¦²à¦ĩà¦¸à¦²":5530,"à¦·à¦ķà¦ķà¦°":5531,"à¦°à¦ĵà¦ªà¦°à¦ķ":5532,"à§¨à§¯à§©à§¦":5533,"à¦°à¦ªà¦°à¦ªà¦°à¦ĩ":5534,"à¦¨à¦§à¦°à¦¨à¦ĵà¦®":5535,"à¦¤à¦ıà¦ĩà¦ĵà¦¯":5536,"à¦¨à§Łà¦¸":5537,"à¦¸à¦°à¦°":5538,"à¦¸à¦ķà¦¦":5539,"à¦²à¦°à¦ª":5540,"à¦²à¦Łà¦¨":5541,"à¦²à¦ħà¦ªà¦°":5542,"à¦¦à¦ĵà¦¬":5543,"à¦¯à¦®à¦¸à¦ľ":5544,"à§Łà¦ĵà¦¬":5545,"à§Łà¦Ĺà¦²":5546,"à¦¹à¦¬à¦°":5547,"à¦ľà¦Ĺà¦¦":5548,"à¦ĸà¦ķà¦¬":5549,"à¦ĸà¦²à¦¨":5550,"à¦°à¦¬à¦²à¦¬":5551,"à¦°à¦®à§Łà¦²":5552,"à¦°à¦Ĩà¦¸à¦°":5553,"à¦°à¦£à¦ıà¦Ł":5554,"à¦¨à¦¤à¦ľ":5555,"à¦°à¦ıà¦ķà¦°":5556,"à¦¨à¦¨à¦¦":5557,"à¦°à¦Ĺà¦£à¦®":5558,"à§«à§«à§¦":5559,"à¦ķà¦®à¦²à¦Ĺà¦ŀ":5560,"à¦¹à¦¤à¦ª":5561,"à¦¤à¦¨à¦Ĺ":5562,"à¦·à¦£à¦¤":5563,"à§§à§¦à§ª":5564,"à¦ĸà¦¬à¦°à¦®":5565,"à¦Ĩà¦°à¦ĵà¦ª":5566,"à¦Ĺà¦²à¦Ĺ":5567,"à¦²à§Łà¦¸à¦®":5568,"à¦¨à¦ļà¦ķ":5569,"à¦¸à¦¦à¦°à¦¹":5570,"à¦Ĩà¦Łà¦ķà¦ķ":5571,"à¦ķà¦Ľà§ľ":5572,"à¦¨à¦īà¦ªà¦²à¦ķ":5573,"à¦ķà¦¨à¦¤":5574,"à¦¤à¦ļà¦²":5575,"à¦¤à¦°à¦ĸ":5576,"à¦¤à¦«à¦²":5577,"à¦¸à¦ĵà¦®":5578,"à¦®à¦ľà¦¨":5579,"à¦®à¦Ĩà¦®à¦°":5580,"à¦²à¦ħà¦¸":5581,"à¦²à¦¹à§Łà¦¨":5582,"à¦ªà¦ıà¦Ĺ":5583,"à§Łà¦Ĩà¦¶":5584,"à¦¹à¦¨à¦¸":5585,"à¦Łà¦Ļ":5586,"à¦Łà¦Ĩà¦Ľ":5587,"à¦¶à¦ĵà¦¸":5588,"à¦Ĺà¦¹à¦¤":5589,"à¦ĩà¦¬à¦¸":5590,"à¦ıà¦²à¦ķ":5591,"à¦ıà¦°à¦²":5592,"à¦ıà¦°à¦ħà¦°":5593,"à¦ļà¦¤à¦²":5594,"à¦¥à¦°à¦ķ":5595,"à¦¡à¦¹à§Ł":5596,"à¦¡à¦²à¦ķ":5597,"à¦īà¦¸à¦ķ":5598,"à¦°à¦®à¦Ĩà¦¨":5599,"à¦ľà¦¨à¦ªà¦¦":5600,"à¦¬à¦²à¦ľ":5601,"à¦°à¦¹à¦ĵà¦¯":5602,"à¦°à¦Ĩà¦¨à¦¶à¦°":5603,"à¦°à¦£à¦«":5604,"à¦¨à¦¤à¦¦à¦¨":5605,"à¦¨à¦ķà¦²à¦®":5606,"à¦°à¦ıà¦°à¦ª":5607,"à¦°à¦Ńà¦¯":5608,"à¦ķà¦²à¦ª":5609,"à¦°à¦ĩà¦Ļ":5610,"à¦°à¦¸à¦®à§Łà¦¹":5611,"à§Łà¦¸à¦ķ":5612,"à¦¨à¦Ĩà¦ĩà¦¨à¦ľ":5613,"à¦¨à¦¯à¦ĸà¦¨":5614,"à§Łà¦¤à¦ĸà¦¨":5615,"à§¨à§¦à§¨à§§à§§à§¨":5616,"à§Łà¦®à¦®":5617,"à¦ıà¦²à¦ľ":5618,"à¦°à¦¥à¦®à¦ļ":5619,"à¦°à¦ķà¦®à¦°à¦ª":5620,"à¦¬à§ľà¦Ń":5621,"à¦¨à¦ıà¦ķà¦®":5622,"à¦Łà¦¬à¦²à¦ĸ":5623,"à¦¨à¦Ĩà¦°à¦ĵà¦¬à¦ķ":5624,"à¦¨à¦īà¦ł":5625,"à¦¤à¦ħà¦ª":5626,"à¦®à¦ļà¦ķ":5627,"à¦²à¦ĵà¦ķ":5628,"à¦ªà¦¹à¦²":5629,"à¦¯à¦¸à¦®à¦¸":5630,"à¦ľà¦¸à¦°à¦ķ":5631,"à¦ĩà¦Ĩà¦ķ":5632,"à¦ıà¦°à¦¸à¦Ļ":5633,"à¦«à¦²à¦¹à¦ĵà§Ł":5634,"à¦®à¦¨à¦ıà¦ķà¦Ł":5635,"à¦łà¦ķà¦ª":5636,"à¦ľà¦¨à¦®à¦¨":5637,"à¦°à¦ļà¦²à¦¨":5638,"à¦¶à¦¨à¦ªà¦°":5639,"à¦®à¦¤à¦ľ":5640,"à¦ĩà¦²à¦¡":5641,"à¦ķà¦Łà¦¨":5642,"à¦¬à¦ķà¦ľà¦¨":5643,"à¦¬à¦¬à¦ľ":5644,"à¦²à§Łà¦°":5645,"à¦ıà¦®à¦ıà¦¸":5646,"à¦ıà¦ķà¦ľà¦¨à¦Ń":5647,"à¦°à¦¸à¦¬à¦ĸà¦¬à¦°à¦ª":5648,"à¦ıà¦°à¦ªà¦°à¦¬":5649,"à¦Ĩà¦Łà¦ķà¦¦":5650,"à¦Ĩà¦°à¦ıà¦®à¦ª":5651,"à¦§à¦¨à¦ķà¦°à¦¬":5652,"à§§à§¯à§¯à§§":5653,"à¦ķà¦Ĩà¦ĩà¦¡":5654,"à¦°à¦¨à¦Ĺà¦°à¦¬":5655,"à¦°à¦¥à¦®à¦¤à¦Ł":5656,"à¦ķà¦Ĩà¦¶":5657,"à¦¬à¦°à¦Ĩ":5658,"à¦¤à¦¤à¦®":5659,"à¦¤à¦ĩà¦®":5660,"à¦²à¦ĩ":5661,"à¦ªà¦°à¦Ĺà¦£":5662,"à¦¦à¦°à¦²":5663,"à§Łà¦Ńà¦°":5664,"à§Łà¦Ĳà¦ķ":5665,"à¦Łà¦ªà§ľ":5666,"à¦Łà¦Ĩà¦¦":5667,"à¦ľà¦¸à¦¹":5668,"à¦ľà¦²à¦¹":5669,"à¦ĩà¦¬à¦²à¦¤":5670,"à¦Ľà¦«":5671,"à¦Ńà¦ķà¦°à¦¤":5672,"à¦§à¦«":5673,"à¦ĵà¦ĩà§Ł":5674,"à¦°à¦®à¦¹à¦¬":5675,"à¦®à¦¨à¦Ľ":5676,"à¦°à¦Ĩà¦®à¦¦":5677,"à¦¬à¦¸à¦Ĩà¦ľ":5678,"à¦ıà¦ĩà¦ªà¦¦":5679,"à¦¤à¦°à¦°":5680,"à¦°à¦Ńà¦¬à¦¨":5681,"à¦²à¦¨à¦Ĺà¦°":5682,"à¦ķà¦Łà¦¬à¦°":5683,"à¦°à¦²à¦Ļ":5684,"à¦°à¦ĩà¦¹":5685,"à¦ķà¦¸à¦¤":5686,"à¦¯à¦¦à¦²":5687,"à¦²à¦¸à¦Ļ":5688,"à¦¬à¦ķà¦ħà¦§":5689,"à§§à§¦à§©":5690,"à¦°à¦īà¦ªà¦°à¦¤":5691,"à¦ħà¦¬à¦¸à¦°à¦ª":5692,"à¦ıà¦ĸà¦¨à¦ĵà¦¬":5693,"à¦¸à¦ķà¦²à¦¸":5694,"à§ªà§«à§¬à§Ń":5695,"à§¦à§§à§¨à§¦à§§à§©":5696,"à¦¨à¦ĩà¦ī":5697,"à¦¬à¦°à¦¸à¦°":5698,"à¦¤à¦ł":5699,"à¦¸à¦°à¦ĵà¦ªà¦°":5700,"à¦²à¦ĩà¦¬à¦¨":5701,"à¦ªà¦ķà¦°à¦¤":5702,"à¦¯à¦¡à¦¸":5703,"à§Łà¦ł":5704,"à§Łà¦ĩà¦¤":5705,"à§Łà¦ĵà¦¸":5706,"à¦Łà¦ĵà¦ª":5707,"à¦¶à¦¹à¦¤":5708,"à¦Ĺà¦°à¦¬":5709,"à¦ĩà¦ĩà¦¨":5710,"à¦ĩà¦¹à¦°":5711,"à¦·à¦¹à¦ļ":5712,"à¦·à¦Ĩà¦¹à¦¤":5713,"à¦§à¦¨à¦Ĺ":5714,"à¦¥à¦ķà¦ª":5715,"à¦ĵà¦ĵ":5716,"à¦°à¦®à¦¤à¦®":5717,"à¦łà¦Ľ":5718,"à¦°à¦ľà¦Ļ":5719,"à¦¹à§Łà¦ļ":5720,"à¦¨à¦¸à¦¦":5721,"à¦¨à¦¸à¦¹à¦¯":5722,"à¦°à¦ĵà¦ĸ":5723,"à¦·à¦£à¦ıà¦¬":5724,"à¦²à¦¸à¦¸":5725,"à§Łà¦ªà¦¦":5726,"à¦Ĺà¦¤à¦ļ":5727,"à¦¨à¦ĵà¦²":5728,"à¦¨à¦ĵà¦ļ":5729,"à¦¸à¦®à§Łà¦§à¦°":5730,"à¦Ĺà¦£à¦¶":5731,"à¦ĩà¦¬à¦¨à¦Ĩà¦¬":5732,"à¦¤à¦¹à§Łà¦ķ":5733,"à¦ıà¦®à¦¨à¦ªà¦°":5734,"à¦²à¦Ĺà¦ª":5735,"à¦Łà¦¸à¦ľ":5736,"à¦¨à§Łà¦¬à¦°":5737,"à¦²à¦ľà¦¹":5738,"à¦¦à¦¶à¦Ł":5739,"à¦ķà¦°à¦£à¦¬":5740,"à¦ķà§Łà¦Ł":5741,"à§§à§¯à§¯à§Ń":5742,"à¦¸à§ľà¦ķà¦ªà¦°":5743,"à¦¨à¦Ĩà¦°à¦ĵà¦ªà¦¡":5744,"à¦¤à¦ķà¦°à¦£à¦ħà¦¦":5745,"à¦·à¦ĸà¦¬à¦°à¦°":5746,"à¦¨à¦Ĩà¦ľà¦¸à¦«à¦²à¦¹à¦ĵà§Ł":5747,"à¦ķà¦ĵà¦¯":5748,"à¦¤à¦ĩà¦¸à¦²":5749,"à¦¤à¦Ĩà¦¤":5750,"à¦¤à¦ħà¦ŀ":5751,"à¦¸à¦Ĩ":5752,"à¦²à¦²à¦¤":5753,"à¦²à¦ħà¦¤":5754,"à¦¯à¦ıà¦ĸ":5755,"à§Łà¦°à¦°":5756,"à¦Łà¦Ĩà¦Ĺ":5757,"à¦ĩà¦¸à¦¬à¦ļ":5758,"à¦ıà¦®à¦¹":5759,"à¦ıà¦¨à¦Ł":5760,"à¦Ńà¦¤":5761,"à¦ĵà¦ħà¦ªà¦°":5762,"à¦£à¦¡":5763,"à¦°à¦¨à¦¥":5764,"à¦°à¦ħà¦Ł":5765,"à¦ıà¦ĩà¦ħà¦¬à¦¸":5766,"à¦¨à¦®à¦¡":5767,"à§İà¦¹":5768,"à¦¯à¦ķà¦¨":5769,"à¦ĩà¦²à¦¨à¦®":5770,"à¦·à¦£à¦¸à¦®":5771,"à¦Łà¦¨à¦Ł":5772,"à¦¨à¦ľà¦°à¦°":5773,"à¦¨à¦Ńà¦¬à¦ĺ":5774,"à¦Łà¦ķà¦¥":5775,"à§¨à§¦à§¨à§§à§§à§«":5776,"à¦ıà¦°à¦ªà¦°à¦¸":5777,"à¦Ĺà¦ªà¦Ľà¦¨":5778,"à¦²à¦Ĩà¦²à¦®à¦ª":5779,"à¦¬à¦ľà¦¨à¦¸à¦®":5780,"à§ªà§¬à§§":5781,"à¦ķà¦īà¦²":5782,"à¦ķà¦ļà¦ķ":5783,"à¦¬à§Łà¦ķ":5784,"à¦¤à¦¶à¦ķ":5785,"à¦¦à¦°à¦Ĺ":5786,"à¦¯à¦ĩà¦¸à¦²":5787,"à¦¯à¦¯à¦¥":5788,"à§Łà¦ĩà§Ł":5789,"à¦Łà¦°à¦¡":5790,"à¦¶à¦Ĩà¦ĵà¦¯":5791,"à¦ĩà¦ħà¦¬":5792,"à¦ĩà¦ħà¦¤":5793,"à¦ĩà¦ħà¦ª":5794,"à¦Ľà§Łà¦Ł":5795,"à¦·à¦ıà¦ķà¦Ł":5796,"à¦ĵà¦Ĩà¦ĵà§Ł":5797,"à¦īà¦ķà¦°":5798,"à¦īà¦Łà¦¨":5799,"à¦°à¦ķà¦²à¦®":5800,"à¦ıà¦ķà¦ķà¦¥":5801,"à¦ľà¦¨à¦¹à¦¬":5802,"à¦ľà¦¨à¦¸à¦¨":5803,"à¦ĺà¦¶":5804,"à¦°à¦ħà¦¥à¦¬":5805,"à¦ĩà¦¨à¦Ĩà¦ª":5806,"à¦ıà¦ĩà¦ķà¦°":5807,"à¦ıà¦ĩà¦ļà¦Ł":5808,"à¦Ĩà¦²à¦Ĩà¦®":5809,"à¦ķà¦®à¦¸":5810,"à§¬à§¨à§¦à§§à§¯":5811,"à¦ķà¦¸à¦ĩà¦īà¦¨":5812,"à§§à§¯à§ªà§Ń":5813,"à¦ķà¦ķà¦·":5814,"à§¨à§¦à§¨à§§à§§à§Ń":5815,"à¦ĩà¦ľà¦ķà¦°":5816,"à¦°à¦Ĩà¦Ĺà¦ªà¦°":5817,"à¦ıà¦ĩà¦ļà¦Ĩà¦ĩà¦Ń":5818,"à¦ıà¦¸à¦¬à¦®":5819,"à¦Ńà§Łà¦Ļ":5820,"à§¨à§¦à§¨à§§à§©":5821,"à¦®à¦ħà¦¬":5822,"à¦²à¦Ĩà¦°à¦ĵ":5823,"à¦¦à¦®à¦¹":5824,"à¦¯à¦Ĩ":5825,"à¦Łà¦§":5826,"à¦¶à¦ķà¦¬":5827,"à¦ĩà¦¶à¦ķ":5828,"à¦ıà¦°à¦¯":5829,"à¦ıà¦®à¦°":5830,"à¦·à¦ĵ":5831,"à¦·à¦¨à¦¬":5832,"à¦§à¦®à¦¨":5833,"à¦¥à¦īà¦ª":5834,"à¦¥à¦ķà¦¸":5835,"à¦ĵà¦Ĩà¦¶":5836,"à¦°à¦¸à¦¬à¦¬":5837,"à¦īà¦Ľ":5838,"à¦°à¦¬à¦¦":5839,"à¦°à¦¬à¦²à¦²":5840,"à¦°à¦ªà¦°à¦Ń":5841,"à§¨à§¨à§§":5842,"à¦ľà¦¨à¦«":5843,"à¦¬à¦²à¦¹à§Ł":5844,"à¦ĺà¦Łà¦¬":5845,"à¦°à¦£à¦ħà¦¨":5846,"à¦¨à¦¸à§ľ":5847,"à¦¬à¦¸à¦Ń":5848,"à¦²à¦ķà¦²à¦ķ":5849,"à¦ķà¦®à¦ķ":5850,"à¦¯à¦ķà¦°à¦Ľ":5851,"à¦°à¦²à¦Ń":5852,"à¦¤à¦®à¦°":5853,"à¦ķà¦¸à¦ļ":5854,"à¦¯à¦®à¦ľ":5855,"à¦¨à¦ıà¦ĩà¦¨":5856,"à¦¬à¦ªà¦¦":5857,"à§§à§ªà§¦":5858,"à¦ľà§Łà¦²":5859,"à§§à§¯à§Ńà§¦":5860,"à¦°à¦¸à¦¦à¦°à¦¶":5861,"à¦°à¦¸à¦«à¦²à¦¤":5862,"à§§à§¦à§§à§§à§§à§¨à§§à§©":5863,"à¦®à¦¤à¦²à¦¬à¦īà¦¤":5864,"à§ªà§«à§¬à§Ńà§®à§¯":5865,"à¦¨à¦¶à¦ķ":5866,"à¦¬à¦¶à¦¤":5867,"à¦¤à¦ıà¦Ĺ":5868,"à¦¸à¦Ĩà¦¬":5869,"à¦¸à¦Ĩà¦¦":5870,"à¦®à¦ľà¦¬":5871,"à¦®à§Łà¦ķà¦°":5872,"à¦®à¦£à¦ª":5873,"à¦²à¦ªà§ľ":5874,"à¦¯à¦ĺà¦Łà¦¨":5875,"à§Łà¦Ĩà¦Łà¦ķ":5876,"à§Łà¦°à¦ªà¦¦":5877,"à¦ĩà¦ıà¦ĩà¦¸":5878,"à¦Ĩà¦ł":5879,"à¦Ĩà§Łà¦¨":5880,"à¦ıà¦°à¦¹":5881,"à¦ļà¦®à¦¤":5882,"à¦§à¦ħà¦°":5883,"à¦¥à¦«":5884,"à¦ĸà¦ķà¦Ń":5885,"à¦ĵà¦ķà¦¥":5886,"à¦«à¦¡":5887,"à¦£à¦ħà¦°":5888,"à¦®à¦¨à¦¹":5889,"à¦®à¦¨à¦Ĺà¦°":5890,"à¦ıà¦ķà¦ĩà¦¦":5891,"à¦¹à§Łà¦ıà¦Ľ":5892,"à¦¨à¦¬à¦¡":5893,"à¦°à¦ıà¦°à¦¬":5894,"à¦¸à¦¬à¦Ł":5895,"à¦¶à¦¨à¦ıà¦ķ":5896,"à¦¹à¦¤à¦®":5897,"à§İà¦¯":5898,"à§Łà¦¨à¦¯":5899,"à¦·à¦£à¦«":5900,"à¦ķà¦ªà¦£":5901,"à¦ħà¦¬à¦¤à¦°à¦£":5902,"à¦ĩà¦ľà¦ª":5903,"à¦Ńà¦¬à¦¹à§Ł":5904,"à¦ĭà¦£à¦¦":5905,"à¦°à¦ħà¦ªà¦ļ":5906,"à¦°à¦¸à¦¦à¦°à¦¬":5907,"à¦°à¦Ĩà¦°à¦ĵà¦ªà§ľ":5908,"à¦īà§İà¦¸à¦¬à¦®":5909,"à§¨à§¬à§¨à§Ńà§¨à§®":5910,"à¦°à¦°à¦ļà¦¨":5911,"à¦¨à¦¬à¦²à¦²":5912,"à¦¤à¦¯à¦¦":5913,"à¦¤à¦Ĩà¦ĩà¦¨":5914,"à¦®à¦¹à¦¯à¦°à¦¤":5915,"à¦¯à¦ĵà¦ļ":5916,"à¦Łà¦Ŀ":5917,"à¦ľà¦¬à¦¸":5918,"à¦¶à¦¹à¦¬":5919,"à¦¶à¦ķà¦¨":5920,"à¦¶à¦ıà¦Ĺ":5921,"à¦Ĺà¦®à¦¸":5922,"à¦Ĺà¦¸à¦¹":5923,"à¦Ĺà¦®à¦ķ":5924,"à¦ĩà¦®à¦¤":5925,"à¦ĩà¦Ĩà¦¦":5926,"à¦§à¦¨à¦¯":5927,"à¦¥à¦¯":5928,"à¦¥à¦¬à¦°":5929,"à¦ĵà¦ĩà¦°":5930,"à¦¡à¦ķà¦®":5931,"à¦°à¦ķà¦®à¦ķ":5932,"à¦°à¦¬à¦¬":5933,"à¦ıà¦ķà¦¦à¦²":5934,"à¦¹à§Łà¦ĸ":5935,"à¦ĺà¦°à¦¥":5936,"à§Łà¦¨à¦ķà¦°à¦¤":5937,"à¦¦à¦ķà¦ıà¦¬":5938,"à¦ļà¦²à¦ķà¦°":5939,"à¦·à¦£à¦ľ":5940,"à§Łà¦ķà¦¹":5941,"à¦Ĩà¦ľà¦¶à¦¨":5942,"à¦¬à¦Ľà¦°à¦®":5943,"à¦Ĺà¦¤à¦¶":5944,"à¦°à¦¡à¦¨":5945,"à§§à§«à§¦à§¦":5946,"à¦¬à§ľà¦¸":5947,"à¦ªà¦£à¦¨":5948,"à§¨à§©à§¨à§ªà§¨à§«":5949,"à¦¶à¦¶à¦¤à¦ķ":5950,"à¦°à¦ĸà¦¬à¦°à¦ĵà¦¬":5951,"à¦¤à¦«à¦¸":5952,"à¦«à¦Łà¦ĵà§Ł":5953,"à¦°à¦Ĺà¦łà¦¨":5954,"à§§à§¨à§©à§ªà§«à§¬à§Ńà§®à§¯":5955,"à¦¨à¦Īà¦¶":5956,"à¦ķà¦ħà¦ŀ":5957,"à¦¬à¦°à¦ı":5958,"à¦¬à¦ķà¦¦à¦²":5959,"à¦¤à¦°à¦¶":5960,"à¦¤à¦ĸà¦¬":5961,"à¦¤à¦īà¦ł":5962,"à¦¸à¦ıà¦¨":5963,"à¦®à¦ĵà¦°":5964,"à¦ªà¦ıà¦²":5965,"à¦¦à¦²à¦¸":5966,"à¦¦à¦¶à¦°":5967,"à¦ľà¦ĩà¦īà¦¨":5968,"à¦ıà¦¥":5969,"à¦ıà¦°à¦°":5970,"à¦ıà¦²à¦ª":5971,"à¦ĵà¦Ĩà¦¸":5972,"à¦īà¦ľà¦¨":5973,"à¦°à¦¬à¦®":5974,"à§¨à§¨à§«":5975,"à§ľà¦ļ":5976,"à¦°à¦Ĩà¦¨à¦¸":5977,"à¦¨à¦¬à¦Ĺ":5978,"à¦°à¦£à¦ªà¦°":5979,"à¦¨à¦¸à¦ª":5980,"à¦¨à¦¸à¦¹à¦¬":5981,"à¦°à¦ħà¦¸à¦¹":5982,"à¦°à¦ħà¦ªà¦¸":5983,"à¦¨à¦ķà¦ĵà¦¯":5984,"à¦¯à¦ķà¦°à¦£":5985,"à¦®à¦¸à¦ª":5986,"à¦ķà¦Łà¦®":5987,"à¦²à¦®à¦§":5988,"à¦¤à¦ķà§Ł":5989,"à¦ļà¦¨à¦ķà¦°à¦¤":5990,"à¦¨à¦Ĩà¦¹":5991,"à¦®à¦ķà¦Ń":5992,"à§§à§¯à§®à§¦":5993,"à¦°à§Łà¦¦":5994,"à§§à§¦à§Ń":5995,"à¦Ĩà¦ĩà¦¨à¦Ĺà¦¤à¦¬":5996,"à¦Ĺà¦¨à¦²":5997,"à¦°à¦¥à¦®à¦¬à¦°":5998,"à§§à§Ńà§®":5999,"à¦¨à§Łà¦¨à¦¨":6000,"à¦Ĩà¦Łà¦ķà¦¨":6001,"à¦ľà¦ľà¦Ĩà¦¦":6002,"à¦¨à¦¹à§Łà¦°":6003,"à¦¬à¦°à¦£à¦ķà¦°à¦²":6004,"à¦ıà¦ķà¦ĩà¦¸à¦®à§Ł":6005,"à§§à§¬à§§à§Ńà§§à§®à§§à§¯":6006,"à¦ķà¦īà¦ªà¦¸":6007,"à¦¤à¦Ĩà¦Ĺ":6008,"à¦ªà¦ķà¦¤":6009,"à¦¶à¦¬à¦ª":6010,"à¦Ĺà¦§à¦°":6011,"à¦Ĩà§Łà¦¬":6012,"à¦·à¦Ĩà¦ªà¦¨":6013,"à¦ĵà¦ĩà¦¸à¦²":6014,"à¦°à¦ªà¦°à¦ĸ":6015,"à¦£à¦¹à¦²":6016,"à§¨à§¨à§ª":6017,"à§ĥà¦Ĥ":6018,"à¦¬à¦¨à¦¸à¦®":6019,"à¦²à¦ķà¦ļ":6020,"à¦°à¦ıà¦ĩà¦Ĺ":6021,"à¦¨à¦ªà¦¬":6022,"à¦¸à¦¬à¦Ń":6023,"à¦ķà¦®à¦¹à¦²":6024,"à¦²à¦¨à¦Ń":6025,"à¦²à¦¨à¦ħà¦¨":6026,"à¦¤à¦¨à¦¹à§Ł":6027,"à¦¦à¦¨à¦ļ":6028,"à¦ķà¦¸à¦¦à¦¸":6029,"à¦¤à¦ķà¦¨":6030,"à§§à§¯à§¯à§¯":6031,"à¦²à¦¹à¦ķà¦ķ":6032,"à¦ĩà¦Ńà¦¬":6033,"à¦Ĩà¦ĩà¦¨à¦¨":6034,"à¦°à¦ıà¦ķà¦Ĺ":6035,"à¦°à¦¥à¦®à¦¯":6036,"à¦¨à§Łà¦¯":6037,"à§¨à§¨à§Ń":6038,"à¦®à¦Ĩà¦¹":6039,"à¦¸à¦ķà¦²à¦®":6040,"à¦·à¦ĸà¦¬à¦°à¦¨":6041,"à¦Łà¦ĩà¦ªà¦¤":6042,"à¦°à¦°à¦«à¦¹":6043,"à§§à§ªà§§à§«à§§à§¬à§§à§Ńà§§à§®à§§à§¯":6044,"à§§à§¦à§§à§§à§§à§¨à§§à§©à§§à§ªà§§à§«à§§à§¬à§§à§Ńà§§à§®à§§à§¯":6045,"à§¨à§¬à§¨à§Ńà§¨à§®à§¨à§¯à§©à§¦":6046,"à¦¨à¦²à¦ķà¦¡":6047,"à¦ķà¦Ĩà¦¸":6048,"à¦ķà¦ĵà¦¦":6049,"à¦ķà¦ĵà¦¨":6050,"à¦¬à¦¹à¦²":6051,"à¦¤à¦ªà¦¨":6052,"à¦¤à¦ıà¦¸":6053,"à¦¤à¦Ĩà¦ľ":6054,"à¦²à¦¨à¦¤":6055,"à¦ªà¦¸à¦¬":6056,"à§Łà¦ĩà¦¸à¦²":6057,"à§Łà¦¸à¦®à§Ł":6058,"à§Łà¦ķà¦°à¦¬":6059,"à¦ľà¦²à¦¸":6060,"à¦¶à¦°à¦¬":6061,"à¦¶à¦Ĺà¦¤":6062,"à¦ĩà¦ıà¦¤":6063,"à¦Ľà¦¦à¦ª":6064,"à¦·à¦Ĩà§Ł":6065,"à¦°à¦®à¦¤à¦ª":6066,"à¦°à¦®à§Łà¦®à¦¨à¦¸":6067,"à¦ľà¦¨à¦¹à¦²":6068,"à¦ªà¦¨à¦Ĺ":6069,"à¦ªà¦¨à¦¡":6070,"à¦ĩà¦¨à¦ĺ":6071,"à§¯à§¦à§¦":6072,"à¦®à¦¤à¦¶":6073,"à¦®à¦¦à¦¬":6074,"à¦¨à¦Ĺà¦°à¦¸":6075,"à¦ªà¦ķà¦¡à¦®":6076,"à¦¨à¦ĵà¦¸à¦®":6077,"à¦°à¦īà¦ªà¦°à¦Ĺ":6078,"à¦°à¦ĺà¦°à¦¬":6079,"à¦ĵà¦®à¦°à¦«":6080,"à¦Īà¦«":6081,"à¦°à¦ıà¦ķà¦¹":6082,"à¦Ĺà¦łà¦¨à¦¨":6083,"à¦¨à¦Ĩà¦²à¦¹":6084,"à¦·à¦ĸà¦¬à¦°à¦®":6085,"à¦ĭà¦£à¦Ĺ":6086,"à¦¯à¦¤à¦®à¦¬":6087,"à¦ķà¦Ĩà¦¤à¦¸":6088,"à§¦à§¯à§«":6089,"à¦ªà¦¦à¦¸à§ľà¦ķ":6090,"à§¨à§¦à§¨à§§à§¨à§¨à§¨à§©à§¨à§ªà§¨à§«":6091,"à§§à§¦à§§à§§à§§à§¨à§§à§©à§§à§ªà§§à§«à§§à§¬à§§à§Ńà§§à§®à§§à§¯à§¨à§¦à§¨à§§à§¨à§¨à§¨à§©à§¨à§ªà§¨à§«":6092,"à¦¨à¦ļà¦²à¦ļ":6093,"à¦ķà¦ħà¦¤":6094,"à¦¤à¦°à¦ıà¦¬":6095,"à¦¤à¦ªà§ľà¦¤":6096,"à¦ªà¦ł":6097,"à¦¦à¦¨à¦¤à¦¥":6098,"à¦¯à§İ":6099,"à¦Łà¦ıà¦¸":6100,"à¦Łà¦ªà¦ķ":6101,"à¦Łà¦¸à¦²":6102,"à¦ĩà¦¦à¦°":6103,"à¦ĩà¦ĺà¦°":6104,"à¦ĩà¦ıà¦ķà¦®":6105,"à¦·à¦ķà¦°à¦²":6106,"à¦·à¦¸à¦®à¦ķ":6107,"à¦¡à¦¸à¦¨":6108,"à¦ħà¦¸à¦¨":6109,"à¦°à¦¸à¦ĸ":6110,"à¦£à¦ħ":6111,"à§¨à§§à§¬":6112,"à¦ıà¦ķà¦§":6113,"à¦°à¦£à§Łà¦¨à¦ķà¦°":6114,"à§¨à§¦à§¨à§¬":6115,"à¦ĩà¦¸à¦¸":6116,"à¦ĩà¦²à¦Ĩà¦ĩà¦Ł":6117,"à¦ĩà¦ķà¦¦":6118,"à¦Ŀà¦Ĺà§ľ":6119,"à¦¦à¦¨à¦ıà¦¬":6120,"à¦¦à¦¨à¦ķà¦°à¦¬":6121,"à¦¸à¦¹à¦ķà¦°":6122,"à¦¯à¦®à¦¬":6123,"à¦¯à¦®à¦Ĺ":6124,"à¦¬à¦Ľà¦°à¦ľ":6125,"à¦Ĩà¦°à¦ĵà¦¤":6126,"à¦ıà¦ĸà¦¨à¦ħà¦¨":6127,"à¦®à¦®à¦§":6128,"à¦ıà¦®à¦¶":6129,"à¦ĩà¦¯à¦¥":6130,"à¦¶à¦¹à¦°à¦Ł":6131,"à¦°à¦¸à¦¬à¦¥":6132,"à¦¬à§ľà¦²":6133,"à¦Ĩà¦°à¦¬à¦¸":6134,"à¦¤à¦°à¦£à¦¬":6135,"à¦Ĩà¦ĩà¦¨à¦ķ":6136,"à§§à§¯à§Ńà§©":6137,"à§¦à§Ńà§¨":6138,"à§§à§¦à§§à§§à§§à§¨à§§à§©à§§à§ªà§§à§«à§§à§¬à§§à§Ńà§§à§®à§§à§¯à§¨à§¦à§¨à§§à§¨à§¨à§¨à§©à§¨à§ªà§¨à§«à§¨à§¬à§¨à§Ńà§¨à§®à§¨à§¯à§©à§¦":6139,"à¦¾à¦¾":6140,"à¦¨à¦ĩà¦Ń":6141,"à¦¨à¦°à¦¹à¦®":6142,"à¦ķà¦ķà¦Ł":6143,"à¦¤à¦ªà¦¤":6144,"à¦²à¦ļà¦ķ":6145,"à¦¦à¦¬à¦¨":6146,"à¦¯à¦°à¦¯":6147,"à§Łà¦ıà¦Ĺ":6148,"à¦Łà¦īà¦¦":6149,"à¦Łà¦ıà¦¯":6150,"à¦Ĺà¦ĵà¦ª":6151,"à¦Ĩà¦¯à¦¹":6152,"à¦Ĩà¦°à¦Ĩà¦ªà¦¨":6153,"à¦·à¦Ĩà¦²":6154,"à¦·à¦ĩà¦¸à¦²":6155,"à¦§à¦¹à¦ĵà§Ł":6156,"à¦ĸà¦ķà¦ª":6157,"à¦ĵà¦ħà¦¤":6158,"à¦ĵà¦ĩà¦īà¦¨":6159,"à¦°à¦ķà¦¹":6160,"à§¨à§§à§©":6161,"à¦ľà¦¨à¦²":6162,"à¦ľà¦¨à¦Ĩà¦ķ":6163,"à¦°à¦£à¦¹à¦²":6164,"à¦¨à¦¸à¦«":6165,"à§¨à§¦à§©à§¦":6166,"à¦°à¦ĵà¦ķà¦°":6167,"à¦°à¦īà¦ĩà¦¨":6168,"à¦°à¦«à¦ķ":6169,"à¦®à¦ķà¦¥":6170,"à¦Ĩà¦ľà¦Ĩà¦®":6171,"à¦Ĩà¦¦à¦®":6172,"à¦Ĺà¦£à¦§à¦°":6173,"à¦Ĺà¦£à¦Ńà¦¬à¦¨":6174,"à¦°à¦®à¦¤à¦²à¦¬":6175,"à¦ĩà¦¬à¦¨à¦®":6176,"à¦¬à¦¹à¦¨à¦¶":6177,"à¦ıà¦®à¦¨à¦ħà¦¨":6178,"à¦¸à¦¤à¦¤":6179,"à¦ıà¦ĸà¦¨à¦¶":6180,"à¦®à¦®à¦Ļ":6181,"à¦Ĺà¦łà¦¨à¦ª":6182,"à¦ĩà¦ļà¦²à¦¬":6183,"à¦ľà¦²à¦¢":6184,"à¦°à¦ĵà¦ªà¦°à¦¸":6185,"à¦ĭà¦·":6186,"à¦Ĩà¦°à¦ıà¦Ł":6187,"à§§à§¯à§®à§®":6188,"à¦°à¦ıà¦ĩà¦ļà¦¡":6189,"à¦°à¦¤à¦°à¦«à¦¥":6190,"à¦¨à¦ıà¦ĩà¦¸à¦®à§Łà¦ħ":6191,"à¦¾à§į":6192,"à¦ķà¦¬à¦¸":6193,"à¦ķà¦Ĩà¦ĵà§Ł":6194,"à¦¬à¦ĩà¦²":6195,"à¦¬à¦ĵà¦®":6196,"à¦¤à¦°à¦Ĩà¦®":6197,"à¦¸à¦Ĩà¦ķ":6198,"à¦®à¦²à¦ķ":6199,"à¦¦à¦§":6200,"à¦ľà¦²à¦¦":6201,"à¦ľà¦ĸà¦¬à¦°à¦¨":6202,"à¦ĵà¦¸à¦¬":6203,"à¦ĵà¦īà¦²":6204,"à¦¡à¦ĩà¦¨":6205,"à¦°à¦¸à¦¨à¦ĸ":6206,"à¦«à¦¯":6207,"à¦«à¦®à¦¹":6208,"à¦£à¦¬à¦¨":6209,"à¦£à¦ĸà¦¬à¦°à¦¬":6210,"à§¨à§§à§ª":6211,"à¦¬à¦²à¦°":6212,"à¦¬à¦²à¦Ł":6213,"à¦°à¦¹à¦ľ":6214,"à¦ĺà¦·":6215,"à¦ĺà¦°à¦Ń":6216,"à¦ıà¦¬à¦Ľà¦°":6217,"à¦¬à¦¸à¦°":6218,"à§©à§¨à§¦à§¨à§§":6219,"à¦°à¦ĵà¦«":6220,"à¦ĩà¦ķà¦ļ":6221,"à¦ĩà¦ķà¦°à¦Ľ":6222,"à¦ıà¦¸à¦¬à¦¨":6223,"à¦°à¦²à¦Ĺ":6224,"à¦¨à¦Ĩà¦ĸà¦¤":6225,"à¦²à¦¸à¦ª":6226,"à¦ĵà¦ªà¦Ľà¦¨":6227,"à¦Ĺà¦¤à¦¯":6228,"à¦¨à¦¹à¦ĵà¦¯":6229,"à¦ıà¦®à¦ıà¦²":6230,"à¦¸à¦¦à¦°à¦¬":6231,"à¦ĩà¦īà¦Ĩà¦°à¦ı":6232,"à¦°à¦¥à¦®à¦Ń":6233,"à¦ĸà¦¬à¦°à¦°":6234,"à¦²à¦Ĩà¦ľà¦¹":6235,"à¦¤à¦°à¦Ĩà¦¹à¦¤":6236,"à¦¨à¦īà¦ķ":6237,"à¦ķà¦¤à¦°":6238,"à¦ķà¦¤à¦®":6239,"à¦¬à¦¬à¦¸":6240,"à¦¬à¦°à¦Ł":6241,"à¦¤à¦°à¦ļ":6242,"à¦¤à¦ħà¦¬":6243,"à¦²à¦ľà¦¨":6244,"à¦¦à¦¶à¦ķ":6245,"à¦¯à¦°à¦ª":6246,"à§Łà¦ľà¦®":6247,"à¦Łà¦¶à¦¨":6248,"à¦Łà¦¬à¦ķ":6249,"à¦ľà¦¬à¦²":6250,"à¦¶à¦ħ":6251,"à¦¶à¦¹à¦¯":6252,"à¦¶à¦Ĩà¦Ĺ":6253,"à¦Ĺà¦¨à¦¤":6254,"à¦Ĺà¦¹à¦¬":6255,"à¦Ńà¦¹":6256,"à¦Ńà¦īà¦¦":6257,"à¦¥à¦īà¦¦":6258,"à¦ĵà¦ıà¦²":6259,"à¦ĵà¦Ľà¦¬":6260,"à¦ĵà¦ĩà¦¶":6261,"à¦°à¦®à¦ļ":6262,"à¦ªà¦°à¦¨":6263,"à¦°à¦Ĩà¦¨à¦¬":6264,"à¦¹à§Łà¦ıà¦Ł":6265,"à¦°à¦ıà¦°à¦¸":6266,"à¦°à¦ıà¦°à¦®à¦§":6267,"à¦ıà¦ĩà¦®à¦¨":6268,"à¦ıà¦ĩà¦Ĩà¦ĩà¦¨":6269,"à¦ıà¦ĩà¦°à¦ķà¦®":6270,"à¦ĩà¦¬à¦¹":6271,"à¦¯à¦¸à¦Ļ":6272,"à¦¯à¦¸à¦¦à¦¸":6273,"à§¨à§¦à§¨à§§à§§à§¬":6274,"à¦ªà¦¦à¦Ĺ":6275,"à¦Ĺà¦²à¦¦":6276,"à¦¨à¦ĵà¦Ł":6277,"à¦°à¦īà¦ªà¦¬":6278,"à¦ĩà¦Ńà¦ķ":6279,"à¦¬à¦¹à¦¨à¦ĵà¦¸":6280,"à¦²à¦¦à¦¹à¦¹":6281,"à¦ĩà¦īà¦ıà¦¸":6282,"à¦Ĳà¦¦":6283,"à¦¤à¦ĸà¦¨à¦ª":6284,"à¦¯à¦ĸà¦¨à¦Ĩà¦®":6285,"à¦ıà¦¸à¦ıà¦®à¦ıà¦¸":6286,"à§¨à§©à§¦à§¬à§¨à§¦à§§à§¯":6287,"à§¦à§¬à§¨à§¦à§§à§¯à§¨à§Ń":6288,"à¦ħà¦ªà¦¹à¦°à¦£à¦ķà¦°":6289,"à¦¨à¦¬à¦²à¦¤":6290,"à¦ķà¦ªà¦¤":6291,"à¦ķà¦¶à¦°":6292,"à¦ķà¦ĵà¦ķ":6293,"à¦ķà¦ĺà¦£":6294,"à¦¤à¦¸à¦®à¦¯":6295,"à¦®à¦īà¦®":6296,"à¦²à¦¶à¦°":6297,"à¦¯à¦¯à¦¦":6298,"à§Łà¦¹à¦ļ":6299,"à§Łà¦ļà¦Ł":6300,"à¦ľà¦ıà¦²":6301,"à¦¶à¦ıà¦¸":6302,"à¦ĩà¦ıà¦®":6303,"à¦ĩà¦Ĩà¦¸à¦²":6304,"à¦Ĩà¦ĩà¦¯":6305,"à¦ıà¦¨à¦ķ":6306,"à¦ıà¦°à¦īà¦¦":6307,"à¦ļà¦ĵà§Ł":6308,"à¦ĸà¦§":6309,"à¦ĵà¦¶à¦°":6310,"à¦ĵà¦¤à¦¥":6311,"à¦ĵà¦ĩà¦Ĺ":6312,"à¦ĵà¦ħà¦¨à¦²":6313,"à¦¡à¦Ĩà¦¬":6314,"à¦°à¦¸à¦¬à¦ª":6315,"à¦°à¦ªà¦°à¦ıà¦ķà¦Ł":6316,"à§¨à§¨à§®":6317,"à§¦à§«à§¦":6318,"à¦łà¦°":6319,"à¦ľà¦¨à¦¹à¦¯":6320,"à¦°à¦Ĩà¦¨à¦ĸ":6321,"à¦¹à§Łà¦ıà¦°à¦ª":6322,"à¦ªà¦¨à¦ķà¦°à¦Ľ":6323,"à¦°à¦ıà¦®à¦¡":6324,"à¦ıà¦ĩà¦ľà¦¨":6325,"à¦°à¦Ĺà¦°à¦®":6326,"à¦ķà¦²à¦¦":6327,"à¦¨à¦¦à¦£":6328,"à§Łà¦ķà¦¨":6329,"à¦¯à¦®à¦¯":6330,"à¦¬à¦ķà¦ª":6331,"à¦¤à¦ªà¦Ľà¦¨":6332,"à¦¬à¦Ľà¦°à¦¦":6333,"à¦ªà¦ķà¦¹":6334,"à§¨à§¦à§¨à§§à§§à§®":6335,"à¦¯à¦¤à¦¤":6336,"à¦Ĺà¦£à¦ľ":6337,"à¦§à¦¨à¦«":6338,"à¦¸à¦¦à¦°à¦¥":6339,"à¦¨à¦ıà¦ĩà¦Ł":6340,"à¦°à¦¸à¦¬à¦®":6341,"à¦°à¦¸à¦¬à¦Ĺ":6342,"à¦¦à¦¶à¦ľ":6343,"à¦ĭà¦£à¦¬":6344,"à¦®à¦ķà¦®à¦²":6345,"à¦²à¦ķà¦ªà¦²à¦ķà¦ªà¦²à¦ķà¦ªà¦²à¦ķà¦ªà¦²à¦ķà¦ªà¦²à¦ķà¦ªà¦²à¦ķà¦ªà¦²à¦ķà¦ª":6346,"à¦¨à¦ļà¦²à¦Ľ":6347,"à¦¨à¦ĩà¦īà¦°":6348,"à¦ķà¦ĩà¦ķ":6349,"à¦ķà¦¶à¦¬":6350,"à¦ķà¦ĵà¦¶":6351,"à¦¬à¦¬à¦¨":6352,"à¦¬à¦ķà¦¤":6353,"à¦¬à¦°à¦ħà¦¨":6354,"à¦¬à¦ļà¦¤":6355,"à¦¤à¦ħà¦ªà¦¸":6356,"à¦¸à¦ĵà¦¦":6357,"à¦¸à¦Ĺà§ľ":6358,"à¦®à¦¬à¦¸":6359,"à¦®à¦Ĩà¦¶":6360,"à¦®à¦Ĩà¦¸à¦²":6361,"à¦ªà¦ıà¦ķà¦Ł":6362,"à§Łà¦®à¦¦":6363,"à§Łà¦īà¦ªà¦¸":6364,"à§Łà¦ħà¦Ĺ":6365,"à§Łà¦ħà¦ľ":6366,"à¦Łà¦ķà¦Ł":6367,"à¦Łà¦Ĩà¦°":6368,"à¦Łà¦ªà¦¦":6369,"à¦¶à¦Ĩà¦²":6370,"à¦¶à¦®à¦¹":6371,"à¦Ĺà¦ıà¦¨":6372,"à¦Ĩà¦ķà¦¤":6373,"à¦ļà¦ļ":6374,"à¦ķà¦°à¦¬à¦¨":6375,"à¦·à¦Ĩà¦¬":6376,"à¦Ńà¦ļ":6377,"à¦¥à¦°à¦¬":6378,"à¦ĵà¦ĵà§Ł":6379,"à¦ĵà¦¤à¦¬":6380,"à¦ĵà¦ħà¦²":6381,"à¦°à¦¸à¦¬à¦¸":6382,"à¦°à¦ªà¦°à¦Ľ":6383,"à§¨à§¨à§¦à§¦à§¦":6384,"à¦°à¦¤à¦ĸà¦¨":6385,"à§ĥà§ĥ":6386,"à¦®à¦¨à¦¹à¦¬":6387,"à¦ıà¦ķà¦ĩà¦ª":6388,"à¦ĺà¦ľ":6389,"à¦ªà¦¨à¦¶":6390,"à¦ĩà¦¸à¦Ł":6391,"à¦ķà¦¬à§ľ":6392,"à§İà¦¸à¦°":6393,"à¦ķà¦¦à¦²à¦Ĺ":6394,"à¦ķà¦¨à¦Ĺ":6395,"à¦Ĩà¦Ĺà¦·":6396,"à¦Łà¦ķà¦ıà¦ķ":6397,"à§§à§¦à§«":6398,"à¦·à§Łà¦¸à¦®":6399,"à¦¤à¦¹à§Łà¦¯":6400,"à¦ħà¦¬à¦¸à¦°":6401,"à§§à§Ńà§¬":6402,"à§§à§©à§Ń":6403,"à¦°à¦ĸà¦¬à¦°à¦ľ":6404,"à¦Ĩà¦¹à¦¤à¦¦":6405,"à¦«à¦Łà¦ĵà¦¯":6406,"à¦¯à¦¤à¦®à¦ķ":6407,"à§¦à§«à§ªà§¬à§§":6408,"à§¯à§®à§¨à§ªà§¦à§Ńà§¨":6409,"à§¯à§®à§¨à§ªà§¦à§«à§ªà§¬à§§":6410,"à§¯à§®à§¨à§ªà§¦à§¬à§¨":6411,"à§¯à§®à§¨à§ªà§¦à§¬à§©":6412,"à§¯à§®à§¨à§ªà§¦à§¬à§¬":6413,"à¦¨à¦ĩà¦¨à¦¸":6414,"à¦¨à¦²à¦Ĺà¦ĩà¦¨":6415,"à¦ķà¦ĩà¦®":6416,"à¦ķà¦°à¦ĸ":6417,"à¦¬à¦Ĩà¦°":6418,"à¦¤à¦ıà¦ķà¦¸":6419,"à¦®à¦ıà¦Ł":6420,"à¦²à¦¹à¦ļ":6421,"à¦²à¦°à¦¹à¦¤":6422,"à¦¦à¦ķà¦²":6423,"à¦¯à¦ªà§ľ":6424,"à¦¹à¦ĵà¦¤":6425,"à¦¹à¦Łà¦¸":6426,"à¦¶à¦ĺà¦Ł":6427,"à¦ĩà¦ıà¦¨":6428,"à¦ĩà¦ıà¦°à¦ķ":6429,"à¦Ĩà¦°à¦¯à¦¦":6430,"à¦ıà¦°à¦ħà¦§":6431,"à¦§à¦Ĩà¦Ľ":6432,"à¦¥à¦Ľ":6433,"à¦¥à¦ĵà¦¬":6434,"à¦¥à¦ķà¦ķ":6435,"à¦ĸà¦°à¦ªà¦°":6436,"à¦ĵà¦¦à¦ķ":6437,"à¦«à¦¶":6438,"à¦²à¦ķà¦ľ":6439,"à¦°à¦ıà¦¸à¦¬":6440,"à¦¤à¦¬à¦Ļ":6441,"à¦¹à¦¤à¦Ń":6442,"à¦¦à¦ķà¦®à¦¨":6443,"à¦ĩà¦ķà¦ª":6444,"à¦°à¦ĩà¦ĸ":6445,"à¦°à¦ĩà¦ıà¦ķà¦Ł":6446,"à¦·à¦£à¦¹":6447,"à¦¤à¦®à¦ĵà¦Ń":6448,"à¦§à¦°à§Ł":6449,"à¦ĩà¦Łà¦ĵà§Ł":6450,"à§¨à§§à§¦":6451,"à¦²à¦¹à¦ķà¦¬":6452,"à¦ĩà¦ľà¦²":6453,"à¦¨à¦ĵà¦ĸ":6454,"à¦ħà¦«à¦¸":6455,"à¦«à¦²à¦¦":6456,"à¦ıà¦ĸà¦¨à¦ĵà¦ķ":6457,"à¦¤à¦¤à¦¤":6458,"à§§à§ªà§¬":6459,"à¦°à¦®à¦£à¦¸":6460,"à§ľà¦ķà¦īà¦¨":6461,"à¦Łà¦«à§ľ":6462,"à¦·à§Łà¦ķà¦®à¦¨":6463,"à¦°à¦ªà¦°à¦¬à¦Ľ":6464,"à¦ĩà¦¨à¦«à¦°à¦®":6465,"à¦¯à¦Łà¦¨à¦¶":6466,"à¦·à¦ĸà¦¬à¦°à¦ķà¦°":6467,"à¦¬à¦Ĺà¦¤":6468,"à¦¬à¦°à¦¸à¦¨":6469,"à¦¸à¦°à¦¦":6470,"à¦²à¦īà¦ª":6471,"à¦²à¦ĵà¦¶":6472,"à¦¯à¦ĵà¦¨":6473,"à¦¯à¦ļà¦°":6474,"à§Łà¦ħà¦ŀ":6475,"à¦Łà¦¸à¦ª":6476,"à¦¶à¦ĵà¦®":6477,"à¦¶à¦ĵà¦ľ":6478,"à¦Ĺà¦°à¦ķ":6479,"à¦Ĺà¦¤à¦¨":6480,"à¦ıà¦¡à¦®":6481,"à¦ĸà¦ľà¦¨à¦ķ":6482,"à¦ªà¦°à¦²":6483,"à¦ľà¦¨à¦¶à¦¨":6484,"à¦°à¦Ĩà¦ŀ":6485,"à¦°à¦Ĩà¦ĵà¦¯":6486,"à¦¨à¦¸à¦ļ":6487,"à¦¨à¦¸à¦ŀ":6488,"à¦²à¦ķà¦°à¦Ľ":6489,"à¦°à¦ıà¦ĩà¦°":6490,"à§Łà¦¨à¦ľ":6491,"à§¯à§¨":6492,"à¦®à¦¤à¦ĸà¦¨":6493,"à¦°à¦¥à¦®à¦ķà¦°":6494,"à§Łà¦¸à¦Ļ":6495,"à¦ķà¦¦à¦°":6496,"à¦¯à¦®à¦«":6497,"à¦¶à¦ķà¦²à¦ķ":6498,"à¦°à¦īà¦ªà¦°à¦ļ":6499,"à¦²à§Łà¦Ł":6500,"à¦°à¦¡à¦¬":6501,"à¦²à¦¦à¦¶":6502,"à¦®à¦®à¦Ń":6503,"à¦¨à¦ıà¦ĩà¦Ń":6504,"à¦¤à¦¹à¦¨":6505,"à¦¤à¦°à¦£à¦¶":6506,"à¦¸à¦«à¦Łà¦ĵà¦¯":6507,"à¦²à¦Ĩà¦¯à¦¹":6508,"à¦¬à¦°à¦£à¦¸":6509,"à¦īà¦Ńà§Łà¦ªà¦ķ":6510,"à¦°à¦¬à§ľà¦Ń":6511,"à¦°à¦°à¦®à¦®":6512,"à¦ķà¦ĩà¦īà¦ª":6513,"à¦ķà¦ħà¦Ļ":6514,"à¦ķà¦Ĩà¦¹à¦®à¦¦":6515,"à¦¬à¦īà¦¨":6516,"à¦¸à¦ħà¦°":6517,"à¦¸à¦Ĩà¦¨":6518,"à¦®à¦ĵà¦¯":6519,"à¦®à¦Ĳ":6520,"à¦ªà¦ĵà¦®":6521,"à¦ªà¦īà¦ªà¦¨":6522,"à¦¦à¦¹à¦²":6523,"à¦¦à¦ĵà¦¯":6524,"à¦¯à¦ĵà¦ķ":6525,"à§Łà¦ĵà¦®":6526,"à¦ľà¦ı":6527,"à¦ľà§Łà¦¸":6528,"à¦¶à¦ĩà¦¤":6529,"à¦Ĺà¦°à¦¦":6530,"à¦ĩà¦°à¦¹":6531,"à¦ĩà¦Ĺà¦²":6532,"à¦ĩà¦§à¦°à¦¨":6533,"à¦Ĩà¦¤à¦¬":6534,"à¦Ĩà¦¦à¦¨":6535,"à¦ķà¦°à¦¯":6536,"à¦¥à¦°à¦ĺ":6537,"à¦¥à¦¹à¦ĵà§Ł":6538,"à¦ĸà¦ķà¦ķ":6539,"à¦°à¦ķà¦¡":6540,"à¦°à¦ķà¦¤à¦Ł":6541,"à¦°à¦¬à¦ī":6542,"à¦£à¦īà¦ĩà¦®":6543,"à§§à§¨à§¦à§§à§©":6544,"à§ľà¦¥":6545,"à¦ıà¦ķà¦Ľ":6546,"à¦¬à¦¸à¦°à¦ķ":6547,"à¦¨à¦ķà¦²à¦ķà¦°":6548,"à¦ĩà¦²à¦¤":6549,"à¦¦à¦ķà¦°à¦Ľ":6550,"à¦²à¦¸à¦Ń":6551,"à¦¨à¦Ĺà¦°à¦īà¦¤":6552,"à¦®à¦ķà¦ıà¦ķà¦Ł":6553,"à¦Ĩà¦¨à¦Ľ":6554,"à¦°à§Łà¦£à¦ª":6555,"à§¨à§¦à§¨à§§à§¦à§¯":6556,"à¦īà¦ľà¦Ĺ":6557,"à¦·à§Łà¦ķà¦¬":6558,"à¦«à¦²à¦ľ":6559,"à¦²à¦Ĺà¦ķà¦°":6560,"à§§à§«à§Ń":6561,"à¦¨à§Łà¦¨à¦®":6562,"à¦°à¦®à¦£à¦®":6563,"à§§à§¬à§¦":6564,"à¦¶à¦¹à¦°à¦Ĺ":6565,"à¦¬à§ľà¦¬à§ľ":6566,"à¦Ĩà¦ĩà¦ı":6567,"à¦Ĩà¦ĩà¦ıà¦®":6568,"à¦¤à¦ĸà¦¨à¦®":6569,"à¦¸à¦ķà¦²à¦¶":6570,"à§§à§¯à§®à§¯":6571,"à§®à§§à§®à§¯à§¯":6572,"à¦°à¦°à¦¨":6573,"à¦¨à¦ªà¦¨":6574,"à¦ķà¦¤à¦¨":6575,"à¦ķà¦Ľà¦¬":6576,"à¦ķà¦Ĩà§Ł":6577,"à¦¬à¦¶à¦°":6578,"à¦¬à¦ĵà¦ķ":6579,"à¦¬à¦°à¦ĩà¦¤":6580,"à¦¤à¦īà¦¨":6581,"à¦¤à¦²à¦Ń":6582,"à¦¸à¦°à¦¯":6583,"à¦¸à¦ħà¦«":6584,"à¦®à¦ĵà¦¦":6585,"à¦²à¦ıà¦¤":6586,"à¦ªà¦²à¦ķ":6587,"à¦¦à¦°à¦¹à¦®":6588,"à¦¯à¦¤à¦¨":6589,"à¦¯à¦Ĩà¦ĩà¦¨":6590,"à¦¯à§İà¦ķ":6591,"à§Łà¦¤à¦ķà¦°":6592,"à¦Łà¦ĵà¦¬":6593,"à¦ľà¦¹à¦²":6594,"à¦ľà¦¢":6595,"à¦¶à¦īà¦¨":6596,"à¦¶à¦ªà¦¤":6597,"à¦Ľà¦ķà¦°":6598,"à¦īà¦ľà¦¶":6599,"à¦£à¦¤à¦¹à¦¯":6600,"à§¦à§©à§¦":6601,"à¦°à¦¤à¦Ĺ":6602,"à¦°à¦£à¦Ĩà¦ªà¦¨":6603,"à¦°à¦ĵà¦Ľ":6604,"à¦°à¦Ńà¦¦":6605,"à§İà¦¥":6606,"à§Łà¦¨à¦Ń":6607,"à¦®à¦¸à¦ķ":6608,"à¦¤à¦¨à¦Ľ":6609,"à¦°à¦Łà¦¸":6610,"à¦¨à¦Ĺà¦°à¦¦":6611,"à¦¬à¦ªà¦°à¦¬":6612,"à¦¬à¦Ľà¦°à¦¤":6613,"à§¨à§¦à§¨à§§à§§à§©":6614,"à¦īà¦ľà¦²":6615,"à¦Ĺà¦£à¦Ł":6616,"à¦Īà¦°":6617,"à¦Łà¦ªà¦¸":6618,"à¦°à¦ıà¦ķà¦ªà¦°":6619,"à¦°à¦ıà¦ķà¦ľà¦¨à¦ª":6620,"à¦¯à¦ķà¦°à¦¸":6621,"à¦ķà¦°à¦£à¦ª":6622,"à¦²à¦Ĩà¦¹à¦®à¦¦":6623,"à¦ķà¦ľà¦¨à¦¤":6624,"à¦¹à¦°à¦£à¦¦":6625,"à¦¦à¦®à¦¨à¦ķà¦®":6626,"à¦ķà¦¬à¦Ľà¦°à¦§à¦°":6627,"à¦ķà¦ĩà¦¸":6628,"à¦ķà¦īà¦ªà¦¨":6629,"à¦¬à¦ķà¦°à¦¤":6630,"à¦¬à¦Ĩà¦¦":6631,"à¦¤à¦ĩà¦¸":6632,"à¦¤à¦ħà¦ªà¦°":6633,"à¦®à¦Ĩà¦Ľ":6634,"à¦²à¦ıà¦ĸà¦¨":6635,"à¦¯à¦ıà¦¸":6636,"à§Łà¦°à¦¨":6637,"à§Łà¦ħà¦ªà¦°":6638,"à§Łà¦²à¦ķà¦¡":6639,"à¦Łà¦²à¦®":6640,"à¦¶à¦ĵà¦¦":6641,"à¦Ĺà¦Ĩà¦®":6642,"à¦ĩà¦°à¦¬":6643,"à¦ĩà¦ĺà¦Ł":6644,"à¦ĩà¦ıà¦ķà¦¦":6645,"à¦Ĩà¦°à¦Ľ":6646,"à¦¥à¦ķà¦¬":6647,"à¦ĵà¦Ĩà¦ķ":6648,"à¦ĵà¦ħà¦ª":6649,"à¦īà¦¨à¦¨":6650,"à¦«à¦²à¦®":6651,"à¦«à¦°à¦ĩà¦ķà¦¬":6652,"à¦°à¦®à¦¤à¦¸":6653,"à¦°à¦ªà¦°à¦²":6654,"à§¨à§¨à§¦à§§à§©":6655,"à§¦à§¨à§¨":6656,"à¦°à¦ľà¦Ł":6657,"à¦°à¦Ĩà¦«":6658,"à¦ĺà¦¨à¦ķà¦°":6659,"à¦¤à¦¬à¦¹":6660,"à§Łà¦¨à¦ħà¦Ĺ":6661,"à¦¯à¦ķà¦²à¦ķ":6662,"à¦°à¦¥à¦®à¦²":6663,"à¦¤à¦¨à¦¸à¦®":6664,"à¦¦à¦ķà¦¡":6665,"à¦°à¦¸à¦®à§Łà¦¶":6666,"à§Łà¦¸à¦ķà¦²":6667,"à¦¨à¦Ĺà¦°à¦īà¦ªà¦ľ":6668,"à¦¨à¦ıà¦°à¦¬":6669,"à¦®à¦ķà¦°à¦£à¦ķà¦°":6670,"à¦ıà¦²à¦¡":6671,"à¦¦à¦²à¦¥":6672,"à¦°à¦īà¦ªà¦°à¦¥":6673,"à¦¬à¦¹à¦¨à¦ķ":6674,"à§¨à§ªà§¦":6675,"à§¨à§ªà§©":6676,"à§§à§¨à§®":6677,"à¦ıà¦ĸà¦¨à¦ĵà¦ªà¦°":6678,"à¦¶à¦®à¦ľ":6679,"à¦ıà¦®à¦Ń":6680,"à§§à§§à§§":6681,"à¦¹à¦ķà¦¹":6682,"à§¨à§Ńà§¦":6683,"à¦ıà¦«à¦ıà¦«":6684,"à§§à§¯à§Ńà§ª":6685,"à§§à§¯à§¯à§©":6686,"à§¯à§®à§¨à§©à§¦":6687,"à§§à§¨à§¦à§©":6688,"à¦ıà¦¸à¦®à§Łà¦īà¦ªà¦¸":6689,"à¦Ĺà¦®à¦¨à¦ķà¦°":6690,"à¦°à¦Ĩà¦ļà¦°à¦£":6691,"à§¯à§®à§¨à§©à§¦à§Ńà§©":6692,"à¦°à¦°à¦ª":6693,"à¦¨à¦ĩà¦īà¦ª":6694,"à¦ķà¦ķà¦°à¦¬":6695,"à¦ķà¦ħà¦ª":6696,"à¦¬à¦ªà¦¤":6697,"à¦¤à¦Ĩà¦¶":6698,"à¦¤à¦Ĩà§Ł":6699,"à¦¤à¦Ĳà¦¤":6700,"à¦¸à¦°à¦²":6701,"à¦®à¦ħà¦¤":6702,"à¦®à¦ıà¦ĸ":6703,"à¦²à¦Ĺà¦°":6704,"à¦¦à¦¸à¦¹":6705,"à§Łà¦¦à¦ķ":6706,"à§Łà¦¤à¦®":6707,"à§Łà¦ħà¦ķ":6708,"à§Łà¦īà¦ł":6709,"à§Łà¦ıà¦ĩà¦¬":6710,"à¦Łà¦°à¦¹":6711,"à¦Łà¦°à¦ľà¦®":6712,"à¦¶à¦²à¦Ĺ":6713,"à¦Ĺà¦ķà¦²":6714,"à¦ĩà¦ıà¦ķà¦ľà¦¨":6715,"à¦ļà§Łà¦ķà¦°":6716,"à¦ĵà¦Ĩ":6717,"à¦¡à¦Ĺà§ľ":6718,"à¦«à¦ĸ":6719,"à¦«à¦²à¦ķ":6720,"à¦«à¦¨à¦¦":6721,"à§¦à§§à§®":6722,"à¦¸à¦®à§Łà¦®":6723,"à¦¨à¦¬à§ľ":6724,"à¦°à¦£à¦²":6725,"à¦¨à¦¸à¦°à¦¬à¦°":6726,"à¦¨à¦¨à¦Ĺ":6727,"à¦¨à¦¨à¦ľà¦°":6728,"à¦¶à¦¨à¦ľ":6729,"à¦°à¦Ńà¦Ļ":6730,"à¦¹à¦¤à¦¤":6731,"à¦¤à¦¨à¦°":6732,"à¦ķà¦Łà¦ıà¦¬":6733,"à¦ķà¦Łà¦ķà¦¬":6734,"à¦¦à¦¨à¦¹":6735,"à¦°à¦¸à¦®à§Łà¦¯":6736,"à¦¨à¦Ĩà¦²à¦ķ":6737,"à¦ĩà¦Łà¦²":6738,"à¦¨à¦Ĺà§ľ":6739,"à¦¨à¦ıà¦°à¦ªà¦°":6740,"à¦¶à¦ķà¦¨à¦¸":6741,"à¦ĵà¦¬à¦¹":6742,"à¦¦à¦¸à¦°à¦ķ":6743,"à¦Ĺà¦²à¦ħ":6744,"à¦īà¦ľà¦®":6745,"à¦«à¦²à¦Ń":6746,"à¦°à¦¥à¦®à¦ĩà¦¨":6747,"à¦ıà¦¨à¦ĵà¦¸":6748,"à§§à§¬à§¬":6749,"à¦Īà¦¦à¦°à¦¹":6750,"à¦īà¦¡à¦ħà¦Ń":6751,"à¦¤à¦°à¦ªà¦¶":6752,"à¦ĵà¦ĩà¦ıà¦²":6753,"à¦²à¦¹à¦ķà¦¬à¦²":6754,"à¦ļà¦°à¦®à¦¬":6755,"à¦¨à¦Ĩà¦¤à¦Ļ":6756,"à¦¶à¦¨à¦ħà¦¬à¦¬":6757,"à¦¬à¦°à¦ļ":6758,"à¦¤à¦Ŀ":6759,"à¦¤à¦ĺà¦Ł":6760,"à¦¤à¦Ńà¦°":6761,"à¦¸à¦ĵà¦ķ":6762,"à¦®à¦ĵà¦ª":6763,"à¦²à¦Ĩà¦ĩà¦¨":6764,"à¦¦à¦ĵà§Ł":6765,"à¦¯à¦ŀ":6766,"à¦¯à¦ıà¦ĸà¦¨":6767,"à¦¯à¦¹à¦ĵà§Ł":6768,"à¦ľà¦ķà¦¬":6769,"à¦ľà¦ķà¦¨":6770,"à¦ľà¦®à¦¬":6771,"à¦¶à¦®à¦¤":6772,"à¦¶à¦ĵà¦ķ":6773,"à¦ĩà¦ıà¦°à¦ª":6774,"à¦ĩà¦ħà¦¬à¦¶":6775,"à¦ıà¦§à¦°à¦£":6776,"à¦ļà¦°à¦«":6777,"à¦·à¦°à¦ķà¦°":6778,"à¦·à¦īà¦¦":6779,"à¦·à¦¤à¦¥":6780,"à¦§à¦°à¦¬":6781,"à¦§à¦Ĩà¦®":6782,"à¦ĸà¦¢":6783,"à¦ĵà¦ľà¦°":6784,"à¦ħà¦²à¦°":6785,"à¦°à¦¸à¦¬à¦¦":6786,"à¦°à¦¬à¦ľ":6787,"à¦£à¦¹à¦¯":6788,"à§§à§¨à§¦à§§à§ª":6789,"à¦ĺà¦°à¦¦":6790,"à¦ĺà¦¸à¦®à¦¯":6791,"à¦°à¦£à¦¹à¦¬":6792,"à¦°à¦£à¦ķà¦°à¦²":6793,"à¦ªà¦¨à¦«":6794,"à¦°à¦ħà¦¸à¦®":6795,"à¦¤à¦¬à¦ķà¦ħà¦°":6796,"à¦°à¦ĵà¦¡":6797,"à¦°à¦Ĺà¦£à¦¤":6798,"à¦¨à¦®à¦£":6799,"à¦¯à¦ķà¦ķ":6800,"à¦ļà¦²à¦Ń":6801,"à¦ļà¦²à¦¥":6802,"à¦°à¦¸à¦®à§Łà¦Ĺ":6803,"à¦°à¦«à¦¸":6804,"à§Łà¦ķà§Ł":6805,"à§§à§¯à§«":6806,"à§Łà¦¦à¦ĩà¦¬à¦¨":6807,"à¦¤à¦¸à¦Ļ":6808,"à¦°à¦ĺà¦Ł":6809,"à¦·à¦ķà¦Ĩà¦¨":6810,"à§§à§«à§¯":6811,"à§§à§Ńà§¦":6812,"à¦°à¦®à¦£à¦¶":6813,"à¦¹à¦ľà¦°à¦¤":6814,"à¦°à¦ķà¦®à¦Ń":6815,"à¦ķà¦°à¦£à¦ķ":6816,"à¦¬à§ľà¦®":6817,"à¦ĩà¦Ľà§ľ":6818,"à¦ĩà¦¨à¦¸à¦¹":6819,"à¦°à¦¸à¦ķà¦²à¦¸":6820,"à¦°à¦Īà¦®":6821,"à¦¨à¦¹à§Łà¦¨":6822,"à¦¨à¦°à¦Ļ":6823,"à¦ķà¦ıà¦ĩ":6824,"à¦¬à¦ªà§ľ":6825,"à¦¤à¦¦à¦ķ":6826,"à¦¤à¦¦à¦²":6827,"à¦®à¦Ĩà¦Ĺ":6828,"à¦®à¦ĵà¦¤":6829,"à¦®à¦ıà¦¨":6830,"à¦²à¦ļà¦¨":6831,"à¦¦à¦°à¦ļ":6832,"à¦¦à¦ĩà§Ł":6833,"à§Łà¦°à¦¸à¦¹à¦¸à¦Ń":6834,"à¦¶à¦ıà¦ķà¦Ł":6835,"à¦¶à¦ĺà¦Łà¦¨":6836,"à¦¶à¦ıà§Ł":6837,"à¦Ĺà¦ľà¦¨":6838,"à¦ĩà¦«à¦²":6839,"à¦ıà¦ıà¦¸":6840,"à¦ĸà¦Ĩà¦Ľ":6841,"à¦ĵà¦¦à¦°":6842,"à¦«à¦Łà¦Ĺ":6843,"à§ľà¦¶":6844,"à¦ıà¦ķà¦ĺà¦£":6845,"à¦°à¦¨à¦°":6846,"à¦°à¦Ĩà¦°à¦¤":6847,"à¦ĺà¦°à¦ª":6848,"à¦°à¦ıà¦ĩà¦²":6849,"à§©à§©à§¦":6850,"à¦ķà¦²à¦ķà¦°":6851,"à§Ńà§¦à§Ń":6852,"à¦¦à¦¨à¦ħà¦°":6853,"à¦·à¦£à¦¯":6854,"à¦¤à¦®à¦°à¦¦":6855,"à§§à§¯à§«à§¨":6856,"à¦°à§Łà¦ª":6857,"à¦Łà¦ķà§Ł":6858,"à¦ĵà¦ªà¦¦":6859,"à¦²à¦ªà¦²":6860,"à§§à§¦à§¨":6861,"à¦ªà¦ķà¦°à¦Ľ":6862,"à¦ľà¦¶à¦°":6863,"à¦¨à¦Łà¦°à¦¡":6864,"à¦°à¦¡à¦Łà¦ķà¦®":6865,"à¦·à¦ķà¦Ĺ":6866,"à§§à§¬à§«":6867,"à¦Ĺà¦®à¦Ĺà¦ŀ":6868,"à¦¨à¦ħà¦Ļ":6869,"à¦°à¦ĸà¦¬à¦°à¦¸":6870,"à¦²à¦Ĩà¦²à¦®à¦®":6871,"à¦¬à¦°à¦¸à¦¤à¦°":6872,"à§§à§¯à§¯à§ª":6873,"à¦¤à¦¬à¦Ľà¦°à¦¬à§Łà¦¸":6874,"à¦īà¦¥à¦Ĩà¦«":6875,"à¦Łà¦¸à¦ķà¦²à¦¶":6876,"à¦¨à§Łà¦®":6877,"à¦¨à¦°à¦ļà¦¨":6878,"à¦ķà¦ĩà¦°":6879,"à¦ķà¦ħà¦¬":6880,"à¦¬à¦ł":6881,"à¦¤à¦°à¦ªà¦°":6882,"à¦¤à¦ĵà¦¨":6883,"à¦¤à¦ļà¦ķ":6884,"à¦¸à¦¦à¦ķ":6885,"à¦¸à¦ĵà¦ľ":6886,"à¦²à¦ħà¦¬à¦¸":6887,"à¦²à¦ĵà¦°":6888,"à¦²à¦ĵà¦¹":6889,"à§Łà¦ıà¦ĺà¦Łà¦¨":6890,"à¦Łà¦¤à¦¥":6891,"à¦ľà¦®à¦¹":6892,"à¦ľà¦¹à¦ļ":6893,"à¦¶à¦°à¦ķ":6894,"à¦¶à¦¤à¦ķà¦°":6895,"à¦ĩà¦ĵà¦¬":6896,"à¦ĩà¦Ĩà¦ľ":6897,"à¦Ľà¦Ń":6898,"à¦·à¦¤à¦¬":6899,"à¦·à¦Ĩà¦Ľ":6900,"à¦·à¦¹à§Łà¦¨":6901,"à¦Ńà¦¬à¦ª":6902,"à¦ĵà¦ķà¦¬":6903,"à¦ĵà¦Ŀ":6904,"à¦¡à¦Ĩà¦®":6905,"à¦¡à¦ĩà¦īà¦¨":6906,"à¦°à¦¸à¦¨à¦¦":6907,"à¦°à¦¬à¦ĩà¦Ł":6908,"à¦°à¦®à¦¨à¦ľ":6909,"à¦°à¦ªà¦°à¦ªà¦°":6910,"à¦ľà¦¨à¦¸à¦ļ":6911,"à¦°à¦ľà¦Ĺ":6912,"à¦ŀà¦¡":6913,"à¦¨à¦¸à¦¬à¦ļ":6914,"à¦°à¦ħà¦¬à¦¤":6915,"à¦²à¦¨à¦°":6916,"à¦¤à¦¨à¦Ĩà¦¨":6917,"à¦ĩà¦²à¦ıà¦¬":6918,"à¦·à¦£à¦ķà¦°à¦²":6919,"à¦°à¦¸à¦®à§Łà¦ľ":6920,"à¦¨à¦Ĩà¦¯":6921,"à¦¨à¦Ĩà¦§":6922,"à¦®à¦¦à¦Ĩà¦¬":6923,"à§§à§¯à§ªà§®":6924,"à§§à§¯à§¬à§¬":6925,"à¦¨à¦¶à¦¤":6926,"à¦¬à¦Ľà¦°à¦¸":6927,"à¦¨à¦®à¦¨à¦¸":6928,"à¦ħà¦¬à¦¸à¦°à¦¸":6929,"à¦ħà¦ªà¦ķà¦°":6930,"à¦Łà¦¸à¦¸":6931,"à¦ĩà¦¡à¦ª":6932,"à§§à§®à§Ń":6933,"à¦¨à¦Ĩà¦²à¦¬":6934,"à¦ħà¦¥à¦ļà¦¤":6935,"à¦°à¦¬à¦Ľà¦°à¦Ĩà¦Ĺ":6936,"à¦ķà¦Ĩà¦¤à¦Ľ":6937,"à¦¨à¦«à¦²à¦Ľ":6938,"à¦·à¦¦à¦¸à¦ļ":6939,"à§§à§¨à§©à§ªà§«à§¬à§Ńà§®à§¯à§§à§¦à§§à§§à§§à§¨à§§à§©à§§à§ªà§§à§«à§§à§¬à§§à§Ńà§§à§®à§§à§¯à§¨à§¦à§¨à§§à§¨à§¨à§¨à§©à§¨à§ªà§¨à§«à§¨à§¬à§¨à§Ńà§¨à§®à§¨à§¯à§©à§¦":6940,"à¦¨à¦¹à§Łà¦¤":6941,"à¦ķà¦ıà¦ª":6942,"à¦¤à¦ĵà¦¤":6943,"à¦¤à¦ıà¦ķà¦¬":6944,"à¦®à¦¤à¦°":6945,"à¦®à¦ĩà¦īà¦¨":6946,"à¦®à¦ıà¦ĸà¦¨":6947,"à¦®à¦¶à¦¹":6948,"à¦²à¦¯à¦¦":6949,"à¦²à¦°à§Ł":6950,"à¦ªà¦¨à¦¤":6951,"à¦ªà¦¸à¦°":6952,"à¦ªà¦ķà¦°à¦¬":6953,"à¦¦à¦ħ":6954,"à¦¯à¦ĩà¦¦":6955,"à¦¯à¦¸à¦¬à¦ļ":6956,"à§Łà¦Ĺà¦°":6957,"à§Łà¦Ľà¦¬":6958,"à§Łà¦Ĩà¦¸à¦Ľ":6959,"à¦¶à¦²à¦ķ":6960,"à¦ĩà¦°à¦¶":6961,"à¦ĩà¦¹à§Łà¦¨":6962,"à¦ĩà¦ĩà¦īà¦ª":6963,"à¦ĩà¦ıà¦®à¦¨à¦ķ":6964,"à¦ļà¦ĺ":6965,"à¦·à¦¸à¦°à¦ķ":6966,"à¦·à¦¸à¦®à§Ł":6967,"à¦ĸà¦ķà¦°à¦¤":6968,"à¦ĵà¦°à¦¦":6969,"à¦¡à¦Ĩà¦ĵà§Ł":6970,"à¦īà¦¡à¦¸":6971,"à¦°à¦¬à¦¸à¦¬":6972,"à¦°à¦ªà¦°à¦Ĩà¦ªà¦¨":6973,"à§¨à§¨à§¦à§§à§ª":6974,"à¦¬à¦¨à¦ķà¦°à¦¤":6975,"à¦°à¦Ĩà¦¨à¦ĵà¦¹":6976,"à¦ĺà¦°à¦ķ":6977,"à¦°à¦£à¦ıà¦ķà¦Ł":6978,"à¦°à¦£à¦ķà¦°à¦¬":6979,"à¦°à¦ħà¦¯":6980,"à¦ıà¦ĩà¦ĵà§Ł":6981,"à¦¨à¦¨à¦ĵà¦Ĺ":6982,"à§İà¦ļà¦¨":6983,"à¦°à¦ĩà¦®à¦§":6984,"à¦°à¦«à¦ľà¦²":6985,"à¦ļà¦¨à¦īà¦ªà¦²à¦ķ":6986,"à¦¨à¦Ĺà¦£à¦®":6987,"à¦¨à¦ıà¦°à¦ªà¦°à¦¤":6988,"à§§à§¯à§«à§¦":6989,"à§§à§¯à§¬à§ª":6990,"à¦¬à¦¬à¦Ļ":6991,"à§§à§¦à§§à§¨":6992,"à¦²à¦¹à¦ķà¦ª":6993,"à¦¨à¦ĵà¦«":6994,"à¦ıà¦®à¦¨à¦¨":6995,"à¦°à¦ıà¦ķà¦ļ":6996,"à¦°à¦¥à¦®à¦¥":6997,"à¦°à¦ĵà¦ªà¦°à¦ļ":6998,"à§¨à§Ńà§Ń":6999,"à¦Ĩà¦Łà¦ķà¦ª":7000,"à¦ķà¦ľà¦¨à¦¨":7001,"à¦°à¦¸à¦ķà¦²à¦ª":7002,"à¦ıà¦ĩà¦¸à¦®à§Łà¦¡":7003,"à¦¬à¦§à¦°":7004,"à¦¤à¦ĵà¦¯":7005,"à¦¤à¦īà¦ļ":7006,"à¦¤à¦ļà¦°":7007,"à¦¸à¦°à¦£à¦ķà¦°à¦¤":7008,"à¦®à§Łà¦ª":7009,"à¦ªà¦Ĩà¦²":7010,"à¦ªà¦¸à¦¨":7011,"à¦¦à¦§à¦°":7012,"à¦¦à¦Ĩà¦°":7013,"à¦¯à¦²à¦ķ":7014,"à¦¯à¦¸à¦®à§Ł":7015,"à¦¯à¦ĩà¦Ĩà¦®":7016,"à¦¹à¦ı":7017,"à¦¹à¦ķà¦¸":7018,"à¦¹à¦ĩà¦¸à¦²":7019,"à¦ľà¦Ĩà¦Ľ":7020,"à¦Ľà¦Ĩà¦²":7021,"à¦ķà¦°à§Ł":7022,"à¦ĸà§ľ":7023,"à¦ĵà¦¹à¦¬":7024,"à¦ħà§Ł":7025,"à¦ħà¦®à¦¸":7026,"à§ľà¦ķà¦®":7027,"à¦ľà¦¨à¦Ĩà¦¹à¦¤à¦¹à§Ł":7028,"à¦Ļà¦¤":7029,"à¦ĺà¦°à¦¸":7030,"à¦¨à¦¤à¦ķà¦°à¦¤":7031,"à§İà¦¸à¦®":7032,"à§Ńà§¨à§¦à§¨à§§":7033,"à¦ķà¦Łà¦¬":7034,"à¦ļà¦²à¦Ł":7035,"à¦ļà¦¨à¦¶":7036,"à¦¨à¦Ĩà¦ĵà¦¯":7037,"à¦ªà§ľà¦ªà¦°":7038,"à¦®à¦¹à¦®":7039,"à¦®à¦¦à¦¶à¦¹":7040,"à¦¸à¦ķà¦²à¦¨":7041,"à¦¬à¦Ľà¦°à¦Ľ":7042,"à¦Ĩà¦¦à¦®à¦Ĩ":7043,"à¦·à§Łà¦¹à¦²":7044,"à¦°à¦ĺà¦£":7045,"à¦°à¦¡à¦ĵà§Ł":7046,"à¦ħà¦¬à¦¸à¦°à¦ķ":7047,"à¦¶à¦¤à¦¶":7048,"à¦ıà¦®à¦¨à¦¦":7049,"à¦¸à¦¦à¦°à¦¦":7050,"à§§à§©à§ª":7051,"à¦¨à¦«à¦ĸà¦°":7052,"à¦¨à¦ıà¦ĩà¦²":7053,"à§¨à§«à§¨à§¦à§¨à§§":7054,"à¦¨à¦¸à¦®à¦°":7055,"à¦°à¦ĵà¦ªà¦°à¦Ĺ":7056,"à¦°à¦ĸà¦¬à¦°à¦¨":7057,"à§¦à§Ńà§¨à§§à§Ń":7058,"à§§à§¯à§¯à§«":7059,"à¦°à¦Ĺà¦£à¦¹à¦¤":7060,"à¦«à¦«à¦°à¦¹":7061,"à¦°à¦ĵà¦¶à¦¨à¦ıà¦°à¦¶":7062,"à¦¨à¦ĩà¦ķ":7063,"à¦¨à§Łà¦ª":7064,"à¦¨à¦Īà¦¦":7065,"à¦ķà¦ĩà§Ł":7066,"à¦¬à¦°à¦ĩ":7067,"à¦¬à¦ľà¦°":7068,"à¦¬à¦ľà¦¨à¦ª":7069,"à¦®à§Łà¦¹":7070,"à¦²à¦¤à¦°":7071,"à¦²à¦ĵà¦¤":7072,"à¦²à¦ħà¦¶":7073,"à¦ªà¦¹à¦¬":7074,"à¦ªà¦īà¦¦":7075,"à¦ªà¦ķà¦¦":7076,"à¦ªà¦ĵà¦¬":7077,"à¦¯à¦ĩà¦¬à¦¨":7078,"à¦¯à¦ħà¦«":7079,"à§Łà¦¸à¦®à¦¸":7080,"à¦¹à¦°à¦Ń":7081,"à¦Ĺà¦Ĩà¦Ĺ":7082,"à¦Ĩà¦īà¦²":7083,"à¦ıà¦°à¦¥":7084,"à¦Ľà§Ł":7085,"à¦·à§Łà¦¸":7086,"à¦Ńà¦¡":7087,"à¦§à¦ĵà¦®":7088,"à¦ĸà¦ķà¦¸à¦®":7089,"à¦ĵà¦ħà¦¶":7090,"à¦°à¦¬à§Ł":7091,"à¦°à¦¦à¦£":7092,"à¦°à¦Ĩà¦ķà¦°":7093,"à¦¹à§Łà¦ıà¦ķ":7094,"à¦¹à§Łà¦Ĩà¦ªà¦¨":7095,"à¦¬à¦°à¦²":7096,"à¦°à¦ıà¦°à¦®":7097,"à¦ĩà¦¨à¦ıà¦¬":7098,"à¦¨à¦ªà¦ķ":7099,"à¦¶à¦¨à¦ħà¦¨":7100,"à¦®à¦¸à¦ļ":7101,"à¦ķà¦Łà¦¦":7102,"à¦ıà¦¸à¦ĩà¦¤":7103,"à¦ıà¦¸à¦ıà¦²":7104,"à¦°à¦ĩà¦Ľ":7105,"à¦ļà¦¨à¦ĺà¦¡":7106,"à¦ĩà¦¬à¦Ļ":7107,"à¦¸à¦¹à¦¸à¦Ń":7108,"à¦¸à¦¹à¦ľà¦ķà¦°":7109,"à¦Ĺà¦¤à¦¤à¦¥":7110,"à¦Ĺà¦£à¦¬":7111,"à§§à§¨à§¯":7112,"à§§à§«à§«":7113,"à¦ĩà¦¡à¦®":7114,"à¦°à¦ıà¦ķà¦ľà¦¨à¦¬":7115,"à¦ªà¦¸à¦ıà¦¨":7116,"à¦¤à¦¹à¦¨à¦¤":7117,"à¦ķà¦ļà¦°":7118,"à¦¨à¦¬à¦²à¦Ľ":7119,"à¦Łà¦¬à¦²à¦¦à¦²":7120,"à¦·à§Łà¦ķà¦ª":7121,"à¦Ĩà¦ļà¦°à¦£à¦ķà¦°":7122,"à§¦à§¬à§©":7123,"à¦¸à¦«à¦²à¦Ń":7124,"à¦°à¦ľà¦¨à¦Ĺà¦£à¦ķ":7125,"à¦¨à¦°à¦¶":7126,"à¦ķà¦ĩ":7127,"à¦ķà¦¨à¦¬":7128,"à¦ķà¦ķà¦¨":7129,"à¦ķà¦¹à¦ļ":7130,"à¦¬à¦°à¦ĵ":7131,"à¦¤à¦°à¦ħà¦¨":7132,"à¦¤à¦ļà¦Ł":7133,"à¦¤à¦°à¦ŀ":7134,"à¦¸à¦§":7135,"à¦®à¦ıà¦²":7136,"à¦®à¦łà¦¬":7137,"à¦ªà¦ļà¦²à¦ļ":7138,"à¦¦à¦ĵà¦¸":7139,"à¦¯à¦°à¦¹":7140,"à¦¯à¦ıà¦ĩà¦¬":7141,"à§Łà¦ıà¦ķà¦¬":7142,"à¦ľà¦ıà¦ķ":7143,"à¦ľà¦ĵà¦¯":7144,"à¦¶à¦ĩà¦®":7145,"à¦ĩà¦ıà¦ª":7146,"à¦Ĩà¦°à¦ªà¦°":7147,"à¦ıà¦ħà¦Ń":7148,"à¦ļà¦Ĩà¦¨":7149,"à¦°à¦¬à¦ĩà§Ł":7150,"à¦°à¦®à¦¬à¦¨":7151,"à¦£à¦¤à¦¥":7152,"à¦°à¦¤à§İà¦ķ":7153,"à§Ĥà¦ĥ":7154,"à¦®à¦¨à¦Ĩà¦®":7155,"à¦łà¦ķà¦ķ":7156,"à¦°à¦Ĩà¦¨à¦ķ":7157,"à¦°à¦£à¦ķà¦°à¦Ľ":7158,"à¦°à¦ħà¦ªà¦®":7159,"à¦²à¦ķà¦Ĩà¦²":7160,"à¦¤à¦¬à¦¬":7161,"à¦ıà¦ĩà¦¬à¦²":7162,"à¦°à¦ļà¦²à¦Ľ":7163,"à¦¨à¦¨à¦²":7164,"à§ªà§§à§©":7165,"à¦¹à¦¤à¦¦à¦°":7166,"à§İà¦Ĺ":7167,"à¦®à¦¤à¦¹":7168,"à¦¤à¦¨à§Ł":7169,"à§Łà¦¸à¦ª":7170,"à¦°à¦ĸà¦¸à§ľ":7171,"à¦²à¦Ĺà¦¨":7172,"à¦ĩà¦īà¦ļ":7173,"à¦°à¦¥à¦®à¦§":7174,"à¦ıà¦ķà¦ľà¦¨à¦Ĺ":7175,"à¦ľà§Łà¦ħà¦¨":7176,"à¦¤à¦°à¦£à¦®":7177,"à¦°à¦īà¦ªà¦°à¦¯":7178,"à§§à§¯à§Ńà§¬":7179,"à¦°à¦Ĩà¦²à¦®à¦Ĺ":7180,"à¦¸à¦ĵà¦Ĳà¦¤":7181,"à¦ľà¦¸à¦¦à¦°à¦®":7182,"à¦®à¦¨à¦Ĺà¦°à¦¸":7183,"à¦ķà¦¬à¦Ľà¦°à¦Ĩà¦Ĺ":7184,"à¦ķà¦Ĩà¦ľ":7185,"à¦¬à¦Ĩ":7186,"à¦¬à¦ħà¦²":7187,"à¦¸à¦Ĩà¦ªà¦¨":7188,"à¦®à¦ıà¦¤":7189,"à¦²à¦¤à¦¨":7190,"à¦²à¦¦à¦°":7191,"à¦²à¦ĵà¦¨":7192,"à¦²à¦ĩà¦ŀ":7193,"à¦¦à¦¹à¦¯":7194,"à¦¦à¦ħà¦°":7195,"à§Łà¦®à¦¬":7196,"à§Łà¦°à¦Ĩà¦¤":7197,"à¦¹à¦ľà¦®":7198,"à¦ľà§Łà¦®":7199,"à¦Ĺà¦¤à¦ķà¦°":7200,"à¦Ľà¦ĸ":7201,"à¦°à¦®à§Łà¦¦":7202,"à¦£à¦Ĩà¦Ľ":7203,"à§¦à§¨à§¦":7204,"à§¦à§®à§¦":7205,"à¦°à¦£à¦¹à¦¤":7206,"à¦¨à¦¤à¦¹":7207,"à¦¬à¦¸à¦ĵà§Ł":7208,"à¦°à¦ıà¦ĩà¦¯":7209,"à¦¤à¦¬à¦ľ":7210,"à¦ıà¦ĩà¦§à¦°à¦£":7211,"à¦°à¦ľà¦¨à¦Ĺ":7212,"à§«à§§à§¦":7213,"à¦²à¦¨à¦ıà¦¬":7214,"à¦ķà¦¸à¦ķ":7215,"à¦²à¦¤à¦ªà¦°":7216,"à¦ĩà¦Łà¦¯":7217,"à¦ķà¦¨à¦¯":7218,"à¦¨à¦Ĺà¦°à¦®":7219,"à¦¨à¦ıà§Ł":7220,"à§Łà¦¬à¦¦":7221,"à§§à§¯à§¦":7222,"à¦ĩà¦ªà¦¬":7223,"à§Łà¦®à¦Ļ":7224,"à¦Ĩà¦°à¦ĵà¦¨":7225,"à¦§à¦¨à¦¸à¦®":7226,"à¦²à§Łà¦ķà¦°":7227,"à§§à§¨à§Ń":7228,"à§§à§«à§¨à§¦":7229,"à¦ĩà¦īà¦¬":7230,"à§§à§©à§¯":7231,"à¦²à¦ľà§Ł":7232,"à¦¹à§Łà¦¤à¦ĸà¦¨":7233,"à¦¬à§ľà¦¹à§Ł":7234,"à§¨à§¬à§©":7235,"à§¨à§¬à§¨à§¦à§¨à§§":7236,"à¦°à¦ıà¦ĩà¦¸à¦®à§Ł":7237,"à¦¨à¦ľà¦¨à¦Ĺà¦£":7238,"à¦¦à¦ĸà¦²à¦¦":7239,"à§Łà¦Ĩà§ľ":7240,"à¦¨à¦¸à¦¹à¦ħà¦¨":7241,"à§§à§¯à§®à§¨":7242,"à¦¯à¦īà¦¦à¦ĺ":7243,"à¦°à¦ĩà¦īà¦ıà¦¨à¦ĵ":7244,"à¦¨à¦°à¦¤":7245,"à¦¨à¦°à¦¨":7246,"à¦¨à¦ľà¦¨à¦¨":7247,"à¦¨à¦ļà¦²à¦¤":7248,"à¦¨à¦īà¦ªà¦ķ":7249,"à¦ķà¦Ĩà¦®à¦°":7250,"à¦ķà¦Ĳ":7251,"à¦¬à¦Ĩà¦ªà¦¨":7252,"à¦¬à¦°à¦¸à¦®":7253,"à¦¤à¦ħà¦¨à¦²":7254,"à¦¤à¦°à¦ħà¦¸":7255,"à¦¤à¦ħà¦Ł":7256,"à¦¸à¦¶à¦¨":7257,"à¦¸à¦īà¦¦à¦¯":7258,"à¦²à¦ıà¦¦":7259,"à¦²à¦ıà¦°à¦ª":7260,"à¦ªà¦ħà¦°":7261,"à¦ªà¦ļà¦ķ":7262,"à¦¦à¦ıà¦ķ":7263,"à¦¦à¦ĵà¦ª":7264,"à¦¦à¦°à¦ıà¦ķà¦Ł":7265,"à¦¯à¦Ĩà¦ľ":7266,"à¦¯à¦¤à¦ª":7267,"à¦¯à¦ľà¦®":7268,"à§Łà¦ħà¦ª":7269,"à§Łà¦ħà¦¨à¦²":7270,"à¦¹à¦°à¦Ĺ":7271,"à¦¹à¦¹à¦²":7272,"à¦¹à¦Ĩà¦¬":7273,"à¦Łà¦ıà¦®":7274,"à¦Łà¦ľà¦¨à¦ª":7275,"à¦ľà¦ĸà¦®":7276,"à¦¶à¦§à¦°":7277,"à¦Ĺà¦ĵà¦¬":7278,"à¦ĩà¦ĵà¦ķ":7279,"à¦ĩà¦Ĩà¦ľà¦ķ":7280,"à¦ĩà¦¸à¦¬à¦ķ":7281,"à¦Ĩà¦ľà¦¨à¦Ń":7282,"à¦ļà§Łà¦ª":7283,"à¦·à¦¸à¦¹":7284,"à¦Ńà¦¨à¦¥":7285,"à¦ħà¦®à¦²":7286,"à¦īà¦¨à¦¸":7287,"à¦°à¦ķà§ľ":7288,"à¦°à¦¬à¦¶":7289,"à¦°à¦®à¦¤à¦¦":7290,"à¦£à¦Ĩà¦²":7291,"à¦£à¦ķà¦°à¦Ľ":7292,"à§ľà¦¹à§Ł":7293,"à¦ıà¦ķà¦°à¦ľà¦®":7294,"à¦°à¦ľà¦²à¦¸":7295,"à¦°à¦Ĩà¦°à¦®":7296,"à¦°à¦Ĩà¦¨à¦¶":7297,"à¦¹à§Łà¦Ł":7298,"à¦ŀà¦ļ":7299,"à¦ªà¦¨à¦Ń":7300,"à¦¬à¦°à¦°à¦¹à¦®":7301,"à¦°à¦Ĺà¦Ńà¦°":7302,"à¦ķà¦®à¦®":7303,"à¦ķà¦¬à¦¹":7304,"à§İà¦²":7305,"à¦°à¦īà¦ĩà¦¨à¦¦":7306,"à¦²à¦¨à¦¯":7307,"à¦°à¦«à¦²à¦¨":7308,"à¦°à¦«à¦°à¦¯":7309,"à§Łà¦¸à§ľà¦ķ":7310,"à¦¸à¦¹à¦ĵà§Ł":7311,"à¦¨à¦Ĩà¦¨à¦¨":7312,"à¦ĩà¦Łà¦¤":7313,"à¦¨à¦ıà¦°à¦®":7314,"à¦¸à¦ķà¦Ĺ":7315,"à¦¨à¦¯à¦¶":7316,"à¦¬à¦Ľà¦°à¦¯":7317,"à¦Ĺà¦¤à¦¥":7318,"à¦²à¦¹à¦ķà¦¨":7319,"à¦ľà¦®à¦ľà¦®":7320,"à¦Ĩà¦ĩà¦¨à¦¦":7321,"à¦¹à¦¸à¦¦":7322,"à¦¤à¦¹à¦¨à¦¨":7323,"à¦®à¦¶à¦²":7324,"à¦·à¦®à¦¹à¦¯":7325,"à¦ıà¦¸à¦¬à¦¦":7326,"à¦¤à¦°à¦£à¦¦":7327,"à¦¯à¦ĸà¦¨à¦¨":7328,"à¦®à¦Ĩà¦¹à¦®à¦¦":7329,"à¦°à¦¸à¦®à§Łà¦Ł":7330,"à¦°à¦Ŀà§ľ":7331,"à¦¨à¦ĩà¦®à¦°":7332,"à¦ıà¦¸à¦®à§Łà¦ª":7333,"à§¨à§¦à§¨à§¨à§¨à§¦à§¨à§©":7334,"à¦¨à¦°à¦«":7335,"à¦¨à¦īà¦ªà¦¸":7336,"à¦¬à¦°à¦§":7337,"à¦¬à¦°à¦ıà¦¬":7338,"à¦¸à¦ĵà¦ª":7339,"à¦²à¦°à¦®":7340,"à¦²à¦Ĺà¦¤":7341,"à¦¦à¦ıà¦ķà¦Ł":7342,"à¦¯à¦ĩà¦ľ":7343,"à¦¯à¦Ĩà¦«":7344,"à¦¯à¦ħà¦ªà¦¸":7345,"à§Łà¦īà¦²":7346,"à¦Łà¦ķà¦¸":7347,"à¦¶à¦ĩà¦¨":7348,"à¦Ĺà¦ħ":7349,"à¦Ĩà¦¤à¦ķà¦°":7350,"à¦Ľà¦²à¦¤":7351,"à¦·à¦Ĩà¦¦":7352,"à¦Ńà¦§":7353,"à¦Ńà¦¬à¦¬":7354,"à¦§à¦¨à¦Ń":7355,"à¦¥à¦ķà¦Ń":7356,"à¦ĸà¦ķà¦®":7357,"à¦ĵà¦¨à¦¬":7358,"à¦ĵà¦¶à¦¨":7359,"à¦¡à¦¬à¦²":7360,"à¦¡à¦ĵà¦®":7361,"à¦īà¦Łà¦ķà¦°":7362,"à¦«à¦¨à¦¸à¦®":7363,"à¦°à¦ķà¦«":7364,"à¦°à¦®à¦¤à¦ķà¦°":7365,"à¦°à¦¦à¦¸":7366,"à¦°à¦¨à¦¡":7367,"à¦°à¦¹à§Łà¦ķ":7368,"à¦°à¦Ĩà¦°à¦¶":7369,"à¦°à¦Ĩà¦¨à¦ĵ":7370,"à¦°à¦Ĩà¦¨à¦®à¦ľ":7371,"à¦°à¦£à¦Ĩà¦ĩà¦¨":7372,"à¦¨à¦¸à¦¬à¦ķ":7373,"à¦°à¦ıà¦ĩà¦¤":7374,"à¦ķà¦®à¦¸à¦ľ":7375,"à¦¨à¦®à¦¹à¦²":7376,"à¦ķà¦¬à¦°à¦¦":7377,"à¦²à¦¨à¦¸à¦®":7378,"à§®à§§à§¦":7379,"à¦®à¦¸à¦¦à¦¸":7380,"à¦ıà¦¸à¦¬à¦¸":7381,"à¦¦à¦¨à¦ªà¦°":7382,"à¦¦à¦¨à¦Ĺà¦°":7383,"à¦ļà¦¨à¦²":7384,"à¦¯à¦®à¦ķà¦°":7385,"à¦ķà¦¤à¦Ĺ":7386,"à¦ĩà¦Łà¦¡":7387,"à¦Ĩà¦Ľà¦°":7388,"à¦¨à¦Ńà¦Ł":7389,"à§§à§¯à§¨à§Ń":7390,"à¦¤à¦ªà¦²":7391,"à¦·à§Łà¦ķà¦¸":7392,"à¦°à¦īà¦ªà¦°à¦Ľ":7393,"à¦ĩà¦Ńà¦¸à¦°":7394,"à¦¤à¦¹à§Łà¦ıà¦¬":7395,"à§¨à§ªà§¨à§¦à§¨à§§":7396,"à¦«à¦²à¦Ĩà¦ľà¦¨à¦Ń":7397,"à¦ıà¦ĸà¦¨à¦Ń":7398,"à¦¹à¦¸à¦¸":7399,"à¦¶à¦¸à¦«":7400,"à¦°à¦ıà¦ķà¦Ľ":7401,"à§§à§Ńà§«":7402,"à§§à§Ńà§Ń":7403,"à¦²à¦Ĩà¦¹":7404,"à¦ªà¦¥à¦¦":7405,"à¦¯à¦ĸà¦¨à¦Ĩà¦ªà¦¨":7406,"à¦īà§İà¦ªà¦¨":7407,"à¦ĵà¦ľà¦¨à¦¬":7408,"à¦°à¦¥à¦®à¦¸à¦ª":7409,"à§§à§¯à§®à§¬":7410,"à¦°à¦īà§İà¦¸à¦®":7411,"à¦Ĩà¦®à¦¨à¦§":7412,"à¦ıà¦¨à¦Ĩà¦ĩà¦¡":7413,"à§¨à§¦à§§à§¬à§¨à§¦à§§à§Ńà§¨à§¦à§§à§®à§¨à§¦à§§à§¯à§¨à§¦à§¨à§¦à§¨à§¦à§¨à§§à§¨à§¦à§¨à§¨à§¨à§¦à§¨à§©":7414,"à¦¨à¦ī":7415,"à¦¨à¦īà¦®":7416,"à¦ķà¦ľà¦¨à¦¸":7417,"à¦¬à¦¤à¦®":7418,"à¦¬à¦Ĩà¦¨":7419,"à¦¬à¦¤à¦¸":7420,"à¦¤à¦ķà¦¸":7421,"à¦¤à¦ĩà¦īà¦¨":7422,"à¦¤à¦ıà¦ĩà¦¸":7423,"à¦¸à¦Ĩà¦°":7424,"à¦¸à¦ħà¦¬":7425,"à¦®à¦Ĩà¦ķ":7426,"à¦®à¦īà¦ªà¦ľ":7427,"à¦²à¦ļà¦²":7428,"à¦²à¦Ĩà¦¶":7429,"à¦¦à¦¬à¦ª":7430,"à§Łà¦ĩà¦®":7431,"à¦Łà¦Ĩà¦¸":7432,"à¦Łà¦ªà¦¤":7433,"à¦Łà¦ªà¦¡":7434,"à¦ľà¦ķà¦¤à¦¤":7435,"à¦¶à¦®à¦ª":7436,"à¦ĩà¦Ĩà¦Ĺà¦¸":7437,"à¦ļà¦ŀ":7438,"à¦ļà¦¨à¦¤":7439,"à¦Ńà¦Ń":7440,"à¦§à¦ħà¦®":7441,"à¦¥à¦²à¦ªà¦°":7442,"à¦ĵà¦ļà¦²":7443,"à¦ĵà¦²à¦ľ":7444,"à¦ĵà¦ľà¦¨à¦ª":7445,"à¦¡à¦ħà¦¬":7446,"à¦°à¦¸à¦²":7447,"à¦°à¦¸à¦¹à¦¸":7448,"à¦«à¦¥":7449,"à¦°à¦ķà¦¸à¦®":7450,"à¦°à¦ķà¦¨à¦¸":7451,"à¦°à¦ªà§ľà¦²":7452,"à§§à§¨à§¦à§§à§«":7453,"à§ĥà¦¼":7454,"à¦ľà¦¨à¦®à¦¤":7455,"à¦ľà¦¨à¦Ĩà¦Ľ":7456,"à¦¬à¦²à¦Ń":7457,"à¦°à¦Ĩà¦¨à¦ª":7458,"à¦¹à§Łà¦ķà¦°":7459,"à¦¹à§Łà¦ıà¦ĩ":7460,"à¦°à¦ıà¦ĩà¦¶":7461,"à¦ıà¦ĩà¦ħà¦ŀ":7462,"à§İà¦Ń":7463,"à¦¨à¦¦à¦¯":7464,"à¦®à¦¤à¦ķà¦°":7465,"à¦¨à¦Ĩà¦¦à¦¨":7466,"à¦¨à¦Ĩà¦ªà¦¡":7467,"à¦ĩà¦Łà¦ªà¦°":7468,"à¦¨à¦Ĺà¦°à¦¨":7469,"à¦¨à¦ıà¦¸à¦®à§Łà¦¤":7470,"à¦īà¦ľà¦«":7471,"à¦«à¦²à¦¶":7472,"à¦ħà¦ªà¦Ľà¦¨":7473,"à¦Ĩà¦ĩà¦¨à¦ħà¦¨":7474,"à¦°à¦¥à¦®à¦Ĺ":7475,"à¦ķà¦¶à¦¨à¦¬":7476,"à§¨à§¯à§¨à§¦à§¨à§§":7477,"à¦ķà§Łà¦ĩà¦¤":7478,"à¦°à¦Ĩà¦¤à¦Ļ":7479,"à¦²à¦¨à¦ķà¦ķ":7480,"à¦¨à¦ħà¦°à¦°à¦¶":7481,"à§§à§¨à§¦à§®":7482,"à¦°à¦Ĩà¦Łà¦ķà¦ķà¦°":7483,"à¦¯à¦ĩà¦¬à¦ĩà¦Ĩà¦®":7484,"à§¨à§¦à§¨à§ªà§¨à§¦à§¨à§«":7485,"à¦¨à¦²à¦Ĺà¦ĩà¦¨à¦¨à¦¤":7486,"à§¨à§¦à§§à§¬à§¨à§¦à§§à§Ńà§¨à§¦à§§à§®à§¨à§¦à§§à§¯à§¨à§¦à§¨à§¦à§¨à§¦à§¨à§§à§¨à§¦à§¨à§¨à§¨à§¦à§¨à§©à§¨à§¦à§¨à§ªà§¨à§¦à§¨à§«":7487,"à¦°à¦°à¦ŀ":7488,"à¦ķà¦ħà¦Ĺ":7489,"à¦¬à¦īà¦¤":7490,"à¦¬à¦ĵà¦ľ":7491,"à¦¬à¦ĩà¦ĸ":7492,"à¦¤à¦ħà¦«":7493,"à¦¤à¦°à¦®à¦¤à¦²à¦¬":7494,"à¦®à¦¹à¦¯":7495,"à¦®à¦¯à¦¦":7496,"à¦®à¦ķà¦¨":7497,"à¦®à¦īà¦¤":7498,"à¦®à¦ľà¦®":7499,"à¦®à¦ĩà¦ķà¦¬":7500,"à¦²à¦¦à¦²":7501,"à¦²à¦¶à¦¬":7502,"à¦ªà¦°à¦ª":7503,"à¦¦à¦ĺ":7504,"à¦¦à¦Ĩà¦¸":7505,"à¦¯à¦Ĺà¦²":7506,"à¦¯à¦īà¦ªà¦ķ":7507,"à§Łà¦¦à¦¨":7508,"à§Łà¦ıà¦Ľ":7509,"à¦¹à¦¨à¦Ĺà¦ŀ":7510,"à¦ľà¦¡à¦²":7511,"à¦¶à¦ķà¦²":7512,"à¦ĩà¦ıà¦ķà¦¬":7513,"à¦Ĩà¦¨à¦ľ":7514,"à¦ıà¦°à¦¸à¦°":7515,"à¦Ľà¦ĵà§Ł":7516,"à¦·à¦°à¦£":7517,"à¦¥à¦¨à¦ª":7518,"à¦¥à¦¤à¦²":7519,"à¦ĸà¦®à¦¨":7520,"à¦°à¦¸à¦¬à¦¶":7521,"à¦īà¦Ĩà¦®":7522,"à¦°à¦®à¦²":7523,"à¦°à¦ªà¦°à¦ı":7524,"à¦ıà¦ķà¦ķà¦°":7525,"à¦ľà¦¨à¦Ĺà¦¨":7526,"à¦°à¦¨à¦Ĺà¦¦":7527,"à¦°à¦ľà§Łà¦¨":7528,"à¦¹à§Łà¦ıà¦¦":7529,"à¦¨à¦¬à§Łà¦¸":7530,"à¦¨à¦¤à¦°à¦ª":7531,"à¦¨à¦¸à¦ł":7532,"à¦²à¦ķà¦¸à¦Ń":7533,"à§¨à§¦à§«":7534,"à¦°à¦ļà¦²à¦¤":7535,"à¦¸à¦¬à¦¯":7536,"à¦¨à¦®à¦ķ":7537,"à¦¹à¦²à¦°":7538,"à§Īà¦ĥ":7539,"à¦¤à¦¨à¦§à¦°":7540,"à¦ĩà¦²à¦ĵà¦¯":7541,"à¦ĩà¦²à¦¸à¦¦":7542,"à¦Ŀà¦°à¦¨":7543,"à¦·à¦£à¦§à¦°":7544,"à¦²à¦¤à¦ľ":7545,"à§Łà¦¸à¦¤":7546,"à¦ĩà¦¬à¦¡":7547,"à¦¸à¦¹à¦¶":7548,"à¦¸à¦¨à¦®à¦¨":7549,"à§Łà¦ķà¦¶":7550,"à¦¨à¦Ńà§Ł":7551,"à§Łà¦¬à¦¹":7552,"à§§à§¯à§©à§Ń":7553,"à¦Łà¦ķà¦ļ":7554,"à§¨à§¦à§¨à§§à§¦à§®":7555,"à¦ĸà¦¬à¦°à¦ķ":7556,"à¦¨à¦ĵà¦¥":7557,"à¦ĩà¦Ńà¦ª":7558,"à¦īà¦²à¦Ĩà¦īà§Ł":7559,"à¦Īà¦¦à¦¸":7560,"à¦«à¦²à¦ĺ":7561,"à¦ıà¦®à¦ıà¦ĩà¦ļ":7562,"à§§à§«à§®":7563,"à§§à§¬à§¨à§¦à§¨à§¦":7564,"à¦°à¦¸à¦¬à¦§à¦°à¦¨":7565,"à¦¨à¦Ľà§ľ":7566,"à¦ĺà¦¨à¦ĺ":7567,"à¦£à¦Ńà¦Ł":7568,"à¦īà¦ªà¦°à¦¨":7569,"à§§à§¨à§¦à§¦à§¦":7570,"à¦¨à¦Ĺà¦¦à¦ħà¦°":7571,"à§¦à§¨à§¨à§¨à§©":7572,"à¦°à¦°à¦ī":7573,"à¦ķà¦¦à¦ķ":7574,"à¦ķà¦Ĺà¦£":7575,"à¦ķà¦°à¦ħà¦¬à¦¸":7576,"à¦ķà¦Ĩà¦ªà¦¡":7577,"à¦¤à¦ħà¦®":7578,"à¦¸à¦¢":7579,"à¦®à¦°à¦¨":7580,"à¦®à¦ħà¦¸":7581,"à¦²à¦ĵà¦¦":7582,"à¦²à¦¸à¦®à¦¸":7583,"à¦²à¦ĵà¦Ĺ":7584,"à¦¦à¦¹à¦¬":7585,"à¦¦à¦Ĩà¦«":7586,"à¦¯à¦ħà¦¬à¦¦":7587,"à¦¹à¦¹à§Ł":7588,"à¦Łà¦°à¦¨":7589,"à¦Łà¦°à¦°":7590,"à¦ľà¦ļà¦²":7591,"à¦ľà¦Ĩà¦¹à¦®":7592,"à¦Ĺà¦ıà¦²":7593,"à¦ıà¦®à¦¦":7594,"à¦ıà¦ıà¦¸à¦ª":7595,"à¦ļà§Łà¦¬":7596,"à¦ļà¦®à¦¶":7597,"à¦·à¦ħà¦°":7598,"à¦Ńà¦¹à¦¬":7599,"à¦°à¦¬à¦ĩà¦ª":7600,"à¦°à¦ªà¦°à¦Ĩà¦®à¦°":7601,"à¦£à¦ķà¦²":7602,"à¦°à¦¤à¦ĵà¦¬":7603,"à¦ľà¦¨à¦¥":7604,"à¦ľà¦¨à¦ĸ":7605,"à¦¬à¦²à¦Ĺ":7606,"à¦°à¦¦à¦¶":7607,"à¦°à¦ľà¦²à¦¬":7608,"à¦¹à§Łà¦²":7609,"à¦°à¦£à¦ļ":7610,"à¦°à¦ĵà¦®à¦¨":7611,"à¦¹à¦²à¦ľ":7612,"à¦°à¦Ńà¦Ł":7613,"à¦°à¦¥à¦®à¦¹":7614,"à¦¤à¦¨à¦¹à¦¤":7615,"à¦ĩà¦²à¦²":7616,"à¦Łà¦¨à¦¯":7617,"à¦¨à¦Ĩà¦ļ":7618,"à¦ĩà¦®à¦²":7619,"à¦®à¦¦à¦¨à¦®":7620,"à¦ķà¦ªà¦ķ":7621,"à¦¨à¦¶à¦¨à¦¬":7622,"à¦¯à¦¸à¦¤":7623,"à§§à§¦à§¯":7624,"à¦¤à¦ªà¦¬":7625,"à¦¤à¦ªà¦¥":7626,"à¦¬à¦Ľà¦°à¦¶":7627,"à¦Ĩà¦°à¦ĵà¦ıà¦ķà¦¬":7628,"à¦«à¦²à¦Ľ":7629,"à¦²à¦Ĺà¦ł":7630,"à¦ĵà¦ķà¦²à¦ķ":7631,"à¦¤à¦¤à¦Ł":7632,"à¦ĩà¦¡à¦¸":7633,"à¦°à¦ıà¦ķà¦¯":7634,"à¦¨à¦ħà¦ľ":7635,"à¦¤à¦°à¦£à¦ľ":7636,"à¦ĭà¦¦":7637,"à¦ıà¦°à¦ķà¦®à¦ķ":7638,"à¦°à¦Ĩà¦ĩà¦¨à¦¶":7639,"à§©à§Ńà§¯":7640,"à¦ĵà¦ĩà¦ĺà¦Łà¦¨":7641,"à¦¯à¦ĩà¦Ĩà¦ªà¦¨":7642,"à¦ıà¦¸à¦®à§Łà¦¬":7643,"à§§à§¯à§®à§§":7644,"à¦¯à§Łà¦¬à¦¹":7645,"à§§à§ªà§¦à§§à§§à§®à§ªà§«à§«":7646,"à§¨à§¦à§§à§¬à§¨à§¦à§§à§Ńà§¨à§¦à§§à§®à§¨à§¦à§§à§¯à§¨à§¦à§¨à§¦à§¨à§¦à§¨à§§à§¨à§¦à§¨à§¨à§¨à§¦à§¨à§©à§¨à§¦à§¨à§ªà§¨à§¦à§¨à§«à§¨à§¦à§¨à§¬":7647,"à¦¨à¦¹à¦¯à¦°à¦¤":7648,"à¦¨à¦ĩà¦ŀ":7649,"à¦ķà¦°à¦¶":7650,"à¦ķà¦¯à¦¦":7651,"à¦ķà¦Ĺà¦°":7652,"à¦ķà¦ĵà¦Ł":7653,"à¦¤à¦ĩà¦¬":7654,"à¦¤à¦²à¦ª":7655,"à¦®à¦ĸà¦²":7656,"à¦²à¦ıà¦Ľ":7657,"à¦ªà¦¹à¦¤":7658,"à¦ªà¦īà¦¨":7659,"à¦ªà¦²à¦¸":7660,"à¦¦à¦²à¦ª":7661,"à¦¦à¦ĩà¦īà¦¨":7662,"à¦¦à¦ľà¦¬":7663,"à¦¯à¦ħà¦¬":7664,"à¦¯à¦Ĺà¦¬":7665,"à¦¯à¦ľà¦°":7666,"à¦¯à¦ľà¦¨à¦ķ":7667,"à§Łà¦°à¦¦":7668,"à§Łà¦ķà¦¦":7669,"à¦¹à¦ķà¦ķ":7670,"à¦Łà¦¸à¦Ń":7671,"à¦Łà¦ħà¦ª":7672,"à¦ľà¦®à¦¨":7673,"à¦ľà¦ĺà¦¨":7674,"à¦¶à¦Ĩà¦°":7675,"à¦Ĺà¦®à¦¬":7676,"à¦ĩà¦ķà¦°à¦²":7677,"à¦ıà¦°à¦«":7678,"à¦ıà¦ħà¦ŀ":7679,"à¦ļà¦ıà¦¬":7680,"à¦ĵà¦¹à¦¯":7681,"à¦ĵà¦ªà§ľ":7682,"à¦ĵà¦ĩà¦Ń":7683,"à¦«à¦ĵà§Ł":7684,"à¦°à¦ķà¦¶":7685,"à¦°à¦ķà¦Ĺ":7686,"à¦°à¦®à¦¥":7687,"à¦£à¦¬à¦°":7688,"à¦łà¦ķà¦°à¦¬":7689,"à¦ľà¦¨à¦Ĩà¦®":7690,"à¦ľà¦¨à¦ıà¦°à¦®à¦§":7691,"à¦°à¦Ĩà¦¨à¦ªà§ľ":7692,"à¦¹à§Łà¦¡":7693,"à¦°à¦£à¦¥":7694,"à¦ªà¦¨à¦ļ":7695,"à¦°à¦¶à¦°à¦£":7696,"à¦ıà¦ĩà¦ĺ":7697,"à¦¸à¦¬à¦ıà¦²":7698,"à¦¨à¦¨à¦Ĺà¦°":7699,"à¦¤à¦¨à¦ªà¦°":7700,"à¦¦à¦¨à¦¸à¦®":7701,"à¦¤à¦®à¦Ļ":7702,"à¦¤à¦ķà¦Ĩà¦¸":7703,"à¦ĩà¦¤à¦ĸà¦¨":7704,"à¦¨à¦Ńà¦¬":7705,"à¦®à¦ķà¦°à¦£":7706,"à§§à§¯à§¬à§¦":7707,"à¦¯à¦¸à¦°à¦¬à¦°":7708,"à¦ªà¦ķà¦¥à¦¨":7709,"à§Łà¦®à¦ħà¦¨":7710,"à¦īà¦ľà¦ľ":7711,"à¦°à¦īà¦ªà¦²à¦ķ":7712,"à¦§à¦¨à¦ļ":7713,"à¦ķà¦Ńà¦Ł":7714,"à§§à§®à§®":7715,"à§§à§®à§¯":7716,"à§§à§ªà§®":7717,"à§§à§ªà§Ń":7718,"à¦ıà¦ķà¦ľà¦¨à¦²":7719,"à¦¬à¦²à¦²à¦Ĩà¦®":7720,"à¦Ńà¦¬à¦¹à¦²":7721,"à¦ıà¦ĩà¦ļà¦ıà¦ĩà¦ļ":7722,"à¦ķà¦Ĺà§ľ":7723,"à¦¡à¦®à¦ŀ":7724,"à¦°à¦¸à¦®à§Łà¦Ĩà¦®":7725,"à¦¯à¦Łà¦¨à¦ķ":7726,"à¦¹à¦¯à¦°à¦¤à¦°à¦¹":7727,"à¦ķà¦ĵà¦ħà¦°":7728,"à§İà¦¸à¦ķà¦ķ":7729,"à¦Ķà¦·à¦§à¦ĸ":7730,"à¦°à¦ĭà¦£":7731,"à§Łà¦ķà¦¸à¦°à¦ķ":7732,"à¦¤à¦°à¦®à¦¤à¦²à¦¬à¦¦à¦ķ":7733,"à¦°à¦°à¦ļ":7734,"à¦¨à¦ĩà¦¹":7735,"à¦ķà¦°à¦£à¦ķà¦°":7736,"à¦¬à¦ıà¦ķ":7737,"à¦¬à¦¤à¦¬":7738,"à¦¬à¦ħà¦¸":7739,"à¦¬à¦ĩà¦ļ":7740,"à¦¬à¦ļà¦°":7741,"à¦¤à¦¤à¦ª":7742,"à¦¤à¦īà¦ĩà¦ķ":7743,"à¦¤à¦ıà¦ĩà¦¬":7744,"à¦®à¦°à§Ł":7745,"à¦®à¦ĵà¦¨":7746,"à¦²à¦ĩà¦¯":7747,"à¦ªà¦Ĩà¦ªà¦¨":7748,"à¦ªà¦ªà¦¤":7749,"à¦¦à¦¬à¦°":7750,"à¦¦à¦²à¦®":7751,"à¦¦à¦ĵà¦¦":7752,"à¦¯à¦ł":7753,"à¦¯à¦¤à¦°":7754,"à¦¯à¦¸à¦ª":7755,"à¦¯à¦ıà¦²":7756,"à§Łà¦°à¦¹":7757,"à§Łà¦¤à¦°":7758,"à§Łà¦ıà¦ķà¦®":7759,"à§Łà¦Ĩà¦°à¦ĵà¦ªà§ľ":7760,"à¦¹à¦ķà¦¬":7761,"à¦¹à¦Ĩà¦ªà¦¨":7762,"à¦Łà¦°à¦«":7763,"à¦Łà¦ıà¦Ł":7764,"à¦ľà¦¶à¦¨":7765,"à¦ľà¦ĵà¦¬":7766,"à¦ľà¦®à¦ķ":7767,"à¦Ĺà¦¹à¦¯":7768,"à¦Ĺà¦¨à¦¶":7769,"à¦ĩà¦ĩà¦®":7770,"à¦ĩà¦ĵà¦ª":7771,"à¦ĩà¦ĩà¦īà¦¨":7772,"à¦ĩà¦īà¦ł":7773,"à¦ĩà¦ıà¦¸à¦¬":7774,"à¦Ĩà¦°à¦ĩà¦ī":7775,"à¦ļà¦ķà¦¸":7776,"à¦·à¦°à¦¤":7777,"à¦·à¦ļà¦¨":7778,"à¦·à¦¹à¦ĵà¦¯":7779,"à¦§à¦ķà¦®":7780,"à¦§à¦ļà¦²":7781,"à¦§à¦¸à¦®à§Ł":7782,"à¦ĸà¦ıà¦¬":7783,"à¦ĵà¦¶à¦ķ":7784,"à¦ĵà¦Ĩà¦ľ":7785,"à¦ĵà¦¨à§Ł":7786,"à¦ĵà¦ıà¦¤":7787,"à¦¡à¦°à¦¬":7788,"à¦¡à¦ıà¦ķà¦Ł":7789,"à¦«à¦°à¦ľ":7790,"à¦«à¦īà¦²":7791,"à§ľà¦ľ":7792,"à¦®à¦¨à¦·":7793,"à¦ıà¦ķà¦ĩà¦ķ":7794,"à¦°à¦ľà§Łà¦ª":7795,"à¦°à¦¹à¦Ł":7796,"à¦¬à¦¨à¦īà§İà¦¸à¦°":7797,"à¦°à¦Ĩà¦°à¦ª":7798,"à¦¹à§Łà¦¸à¦®":7799,"à¦°à¦£à¦¤à¦¬":7800,"à¦²à¦ķà¦¸à¦®":7801,"à¦¨à¦ķà¦ª":7802,"à¦¨à¦ķà¦ł":7803,"à¦ıà¦ĩà¦īà¦¦":7804,"à¦°à¦ĵà¦®à¦°":7805,"à¦¶à¦¨à¦ķà¦°à¦²":7806,"à¦¹à¦¤à¦¶":7807,"à§İà¦Ĩà¦®":7808,"à¦īà¦ªà¦ļ":7809,"à¦ĩà¦²à¦¯":7810,"à¦¦à¦ķà¦¸à¦¹":7811,"à¦²à¦®à¦²":7812,"à¦¤à¦ķà¦¡":7813,"à¦ķà¦¦à¦«":7814,"à¦¸à¦¨à¦ļ":7815,"à§Łà¦ķà¦ĸà¦¨":7816,"à¦®à¦²à¦¦":7817,"à¦¨à¦ıà¦°à¦ķ":7818,"à¦Łà¦ķà¦¶":7819,"à¦ĵà¦¸à¦¦à¦°à¦ª":7820,"à¦ĩà¦ªà¦¸":7821,"à¦Ĩà¦ľà¦°à¦¬":7822,"à§Łà¦ªà¦¦à¦ķ":7823,"à¦ªà¦¦à¦¶":7824,"à¦ĩà¦ľà¦¦":7825,"à¦Łà¦¸à¦¡":7826,"à¦°à¦ıà¦ķà¦ķà¦°":7827,"à§§à§©à§©":7828,"à¦°à¦®à¦£à¦ķà¦°à¦¤":7829,"à¦¤à¦²à¦ĵà¦ľà¦²":7830,"à¦¨à¦¡à¦®":7831,"à§§à§¬à§®":7832,"à¦ķà¦°à¦£à¦¸":7833,"à¦Łà¦¬à¦²à¦«":7834,"à¦ĵà¦¸à¦®à¦°":7835,"à¦°à¦Ĩà¦¸à¦Ľ":7836,"à¦¤à¦¸à¦®à§Łà¦ª":7837,"à¦¯à¦Ĩà¦®à¦¦":7838,"à¦°à¦Ĺà¦£à¦ªà¦°":7839,"à¦¬à¦ªà¦¨à¦®":7840,"à¦¨à¦īà§İà¦¸":7841,"à¦¨à¦īà¦ĩà¦¨":7842,"à¦ķà¦ĩà¦²":7843,"à¦ķà¦ªà§ľ":7844,"à¦ķà¦ļà¦Ł":7845,"à¦ķà¦īà§İà¦ª":7846,"à¦¬à¦ĵà¦¸":7847,"à¦¬à¦ħà¦¸à¦¹":7848,"à¦¤à¦°à¦¡":7849,"à¦¤à¦īà¦ªà¦ķ":7850,"à¦¸à¦°à¦¶":7851,"à¦®à¦ıà¦¸":7852,"à¦®à¦ªà§ľ":7853,"à¦²à¦ıà¦ĸ":7854,"à¦²à¦ľà¦°":7855,"à¦ªà¦Ĩà¦Ľ":7856,"à¦ªà¦¸à¦ķ":7857,"à¦ªà¦¸à¦®à¦¯":7858,"à¦¦à¦ĵà¦ķ":7859,"à¦¯à¦ļà¦²à¦ļ":7860,"à§Łà¦°à¦¸à¦ļ":7861,"à¦Łà¦°à¦Ĺ":7862,"à¦ľà¦¤à¦¬":7863,"à¦ĩà¦«à¦°":7864,"à¦ĩà¦ĸà¦²":7865,"à¦ıà¦ħà¦¨":7866,"à¦ıà¦°à¦ħ":7867,"à¦ıà¦ıà¦«à¦ª":7868,"à¦ĸà¦Ĩà¦®":7869,"à¦ĸà¦ķà¦¤":7870,"à¦¡à¦ıà¦²":7871,"à¦¡à¦ħà¦«":7872,"à¦ħà¦®à¦°":7873,"à¦ħà¦¬à¦¨à¦¤":7874,"à¦īà¦ĩà¦ľ":7875,"à¦°à¦ªà¦°à¦ĵà¦ķ":7876,"à¦¸à¦®à¦§":7877,"à¦ıà¦ķà¦ĸ":7878,"à¦ıà¦ķà¦«":7879,"à¦¬à¦²à¦²à¦¹":7880,"à¦ĺà¦¬à¦¦":7881,"à¦¨à¦ªà¦Ł":7882,"à¦°à¦Ľà§Łà¦Ł":7883,"à¦°à¦ĩà¦²à¦¬":7884,"à¦ĩà¦®à¦®":7885,"à¦¸à¦°à§Ł":7886,"à¦¨à¦ıà¦¸à¦®à¦¯":7887,"à¦¬à¦ªà¦¡":7888,"à¦¬à¦Ľà¦°à¦Ĺ":7889,"à§Łà¦®à§İà¦¸":7890,"à¦ĸà¦¬à¦°à¦¶":7891,"à¦²à¦¹à¦°":7892,"à¦¨à¦ĵà¦°à¦«":7893,"à¦¬à¦¹à¦£":7894,"à¦¬à¦¹à¦¨à¦ļ":7895,"à¦īà¦²à¦Ł":7896,"à¦Ĩà¦ĩà¦¨à¦®":7897,"à¦°à¦¹à¦£à¦¨":7898,"à¦¶à¦ªà¦¥à¦¨":7899,"à¦°à¦®à¦£à¦ł":7900,"à¦¨à¦ıà¦ĩà¦¤":7901,"à¦¬à§ľà¦ªà¦°":7902,"à¦¤à¦°à¦£à¦ļ":7903,"à§¨à§©à§®":7904,"à¦¸à¦«à¦²à¦®":7905,"à¦¨à¦ıà¦ķà¦ķ":7906,"à¦Ĩà¦°à¦ķà¦ĸà¦¨":7907,"à¦·à¦ĸà¦¬à¦°à¦ĵà¦®":7908,"à¦¯à¦ĸà¦¨à¦ľ":7909,"à¦¸à¦¹à¦ľà¦¹à¦¬":7910,"à¦·à§Łà¦ķà¦ķà¦°":7911,"à¦°à¦¦à¦²à¦ĺ":7912,"à§§à§¨à§¦à§§à§¦":7913,"à¦ıà¦¸à¦®à§Łà¦¸":7914,"à¦®à¦°à¦£à¦¸à¦Ń":7915,"à¦Ĩà¦īà¦Łà¦ª":7916,"à¦ĩà¦¨à¦Ĩà¦ªà¦ķà¦°":7917,"à¦ķà¦ļà¦²":7918,"à¦ķà§Łà¦²":7919,"à¦¤à¦°à¦ªà¦¤":7920,"à¦®à¦ıà¦°à¦ª":7921,"à¦²à¦ļà¦Ł":7922,"à¦ªà¦ľà§Ł":7923,"à¦¦à¦Ĩà¦¦":7924,"à¦¯à¦Ĩà¦ľà¦ķ":7925,"à§Łà¦ĩ":7926,"à§Łà¦¹à¦¸":7927,"à¦¹à¦ªà§ľ":7928,"à¦¹à¦ĵà¦®":7929,"à¦¹à¦Ĺà¦£à¦¨":7930,"à¦Łà¦®à¦¤":7931,"à¦Łà¦ĵà¦Ń":7932,"à¦Łà¦Ĩà¦Ĺà¦¸":7933,"à¦ľà¦¹à¦¤":7934,"à¦ľà¦īà¦¨":7935,"à¦ľà¦Ĩà¦¬":7936,"à¦Ĺà¦¬à¦¸":7937,"à¦Ĺà¦Ŀ":7938,"à¦ĩà§ľ":7939,"à¦ĩà¦ĵà¦®":7940,"à¦Ĩà¦°à¦ıà¦¬":7941,"à¦ıà¦°à¦Ł":7942,"à¦ıà¦¤à¦¸":7943,"à¦ıà¦¸à¦®à¦¸":7944,"à¦ļà¦ľà¦¨à¦ķ":7945,"à¦·à¦¨à¦ķà¦°":7946,"à¦·à§Łà¦®":7947,"à¦·à¦ĵà¦°":7948,"à¦§à¦Ĺà¦®":7949,"à¦¥à¦¬à¦²":7950,"à¦¥à¦Ĩà¦¤":7951,"à¦ĸà¦ķà¦¸":7952,"à¦ĵà¦²à¦ķ":7953,"à¦ĵà¦¦à¦²":7954,"à¦ĵà¦ıà¦¦":7955,"à¦ĵà¦Ĩà¦°à¦¬":7956,"à¦ĵà¦Ĩà¦ĩà¦¸":7957,"à¦¼à¦¿à¦Ĥ":7958,"à¦¡à¦ĺ":7959,"à¦°à¦¸à¦«à¦²":7960,"à¦īà¦²à¦¬":7961,"à¦īà¦²à¦¸":7962,"à¦īà¦°à¦ĵà§Ł":7963,"à¦«à¦¹à§Łà¦ķ":7964,"à¦°à¦¬à§ľà¦¬":7965,"à¦°à¦ªà¦°à¦Ł":7966,"à¦°à¦ªà¦¥à¦¬":7967,"à§§à§§à§¦à§¦":7968,"à§¨à§¨à§¦à§§à§«":7969,"à¦°à¦¤à¦ľ":7970,"à¦ıà¦ķà¦ħà¦¨":7971,"à¦¹à§Łà¦Ĩà¦®à¦°":7972,"à¦ĺà¦¤":7973,"à¦ªà¦¨à¦¥":7974,"à¦°à¦ħà¦¹":7975,"à¦¨à¦ķà¦¨à¦¸":7976,"à¦°à¦ıà¦ķà¦¥":7977,"à¦Ĩà¦²à¦Ĺ":7978,"à¦Ĩà¦²à¦Ń":7979,"à¦²à¦¨à¦¥":7980,"à¦®à¦¤à¦¸à¦®":7981,"à¦¤à¦¨à¦¹":7982,"à¦°à¦²à¦ª":7983,"à¦°à¦ĩà¦«à¦¤":7984,"à¦·à¦£à¦īà¦ªà¦ķ":7985,"à¦¤à¦®à¦²":7986,"à¦ļà¦¨à¦¸à¦®":7987,"à¦¨à¦Ĩà¦°à¦®":7988,"à¦¨à¦Ĩà¦ľà¦¬":7989,"à¦ĩà¦®à¦ľ":7990,"à¦¸à¦¨à¦¥":7991,"à¦®à¦ªà¦ŀ":7992,"à¦ĩà¦ªà¦²":7993,"à§Łà¦¤à¦¤":7994,"à¦Ĺà¦¤à¦¶à¦¨":7995,"à¦Ĺà¦²à¦¥":7996,"à¦¨à¦ĵà¦ħà¦¨":7997,"à¦°à¦¡à¦ķ":7998,"à¦«à¦°à¦°à¦¹à¦®":7999,"à¦¶à¦¤à¦¶à¦¤":8000,"à¦·à¦ķà¦Ľ":8001,"à¦²à¦Ńà¦°":8002,"à§§à§«à§¨":8003,"à§§à§«à§ª":8004,"à¦ĩà¦¯à¦ĸà¦¨":8005,"à¦°à¦¥à¦®à¦ħ":8006,"à§§à§¬à§¯":8007,"à¦¤à¦ĸà¦¨à¦¦":8008,"à¦¦à¦¤à¦ķà¦¬":8009,"à¦·à¦ĸà¦¬à¦°à¦ķ":8010,"à¦°à¦ªà¦¥à¦ļà¦²":8011,"à¦ķà¦ĸà¦¨à¦ĵà¦ķà¦ĸà¦¨":8012,"à¦¹à¦¯à¦°à¦¤à¦¶":8013,"à¦ĵà¦ĩà¦¸à¦®à§Ł":8014,"à¦¬à¦ĩà¦ªà§ľ":8015,"à¦ķà¦¬à¦°à¦¯":8016,"à§¨à§¦à§¨à§§à§Ń":8017,"à¦ľà¦¸à¦¦à¦°à¦īà¦ªà¦ľ":8018,"à¦°à¦ľà¦¨à¦ķà¦ķ":8019,"à¦¨à¦īà¦ªà¦¨":8020,"à¦¬à¦Ĩà¦®à¦°":8021,"à¦¬à¦¤à¦¥":8022,"à¦¤à¦ľà¦¬":8023,"à¦¤à¦ĵà¦Ń":8024,"à¦¤à¦°à¦ĩà¦īà¦¨":8025,"à¦¤à¦Ĩà¦°à¦ĵà¦ªà§ľ":8026,"à¦¸à¦ħà¦Ń":8027,"à¦®à¦¶à¦°":8028,"à¦®à¦ķà¦°à¦²":8029,"à¦ªà¦¬à¦¨":8030,"à¦¦à¦¤à¦ª":8031,"à¦¯à¦ĩà¦°":8032,"à¦¯à¦īà¦ļ":8033,"à§Łà¦ªà§ľà¦¤":8034,"à¦¹à¦ľà¦¨":8035,"à¦¹à¦Ĩà¦Ĺ":8036,"à¦Łà¦ħà¦§":8037,"à¦ľà¦ıà¦ķà¦Ł":8038,"à¦ľà¦Ĩà¦¨":8039,"à¦ľà§Łà¦ķà¦°":8040,"à¦¶à¦īà¦¤":8041,"à¦Ĺà¦ĵà¦¯":8042,"à¦Ĺà¦°à¦®à¦ª":8043,"à¦§à¦ĵà¦¸":8044,"à¦ĵà¦Ĩà¦ĩ":8045,"à¦ĵà¦ĩà¦¸à¦¬":8046,"à¦ħà¦ļà¦²":8047,"à¦°à¦¸à¦¦à¦°":8048,"à¦°à¦ķà¦®à¦¨":8049,"à¦°à¦ķà¦®à¦¸":8050,"à¦°à¦®à¦¨à¦ķ":8051,"à¦°à¦ªà¦°à¦Ĩ":8052,"à¦£à¦¤à¦°":8053,"à¦£à¦¹à¦¤":8054,"à¦£à¦ıà¦²":8055,"à¦łà¦Ł":8056,"à¦°à¦¨à¦ĸ":8057,"à¦¹à§Łà¦¬à¦°":8058,"à¦¬à¦¸à¦¸":8059,"à¦°à¦ħà¦¬à¦¹":8060,"à¦¨à¦ªà¦°à¦¬":8061,"à¦Ĩà¦²à¦®à¦¡":8062,"à¦ķà¦Łà¦°":8063,"à¦°à¦ĩà¦¸à¦°":8064,"à¦·à¦£à¦ķà¦°à¦Ľ":8065,"à¦°à¦«à¦ĸà¦°":8066,"à¦¸à¦¨à¦Ń":8067,"à¦®à¦¹à¦ļ":8068,"à¦¨à¦Ĺà¦¡":8069,"à¦ĵà¦¬à¦¡":8070,"à¦®à¦ªà¦ķ":8071,"à¦ĩà¦°à¦°à¦¹":8072,"à¦Ĩà¦ľà¦ªà¦°":8073,"à¦ªà¦ķà¦ļ":8074,"à¦ľà¦¶à¦¹à¦°":8075,"à¦Ĩà¦°à¦ĵà¦ĸ":8076,"à¦Ĩà¦°à¦ĵà¦ķà§Ł":8077,"à¦²à¦¹à¦ķà¦Ĺ":8078,"à¦ĩà¦¦à¦ĩà¦¬à¦¨":8079,"à¦Īà¦®à¦¹":8080,"à¦·à¦ķà¦ıà¦¬":8081,"à§§à§¨à§§à§Ń":8082,"à¦ıà¦ĸà¦¨à¦ľ":8083,"à¦ıà¦ĸà¦¨à¦Ĩà¦ªà¦¨":8084,"à¦°à¦¹à¦£à¦¬":8085,"à¦°à¦¹à¦£à¦ª":8086,"à¦°à¦īà¦¦à¦¯":8087,"à¦ĩà¦«à¦īà¦¦":8088,"à¦ķà¦¶à¦¨à¦ª":8089,"à¦°à¦®à¦£à¦ĵà¦®":8090,"à§§à§¬à§©":8091,"à¦²à¦¥à¦ķ":8092,"à¦ıà¦«à¦ļ":8093,"à¦ªà¦¥à¦Ń":8094,"à¦Ĩà¦¹à¦¤à¦¬":8095,"à¦Ĩà¦Łà¦ĺà¦°":8096,"à¦°à¦Ĩà¦ĩà¦¨à¦ª":8097,"à¦°à¦¸à¦ķà¦²à¦¬":8098,"à¦ķà¦Ĩà¦īà¦Ł":8099,"à§Łà¦Ĩà¦¨à¦¤":8100,"à¦Ĩà¦ĩà¦¡à¦¬":8101,"à§§à§¯à§®à§ª":8102,"à¦ıà¦ķà¦ĩà¦¸à¦®à¦¯":8103,"à¦ļà¦°à¦®à¦Ń":8104,"à¦¸à¦®à¦¤à¦²à¦ª":8105,"à¦·à¦£à¦ļà¦®à¦¤":8106,"à¦¨à¦ĩà¦ª":8107,"à¦¨à¦°à¦ĵà¦¯":8108,"à¦¬à¦ĵà¦¤":8109,"à¦¬à¦ĩà¦ľà¦¤":8110,"à¦¤à¦ľà¦¨à¦ª":8111,"à¦®à¦Ĩà¦¤":8112,"à¦®à¦ĵà¦¸à¦®":8113,"à¦ªà¦®à¦¹":8114,"à¦¦à¦¤à¦¬":8115,"à¦¦à¦ľà¦¨à¦ª":8116,"à¦¯à¦¨à¦¬":8117,"à¦¯à¦°à¦¤à¦ļ":8118,"à§Łà¦ıà¦ĸ":8119,"à§Łà¦Ĺà¦£à¦®":8120,"à¦¹à¦ķà¦°à¦¬":8121,"à¦ľà¦ĩà¦¸à¦²":8122,"à¦¶à¦ĵà§Ł":8123,"à¦¶à¦¤à¦°":8124,"à¦Ĺà¦¨à¦¬":8125,"à¦Ĺà¦¨à¦ķ":8126,"à¦Ĺà¦®à¦¤":8127,"à¦Ĺà¦ħà¦¸":8128,"à¦ĩà¦Ĺà¦°":8129,"à¦Ĩà¦°à¦¸à¦®":8130,"à¦ıà¦īà¦ªà¦²à¦ķ":8131,"à¦ļà¦ķà¦²":8132,"à¦·à¦ªà¦¥":8133,"à¦§à¦°à¦Ľ":8134,"à¦§à¦°à¦ĩà¦²":8135,"à¦ĸà¦¸à¦®":8136,"à¦ĸà¦Ĩà¦¬":8137,"à¦ĸà¦¤à¦®":8138,"à¦ĸà¦ķà¦¶":8139,"à¦ĵà¦°à¦¯":8140,"à¦ĵà¦ĩà¦¯":8141,"à¦ĵà¦ĩà¦ļ":8142,"à¦ħà¦¬à¦²":8143,"à¦īà¦Łà¦¬":8144,"à¦°à¦®à¦Ĺ":8145,"à§ľà¦ªà¦°":8146,"à¦ıà¦ķà¦¸à¦®à¦¯":8147,"à¦¬à¦²à¦ĸ":8148,"à¦°à¦¦à¦ĸ":8149,"à¦°à¦Ĩà¦¦à¦²":8150,"à¦ĺà¦¨à¦ķ":8151,"à¦ªà¦¨à¦¯":8152,"à¦°à¦ħà¦£":8153,"à§¨à§¦à§ªà§§":8154,"à¦°à¦ıà¦ĩà¦Ł":8155,"à¦ıà¦ĩà¦¨à¦¤":8156,"à¦¨à¦¨à¦°":8157,"à¦ĩà¦¸à¦Ĺ":8158,"à¦°à¦Ĺà¦£à¦¸":8159,"à¦ķà¦¬à¦°à¦¥":8160,"à¦°à¦īà§ľ":8161,"à¦ĩà¦²à¦¥":8162,"à¦Ŀà¦ªà¦¥":8163,"à¦¤à¦®à¦Ĺ":8164,"à¦°à¦¸à¦®à§Łà¦°":8165,"à¦¨à¦Ĩà¦ĩà¦¡":8166,"à¦¨à¦Ĺà¦¦à¦Ł":8167,"à¦¨à¦ıà¦°à¦¸":8168,"à¦¶à¦ķà¦Ĩà¦¬":8169,"à¦ĵà¦¬à¦Ļ":8170,"à§Łà¦¬à¦Ľ":8171,"à§Łà¦¬à¦Ľà¦°":8172,"à¦°à§Łà¦ķà¦°à¦¤":8173,"à¦Łà¦ķà¦ķ":8174,"à¦ķà¦ķà¦°à¦Ľ":8175,"à§Łà¦¤à¦¦à¦¨":8176,"à¦Ĩà¦ľà¦ĵ":8177,"à¦¬à¦Ľà¦°à¦ĩ":8178,"à¦°à¦®à¦¤à¦¤":8179,"à¦ĩà¦Ńà§Ł":8180,"à¦¬à¦¹à¦¨à¦¬":8181,"à§§à§¨à§¨":8182,"à¦ıà¦ĸà¦¨à¦ĵà¦ª":8183,"à¦²à¦Ńà¦¯":8184,"à§§à§ªà§©":8185,"à§¨à§«à§«":8186,"à§¨à§«à§¦à§¬à§¨à§¦à§§à§¯à§¨à§Ń":8187,"à¦°à¦ĵà¦ªà¦°à¦¤":8188,"à§¨à§¨à§¯":8189,"à§¨à§¬à§¯":8190,"à¦ıà¦ĩà¦¬à¦ĩà¦Ł":8191,"à¦¨à¦ıà¦ķà¦¥":8192,"à¦¯à¦Łà¦¨à¦¸":8193,"à¦Ńà¦¬à¦¨à¦¯":8194,"à¦¤à¦ĸà¦¨à¦¥":8195,"à§©à§Ńà§¦":8196,"à§®à§®à§¦à§§à§¯":8197,"à¦°à¦·à¦·":8198,"à§Ŀà¦¤":8199,"à¦²à¦¹à¦²à¦Ń":8200,"à¦ıà¦°à¦ķà¦®à¦ıà¦ķà¦Ł":8201,"à¦Łà¦ħà¦«à¦«":8202,"à¦¯à¦ľà¦¨à¦ķà¦®":8203,"à¦¨à¦ĩà¦¦":8204,"à¦ķà¦ī":8205,"à¦ķà¦ĩà¦¬":8206,"à¦ķà¦Ĩà¦«à¦Ĺ":8207,"à¦¬à¦ķà¦°à¦¬":8208,"à¦¬à¦£à¦Ń":8209,"à¦¸à¦ķà¦¨":8210,"à¦¸à¦ħà¦§":8211,"à¦¸à¦Ĩà¦¹à¦®":8212,"à¦²à¦Ĩà¦¤":8213,"à¦²à¦ħà¦²":8214,"à¦ªà¦Ĺà¦²":8215,"à¦ªà¦īà¦¤":8216,"à¦ªà¦¨à¦¤à¦¥":8217,"à¦¦à¦²à¦¤":8218,"à¦¦à¦ĩà¦¸à¦²":8219,"à¦¦à¦¶à¦¹":8220,"à¦¦à¦ľà§Ł":8221,"à§Łà¦®à¦¤":8222,"à§Łà¦®à¦¸":8223,"à§Łà¦ĵà¦¦":8224,"à§Łà¦ħà¦¬à¦¶":8225,"à¦¹à¦°à¦ľ":8226,"à¦¹à¦§à¦°":8227,"à¦¹à¦¨à¦Ń":8228,"à¦Łà¦ĵà¦¸":8229,"à¦ľà¦ĵà¦°":8230,"à¦¶à¦ľà¦¨":8231,"à¦¶à¦Ĩà¦ľ":8232,"à¦Ĺà¦®à¦¹":8233,"à¦Ĺà¦ĵà¦¸":8234,"à¦ĩà¦ıà¦ĩà¦ª":8235,"à¦Ĩà¦°à¦ķà¦°":8236,"à¦ļà¦ħà¦¨":8237,"à¦ļà§Łà¦ľ":8238,"à¦·à¦¦à¦ķ":8239,"à¦·à¦ĵà¦¨":8240,"à¦¥à¦¹à¦¬":8241,"à¦¥à¦ķà¦ķà¦°":8242,"à¦ĵà¦Ĩà¦¤":8243,"à¦ĵà¦ıà¦¨":8244,"à¦ĵà¦ıà¦ĩà¦ļà¦¡":8245,"à¦ħà¦®à¦¨":8246,"à¦ħà¦¯à¦¥":8247,"à¦°à¦®à¦¨à¦ª":8248,"à¦£à¦¸à¦¹":8249,"à¦£à¦ķà¦°à¦¬":8250,"à¦¸à¦®à¦®":8251,"à¦®à¦¨à¦«":8252,"à¦ľà¦¨à¦ĺ":8253,"à¦¬à¦²à¦ļ":8254,"à¦°à¦¹à¦¥":8255,"à¦°à¦Ĩà¦ĩà¦Ł":8256,"à¦¹à§Łà¦Ĺà¦¤":8257,"à¦¨à¦¬à¦ľà¦®":8258,"à¦¨à¦¬à¦®à¦¶":8259,"à¦ŀà¦¬":8260,"à¦¬à¦°à§Ł":8261,"à¦²à¦ķà¦«":8262,"à¦¨à¦ķà¦¤":8263,"à¦°à¦ıà¦°à¦¯":8264,"à¦¤à¦¬à¦¡":8265,"à¦ıà¦ĩà¦ķà¦®":8266,"à§ªà§«à§¦":8267,"à¦°à¦Ńà¦°à¦¸":8268,"à¦īà¦ªà¦ªà¦°":8269,"à¦¨à¦¦à¦°à¦ķ":8270,"à¦¤à¦¨à¦ıà¦¬":8271,"à¦¤à¦ķà¦£":8272,"à¦¤à¦ķà¦¸à¦®":8273,"à¦°à¦¸à¦®à¦ªà¦°":8274,"à¦¨à¦Ĩà¦īà¦Ł":8275,"à¦°à¦ĸà¦¤":8276,"à¦¯à¦®à¦¦":8277,"à¦¨à¦ľà§Ł":8278,"à¦¨à¦ıà¦®à¦¬":8279,"à¦¶à¦ķà¦ķà¦®":8280,"à¦Ĩà¦Ĺà¦°à¦¤à¦²":8281,"à§§à§¯à§¬à§Ń":8282,"à¦Ĩà¦¦à¦°à¦ķà¦°":8283,"à¦¨à¦ĵà¦ĩà¦ķ":8284,"à¦īà¦ľà¦¹":8285,"à¦ľà¦®à¦§":8286,"à¦¨à¦¹à¦ł":8287,"à¦²à§Łà¦ªà¦°":8288,"à¦¨à¦ļà¦¤":8289,"à¦·à¦ķà¦ľ":8290,"à¦ıà¦ĸà¦¨à¦ıà¦ķà¦Ł":8291,"à¦²à¦Ńà§Ł":8292,"à¦¸à¦¦à¦°à¦¦à¦ª":8293,"à§§à§«à§§":8294,"à§§à§«à§©":8295,"à¦°à¦ıà¦ķà¦ľà¦¨à¦¸":8296,"à¦ĩà¦«à¦ķ":8297,"à¦ķà¦¶à¦¨à¦¸":8298,"à¦·à¦¦à¦ĩà¦īà¦ª":8299,"à§§à§©à§«":8300,"à§§à§©à§®":8301,"à¦°à¦®à¦£à¦¥":8302,"à§§à§¬à§Ń":8303,"à§¨à§«à§¦à§¦":8304,"à¦Ńà¦¬à¦¹à¦ļ":8305,"à¦ıà¦°à¦ªà¦°à¦ª":8306,"à¦¤à¦Ńà¦Ł":8307,"à¦Ĩà¦«à¦ľ":8308,"à§¨à§¬à§¬":8309,"à¦Ĩà¦ĩà¦ĩà¦¡":8310,"à¦¤à¦ĸà¦¨à¦¨":8311,"à¦®à¦Ĩà¦¹à¦¬":8312,"à¦Ĩà¦Łà¦ķà¦®":8313,"à¦¯à¦ĸà¦¨à¦¯":8314,"à¦¯à¦ĸà¦¨à¦Ĩà¦®à¦°":8315,"à¦ķà¦ľà¦¨à¦®":8316,"à¦¨à¦¸à¦®à§Łà¦Ł":8317,"à¦īà¦Ńà§Łà¦¦":8318,"à¦ļà¦°à¦®à¦¦":8319,"à¦°à¦¬à¦Ľà¦°à¦§à¦°":8320,"à¦°à¦ķà¦®à¦²à¦Ĺà¦ŀ":8321,"à¦°à¦°à¦®à¦ľ":8322,"à¦¿à§į":8323,"à¦¨à¦īà¦ªà¦°":8324,"à¦ķà¦¨à¦®":8325,"à¦ķà¦ľà¦¬":8326,"à¦¬à¦¹à¦ļ":8327,"à¦¬à¦Ĩà§Ł":8328,"à¦¤à¦ĩà¦īà¦ª":8329,"à¦¤à¦ħà¦²":8330,"à¦¸à¦ķà¦¸":8331,"à¦¸à¦Ľà¦¬":8332,"à¦®à¦ĩà§Ł":8333,"à¦®à¦Ľà¦¬":8334,"à¦²à¦Łà¦ķ":8335,"à¦²à¦§à¦¨":8336,"à¦²à¦Łà¦ª":8337,"à¦²à¦ıà¦ª":8338,"à¦²à¦°à¦Ļ":8339,"à¦ªà§İà¦¸":8340,"à¦¦à¦Ĩà¦Ľ":8341,"à¦¯à¦¶à¦ķ":8342,"à¦¯à¦ĩà¦Ń":8343,"à¦¯à¦īà¦²":8344,"à¦¯à¦ĵà¦¦":8345,"à§Łà¦ī":8346,"à¦¹à¦ķà¦¤":8347,"à¦ľà¦ĩà¦¤":8348,"à¦¶à¦°à¦¹":8349,"à¦¶à¦¸à¦°":8350,"à¦¶à¦ħà¦«":8351,"à¦Ĺà¦°à¦¹":8352,"à¦Ĺà¦¹à¦ļ":8353,"à¦ĩà¦°à¦«":8354,"à¦ĩà¦Ĩà¦ĵà§Ł":8355,"à¦Ĩà¦·":8356,"à¦Ĩà¦ĩà¦¸à¦²":8357,"à¦Ĩà¦ĩà¦¹":8358,"à¦ıà¦°à¦Ľ":8359,"à¦Ľà¦Ńà¦°":8360,"à¦ļà¦¨à¦®":8361,"à¦ļà¦¶à¦®":8362,"à¦·à¦ĵà¦¬":8363,"à¦·à¦ĵà¦Ń":8364,"à¦¥à¦Ĩà¦®":8365,"à¦¥à¦ıà¦¬":8366,"à¦¥à¦¹à¦ļ":8367,"à¦ĵà¦ĩà¦¹":8368,"à¦ĵà¦Ĩà¦ļ":8369,"à¦¼à¦ĥ":8370,"à¦¡à¦Ĩà¦ķ":8371,"à¦°à¦¸à¦¨à¦¬":8372,"à¦°à¦¸à¦®à¦¤":8373,"à¦īà¦Łà¦¸":8374,"à¦«à¦¬à¦²":8375,"à¦«à¦ħà¦¬à¦¸":8376,"à¦°à¦®à¦¨à¦®":8377,"à§¨à§¨à§¦à§§à§§":8378,"à¦®à¦¨à¦¬à¦²":8379,"à¦®à¦¨à¦§à¦°":8380,"à¦ıà¦ķà¦¡":8381,"à¦Ĩà¦®à¦¬":8382,"à¦¬à¦¨à¦ıà¦¬":8383,"à¦°à¦Ĩà¦ĩ":8384,"à¦°à¦Ĩà¦ľà¦®":8385,"à¦°à¦Ĩà¦¨à¦¥":8386,"à§§à§·":8387,"à¦ªà¦¨à¦ħà¦¨":8388,"à¦ªà¦¨à¦ķà¦°à¦¬":8389,"à¦²à¦ķà¦Ľ":8390,"à§¨à§¦à§§":8391,"à¦°à¦ıà¦°à¦ķ":8392,"à¦°à¦ıà¦ĩà¦ľ":8393,"à¦ĩà¦¨à¦ķà¦°à¦¤":8394,"à¦ıà¦ĩà¦¶à¦¬":8395,"à¦°à¦ĵà¦ĩà¦¨":8396,"à¦°à¦ĵà¦ıà¦ķà¦Ł":8397,"à¦¨à¦¨à¦°à¦¸":8398,"à¦ĩà¦¸à¦¹à¦ľ":8399,"à¦¹à¦²à¦Ń":8400,"à§İà¦ĸ":8401,"à¦¨à¦¦à¦¨":8402,"à¦®à¦¤à¦®à¦¤":8403,"à¦®à¦¸à¦Ļ":8404,"à¦¤à¦¨à¦Ł":8405,"à¦¤à¦¨à¦¹à¦²":8406,"à¦¤à¦¨à¦ĺà¦Ł":8407,"à¦ĩà¦²à¦Ń":8408,"à¦ĩà¦²à¦ĵà§Ł":8409,"à¦°à¦¸à¦®à¦¬":8410,"à¦ªà§ľà¦¦":8411,"à¦®à¦²à¦¸":8412,"à¦¨à¦Ĺà¦°à¦¹":8413,"à¦¨à¦Ĺà¦°à¦¶":8414,"à§§à§¯à§¨à§¦":8415,"à§§à§¯à§ª":8416,"à§§à§¯à§¬":8417,"à§§à§¯à§§à§Ń":8418,"à¦¬à¦ķà¦·":8419,"à¦¦à¦¸à¦Ń":8420,"à¦²à¦ªà¦°à¦¬à¦°":8421,"à§Łà¦ªà¦£":8422,"à¦¬à¦Ľà¦°à¦¹":8423,"à¦ªà¦¦à¦²":8424,"à¦ªà¦¦à¦ķà¦°":8425,"à¦Ĺà¦²à¦¡":8426,"à¦¬à¦¹à¦°":8427,"à¦Łà¦¬à¦Ĺ":8428,"à¦ıà¦®à¦¨à¦ıà¦ķ":8429,"à¦°à¦¹à¦£à¦ıà¦¬":8430,"à¦ıà¦®à¦ĩà¦ı":8431,"à¦°à¦ıà¦ķà¦ľà¦¨à¦®":8432,"à§§à§®à§«":8433,"à§§à§ªà§«":8434,"à§§à§ªà§¯":8435,"à¦Ĺà¦łà¦¨à¦®":8436,"à¦ıà¦ķà¦ľà¦¨à¦°":8437,"à¦²à¦¯à¦ĸà¦¨":8438,"à¦Ńà¦¬à¦¹à¦¯":8439,"à¦¨à¦ħà¦¨à¦¨":8440,"à¦¨à¦ħà¦Ĺ":8441,"à¦²à¦Łà¦¨à¦¬":8442,"à¦¤à¦°à¦£à¦¨":8443,"à¦¹à¦¨à¦ļà¦²":8444,"à¦ļà¦¤à¦°à¦®":8445,"à¦łà¦ķà¦ħà¦¨":8446,"à¦°à¦¸à¦¹à¦Ĩà¦Łà¦ķ":8447,"à¦°à¦ĸà¦¬à¦°à¦¦":8448,"à¦²à¦Ĩà¦²à¦®à¦¸":8449,"à§§à§¯à§Ńà§Ń":8450,"à¦¯à¦¤à¦®à¦¶":8451,"à¦¸à§ľà¦ķà¦¬":8452,"à¦£à¦Ĺà¦¤à¦®":8453,"à¦¨à¦ĩà¦ķà¦¬":8454,"à¦°à¦ıà¦ķà¦®à¦¹":8455,"à¦Ĩà¦īà¦Łà¦ķà¦°":8456,"à¦®à¦°à¦¤à¦Ľ":8457,"à¦°à¦Ķà¦·":8458,"à§¦à§¨à§¨à§¨à§©à§©à§«à§¯":8459,"à¦¨à¦ĸà¦¨":8460,"à¦¨à§Łà¦¦":8461,"à¦¨à¦Ĳà¦ķ":8462,"à¦¬à¦ĩà¦¡":8463,"à¦¤à¦ĵà¦ķ":8464,"à¦¤à¦Ĩà¦ĵà§Ł":8465,"à¦¸à¦ľà¦¨":8466,"à¦¸à¦²à¦ķ":8467,"à¦¸à¦¸à¦¬":8468,"à¦¸à¦ľà¦®":8469,"à¦®à¦ħà¦§":8470,"à¦®à¦Ĩà§Ł":8471,"à¦²à¦¹à§Łà¦ķ":8472,"à¦¦à¦Ĳ":8473,"à§Łà¦°à¦¶":8474,"à§Łà¦¶à¦¤":8475,"à§Łà¦Ĩà¦ĩà¦¨":8476,"à§Łà¦ıà¦ĩà¦ª":8477,"à¦Łà¦ĩà¦®":8478,"à¦ľà¦°à¦¸":8479,"à¦ľà¦ķà¦¦":8480,"à¦ľà¦ħà¦«":8481,"à¦ľà¦ļà¦Ł":8482,"à¦ľà¦¤à¦®à¦¹":8483,"à¦¶à¦ıà¦Ł":8484,"à¦Ĺà¦®à¦ª":8485,"à¦ĸà¦ķà¦²":8486,"à¦¡à¦ĵ":8487,"à¦¡à¦¨à¦¬":8488,"à¦¡à¦ħà¦°":8489,"à¦¡à¦Ĩà¦°":8490,"à¦°à¦¸à¦°à¦¦":8491,"à¦īà¦ī":8492,"à¦«à¦°à¦ķ":8493,"à¦°à¦¬à¦ª":8494,"à¦°à¦ªà§Ł":8495,"à¦°à¦¤à¦¹à¦¬":8496,"à¦°à¦¤à¦¸à¦«à¦°":8497,"à¦ıà¦ķà¦ĩà¦Ĺ":8498,"à¦łà¦ļ":8499,"à¦°à¦Ĩà¦¸à¦¬":8500,"à¦¹à§Łà¦ıà¦°à¦Ĩà¦Ĺ":8501,"à¦¨à¦¬à¦®":8502,"à¦²à¦ķà¦Ł":8503,"à¦¸à¦¬à¦¤à¦¥":8504,"à¦ĩà¦¸à¦ķà¦²":8505,"à¦°à¦Ĺà¦Ļ":8506,"à¦¹à¦²à¦Ĩà¦®":8507,"à¦¹à¦¤à¦ķà¦°à¦¤":8508,"à§İà¦«à¦°à¦°à¦¹à¦®":8509,"à¦¯à¦¬à¦ľ":8510,"à¦¯à¦¬à¦Ļ":8511,"à¦®à¦¤à¦ļ":8512,"à¦¯à¦ķà¦ł":8513,"à¦ĩà¦²à¦ĸ":8514,"à¦¦à¦ķà¦ªà¦¦":8515,"à¦ķà¦Łà¦¤":8516,"à¦¸à¦¹à¦ľà¦¸":8517,"à¦¸à¦¹à¦Ĩà¦¹à¦¤":8518,"à¦®à¦¹à¦°":8519,"à§Łà¦ķà¦°à¦Ľ":8520,"à¦¯à¦®à¦ª":8521,"à¦¨à¦ľà¦²à¦¬":8522,"à¦®à¦¦à¦Ĩà¦®":8523,"à¦ĩà¦ªà¦¦":8524,"à¦ĩà¦ªà¦Ľà¦¨":8525,"à¦ħà¦¬à¦ľ":8526,"à¦Ĩà¦ľà¦Ń":8527,"à¦ĸà¦¬à¦°à¦¤":8528,"à¦¨à¦¹à¦°":8529,"à¦¬à¦¹à¦¦":8530,"à¦Łà¦¬à§ľ":8531,"à¦īà¦²à¦Ļ":8532,"à¦Ĩà¦ĩà¦¨à¦ķà¦°":8533,"à¦ıà¦ĸà¦¨à¦ĵà¦¸":8534,"à¦²à¦Ńà¦Ł":8535,"à§§à§ªà§§":8536,"à¦°à¦¥à¦®à¦®à¦¹":8537,"à¦°à¦®à¦£à¦Ń":8538,"à¦ıà¦¤à¦Ĺ":8539,"à§¨à§«à§©":8540,"à¦¬à§ľà¦§à¦°à¦¨":8541,"à¦Ĩà¦°à¦¬à¦²":8542,"à¦ĩà¦īà¦ªà¦ķ":8543,"à¦¨à¦ıà¦ķà¦ª":8544,"à§§à§¯à§Ńà§®":8545,"à¦°à¦ªà¦¦à¦¥":8546,"à¦Ĩà¦ļà¦®à¦ķ":8547,"à§¨à§¦à§§à§ªà§¨à§¦à§§à§«":8548,"à§§à§¨à§¦à§§à§§":8549,"à¦¯à¦ķà¦°à¦¤à¦¥":8550,"à¦°à¦ıà¦ķà¦¬à¦Ľ":8551,"à¦ıà¦¸à¦ıà¦®à¦ıà¦®":8552,"à¦¨à¦ĩà¦ļ":8553,"à¦¨à¦īà§İà¦¸à¦¬":8554,"à¦¨à¦°à¦£à¦¬":8555,"à¦¨à¦ıà¦¸à¦ıà¦¸à¦¸":8556,"à¦¬à¦Ĩà¦¹à¦®":8557,"à¦¤à§Ł":8558,"à¦¤à¦¤à¦¸":8559,"à¦¤à§İà¦ªà¦°à¦¤":8560,"à¦®à¦°à¦¯":8561,"à¦®à¦®à¦°":8562,"à¦²à¦¹à§Łà¦¤":8563,"à¦¦à¦¶à¦¬":8564,"à¦¯à¦īà¦ªà¦¸":8565,"à¦¯à¦ħà¦¥à¦¬":8566,"à§Łà¦Ĩà§Ł":8567,"à§Łà¦Ĩà¦§":8568,"à§Łà¦Ĩà¦¸à¦¤":8569,"à¦¹à¦°à¦Ĺà¦ŀ":8570,"à¦Łà¦ĵà¦ķ":8571,"à¦ľà¦ıà¦°à¦¸":8572,"à¦¶à¦ıà¦²":8573,"à¦¶à¦ħà¦¸":8574,"à¦¶à¦ħà¦®":8575,"à¦ĩà¦ĵà¦°":8576,"à¦·à¦ªà¦¦":8577,"à¦Ńà¦¨à¦¦":8578,"à¦Ńà¦ľà¦¨à¦ķ":8579,"à¦§à¦¹à§Łà¦¨":8580,"à¦¥à¦Ĩà¦Ľ":8581,"à¦ĸà¦ľà¦¨":8582,"à¦ĵà¦ıà¦ĩà¦¬":8583,"à¦ĵà¦ıà¦ĩà¦ļà¦ıà¦¸à¦¸":8584,"à¦īà¦¨à¦ª":8585,"à¦īà¦¨à¦®":8586,"à¦°à¦ªà¦°à¦¹à¦¤":8587,"à§¨à§¨à§¦à§¦à§¯":8588,"à¦ľà¦¨à¦¹à§Ł":8589,"à¦ľà¦¨à¦¹à¦¤":8590,"à¦ľà¦¨à¦ķà¦°à¦¬":8591,"à¦°à¦Ĩà¦²à¦¬":8592,"à¦¹à§Łà¦ħà¦Ń":8593,"à¦¨à¦¬à¦°à¦Ĺ":8594,"à¦ĺà¦¤à¦®":8595,"à¦°à¦£à¦Ĩà¦²":8596,"à¦°à¦ıà¦¯":8597,"à¦°à¦ıà§ľ":8598,"à¦¨à¦ªà¦¡":8599,"à¦°à¦ĵà¦ł":8600,"à¦°à¦ĵà¦¬à¦¨":8601,"à¦°à¦ĵà¦ķà¦®":8602,"à¦¹à¦²à¦ıà¦ķà¦Ł":8603,"à¦ķà¦¬à¦ľ":8604,"à¦¹à¦¤à¦ľ":8605,"à§İà¦®à¦¨":8606,"à¦²à¦¬à¦¡":8607,"à¦¯à¦ķà¦°à¦Ń":8608,"à¦°à¦ĩà¦īà¦ľ":8609,"à¦·à¦£à¦²":8610,"à¦·à¦£à¦ĸ":8611,"à¦·à¦£à¦ĸà¦¬à¦°à¦ĵà¦¬":8612,"à¦ļà¦¨à¦Ń":8613,"à¦¸à¦¹à¦°":8614,"à¦¨à¦Ĩà¦ĩà¦ª":8615,"à¦ªà§ľà¦¶":8616,"à¦¸à¦¨à¦¶":8617,"à¦®à¦¹à¦ĵà§Ł":8618,"à§Łà¦ķà¦«":8619,"à§Łà¦ķà¦°à¦£":8620,"à¦ķà¦¤à¦²":8621,"à¦ķà¦¤à¦ĸà¦¨":8622,"à§§à§¯à§¨":8623,"à§§à§¯à§¬à§®":8624,"à¦¬à¦ķà¦¹":8625,"à§Łà¦¤à¦ĸà¦¨à¦¤":8626,"à¦Ĺà¦¤à¦ªà¦°":8627,"à¦²à§Łà¦ıà¦¬":8628,"à¦«à¦²à¦¸à¦®":8629,"à¦¨à¦²à¦ľ":8630,"à¦¨à¦²à¦¡":8631,"à¦°à¦ıà¦ķà¦ľà¦¨à¦¨":8632,"à¦°à¦¸à¦¬à¦Ł":8633,"à¦¨à¦ħà¦¥":8634,"à§¨à§¬à§ª":8635,"à§¨à§Ńà§©":8636,"à¦°à¦¸à¦®à§Łà¦ļ":8637,"à¦°à¦ĸà¦¬à¦°à¦¶":8638,"à¦Łà¦¬à¦²à¦ª":8639,"à¦°à¦īà¦ªà¦°à¦°":8640,"à¦Ĩà¦°à¦ıà¦¸":8641,"à¦°à¦ªà¦¦à¦ļ":8642,"à¦¬à¦¦à¦²à¦Ĺ":8643,"à¦ħà¦¥à¦ļà¦¸":8644,"à¦ķà¦Ĩà¦¤à¦ªà§ľ":8645,"à¦¸à¦°à¦£à¦ķà¦°à¦¬":8646,"à¦·à¦¦à¦¸à¦¦à¦¸":8647,"à§§à§¨à§©à§ªà§«à§¬à§Ńà§®à§¯à§§à§¦à§§à§§à§§à§¨à§§à§©à§§à§ªà§§à§«à§§à§¬à§§à§Ńà§§à§®à§§à§¯à§¨à§¦à§¨à§§à§¨à§¨à§¨à§©à§¨à§ªà§¨à§«à§¨à§¬à§¨à§Ńà§¨à§®à§¨à§¯à§©à§¦à§©à§§":8648,"à¦ķà¦°à¦ľ":8649,"à¦ķà¦ķà¦ª":8650,"à¦ķà¦ĺà¦¨":8651,"à¦¬à¦°à¦Ľ":8652,"à¦¬à¦°à¦£à¦ķ":8653,"à¦¤à¦ĩ":8654,"à¦¤à§ľ":8655,"à¦¤à¦¦à¦°":8656,"à¦¤à¦¸à¦ķ":8657,"à¦¤à¦ĵà¦¦":8658,"à¦¤à¦ļà¦²à¦Ľ":8659,"à¦®à¦ıà¦°à¦¨":8660,"à¦²à¦ıà¦Ĺ":8661,"à¦²à¦ħà¦¨à¦²":8662,"à¦²à¦Ĩà¦¸à¦²":8663,"à¦ªà¦ĩà¦¤":8664,"à¦ªà¦ıà¦Ł":8665,"à¦¦à¦¤à¦ķà¦°":8666,"à¦¦à¦ıà¦²":8667,"à¦¯à¦Ĺà¦°":8668,"à¦¯à¦Ĩà¦ķ":8669,"à¦¯à¦ĵà¦®":8670,"à¦¯à¦ĵà¦¤":8671,"à¦¯à¦Ĩà¦¶":8672,"à§Łà¦ĵà¦ª":8673,"à§Łà¦ĵà¦ķ":8674,"à§Łà¦ĵà¦Ń":8675,"à¦¹à¦¨à¦®":8676,"à¦¹à¦¨à¦¦":8677,"à¦Łà¦ľà¦¨":8678,"à¦Łà¦¨à¦¤":8679,"à¦Łà¦Ĺà¦¤":8680,"à¦Łà¦Ńà¦°":8681,"à¦ľà¦®à¦°":8682,"à¦ľà§Łà¦Ĺ":8683,"à¦ĩà¦¦à¦ķ":8684,"à¦ĩà¦ĩà¦¬":8685,"à¦ĩà¦ľà¦¨à¦ķ":8686,"à¦Ĩà¦°à¦¥":8687,"à¦ıà¦§":8688,"à¦Ľà¦Ľ":8689,"à¦ļà¦°à¦¬":8690,"à¦·à¦§à¦°":8691,"à¦·à¦īà¦ªà¦²à¦ķ":8692,"à¦Ńà¦¥":8693,"à¦Ńà¦°à¦ķà¦°à¦Ľ":8694,"à¦§à¦ķà¦¬":8695,"à¦§à¦¬à¦¦":8696,"à¦ĵà¦¤à¦°":8697,"à¦ĵà¦¬à¦²à¦¤":8698,"à¦ĵà¦īà¦ªà¦¸":8699,"à¦¡à¦Ĩà¦Ľ":8700,"à¦¡à¦ħà¦¨à¦²":8701,"à¦ħà¦Ľ":8702,"à¦ħà¦ľà¦¸":8703,"à¦īà¦ķà¦¬":8704,"à¦īà¦Ĩà¦¬":8705,"à¦°à¦®à¦ıà¦¬":8706,"à¦£à¦¹à¦ĵà§Ł":8707,"à§§à§¨à§¦à§¦à§¯":8708,"à§ľà¦¬à§ľ":8709,"à§¦à§ªà§¦":8710,"à¦°à¦¤à¦®à¦¹":8711,"à¦ıà¦ķà¦ĺ":8712,"à¦¬à¦²à¦²à¦¤":8713,"à¦°à¦Ĩà¦°à¦¨":8714,"à¦°à¦Ĩà¦¸à¦ķ":8715,"à¦¨à¦¬à¦¬à¦§":8716,"à¦ĺà¦¸à¦®à§Ł":8717,"à¦ŀà¦¸":8718,"à¦¨à¦¸à¦¬à¦ľ":8719,"à¦ĩà¦¨à¦ªà¦°":8720,"à¦ıà¦ĩà¦ıà¦²":8721,"à§©à§¬à§¦":8722,"à¦¸à¦¬à¦ķà¦¥":8723,"à¦¨à¦¨à¦ĵà¦¶":8724,"à¦ĩà¦¸à¦Ń":8725,"à§Łà¦¨à¦Ľ":8726,"à¦°à¦Ľà¦¨":8727,"à¦¯à¦ķà¦¤":8728,"à¦¯à¦ķà¦¤à¦Ł":8729,"à¦¦à¦¨à¦ķà¦°à¦²":8730,"à¦·à¦£à¦Ł":8731,"à¦¨à¦Ĩà¦°à¦¯":8732,"à¦¨à¦ľà¦²":8733,"à¦¨à¦Ĺà¦¨":8734,"à¦²à¦ªà¦£":8735,"à¦¯à¦¸à¦¹à¦¯":8736,"à¦Ĩà¦°à¦ĵà¦¶à¦ķ":8737,"à¦ªà¦¦à¦¯":8738,"à¦Ĺà¦²à¦°":8739,"à§¨à§ªà§®":8740,"à§§à§¨à§¬":8741,"à¦Łà¦¸à¦¶":8742,"à¦¸à¦¦à¦®":8743,"à¦ĩà¦īà¦Ń":8744,"à¦Ĺà¦łà¦¨à¦¸à¦Ń":8745,"à¦ıà¦ķà¦ľà¦¨à¦ķà¦°":8746,"à¦¨à¦ıà¦ĩà¦°":8747,"à¦ıà¦ĩà¦ļà¦ıà¦®":8748,"à¦¤à¦°à¦£à¦Ń":8749,"à§¨à§¬à§®":8750,"à¦ªà¦¥à¦ª":8751,"à¦°à¦ĸà¦¬à¦°à¦®":8752,"à¦°à¦ªà¦¥à¦¸":8753,"à¦¹à¦¯à¦°à¦¤à¦Ĩà¦¬":8754,"à¦ĵà¦Ĩà¦®à¦²":8755,"à¦°à¦ĩà¦¬à¦¨à¦®":8756,"à§®à§®à§¦à§¨à§®":8757,"à¦²à¦¹à¦ķà¦®à¦¨":8758,"à¦¬à¦°à¦£à¦ª":8759,"à§«à§¦à§¦à§¦":8760,"à¦°à¦ªà¦°à¦ĵà¦¤":8761,"à¦²à¦¸à¦¹à¦¦":8762,"à¦Ĩà¦īà¦Łà¦¸":8763,"à¦¨à§Łà¦ķà¦°à¦Ľ":8764,"à¦¨à¦²à¦¨":8765,"à¦¨à¦īà¦ľ":8766,"à¦¨à¦ĩà¦¯":8767,"à¦ķà¦¯à¦¨":8768,"à¦ķà¦ıà¦ĸ":8769,"à¦¬à¦®à¦¤":8770,"à¦¬à¦Ĺà¦²":8771,"à¦¬à¦ıà¦¨":8772,"à¦¤à¦°à¦ı":8773,"à¦¤à¦¶à¦¹":8774,"à¦¤à¦ıà¦ķà¦ª":8775,"à¦¤à¦ıà¦¹":8776,"à¦¸à¦¦à¦²":8777,"à¦²à¦ī":8778,"à¦¦à¦ĩà¦¬":8779,"à¦¯à¦ħà¦¬à¦¶":8780,"à§Łà¦®à¦ª":8781,"à¦¹à¦¡":8782,"à¦¹à¦®à¦¨":8783,"à¦¹à¦ĩà¦Ľ":8784,"à¦Łà¦ł":8785,"à¦Łà¦¬à¦¸":8786,"à¦Łà¦Ĺà¦£à¦¨":8787,"à¦ľà§Łà¦¤":8788,"à¦¶à¦ľà¦®":8789,"à¦¶à¦ľà¦¨à¦ª":8790,"à¦Ĺà¦°à¦¯":8791,"à¦Ĺà¦ĺà¦°":8792,"à¦ĩà¦ĩà¦ļ":8793,"à¦ĩà¦ıà¦°à¦¸":8794,"à¦Ĩà¦Łà¦ª":8795,"à¦ıà¦°à¦īà¦ªà¦°":8796,"à¦Ľà§Łà¦ľà¦¨":8797,"à¦·à¦°à¦ķ":8798,"à¦·à¦ķà¦°à¦¬":8799,"à¦§à¦ĵà¦¬":8800,"à¦ĸà¦¸à§ľ":8801,"à¦ĵà¦¬à¦¸":8802,"à¦ĵà¦ļà¦Ł":8803,"à¦ĵà¦¸à¦®à¦¸":8804,"à¦īà¦ħà¦ª":8805,"à¦īà¦Łà¦ª":8806,"à¦«à§Ł":8807,"à¦«à¦¹à¦¬":8808,"à¦°à¦ķà¦Ļ":8809,"à¦°à¦®à¦ļà¦²à¦®":8810,"à¦£à¦ħà¦Ń":8811,"à§¨à§¨à§¦à§§à§¦":8812,"à¦°à¦¤à¦¹":8813,"à¦°à¦¤à¦®à¦ľ":8814,"à§ĥà¦ĥ":8815,"à¦®à¦¨à¦¥":8816,"à¦ıà¦ķà¦¨à¦¤":8817,"à¦łà¦ķà¦¬":8818,"à¦¬à¦²à¦¥":8819,"à¦¬à¦²à¦ıà¦¬":8820,"à¦¬à¦¨à¦ļ":8821,"à¦¬à¦¨à¦ªà¦°":8822,"à¦¬à¦¨à¦¸à¦Ļ":8823,"à¦°à¦£à¦Ĩà¦®à¦°":8824,"à¦¬à¦¸à¦Ľ":8825,"à¦¨à¦ªà¦¦à¦ķ":8826,"à¦¨à¦ªà¦¦à¦ª":8827,"à¦ıà¦ĩà¦¸à¦ª":8828,"à¦ıà¦ĩà¦ªà¦£":8829,"à¦ĩà¦¸à¦«":8830,"à¦°à¦Ĺà¦ľ":8831,"à§«à§§à§ª":8832,"à¦¨à¦®à¦¸":8833,"à¦īà¦¨à¦¦":8834,"à¦īà¦¨à¦ķà¦°":8835,"à§Łà¦¨à¦¬à¦¨":8836,"à¦ĩà¦²à¦«à¦Ł":8837,"à¦¦à¦ķà¦Ĺ":8838,"à¦¦à¦ķà¦ļ":8839,"à¦ļà¦²à¦°":8840,"à¦¤à¦®à¦¯":8841,"à¦¤à¦ķà¦ĸà¦¨":8842,"à¦°à¦¸à¦®à¦ķ":8843,"à¦Łà¦¨à¦ļ":8844,"à¦Łà¦¨à¦Ń":8845,"à¦¨à¦Ĩà¦Ĺà¦¸":8846,"à¦¯à¦¦à¦®":8847,"à¦®à¦²à¦¯":8848,"à§¨à§§à§§":8849,"à¦¨à¦ıà¦¡":8850,"à¦Ĩà¦Ĺà¦®à¦¨à¦ķà¦°":8851,"à§§à§¯à§¬à§¨":8852,"à¦¬à¦ķà¦ł":8853,"à¦¬à¦ªà¦Ľà¦¨":8854,"à¦²à¦ªà¦¶":8855,"à¦ħà¦¬à¦¤à¦°à¦£à¦ķà¦°":8856,"à¦¯à¦¸à¦ł":8857,"à¦ĸà¦¬à¦°à¦«":8858,"à¦Ĺà¦²à¦¹à§Ł":8859,"à¦²à¦¹à¦ķà¦°":8860,"à¦¨à¦ĵà¦ķà¦°":8861,"à¦·à§Łà¦¹à¦ļ":8862,"à¦¤à¦¹à§Łà¦®":8863,"à§İà¦¸à¦ķà¦¤":8864,"à§İà¦¸à¦°à¦¬à¦°":8865,"à¦ıà¦®à¦¨à¦®":8866,"à¦ıà¦®à¦¨à¦ħà¦¬à¦¸":8867,"à¦·à¦ķà¦Ń":8868,"à¦ıà¦ĸà¦¨à¦ļ":8869,"à¦ķà¦Ńà¦°":8870,"à§§à§ªà§¨":8871,"à¦ıà¦ķà¦ľà¦¨à¦®à¦¹":8872,"à§§à§©à§¨":8873,"à§§à§¬à§ª":8874,"à¦¶à¦Ĺà§ľà¦¤":8875,"à¦ªà¦¬à§Łà¦¸":8876,"à¦°à¦ĵà¦ªà¦°à¦¶":8877,"à¦°à¦Ĩà¦¨à¦ħà¦¬à¦®":8878,"à¦ªà¦£à¦¦":8879,"à¦Ĩà¦°à¦¬à¦¦":8880,"à¦ıà¦«à¦Ĩà¦ĩ":8881,"à§ªà§¦à§ª":8882,"à§ľà¦ķà¦ªà¦°":8883,"à¦°à¦«à¦²à¦¨à¦ķ":8884,"à¦°à¦ĸà¦¬à¦°à¦ķ":8885,"à¦°à¦Ŀà¦¡":8886,"à§§à§¯à§Ńà§¯":8887,"à¦¯à¦¤à¦®à¦¹":8888,"à¦¸à¦¹à¦ľà¦Ń":8889,"à¦¬à¦ķà¦°à¦¸":8890,"à¦¹à¦¯à¦°à¦¤à¦Ĩà¦²":8891,"à¦°à¦¸à¦¦à¦°à¦°":8892,"à§Łà¦Ĩà¦°à¦ĵà¦ıà¦ķà¦ľà¦¨":8893,"à¦°à¦¨à¦ľà¦°à¦¦":8894,"à¦¨à¦ĩà¦īà¦¸":8895,"à¦ķà¦ľà¦°":8896,"à¦ķà¦§à¦°à¦¨":8897,"à¦¬à¦¢":8898,"à¦¬à¦ľà¦¨à¦¸":8899,"à¦¬à¦°à¦ļà¦¨":8900,"à¦¤à¦ħà¦ķ":8901,"à¦¤à¦ıà¦¤":8902,"à¦¤à¦ľà¦²":8903,"à¦¤à¦ļà¦²à¦ļ":8904,"à¦¤à¦²à¦ķà¦¡":8905,"à¦¤à¦Ĩà¦°à¦®":8906,"à¦¤à¦ĵà¦·":8907,"à¦¸à¦²à¦¨":8908,"à¦¸à¦ļà¦¨":8909,"à¦¸à¦ıà¦Ł":8910,"à¦¸à¦¸à¦°à¦ķ":8911,"à¦®à¦ħà¦«":8912,"à¦®à¦ıà¦Ń":8913,"à¦²à¦ıà¦ĩà¦¬":8914,"à¦²à¦ıà¦°":8915,"à¦²à¦ĵà¦¸à¦®":8916,"à¦ªà¦Ĩà¦¨":8917,"à¦¦à¦Ĩà¦Ĺ":8918,"à¦¦à¦ıà¦Ł":8919,"à¦¦à¦°à¦Ĩà¦²":8920,"à¦¯à¦ªà¦¤":8921,"à¦¯à¦ħà¦ķ":8922,"à¦¯à¦Łà¦ķà¦°":8923,"à¦¯à¦īà¦ªà¦Ń":8924,"à§Łà¦°à¦¯":8925,"à§Łà¦ļà¦²à¦Ľ":8926,"à§Łà¦ıà¦ĩà¦¦":8927,"à§Łà¦¬à¦¸à¦¤":8928,"à¦¹à¦£":8929,"à¦¹à¦¬à¦²à¦¤":8930,"à¦Łà¦°à¦¶":8931,"à¦Łà¦ļà¦Ł":8932,"à¦Łà¦ıà¦°à¦¸":8933,"à¦ľà¦ĵà¦ª":8934,"à¦ľà¦«à¦°":8935,"à¦Ĺà¦¸à¦ķ":8936,"à¦ĩà¦¶à¦¨":8937,"à¦ĩà¦ħà¦¶":8938,"à¦ĩà¦¬à¦²à¦¬":8939,"à¦Ĩà¦ĩà¦¦":8940,"à¦ıà¦°à¦ħà¦Ń":8941,"à¦ıà¦°à¦Ĩà¦ĵà¦¤":8942,"à¦ļà§Łà¦¨":8943,"à¦·à¦¬à¦¨":8944,"à¦¥à¦¦à¦¤":8945,"à¦ĸà¦ªà¦¤":8946,"à¦ĵà¦ĵà¦¯":8947,"à¦ĵà¦ĺà¦Ł":8948,"à¦ĵà¦ħà¦¬à¦¶":8949,"à¦ħà¦°à¦ľ":8950,"à¦°à¦®à¦¨à¦¸":8951,"à¦°à¦ªà¦°à¦ĺ":8952,"à¦£à¦ļà¦°":8953,"à§§à§¨à§¦à§§à§Ń":8954,"à§¦à§§à§®à§§à§¯":8955,"à¦ľà¦¨à¦ķà¦°à¦²":8956,"à¦¬à¦²à¦«":8957,"à¦°à¦¹à¦ł":8958,"à¦°à¦Ĩà¦ķà¦¸":8959,"à¦°à¦Ĩà¦ĩà¦Ń":8960,"à¦°à¦Ĩà¦¸à¦¤":8961,"à¦°à¦ļà¦¬":8962,"à§ªà§¨à§©":8963,"à¦°à¦Ĺà¦¦":8964,"à¦°à¦Ĺà¦¤à¦ķ":8965,"à¦¶à¦¨à¦ħà¦«":8966,"à§Łà¦¨à¦¹à§Ł":8967,"à§Łà¦¨à¦Ĩà¦²":8968,"à§Łà¦¨à¦Ĺà¦°":8969,"à¦īà¦ªà¦ª":8970,"à¦ķà¦²à¦Ļ":8971,"à¦¨à¦¦à¦²à¦Ł":8972,"à¦¯à¦ķà¦¸":8973,"à¦®à¦¸à¦¤":8974,"à¦Ĩà¦¸à¦ĵà§Ł":8975,"à¦·à¦£à¦ħà¦§":8976,"à¦Łà¦¨à¦¥":8977,"à¦Łà¦¨à¦ĵà¦Ĺ":8978,"à¦ĩà¦¬à¦¦à¦²":8979,"à¦¨à¦Ĩà¦°à¦¦":8980,"à¦¸à¦¨à¦°":8981,"à§Łà¦ķà¦ª":8982,"à¦ķà¦¤à¦¦à¦¨":8983,"à¦¨à¦Ĺà¦°à¦°":8984,"à¦¶à¦ķà¦¥":8985,"à¦®à¦ªà¦²":8986,"à¦ªà¦ķà¦¶":8987,"à¦ªà¦ķà¦Ĺ":8988,"à§¨à§¦à§¨à§§à§¦à§¬":8989,"à¦Ĩà¦°à¦ĵà¦²":8990,"à¦²à¦¹à¦ķà¦¶":8991,"à¦¨à¦®à¦¨à¦ľ":8992,"à¦°à¦¡à¦°":8993,"à¦¬à¦¦à¦²à¦¨":8994,"à§§à§¨à§¨à§¬":8995,"à¦¦à¦ªà¦°à¦¬à¦°":8996,"à¦°à¦ıà¦ķà¦ľ":8997,"à§§à§ªà§¦à§¦":8998,"à¦¨à§Łà¦Ń":8999,"à¦¨à¦«à¦ķ":9000,"à¦¶à¦¦à¦¤":9001,"à¦¯à¦¥à¦¸":9002,"à§¨à§®à§¦":9003,"à§«à§¦à§«":9004,"à¦Ĩà¦ĩà¦¨à¦¤":9005,"à¦¸à¦«à¦°à¦ķ":9006,"à§Łà¦Ńà§Ł":9007,"à¦ĵà¦ļà¦²à¦¬":9008,"à¦²à¦Ĩà¦ĩà¦¸":9009,"à¦¨à¦ıà¦ķà¦¸":9010,"à¦ĸà¦ķà¦²à¦ķ":9011,"à¦¯à¦Łà¦¨à¦¬":9012,"à¦°à¦ıà¦ĩà¦®à¦¨":9013,"à¦¸à¦¹à¦ľà¦²à¦Ń":9014,"à¦°à¦ħà¦ªà¦ķà¦°":9015,"à¦¶à¦¨à¦ķà¦°à¦Ľ":9016,"à§Łà¦ĵà¦Ĳà¦¤":9017,"à¦°à¦Īà¦¦à¦īà¦ªà¦¹":9018,"à¦¬à¦ªà¦¨à¦ķ":9019,"à¦Ĩà¦Ĩà¦Ĩà¦Ĩ":9020,"à¦¨à¦¯à¦¨":9021,"à¦ķà¦¨à¦ľ":9022,"à¦ķà¦ıà¦¤":9023,"à¦ķà¦¹à§Łà¦¨":9024,"à¦¬à¦ĵà¦¬":9025,"à¦¬à¦ĩà¦¸à¦²":9026,"à¦¤à¦¶à¦¨":9027,"à¦¤à¦ıà¦ª":9028,"à¦²à¦£":9029,"à¦²à¦¦à¦ķ":9030,"à¦²à¦ľà¦®":9031,"à¦²à¦ıà¦°à¦¬":9032,"à¦ªà¦ķà¦°à¦²":9033,"à¦¦à¦¶à¦¨":9034,"à¦¦à¦¢":9035,"à¦¦à¦°à¦ıà¦¬":9036,"à¦¯à¦ħà¦¬à¦¸":9037,"à¦¯à¦¹à§Łà¦¤":9038,"à¦¯à¦Ĩà¦ª":9039,"à§Łà¦ľà¦²":9040,"à§Łà¦ıà¦°":9041,"à§Łà¦Ĩà¦¸à¦¬":9042,"à¦¹à¦ķà¦®":9043,"à¦Łà¦¨à¦¨":9044,"à¦ľà¦¬à¦Ľ":9045,"à¦ľà¦ĵà¦¸à¦®":9046,"à¦¶à¦¬à¦¸":9047,"à¦¶à¦¹à¦ĵà§Ł":9048,"à¦Ĺà¦°à¦¸":9049,"à¦Ĺà¦ľà¦Ł":9050,"à¦Ĺà¦ĵà¦ł":9051,"à¦ĩà¦ĵà¦¸":9052,"à¦ĩà¦°à¦ķà¦®":9053,"à¦ĩà¦ĺà¦£":9054,"à¦ĩà¦ıà¦ĩà¦ķ":9055,"à¦ĩà§ľà¦°":9056,"à¦Ńà¦«":9057,"à¦¡à¦¬à¦¨":9058,"à¦¡à¦²à¦®":9059,"à¦ħà¦ħ":9060,"à¦ħà¦¬à¦¬":9061,"à¦ħà¦²à¦Ĩ":9062,"à¦°à¦¸à¦¬à¦¨":9063,"à¦īà¦¸à¦«":9064,"à¦°à¦ķà¦¤à¦¦":9065,"à¦°à¦ªà¦°à¦¢":9066,"à¦£à¦¬à¦²":9067,"à¦£à§Łà¦ķà¦°":9068,"à¦ıà¦ķà¦Ĩà¦²":9069,"à¦ľà¦¨à¦¸à¦Ń":9070,"à¦ľà¦¨à¦ıà¦Ľ":9071,"à¦°à¦¦à¦®":9072,"à¦°à¦¨à¦Ĩà¦¤à¦Ļ":9073,"à¦°à¦¹à¦¨à¦ķ":9074,"à¦°à¦¹à¦Łà¦²":9075,"à¦¬à¦¨à¦¹":9076,"à¦ªà¦¨à¦ķà¦°à¦²":9077,"à¦¨à¦¸à¦¹à¦¸":9078,"à¦²à¦ķà¦ıà¦¬":9079,"à¦°à¦ļà¦®à§İà¦ķ":9080,"à¦°à¦ĵà¦°à¦«":9081,"à¦¶à¦¨à¦Ĺà¦łà¦¨":9082,"à¦¤à¦°à¦²":9083,"à¦¤à¦°à¦ķà¦°à¦¤":9084,"à¦¹à¦¤à¦¯":9085,"à¦°à¦īà¦Ńà§Ł":9086,"à¦īà¦¨à¦ªà¦°":9087,"à¦ĩà¦ķà¦ķ":9088,"à¦°à¦²à¦¸":9089,"à¦°à¦ĩà¦¡":9090,"à¦°à¦ĩà¦¨à¦ľ":9091,"à¦·à¦£à¦°":9092,"à¦¨à¦Ĩà¦¦à¦°":9093,"à¦ĩà¦®à¦Ł":9094,"à¦¸à¦¨à¦Ĺ":9095,"à§Łà¦ķà¦ł":9096,"à§¨à§§à§¨à§ª":9097,"à¦²à¦¸à¦Ł":9098,"à¦¨à¦ıà¦°à¦¦":9099,"à¦¶à¦ķà¦ıà¦¸":9100,"à§§à§¯à§©à§«":9101,"à¦Ĩà¦ľà¦Ĩà¦®à¦°":9102,"à§Łà¦ªà¦¶":9103,"à¦¬à¦Ľà¦°à¦¥":9104,"à§¨à§¦à§¨à§§à§¦à§Ń":9105,"à§¨à§¦à§¨à§§à§§à§§à§¨":9106,"à¦¯à¦ªà¦¶":9107,"à¦Ĺà¦¤à¦Ĺ":9108,"à¦Ĩà¦°à¦ĵà¦¤à¦¥":9109,"à¦ªà¦¦à¦ļ":9110,"à¦¨à¦ĵà¦¡":9111,"à¦¨à¦ĵà¦īà¦¤":9112,"à¦¨à¦ĵà¦¤à¦¥":9113,"à¦°à¦īà¦ªà¦°à¦Ĩà¦®":9114,"à¦īà¦²à¦¦":9115,"à¦¶à¦®à¦Ĺ":9116,"à¦°à¦¹à¦£à¦ķà¦°à¦Ľ":9117,"à¦ķà¦¶à¦¨à¦¨":9118,"à¦¨à¦ıà¦ĩà¦Ĺ":9119,"à¦¬à§ľà¦ħ":9120,"à¦Ĩà¦°à¦¬à¦¬":9121,"à§¨à§¬à§«":9122,"à§¨à§©à§¨à§¦à§¨à§§":9123,"à¦®à¦Ĩà¦¯":9124,"à§¨à§¦à§§à§¯à§¨à§¦":9125,"à¦¶à¦²à¦ĵà¦ª":9126,"à¦·à¦ĸà¦¬à¦°à¦¦":9127,"à¦·à¦ĸà¦¬à¦°à¦¡":9128,"à¦Ĺà¦ķà¦²à¦ķ":9129,"à¦Łà¦«à¦Ł":9130,"à¦ĩà¦ĸà¦Ĩà¦¬":9131,"à¦Ĩà¦ļà¦°à¦£à¦¬":9132,"à¦īà§ľà¦¨":9133,"à¦¬à¦°à¦£à¦ķà¦°à¦¬":9134,"à§Łà¦ıà¦ķà¦ķ":9135,"à§§à§¯à§®à§«":9136,"à¦ĩà¦īà¦ıà¦¨à¦ĵà¦®":9137,"à¦°à¦¶à¦ªà¦¥à¦Ĺ":9138,"à¦¨à¦ĸà¦¬à¦°à¦ª":9139,"à¦¨à¦īà¦Ĺ":9140,"à¦¨à¦¨à¦ķà¦¶":9141,"à¦ķà¦īà¦ļ":9142,"à¦ķà¦ıà¦Ĺ":9143,"à¦ķà¦ļà¦²à¦ļ":9144,"à¦¬à¦ħà¦§":9145,"à¦¬à¦īà¦²":9146,"à¦¤à¦ıà¦¦":9147,"à¦¸à¦ıà¦²":9148,"à¦¸à¦°à¦£à¦¨":9149,"à¦®à¦ĸà¦¨":9150,"à¦®à¦īà¦ļ":9151,"à¦®à¦Īà¦¦":9152,"à¦²à¦ıà¦Ń":9153,"à¦ªà¦ħà¦¤":9154,"à¦¦à¦°à¦Ľ":9155,"à¦¦à¦®à¦ķ":9156,"à¦¦à¦ħà¦¨à¦²":9157,"à¦¯à¦ĸà¦¬":9158,"à¦¯à¦Ĩà¦¹":9159,"à§Łà¦Ļ":9160,"à§Łà¦ıà¦®à¦¨à¦ķ":9161,"à¦¹à¦¹à¦¤":9162,"à¦¹à¦Ĩà¦Ľ":9163,"à¦¹à¦¶à¦¬":9164,"à¦Łà¦ĩà¦¸à¦²":9165,"à¦ľà¦²à¦¨":9166,"à¦ľà¦¹à¦ĵà§Ł":9167,"à¦ľà¦ĵà¦¹":9168,"à¦ľà¦ªà§ľà¦¤":9169,"à¦Ĺà¦Ĩà¦¸":9170,"à¦ĩà¦ĩà¦ī":9171,"à¦ĩà¦ļà¦Ł":9172,"à¦·à¦¦à¦ª":9173,"à¦§à¦¬à¦°":9174,"à¦§à¦¨à¦ľ":9175,"à¦ĵà¦§à¦¨":9176,"à¦ĵà¦īà¦ļ":9177,"à¦¡à¦§":9178,"à¦°à¦¬à¦ĩà¦Ĺ":9179,"à¦°à¦®à§İà¦¸":9180,"à¦£à¦Ĩà¦ªà¦¨":9181,"à¦ªà¦°à¦¯":9182,"à¦łà¦ľ":9183,"à¦łà¦Ĺ":9184,"à¦ľà¦¨à¦Ł":9185,"à¦ľà¦¨à¦¨à¦¤":9186,"à¦ľà¦¨à¦Ĩà¦¹à¦¤":9187,"à¦¬à¦²à¦ªà¦¦":9188,"à¦Ĩà¦®à¦¤":9189,"à¦Ļà¦Ľ":9190,"à¦¹à§Łà¦ıà¦¸à¦®à§Ł":9191,"à¦¬à¦¸à¦¹à¦ķ":9192,"à¦¬à¦¸à¦¦à¦°à¦¦":9193,"à¦°à¦ħà¦Ľ":9194,"à¦¹à¦¬à¦¹":9195,"à¦°à¦ıà¦²à¦¸":9196,"à¦¨à¦ªà§Ł":9197,"à¦°à¦Ĺà¦ķ":9198,"à§«à§¨à§¦":9199,"à¦ķà¦®à¦¥":9200,"à¦¹à¦²à¦Ľ":9201,"à¦¹à¦²à¦ĩà¦ľ":9202,"à¦ķà¦¬à¦ķ":9203,"à¦¹à¦¤à¦¹à¦ĵà§Ł":9204,"à§İà¦Ĩà¦ªà¦¨":9205,"à¦°à¦īà¦·":9206,"à¦¯à¦ķà¦ª":9207,"à¦ıà¦¸à¦ıà¦®à¦¨":9208,"à¦¦à¦¨à¦¥":9209,"à¦·à¦£à¦¬à¦¨":9210,"à¦·à¦£à¦ħà¦¨":9211,"à¦ķà¦¸à¦ľ":9212,"à¦¸à¦¹à¦ľà¦¨":9213,"à¦¸à¦¹à¦Ĩà¦°":9214,"à¦¸à¦¹à¦¨à¦¶":9215,"à¦¨à¦Ĩà¦ĩà¦¸":9216,"à¦ĩà¦®à¦§":9217,"à¦°à¦ĸà¦£":9218,"à¦¸à¦¨à¦ıà¦¬":9219,"à¦¨à¦ľà¦°à¦ķ":9220,"à¦¨à¦Ĺà¦°à¦ķ":9221,"à§§à§¯à§¬à§¯":9222,"à¦ħà¦¬à¦ĩà¦¨":9223,"à¦Ĺà¦²à¦Ł":9224,"à¦²à¦¹à¦ĵà¦¯":9225,"à¦¨à¦ĵà¦®à¦¹":9226,"à¦°à¦īà¦ªà¦°à¦Ĩà¦²":9227,"à¦ľà¦®à¦¹à¦²":9228,"à¦²à§Łà¦ĸ":9229,"à§¨à§ªà§¨":9230,"à¦ıà¦®à¦¨à¦ķà¦¥":9231,"à¦Ĺà¦¨à¦Ĩà¦²":9232,"à¦ıà¦ĸà¦¨à¦¹":9233,"à¦¶à¦¸à¦«à¦°":9234,"à¦ıà¦ķà¦ľà¦¨à¦Ľ":9235,"à§§à§§à§¨à§¦à§¨à§§":9236,"à¦ªà¦¸à¦Ł":9237,"à¦Ĩà¦Łà¦ķà¦¶":9238,"à¦ķà¦¹à¦ĵà¦¯":9239,"à¦ıà¦«à¦Ł":9240,"à¦ªà¦¥à¦ļ":9241,"à¦¸à¦ķà¦²à¦§à¦°":9242,"à¦īà¦®à¦°à¦°":9243,"à¦¯à¦Łà¦ķà¦¬":9244,"à¦¯à¦ĸà¦¨à¦Ń":9245,"à§¨à§¦à§§à§©à§¨à§¦à§§à§ªà§¨à§¦à§§à§«":9246,"à¦°à¦¸à¦ķà¦²à¦®":9247,"à¦²à¦¨à¦ķà¦¶":9248,"à¦¸à§ľà¦ķà¦¨":9249,"à§§à§¯à§®à§Ń":9250,"à¦ıà¦ķà¦ĩà¦ıà¦²":9251,"à§¨à§¦à§¦à§¬à§¨à§¦à§§à§¯":9252,"à§¨à§¦à§¦à§«à§¨à§¦à§¨à§§":9253,"à¦°à¦°à¦«à¦ķà¦°":9254,"à¦ķà¦ıà¦¨":9255,"à¦ķà¦Ĩà¦¨à¦¨":9256,"à¦ķà¦Īà¦¶":9257,"à¦¤à¦ıà¦ĩà¦ª":9258,"à¦¤à¦Ĩà¦¨à¦¨":9259,"à¦¸à¦Ĺà¦²":9260,"à¦¸à¦ħà¦ķ":9261,"à¦®à¦ªà¦¤":9262,"à¦®à¦ķà¦¤":9263,"à¦²à¦īà¦ļ":9264,"à¦²à¦Ĩà¦«à¦Ĺ":9265,"à¦²à¦ıà¦ľ":9266,"à¦¦à¦¹à¦ļ":9267,"à¦¦à¦ĵà¦Ł":9268,"à¦¯à¦ıà¦Ĺ":9269,"à¦¯à¦¬à¦²à¦¤":9270,"à¦¯à¦ıà¦ĩà¦ª":9271,"à¦¯à¦ħà¦ŀ":9272,"à¦¯à¦ĩà¦īà¦°":9273,"à§Łà¦²à¦ķ":9274,"à§Łà¦ľà¦¨à¦ª":9275,"à¦¹à¦¸à¦°":9276,"à¦¹à¦ĩà¦ļ":9277,"à¦Łà¦¶à¦°":9278,"à¦Łà¦īà¦²":9279,"à¦Łà¦īà¦ļ":9280,"à¦Łà¦²à¦ķà¦°":9281,"à¦ľà¦°à¦¤":9282,"à¦¶à¦¶à¦¨":9283,"à¦¶à¦Ĩà¦ªà¦¨":9284,"à¦¶à¦Ĩà¦¬":9285,"à¦¶à¦ĵà¦¶":9286,"à§Ģà¦Ĥ":9287,"à¦Ĺà¦Ĩà¦°":9288,"à¦ĩà¦ıà¦°":9289,"à¦ĩà¦Ĩà¦¨à¦¨":9290,"à¦Ĩà¦ĩà¦¤":9291,"à¦ıà¦Ĩà¦¦":9292,"à¦ıà¦°à¦¡":9293,"à¦ļà¦¸à¦®":9294,"à¦ļà¦ķà¦Ń":9295,"à¦ļà¦īà¦ĩà¦ķ":9296,"à¦ļà¦ıà¦ĩà¦ļà¦¡":9297,"à¦·à¦ĺ":9298,"à¦·à¦Ĩà¦Ĺ":9299,"à¦·à¦īà¦¦à¦¯":9300,"à¦Ńà¦ĸ":9301,"à¦Ńà¦¹à§Ł":9302,"à¦§à¦¸à¦¤":9303,"à¦ĸà¦¬à¦ķ":9304,"à¦ĸà¦ķà¦¹":9305,"à¦ĵà¦ĸà¦¨":9306,"à¦ĵà¦ľà¦®":9307,"à¦¡à¦¹à¦²":9308,"à¦¡à¦¦à¦ķ":9309,"à¦īà¦¸à¦ª":9310,"à¦«à¦Ľ":9311,"à¦°à¦¬à¦¸à¦¤":9312,"à¦°à¦¬à§ľà¦²":9313,"à¦°à¦®à¦¨à¦ķà¦°":9314,"à¦°à¦ªà¦°à¦Ĩà¦²":9315,"à¦°à¦ªà¦Łà¦Ń":9316,"à¦£à¦ıà¦ķ":9317,"à¦£à¦ķà¦®":9318,"à¦£à¦Ĩà¦¬":9319,"à§¦à§¬à§¦":9320,"à¦ľà¦¨à¦Ĩà¦²":9321,"à¦°à¦¦à¦²à¦¥":9322,"à¦°à¦¨à¦ķà¦°à¦¤":9323,"à¦°à¦ľà¦Ĺà¦¨":9324,"à¦°à¦Ĩà¦¬à¦¶":9325,"à¦°à¦Ĩà¦ĩà¦¨à¦¬":9326,"à¦¹à§Łà¦Ľ":9327,"à¦¹à§Łà¦«":9328,"à¦¨à¦¬à¦ķà¦²":9329,"à¦°à¦£à¦ĺà¦Ł":9330,"à¦¨à¦¤à¦¸à¦®":9331,"à¦¨à¦ķà¦¯":9332,"à¦¨à¦ķà¦£":9333,"à¦°à¦ıà¦«":9334,"à¦¨à¦ªà¦°à¦®":9335,"à¦ıà¦ĩà¦Ĩà¦¨":9336,"à§©à§«à§¦":9337,"à¦°à¦ĵà¦ĩà¦®":9338,"à¦°à¦ĵà¦ħà¦Ń":9339,"à¦¨à¦¨à¦·":9340,"à¦¶à¦¨à¦ĵà¦¸":9341,"à¦¨à¦®à¦¦":9342,"à¦°à¦īà¦Ńà¦¯":9343,"à¦²à¦¬à¦¬":9344,"à¦ļà¦¨à¦¹à¦¬":9345,"à¦¨à¦Ĩà¦°à¦ª":9346,"à¦ĩà¦®à¦¡":9347,"à¦°à¦ĸà¦²":9348,"à¦®à¦¹à¦ķ":9349,"à¦®à¦¬à¦¦à¦²":9350,"à¦²à¦¸à¦¦":9351,"à¦¨à¦ıà¦°à¦ķà¦®":9352,"à¦®à¦ķà¦°à¦Ľ":9353,"à¦¨à¦¶à¦¨à¦¸":9354,"à¦ĩà¦ªà¦ķà¦°":9355,"à¦¬à¦Ľà¦°à¦¨":9356,"à¦ªà¦ķà¦īà¦¨":9357,"à¦Ĺà¦¤à¦ıà¦¬":9358,"à¦Ĺà¦¤à¦¹à¦²":9359,"à¦¯à¦¤à¦ĸ":9360,"à¦Ĺà¦²à¦Ĺà¦°":9361,"à¦²à¦¹à¦ķà¦ľ":9362,"à¦¨à¦ĵà¦ĩà¦¨":9363,"à¦¨à¦ĵà¦ĩà¦¦":9364,"à¦¸à¦®à§Łà¦®à¦¤":9365,"à¦°à¦īà¦ªà¦°à¦ıà¦ķà¦Ł":9366,"à¦°à¦®à¦¤à¦²":9367,"à¦°à¦®à¦¤à¦Ń":9368,"à¦ĩà¦¬à¦¨à¦¯":9369,"à¦¬à¦¦à¦®":9370,"à¦Īà¦¨à¦īà¦¦":9371,"à¦ıà¦®à¦¨à¦¸à¦®à§Ł":9372,"à¦ıà¦ĸà¦¨à¦Ĩà¦®à¦°":9373,"à¦ıà¦ĸà¦¨à¦īà¦ĩà¦ķ":9374,"à¦ĩà¦īà¦ĩà¦ķ":9375,"à¦°à¦ıà¦ķà¦ľà¦¨à¦ķ":9376,"à¦°à¦¥à¦®à¦«":9377,"à¦°à¦¥à¦®à¦¬à¦²":9378,"à§Łà¦Ĺà¦¤à¦ķ":9379,"à¦¨à§Łà¦¹":9380,"à¦¨à§Łà¦Ĩà¦®":9381,"à¦¤à¦²à¦«":9382,"à¦¨à¦«à¦Ł":9383,"à§¨à§«à§Ń":9384,"à¦¨à§Łà¦¨à¦ªà¦°":9385,"à¦¤à¦°à¦£à¦¨à¦ĵà¦Ĺ":9386,"à§¨à§¬à§§":9387,"à¦®à¦Ĩà¦°à¦¸":9388,"à¦¥à¦ķà¦ħà¦Ń":9389,"à¦¨à¦ıà¦ķà¦ªà¦°":9390,"à¦°à¦¸à¦®à§Łà¦¡":9391,"à¦¯à¦ĸà¦¨à¦¶":9392,"à¦°à¦¸à¦¦à¦°à¦¹":9393,"à¦°à¦Ĩà¦°à¦ĵà¦ªà¦¡":9394,"à¦°à¦¹à¦¯à¦°à¦¤":9395,"à¦ħà¦¥à¦°":9396,"à§§à§¨à§¦à§Ń":9397,"à¦ķà¦ĵà¦Ĺà¦£à¦¶":9398,"à¦Ĩà¦¹à¦®à¦¦à¦®":9399,"à¦®à¦°à¦£à¦¸":9400,"à§¨à§¦à§¨à§§à§·":9401,"à¦ıà¦ķà¦°à¦ķà¦®":9402,"à¦¹à¦¤à¦°à§Ł":9403,"à¦ľà¦¸à¦¦à¦°à¦¶":9404,"à¦ĩà¦¦à¦¹à¦Ŀ":9405,"à§§à§ªà§¨à§®à§·":9406,"à¦¨à¦Ĺà¦£à¦¤à¦¨":9407,"à¦ļà¦²à¦ķà¦°à¦Ľ":9408,"à§¨à§¦à§§à§©à§¨à§¦à§§à§ªà§¨à§¦à§§à§«à§¨à§¦à§§à§¬à§¨à§¦à§§à§Ńà§¨à§¦à§§à§®à§¨à§¦à§§à§¯à§¨à§¦à§¨à§¦à§¨à§¦à§¨à§§":9409,"à¦°à¦¯à¦¬":9410,"à¦¨à¦ĺà¦£":9411,"à¦¨à¦ĺà¦¨":9412,"à¦ķà¦°à¦Ń":9413,"à¦¬à¦ļà¦Ł":9414,"à¦¤à¦Ĩà¦«à¦Ĺ":9415,"à¦¸à¦ī":9416,"à¦®à§Łà¦¸":9417,"à¦®à§Łà¦¬":9418,"à¦®à¦Ĩà¦ľà¦ķ":9419,"à¦²à¦īà¦¨":9420,"à¦²à¦Łà¦¬":9421,"à¦²à¦īà§İà¦ª":9422,"à¦²à¦¸à¦®à¦°":9423,"à¦ªà¦°à¦ĸ":9424,"à¦ªà¦Ĩà¦ĩà¦ª":9425,"à¦¦à¦¸à¦¬":9426,"à¦¦à¦¶à¦¦":9427,"à¦¯à¦ĩà¦²":9428,"à¦¯à¦ĩà¦¯":9429,"à¦¯à¦ĩà¦ļ":9430,"à¦¯à¦ĩà¦Ĺ":9431,"à¦¯à§İà¦ª":9432,"à§Łà¦ķà¦Ł":9433,"à§Łà¦Ĺà¦¬":9434,"à§Łà¦Ĩà¦¸à¦²":9435,"à§Łà¦ħà¦¶":9436,"à§Łà¦ıà¦ªà¦°":9437,"à¦¹à¦¨à¦°":9438,"à¦Łà¦²à¦¨":9439,"à¦Łà¦°à§Ł":9440,"à¦Łà¦ıà¦°à¦ª":9441,"à¦ľà¦¸à¦¨":9442,"à¦¶à¦ĵà¦Ń":9443,"à¦Ĺà¦ıà¦ķ":9444,"à¦Ĺà¦ħà¦Ń":9445,"à¦Ĺà¦¸à¦¹à¦¨":9446,"à¦ĩà¦·":9447,"à¦ıà¦°à¦¨à¦¤":9448,"à¦ļà¦ķà¦°à¦¤":9449,"à¦ļà¦Ĺà¦¤":9450,"à¦·à¦¤à¦¨":9451,"à¦·à¦§à¦¨":9452,"à¦§à¦Ĩà¦²":9453,"à¦§à¦¸à¦°à¦ķ":9454,"à¦§à¦ĵà¦¦":9455,"à¦¥à¦¦à¦¨":9456,"à¦ĵà¦Ĺà¦¤":9457,"à¦ĵà¦ľà¦¬":9458,"à¦ĵà¦ıà¦ĸ":9459,"à¦ĵà¦ıà¦Ĺ":9460,"à¦¡à¦®à¦¨":9461,"à¦¡à¦¨à¦¤":9462,"à¦ħà¦°à¦£":9463,"à¦°à¦¸à¦ľ":9464,"à¦°à¦ķà¦ĵà¦¬":9465,"à¦£à¦ł":9466,"à§§à§¨à§¦à§¦à§§":9467,"à§ľà¦¬à¦Ľà¦°à¦ª":9468,"à¦łà¦ķà¦¸":9469,"à¦¬à¦²à¦ıà¦ķà¦Ł":9470,"à¦°à¦¦à¦«":9471,"à¦Ĩà¦®à¦²à¦ķ":9472,"à¦°à¦¹à¦ĩà¦¬":9473,"à¦°à¦¹à§Łà¦°":9474,"à¦¬à¦¨à¦ĸ":9475,"à¦°à¦Ĩà¦°à¦ĵà¦¬":9476,"à¦°à¦Ĩà¦°à¦ĵà¦¸":9477,"à¦¨à¦¬à¦ĩà¦Ł":9478,"à¦ĺà¦ªà¦°":9479,"à¦ŀà¦ķ":9480,"à¦ªà¦¨à¦ªà¦°":9481,"à¦¬à¦¸à¦¦":9482,"à¦°à¦ħà¦¬à¦®":9483,"à¦°à¦ıà¦°à¦Ĩà¦Ĺ":9484,"à¦ıà¦ĩà¦¸à¦°à¦ķ":9485,"à¦ıà¦ĩà¦ħà¦¸":9486,"à¦ıà¦ĩà¦ħà¦§":9487,"à¦ıà¦ĩà¦¬à¦Ľà¦°":9488,"à¦¸à¦¬à¦¡":9489,"à¦°à¦ĵà¦ħà¦§":9490,"à¦ĩà¦¸à¦ł":9491,"à¦¶à¦¨à¦§":9492,"à¦°à¦Ńà¦°à¦£à¦ª":9493,"à¦ķà¦¬à¦¡":9494,"à¦¹à¦¤à¦¹à¦¯":9495,"à¦°à¦īà¦¹":9496,"à¦²à¦¨à¦°à¦¤à¦¶":9497,"à¦īà¦ªà¦¸à¦®":9498,"à¦ķà¦²à¦°":9499,"à¦²à¦¬à¦¹":9500,"à¦®à¦¤à¦ªà¦°":9501,"à¦®à¦¤à¦Ĩà¦²":9502,"à¦¦à¦ķà¦Ľ":9503,"à¦¦à¦¨à¦Ĩà¦¨":9504,"à¦°à¦ĩà¦ķà¦°":9505,"à¦°à¦ĩà¦ħà¦¨":9506,"à¦ķà¦¸à¦²":9507,"à¦°à¦¸à¦®à¦Ĺ":9508,"à¦²à¦¤à¦¸à¦®":9509,"à¦°à¦«à¦°à¦®à¦ª":9510,"à§Łà¦¸à¦¦à¦¸":9511,"à¦¨à¦Ĩà¦°à¦ľ":9512,"à¦¨à¦Ĩà¦¶à¦°":9513,"à¦ĩà¦®à¦ķ":9514,"à¦ªà§ľà¦ķ":9515,"à§Łà¦ķà¦Ń":9516,"à§Łà¦ķà¦¡":9517,"à¦¯à¦®à¦¡":9518,"à¦°à¦Łà¦Ļ":9519,"à¦¬à¦ķà¦Ń":9520,"à¦ĸà¦¬à¦°à¦ħà¦¨à¦²":9521,"à¦Ĺà¦¤à¦ħà¦¨":9522,"à¦īà¦ľà¦ķà¦°":9523,"à¦¨à¦¹à¦ķ":9524,"à¦ĩà¦¦à¦°à¦¹":9525,"à¦¬à¦¹à¦ħà¦Ĺ":9526,"à¦Īà¦¦à¦ª":9527,"à¦ıà¦®à¦¨à¦²":9528,"à¦²à¦Ĺà§ľ":9529,"à¦ĵà¦ķà¦ł":9530,"à¦°à¦¹à¦£à¦¸":9531,"à¦¸à¦¦à¦¦":9532,"à¦¸à¦¦à¦°à¦¨":9533,"à¦ĩà¦¡à¦ķ":9534,"à¦°à¦ıà¦ķà¦¬à¦¨":9535,"à¦Ĺà¦łà¦¨à¦¶":9536,"à¦¦à¦®à¦¶":9537,"à¦°à¦®à¦£à¦¹":9538,"à¦¨à¦¡à¦ķ":9539,"à¦°à¦¸à¦¬à¦ķà¦°":9540,"à¦¤à¦¹à¦ĩà¦¬":9541,"à¦ľà§Łà¦¹":9542,"à¦¤à¦°à¦£à¦«":9543,"à¦²à¦Ĩà¦°à¦¤":9544,"à¦ªà¦¥à¦ļà¦²":9545,"à¦°à¦¸à¦¹à¦Ĺ":9546,"à¦ĸà¦®à¦£":9547,"à¦¯à¦Łà¦¨à¦ª":9548,"à¦Ńà¦¬à¦¨à¦¨":9549,"à¦£à¦¤à¦ķà¦°à¦¤":9550,"à¦®à¦«à¦¸":9551,"à§¦à§Ńà§§à§¨":9552,"à¦°à¦ĵà¦ªà¦°à¦°":9553,"à¦¬à¦ķà¦°à¦°":9554,"à¦°à¦¬à§Łà¦¸à¦¸":9555,"à§©à§¬à§«":9556,"à¦§à¦¦à¦®à¦¨":9557,"à§©à§®à§Ń":9558,"à¦ĩà¦²à¦«à¦²à¦ķ":9559,"à¦¨à¦ħà¦ªà¦°à¦¦":9560,"à§Ŀà¦Ń":9561,"à¦¬à¦ĩà¦¸à¦¹à¦ľ":9562,"à¦¯à¦¤à¦®à¦¸à¦¦à¦¸":9563,"à¦¨à¦ĩà¦¸à¦°":9564,"à¦¨à¦ıà¦ķà¦ľà¦¨à¦¬":9565,"à¦ķà¦«à¦²":9566,"à¦ķà¦ħà¦ķ":9567,"à¦ķà¦¶à¦ª":9568,"à¦¬à§İà¦¸":9569,"à¦¬à¦°à¦Ĩà¦ľ":9570,"à¦¤à¦¤à¦°":9571,"à¦¤à¦Ĺà¦¬":9572,"à¦¤à¦Ĩà¦¬à¦¦":9573,"à¦¸à¦¸à¦¨":9574,"à¦¸à¦Ĺà¦¬":9575,"à¦®à¦°à¦¸":9576,"à¦®à¦²à¦¤":9577,"à¦²à§Łà¦¦":9578,"à¦²à¦Ĩà¦ĵà§Ł":9579,"à¦²à¦Ĩà¦¬à¦¦":9580,"à¦ªà¦ĵà§Ł":9581,"à¦ªà¦īà¦ĩà¦ķ":9582,"à¦¦à¦¤à¦°":9583,"à¦¦à¦¤à¦ķ":9584,"à¦¦à¦¸à¦¨":9585,"à¦¦à¦Ĩà¦²à¦®":9586,"à¦¯à¦ıà¦¦":9587,"à¦¯à¦Ĩà¦°à¦®":9588,"à§Łà¦ĵà¦¤":9589,"à§Łà¦ľà§Ł":9590,"à¦¹à¦°à¦ľà¦¨":9591,"à¦¹à¦¸à¦¨":9592,"à¦ľà¦°à¦¹":9593,"à¦ľà¦īà¦ķ":9594,"à¦Ĺà¦¸à¦¬":9595,"à¦Ĺà¦ľà¦¨à¦ķ":9596,"à¦Ĺà¦ļà¦°à¦®":9597,"à¦ĩà¦ĩà¦¬à¦¨":9598,"à¦ĩà¦§à¦¨":9599,"à¦ĩà¦Ĩà¦ª":9600,"à¦Ĩà¦¤à¦¸":9601,"à¦Ľà¦§à¦°à¦¤":9602,"à¦·à¦¬à¦ľ":9603,"à¦Ńà¦ıà¦¬":9604,"à¦¥à¦¸à¦ª":9605,"à¦ĵà¦ĩà¦Ľ":9606,"à¦ĵà¦ļà¦²à¦Ľ":9607,"à¦ĵà¦Ĩà¦§":9608,"à¦¡à¦¸à¦°":9609,"à¦«à¦Ĭ":9610,"à¦°à¦ķà¦Ń":9611,"à¦°à¦¬à¦°à¦ĸ":9612,"à¦£à¦®à¦¤":9613,"à§¨à§¨à§¦à§¦à§§":9614,"à§¦à§¨à§¯":9615,"à¦°à¦¤à¦®à¦£":9616,"à¦ıà¦ķà¦¸à¦®":9617,"à¦łà¦¹à§Ł":9618,"à¦ľà¦¨à¦ĵà¦¸":9619,"à¦°à¦¨à¦Ĩà¦®":9620,"à¦°à¦ľà¦¨à¦¤":9621,"à¦°à¦¹à¦¨à¦¯":9622,"à¦¬à¦¨à¦®à¦¨":9623,"à¦°à¦Ĩà¦¨à¦°":9624,"à¦°à¦Ĩà¦®à¦ľ":9625,"à¦¨à¦¬à¦¦à¦²":9626,"à¦¨à¦¤à¦¸":9627,"à¦¨à¦¤à¦²":9628,"à¦¬à¦¸à¦¤à¦ĺ":9629,"à¦¨à¦¨à¦¨":9630,"à¦ķà¦®à¦§":9631,"à¦°à¦īà¦ĸ":9632,"à§Łà¦¨à¦ļ":9633,"à§Łà¦¨à¦¹à¦²":9634,"à¦²à¦¨à¦ľ":9635,"à¦²à¦¨à¦īà¦¦":9636,"à¦°à¦Ľà¦²":9637,"à¦²à¦¬à¦ĺà¦Łà¦¤":9638,"à¦¤à¦¨à¦ľ":9639,"à¦ĩà¦ķà¦ł":9640,"à¦¦à¦¨à¦ľà¦®":9641,"à¦°à¦²à¦°":9642,"à¦¤à¦®à¦ªà¦°":9643,"à¦ĩà¦¬à¦ķ":9644,"à¦¨à¦Ĩà¦ĩà¦¨à¦¶":9645,"à¦¸à¦¨à¦²":9646,"à¦¯à¦¦à¦°":9647,"à§Łà¦ķà¦ľ":9648,"à¦ķà¦¤à¦ļ":9649,"à¦®à¦²à¦Ĺ":9650,"à¦¨à¦Ĺà¦°à¦¯":9651,"à¦¶à¦ķà¦§à¦°":9652,"à§§à§¯à§ªà§«":9653,"à§§à§¯à§ªà§¬":9654,"à§§à§¯à§ªà§¯":9655,"à¦¬à¦ķà¦¯":9656,"à¦ĵà¦ªà¦°à¦¬à¦°":9657,"à¦ħà¦¬à¦Ĺà¦¤":9658,"à§Łà¦ªà¦ŀ":9659,"à¦ªà¦¦à¦¹":9660,"à¦¨à¦ĵà¦¸à¦®à¦¸":9661,"à¦°à¦īà¦ªà¦°à¦ľ":9662,"à¦ľà¦®à¦¡":9663,"à¦¨à¦¹à¦ĩà¦¤":9664,"à¦²à§Łà¦¹":9665,"à¦ħà¦¬à¦¸à¦°à¦¨":9666,"à¦Īà¦®à¦¶":9667,"à¦®à¦®à¦ľ":9668,"à¦°à¦ıà¦ķà¦ĸ":9669,"à§§à§Ńà§¨":9670,"à§§à§Ńà§©":9671,"à¦ıà¦ķà¦ľà¦¨à¦¡":9672,"à¦Ĳà¦ª":9673,"à¦¨à¦ħà¦¡":9674,"à¦¨à§Łà¦¨à¦¸à¦®":9675,"à¦¬à§ľà¦ķà¦¥":9676,"à§¨à§¬à§Ń":9677,"à¦ķà¦¸à¦®à¦°":9678,"à¦¨à¦ıà¦ķà¦ĩà¦¸à¦Ļ":9679,"à¦·à¦ĸà¦¬à¦°à¦ĸ":9680,"à¦°à¦¸à¦®à§Łà¦ħà¦¨":9681,"à¦°à¦¸à¦¹à¦§à¦°":9682,"à¦ĭà¦£à¦¸":9683,"à¦Łà¦¬à¦²à¦ħà¦¨":9684,"à¦¯à¦Łà¦¨à¦®":9685,"à¦Ĩà¦¹à¦¤à¦ķà¦°":9686,"à¦ĩà¦¸à¦¬à¦¬":9687,"à¦¨à¦¸à¦®à§Łà¦ıà¦ĩà¦¬":9688,"à¦¦à¦¨à¦¬à¦Ļ":9689,"à¦¤à¦®à¦¸à¦Ń":9690,"à¦°à¦Ĺà¦łà¦¨à¦ķà¦°":9691,"à§§à§¯à§¨à§Ńà§Ńà§§":9692,"à¦«à¦Ĭà¦²à¦ĩà§Ł":9693,"à¦¨à¦Ĳà¦¤":9694,"à¦ķà¦¨à¦ª":9695,"à¦ķà¦ħà¦¥à¦¬":9696,"à¦ķà¦ĩà¦īà¦°":9697,"à¦¬à¦īà¦ª":9698,"à¦¬à¦¤à¦ķ":9699,"à¦¬à¦īà¦ķ":9700,"à¦¬à¦ĩà¦Ľ":9701,"à¦¤à¦ĩà¦²":9702,"à¦¤à¦īà§İà¦ª":9703,"à¦¤à¦°à¦ĩà¦īà¦Ł":9704,"à¦¸à¦īà¦¤":9705,"à¦¸à¦ħà¦ª":9706,"à¦¸à¦Ĭ":9707,"à¦¸à¦īà¦ĩà¦¨":9708,"à¦®à¦ķà¦¦":9709,"à¦®à¦Ĩà¦°à¦¬":9710,"à¦²à¦ĩà¦°":9711,"à¦²à¦¬à¦²à¦²":9712,"à¦²à¦¶à¦¹":9713,"à¦²à¦ĩà¦¨à¦¸":9714,"à¦²à§ľà¦Ľ":9715,"à¦ªà¦¥à¦¨":9716,"à¦¦à¦°à¦°":9717,"à¦¦à¦ħà¦§":9718,"à¦¦à¦«à¦°":9719,"à¦¦à¦īà¦¦à¦¯":9720,"à¦¯à¦Ĩà¦ĩà¦¨à¦Ĩà¦¦":9721,"à§Łà¦ħà¦«":9722,"à§Łà¦ıà¦¸à¦®à§Ł":9723,"à¦¹à¦īà¦ªà¦²à¦ķ":9724,"à¦Łà¦ľà¦®":9725,"à¦Łà¦¹à§Łà¦¨":9726,"à¦Łà¦ħà¦¶":9727,"à¦ľà¦®à¦¤":9728,"à¦ľà¦Ĩà¦ķ":9729,"à¦ľà¦īà¦²":9730,"à¦¶à¦²à¦¨":9731,"à¦Ĺà¦Ĩ":9732,"à¦Ĺà¦¬à¦²":9733,"à¦Ĺà¦°à¦¨":9734,"à¦Ĺà¦ıà¦ķà¦Ł":9735,"à¦Ĺà¦¸à¦®à§Ł":9736,"à¦ĩà¦Ĩà¦¸à¦¬":9737,"à¦Ľà¦ĵà¦®":9738,"à¦ļà§Łà¦Ĺ":9739,"à¦§à¦Ĩà¦°":9740,"à¦§à¦Ĩà¦¨":9741,"à¦§à¦ħà¦¬à¦°":9742,"à¦¥à¦°à¦¨":9743,"à¦¥à¦¨à¦ľ":9744,"à¦ĵà¦°à¦¨":9745,"à¦ĵà¦Ĺà¦²":9746,"à¦ĵà¦¸à¦®à§Ł":9747,"à¦ĵà¦ĵà¦®":9748,"à¦ĵà¦ıà¦°à¦¬":9749,"à¦¡à¦Ĩà¦ĩà¦²":9750,"à¦°à¦¸à¦¬à¦°":9751,"à¦īà¦ĩà¦¥":9752,"à¦«à¦ĩà¦¬à¦¨":9753,"à¦«à¦Ĩà¦¹à¦®":9754,"à§ľà¦Ŀ":9755,"à¦°à¦¤à¦²à¦¦":9756,"à¦°à¦¤à¦°à¦Ļ":9757,"à¦°à¦¤à§İà¦ªà¦°à¦¤":9758,"à¦ıà¦ķà¦ķà¦Ń":9759,"à¦¬à¦²à¦¡":9760,"à¦°à¦¹à¦ĩà¦¤":9761,"à¦¬à¦¨à¦°à¦ķ":9762,"à¦¨à¦¬à¦ĩà§Ł":9763,"à¦°à¦£à¦¤à¦ķ":9764,"à¦ªà¦¨à¦Ł":9765,"à¦ªà¦¨à¦Ĺà¦°":9766,"à¦¬à¦¸à¦¶":9767,"à¦²à¦ķà¦¯":9768,"à¦²à¦ķà¦ªà¦°":9769,"à¦°à¦ıà¦ªà¦°":9770,"à¦°à¦ıà¦ĩà¦«":9771,"à¦ıà¦ĩà¦ıà¦ķà¦Ł":9772,"à¦ıà¦ĩà¦īà¦¨":9773,"à¦ıà¦ĩà¦ļà¦¨":9774,"à§©à§®à§¦":9775,"à§ªà§ªà§¦":9776,"à¦¶à¦¨à¦ķà¦°à¦¬":9777,"à¦ķà¦®à¦ŀ":9778,"à¦¹à¦²à¦Ĩà¦ªà¦¨":9779,"à§İà¦Ľ":9780,"à§İà¦ªà¦¤":9781,"à§¬à§§à§¦":9782,"à¦°à¦¯à¦Ľ":9783,"à¦®à¦¤à¦¯":9784,"à¦¤à¦¨à¦·":9785,"à¦¦à¦ķà¦ľà¦¹":9786,"à¦ļà¦²à¦Ĺ":9787,"à¦ļà¦²à¦ķà¦°à¦¤":9788,"à¦¦à¦¨à¦¬à¦²":9789,"à¦¦à¦¨à¦Ĩà¦®":9790,"à¦°à¦ĩà¦§":9791,"à¦°à¦ĩà¦ħ":9792,"à¦°à¦ĩà¦®à¦°":9793,"à¦ķà¦¸à¦¹à¦ľ":9794,"à¦Łà¦¨à¦Ĺà¦°":9795,"à¦²à¦¤à¦Ĩà¦¨":9796,"à¦ļà¦¨à¦Ĩà¦²":9797,"à§Łà¦ķà¦ĩà¦®à¦¨":9798,"à¦ķà¦¤à¦ĸ":9799,"à¦®à¦¦à¦«":9800,"à¦®à¦¦à¦Ĩà¦¬à¦¦":9801,"à¦²à¦¸à¦ħ":9802,"à¦¨à¦Ĺà¦°à¦Ĺ":9803,"à¦¨à¦ıà¦«":9804,"à§§à§¯à§ªà§ª":9805,"à§§à§¯à§¬à§§":9806,"à¦¸à¦ªà¦¡":9807,"à¦ĩà¦ªà¦Ł":9808,"à¦Ĩà¦ľà¦Ĺ":9809,"à§Łà¦®à¦ķà¦°":9810,"à¦ĸà¦¬à¦°à¦Ĺ":9811,"à¦ĸà¦¬à¦°à¦Ń":9812,"à¦ªà¦¦à¦ıà¦¬":9813,"à¦Ĺà¦²à¦Ľ":9814,"à¦²à¦¹à¦ķà¦Ń":9815,"à¦ıà¦²à¦Ł":9816,"à¦·à§Łà¦¯":9817,"à¦°à¦īà¦ªà¦ķà¦®":9818,"à¦Ĺà¦£à¦«":9819,"à¦¬à¦¹à¦¨à¦§à¦°":9820,"à¦¬à¦¹à¦¨à¦ķà¦°à¦¤":9821,"à¦§à¦¨à¦ĵà¦¬":9822,"à¦°à¦¡à¦Ĺ":9823,"à¦Łà¦¬à¦¡":9824,"à¦«à¦²à¦ķà¦°":9825,"à¦ıà¦®à¦¨à¦®à¦¨":9826,"à¦Ĩà¦ĩà¦¨à¦ĵà¦Ĩà¦¦":9827,"à¦Ĺà¦¨à¦¸à¦®":9828,"à¦ıà¦ĸà¦¨à¦«":9829,"à¦ıà¦ĸà¦¨à¦ĵà¦ľ":9830,"à¦Łà¦ªà¦°à¦¬à¦°":9831,"à¦ĵà¦ķà§Ł":9832,"à¦ıà¦®à¦ħà¦¨":9833,"à¦¸à¦¦à¦°à¦°":9834,"à§§à§®à§ª":9835,"à¦ķà¦¶à¦¹":9836,"à¦ıà¦ķà¦ľà¦¨à¦¦":9837,"à¦ıà¦ķà¦ľà¦¨à¦ľ":9838,"à¦¨à§Łà¦¤à¦¬":9839,"à§§à§©à§¦à§¦":9840,"à¦²à¦ľà¦¬à¦¸":9841,"à¦Ĺà¦®à¦¬à¦²":9842,"à¦¯à¦¥à¦ª":9843,"à¦ıà¦°à¦ªà¦°à¦ķ":9844,"à¦¨à¦¸à¦®à¦¨":9845,"à¦ıà¦ĩà¦ļà¦¸":9846,"à¦ıà¦¸à¦¬à¦ľ":9847,"à§¨à§©à§Ń":9848,"à¦²à¦Ĩà¦°à¦¸":9849,"à¦²à¦ļà¦¤":9850,"à¦łà¦ķà¦¡":9851,"à¦·à¦ĸà¦¬à¦°à¦Ĩà¦°à¦ĵ":9852,"à¦°à¦¸à¦®à§Łà¦Ľ":9853,"à¦°à¦ħà¦¬à¦¸à¦°à¦ª":9854,"à¦ĵà¦¸à¦®à¦¬":9855,"à¦ķà¦ĸà¦¨à¦¬":9856,"à¦¤à¦ĸà¦¨à¦°":9857,"à¦·à§Łà¦ķà¦īà¦ªà¦¦":9858,"à¦°à¦Ĩà¦°à¦ĵà¦ıà¦ķà¦Ł":9859,"à¦¨à¦ıà¦ĸà¦¨à¦¤":9860,"à§§à§¯à§®à§©":9861,"à¦ļà¦°à¦®à¦§à¦°":9862,"à§Ŀà¦¬":9863,"à¦²à¦¸à¦¹à¦Ĺ":9864,"à§©à§¦à§¦à§¦":9865,"à¦°à¦¬à¦¦à¦²à¦Ĺ":9866,"à¦°à¦ıà¦ĸà¦¨à¦ķ":9867,"à¦Ĩà¦īà¦Łà¦¹à§Ł":9868,"à¦¬à¦°à¦¶à¦¨":9869,"à§Łà¦īà¦ªà¦¸à¦®":9870,"à¦°à¦Ķà¦·à¦§":9871,"à¦¨à¦ľà¦¨à¦¸":9872,"à¦ķà¦īà¦ªà¦ķ":9873,"à¦¬à¦Ĩà¦Ĺ":9874,"à¦¬à¦ķà¦°à¦²":9875,"à¦¬à§Łà¦ķà¦°":9876,"à¦¤à¦·":9877,"à¦¤à¦¶à¦¤":9878,"à¦¤à¦°à¦ıà¦ķà¦Ł":9879,"à¦¤à¦Ĺà¦¦":9880,"à¦¤à¦ıà¦Ľ":9881,"à¦¸à¦°à¦ļà¦¨":9882,"à¦®à¦ıà¦ķà¦¦":9883,"à¦²à¦ıà¦®à¦¨à¦ķ":9884,"à¦²à¦ļà¦²à¦¤":9885,"à¦²à¦°à¦ªà¦¦":9886,"à¦ªà¦¸à¦¹":9887,"à¦ªà¦ªà§ľ":9888,"à¦ªà¦ĵà¦¨":9889,"à¦ªà¦£à¦¬":9890,"à¦¦à¦°à¦¶":9891,"à¦¦à§Łà¦¦":9892,"à¦¦à¦ľà¦®":9893,"à¦¦à¦īà¦ªà¦ľ":9894,"à¦¯à¦¶à¦¸":9895,"à¦¯à¦ĵà¦ľ":9896,"à¦¯à§İà¦¨":9897,"à§Łà¦ıà¦¸à¦¬":9898,"à§Łà¦¸à¦¬à¦ļ":9899,"à§Łà¦ļà¦²à¦ļ":9900,"à¦ľà¦ł":9901,"à¦ľà¦ªà¦¡":9902,"à¦ľà¦ľà§Ł":9903,"à¦Ĺà¦Ńà¦¬à¦¨":9904,"à¦ĩà¦°à¦¤":9905,"à¦ĩà¦ĩà¦°":9906,"à¦ĩà¦ħà¦«":9907,"à¦Ĩà¦°à¦Ĩà¦²":9908,"à¦ıà¦°à¦īà¦ª":9909,"à¦ıà¦¹à¦¸":9910,"à¦ļà¦¶à¦¤":9911,"à¦·à¦°à¦¬":9912,"à¦·à¦¨à¦¤":9913,"à¦·à¦®à¦°":9914,"à¦·à¦Ĺà¦¤":9915,"à¦¥à¦¹à¦¤":9916,"à¦¥à¦ķà¦¤":9917,"à¦¥à¦¸à¦°à¦ķ":9918,"à¦¥à¦īà¦ªà¦ľ":9919,"à¦ĸà¦²à¦¬":9920,"à¦ĸà¦ĺà¦°":9921,"à¦ĵà¦¹à§Łà¦¨":9922,"à¦ĵà¦ħà¦Ĺ":9923,"à¦ĵà¦Ĩà¦ª":9924,"à¦ĵà¦Ĺà¦£à¦®":9925,"à¦ħà¦ĸ":9926,"à¦īà¦¤à¦¬":9927,"à¦«à¦ĵà¦¯":9928,"à¦°à¦¬à¦ĩ":9929,"à¦°à¦®à§Łà¦¨":9930,"à¦°à¦ªà¦°à¦ıà¦Ł":9931,"à¦£à¦ªà¦¤":9932,"à¦¸à¦®à¦·":9933,"à¦ıà¦ķà¦Ŀ":9934,"à¦ľà¦¨à¦ķà¦°à¦Ľ":9935,"à¦°à¦¨à¦·":9936,"à¦°à¦¨à¦«":9937,"à¦°à¦¨à§Łà¦¤":9938,"à¦°à¦ľà¦²à¦ª":9939,"à¦¹à§Łà¦Ĩà¦²":9940,"à¦¨à¦¬à¦¯":9941,"à¦¨à¦¬à¦§":9942,"à¦ĺà¦°à¦Ľ":9943,"à¦ĺà¦°à¦Ł":9944,"à¦¬à¦°à¦ķà¦°":9945,"à¦²à¦ķà¦ĸà¦¨":9946,"à§¨à§¦à§ª":9947,"à¦¨à¦ķà¦ļ":9948,"à¦¨à¦ķà¦Ļ":9949,"à¦ĩà¦¨à¦ıà¦ķà¦Ł":9950,"à¦¨à¦ªà¦°à¦ª":9951,"à¦ıà¦ĩà¦Ĩà¦®":9952,"à¦ıà¦ĩà¦ħà¦°":9953,"à¦¨à¦¨à¦ķà¦°":9954,"à§«à§§à§§":9955,"à¦¹à¦¤à¦«":9956,"à¦²à¦¨à¦ĸ":9957,"à¦²à¦¬à¦¦à¦²":9958,"à¦¦à¦ķà¦«":9959,"à¦ĩà¦ķà§Ł":9960,"à¦ĩà¦ķà¦·":9961,"à¦·à¦£à¦¥":9962,"à¦·à¦£à¦ķà¦°à¦¬":9963,"à¦ĸà¦¨à¦ļ":9964,"à¦¤à¦ķà¦¶":9965,"à¦°à¦¸à¦®à¦·":9966,"à¦²à¦¤à¦Ĺ":9967,"à¦¸à¦¹à¦ıà¦ķ":9968,"à¦¨à¦Ĩà¦¸à¦¬":9969,"à¦ĩà¦®à¦¶":9970,"à¦°à¦ĸà¦¬à¦°à¦°":9971,"à§Łà¦ķà¦²à¦ķ":9972,"à¦ķà¦¤à¦Ń":9973,"à¦¨à¦Ĺà¦°à¦Ľ":9974,"à¦¨à¦Ńà¦¬à¦¨":9975,"à¦®à¦ķà¦ĸà¦¨":9976,"à¦®à¦ªà¦°à¦¬à¦°":9977,"à¦¬à¦ķà¦¸à¦®":9978,"à¦ķà¦ªà¦²":9979,"à¦ĵà¦¸à¦Ļ":9980,"à¦Ĩà¦ľà¦«":9981,"à¦Ĩà¦°à¦ĵà¦®":9982,"à¦·à§Łà¦Ľ":9983,"à¦¬à¦¹à¦¨à¦®à¦¨":9984,"à¦¬à¦¹à¦¨à¦¬à¦¨":9985,"à¦ħà¦¸à¦¤":9986,"à¦¤à¦¹à§Łà¦ľ":9987,"à¦¬à¦¦à¦¦":9988,"à¦¬à¦¦à¦°à¦Ĺà¦ŀ":9989,"à¦«à¦²à¦ĸ":9990,"à¦«à¦²à¦«":9991,"à¦ıà¦®à¦¨à¦¯":9992,"à¦²à¦Ĺà¦Ł":9993,"à¦ıà¦ĸà¦¨à¦°":9994,"à¦ĩà¦¡à¦¨":9995,"à§Łà¦°à¦°à¦¹":9996,"à¦¨à¦ıà¦ĩà¦ľ":9997,"à¦¤à¦¹à¦ĩà¦¯":9998,"à§¨à§«à§«à§¦":9999,"à¦¸à¦ļà¦°":10000,"à¦°à¦ĵà¦ªà¦°à¦ľ":10001,"à¦Łà¦¦à¦²à¦ķ":10002,"à¦¨à§Łà¦¨à¦¹à§Ł":10003,"à¦ķà¦ľà¦Ł":10004,"à§¨à§¯à§ª":10005,"à¦¨à¦Ĩà¦²à¦®":10006,"à¦Īà¦¦à¦ĸ":10007,"à¦ªà¦¥à¦¹":10008,"à¦°à¦®à¦¹à§ľ":10009,"à¦¸à¦ķà¦²à¦¦":10010,"à¦·à¦ĸà¦¬à¦°à¦Ń":10011,"à¦·à¦ĸà¦¬à¦°à¦Ł":10012,"à¦°à¦ªà¦¥à¦ª":10013,"à¦°à¦Ŀà¦Ĺà§ľ":10014,"à¦¯à¦ĸà¦¨à¦ıà¦ķà¦Ł":10015,"à¦°à¦Ļà¦¬":10016,"à¦īà¦¡à¦¤":10017,"à¦¯à¦¤à¦®à¦ľà¦¨à¦ª":10018,"à§§à§¨à§¦à§«":10019,"à§Łà¦ıà¦ķà¦¹":10020,"à¦ªà¦Ńà¦Ł":10021,"à¦Ńà¦¬à¦¤à¦¤":10022,"à§¨à§¦à§¨à§§à§®":10023,"à¦¸à¦¨à¦ķà¦²à¦®":10024,"à¦ħà¦ªà¦¹à¦°à¦£à¦ķ":10025,"à¦¸à¦¬à¦ĸà¦¬à¦°à¦ľà¦¨à¦ª":10026,"à¦Ĺà¦£à¦Ńà¦¬à¦¨à¦¥":10027,"à¦«à¦īà¦²à¦ĩà§Ł":10028,"à¦·à¦¬à¦ľà¦ŀ":10029,"à¦°à§Łà¦¸":10030,"à¦¨à¦ıà¦ķà¦ľà¦¨à¦®":10031,"à¦¬à¦¹à¦¯":10032,"à¦¬à¦ĵà¦¨":10033,"à¦¬à¦Ĺà§ľà¦¤":10034,"à¦¤à¦ıà¦®":10035,"à¦¤à¦ıà¦°":10036,"à¦¤à¦ĵà¦ħà¦¨":10037,"à¦¸à¦ĵà¦¨":10038,"à¦¸à¦ĩà¦¨à¦¸":10039,"à¦®à¦¶à¦¬":10040,"à¦®à¦ıà¦¦":10041,"à¦®à¦¬à¦²à¦¤":10042,"à¦®à¦ıà¦ĩà¦¡":10043,"à¦²à¦®à¦¨à¦¸":10044,"à¦²à¦ĵà¦«":10045,"à¦ªà¦¸à¦ª":10046,"à¦ªà¦ħà¦¬à¦¸":10047,"à¦¦à¦ĩà¦®":10048,"à¦¦à¦Ĺà¦²":10049,"à¦¦à¦ļà¦Ł":10050,"à¦¦à¦ıà¦ĩà¦ª":10051,"à¦¯à¦ªà¦ķ":10052,"à¦¯à¦ıà¦¨":10053,"à¦¯à¦ıà¦¤":10054,"à¦¯à¦ĩà¦¶":10055,"à¦¯à¦ĵà¦¶":10056,"à§Łà¦¬à¦²à¦¤":10057,"à§Łà¦ıà¦ķà¦¸":10058,"à§Łà¦¬à¦¸à¦¬":10059,"à¦¹à¦ıà¦ķà¦Ł":10060,"à¦Łà¦ľà¦¨à¦¸":10061,"à¦ľà¦§à¦°":10062,"à¦ľà¦ĩà¦®":10063,"à¦ľà¦ħà¦°":10064,"à¦ľà¦ĵà¦®":10065,"à¦ľà¦¤à¦²":10066,"à¦¶à¦Ŀ":10067,"à¦¶à¦ħà¦¬":10068,"à¦¶à¦¹à¦ļ":10069,"à¦¶à¦¨à¦ķà¦®":10070,"à¦Ĺà¦Ĩà¦²":10071,"à¦Ĺà¦°à¦°":10072,"à¦Ĺà¦¸à¦°":10073,"à¦Ĺà¦ĵà¦¸à¦¹à¦¯":10074,"à¦ĩà¦ĵà¦¨":10075,"à¦ĩà¦®à¦¸à¦ľ":10076,"à¦ĩà¦ıà¦ĩà¦¨":10077,"à¦Ĩà¦°à¦Ĩà¦®à¦°":10078,"à¦ıà¦Ĩà§Ł":10079,"à¦ļà¦®à¦¸":10080,"à¦ļà¦ĩà§Ł":10081,"à¦·à¦®à¦¬":10082,"à¦§à¦ķà¦¦":10083,"à¦§à¦ħà¦Ń":10084,"à¦§à¦ķà¦ķ":10085,"à¦§à¦Ĺà¦²":10086,"à¦¥à¦ĵ":10087,"à¦ĵà¦īà¦ª":10088,"à¦ĵà¦ļà¦°":10089,"à¦ĵà¦¬à¦²à¦Ľ":10090,"à¦¡à¦ĵà¦¬":10091,"à¦¡à¦¦à¦²":10092,"à¦¡à¦¸à¦Ń":10093,"à¦«à¦īà¦¦":10094,"à¦°à¦¬à¦£à¦ķà¦°":10095,"à¦°à¦®à¦®à¦¤":10096,"à¦°à¦®à¦¨à¦Ń":10097,"à¦£à¦ĵ":10098,"à¦£à¦īà¦¦":10099,"à¦¸à¦®à¦ľ":10100,"à¦ľà¦¨à¦¬à¦¨":10101,"à¦Ĩà¦®à¦ľ":10102,"à¦°à¦¨à¦°à¦¸":10103,"à¦¹à§Łà¦ıà¦ķà¦Ł":10104,"à¦¹à§Łà¦Ĩà¦¬":10105,"à¦¹à§Łà¦Ĩà¦Ĺ":10106,"à¦ĺà¦°à¦¨":10107,"à¦ĺà¦ĺ":10108,"à¦°à¦£à¦¹à¦ļ":10109,"à¦¨à¦¤à§İà¦ķ":10110,"à¦ªà¦¨à¦ıà¦¬":10111,"à¦ªà¦¨à¦®à¦¹":10112,"à¦¨à¦¸à¦°à¦¦":10113,"à¦²à¦ķà¦ľà¦¬":10114,"à¦°à¦ıà§Ł":10115,"à¦°à¦ıà¦¸à¦ª":10116,"à¦°à¦ıà¦§à¦°à¦¨":10117,"à¦°à¦ıà¦ĩà¦ķà¦¥":10118,"à¦¤à¦¬à¦¦à¦²":10119,"à¦¨à¦ªà¦°à¦¸":10120,"à¦°à¦ľà¦¨à¦¨à¦ķ":10121,"à§©à§§à§¨":10122,"à¦¸à¦¬à¦ªà¦°":10123,"à¦°à¦ĵà¦Ĩà¦®":10124,"à¦¹à¦²à¦¹":10125,"à¦¹à¦²à¦Ĺ":10126,"à§İà¦ĵà§Ł":10127,"à¦²à¦¨à¦¬à¦¨":10128,"à¦¯à¦¬à¦¡":10129,"à¦°à¦Ľà¦ĵà§Ł":10130,"à¦²à¦¬à¦Ĺ":10131,"à§Ńà§«à§¦":10132,"à¦¨à¦¦à¦²à¦ķ":10133,"à¦¤à¦¨à¦¹à¦¬":10134,"à¦¦à¦ķà¦²à¦ķ":10135,"à¦Ŀà¦Ľ":10136,"à¦¦à¦¨à¦¡":10137,"à¦°à¦²à¦¸à¦Ń":10138,"à¦ĸà¦¨à¦¨à¦ķ":10139,"à¦ĵà¦¯à¦¥":10140,"à¦¯à¦®à¦Ł":10141,"à¦ĩà¦Łà¦¶":10142,"à¦®à¦²à¦°":10143,"à¦¨à¦ıà¦°à¦«à¦²":10144,"à¦¨à¦Ńà¦¦":10145,"à¦¬à¦ķà¦ļ":10146,"à¦ĵà¦ªà¦£":10147,"à¦ĩà¦ªà¦®":10148,"à§§à§¦à§§à§«":10149,"à¦Ĩà¦¦à¦¤":10150,"à¦Ĩà¦°à¦ĵà¦¯":10151,"à¦ıà¦²à¦°":10152,"à¦īà¦ľà¦¡à¦Łà¦ķà¦®":10153,"à¦°à¦īà¦ªà¦°à¦¶":10154,"à¦¶à¦¬à¦Ļ":10155,"à¦ĩà¦Ńà¦°":10156,"à¦¸à¦²à¦¦":10157,"à¦¬à¦¹à¦Ĩà¦Ĺ":10158,"à¦¬à¦¹à¦¨à¦ĸ":10159,"à¦ĵà¦®à¦§":10160,"à¦Ĺà¦¬à¦Ĺ":10161,"à¦Īà¦¦à¦ķ":10162,"à¦ıà¦®à¦¨à¦ļ":10163,"à¦·à¦ķà¦«":10164,"à¦ıà¦ĸà¦¨à¦ĵà¦¤":10165,"à¦¸à¦¦à¦°à¦ª":10166,"à§§à§®à§¨à§¦à§¨à§§":10167,"à¦°à¦¥à¦®à¦ħà¦¨à¦²":10168,"à¦¯à¦ķà¦°à¦ķ":10169,"à¦ıà¦ķà¦ľà¦¨à¦ļ":10170,"à§§à§¬à§§":10171,"à¦¶à¦¹à¦°à¦¥":10172,"à¦¨à¦ıà¦ĩà¦ħà¦Ń":10173,"à¦ķà¦ļà¦ķà¦°":10174,"à¦¸à¦ļà¦¤":10175,"à¦ķà¦°à¦£à¦¦":10176,"à¦¬à§ľà¦¶":10177,"à¦¡à¦¸à¦«à¦°":10178,"à§¨à§Ńà§ª":10179,"à¦ķà¦Ľà¦²":10180,"à¦ĸà¦ķà¦«":10181,"à¦ķà¦ĸà¦¨à¦ķ":10182,"à¦¯à¦ĸà¦¨à¦ļ":10183,"à¦¤à¦ĸà¦¨à¦Ĩà¦®à¦°":10184,"à¦¨à¦Ĩà¦¬à¦¹":10185,"à¦īà¦¸à¦Ĺ":10186,"à§¯à§¯à§¦à§«":10187,"à¦°à¦ıà¦ĩà¦ĺà¦Łà¦¨":10188,"à¦Ĺà¦¡à¦«":10189,"à¦°à¦¥à¦®à¦¦à¦«":10190,"à¦ĵà¦ıà¦ķà¦ª":10191,"à¦ķà¦¶à¦¨à¦²":10192,"à¦¨à¦¤à¦ĸà¦¨à¦Ĩà¦ªà¦¨":10193,"à¦Ĩà¦īà¦¯":10194,"à¦®à¦°à¦¤à¦ħà¦¬à¦¸":10195,"à¦ªà¦¦à¦¸à§ľ":10196,"à¦ıà¦¸à¦ıà¦«à¦¬":10197,"à¦¤à¦°à¦Ĩà¦¹à¦¤à¦¹à§Ł":10198,"à¦·à¦£à¦¸à¦®à¦¤à¦²à¦ĵà¦ľà¦²":10199,"à¦¥à¦ķà¦¸à§ľà¦ķà¦¦":10200,"à§ĩà§į":10201,"à¦ķà¦¨à¦¨":10202,"à¦ķà¦īà¦ªà¦ľ":10203,"à¦ķà¦ĩà¦¨à¦¸":10204,"à¦ķà¦ħà¦®":10205,"à¦ķà¦Ĩà¦§":10206,"à¦¬à¦ľà¦²":10207,"à¦¤à¦ĵà¦¶":10208,"à¦¤à¦Īà¦¦":10209,"à¦¤à¦ħà¦¶":10210,"à¦¤à¦ľà¦¨à¦¤":10211,"à¦¸à¦ªà¦¨":10212,"à¦¸à¦ªà§ľ":10213,"à¦®à¦ıà¦°à¦¸":10214,"à¦®à¦īà¦°":10215,"à¦®à¦Īà¦¨":10216,"à¦²à¦²à¦¬":10217,"à¦²à¦Ĩà§Ł":10218,"à¦²à¦Ĩà¦°à¦¬":10219,"à¦²à¦ıà¦ĩà¦¸":10220,"à¦²à¦ıà¦ĩà¦ª":10221,"à¦ªà¦¸à¦¦":10222,"à§Łà¦ĵà¦¯":10223,"à§Łà¦¬à¦²à¦²":10224,"à§Łà¦Ĩà¦°à¦ķ":10225,"à¦¹à¦¸à¦¬":10226,"à¦Łà¦ĩà¦²":10227,"à¦Łà¦ıà¦®à¦ª":10228,"à¦Łà¦ıà¦°à¦ķ":10229,"à¦ľà¦ķà¦ķ":10230,"à¦ľà¦¤à¦¥":10231,"à¦ľà¦ķà¦ļ":10232,"à¦¶à¦¸à¦¬":10233,"à¦¶à¦Ĩà¦¸":10234,"à¦¶à¦¶à¦°":10235,"à¦¶à¦ļà¦Ł":10236,"à¦Ĺà¦§":10237,"à¦Ĺà¦¨à¦®":10238,"à¦Ĺà¦Ĩà¦¹à¦¬":10239,"à¦ĩà¦¶à¦¬":10240,"à¦·à¦ıà¦ķ":10241,"à¦·à¦¸à¦¬":10242,"à¦Ńà§Łà¦¦":10243,"à¦Ńà¦²à¦ªà¦®":10244,"à¦§à¦Ĺà§ľ":10245,"à¦¥à¦¬à¦¨":10246,"à¦ĵà¦°à¦Ĺ":10247,"à¦ĵà¦Ĩà¦¨à¦¨":10248,"à¦¡à¦°à¦®":10249,"à¦¡à¦¶à¦°":10250,"à¦¡à¦¡à¦ķ":10251,"à¦ħà¦®à¦¦":10252,"à¦°à¦¸à¦¶à¦¸":10253,"à¦īà¦²à¦ķ":10254,"à¦°à¦ķà¦ķà¦°":10255,"à¦°à¦¬à¦ļ":10256,"à¦°à¦®à¦Ł":10257,"à¦°à¦ªà¦Ļ":10258,"à¦°à¦ªà¦°à¦ĵà¦ª":10259,"à¦£à¦ªà¦¦":10260,"à¦£à¦ħà¦¬à¦¸":10261,"à¦®à¦¨à¦ħà¦¨":10262,"à¦°à¦¦à¦¶à¦®":10263,"à¦Ĩà¦®à¦²à¦ķà¦°":10264,"à¦ĺà¦®à¦¹":10265,"à¦ĺà¦¸à¦®à§Łà¦§à¦°":10266,"à¦°à¦£à¦¡":10267,"à¦°à¦£à¦¤à¦ª":10268,"à¦¨à¦¸à¦¤à¦°":10269,"à¦²à¦ķà¦ħà¦§":10270,"à¦°à¦ıà¦¹":10271,"à¦ĩà¦¨à¦Ĩà¦²":10272,"à¦ĩà¦¨à¦ľà¦°":10273,"à¦ıà¦ĩà¦¹à¦¤":10274,"à¦ıà¦ĩà¦¸à¦¬à¦¬":10275,"à¦Ĩà¦²à¦®à¦¸":10276,"à¦Ĩà¦²à¦®à¦®":10277,"à§ªà§ªà§®":10278,"à§İà¦ħà¦¸":10279,"à¦°à¦īà¦¸":10280,"à§Łà¦¨à¦Ł":10281,"à§¬à§¨à§©":10282,"à§Ńà§©à§Ń":10283,"à§¯à§§à§¦":10284,"à¦®à¦¸à¦¨à¦¦":10285,"à¦¤à¦¨à¦¹à¦ļ":10286,"à¦¤à¦¨à¦¹à¦ĵà§Ł":10287,"à¦¤à¦¨à¦ĵà¦Ĺ":10288,"à¦ĩà¦²à¦ĩà¦īà¦¨":10289,"à¦¦à¦ķà¦ħ":10290,"à¦ĩà¦ķà¦²à¦ķ":10291,"à¦ıà¦¸à¦¨":10292,"à¦ıà¦¸à¦«":10293,"à¦°à¦²à¦²":10294,"à¦¤à¦ķà¦°à¦£à¦ķ":10295,"à¦ĩà¦¬à¦¤":10296,"à¦¨à¦Ĩà¦Ļ":10297,"à¦¨à¦Ĩà¦°à¦Ĩà¦®":10298,"à¦ĩà¦Łà¦ľ":10299,"à¦¨à¦Ĺà¦£à¦ªà¦°":10300,"à¦¨à¦ıà¦ķà¦°":10301,"à¦¨à¦ıà¦§à¦°à¦¨":10302,"à§§à§¯à§©":10303,"à¦ķà¦ªà¦¬":10304,"à¦ķà¦ķà¦£":10305,"à¦Ĩà¦ľà¦¯":10306,"à¦Ĩà¦°à¦ĵà¦ļ":10307,"à¦Ĩà¦°à¦ĵà¦īà¦ªà¦¸":10308,"à¦ĩà¦ľà¦Ĺ":10309,"à¦īà¦ľà¦¦à¦°":10310,"à¦¦à¦²à¦Ń":10311,"à¦°à¦īà¦ªà¦ª":10312,"à¦°à¦®à¦¤à¦ıà¦ķà¦Ł":10313,"à¦ıà¦®à¦¨à¦ľ":10314,"à¦ıà¦®à¦¨à¦ĺà¦Łà¦¨":10315,"à§§à§¨à§¨à§¦":10316,"à§§à§¨à§©à§¦":10317,"à¦¬à¦¤à¦¹à¦¬":10318,"à¦®à¦®à¦£":10319,"à§§à§Ńà§¯":10320,"à¦¨à§Łà¦ľ":10321,"à§§à§©à§¬":10322,"à¦Ĳà¦¸":10323,"à¦Ĩà¦¶à¦Ĩà¦°":10324,"à§§à§¬à§¨":10325,"à§§à§¬à§¨à§¬à§©":10326,"à¦¨à¦ªà¦°à¦¦":10327,"à¦¨à¦«à¦ľà¦²":10328,"à¦¨à¦ıà¦ĩà¦ĺà¦Łà¦¨":10329,"à¦¨à¦ıà¦ĩà¦ļà¦¡":10330,"à¦°à¦ĵà¦ªà¦°à¦®":10331,"à§¨à§©à§«":10332,"à§¨à§©à§¯":10333,"à¦¸à¦«à¦Ł":10334,"à¦ĩà¦Ľà¦²":10335,"à¦°à¦¸à¦®à§Łà¦®à¦¹":10336,"à¦°à¦¸à¦¹à¦ķà¦°":10337,"à¦°à¦ĸà¦¬à¦°à¦ħà¦¨":10338,"à¦°à¦ĸà¦¬à¦°à¦¸à¦¬":10339,"à¦ķà¦ľà¦¨à¦Ĺ":10340,"à¦ķà¦ľà¦¨à¦Ľ":10341,"à¦¯à¦¤à¦®à¦®":10342,"à¦¯à¦¤à¦®à¦ıà¦ķà¦Ł":10343,"à¦°à¦Ĩà¦ĩà¦¨à¦Ĩà¦®":10344,"à¦¬à¦°à¦®à¦Ļ":10345,"à§¨à§¦à§¨à§§à§«":10346,"à¦ĵà§ľà¦¨":10347,"à¦¶à¦ĵà¦ķà¦¤":10348,"à¦ıà¦°à¦ĩà¦§":10349,"à¦²à¦ķà¦ªà¦²à¦ķà¦ªà¦²à¦ķà¦ªà¦²à¦ķà¦ªà¦²à¦ķà¦ªà¦²à¦ķà¦ªà¦²à¦ķà¦ªà¦²à¦ķà¦ªà¦²à¦ķà¦ªà¦²à¦ķà¦ªà¦²à¦ķà¦ªà¦²à¦ķà¦ªà¦²à¦ķà¦ªà¦²à¦ķà¦ªà¦²à¦ķà¦ªà¦²à¦ķà¦ª":10350,"à§ĩà§ĩ":10351,"à¦¨à¦°à¦®à¦ľ":10352,"à¦¨à¦ĩà¦īà¦ıà¦¨à¦ĵ":10353,"à¦ķà¦ľà¦®":10354,"à¦ķà¦Ĩà¦°à¦¬":10355,"à¦¬à¦ķà¦¤à¦Ł":10356,"à¦¬à¦¶à¦¤à¦¬à¦°":10357,"à¦¤à¦ıà¦ĸ":10358,"à¦¤à¦ħà¦¬à¦¶":10359,"à¦¤à¦Ĩà¦°à¦ķ":10360,"à¦¤à¦ıà¦ĩà¦ķ":10361,"à¦¸à¦ķà¦¦à¦²":10362,"à¦®à¦°à¦®":10363,"à¦®à¦ĩà¦Ń":10364,"à¦®à¦ĵà¦Ĺ":10365,"à¦®à¦ıà¦°à¦ķ":10366,"à¦²à¦ħà¦§":10367,"à¦²à¦ħà¦ª":10368,"à¦²à¦ıà¦®":10369,"à¦²à¦ľà¦¨à¦ª":10370,"à¦²à¦ıà¦°à¦ķ":10371,"à¦ªà¦ıà¦ķ":10372,"à¦ªà¦¸à¦¸":10373,"à¦¦à§ľ":10374,"à¦¦à¦°à¦¯":10375,"à¦¦à§Łà¦¬":10376,"à¦¯à¦¸à¦ķ":10377,"à¦¯à¦īà¦ł":10378,"à¦¯à§Łà¦¯":10379,"à¦¯à¦īà¦ªà¦¨":10380,"à¦¯à¦ħà¦Ļ":10381,"à¦¯à¦Īà¦«":10382,"à§Łà¦īà¦ļ":10383,"à§Łà¦īà¦ķ":10384,"à§Łà¦Ĩà¦ľà¦ķ":10385,"à§Łà¦ħà¦¥à¦¬":10386,"à¦¹à¦ĩ":10387,"à¦¹à¦°à¦ªà¦°":10388,"à¦¹à¦®à¦¹":10389,"à¦¹à¦Ĩà¦¦":10390,"à¦¹à¦°à¦Ĩà¦ķ":10391,"à¦¹à¦°à¦¨à¦¬":10392,"à¦Łà¦°à¦ļ":10393,"à¦Łà¦²à¦¦":10394,"à¦Łà¦Ľà¦¬":10395,"à¦Łà¦Ĩà§Ł":10396,"à¦Łà¦ļà¦²à¦Ľ":10397,"à¦¶à¦Ĩà¦Ľ":10398,"à¦¶à¦®à¦¬":10399,"à¦¶à¦¬à¦ķ":10400,"à¦¶à¦ıà¦¦":10401,"à¦Ĺà¦¸à¦ª":10402,"à¦Ĺà¦ľà¦¬":10403,"à¦ĩà¦ªà¦¨":10404,"à¦ĩà¦īà¦ªà¦¸":10405,"à¦ĩà¦ıà¦Ľ":10406,"à¦Ĩà§Łà¦ķ":10407,"à¦Ĩà¦ªà¦¸":10408,"à¦Ĩà¦ªà§ľà¦¤":10409,"à¦ıà¦°à¦ķà¦¥":10410,"à¦ıà¦ıà¦ĩà¦ļ":10411,"à¦Ľà¦¨à¦¦":10412,"à¦ķà¦°à¦ķà¦°":10413,"à¦·à§Łà¦ª":10414,"à¦·à¦ħà¦§":10415,"à¦Ńà¦¬à¦Ľ":10416,"à¦Ńà¦ķà¦°à¦²":10417,"à¦¥à¦°à¦¦":10418,"à¦¥à¦ļà¦Ł":10419,"à¦ĸà¦²à¦¤":10420,"à¦ĸà¦ķà¦¥":10421,"à¦ĸà¦Ĩà¦¬à¦¦":10422,"à¦ĸà¦¡à¦²":10423,"à¦ĵà¦°à¦ļ":10424,"à¦ĵà¦ķà¦¤":10425,"à¦ĵà¦ıà¦ĩà¦¸":10426,"à¦ĵà¦ıà¦¡":10427,"à¦ĵà¦Ĺà¦£à¦¤à¦¨":10428,"à¦¡à¦ĩ":10429,"à¦¡à¦°à¦¨":10430,"à¦¡à¦Ĩà¦²":10431,"à¦¡à¦¹à¦¤":10432,"à¦īà¦¬à¦Ń":10433,"à¦«à¦Łà¦¬":10434,"à¦°à¦ķà¦¬à¦¨":10435,"à¦°à¦ªà¦¥à¦¨":10436,"à¦°à¦ªà§ľà¦¤":10437,"à¦°à¦ªà¦°à¦ĵà¦¸":10438,"à§ľà¦¯":10439,"à§ľà¦ķà¦°à¦¤":10440,"à§ľà¦ķà¦¨":10441,"à§ľà¦ıà¦²":10442,"à¦®à¦¨à¦¹à¦¯":10443,"à¦łà¦¸à¦°à¦ķ":10444,"à¦ľà¦¨à¦¬à¦²à¦¨":10445,"à¦¬à¦²à¦Ĩà¦®":10446,"à¦Ĩà¦®à¦Ĺ":10447,"à¦Ĩà¦®à¦°à¦°":10448,"à¦¹à§Łà¦«à¦²":10449,"à¦ħà¦¨à¦°":10450,"à¦¨à¦¸à¦¹à¦ļ":10451,"à¦²à¦ķà¦ķà¦®":10452,"à§¨à§¦à§Ń":10453,"à¦¨à¦ķà¦¤à¦¦":10454,"à¦°à¦ıà¦°à¦¨":10455,"à¦ĩà¦¨à¦¸à¦®":10456,"à¦ıà¦ĩà¦¸à¦¬à¦ķ":10457,"à¦¸à¦¬à¦«":10458,"à¦°à¦ĵà¦ĩà¦¬":10459,"à§ªà§©à§©":10460,"à¦īà¦¨à¦ħà¦®":10461,"à¦Ĩà¦¬à¦¬":10462,"à§¬à§¨à§¦à§¨à§§":10463,"à¦¤à¦¨à¦ķà¦°à¦²":10464,"à¦ıà¦¸à¦¹":10465,"à¦ıà¦¸à¦ķà¦²":10466,"à¦°à¦ĩà¦¸à¦®":10467,"à¦¤à¦®à¦ŀ":10468,"à¦ķà¦¸à¦¹à¦ķ":10469,"à¦²à¦®à§Łà¦®à¦¨à¦¸":10470,"à¦Łà¦¨à¦Ĺ":10471,"à¦°à¦«à¦¨":10472,"à§Łà¦¸à§ľà¦ķà¦¦":10473,"à¦¸à¦¹à¦¹":10474,"à¦¸à¦¹à¦¸à¦®":10475,"à¦¸à¦¹à¦ľà¦¬":10476,"à¦¨à¦Ĩà¦ĩ":10477,"à¦¨à¦Ĩà¦°à¦¹":10478,"à¦¨à¦Ĩà¦°à¦ĵà¦¬":10479,"à¦ĩà¦®à¦Ļ":10480,"à¦°à¦ĸà¦°":10481,"à§Łà¦ķà¦¤à¦¬":10482,"à¦¯à¦®à§Ł":10483,"à¦ķà¦¨à¦¡":10484,"à¦¨à¦Ĺà¦°à¦ľ":10485,"à¦¨à¦Ĺà¦°à¦Ĩà¦²":10486,"à¦¨à¦ıà¦°à¦¶":10487,"à§§à§¯à§«à§¬":10488,"à§§à§¯à§«à§¯":10489,"à§Łà¦¦à¦¤":10490,"à§Łà¦¦à¦¶":10491,"à§Łà¦¦à¦°à¦¹":10492,"à§Łà¦ªà¦²":10493,"à¦¤à¦ªà¦¦à¦ķ":10494,"à¦¬à¦Ľà¦°à¦ªà¦°à¦ª":10495,"à¦ªà¦ķà¦ªà¦°":10496,"à§Łà¦®à¦§":10497,"à¦Ĩà¦°à¦ĵà¦¸à¦®":10498,"à¦Ĩà¦°à¦ĵà¦ıà¦ķà¦ľà¦¨":10499,"à¦ªà¦¦à¦ħà¦°":10500,"à¦Ĺà¦²à¦ķà¦°":10501,"à¦²à¦¹à¦ķà¦¹":10502,"à¦ĩà¦ľà¦Ļ":10503,"à¦ıà¦²à¦¥":10504,"à¦¨à¦ĵà¦ıà¦ķà¦Ł":10505,"à¦°à¦īà¦ªà¦²à¦¬":10506,"à¦°à¦īà¦ªà¦®à¦¹":10507,"à¦ĩà¦Ńà¦¨":10508,"à¦ĩà¦Ńà¦¦":10509,"à¦¬à¦¹à¦¨à¦ıà¦¬":10510,"à¦¨à¦ļà¦²à¦¬":10511,"à¦Īà¦¦à¦¬":10512,"à¦Īà¦«à¦¹":10513,"à¦·à¦ķà¦ĵà¦¶":10514,"à¦ħà¦ªà¦ļà§Ł":10515,"à¦²à¦Ĺà¦«":10516,"à¦ĩà¦īà¦®":10517,"à¦ĩà¦īà¦ıà¦¨":10518,"à¦§à¦¬à¦ķà¦°":10519,"à¦¨à§Łà¦¨à¦¤":10520,"à¦Ĳà¦®":10521,"à¦Ĳà¦Ĺ":10522,"à¦ļà¦ķà¦ļà¦ķ":10523,"à¦īà¦Łà¦ħà¦¬":10524,"à¦¶à¦¹à¦°à¦¬":10525,"à¦Ńà¦¬à¦¤à¦¬":10526,"à¦ıà¦°à¦ªà¦°à¦®":10527,"à§¨à§®à§¨":10528,"à¦ªà¦Łà¦¦":10529,"à¦ĩà¦¶à¦¹à¦°":10530,"à§¨à§¨à§¨à§¦à§¨à§§":10531,"à¦¨à¦ħà¦ļ":10532,"à¦ªà¦£à¦ķà¦°à¦²":10533,"à¦Ĩà¦ĩà¦ĵà¦¯":10534,"à§¨à§©à§§":10535,"à§¨à§Ńà§«":10536,"à¦ĩà¦Ľà¦¡":10537,"à¦²à¦Ĩà¦°à¦ķ":10538,"à¦ıà¦°à¦°à¦ķ":10539,"à¦®à¦¯à¦ĸà¦¨":10540,"à¦īà¦¬à¦ĵà§Ł":10541,"à¦Ńà¦¬à¦¨à¦Ł":10542,"à¦ıà¦°à¦¸à¦¤":10543,"à¦īà¦¡à¦¬à¦²":10544,"à¦ıà¦°à¦ķà¦®à¦¬":10545,"à§¨à§¦à§§à§®à§§à§¯":10546,"à§Łà¦ĸà¦Ĩà¦¬":10547,"à¦°à¦¸à¦¦à¦°à¦¦":10548,"à¦ķà¦Ĩà¦°à¦¨":10549,"à¦ĵà¦ľà¦¨à¦¹":10550,"à¦¹à¦°à¦£à¦¹":10551,"à¦°à¦Ĩà¦°à¦ĵà¦¦":10552,"à¦¸à§ľà¦ķà¦ªà¦¥":10553,"à¦¯à¦«à¦¸à¦²":10554,"à§Łà¦Ĩà¦ĺ":10555,"à¦°à¦ªà¦°à¦ĵà¦Ĩà¦®à¦°":10556,"à¦°à¦ıà¦ĸà¦¨à¦¦":10557,"à¦«à¦°à¦¯à¦Ĺ":10558,"à§§à§¨à§§à§¨":10559,"à¦Ĩà¦ķà¦¬à¦°à¦Ĩà¦²":10560,"à¦īà¦ĩà¦Ļ":10561,"à¦¦à¦²à¦¬à¦¦":10562,"à¦¬à¦°à¦Ĩà¦ľà¦®":10563,"à¦¬à¦ĵà¦ľà§ľà¦¤":10564,"à¦¿à§ĩ":10565,"à¦¨à¦īà§ľ":10566,"à¦¨à¦ħà¦ªà¦¸":10567,"à¦ķà¦ıà¦ĩà¦¬":10568,"à¦ķà¦Ĳà¦¤":10569,"à¦¬à¦Ĩà¦ķ":10570,"à¦¤à¦ĵà¦¹":10571,"à¦¸à¦ĩà¦¬":10572,"à¦®à¦²à¦¬":10573,"à¦®à¦ļà¦°":10574,"à¦²à¦ĵà¦Ł":10575,"à¦ªà¦¬à¦°":10576,"à¦¦à¦īà¦ľ":10577,"à¦¦à¦ħà¦¸":10578,"à¦¦à¦¶à¦¸":10579,"à¦¦à¦ªà§ľà¦¤":10580,"à¦¯à¦ĩà¦īà¦¨":10581,"à¦¯à¦ľà¦¬":10582,"à¦¯à¦Ĩà¦§":10583,"à¦¯à¦Ĺà¦£à¦®":10584,"à§Łà¦¹à¦°":10585,"à§Łà¦ľà¦¬":10586,"à§Łà¦Ĩà¦«à¦Ĺ":10587,"à§Łà¦Ĺà¦£à¦¹à¦¤":10588,"à¦¹à¦Łà¦²":10589,"à¦Łà¦Ĩà¦ĩà¦¨":10590,"à¦ľà¦ķà¦¤":10591,"à¦ľà¦ĩà¦¬à¦¨":10592,"à¦ľà¦ħà¦§":10593,"à¦¶à¦¤à¦¥":10594,"à¦¶à¦ħà¦ķ":10595,"à¦Ĺà¦²à¦¤":10596,"à¦Ĺà¦ĵà¦¦":10597,"à¦Ĺà¦¹à¦¨":10598,"à¦Ĺà¦Ĺà¦łà¦¨":10599,"à¦ĩà¦°à¦®":10600,"à¦ĩà¦¶à¦¹":10601,"à¦ĩà¦Ĩà¦°à¦¸":10602,"à¦ıà¦¨à¦Ĺ":10603,"à¦ļà¦Ĩà¦¸":10604,"à¦ļà¦īà¦¦à¦¯":10605,"à¦·à¦¨à¦ķ":10606,"à¦·à¦Ĩà¦°":10607,"à¦·à¦¤à¦¸":10608,"à¦·à¦ħà¦¸":10609,"à¦§à¦¨à¦Ł":10610,"à¦¥à¦ĸ":10611,"à¦¥à¦ĵà§Ł":10612,"à¦¥à¦Ĩà¦¦":10613,"à¦¥à¦ħà¦§":10614,"à¦ĸà¦¹à§Ł":10615,"à¦ĵà¦¨à¦®":10616,"à¦ĵà¦ħà¦«":10617,"à¦ĵà¦ıà¦¶":10618,"à¦¡à¦ĺà¦Ł":10619,"à¦¡à¦¨à¦¥":10620,"à¦¡à¦ķà¦¨à¦Ń":10621,"à¦īà¦Łà¦ķ":10622,"à¦īà¦°à¦ĵà¦¯":10623,"à¦°à¦ķà¦®à¦¤":10624,"à¦°à¦ķà¦®à¦¦":10625,"à¦°à¦¬à¦°à¦Ĺ":10626,"à¦°à¦®à¦ħà¦¨":10627,"à§¨à§¨à§¦à§§à§Ń":10628,"à§¦à§¨à§§":10629,"à¦®à¦¨à¦¡":10630,"à¦łà¦¡":10631,"à¦łà¦¸à¦®":10632,"à¦łà¦¬à¦¨":10633,"à¦ľà¦¨à¦ıà¦¦":10634,"à¦ľà¦¨à¦ıà¦ªà¦°":10635,"à¦°à¦¦à¦²à¦ķ":10636,"à¦°à¦¦à¦²à¦¸":10637,"à¦°à¦¨à§Łà¦ķ":10638,"à¦°à¦ľà¦¹":10639,"à¦°à¦¹à¦Ľ":10640,"à¦¬à¦¨à¦«":10641,"à¦¬à¦¨à¦ĵà¦¬":10642,"à¦°à¦Ĩà¦ĩà¦ķ":10643,"à¦°à¦Ĩà¦¦à¦¬":10644,"à¦°à¦Ĩà¦°à¦ĵà¦ª":10645,"à¦°à¦Ĩà¦Łà¦Ł":10646,"à¦°à¦£à¦ĵ":10647,"à¦°à¦£à¦ĵà¦°":10648,"à¦ªà¦¨à¦¹":10649,"à¦¨à¦¸à¦¹à¦¨":10650,"à¦²à¦ķà¦ħà¦¨":10651,"à§¨à§¦à§¬":10652,"à§¨à§¦à§¨à§¦à§¦":10653,"à¦¨à¦ķà¦¸":10654,"à¦ĩà¦¨à¦ĸ":10655,"à¦ıà¦ĩà¦ļà¦ķ":10656,"à¦¸à¦¬à¦¸à¦®à§Łà¦¸":10657,"à¦Ĩà¦²à¦®à¦¶":10658,"à¦¨à¦¨à§Ł":10659,"à¦¨à¦¨à§ľ":10660,"à§ªà§ªà§Ń":10661,"à¦ĩà¦¸à¦ŀ":10662,"à¦¹à¦¤à¦Ĩà¦¹à¦¤":10663,"à§İà¦Ĩà¦²":10664,"à¦īà¦¨à¦Ł":10665,"à¦²à¦¨à¦¹":10666,"à¦īà¦ªà¦ķà¦®":10667,"à¦ķà¦²à¦ķà¦°à¦¤":10668,"à¦°à¦¯à¦¤à¦Ł":10669,"à¦¯à¦ķà¦¯":10670,"à¦Ĩà¦¸à¦¨à¦¥":10671,"à¦ĩà¦²à¦īà¦ªà¦ľ":10672,"à¦¦à¦ķà¦ĵà¦®":10673,"à¦¦à¦ķà¦¸à¦¹à¦Ĩà¦Łà¦ķ":10674,"à¦ļà¦²à¦¸à¦®":10675,"à¦Ŀà§ľà¦¬":10676,"à¦ıà¦¸à¦ĩà¦ĵ":10677,"à¦¦à¦¨à¦ıà¦ķ":10678,"à¦¦à¦¨à¦ĩà¦¸à¦²":10679,"à¦°à¦ĩà¦Ĩà¦®":10680,"à¦ķà¦¸à¦°à¦ŀ":10681,"à¦Łà¦¨à¦ĸ":10682,"à¦²à¦¤à¦ļ":10683,"à¦¸à¦¹à¦ľà¦ª":10684,"à¦¸à¦¹à¦ľà¦ķ":10685,"à¦¨à¦Ĩà¦¨à¦Ń":10686,"à¦ªà§ľà¦ªà§ľ":10687,"à¦¸à¦¨à¦¹":10688,"à¦ĩà¦Łà¦ıà¦¬":10689,"à¦®à¦²à¦ª":10690,"à¦¨à¦ıà¦®à¦ı":10691,"à¦¨à¦Ńà¦ķ":10692,"à¦®à¦ªà¦¦":10693,"à§§à§¯à§«à§®":10694,"à¦¬à¦ķà¦°à¦Ľ":10695,"à¦¨à¦¯à¦ĸà¦¨à¦¤":10696,"à¦²à¦ªà¦ŀ":10697,"à§¨à§¦à§¨à§§à§§à§ª":10698,"à§¨à§¦à§¨à§§à§§à§§":10699,"à¦Ĺà¦¤à¦ħà¦°":10700,"à¦Ĩà¦°à¦ĵà¦Łà¦ĩà¦ªà¦¤":10701,"à¦ıà¦²à¦ĸ":10702,"à¦¨à¦ĵà¦¨à¦¨":10703,"à¦¸à¦®à§Łà¦¯":10704,"à¦¨à¦Łà¦ª":10705,"à¦ĩà¦Ńà¦®":10706,"à¦ĩà¦¦à¦¶à¦ķ":10707,"à¦¬à¦¹à¦¸":10708,"à¦Īà¦°à¦¹":10709,"à¦²à¦Ńà¦ª":10710,"à¦¸à¦¦à¦°à¦ĩà¦īà¦¨":10711,"à§§à§®à§¦à§¦":10712,"à§§à§®à§¦à§¬à§¨à§¦à§§à§¯":10713,"à¦¶à¦ªà¦°à¦Ĺà¦¨":10714,"à¦·à¦¦à¦¤":10715,"à¦·à¦¦à¦¶à¦ķ":10716,"à¦ıà¦ķà¦ľà¦¨à¦¯":10717,"à¦¨à¦Ĩà¦®à¦²":10718,"à¦¨à§Łà¦¬à¦²":10719,"à§§à§©à§¨à§¦à§¨à§§":10720,"à§©à§¦à§©":10721,"à¦¤à¦¹à¦¨à¦¬":10722,"à§¨à§«à§®":10723,"à¦Ĩà§Łà¦ķà¦°à¦¤":10724,"à¦ıà¦¸à¦¬à¦Ń":10725,"à¦ıà¦¸à¦¬à¦ħà¦Ń":10726,"à¦ıà¦¸à¦¬à¦ĺà¦Łà¦¨":10727,"à¦¬à§ľà¦ľ":10728,"à¦Ĩà¦°à¦¬à¦Ĩà¦®":10729,"à§¨à§Ńà§¨":10730,"à¦¸à¦«à¦°à¦ħà¦¬à¦¸":10731,"à¦²à¦Ĩà¦¬à¦°":10732,"à¦¨à¦ıà¦ķà¦¨":10733,"à¦¨à¦ıà¦ķà¦¤":10734,"à¦Ĺà¦łà¦¨à¦ķà¦°à¦¤":10735,"à¦Ĩà¦¹à¦¤à¦¨":10736,"à¦ıà¦®à¦ªà¦°à¦¬à¦°":10737,"à§©à§©à§¬":10738,"à¦Ĩà¦°à¦ıà¦¤":10739,"à¦²à¦Ĩà¦²à¦®à¦ļ":10740,"à¦¬à¦§à¦²":10741,"à¦Ĩà¦ĩà¦¸à¦ķ":10742,"à¦°à¦ĩà¦¬à¦¨à¦¸":10743,"à¦¦à¦¶à¦®à¦¶":10744,"à¦¨à¦īà¦ªà¦¹":10745,"à¦¦à¦ĩà¦¬à¦¨à¦®":10746,"à¦īà¦Ńà§Łà¦ķ":10747,"à¦°à¦ħà¦ªà¦°à¦¨":10748,"à¦°à¦ıà¦®à¦¨à¦ıà¦ķà¦Ł":10749,"à¦°à¦Ĩà¦²à¦®à¦ķ":10750,"à¦Ķà¦·à¦§à¦¬":10751,"à¦Ĺà¦°à¦®à¦ķ":10752,"à¦Ĺà¦¤à¦®à¦Ļ":10753,"à¦°à¦ĭà¦£à¦¦":10754,"à¦°à¦ªà¦¤à¦¨à¦ĺà¦Ł":10755,"à¦¹à¦°à¦¦à¦°à¦¬":10756,"à¦°à¦°à¦ľ":10757,"à¦¨à¦°à¦ĩ":10758,"à¦ķà¦ĵà¦¤":10759,"à¦ķà¦°à¦ĺà¦Łà¦¨":10760,"à¦ķà¦ıà¦ĩà¦ª":10761,"à¦ķà¦¤à¦¬à¦Ľà¦°à¦¬à§Łà¦¸":10762,"à¦¬à¦ıà¦¸":10763,"à¦¬à¦ĸà¦¨":10764,"à¦¬à¦°à¦Ĩà¦²":10765,"à¦¤à¦ķà¦Ł":10766,"à¦¸à¦ĩ":10767,"à¦¸à§İ":10768,"à¦¸à¦Ĩà¦ĩà¦¨":10769,"à¦®à¦ļà¦²":10770,"à¦²à¦ĩà¦ķ":10771,"à¦²à¦ıà¦®à¦¨":10772,"à¦²à¦ħà¦¬à¦¶":10773,"à¦²à¦ıà¦°à¦®à¦§":10774,"à¦ªà¦°à¦Ń":10775,"à¦ªà¦Ŀ":10776,"à¦ªà¦ĵà¦¯":10777,"à¦ªà¦¢":10778,"à¦¦à¦°à¦«":10779,"à¦¦à¦Ĺà¦£à¦®":10780,"à¦¯à¦°à¦¸":10781,"à§Łà¦ıà¦ª":10782,"à§Łà¦Īà¦¦":10783,"à§Łà¦īà§İà¦¸à¦¬":10784,"à¦¹à¦ħà¦°":10785,"à¦Łà¦¬à¦²à¦²":10786,"à¦Łà¦ıà¦°à¦®":10787,"à¦ľà¦°à¦¯":10788,"à¦¶à§Łà¦¨":10789,"à¦¶à¦¤à¦¦":10790,"à¦¶à¦ĵà¦¤":10791,"à¦¶à¦°à¦ıà¦²à¦¸":10792,"à¦Ĺà¦ĩà¦¨":10793,"à¦Ĺà¦¹à¦ĵà§Ł":10794,"à¦ĩà¦Ĺà¦¤":10795,"à¦ĩà¦ļà¦²à¦¤":10796,"à¦ĩà¦Ĩà¦°à¦¤":10797,"à¦Ĩà¦°à¦Ĩà¦Ĺ":10798,"à¦Ĩà¦°à¦¬à¦°":10799,"à¦ıà¦²à¦®":10800,"à¦ıà¦°à¦ĸ":10801,"à¦ıà¦°à¦ħà¦¬à¦¸":10802,"à¦Ľà¦Ĩà¦®":10803,"à¦ļà¦¶à¦¨":10804,"à¦ļà¦ķà¦°à¦²":10805,"à¦·à¦¯à¦¦":10806,"à¦§à¦ĵà¦¨":10807,"à¦¥à¦¬à¦¸":10808,"à¦ĸà¦¸à¦°":10809,"à¦¡à¦ķà¦°à¦¬":10810,"à¦°à¦¸à§ľ":10811,"à¦°à¦¸à¦¹à¦¨":10812,"à¦«à¦²à¦¹":10813,"à¦°à¦ķà¦¬à¦°à¦¸":10814,"à¦°à¦¬à¦ĩà¦¬":10815,"à¦°à¦¬à§ľà¦Ľ":10816,"à¦°à¦®à¦¹à¦²":10817,"à¦°à¦ªà¦°à¦¡":10818,"à¦°à¦ªà¦°à¦¯à¦¦":10819,"à¦°à¦ªà¦°à¦ħà¦¬à¦¶":10820,"à¦°à¦¤à¦ĩà¦¨":10821,"à¦®à¦¨à¦Ĩà¦²":10822,"à¦®à¦¨à¦Ĩà¦ªà¦¨":10823,"à¦ıà¦ķà¦ĩà¦¨":10824,"à¦ıà¦ķà¦ıà¦ķà¦Ł":10825,"à¦łà¦ħà¦Ń":10826,"à¦łà¦Ĺà§ľ":10827,"à¦ľà¦¨à¦¬à¦°":10828,"à¦ľà¦¨à¦ªà§ľ":10829,"à¦ľà¦¨à¦¸à¦¦à¦¸":10830,"à¦¬à¦²à¦¬à¦¨":10831,"à¦°à¦¨à¦²":10832,"à¦°à¦¹à¦ķà¦¦":10833,"à¦¬à¦¨à¦ķà¦°à¦²":10834,"à¦¨à¦¤à¦ĸà¦¨à¦ķ":10835,"à¦°à¦ħà¦¥":10836,"à¦°à¦¶à¦«":10837,"à¦¨à¦ķà¦Ł":10838,"à¦°à¦ıà¦¸à¦®à§Ł":10839,"à¦°à¦ıà¦ĩà¦ķà¦°":10840,"à¦ĩà¦¨à§Ł":10841,"à¦ĩà¦¨à§Łà¦¸":10842,"à¦ĩà¦¨à¦īà¦¦":10843,"à¦ıà¦ĩà¦ıà¦ķ":10844,"à¦ıà¦ĩà¦Ĩà¦²":10845,"à¦°à¦ļà¦ķà¦°":10846,"à¦¸à¦¬à¦ķà¦Ł":10847,"à¦°à¦Ĺà¦ª":10848,"à¦¶à¦¨à¦ıà¦²":10849,"à¦°à¦Ńà§Łà¦¦":10850,"à¦ķà¦¬à¦°à¦ķ":10851,"à¦¹à¦¤à¦ıà¦¬":10852,"à§Łà¦¨à¦¥":10853,"à§Łà¦¨à¦¹à¦¬":10854,"à§¬à§«à§¦":10855,"à¦¨à¦¦à¦¶à¦ķ":10856,"à¦¯à¦ķà§Ł":10857,"à¦¯à¦ķà¦¶":10858,"à¦¦à¦ķà¦¬à¦²":10859,"à¦¦à¦ķà¦ĵà¦¸":10860,"à¦¦à¦ķà¦ħà¦§":10861,"à¦°à¦§à¦°à¦£":10862,"à¦ķà¦Łà¦¯":10863,"à¦°à¦ĩà¦¥":10864,"à¦¤à¦®à¦Ń":10865,"à¦¤à¦ķà¦ł":10866,"à¦ļà¦¨à¦ľà¦Ļ":10867,"à¦¨à¦Ĩà¦ĸ":10868,"à¦¨à¦Ĩà¦«à¦¸":10869,"à¦¯à¦®à¦®":10870,"à¦¨à¦ľà¦¸":10871,"à¦®à¦¦à¦²":10872,"à¦®à¦²à¦¹":10873,"à¦²à¦¸à¦°à¦¬à¦°":10874,"à¦ĵà¦¬à¦¦à¦²":10875,"à¦¢à¦²":10876,"à¦®à¦ªà¦¶":10877,"à§§à§¯à§©à§¦":10878,"à§§à§¯à§«à§«":10879,"à§§à§¯à§«à§ª":10880,"à¦ĵà¦¸à¦²":10881,"à¦ĵà¦¸à¦ļ":10882,"à¦²à¦ªà¦¡":10883,"à¦ĩà¦ªà¦¡":10884,"à¦ĩà¦ªà¦£":10885,"à§¨à§¦à§¨à§§à§¦à§¦":10886,"à¦ĸà¦¬à¦°à¦ļ":10887,"à¦Ĺà¦¤à¦Ĩà¦ķ":10888,"à¦Ĩà¦°à¦ĵà¦ıà¦ķà¦®":10889,"à¦¨à¦ĵà¦ħ":10890,"à¦īà¦ľà¦¦":10891,"à¦¦à¦²à¦¦":10892,"à¦²à§Łà¦Ń":10893,"à¦¹à¦°à¦°à¦¹à¦®à¦¤":10894,"à¦«à¦²à¦Ł":10895,"à§§à§¨à§©à§¨":10896,"à¦Łà¦¸à¦«":10897,"à¦Ĺà¦¨à¦«à¦²":10898,"à¦¬à¦¤à¦¶":10899,"à§§à§«à§¨à§¦à§¨à§§":10900,"à§§à§®à§©":10901,"à§§à§®à§¬":10902,"à§§à§Ńà§ª":10903,"à¦Łà¦®à¦§":10904,"à¦ªà¦¸à¦¡":10905,"à¦¨à¦ıà¦ĩà¦¯":10906,"à¦¨à¦ıà¦ĩà¦ªà¦°":10907,"à¦¤à¦¹à¦ĩà¦²":10908,"à¦¤à¦¹à¦¨à¦ıà¦¬":10909,"à¦Ĩà¦Łà¦ķà¦Ĺ":10910,"à¦ªà¦¬à¦¯":10911,"à§Łà¦¶à¦¹à¦°":10912,"à¦°à¦ĵà¦ªà¦°à¦¥":10913,"à§¨à§¨à§©":10914,"à¦¨à§Łà¦¨à¦ļ":10915,"à¦¡à¦²à¦ħà¦°":10916,"à¦¤à¦ļà¦²à¦¬":10917,"à¦ķà¦Ľà¦¡":10918,"à¦¤à¦ĸà¦¨à¦¯":10919,"à¦ķà¦ľà¦¨à¦¦":10920,"à¦ķà¦ľà¦¨à¦¶":10921,"à¦®à¦Łà¦°à¦¸":10922,"à¦ĵà¦«à¦¯":10923,"à¦¬à¦ĩà¦ķà¦®":10924,"à§Łà¦ıà¦ķà¦¥":10925,"à§Ńà§¦à§®à§¦":10926,"à¦Ĩà¦¹à¦®à¦¦à¦¬":10927,"à¦Ĩà¦¹à¦®à¦¦à¦Ľà¦«":10928,"à¦īà§İà¦¸à¦¥":10929,"à¦ļà¦«à¦²à¦¨à¦¶":10930,"à¦¤à¦¨à¦¸à¦¹à¦¬":10931,"à¦ıà¦ĸà¦¨à¦ķà¦°à¦£":10932,"à¦«à¦°à¦¯à¦ķ":10933,"à¦¦à¦¨à¦®à¦¤":10934,"à§¦à§¦à§¦à§¦à§¦à§¦":10935,"à¦ķà¦Ĩà¦ªà¦Ń":10936,"à¦ħà¦¤à¦ıà¦¬à¦¤":10937,"à¦°à¦ķà¦®à¦¬à§Łà¦¸":10938,"à¦°à¦¸à¦¹à¦ľà¦īà¦ª":10939,"à¦Ńà¦¬à¦ķà¦°à¦Ľ":10940,"à¦¶à¦®à¦ªà¦£":10941,"à¦Ĩà¦¤à¦¸à¦°à¦¬":10942,"à¦¨à¦°à¦ª":10943,"à¦¨à¦ļà¦²à¦®":10944,"à¦ķà¦ĺà¦°":10945,"à¦ķà¦ħà¦¬à¦¶":10946,"à¦ķà¦ĵà¦Ĺ":10947,"à¦ķà¦ĵà¦ľ":10948,"à¦ķà¦ħà¦¶":10949,"à¦ķà¦ĵà¦ªà¦°":10950,"à¦ķà¦ıà¦¡":10951,"à¦ķà¦ĩà¦¨à¦ķ":10952,"à¦¬à¦ĵà¦¯":10953,"à¦¬à¦ħà¦¬à¦¸":10954,"à¦¬à¦Ĩà¦ĩà¦¨":10955,"à¦¬à¦°à¦Ŀ":10956,"à¦¬à¦°à¦ĵà¦¯":10957,"à¦¤à¦ĩà¦¬à¦¨":10958,"à¦¤à¦ıà¦®à¦¨":10959,"à¦¤à¦īà¦ªà¦ľ":10960,"à¦¤à¦Ĩà¦§":10961,"à¦¤à¦¸à¦¬à¦ķ":10962,"à¦¸à¦¤à¦¨":10963,"à¦¸à¦¶à¦¬":10964,"à¦¸à¦ıà¦ª":10965,"à¦²à¦ħà¦ŀ":10966,"à¦²à¦°à¦Ĩà¦®à¦ľ":10967,"à¦ªà¦ı":10968,"à¦ªà¦¬à¦¸":10969,"à¦ªà¦¹à¦¯":10970,"à¦ªà¦¸à¦¤":10971,"à¦ªà¦Ľà¦¬":10972,"à¦¯à¦Ĩà¦¤":10973,"à¦¯à¦ħà¦¨à¦²":10974,"à¦¯à¦¬à¦²à¦Ľ":10975,"à¦¯à¦Ĩà¦°à¦ķ":10976,"à¦¯à¦Ĩà¦¨à¦¨":10977,"à§Łà¦ļà¦ķ":10978,"à§Łà¦¯à¦¥":10979,"à§Łà¦Ĩà¦ļ":10980,"à§Łà¦ľà¦¨à¦Ĺà¦£":10981,"à§Łà¦ħà¦¸à¦¹":10982,"à¦¹à¦°à¦Ĩà¦²":10983,"à¦¹à¦Ĩà¦¬à¦¦":10984,"à¦Łà¦ī":10985,"à¦Łà¦ļà¦²":10986,"à¦Łà¦°à¦²":10987,"à¦Łà¦¶à¦ķ":10988,"à¦Łà¦®à¦°":10989,"à¦Łà¦Ĩà¦ľ":10990,"à¦Łà¦¶à¦¬":10991,"à¦Łà¦ĵà¦¡":10992,"à¦ľà¦ľà¦¨":10993,"à¦ľà¦Ĩà¦¹à¦®à¦¦":10994,"à¦¶à¦ĩà¦¸":10995,"à¦¶à¦¬à¦²à¦Ľ":10996,"à¦Ĺà¦¨à¦ª":10997,"à¦Ĺà¦ªà¦¦":10998,"à¦Ĺà¦ĵà¦ķ":10999,"à¦Ĺà¦¸à¦®à¦¯":11000,"à¦ĩà¦ıà¦°à¦¬":11001,"à¦ĩà¦ıà¦ĩà¦®":11002,"à¦Ľà¦ĺà¦Łà¦¨":11003,"à¦ļà¦ķà¦ķ":11004,"à¦ļà§Łà¦®":11005,"à¦ļà¦ĩà¦ŀ":11006,"à¦·à¦ĵà¦®":11007,"à¦·à¦ĵà¦ľ":11008,"à¦·à¦ħà¦®":11009,"à¦§à¦ĩà¦¤":11010,"à¦§à¦¬à¦ķ":11011,"à¦§à¦Ĩà¦ķ":11012,"à¦§à¦ľà¦¨à¦¤":11013,"à¦¥à¦¨à¦¨":11014,"à¦¥à¦®à¦ķ":11015,"à¦¥à¦²à¦ľ":11016,"à¦ĸà¦Ĩà¦²":11017,"à¦ĸà¦īà¦ªà¦¸":11018,"à¦ĵà¦¹à¦²":11019,"à¦ĵà¦¸à¦ķ":11020,"à¦ĵà¦ĩà¦ľ":11021,"à¦ĵà¦ĩà¦¸à¦®":11022,"à¦¡à¦ıà¦¨":11023,"à¦¡à¦ªà¦²":11024,"à¦¡à¦ıà¦«":11025,"à¦īà¦ĩà¦¦":11026,"à¦īà¦¡à¦¬":11027,"à¦«à¦ı":11028,"à¦°à¦¬à¦Łà¦¬":11029,"à¦°à¦ªà¦°à¦Ĩà¦°":11030,"à¦°à¦ªà¦°à¦ĵà¦®":11031,"à¦£à§Ł":11032,"à¦£à¦ĵà¦¬":11033,"à¦£à¦ħà¦¬à¦¦":11034,"à§¦à§§à§¬":11035,"à¦°à¦¤à¦«":11036,"à¦°à¦¤à¦ıà¦¬":11037,"à¦ľà¦¨à¦ł":11038,"à¦ľà¦¨à¦¸à¦¹à¦ķ":11039,"à¦¬à¦²à¦¯":11040,"à¦¬à¦²à¦Ĩà¦²":11041,"à¦°à¦¨à§ľ":11042,"à¦°à¦¨à¦²à¦ķ":11043,"à¦°à¦ľà¦ĵà§Ł":11044,"à¦°à¦Ĩà¦ĩà¦ľ":11045,"à¦¹à§Łà¦ıà¦ĺà¦Łà¦¨":11046,"à¦¨à¦¬à§Ł":11047,"à¦ħà¦¨à¦¸":11048,"à¦ĺà¦°à¦Ĺ":11049,"à¦¨à¦ķà¦«":11050,"à¦°à¦ıà¦¤à¦¥":11051,"à¦ıà¦ĩà¦¬à¦¨":11052,"à¦ıà¦ĩà¦Ĩà§Ł":11053,"à¦ıà¦ĩà¦¡à¦¸":11054,"à§©à§§à§¦":11055,"à¦¸à¦¬à¦®à¦¨":11056,"à¦¸à¦¬à¦§à¦°":11057,"à¦¨à¦¨à¦ľ":11058,"à§ªà§ªà§©":11059,"à¦ĩà¦¸à¦°à¦ŀ":11060,"à¦¶à¦¨à¦ı":11061,"à¦¹à¦²à¦ļ":11062,"à¦¹à¦¤à¦Ĺ":11063,"à¦¹à¦¤à¦¡":11064,"à¦¹à¦¤à¦¸à¦®à¦°":11065,"à¦°à¦īà¦ĩà¦Ń":11066,"à¦²à¦¨à§Ł":11067,"à§Ńà§§à§¦":11068,"à¦¨à¦¦à¦¨à¦¦":11069,"à¦®à¦¸à¦¸":11070,"à¦¤à¦¨à¦¬à¦¨":11071,"à¦ķà¦Łà¦Ĺ":11072,"à¦¦à¦¨à¦Ľ":11073,"à¦°à¦²à¦ŀ":11074,"à¦°à¦ĩà¦Ł":11075,"à¦°à¦ĩà¦¨à¦Ń":11076,"à¦·à¦£à¦ħà¦¥à¦¬":11077,"à¦·à¦£à¦¸à¦®à¦¤à¦²à¦ª":11078,"à¦¤à¦®à¦£":11079,"à¦°à¦¸à¦®à§Łà¦²":11080,"à¦Łà¦¨à¦¹":11081,"à¦°à¦«à¦¦":11082,"à¦¸à¦¹à¦Ń":11083,"à¦¨à¦Ĩà¦ķà¦°":11084,"à¦¨à¦Ĩà¦ĩà¦Ł":11085,"à¦¸à¦¨à¦ľ":11086,"à¦¸à¦¨à¦ĸ":11087,"à¦¯à¦®à¦Ĩà§Ł":11088,"à¦¨à¦ľà¦Ļ":11089,"à¦®à¦¦à¦¦":11090,"à¦²à¦¸à¦«":11091,"à¦¨à¦ıà¦¤à¦¥":11092,"à¦¨à¦ıà¦°à¦ªà¦°à¦¸":11093,"à¦¸à¦ķà¦ª":11094,"à§§à§¯à§§à§¯":11095,"à§§à§¯à§ªà§¨":11096,"à§§à§¯à§¬à§«":11097,"à¦ķà¦ªà¦¦à¦ķ":11098,"à¦°à§Łà¦ķà¦°à¦²":11099,"à¦Łà¦ķà¦¹":11100,"à¦²à¦ªà¦Ł":11101,"à§Łà¦¦à¦¹":11102,"à¦¤à¦ªà¦ŀ":11103,"à¦¤à¦¸à¦ŀ":11104,"à§¨à§¦à§¨à§§à§§à§¨à§¦à§¦":11105,"à¦¯à¦ªà¦¦à¦ª":11106,"à¦Ĺà¦¤à¦¹":11107,"à¦¯à¦¤à¦Ĺ":11108,"à¦Ĺà¦²à¦«":11109,"à¦²à¦¹à¦ķà¦¦":11110,"à¦²à¦¹à¦ķà¦¤":11111,"à¦²à¦¹à¦ķà¦ĸ":11112,"à¦²à¦¹à¦ķà¦ł":11113,"à¦¨à¦ĵà¦·":11114,"à¦°à¦īà¦ªà¦°à¦¸à¦¨":11115,"à¦Ĺà¦£à¦¦":11116,"à¦ĩà¦¦à¦¹à¦ľ":11117,"à¦°à¦¡à¦®":11118,
[...]
