#version: 0.2
à §
¦ ¾
à ¦¾
¦ °
à ¦°
à§ ĩ
à§ į
¦ ¿
à ¦¿
¦ ¨
à ¦¨
¦ ķ
à ¦ķ
¦ ¬
à ¦¬
¦ ¤
à ¦¤
¦ ¸
à ¦¸
¦ ®
à ¦®
¦ ²
à ¦²
¦ ª
à ¦ª
¦ ¯
à ¦¯
¦ ¦
à ¦¦
à§ ģ
à¦° à
à¦°à ¦
¦ Ł
à ¦Ł
à§ Ł
à§ ĭ
¦ ¹
à ¦¹
¦ ľ
à ¦ľ
¦ ¶
à ¦¶
¦ Ĺ
à ¦Ĺ
à§ Ģ
¦ ĩ
à ¦ĩ
¦ Ĩ
à ¦Ĩ
¦ ı
à ¦ı
¦ Ľ
à ¦Ľ
¦ ļ
à ¦ļ
¦ ¼
à ¦¼
à¦ķ à¦°
¦ ·
à ¦·
¦ Ń
à ¦Ń
¦ ¥
à ¦¥
¦ §
à ¦§
¦ ĸ
à ¦ĸ
¦ ĵ
à ¦ĵ
¦ ¡
à ¦¡
¦ Ĥ
à ¦Ĥ
¦ ħ
à ¦ħ
¦ ī
à ¦ī
à¦° à¦¸
¦ «
à ¦«
à¦° à¦ķ
à¦° à¦¬
à§ ¨
à¦° à¦®
à¦° à¦ª
¦ £
à ¦£
à§ §
à§ ¦
à¦ª à¦°
à§ ľ
à¦¸ à¦®
à¦° à¦¤
à§ Ĥ
à¦¼ à§ĩ
à§ ĥ
à¦ı à¦ķ
à¦Ĩ à¦®
¦ ł
à ¦ł
à¦¼ à¦¾
à¦¬ à¦²
à¦® à¦¨
à¦° à¦¨
à¦° à¦¦
à¦°à¦ ľ
à¦ľ à¦¨
¦ ģ
à ¦ģ
à¦ħ à¦¨
¦ Ļ
à ¦Ļ
à¦°à¦ Ĩ
à§§ à§
à¦ª à¦¨
à¦ı à¦¬
à¦°à¦ ¹
à¦¹ à§Ł
à¦¨ à¦¬
à¦¾ à¦Ĥ
¦ ŀ
à ¦ŀ
à¦°à¦ £
à¦¨ à¦¤
¦ ĺ
à ¦ĺ
à¦¨ à¦¸
à¦¬ à¦¨
à§¨ à§¦
à¦¬ à¦¸
à¦¬ à¦°
à¦°à¦ ħ
à¦ĵ à§Ł
à¦°à¦ ¶
à¦°à¦ ı
à¦ĩ à¦¨
à¦¾ à¦ģ
à¦² à¦ķ
à¦°à¦ ļ
à¦°à¦ľ à¦¨
à¦¤ à¦¬
à¦¨ à¦ķ
à¦ı à¦ĩ
à§ ©
à¦¨ à¦ª
à¦¸ à¦¬
à¦¹ à¦¬
à§ «
à§ Į
à¦°à¦ Ĺ
à¦Ĩ à¦ªà¦¨
à¦Ĩ à¦²
à¦¶ à¦¨
à§ ª
à¦¨ à¦¨
à¦°à¦ ĵ
à§ Ī
à¦ıà¦ķ à¦Ł
à¦ķà¦° à¦¤
à¦ķ à¦®
à¦ĩ à¦¸
à¦¤ à¦°
à¦² à¦¨
à¦°à¦ Ń
à¦¹ à¦¯
à¦°à¦ ī
à¦ī à¦¨
à¦¿ à¦Ĥ
à¦ķ à¦¬
à¦¹ à¦²
à¦¨ à¦®
à¦° à¦¯
à§ İ
à¦ķ à¦²
à¦¹ à¦¤
à¦¯ à¦¬
à¦ī à¦ª
à§ ®
à§ ¬
à§ Ń
à¦² à¦¬
à¦ı à¦¸
à¦° à¦ķà¦°
à¦°à¦ Ľ
à§Ł à¦¨
à§ ¯
à¦ĵ à¦¯
à¦° à¦²
à¦¨ à¦¦
à¦Ĩ à¦¬
¦ ĥ
à ¦ĥ
à¦ª à¦¤
à¦ķ à¦Ł
à¦® à¦¤
à¦¯ à¦ķ
à¦°à¦ ¥
à¦Ĩ à¦¸
à¦® à¦¸
à¦ĩ à¦²
à¦ĸ à¦¨
¦ Ŀ
à ¦Ŀ
à¦ķ à¦¸
à¦° à¦°
à¦ļ à¦²
à¦¤ à¦¨
à¦°à¦ §
à¦¤ à¦®
à¦¦ à¦ķ
à¦°à¦ «
à§¨à§¦ à§¨
à¦°à¦¸ à¦®
à¦¦ à¦¨
à¦· à¦£
à¦ĩ à¦ķ
à¦¤ à¦ķ
à¦°à¦ ĩ
à¦ī à¦¦
à¦² à¦¤
à¦¯ à¦¦
à¦¯ à¦®
à§Ł à¦¸
à¦ĩ à¦¤
à¦ĩ à¦¬
à¦°à¦® à¦§
à¦ļ à¦¨
à¦°à¦ª à¦°
à¦² à¦®
à¦§ à¦°
à¦¸ à¦¹
à¦Ł à¦¨
à¦°à¦ ĸ
à¦¨ à¦Ĩ
à¦¯ à¦¨
à¦² à¦¸
à¦ķ à¦¦
à¦ĩ à¦®
à¦¸ à¦¨
à¦ĩ à¦Ł
à¦ķ à¦¤
à¦ħ à¦°
à¦® à¦¦
à¦® à¦¬
à¦¸ à¦°
à¦ı à¦Ł
à¦¨ à¦ľ
à¦¨ à¦ķà¦°
à¦¸ à¦ª
à¦ķ à¦ª
à¦® à¦¹
à¦°à¦ Ł
à¦¨ à¦Ĺ
à¦Ĩ à¦°
¦ ¢
à ¦¢
à¦¨ à¦¯
à¦ħ à¦Ń
à¦ķ à¦ķ
à§§à§ ¯
à§§ à§¦
à¦¨ à¦Ń
à¦¶ à¦ķ
à¦ª à§ľ
à¦® à¦²
à¦¬ à¦ķ
à¦¸ à¦ķ
à¦¨ à¦°
à¦Ĩà¦® à¦°
à¦Ĩ à¦Ĺ
à¦¨ à¦ı
à¦Ĩ à¦Ľ
à¦Ĩ à¦¨
à¦® à¦ķ
à¦Ł à¦ķ
à¦ª à¦ķ
à¦¤ à¦ķà¦°
à¦ª à¦¦
à¦°à¦ħ à¦¨
à¦ĵ à¦¸
à¦¬ à¦¬
à¦® à¦°
à¦¯à¦¬ à¦¹
à§Ł à¦¬
à¦ĵ à¦¬
à¦¦ à¦°
à¦¯ à¦¸
à¦ķ à¦¨
à¦ħ à¦¬
à¦ĩ à¦ª
à¦Ĺ à¦¤
à¦² à¦ª
à¦¼ à¦¿
à¦¯ à¦¬à¦¸
à§¨à§¦à§¨ à§¨
à¦® à¦ª
à¦ĩà¦¸ à¦²
à¦¨ à¦¶
à¦Ĩ à¦ľ
à¦° à§Ł
à¦Ĺ à¦²
à¦ĵ à¦ª
à¦¬ à¦ª
à¦ĩ à¦°
à§Ł à¦ķ
à¦¯ à¦¤
à¦¬ à¦Ľ
à¦¦ à¦¸
à¦ī à¦¤
à¦¤ à¦ª
à¦¤ à¦¸
à¦°à¦¸ à¦Ļ
à¦¹ à¦ļ
à¦ĩ à§Ł
à¦¯ à¦ª
à¦Ĺ à¦ŀ
à¦¸ à¦Ń
à§Ł à¦ª
à§Ł à¦¤
à¦² à¦¹
à¦ĩ à¦¡
à¦ĩ à¦ľ
à§Ł à¦¦
à§ĩ à¦¾
à¦ķà¦° à¦¬
à¦°à¦® à¦¤
à¦ī à¦ľ
à¦² à¦Ĺ
à¦ľ à¦®
à¦¤ à¦¥
à§Ł à¦®
à¦¶ à¦¬
à¦ĸ à¦¤
à¦ı à¦²
à§§ à§¨
à¦°à¦ī à¦ª
à¦¨ à¦Ł
à¦¸ à¦°à¦ķ
à¦ķ à¦¥
à¦ĩ à¦Ń
à¦¶ à¦°
à¦ĸ à¦¬
à¦Ĺ à¦°
à¦¨ à¦ĵ
à¦¹ à¦®
à¦¨ à¦¹
à¦°à¦ ¡
à¦¨ à¦®à¦¨
à¦°à¦¬ à¦°
à¦¬ à¦¦
à¦¤ à¦¦
à§§à§ ®
à¦· à§Ł
à¦Ĺ à¦¬
à¦ª à¦¡
à¦°à¦Ĩ à¦Ĺ
à§§à§ «
à¦ı à¦®à¦¨
à¦ħ à¦¸
à¦Ł à¦¬
à¦¸à¦® à§Ł
à¦§ à¦¨
à¦Ĩ à¦°à¦ĵ
à¦ħ à¦¤
à¦« à¦²
à§ģ à¦ģ
à¦¬ à¦¹
à¦Ĺ à¦£
à¦¨ à¦ļ
à¦ĩ à¦ī
à¦ħ à¦§
à¦°à¦ ĺ
à¦°à¦ı à¦ķà¦Ł
à¦ĩ à¦¦
à¦² à§Ł
à¦ķà¦° à¦²
à§§à§ Ń
à§§à§ ª
à¦ľ à¦¬
à¦Ĩ à¦ķ
à¦Ł à¦¸
à¦ī à¦²
à¦¤ à¦¹à§Ł
à¦· à¦ķ
à¦¨ à¦ıà¦¬
à¦°à¦¹ à¦®
à¦°à¦ķ à¦¥
à§¦ à§¦
à¦Ĩ à¦¦
à¦¸ à¦²
à¦ı à¦ĸ
à¦Ł à¦ª
à¦ĵ à¦¤
à§İ à¦¸
à¦¹ à¦¸
à¦ı à¦ĸà¦¨
à¦ı à¦®
à¦ī à¦ł
à¦īà¦ª à¦ľ
à§§à§ ¬
à¦¤ à¦¤
à¦ľ à¦¸
à¦Ł à¦Ĺ
à¦² à¦Ń
à¦¬ à¦¤
à¦ħ à¦ª
à¦¼ à§ĭ
à¦¦ à¦ª
à§§à§ ©
à¦°à¦ħ à¦Ń
à¦¶ à¦¤
à¦ī à¦ļ
à¦°à¦® à¦£
à¦°à¦ī à¦¦
à¦ĩ à¦¯
à¦® à¦®
à¦ķ à¦°à¦Ľ
à¦ļ à¦Ł
à¦ħ à¦¬à¦¸
à¦¸ à¦¸
à¦Ľ à¦¬
à¦ħ à¦«
à¦ĵ à¦®
à¦ķ à¦Ń
à¦¦ à¦²
à¦¹ à¦°
à¦¸ à¦¤
à¦ĵ à¦ķ
à¦ĺ à¦Łà¦¨
à¦Ĺ à¦¨
à¦ĵ à¦Ń
à¦¦ à¦¶
à¦ĩ à¦īà¦¨
à¦ı à¦¨à¦ª
à¦Ł à¦®
à¦· à¦¤
à¦¬ à¦¶
à¦ľ à¦°
à¦² à¦¦
à¦¨ à¦²
¦ Ī
à ¦Ī
à¦°à¦ı à¦ķ
à¦« à¦¤
à¦°à¦® à¦¨
à¦ĩ à¦¹
à¦¸ à¦¦
à¦¸à¦® à¦¸
à¦® à¦ķà¦°
à¦¥ à¦¨
à¦°à¦¹ à¦£
à¦° à¦°à¦¹à¦®
à¦Ĩ à¦ĩà¦¨
à¦°à¦¥ à¦®
à¦ħ à¦ªà¦°
à¦ıà¦ķ à¦ľà¦¨
à¦¬à¦² à¦²
à¦Ĺ à¦ł
à¦ĵ à¦¨
à¦ī à¦Ł
à¦Ľ à¦¨
à¦ı à¦¨
à¦ĸ à¦²
à¦¶ à¦ķà¦°
à¦¨ à¦Ĩà¦®
à¦« à¦°
à¦¶ à¦¸
à¦¦ à¦®
à¦¶ à¦ª
à¦ľ à¦¶
à§§ à§§
à¦· à¦¦
à¦· à¦¯
à¦¤ à¦¹
à¦ļ à¦ķ
à¦² à¦¯
à¦ħ à¦ķ
à¦ĵ à¦¦
à¦ķ à¦¶
à¦² à¦ľ
à¦Ĺ à¦ķà¦°
à¦ĩ à¦«
à¦§ à¦¬
à¦¸à¦® à¦¯
à¦Ĩ à¦¶
à¦¯ à¦ķà¦°
à¦² à¦ĩà¦¸à¦²
à§¨ à§ª
à¦® à¦ľ
à¦® à¦Ĺ
à¦Ĩ à¦¤
à¦°à¦¸ à¦Ń
à¦Ł à¦ķà¦°
à¦ª à¦¸
à¦¤ à¦²
à¦ĩ à¦ļ
à¦¥ à¦¬
à¦ı à¦¤
à¦ĺ à¦°
à¦ı à¦ª
à§Ł à¦Ĺ
à¦ĺ à¦Ł
à¦¨ à¦«
à¦¯ à¦°
à¦ŀ à¦ª
à¦Ń à¦°
à¦® à¦¶
à¦ķ à¦ķà¦°
à§ ·
à§Ł à¦°
à§© à§¦
à¦°à¦ķ à¦²
à¦Ĺ à¦¦
à¦¨ à¦¡
à¦ľ à¦ķà¦°
à¦Ń à¦¬
à¦°à¦£ à¦ķà¦°
à¦ķ à¦ļ
à¦® à¦§
à¦¨ à¦¥
à§¨à§¦à§¨ à§§
à¦¦ à¦¬
à¦ª à¦¬
à¦² à¦ķà¦°
à¦¨ à¦ĸ
à¦¨ à¦ªà¦°
à¦¯ à¦¥
à§¨ à§«
¦ Ĳ
à ¦Ĳ
à¦¬à¦Ľ à¦°
à¦°à¦Ĩ à¦²
à¦ı à¦Ĺ
à¦¶ à¦¦
à¦² à¦°
à¦¨ à§Ł
à¦°à¦ı à¦¬
à¦ĵ à¦²
à¦¤ à¦¹à¦¯
à¦¬ à¦®
à¦¶ à¦¹
à¦ľ à¦ª
à¦°à¦ķ à¦®
à¦Ĺ à¦®
à§ĩ à¦ģ
à¦ħà¦¨ à¦²
à¦¶ à¦Ĺ
à¦ª à¦²
à¦£ à¦¬
à§ĭ à¦ģ
à¦Ĩ à§Ł
à¦¬à¦² à¦¤
à¦¹ à¦ķ
à¦ľ à¦²
à¦ıà¦¸ à¦¸
à§İ à¦ķ
à¦§ à¦ķà¦°
à¦°à¦Ĩ à¦®
à¦ı à¦¦
à¦ľ à¦ķ
à¦°à¦¸ à¦¬
à¦¨ à¦¸à¦®
à¦² à¦¥
à¦§ à¦°à¦¨
à¦¨ à¦ıà¦ĩ
à¦¡ à¦²
à¦¼ à§Ģ
à¦ı à¦°à¦ª
à¦² à¦Ł
à¦ħà¦¬ à¦¶
à¦ĩ à¦¶
à¦· à¦®à¦¤
à¦¤ à¦ľ
à¦Ĩ à¦ĵà§Ł
à¦°à¦¬ à¦¨
à¦¸ à¦Ł
à¦ī à¦ķ
à¦¡ à¦ķ
à¦Ł à¦¦
à¦¤ à¦Ń
à¦ĵ à¦°
à¦ľà¦¨ à¦ª
à¦¡ à¦¸
à¦Ł à¦°
à¦ī à§İ
à§¨à§¦ à§¦
à¦² à¦«
à¦§ à¦¤
à¦· à¦®
à¦¸ à¦ķà¦°
à¦ĩ à¦Ĺ
à¦¯ à¦¶
à¦ļ à¦°
à¦°à¦ħ à¦§
à¦°à¦ĸ à¦¬
à¦¨ à¦Ĩà¦ªà¦¨
à¦¤ à¦Ľ
à¦Ĺ à¦¬à¦¨
à¦² à¦²
à¦Ĩ à¦Łà¦ķ
à¦¼ à§ģ
à¦¹ à¦ľ
à§¨ à§®
à§Ł à¦¶
à¦īà¦ª à¦¸
à¦¬ à§ľ
à¦¹ à¦ĵà§Ł
à¦Ĩ à¦°à¦¬
à¦¨ à¦ħ
à¦Ĺ à¦ª
à¦ķ à¦Ĺ
à¦¤ à¦¶
à§¨ à§©
à¦® à¦¯
à¦ı à¦«
à¦ı à¦¸à¦¬
à¦¸ à¦«
à¦ĵ à¦ľ
à¦¡ à¦¬
à¦ª à¦£
à§¨ à§¯
à¦¹à§Ł à¦¨
à¦°à¦Ĩ à¦¬
à¦°à¦ļ à¦¨
à¦ª à¦Ł
à¦Ĩ à¦ĩ
à¦¸ à¦ļ
à¦¨ à¦ħà¦¨
à¦ĸ à¦¹
à¦ķ à¦¸à¦®
à§« à§¦
à¦¸ à¦Ļ
à¦°à¦ħ à¦°
à¦¯ à¦ĸ
à¦² à¦ļ
à¦°à¦¸ à¦°
à¦¦ à¦¦
à¦ķ à¦¯
à¦¯ à¦ľ
à¦°à¦¸ à¦¨
à¦¤ à¦ĸ
à¦ķ à¦ľ
à¦¬ à¦¡
à¦ĩ à¦Ĩà¦®
à¦°à¦ĵ à¦ª
à§¨ à§¬
à¦ª à¦¥
à¦ķ à¦¹
à¦® à¦ļ
à¦¯ à¦¯
à§¨à§¦ à§¨à§¦
à¦ıà¦ĩ à¦¬
à¦°à¦ª à¦ķ
à¦°à¦Ĩ à¦¨
à¦ª à¦¶
à¦ĵ à¦¶
à¦ķ à¦ªà¦°
à¦¾ à¦ĥ
à§ĭ à¦ĥ
à¦¥ à¦®
à¦· à¦¸
à¦°à¦Ĺ à¦²
à¦ľ à§Ł
à¦² à¦Ľ
à¦ıà¦ķ à¦¬
à¦¸ à¦ķà¦²
à¦Ĺ à§ľ
à¦Ĩ à¦¹
à¦· à¦ķà¦°
à¦² à¦¶
à¦Ĩà¦ľ à¦ķ
à¦Ł à¦¬à¦²
à¦°à¦« à¦²
à¦¨ à¦Ľ
à¦ı à¦Ľ
à¦ķ à¦°à¦£
à¦ıà¦ĩ à¦ļ
à§¨ à§Ń
à¦¨ à¦¬à¦²
à¦ľà¦¨ à¦ķ
à¦¡ à¦®
à§Ł à¦¯
à¦¬ à¦Ļ
à¦¹à§Ł à¦¤
à¦¶ à¦®
à¦Ł à¦²
à¦ĩ à¦Ľ
à¦°à¦ª à¦¤
à¦Ĩ à¦ª
à§Ł à¦ľ
à¦Ĺ à¦¸
à§Ł à¦Ń
à¦Ł à¦Ł
à§¨ à§¨
à¦°à¦ī à¦¤
à¦¨ à¦ıà¦ķ
à¦¡ à¦ª
à¦¤ à¦Ĺ
à§® à§¦
à¦¬ à¦ľ
à¦ĵ à¦ļ
à¦¬à¦² à¦Ľ
à¦Ł à¦¤
à¦Ł à¦ľ
à¦¨ à§Łà¦¨
à¦¯ à¦Ĺ
à¦Ĺ à¦²à¦¨
à¦ĩ à¦¨à¦¸
à¦¦ à¦ķà¦°
à¦°à¦® à¦¹
à¦Ĺ à¦ķ
à¦¨ à¦Ĩà¦²
à¦ĺ à¦¨
à¦° à¦ķà¦°à¦¤
à¦°à¦¸ à¦¹
à¦² à¦Ĩ
à¦°à¦¸à¦® à¦¯
à¦Ĩà¦¸ à¦Ľ
à¦¤ à¦¹à¦¬
à§¨ à§§
à¦ħ à¦Ĺ
à¦¸ à¦¦à¦¸
à¦ıà¦ĩ à¦ª
à¦· à¦ª
à¦¡ à¦¨
à§ª à§¦
à¦ĵ à¦Ĺ
à¦ļ à¦®
à¦°à¦¸ à¦ķ
à¦°à¦¶ à¦°
à¦Ĩà¦¸ à¦²
à¦¶à¦¨ à¦ĵà¦Ń
à¦ıà¦ĩ à¦¸
à¦£ à¦¨
à¦°à¦£ à¦¸à¦®
à¦°à¦ī à¦ªà¦°
à¦°à¦Ĩ à¦°
à¦£ à¦®
à¦°à¦®à¦£ à¦Ĺ
à¦ª à¦®
à¦ķ à¦ĸà¦¨
à¦®à¦¨ à¦¸
à¦¦ à¦¤
à¦Ł à¦«
à¦ĩ à¦ķà¦°
à¦Ĩ à¦°à¦ķ
à¦° à¦²à¦ķ
à¦ľ à¦¤
à¦°à¦¹à¦£ à¦ķà¦°
à¦ķ à¦Ľ
à¦¿ à¦ĥ
à¦°à¦¬ à¦²
à¦® à§Ł
à¦ĵ à¦ł
à¦ļ à¦¤
à¦ĸ à¦ķ
à¦¯ à¦ĸà¦¨
à¦¤ à¦ļ
à¦¤ à¦Ł
à¦ĵ à¦¹
à¦°à¦¹ à§Ł
à¦§ à¦ķ
à¦¶ à¦Ł
à§¨à§¦ à§§à§¯
à¦°à¦ĵ à¦¬
à¦ª à¦ª
à¦ī à¦ĩà¦ķ
à¦· à¦¨
à¦ıà¦ķ à¦¦
à¦® à¦¡
¦ ĭ
à ¦ĭ
à¦°à¦¨ à¦¤
à¦°à¦ Ļ
à¦°à¦ĺ à¦Łà¦¨
à¦ļà¦² à¦Ľ
à¦°à¦§ à¦°
à¦īà¦ª à¦²à¦ķ
à¦ı à¦°
à¦¨à¦¬ à¦¨
à¦£ à¦ķ
à¦ħ à¦²
à¦¤ à¦°à¦£
à¦ıà¦®à¦¨ à¦ķ
à¦Ĩà¦Ĺ à¦¸
à¦ĵ à¦¸à¦®
à¦¤ à¦ĸà¦¨
à¦ĵ à¦ħà¦¨
à¦Ĩà¦¬ à¦¦
à¦¤ à¦«
à¦£ à¦ª
à¦¸à¦¬ à¦ļ
à¦Ĺ à¦²à¦¬
à¦¬ à¦Ń
à¦¹ à¦¨
à¦īà¦¨ à¦²
à¦ķ à¦«
à¦ħ à¦®
à¦°à¦ĩ à¦¤
à¦Ĺà¦ł à¦¨
à¦· à¦¬
à¦ı à¦°à¦¸
à¦¯ à¦Ń
à¦Ľ à¦°
à¦ľà¦¨ à¦ķà¦°
à§Į à¦ģ
à¦¶ à¦²
à¦ľ à¦Ł
à¦¸ à¦ľ
à¦Ĩ à¦¯
à¦ħ à¦¥à¦¬
à¦ľ à¦¦
à¦ĸ à¦°
à¦°à¦ Ŀ
à¦ł à¦ķ
à¦Ĩ à¦°à¦ı
à¦² à¦¡
à¦ľ à¦¯
à¦ľ à¦§
à¦¤ à¦ªà¦°
à¦°à¦ª à¦¥
à¦® à¦Ł
à¦¯ à¦¹
à¦ħ à¦ŀ
à¦¤ à¦¯
à¦°à¦īà¦ª à¦ľ
à¦ī à¦¡
à¦¬ à¦¯
à¦Ĩ à¦§
à§Ł à¦¹
à¦°à¦¦ à¦°
à¦°à¦¸ à¦¦à¦¸
à§¨à§¦ à§§à§®
à§Ł à¦ļ
à¦Ń à¦ķ
à¦¨à¦¤ à¦¬
à¦ĸ à¦®
à¦·à§Ł à¦Ł
à¦°à¦Ĩ à¦¶
à¦°à¦¤ à¦¥
à¦Ľ à§ľ
à¦ķ à¦ĸ
à¦ĩà¦ī à¦°
à¦ı à¦¡
à¦¯ à¦®à¦¨
à¦Ł à¦Ń
à¦ĵ à¦ªà¦°
à¦ı à¦¶
à¦ī à¦®
à¦Ł à¦¹
à¦ķ à¦¡
à¦ĺ à¦£
à§Ł à¦ķà¦°
à¦² à¦ĸ
à¦ļ à¦¬
à¦ľ à¦¹
à¦¥ à¦ķ
à¦¾ à§ĩ
à¦¤ à¦ķà¦°à¦¤
à¦Ī à¦¦
à¦ĩ à¦ĸ
à¦¸à¦¹ à¦ľ
à¦ī à¦¬
à¦Ĩ à¦¹à¦®
à¦¯ à¦Ł
à¦Ĺ à¦ľ
à§Ł à¦²
à¦Ĩ à¦«
à¦ľà¦¨ à¦¸
à§© à§«
à¦ĸ à¦Ľ
à¦ĩà¦¨ à¦®
à¦Ŀ à¦¤
à¦£ à¦¸
à¦°à¦ħ à¦¬à¦¸
à¦°à¦¸ à¦®à¦¸
à¦² à¦ªà¦°
à¦Ĩ à¦¨à¦¨
à¦ĵ à¦Ł
à¦ĩ à¦¥
à¦« à¦Ł
à§ľ à¦ķ
à¦¨ à¦īà¦¤
à¦¦ à¦¹
à¦°à¦ ł
à¦¯ à¦ħà¦¨
à¦°à¦¸à¦® à§Ł
à¦ľ à¦Ĺ
à¦® à¦ĸ
à§ª à§«
à¦ĩ à¦¬à¦¨
à¦¦ à¦ľ
à¦ī à¦°
à¦® à¦¥
à¦¸à¦® à¦°
à¦¡ à¦Ł
à¦ı à¦®à¦ª
à¦²à¦¨ à¦ķà¦°
à¦¸à¦¬ à¦ķ
à¦¡ à¦ķà¦°
à¦² à¦ıà¦¬
à¦ı à¦°à¦¬
à¦Ł à¦¥
à¦£ à¦¤
à¦ı à¦Ń
à¦ķ à¦ľà¦¨
à§¬ à§¦
à¦°à¦ĵ à§Ł
à¦®à¦¸ à¦ľ
à¦īà§İ à¦ª
à¦°à¦ı à¦ĩ
à¦² à¦Ĩà¦®
à¦¨ à¦§à¦°
à¦® à¦Ń
à¦ı à¦°à¦ķ
à¦°à¦¹ à¦¤
à¦ħ à¦¶
à§© à§©
à¦ŀ à¦¤
à¦ķ à§Ł
à¦°à¦Ĺ à¦ŀ
à¦ıà¦¸ à¦ıà¦¸à¦¸
à¦ĸ à¦ķà¦°
à¦¤ à¦¹à¦²
à¦ļà¦² à¦¤
à¦¦ à¦Ĺ
à¦Ĩ à¦¹à¦¤
à¦¨ à¦ıà¦ķà¦Ł
à¦® à¦Ļ
à¦¬ à¦Ĺ
à¦Ĩà¦¸ à¦¤
à¦Ĩ à¦°à¦¸
à¦Ń à¦¬à¦¨
à¦ĩ à¦¸à¦®
à¦¬à¦² à¦¬
à¦°à¦ī à¦¨
à¦¬ à¦¸à¦®
à¦¥ à¦²
à¦°à¦ ŀ
à¦°à¦ħ à¦¸
à¦Ĩ à¦ªà¦¡
à¦¨à¦ķ à¦®
à¦ıà¦ķ à¦®
à¦ķ à¦ł
à¦¸ à¦Ĺ
à¦¨ à¦Ĩà¦¬
à¦Ł à¦ĸ
à¦°à¦ ¢
à¦¶ à¦ľ
à¦Ĩ à¦¸à¦¬
à¦Ĩ à¦ļ
à¦°à¦¸ à¦°à¦ķ
à¦Ĳ à¦¤
à§¨à§¦ à§§à§Ń
à¦¯ à¦²
à¦ħ à¦ľ
à¦¶ à¦«
à¦Ľ à¦¥
à¦· à¦°
à§ģ à¦ĥ
à§§à§¦ à§¦
à§© à§§
à¦ĵ à¦¡
à¦¤ à¦¸à¦®
à§¯ à§¯
à¦ª à¦ķà¦°
à¦°à¦Ĩ à¦ķ
à¦¤ à¦¹à¦¤
à¦§ à¦¨à¦ķà¦°
à¦¸ à¦¡
à§Ń à§¦
à¦°à¦Ĩ à¦¤
à¦ĸ à¦Ł
à¦§ à¦®
à¦°à¦Ĩ à§Ł
à¦· à¦ľ
à¦¯ à¦¤à¦®
à§Ł à¦«
à¦ĩ à¦¨à¦¬
à¦°à¦Ĺ à¦¤
à¦ĵ à¦ĸ
à¦® à¦«
à¦ı à¦°à¦®
à§Ł à¦ªà¦°
à§ª à§©
à¦Ī à¦¶
à¦ĩ à¦ŀ
à¦ªà¦¨ à¦ķà¦°
à¦°à¦Ľ à¦¬
à¦ķ à¦²à¦ķ
à¦ĩ à¦īà¦ª
à¦¡ à¦Ń
à¦¦ à¦ķà¦®
à¦² à¦Ĩà¦²
à¦¹ à¦ª
à¦§ à¦¸
à¦ĩà¦« à¦¸
à¦· à¦¥
à¦°à¦Ĩ à¦¸
à¦¶ à¦Ń
à¦ĵ à¦Ĩà¦®
à¦¦à¦¨ à¦ķà¦°
à§Ń à§«
à¦¯ à¦ļ
à¦ıà¦ĩ à¦¦
à¦ĩà¦¨ à¦ķ
à¦ľ à¦ľ
à¦¨à¦ľ à¦°
à¦¦ à¦Ł
à¦· à¦ªà¦°
à¦¬ à¦°à¦¸
à¦Ĺ à¦Ń
à¦°à¦ħ à¦ª
à¦ıà¦ĩ à¦ķ
à¦ıà¦ĩ à¦®
à¦¤ à¦°à¦¦
à¦¨ à¦ĵà¦ª
à¦Ł à¦ļ
à¦ļà¦² à¦ļ
à§ª à§ª
à¦°à¦Ĩ à¦¦
à¦¬ à¦ķà¦°
à¦Ĺ à¦¡
à¦ĵ à¦ĩ
à¦°à¦¸ à¦ķà¦²
à¦ıà¦¸ à¦ª
à¦°à¦¹ à¦¸
à§Ł à¦ħà¦¨
à¦°à¦ĵ à¦¯
à¦ľà¦¨ à¦¨
à¦« à¦¸
à¦¬ à¦ļ
à¦¨ à¦ķà¦°à¦¤
à¦£ à¦¦
à¦°à¦ķ à¦¬
à¦¹ à¦¹
à¦¤ à¦ıà¦¬
à¦ª à¦°à¦¬à¦°
à¦Ĩ à¦Ł
à¦Ń à§Ł
à§© à§¬
à¦¨ à¦Ĩà¦®à¦°
à¦ı à¦°à¦®à¦§
à¦ĵ à¦«
à¦°à¦¸à¦¬ à¦ļ
à¦¶ à¦¹à¦°
à¦īà¦ª à¦ķ
à¦ª à¦Ĺ
à¦ľ à¦¥
à§ľ à¦¤
à¦°à¦ı à¦²
à¦¸ à¦ł
à¦°à¦ª à¦¦
à¦ľà¦¨ à¦Ĺà¦£
à¦¯ à¦¸à¦®
à¦¦ à¦¸à¦®
à¦¨ à¦ıà¦Ł
à¦¨ à¦ħà¦¤
à¦ĩà¦ī à¦ķ
à¦¶ à¦¶
à¦ľ à¦¡
à¦£ à¦ķà¦°
à¦īà¦¦ à¦¯
à¦¹ à¦ĵà¦¯
à¦¨ à¦¹à§Ł
à¦¨à¦Ĩ à¦Ĺ
à¦Ĩ à¦°à¦¤
à¦·à¦£ à¦ķà¦°
à¦® à¦Ľ
à¦¬ à¦ĩ
à§§à§¯ à§¯
à¦°à¦Ĩ à¦ªà¦¨
à¦ī à¦ªà¦¨
à¦¥ à¦¸
à¦ī à¦ªà¦°
à§« à§«
à¦ī à¦¸
à¦ıà¦ķ à¦¸
à¦® à¦Ĩà¦®
à¦°à¦ĩ à¦īà¦¨
à¦® à¦£
à¦²à¦ķ à¦²
à¦¯ à¦ıà¦ķà¦Ł
à¦ĩ à¦Ĩà¦ªà¦¨
à§Ł à¦Ł
à¦Ĺ à¦¤à¦ķ
à¦Ł à¦Ľ
à¦Ĩ à¦ĩà¦¸
à¦°à¦ħ à¦ķ
à¦¤ à¦ħà¦¨
à¦°à¦¬ à¦ķ
à¦°à¦ĵ à¦¸
à¦ĩ à¦¬à¦²
à¦¥ à¦ª
à¦® à¦Ĺà¦ŀ
à¦Ĺ à¦¤à¦¬
à¦²à¦¹ à¦ķ
à§© à§ª
à¦Ń à¦¯
à¦ļ à§Ł
à¦ª à¦·
à¦¯ à¦ªà¦°
à¦· à§Łà¦ķ
à¦¦ à¦°à¦ķ
à¦°à¦Ĩ à¦¹
à¦°à¦ĩ à¦¨
à¦°à¦ĵ à¦ªà¦°
à¦Ł à¦¶
à¦ª à¦ļ
à¦£ à¦Ń
à¦¶ à¦¨à¦¸
à¦ľ à§ľ
à¦Ń à¦ķà¦°
à¦¸ à¦²à¦®
à¦°à¦ħ à¦¤
à¦¨à¦Ĺ à¦°
à¦°à¦® à¦ľ
à¦¬ à¦§
à¦ı à¦ĩà¦¨
à¦°à¦¹ à¦¯
à¦¨à¦¸ à¦°à¦ķ
à¦¬ à¦°à¦¨
à¦¶ à¦¨à¦¬
à¦īà§İ à¦¸à¦¬
à¦¹ à¦«
à¦°à¦ĸ à¦¬à¦°
à¦°à¦£ à¦¬
à¦°à¦£ à¦¸
à¦¦ à¦ķà¦¬
à¦¦ à¦°à¦¬
à¦¤ à¦°à¦¬
à§§à§¯ à§Ń
à§¨à§¦ à§§à§¬
à¦ĵ à¦ķà¦°
à¦® à¦ªà¦°
à¦°à¦¥ à¦®à¦¬
à¦¹à§Ł à¦¸
à¦°à¦¦ à¦²
à¦°à¦ ·
à¦® à¦ıà¦¬
à§Ł à¦£
à¦¬ à¦°à¦¬
à¦¸ à¦¶
à¦Ĺ à¦Ľ
à§Ł à¦¸à¦®
à¦ķ à¦ħà¦¨
à¦Ĩà¦¹ à¦®à¦¦
à¦°à¦¹ à¦²
à¦¨ à¦§
à¦¸ à¦¥
à¦®à¦¨ à¦ķ
à¦ħ à¦Ļ
à¦°à¦£ à¦ķ
à§Ł à¦ĸ
à¦¶ à¦¥
à¦¬à¦² à¦®
à¦Ł à¦ªà¦°
à§İ à¦ª
à¦ĩ à¦ħà¦¨
à¦°à¦Ĩ à¦ĵà¦¤
à¦ļ à¦¯
à¦¶ à¦¯
à¦ĩ à¦ªà¦°
à¦¦ à¦¨à¦¬
à¦¹à¦¯ à¦°à¦¤
à¦¬à¦Ľ à¦°à¦¬
à¦°à¦¹ à¦¬
à¦ķ à¦ĵ
à¦Ł à¦°à¦¸
à§© à§®
à¦ľà¦¨ à¦¬
à¦¤ à¦°à¦Ĺ
à¦¹ à¦ķà¦°
à¦¥ à¦°
à¦§ à¦ª
à¦· à¦ķà¦¦
à¦°à¦¦ à¦ķ
à¦°à¦ Ī
à¦® à¦¹à¦¤
à¦¥ à¦¤
à¦· à¦Ł
à¦ĩà¦ī à¦Ł
à¦ħ à¦¦
à¦ī à§ľ
à§¯ à§¦
à¦¡ à¦°
à§© à§Ń
à¦ľ à¦ķà¦°à¦¤
à¦¨à¦Ĩ à¦°
à¦°à¦ľ à¦®
à§ª à§®
à¦ı à¦ľ
à¦¯ à¦Ĩà¦®
à¦¦ à¦¯
à¦® à¦¸à¦®
à¦ı à¦°à¦Ĩà¦Ĺ
à¦°à¦ĩ à¦®
à¦°à¦¸ à¦¦
à§¨à§¦ à§§à§«
à¦Ń à¦Ł
à¦Ĩ à¦ĩà¦¡
à¦¸à¦¹ à¦ķ
à¦Ł à¦¸à¦®
à¦°à¦£ à¦®
à¦°à¦ı à¦¸
à¦¨ à¦ľà¦¨
à¦¤ à¦¦à¦¨
à¦ĩ à¦¸à¦¬
à§ª à§¬
à¦¨ à¦ħà¦Ń
à¦ķ à¦ıà¦¬
à¦Ĩà¦² à¦®
à¦¬ à¦°à¦¦
à¦°à¦ħ à¦«
à¦°à¦ĺ à¦°
à¦ªà§ľ à¦¤
à¦¶à¦¨ à¦ķà¦°
à¦°à¦£ à¦¤
à¦Ł à¦¡
à¦¨à¦¬ à¦°
à¦¨ à¦ħà¦°
à¦ĩ à¦®à¦¨
à¦Ĩ à¦°à¦®
à§Ł à¦Ľ
à¦°à¦ļ à¦²
à¦Ĩà¦¸ à¦¨
à¦¡ à¦¦
à¦ħ à¦Ł
à¦¡ à¦¹
à¦°à¦ī à¦ļ
à¦§ à¦¦
à¦² à¦ħà¦¨
à¦¦ à¦«
à¦ª à¦¯
à¦¤ à¦°à¦ª
à¦¶ à¦ĸ
à§® à§®à§¦
à¦¨à¦ķ à¦°à¦Ľ
à¦Ĩ à¦ķà¦°
à¦² à¦¸à¦®
à¦¦ à¦£
à¦¤ à¦¹à¦ļ
à¦Ĺ à¦Ĺ
à¦ĸ à¦¸
à§ª à§Ń
à§Ł à¦Ĩà¦®
à§ľ à¦Ľ
à§¨à§¦à§¨ à§©
à¦¯ à¦ıà¦¬
à¦¦ à¦¨à¦ª
à¦ª à¦ľ
à§ľ à¦¬
à¦°à¦¥ à¦®à¦ª
à¦¯ à¦«
à§© à§¨
à¦°à¦ª à¦°à¦¬
à¦ļ à¦¸
à¦ľ à¦ķà¦°à¦Ľ
à¦¨à¦¸ à¦Ń
à¦¤à¦® à¦¬
à¦¬à¦¸ à¦¬
à¦ħ à¦¥
à¦¸ à¦ĸ
à¦¬ à¦ĸ
à¦¤à¦¨ à¦ķà¦°
à¦¬ à¦Ł
à¦ĩ à¦ı
à¦°à¦¹ à¦ķà¦°
à¦£ à¦Ĺ
à¦¬à¦¨ à¦¯
à¦¸ à¦¹à¦¯
à¦¸ à¦ªà¦°
à¦¦à¦¶ à¦¶
à¦¬ à§Ł
à¦Ĩ à¦°à¦ª
à¦¦ à¦ĸ
à¦ī à§İà¦¸
à¦Ĩ à¦ĩà¦ª
à¦¨à¦Ĩ à¦¹à¦®
à¦ķ à¦¶à¦¨
à¦¬à¦¦ à¦²
à§Ł à¦ıà¦¬
à¦ĵ à¦Ľ
à¦¥ à¦Ĺ
à¦Ĩà¦°à¦ĵ à¦ªà§ľ
à§¨à§¦ à§§à§ª
à¦ħ à¦¸à¦®
à§¦à§¦ à§¦
à¦°à¦¬ à¦¸
à¦ľ à¦Ľ
à¦¯ à¦ĩ
à¦ıà¦ķ à¦ĩ
à¦¸ à¦¯
à§© à§¯
à¦®à¦¬ à¦Ļ
à¦¸ à¦ħ
à¦Ĺ à¦°à¦®
à¦¦à¦¶ à¦®
à¦¤ à¦°à¦®
à¦ķ à¦ħ
à¦¨à¦¬ à¦¬à¦¨
à¦Ł à¦ĵà¦¯
à§Ń à§¬
à¦¿ à¦ģ
à¦¬à¦Ľ à¦°à¦ª
à¦ı à¦¸à¦®
à¦ª à¦Ľà¦¨
à¦² à¦Ļ
à¦°à¦ļ à¦°
à¦¯ à¦Ĩà¦ªà¦¨
à¦® à¦°à¦£
à¦ĩà¦² à¦«
à¦¨ à¦ĵà¦¸
à¦· à¦Ń
à§Ń à§®
à¦°à¦¸ à¦¹à¦¯
à¦ĸ à¦°à¦ļ
à¦® à¦ĵ
à¦°à¦ķ à¦¨
à¦ª à¦Ń
à¦°à¦ħ à¦¬
à¦īà¦ł à¦²
à¦¡ à¦Ĺ
à¦¤à¦¹ à¦ĵà§Ł
à¦® à¦Ĩ
à¦ĺ à¦¦
à¦¹ à¦ł
à¦ª à¦ŀ
à¦¹à§Ł à¦ķ
à¦°à¦ª à¦°à¦¤
à¦°à¦ª à¦°à¦¥
à¦¬ à¦¬à¦°
à¦¦ à§Ł
à¦¼ à§į
à¦¦ à¦ķà¦¸
à¦¹à§Ł à¦¬
à¦²à¦ķ à¦¬
à¦§ à¦°à¦£
à¦Ĺ à¦ķà¦°à¦¤
à¦ª à¦¦à¦ķ
à¦² à¦ĵ
à¦¨à¦® à¦¹
à§¬ à§«
à¦¬ à¦Ĺà¦ŀ
à§Ł à¦¥
à¦¹ à¦¦
à¦° à¦°à¦ķ
à¦Ł à¦ħ
à¦¦ à¦Ĩà¦²
à¦¡ à¦«
à¦¤ à¦¨à¦¤
à¦Ł à¦ıà¦¬
à¦¯ à¦Ľ
à¦°à¦¯ à¦¦
à¦ľà¦¨ à¦¦
à¦ľà¦¨ à¦®
à¦¤ à¦°à¦ķ
à¦ıà¦ĩ à¦Ń
à¦ĩà¦² à¦¸
à¦ĩà¦¸ à¦°
à¦°à¦¨ à¦¬
à¦² à¦®à¦¨
à¦¤ à¦ĵ
à¦¤ à¦¡
à¦ĸ à¦¯
à¦ľà¦¨ à¦¤
à¦ĸà¦¬ à¦°à¦ª
à¦¡ à¦¡
à¦°à¦Ĺ à¦£
à¦®à¦¸ à¦ª
à¦ĸ à¦¦
à¦ķ à¦Ĩ
à¦Ĺ à¦¥
à§İ à¦¬
à¦¨à¦¸ à¦Ļ
à¦ı à¦¨à¦ľ
à¦ķà¦® à¦ª
à¦°à¦ Ĳ
à¦ıà¦¸ à¦ıà¦®
à¦¸ à§ľ
à¦® à¦ŀ
à§§à§¯ à§®
à¦ľà¦¨ à¦¶
à¦ĩ à¦ıà¦ķ
à¦¸à¦¬ à¦ľ
à¦°à¦ª à¦°à¦ª
à¦¨ à¦īà¦¦
à§Łà¦£ à¦Ĺà¦ŀ
à¦²à¦ķ à¦¡
à¦ĩ à¦ķà¦®
à¦¨ à¦¢
à¦² à¦īà¦¦
à¦¨à¦¸ à¦°
à¦°à¦Ĩ à¦°à¦ĵ
à¦§ à¦¹à§Ł
à¦² à¦ĺ
à§ª à§¯
à§Ł à¦¬à¦°
à¦¦ à¦ļ
à¦² à¦Ĺà¦ŀ
à¦ķà¦¤ à¦Ł
à¦°à¦¥ à¦®à¦¦
à¦ľ à¦Ļ
à¦Ł à¦«à¦°
à§Ł à¦ıà¦ķ
à¦°à¦ľ à¦¬
à¦¬ à¦¨à¦¬
à¦ľà¦¨ à¦Ĺ
à¦® à¦¬à¦²
à¦ĩ à¦ĺ
à¦ı à¦°à¦¦
à§ª à§§
à§¬ à§¬
à¦ı à¦°à¦ľà¦¨
à¦¸ à¦ıà¦¬
à¦ı à¦¸à¦®à§Ł
à¦¦ à¦¨à¦ķ
à¦ľ à¦Ń
à¦¤ à¦°à¦¸
à¦Ĺà¦£ à¦®
à¦¯ à§Ł
à¦īà¦ª à¦¦
à¦ĩ à¦²à¦¬
à¦² à¦ħ
à¦°à¦ħ à¦ªà¦°
à¦°à¦ķà¦° à¦¬
à¦°à¦® à¦°
à¦Ń à¦¬à¦¤
à¦°à¦¤ à¦¬
à¦ļ à¦«
à¦¬ à¦°à¦ħà¦ķ
à¦°à¦£ à¦ª
à¦¨ à¦ĩ
à¦¸ à¦ķà¦°à¦¤
à¦¨à¦ı à¦ĸ
à¦Ł à¦ķà¦°à¦¤
à¦ĵ à¦·
à¦ĩà¦¸ à¦Ļ
à¦°à¦ª à¦°à¦¸
à¦¬à¦¨ à¦ķ
à¦ļ à¦ª
à¦ķ à¦®à¦¨
à¦Ĩ à¦°à¦¨
à¦īà¦ª à¦¹
à§Ł à¦¡
à¦¨ à¦¹à¦²
à§ª à§¨
à¦¨à¦Ĩ à¦ĩà¦¡
à§« à§®
à¦§ à¦Ń
à¦ı à¦ľà¦¨
à¦¤ à¦ıà¦ķà¦Ł
à¦ıà¦ķ à¦ª
à¦°à¦Ĩ à¦ĩà¦¨
à¦ĩà¦® à¦°
à¦¶ à¦¨à¦ª
à¦¨à¦¸ à¦¬
à¦Ľ à¦¡
à¦ªà§ľ à¦²
à¦¸ à§ľà¦ķ
à¦¨à¦¸ à¦¹
à¦°à¦ª à¦°à¦ĵ
à¦Ł à¦ĵà§Ł
à¦¶ à¦¨à¦ķ
à¦ĩ à¦¹à¦¬
à¦¬à¦°à¦¨ à¦Ń
à¦¸ à¦¹à¦¬
à¦Ĩ à¦Ļ
à§İ à¦¸à¦ķ
à¦® à¦īà¦¦
à¦« à¦ķ
à¦°à¦ı à¦ķà¦®
à¦²à¦ķ à¦®
à¦¦à¦¨ à¦¶
à¦£ à¦°
à¦ıà¦ķ à¦¥
à¦¨ à¦¸à¦®à§Ł
à¦Ĺ à¦Ł
à¦¶ à¦ļ
à¦°à¦ĩ à¦ļ
à¦¨ à¦¨à¦¤
à§« à§¦à§¦
à¦« à¦ĸà¦°
à§Ł à¦Ĩà¦¨
à¦ķ à¦·
à¦ī à¦ĩà¦¨
à¦ļà¦² à¦®
à¦ħà¦¬ à¦¦
à¦¬ à¦°à¦ķ
à¦Ĩà¦°à¦ĵ à¦¬
à¦Ĳ à¦ķ
à¦° à¦°à¦¸
à¦°à¦Ĩ à¦Ľ
à§¨à§¦ à§§à§¨
à¦¶ à¦ķà¦°à¦¤
à¦® à¦¤à¦¬
à¦¶à¦¨ à¦°
à¦® à¦¬à¦°
à§Ł à¦ħ
à¦ĩ à¦ıà¦ķà¦Ł
à¦Ĩà¦² à¦¹
à§« à§¬
à¦¨ à¦ĵà¦¬
à¦² à¦¬à¦²
à¦¯ à¦ĵ
à¦ĭ à¦£
à¦¯à¦¤ à¦¥
à¦· à¦¶
à¦¬à¦¸ à¦ª
à¦¯ à¦ķà¦°à¦¤
à¦® à¦£à¦¬
à¦¤ à¦®à¦¨
à¦¨ à¦¯à¦¦
à¦°à¦® à¦ª
à¦Ł à¦¯
à¦ĵ à¦ı
à¦°à¦ķ à¦°à¦Ľ
à¦¦ à¦Ń
à¦Ī à¦®
à¦ķ à¦ħà¦°
à¦ļ à¦¦
à¦°à¦ļ à¦Ł
à¦ļ à¦¶
à¦Ń à¦®
à¦ĸ à¦ª
à¦°à¦¬ à¦¹
à¦² à¦¨à¦ķ
à¦ķ à¦Ĺà¦ŀ
à¦°à¦ĩ à¦²
à¦ĩ à¦ıà¦ĩ
à¦² à¦ĵà§Ł
à¦§ à¦¥
à¦ĸ à¦£
à¦¬ à¦°à¦ª
à¦Ĩ à¦¦à¦°
à¦ı à¦°à¦ªà¦°
à§ľ à¦²
à¦¸ à¦¤à¦°
à§¨à§¦ à§§à§©
à¦ĩà¦¨ à¦ª
à¦¡ à¦¶
à¦ķà¦¸ à¦Ń
à¦¤ à¦¤à¦¥
à¦¤ à¦Ĩà¦®
à¦ı à¦ĺà¦Łà¦¨
à¦Ĩ à¦īà¦Ł
à¦°à¦Ĩà¦Ĺ à¦¸
à¦¸ à¦¸à¦®
à¦¶ à¦ªà¦°
à¦°à¦ľà¦¨ à¦ª
à¦ı à¦°à¦¨
à¦ıà¦ĩà¦ļ à¦ıà¦¸à¦¸
à¦Ĩ à¦ĺ
à¦¹ à¦°à¦£
à¦Ĺ à¦«
à¦¨ à¦§à¦°à¦¨
à¦¨à¦¤ à¦¥
à¦īà¦ľ à¦¬
¦ Ķ
à ¦Ķ
à¦¨ à¦ĺ
à¦ī à¦°à¦°à¦¹à¦®
à¦¹ à¦īà¦¦
à¦°à¦¶ à¦ķ
à¦¬ à¦«
à§Ł à¦ķà¦®
à¦ļà¦¨ à¦ķà¦°
à¦ĩà¦¨ à¦«
à¦ĩ à¦Ĩà¦®à¦°
à¦Ĩ à¦ĵà¦¯
à¦¤ à¦¨à¦¬
à¦¨à¦Ĩ à¦¨
à¦¦à¦ķ à¦ķ
à¦īà¦ł à¦¤
à§¦ à§§
à¦¸ à¦Ľ
à¦« à¦«
à¦¨à¦ª à¦¦
à¦¬ à¦ªà¦°
à¦¶ à¦ħà¦¨
à¦¬ à¦°à¦£
à¦§ à¦ķà¦°à¦¤
à¦ļ à¦²à¦¬
à¦Ĩ à¦ĸ
à¦°à¦¥ à¦®à¦¸
à§« à§¯
à¦Ĩà¦Łà¦ķ à¦ķà¦°
à¦°à¦ī à¦²
à¦Ń à¦¦
à¦ĩ à¦ıà¦¬
à§§ à§¨à§¦
à¦ķ à¦Ĩà¦®
à¦¸ à¦ĵ
à¦°à¦¨ à¦®
à¦¨à¦ķ à¦²
à¦² à¦¹à§Ł
à¦® à¦Ĩà¦²
à¦¤ à¦Ĩà¦²
à¦Ń à¦Ļ
à¦¨à¦Ĩ à¦ľ
à¦°à¦ķà¦° à¦²
à¦°à¦¸à¦ķ à¦²à¦ķ
à¦· à¦·
à¦ł à¦ª
à¦°à¦ķ à¦ª
à§Ł à¦®à¦¨à¦¸
à¦Ľ à¦¦
à¦¯ à¦¡
à¦ķ à§ľ
à¦¨ à¦¹à¦¤
à¦¨à¦ķ à¦¬
à§Łà¦¸ à¦Ń
à¦Ĩ à¦ī
à§ĩ à§
à¦°à¦ı à¦ĩà¦ļ
à¦Ĩ à¦¨à¦¤
à¦ķà¦° à¦ª
à¦ıà¦ĩà¦ļ à¦¡
à¦°à¦£ à¦ķà¦°à¦¤
à¦¨à¦¸ à¦¨
à¦¸ à¦°à¦£à¦ķà¦°
à¦¨ à¦ł
à§Łà¦¨ à¦ªà¦°
à§« à§¨
à§Ł à¦ıà¦ķà¦Ł
à¦²à¦ķ à¦ķ
à§« à§§
à¦ª à¦«
à¦°à¦Ĺ à¦°
à¦® à§ľ
à¦ľ à§Łà¦¨
à¦°à¦ĩ à¦¬
à¦ħ à¦¸à¦¹
à¦ªà¦° à¦¤
à¦Ń à¦¸
à¦£ à¦¹
à¦ĩà¦Ł à¦¬
à¦ĩà¦ī à¦¸
à¦īà¦ª à¦¯
à§¯ à§¬
à¦Ĺ à¦¶
à¦°à¦¤ à¦°
à¦ķà¦¸ à¦¹
à¦¸à¦® à¦¨
à§ĩà§ Ĺ
à§İ à¦ķà¦°
à¦°à¦ĵ à¦¨
à¦°à¦ª à¦Ľà¦¨
à¦°à¦¸à¦® à§Łà¦¸
à¦°à¦ī à¦ªà¦ķ
à¦® à¦ı
à¦¥ à¦¦
à¦¨ à¦¹à¦¯
¦ Ĭ
à ¦Ĭ
à¦°à¦¸ à¦¤
à¦ĸ à¦¬à¦°
à¦°à¦ı à¦®à¦¨
à¦¬ à¦ľà¦¨
à§® à§®
à¦Ł à¦ı
à¦°à¦® à¦¸
à¦°à¦Ĺ à¦¨
à¦°à¦ĩ à¦¸à¦²
à¦ĩ à¦²à¦ķ
à¦¨à¦Ĩ à¦¦
à¦°à¦ı à¦ķà¦¬
à¦¶ à¦Ľ
à¦°à¦ı à¦Ł
à§Ń à§§
à¦ĸà¦¬ à¦°à¦ĵà¦¬
à¦¨ à¦ĵà§Ł
à¦§ à¦Ł
à¦Ĩà¦°à¦ĵ à¦¬à¦²
à§Ł à¦®à¦¨
à¦¯ à¦Ĩà¦¬
à¦²à¦Ĺ à¦ª
à¦°à¦£ à¦ľ
à¦Ĺ à¦ļ
à¦ıà¦ĩ à¦°
à¦¦à¦¨ à¦ķà¦°à¦¤
à¦ľ à¦Ĺà¦ŀ
à¦¨à¦ı à¦²
à¦°à¦¶ à¦¬
à¦¶ à¦ķà¦®
à¦¶ à¦īà¦¦
à¦ľ à¦ļ
à¦Ĩ à¦ĩà¦Ł
à¦°à¦ıà¦ķ à¦ľà¦¨
à§¨à§¦ à§§à§¦
à¦§ à¦¶
à¦¨à¦Ĩ à¦°à¦ĵ
à¦¨à¦ª à¦¤
à¦°à¦ī à§İ
à§« à§Ń
à§ Ŀ
à¦Ĺ à¦¯
à¦¬ à¦°à¦®
à¦Ľ à¦¤
à¦°à¦ª à¦¶
à¦² à¦ı
à¦Ĺ à¦¸à¦®
à¦°à¦īà¦ª à¦¸
à§Łà¦¸ à¦°à¦ķ
à¦¸ à¦ŀ
à¦¨ à¦·
à¦ķ à¦Ĩà¦Ľ
à¦°à¦¬ à§ľ
à¦°à¦ħ à¦Ĺ
à¦°à¦ª à¦°à¦®
à¦· à¦Ĺ
à¦ĸ à¦¨à¦¤
à¦°à¦¹ à¦ĵà§Ł
à§¦ à§¨
à¦¨à¦ı à¦Ľ
à¦² à¦¤à¦¬
à¦¨ à¦Ĩà¦¸
à¦¤ à¦ħ
à¦² à¦Ĩà¦°
à¦°à¦Ń à¦°
à¦ķ à¦ıà¦ķ
à¦¤ à¦ĺ
à¦¹à§Ł à¦ª
à¦°à¦ĵ à¦ķ
à¦¸à¦¬ à¦¬
à¦°à¦Ĩ à¦¹à¦®
à¦¸à¦¹ à¦¸
à¦ĩ à¦ķà¦¬
à¦¤à¦ķà¦° à¦¬
à¦¸à¦® à¦ķ
à¦ķà¦® à¦²
à¦¨ à¦ĩà¦¨
à¦¸ à¦ıà¦ķ
à¦Ł à¦¹à§Ł
à¦°à¦£ à¦¨
à¦¶à¦¨ à¦¶
à¦ĵ à¦ıà¦ķ
à¦¤ à¦ıà¦ķ
à¦°à¦® à¦¶
à¦ª à¦¹
à¦¨ à¦ħà¦§
à¦¦ à¦¨à¦¸
à§¬ à§®
à§Ł à¦ħà¦Ń
à¦¶à¦¨ à¦¨
à¦²à¦¨ à¦®
à¦¸ à¦°à¦¬à¦°
à¦ħà¦¨ à¦¨
à¦ķà¦® à¦¬
à¦ı à¦®à¦¬
à¦°à¦ª à§ľ
à¦¨à¦ķà¦° à¦¬
à¦ıà¦ĩ à¦Ł
à¦°à¦¸ à¦¹à¦ķ
à¦°à¦¸à¦® à¦°
à§Ł à¦¨à¦¬
à¦Ĩà¦¬ à¦¹
à¦¨ à¦¨à¦¬
à¦ı à¦¯
à¦ĩ à¦Ĩà¦²
à§« à§©
à¦¬ à¦°à¦Ĩà¦Ĺà¦¸
à¦°à¦ª à¦°à¦¦
à¦ĩ à¦ĵ
à¦¨ à¦īà¦ªà¦ľ
à¦¦ à¦ĸà¦²
à§¦ à§©
à¦® à¦ħà¦¨
à¦¦ à¦¨à¦¦
à¦ĩ à¦®à¦¸
à¦® à¦®à¦¤
à¦°à¦ľ à¦°
à¦¯ à¦ħà¦§
à¦ĩ à¦ľà¦¨
à¦¹à¦¬ à¦§
à¦Ĩ à¦°à¦¦
à¦¨ à¦¶à¦¨
à§¦ à§¬
à¦ı à¦ķà¦°
à¦°à¦Ĩ à¦¯
à¦Ŀ à§ľ
à¦¶ à¦¸à¦®
à§ĩ à¦¾à¦ģ
à¦Ń à¦ª
à¦® à¦ĺ
à§¦ à§§à§Ń
à§§à§¦ à§¦à§¦
à¦°à¦¬ à§Łà¦¸
à¦¨à¦ı à¦®à¦¨
à¦¡ à¦ľ
à¦ĵ à¦ıà¦ķà¦Ł
à¦ıà¦ķ à¦ķ
à¦Ń à¦¨
à¦¤ à¦ķà¦®
à¦°à¦ª à¦°à¦ķ
à¦ķ à¦¬à¦²
à¦ª à¦ªà¦°
à¦· à¦¹
à¦ľ à¦ĸ
à¦ıà¦ķ à¦¤
à¦ıà¦ĩ à¦Ĺ
à¦¸à¦¦à¦¸ à¦¦à¦¸
à¦Ĩà¦ľ à¦¬
à§« à§ª
à¦¨ à¦ĩà¦¤
à¦¬ à¦°à¦¥
à¦¹à§Ł à¦¯
à¦¯ à¦ħà¦°
à¦¡ à¦ħ
à¦°à¦¸ à¦ļ
à¦ĵ à¦¥
à§¨à§¦ à§§à§§
à¦§ à¦°à¦¤
à¦¸à¦¬ à¦®
à¦¬à¦Ľà¦°à¦¬ à§Łà¦¸
à§ĭ à¦Ĥ
à§Ń à§Ń
à¦¨ à¦¹à¦¬
à¦¨à¦¤ à¦ĸà¦¨
à¦ıà¦®à¦¨ à¦ıà¦ķà¦Ł
à¦¨ à¦ħà¦ªà¦°
à¦īà¦ľ à¦¡
à¦¤ à¦§à¦°
à¦ļ à¦¨à¦ķà¦®
à¦Ĺà¦£ à¦¤à¦¨
à¦īà¦ª à¦Ń
à§¬ à§¯
à¦¨à¦ı à¦ĸà¦¨
à¦°à¦Ī à¦¦
à¦°à¦ĩ à¦¸
à¦¸à¦¬ à¦¸à¦®à§Ł
à¦¬à¦¸ à¦¹à¦ľ
à¦¨ à¦¸à¦®à¦¸
à¦ħà¦¬ à¦¹
à¦¤ à¦ħà¦Ń
à¦ķ à¦ħà¦¬à¦¸
à¦¨à¦¤ à¦®à¦¯
à¦°à¦ı à¦ĩà¦¸
à¦¸ à¦ĵà§Ł
à¦¹ à¦ħ
à¦Ľ à¦²
à¦īà¦ľ à¦ª
à¦Ĩ à§ľ
à¦¸ à¦ı
à¦°à¦Ĩ à¦®à¦°
à¦· à¦¹à§Ł
à¦²à¦ķ à¦ª
à¦°à¦ļ à¦ķ
à¦¬ à§Łà¦¸
à¦°à¦ı à¦ĩà¦ª
à¦² à¦ıà¦ķ
à¦°à¦¶ à¦¹
à¦¨ à¦ĵà¦¯
à¦Ĩà¦® à¦¦
à¦ļ à¦¡
à¦ķ à¦¹à§Ł
à§¦ à§¯
à§ ³
à¦· à¦ķà¦¨
à¦Ľ à¦ķ
à¦Ĩà¦ĩà¦¨ à¦ľ
à¦¤ à¦¨à¦ª
à¦ĸà¦¬ à¦°à¦¬
à¦Ĩà¦« à¦Ĺ
à¦Ĺ à¦¤à¦®
à¦Ł à¦ķà¦®
à¦ĩ à¦ıà¦Ł
à¦ıà¦ĩ à¦ľ
à¦¸à¦® à¦Ĺ
à§¨à§¦à§¨ à§¨à§¦
à¦¨à¦ı à¦¤
à¦°à¦¤ à¦ª
à¦®à¦¨ à¦Ĺ
à¦ĵ à¦ľà¦¨
à¦ļ à¦ķà¦°
à¦°à¦Ĩ à¦ĵà§Ł
à¦Ķ à¦·
à¦ıà¦ķà¦ľà¦¨ à¦®
à¦ļ à§ľ
à¦£ à¦«
à¦ķà¦® à¦¤
à¦Ĩ à¦°à¦Ĩà¦®
à¦¸ à¦«à¦²
à§¦ à§®
à¦¨à¦¸ à¦ķ
à§Ł à¦¬à¦²
à¦§ à¦ľ
à§¬ à§ª
à¦°à¦¹ à¦ļ
à¦ĸ à¦ĸ
à§¬ à§Ń
à¦Ĺà¦¤ à¦ľ
à¦ĭ à¦¤
à§© à§¦à§¦
à¦Ĩà¦ĩà¦¨ à¦Ĩà¦¦
à¦¯ à¦ħ
à§¦ à§«
à¦¬à¦° à¦°
à¦°à¦¬ à¦Ľ
à¦Ĩ à¦¶à¦°
à¦¦ à¦°à¦ľ
à¦ĩà¦¨ à¦Ń
à¦ıà¦ķà¦ľà¦¨ à¦¬
à¦°à¦ĵ à¦®
à¦Ĺ à¦Ļ
à¦¥ à¦¹à§Ł
à¦¸ à¦ĵà¦¯
à¦Ŀ à¦°
à¦°à¦īà¦ªà¦° à¦¨
à§¦ à§Ń
à¦° à¦°à¦¶
à¦ª à§Ł
à¦ķ à¦¸à¦®à§Ł
à¦®à¦¤ à¦ª
à¦°à¦¤ à¦²
à¦¦à¦¨ à¦ľ
à¦¤ à¦°à¦¨
à¦¤ à¦§
à¦ı à¦°à¦¶
à¦°à¦ħà¦¨ à¦²
à¦² à¦¬à¦¨
à¦¨ à¦ĩà¦®
à¦°à¦Ĩ à¦²à¦®
à¦®à¦¨ à¦¬
à¦°à¦¯ à¦¤
à¦¬ à¦¥
à¦ķ à¦Ĩà¦²
à¦¨ à¦īà¦¨
à¦¯à¦¬ à¦§
à¦¤ à¦°à¦£à¦ķà¦°
à¦¤ à¦¬à¦°
à¦¤ à¦Ĩ
à¦¦à¦ķ à¦ĵà¦ª
à¦¨ à¦īà¦ª
à¦ī à¦Ńà¦¯
à¦¨à¦¬ à¦¤
à¦ħà¦ª à¦¸
à¦Ĺà¦ľ à¦ªà¦¤
à¦¶ à¦ĵ
à¦¨à¦¬ à¦¸
à¦ıà¦ĩ à¦¯
à¦ıà¦ĸà¦¨ à¦ªà¦°
à¦² à¦Ĩà¦¬
à¦·à¦£ à¦ª
à¦¥ à¦¬à¦Ľà¦°
à§¨à§¦à§¦ à§¯
à¦°à¦« à¦°
à¦°à¦ķ à§Ł
à¦°à¦¤ à¦¨
à¦§ à¦ĸ
à¦ªà§ľ à¦Ľ
à¦¯ à¦¹à¦¤
à¦ı à¦ªà¦°
à¦¬à¦Ľ à¦°à¦Ĩà¦Ĺ
à¦¨à¦ķà¦° à¦²
à¦¤à¦° à¦ķà¦°
à¦ķà¦² à¦®
à¦Ĺ à¦¹
à¦² à¦§
à§¦ à§ª
à¦« à¦²à¦ª
à§¨à§¦à§¦ à§®
à¦ľ à¦īà¦ªà¦ľ
à¦°à¦Ĩ à¦§
à¦Ľ à¦¦à¦ľ
à§¬ à§§
à¦ıà¦ĸ à¦¨à¦ķ
à¦ľ à¦¸à¦®
à¦°à¦® à¦¤à¦¬
à¦ł à¦¬
à¦®à¦¦ à¦¸
à¦ıà¦ĩ à¦¤
à¦¬à¦¸ à¦¤
à¦ķ à¦Ĩà¦Ĺ
à¦°à¦¹ à¦°
à¦¤ à¦®à¦¸
à¦·à¦£ à¦ķ
à¦ªà§ľ à¦¬
à¦Ń à¦ľà¦¨
à¦Ń à¦°à¦ķà¦°
à¦¨à¦¬ à¦ľ
à¦īà¦ª à¦²à¦¬
à¦¨à¦¶ à¦°
à¦°à¦ı à¦ĩà¦¬
à¦¨à¦ĵ à¦ķ
à§Ł à¦ĵ
à¦¶ à¦Ļ
à¦Ĩ à¦¡
à¦· à¦ļ
à¦¶à¦ķ à§Ł
à¦¯ à¦¹à¦²
à¦Ł à¦ħà¦¨
à¦¬ à¦¤à¦¨
à¦ķ à¦§
à§Ł à¦Ĩà¦ķ
à¦¨à¦ĵ à¦Ĺ
à§¯ à§«
à¦°à¦Ĩ à¦ĩà¦¡
à§ °
à¦¯ à¦ıà¦ķ
à¦ĵ à¦Ĩà¦²
à¦¸à¦¹ à¦¨
à¦ĩ à¦Ĩà¦¬
à¦ķ à¦¬à¦¨
à¦« à¦ľ
à¦Ĩ à¦°à¦¯
à¦¦ à¦Ľ
à¦ļ à¦°à¦®
à¦°à¦® à¦°à¦¦
à¦ĩà¦² à¦®
à¦² à¦ıà¦ķà¦Ł
à¦¶ à¦ıà¦¬
à§Ł à¦¸à¦¬
à¦¤à¦¨ à¦¯
à¦ī à¦¹
à¦¨ à¦ħà¦¬à¦¸
à¦Ĩ à¦°à¦ľ
à¦°à¦¥à¦® à¦Ĩà¦²
à¦¯ à¦¹à§Ł
à¦ł à¦¶
à§ľ à¦¯à¦¨
à¦Ĩà¦°à¦ĵ à¦ªà¦¡
à¦°à¦Ĩ à¦¨à¦¨
à¦°à¦Ń à¦¬
à¦°à¦ı à¦ĸà¦¨
à¦ĩà¦¨ à¦Ł
à¦¸à¦ķ à¦²à¦ķ
à¦¨ à¦°à¦¸
à¦°à¦® à¦ķà¦°
à¦ĩà¦¨ à¦¶
à¦ª à¦ĵà¦ħà¦¨
à¦¹à§Ł à¦®
à¦®à§Ł à¦®à¦¨à¦¸
à¦°à¦¤ à¦ķ
à¦Ĩà¦ĩà¦¨ à¦¶
à¦ĩà¦¨ à¦¡
à¦¤à¦® à¦¹
à¦ĩà¦ľ à¦ķ
à¦¤ à¦ħà¦°
à¦¨à¦ĵ à¦®
à¦ĩ à¦¤à¦¬
à§¯ à§®
à¦ªà¦¨ à¦¬
à¦¶à¦¨ à¦Ł
à¦ĵ à¦ħ
à¦¶ à¦¸à¦°à¦ķ
à¦°à¦ıà¦ĩà¦ļ à¦ıà¦¸à¦¸
à¦°à¦¦ à¦¤
à¦¥ à¦¹
à¦¤ à¦Ĩà¦Ľ
à¦£ à¦¶
à¦°à¦¬ à¦¡
à¦ıà¦ĩ à¦ªà¦°
à¦¬ à¦°à¦¤
à¦ĩà¦¨ à¦¨
à¦°à¦ª à¦£
à¦¹ à¦¤à¦°
à§§à§¯à§Ń à§§
à¦°à¦¨ à¦Ĺ
à¦ĩà¦¨ à¦ķà¦°
à¦ķà¦¤ à¦¥
à¦ķ à¦īà¦¨
à¦īà¦ł à¦Ľ
à¦¤à¦ĸ à¦¨à¦¤
à§Ń à§¨
à§Ł à¦Ĩà¦¸
à¦ľ à¦²à¦¬
à¦¡ à¦¤
à¦°à¦¦ à¦°à¦ķ
à¦¡ à¦¥
à¦ħà¦¥ à¦ļ
à¦¶à¦¨ à¦¦
à¦¹ à¦¶
à¦ķ à¦ķà¦®
à¦¥ à¦¶
à¦¨ à¦ļà¦²
à¦°à¦ı à¦ĸ
à¦² à¦ĵà¦¯
à¦¬à¦¨ à¦¨
à¦ı à¦®à¦¸
à¦¨ à¦ıà¦¸
à¦ĩà¦Ł à¦Ł
à¦¦ à¦¥
à¦°à¦ı à¦ķà¦¦
à¦¯ à¦ĵà¦¸
à¦¨à¦Ĩ à¦ķ
à¦°à¦« à¦°à¦®
à¦¦à¦ķ à¦¦
à¦¯ à¦ªà¦¦
à¦¯à¦¸ à¦°à¦ķ
à¦īà¦ľ à¦Ł
à¦ıà¦ķ à¦¸à¦Ļ
à¦¤ à¦¬à¦²
à¦ĩà¦¨ à¦ľ
à¦°à¦Ĳ à¦¤
à¦® à¦¹à¦²
à¦ī à§Ł
à§¬ à§¨
à¦¬à¦¸ à¦īà¦ªà¦²à¦ķ
à¦ı à¦°à¦ĩ
à¦¬ à¦£
à¦¤à¦¬ à¦¤
à¦°à¦Ń à§Ł
à¦ł à¦¦
à¦ĩ à¦Ĩà¦Ľ
à¦ıà¦ĸ à¦¨à¦¬
à¦¬à¦¸ à¦¨
à¦Ĺ à¦²à¦ķ
à¦ı à¦°à¦ķà¦®
à¦°à¦ĵ à¦¦
à¦ľ à¦«
à¦Ł à¦ĩ
à¦ı à¦§à¦°à¦¨
à¦°à¦¥ à¦®à¦®
à¦Ĩ à¦ĩà¦ľ
à¦·à¦£ à¦¦
à¦ĩ à¦ĵà§Ł
à¦« à¦¹
à§Łà¦¨ à¦ķà¦°
à¦Ĺ à¦ªà¦°
à¦¯ à¦¹à¦¬
à¦®à¦¤ à¦²
à¦¸à¦¹ à¦ª
à¦£ à¦¸à¦®
à¦² à¦°à¦ļà¦¨
à¦¥ à¦ł
à§Ł à¦¤à¦¬
à¦¡ à¦ıà¦¬
à¦¼ à¦Ĥ
à¦ķ à¦¬à¦°
à¦¸ à¦ħà¦¨
à¦ª à¦Ľ
à¦°à¦Ĩ à¦ľ
à¦¤ à¦°à¦īà¦¤
à¦ĩ à¦ļà¦²
à¦ı à¦¨à¦ı
à¦ĩ à¦ķà¦²
à¦¬ à¦ıà¦¬
à¦² à¦¹à¦¤
à¦¥ à¦ķà¦°
à¦ĩà¦¸ à¦ļ
à¦¤ à¦ıà¦ĩ
à¦ľ à¦ıà¦¬
à¦¸à¦¹ à¦®
à¦ĵ à¦®à¦¨
à¦ª à¦ĸ
à¦¬ à¦ķà¦¦
à¦Ĩà¦¤ à¦Ļ
à¦°à¦ħ à¦Ļ
à¦°à¦ ĭ
à¦°à¦ĩ à¦ª
à¦Ĺà¦¤ à¦¸
à¦°à¦ĵ à¦¤
à¦¨à¦ı à¦¦
à¦¨à¦¬ à¦ķ
à¦ĩ à¦²à¦¨
à¦¬à¦¨ à¦ķà¦°
à¦¯ à¦ĩà¦¤
à¦¡ à¦ķà¦°à¦¤
à¦°à¦¸à¦¹ à¦¸à¦Ń
à¦ħ à¦ļ
à¦ĩ à¦¬à¦°
à¦² à¦Ĩà¦ľ
à¦¬à¦Ľ à¦°à¦§à¦°
à¦°à¦ķ à¦£
à¦°à¦Ĺ à¦¬
à¦¨ à¦ħà¦¸
à¦¨à¦Ĩ à¦¹
à¦£ à¦¯
à¦ª à¦°à¦¶
à¦ī à¦Ń
à¦¡à¦Ł à¦ķà¦®
à¦§ à¦¹à¦¯
à¦§ à¦Ĺ
à¦§ à¦°à¦²
à¦¤ à¦¨à¦ķ
à¦Ĩ à¦¹à¦¸
à¦ħ à¦¡
à¦« à¦°à¦®
à¦ľ à¦īà¦¦
à¦¤à¦® à¦ª
à¦²à¦¹ à¦ķà¦®
à¦¯ à¦Ĩà¦¨
à§Ł à¦ħà¦°
à¦ľà¦¨ à¦°
à¦Ł à¦ħà¦«
à¦¤ à¦Ĩà¦¦
à¦® à¦ķà¦®
à¦°à¦ĸà¦¬ à¦°à¦ª
à¦¬ à¦Ĩà¦²
à¦ıà¦ĩ à¦²
à¦¨ à¦ħà¦ª
à¦¦ à¦¬à¦²
à¦¸à¦¹ à¦Ĩà¦Łà¦ķ
à¦ıà¦®à¦¨ à¦Ł
à¦Ĺà¦¤ à¦Ń
à¦°à¦¤ à¦¦à¦¨
à¦īà¦ª à¦ķà¦°à¦£
à¦ªà¦¨ à¦¸
à§İ à¦°
à¦¨à¦ı à¦°à¦ª
à¦ĸà¦¬ à¦°à¦¦
à§¯ à§Ń
à¦° à¦°à¦¬
à¦¬ à¦ķà¦®
à¦¸à¦¬ à¦ª
à¦·à¦£ à¦¬
à¦Ĩ à¦²à¦ķ
à¦« à¦¨
à¦Ĩ à¦ŀ
à¦ĵ à¦¬à¦²
à¦ĩ à¦«à¦¤
à§§ à§§à§¦
à¦ĩà¦¸ à¦¨
à¦² à¦ķà¦°à¦¤
à§® à§«
à¦Ĺ à¦®à¦¨
à¦¬ à¦ķà¦ķ
à¦°à¦ı à¦ķà¦ª
à¦°à¦¬ à¦¯
à¦¤ à¦¨à¦¸
à¦¸ à¦ķà¦°à¦²
à¦ıà¦ķ à¦¨
à¦¹ à¦Ĩà¦²
à¦°à¦¬ à¦¦à¦²
à¦¯ à¦ķà¦²
à¦¸ à¦ķà¦®
à¦¨à¦¬ à¦Ļ
à¦°à¦£ à¦¹
à¦¬ à¦¨à¦¸
à¦ĵ à¦Ĩà¦ªà¦¨
à¦°à¦£ à¦Ń
à¦ľ à¦ķà¦°à¦¬
à¦Ĩà¦°à¦ĵ à¦¦
à¦ĩà¦² à¦ª
à§Ń à§©
à¦°à¦ħ à¦¡
à§ĩ à¦ĥ
à§Ł à¦ĺ
à¦¨ à¦ĩà¦¸à¦²
à¦ĩà¦¡ à¦¸
à§¨à§¦à§¨à§¨ à§¨à§¦à§¨à§©
à¦¥ à¦®à¦¨
à¦¤à¦¹ à¦ĵà¦¯
à¦°à¦ı à¦ķà¦¸
à¦Ĺ à¦ĸ
à¦ĵ à¦ħà¦Ń
à¦· à¦ķà¦ķ
à¦Ĺ à¦¬à¦°
à¦¨à¦¨ à¦®
à¦¯ à¦Ĩà¦²
à¦°à¦ª à¦²
à¦¦ à¦®à¦¨
à¦¹ à¦ķà¦¦
à¦¹à§Ł à¦°
à¦°à¦¨ à¦¦
à¦ıà¦¤ à¦Ł
à¦² à¦¢
à¦°à¦Ĩ à¦¹à¦¬
à¦Ĩ à¦ĩà¦¬
à¦¨à¦ħ à¦¥à¦¬
à¦§ à¦¸à¦®
à¦ª à¦¸à¦®
à¦¨à¦¦ à¦²
à¦ĩà¦¬ à¦ķà¦°
à¦ł à¦¸
à¦¨ à¦īà¦²
à¦°à¦Ĩà¦¶ à¦Ļ
à¦°à¦¸ à¦®à¦¨
à¦¦ à¦ħà¦¨
à¦ķà¦° à¦¦
à¦¹ à¦°à¦ķ
à¦¹ à¦ĩà¦¤
à¦ı à¦°à¦«à¦²
à¦°à¦¤ à¦¤
à¦ķ à¦ĩà¦¤
à¦¶ à¦¡
à¦ı à¦¤à¦¥
à¦Ĺà¦¤ à¦¦
à¦īà¦ł à¦¬
à¦°à¦¸ à¦ł
à¦¦ à¦ıà¦¬
à¦¸à¦¬ à¦¸à¦®à¦¯
à¦¨à¦¡ à¦²
à¦¨ à¦°à¦ķ
à¦¨ à¦Ľà¦¬
à§ľ à¦¦
à¦¬ à¦ħà¦¨
à¦£ à¦ļ
à¦¤ à¦Ĩà¦¸
à¦ĩà¦¦ à¦¹
à¦Ĩ à¦°à¦Ł
à§§à§ª à§¨à§¯
à¦ķà¦¨ à¦Ł
à¦ķ à¦Ĩà¦ª
à¦ķà¦ª à¦¦
à¦¸ à¦¬à¦¨
à§İ à¦®
à¦°à¦ª à¦°à¦°
à¦¯à¦¤ à¦Ł
à¦¨ à¦ıà¦ķà¦ľà¦¨
à¦¶ à¦ķà¦¦
à¦¦à¦ķ à¦¨
à§¨à§¦à§¦ à§Ń
à¦¦ à¦ªà¦¤
à¦²à¦ª à¦®
à¦Ĺà¦ł à¦¨à¦ķà¦°
à¦¨à¦Ĩ à¦ĵà§Ł
à¦ı à¦°à¦ļ
à¦ľ à§Łà¦¦
à¦ķ à¦²à¦¨
à¦¯ à¦ĵà¦ª
à¦¬à¦² à¦¨
à¦°à¦ħ à¦¬à¦¶
à¦²à¦ķ à¦¨
à¦¡ à¦ļ
à¦ª à¦°à¦¬
à¦ķ à¦ĺ
à¦ł à¦¨
à¦« à¦®
à¦°à¦Ĩ à¦ľà¦ķ
à¦ķà¦¸ à¦°à¦ķ
à§¯ à§©
à¦Łà¦¸ à¦ħ
à¦ĩ à¦ķà¦°à¦¤
à¦ĩà¦¡ à¦¢
à¦¯ à¦¬à¦°
à¦ĩ à¦ħ
à¦·à¦£ à¦¨
à¦ıà¦ĸà¦¨ à¦ĵ
à¦® à¦®à¦¹
à¦¶à¦¨ à¦Ĺ
à¦¹à¦¤ à¦¹à§Ł
à¦ĩà¦ī à¦ı
à¦¯ à¦ķà¦°à¦¬
à¦¯ à¦§
à§§à§« à§¦
à¦°à¦ļ à¦£
à¦ªà¦ķ à¦¥
à¦Ń à¦²
à¦² à¦¨à¦¸
à¦ĩ à¦Ĩà¦Ĺ
à¦ĵ à§ľ
à¦¬à¦¹ à¦¨à¦ı
à§Ł à¦¢
à¦°à¦£ à¦¦
à¦¨à¦ıà¦ĩ à¦¬
à¦¸à¦¹ à¦ħà¦¨
à¦ł à¦ķà¦°
à¦¶à¦¨ à¦®
à¦ı à¦¨à¦¸
à¦Ĩ à¦¨à¦¸
à¦²à¦ķ à¦¸
à¦¸ à¦Ĩà¦²
à¦²à¦¨ à¦ķà¦°à¦¤
à¦ī à¦Ĺ
à¦ĩ à¦¹à¦²
à¦Ĩ à¦°à¦¶
à¦ıà¦ĸ à¦¨à¦¸
à¦¨ à¦¸à¦®à¦¯
à¦ı à¦¤à¦¦
à¦ľà¦¸ à¦¦
à¦¹à§Ł à¦ıà¦¬
à¦§ à¦²
à¦ĩà¦Ń à¦ķà¦°
à¦ıà¦ĸ à¦¨à¦¤
à¦¹ à¦Ń
à¦°à¦Ĩ à¦ļ
à¦® à¦°à¦¤
à§¯ à§ª
à¦§ à¦¯
à¦ĩà¦² à¦Ł
à¦°à¦ª à¦°à¦¶
à§¯ à§§
à¦ī à¦¨à¦¸
à§¬ à§©
à¦ª à§Łà¦¸
à¦¸à¦¬ à¦¶
à¦¤à¦ķ à¦°à¦Ľ
à¦ıà¦ĩ à¦§à¦°à¦¨
à¦¯à¦ĸ à¦¨à¦¤
à¦ķà¦® à¦¹
à¦« à¦ľà¦²
à¦® à¦ĺà¦Ł
à¦ķà¦ª à¦ł
à¦¸ à¦¬à¦²
à¦®à¦¨ à¦¦
à¦®à¦¦ à¦®
à§Ł à¦ıà¦¸
à¦¯ à¦ľà¦¨
à¦ľ à¦ªà¦°
à¦ķ à¦ķà¦°à¦¤
à¦ıà¦ĩ à¦¶
à¦ªà¦¨ à¦ķ
à¦¨à¦Ĩ à¦Ľ
à¦²à¦¤ à¦²
à¦¬à¦¹à¦¨à¦ı à¦°à¦¸à¦ķà¦²à¦ķ
à¦¬ à¦°à¦Ĺ
à¦ī à¦ĸ
à¦Ĩà¦°à¦ĵ à¦ľ
à¦¤à¦°à¦¬ à¦Ļ
à¦¸ à¦¨à¦ª
à¦¸à¦¹ à¦¦
à¦¸ à¦¨à¦¦
à¦°à¦¨ à¦Ń
à§§à§¨ à§¨
à¦²à¦¤ à¦ª
à¦ķà¦¬ à¦Ľ
à¦·à§Ł à¦Ĺ
à¦ķ à¦£
à¦§ à¦¹
à¦¬ à¦ıà¦ķà¦Ł
à¦ĩà¦¨ à¦¦
à¦ªà¦£ à¦ķà¦°
à¦« à¦¬
à¦ķ à¦ħà¦Ń
à¦°à¦¸ à¦ª
à¦¦ à¦¨à¦®
à§® à§§
à¦¨à¦ı à¦¶
à¦°à¦ı à¦ª
à¦°à¦® à¦¬
à¦¸ à¦¨à¦ķ
à¦°à¦¤ à¦¦
à¦¹ à¦°à¦¨
à¦ĸ à¦¥
à¦¤ à¦¨à¦¨
à¦¸à¦¬ à¦Ĺ
à¦ĩ à¦§
à¦¹ à¦Ł
à¦¤ à¦¨à¦¦
à¦¯ à¦ıà¦Ł
à¦°à¦¤ à¦®
à¦¹ à¦Ĺ
à¦ĸ à¦¨à¦ķ
à§® à§ª
à¦¯ à¦Łà¦¨
à§Ł à¦Ĩà¦°
à¦Ĩ à¦ªà¦¤
à§Ń à§¯
à¦ıà¦ķ à¦¹
à¦¯ à¦§à¦°
à¦® à¦®à¦¨
à¦ĵ à¦¹à¦¤
à§ľ à¦ķà¦°
à¦· à¦ħà¦¤
à§§à§¨ à§©
à¦® à§Łà¦¸à¦Ń
à¦ĺ à¦®
à§¨à§¦ à§¦à§¦
à¦°à¦ı à¦¨
à¦ı à¦®à¦ķ
à§Ł à¦Ĩà¦²
à¦¨ à¦°à¦¬
à¦ķ à¦Ĩà¦¬
à¦· à¦Ľ
à¦ī à¦¯
à¦ĩ à¦¸à¦®à§Ł
à¦°à¦¹à¦£ à¦ķà¦°à¦¤
à¦°à¦¥ à¦®à¦ķ
à¦® à¦§à¦°
à¦¤ à¦ħà¦¬à¦¸
à¦Ĩà¦ľ à¦¸
à§Ń à§ª
à¦¯ à¦®à¦¤
à§ģ à¦Ĥ
à¦¤à¦ķ à¦°à¦£
à¦ī à¦·
à¦Ĺà¦£ à¦¤
à¦°à¦Ĩ à§ľ
à¦ª à¦Ĺà¦ŀ
à¦°à¦Ĩ à¦¦à¦°
à¦¨à¦ĵ à¦¨
à¦² à¦¹à¦²
à¦¨à¦ķ à¦¥
à¦ĵ à¦ĩà¦¬
à¦¡ à¦¯
à¦ķ à¦ķà¦²
à¦Ł à¦ĩà¦¨
à¦®à¦¨ à¦Ł
à§Ł à¦ı
à¦°à¦ı à¦ĩà¦¦
à¦¦à¦ķ à¦ľ
à¦ıà¦ķ à¦¯
à¦¤ à¦Ĩà¦¬
à¦² à§ľ
à¦¨à¦° à§Ł
à¦ľ à¦Ĺà¦¤
à¦¯ à¦Ĩà¦®à¦°
à§¨à§¦à§¨à§¦ à§¨à§¦à§¨à§§
à¦°à¦ª à¦°à¦¬à¦°
à¦² à¦¸à¦¬
à¦°à¦Ĺ à¦Ń
à¦¯ à¦ĵà¦¯
à¦Ĺ à¦ıà¦¬
à¦ıà¦ĩ à¦¹
à¦ł à¦¤
à¦°à¦ª à¦ł
à¦°à¦ħ à¦®
à¦¨à¦¸ à¦¤
à¦¤ à¦¨à¦®
à¦Ńà¦¬ à¦ķà¦°
à¦¯ à¦ļà¦Ł
à¦¤à¦® à¦ľà¦¨
à¦® à¦¦à¦¨
à¦°à¦ķ à¦ķ
à¦°à¦® à¦¤à¦¨
à¦¨à¦ļ à¦Ł
à¦¨à§Ł à¦¨à¦¬
à¦²à¦ķ à¦¦
à§İ à¦ªà¦°
à¦¬ à¦ĩà¦¬
à¦ľà¦¨ à¦ķà¦°à¦¤
à¦ļà¦® à§İà¦ķ
à¦ķ à¦ı
à¦¯à¦¬ à¦¦
à¦¯à¦¸ à¦ļ
à¦°à¦¬ à¦£à¦¤
à¦ªà¦¦ à¦¸
à¦®à¦¨ à¦®
à¦Ĩà¦® à¦²
à¦°à¦ª à¦°à¦¨
à§ľ à¦¨
à¦¸à¦¬ à¦¦
à¦¨à¦Ĩ à¦¶
à¦°à¦īà¦ª à¦°à¦Ń
à¦£ à¦Ł
à¦ľà¦¨ à¦ıà¦¬
à¦®à¦¨ à¦ª
à¦¤ à¦®à¦¤
à¦°à¦° à§Ł
à¦· à¦²
à¦ĩ à¦Ĩ
à¦® à¦ħ
à§Łà¦¸ à¦ª
à¦¨à§Ł à¦¨à¦ª
à¦¤ à¦¸à¦®à¦¸
à¦ª à¦ħà¦¨
à¦Ń à¦Ĺ
à§ľ à¦®
à¦Ł à¦ıà¦ķà¦Ł
à¦¬ à¦Ĩà¦®
à¦ī à¦ĩà§Ł
à¦¹ à¦¥
à§®à§®à§¦ à§§à§Ń
à¦°à¦¹à¦£ à¦ķ
à¦Ĩà¦°à¦ĵ à¦ħà¦¨
à¦Ľ à¦ª
à¦· à¦ĸ
à¦°à¦¦ à¦°à¦ľ
à§Ł à¦§
à¦¸ à¦ĵà¦¸
à¦· à¦ķà¦¬
à¦°à¦ī à§İà¦ª
à¦¯ à¦¬à¦²
à¦¦à¦ķ à¦ª
à¦ĩ à¦¹à§Ł
à¦¤à¦ķ à¦ª
à¦¸ à¦¨à¦¬
à¦¨ à¦ħà¦¬
à¦¬à¦¸ à¦²
à¦ĵ à¦ıà¦¬
à§® à§¯
à¦°à¦ľà¦¨ à¦Ĺà¦£
à¦ħ à¦¬à¦°
à¦¨à¦Ĺ à¦¤
à§Łà¦¸ à¦°
à¦² à§Łà¦¬
à¦¬à¦¹ à¦¨
à¦ĩà¦Ł à¦¥
à¦Ĩ à¦ªà¦²
à¦¸ à¦¦à¦¨
à§Ł à¦®à¦¹
à¦° à¦°à¦¹
à¦ĩà¦¨ à¦Ĺ
à¦ĩà¦Ł à¦®
à¦°à¦ª à¦¡
à¦ħà¦¤ à¦ıà¦¬
à¦Ł à¦¹à¦²
à¦Ł à¦ıà¦ķ
à¦ĩà¦ķ à¦¥
à¦¤ à¦¸à¦°
à§Ĥ à¦ģ
à¦°à¦¶ à¦¤
à¦ª à¦ıà¦¬
à¦¤à¦¸ à¦Ń
à¦¬ à¦ŀ
à¦· à§Łà¦¨
à¦ħ à¦·
à¦² à¦¹à¦¬
à¦· à¦¹à¦²
à¦°à¦ī à§İà¦¸
à¦ĩ à¦§à¦°
à¦² à¦¨à¦¬
à¦¤ à¦īà¦¦
à¦ªà¦° à¦°
à¦¬à¦Ľà¦°à¦¬ à¦¯
à¦ķ à¦ħà¦§
à¦ĩà¦Ł à¦¸
à¦¤ à¦Ĩà¦°
à¦ķ à¦¹à¦¤
à¦°à¦£ à¦¯
à¦ªà¦¦ à¦¤
à¦ıà¦® à¦ıà¦¸
à¦¬à¦² à¦¸
à¦¯ à¦Ľà¦¬
à¦ļ à¦¹
à¦¶à¦ķ à¦¯
à§ĩ à¦Ĥ
à¦¤ à¦°à¦Ĩ
à¦¡ à¦ªà¦°
à¦ķ à¦īà¦ª
à¦¯ à¦īà¦¦
à¦£ à¦ľ
à¦ıà¦ĸà¦¨ à¦Ĩà¦®
à¦¯ à¦¸à¦¹
à¦¨à¦® à¦ľ
à¦° à¦°à¦¹à¦¸
à¦ķ à¦¨à¦¸
à¦°à¦¸ à¦ŀ
à§® à§Ń
à¦ī à¦Ńà§Ł
à¦ª à¦°à¦ķ
à¦¤à¦ķà¦° à¦²
à¦°à¦¯ à¦¥
à§® à§©
à¦ī à¦ĩà¦²
à¦¶ à¦ķà¦°à¦²
à¦°à¦¥ à¦®à¦¤
à¦°à¦® à¦ķ
à¦¯ à¦¤à¦¬
à¦ħ à¦¹
à¦§ à¦¨à¦¸
à¦¯ à¦ķà¦®à¦ª
à¦¨ à¦īà¦ĩà¦ķ
à¦ļ à¦¥
à¦°à¦® à¦¯
à¦¬ à¦ĩà¦®
à¦² à¦¨à¦ª
à¦¸ à¦Ĩà¦Ĺ
à¦¤à¦¬ à¦¯
à¦ĸ à¦¨à¦¸
à¦ļ à¦ľ
à¦ıà¦ĸ à¦¨à¦ª
à¦ķ à¦¹à¦²
à¦°à¦Ĩ à¦Ļ
à¦® à¦ıà¦ķ
à¦ıà¦ĩ à¦ĺà¦Łà¦¨
à¦¶ à¦ļà¦¨
à§¨ à§§à§®
à¦¸à¦® à§Łà¦ķ
à¦ķà¦¨ à¦«
à§İ à¦¨
à§Ł à¦ªà¦¤
à¦Ĺ à¦¨à¦Ń
à¦² à¦ľà¦¬
à¦°à¦ľ à¦²
à¦ľ à§Łà¦ª
à¦® à¦Ĩà¦¬
à¦® à¦īà¦¨
à¦Ĩ à¦ķà¦¬
à¦¨à¦ĵ à¦¦
à¦¸ à¦Ĩà¦®
à¦ıà¦« à¦¸
à§Łà¦¨ à¦¡à¦²
à¦ĩ à¦Ĩà¦¸
à¦·à¦£ à¦¸
à¦¨à¦ĵ à¦¤
à¦¥ à¦Ń
à¦īà¦ĩà§Ł à¦°
à¦¯à¦¤ à¦¦
à¦¤ à¦°à¦¥
à¦ī à¦¸à¦®
à¦· à¦ķà¦¸
à¦ĩ à¦ıà¦¸
à¦¨ à¦ĩà¦²
à¦« à¦²à¦¤
à¦ķ à¦Ĩà¦¨
à¦ıà¦ķà¦ľà¦¨ à¦ķ
à¦² à¦¹à¦¯
à¦ķ à¦ħà¦¸
à¦® à¦ĩà¦®
à¦ªà¦¨ à¦¦
à¦Ł à¦ĵ
à¦°à¦® à¦¡
à¦°à¦ī à¦ªà¦¦
à¦¦ à¦ªà¦°
à¦ķ à¦¸à¦®à¦¯
à¦°à¦¹à¦£ à¦¯
à¦¤à¦¨ à¦Ń
à¦ıà¦ķ à¦ĩà¦¸
à¦ĩ à¦īà¦ľ
à¦ĩ à¦¨à¦¤
à¦ī à¦¥
à¦ħ à¦¬à¦²à¦®
à¦ıà¦ķà¦ľà¦¨ à¦ª
à¦§ à¦ĺ
à¦¯ à¦ķà¦®
à¦ı à¦¨à¦Ĩà¦ĩà¦¡
à¦¸à§ľ à¦ķà¦¦
à§ª à§¦à§¦
à¦ĩà¦¡ à¦ļà¦Ł
à¦¬à¦¨ à¦®
à¦· à¦ķà¦¤
à¦°à¦¨ à¦ľ
à¦ĵ à¦®à¦¹
à¦ļ à¦Ĺ
à¦ı à§ľ
à¦¬à¦² à¦ķ
à¦ķà¦¦ à¦²
à¦Ŀ à¦²
à§¨à§® à§ªà§©
à¦· à¦¦à¦¨
à¦¹à§Ł à¦¤à¦¬
à¦ª à¦ķà¦®
à¦¬ à¦ĩà¦¸
à¦Ŀ à¦ĸ
à¦® à¦Ĩà¦ľ
à¦ĩà¦® à¦¹
à§Ł à¦¨à¦¤
à¦¬ à¦ķà¦²
à¦¤ à¦¶à¦°
à¦¦à¦² à¦Ł
à¦Ĩ à¦°à¦Ĩ
à¦¨à¦¬ à¦Ľà¦°
à§Łà¦¦ à¦ª
à¦§ à¦¨à¦¬
à¦ª à¦Łà¦ª
à¦¶ à¦ķà¦°à¦¬
à¦°à¦ħ à¦¬à¦¦
à¦ıà¦ķ à¦¶
à¦ķ à¦īà¦¦
à¦¸à¦¹ à¦Ĺ
à¦¨ à¦ĩà¦īà¦¨
à¦¶à¦¸ à¦¦à¦¸
à¦¦ à¦¡
à¦ĺ à¦¸
à¦ªà¦¦ à¦¬
à¦° à¦°à¦«
à¦Ł à¦¹à¦¯
à¦¸ à¦īà¦¦
à¦ª à¦°à¦®
à¦¸à¦® à¦¤
à¦¤à¦° à¦¯
à¦ĩà¦¬ à¦Ľ
à¦ıà¦¸à¦¬ à¦ķà¦¥
à¦°à¦¸ à¦¬à¦ķ
à¦°à¦ı à¦¨à¦Ĩà¦ĩà¦¡
à¦°à¦ĸà¦¬ à¦°à¦ªà¦¤
à¦¦à¦¨ à¦ĸ
à¦Ĩà¦² à¦®à¦Ĺ
à¦ķ à¦ªà¦¤
à¦ħà¦¬ à¦®
à¦¬à¦¨ à¦§
à¦¤à¦¬ à¦Ľ
à¦°à¦ħ à¦¶
à¦¦ à¦¨à¦¨
à¦¥ à¦¨à¦ķà¦°
à¦ķ à¦¹à¦¬
à¦¹ à¦¬à¦²
à¦ıà¦ķ à¦ĩà¦¸à¦Ļ
à¦¸ à¦¬à¦¸
à¦°à¦¸à¦® à§Łà¦¬
à¦·à¦£ à¦®
à¦² à¦ħà¦°
à¦°à¦¬ à¦Ľà¦°
à¦°à¦ħ à¦ľ
à¦ı à¦¹
à¦¤à¦° à§Ł
à¦² à¦Ĩà¦¨
à¦ıà¦ĩ à¦«
à¦· à¦ķà¦®
à¦ı à§Ł
à¦¬ à¦¦à¦¨
à¦¤à¦¸ à¦°à¦ķ
à¦ĩà¦² à¦ł
à¦°à¦®à¦£ à¦ķà¦°
à¦ķ à¦ľà¦¬
à§Ł à¦Ĩà¦Ľ
à¦Ĺà¦£ à¦ª
à§Ł à¦ľà¦¨
à¦ĵ à¦ķà¦®
à¦· à¦¦à¦¸
à¦° à¦°à¦Ļ
à¦Ĩà¦² à¦¬
à§Ł à¦Ĩà¦¬
à¦¬ à¦ĩà§Ł
à¦ķ à¦ĵà¦¸
à¦¯à¦ķ à¦¥
à¦¨ à¦ĺà¦Łà¦¨
à¦£ à¦Ĩà¦«
à§İ à¦«
à¦¤ à¦ķà¦¬
à¦¤à¦® à¦¶
à¦¨ à¦«à¦²
à¦ļ à¦Ĺà§ľ
à¦§ à¦Ľ
à¦® à¦Ĩà¦ªà¦¨
à§İ à¦¦
à¦ıà¦ĩ à¦¸à¦®à¦¸
à¦Ń à¦°à¦¶
à¦² à¦ĩà¦¨
à¦ıà¦ķà¦ľà¦¨ à¦¸
à¦°à¦¤ à¦°à¦«
à¦¤ à¦¬à¦¸
à¦ĸ à¦¶
à¦°à¦¶ à¦¹à¦°
à¦ķ à¦¸à¦¬
à¦« à¦¸à¦²
à¦® à§İà¦¸
à¦¥ à¦¥
à¦¬ à¦°à¦ľ
à¦°à¦®à¦£ à¦ķ
à¦ľà¦¨ à¦¯
à¦¨ à¦Ŀ
à¦Ł à¦ķà¦ª
à¦²à¦® à¦¹
à¦¸ à¦ħà¦«
à¦ıà¦¸ à¦ĩ
à¦¹ à¦Ľ
à¦¬ à¦ĩà¦Ł
à¦¯ à¦°à¦ķ
à¦Ĩà¦ĩ à¦ıà¦¸
à¦¹ à¦ĸ
à¦Ĺ à¦¸à¦Ń
à¦¬ à¦°à¦ªà¦°
à¦² à¦¬à¦°
à¦ĩ à¦Ļ
à¦ĩà¦Ł à¦¹
à¦¤à¦¹à§Ł à¦¨
à¦¤ à¦ıà¦²
à§Ł à¦Ĩà¦®à¦°
à¦§ à¦ıà¦¬
à§¨à§« à§¦
à¦Ľ à¦¯
à¦¨à¦¤ à¦®
à¦¨à¦ĵ à¦°
à¦² à¦ŀ
à¦īà¦² à¦ķà¦°
à¦¤ à¦¤à¦¬
à¦Ĩà¦ĩ à¦ıà¦¸à¦¬
à¦ª à¦ķà¦²
à¦°à¦īà¦ª à¦°à¦ķ
à¦¨à¦Ĩà¦¹ à¦®à¦¦
à¦ķ à¦¹à¦¯
à¦£ à¦ªà¦°
à¦ĵ à¦Ĩà¦¬
à¦ĵ à¦ĵ
à¦°à¦ļ à¦¤
à¦°à¦īà¦ª à¦¯
à¦¨à¦¤ à¦°
à¦Ĩ à¦°à¦Ń
à¦¸à¦® à§Łà¦¬
à¦¤ à¦īà¦ª
à¦¤ à¦Ĩà¦ªà¦¨
à¦¸à¦¦ à¦°à¦īà¦ªà¦ľ
à¦°à¦ı à¦¦
à¦°à¦² à§ľ
à§® à§¨
à¦¦ à¦²à¦ķ
à¦īà¦ľ à¦¸
à¦ĵ à¦ħà¦°
à¦Ł à¦Ĺà¦²
à¦¬ à¦ĩà¦ª
à¦· à§ľà¦¯à¦¨
à¦®à¦¨ à¦¯
à¦Ńà¦ķ à¦®à¦¨
à¦Ł à¦¹à¦¬
à¦ĩ à¦īà¦¤
à¦Ĺà¦£ à¦¨
à¦°à¦§ à¦°à¦¨
à¦¦à¦ķ à¦¶
à¦ľ à¦¬à¦¸
à¦¹ à¦Ĩà¦®
à¦°à¦ĸà¦¬ à¦°à¦¬
à¦« à¦²à¦¨
à¦°à¦ĩ à¦ķ
à§Łà¦¸ à¦¨
à¦°à¦īà¦ªà¦° à¦¦
à¦¸à¦® à¦¬
à§® à§¬
à¦°à¦Ĩ à¦°à¦ķ
à¦¨à¦Ĩ à¦ľà¦ķ
à¦°à¦¦ à¦ª
à¦¦ à¦Ĩà¦®
à¦®à¦¨ à¦¤
à¦°à¦¶ à¦¨
à¦¸ à¦ĺ
à¦¨à¦¬ à¦Ľ
à¦¤à¦® à¦®
à¦Ĩà¦¬ à¦¶
à¦¥ à¦ķà¦¦
à¦ĩà¦ľ à¦®
à¦ıà¦ĩ à¦¡
à¦ķà¦¸ à¦¨
à¦ĵ à¦ıà¦Ł
à§¯ à§¨
à¦²à¦¨ à¦¶
à¦¹ à¦°à¦£à¦¸
à¦¡ à¦ıà¦ķ
à¦¨à¦ĵ à¦Ń
à¦°à¦ĵà¦ªà¦° à¦¨
à¦¬ à¦īà¦¦
à¦¦ à¦°à¦¸
à¦¸ à¦°à¦£
à§Ł à¦¬à¦¸
à¦¥ à¦¹à¦²
à¦ªà¦¨ à¦ķà¦°à¦¤
à¦ĩà¦Ł à¦Ĺ
à¦²à¦¸ à¦ķ
à¦°à¦ħ à¦ŀ
à¦Ĩà¦ľ à¦®
à¦¤ à¦¸à¦®à§Ł
à¦£ à¦Ĩà¦¦
à¦Ĩà¦ļ à¦°à¦£
à¦®à¦¨ à¦ķà¦°
à¦¸ à¦«à¦°
à¦Ł à¦¨à¦®
à¦§ à¦¨à¦ķ
à¦Ĺ à¦ķà¦°à¦¬
à¦¬à¦² à¦ª
à¦ĵ à¦Ĩà¦Ľ
à¦°à¦ľ à¦¨à¦¸
à¦¤à¦¸ à¦ķà¦²
à¦ıà¦ĩ à¦¸à¦®à§Ł
à¦°à¦ķ à¦¸
à¦ħ à¦¯
à¦¨à¦ı à¦¨
à¦ī à¦¶à¦¨à¦¶
à¦¬à¦¨ à¦¦
à¦®à¦¦ à¦ª
à¦Ĩà¦¶ à¦Ļ
à¦ĺ à¦°à¦¬
à¦ĩà¦¸ à¦ª
à¦Ĩ à¦ĩà§Ł
à¦ıà¦®à¦¨ à¦Ń
à¦²à§Ł à¦¥
à¦ķà¦¤ à¦¦
à¦Ŀ à¦¡
à¦¤ à¦°à¦ĵ
à¦°à¦ĸ à¦°à¦ļ
à¦£ à¦ıà¦¬
à¦ıà¦ķ à¦ľ
à¦¤ à¦°à¦ľ
à¦· à¦¹à¦¯
à¦²à¦Ĩ à¦¹à¦®
à¦¯ à¦ħà¦ª
à¦°à¦ĩ à¦īà¦ª
à¦¦ à¦²à¦¬
à¦ļ à¦®à¦ķ
à§§ à§§à§ª
à¦°à¦« à¦¤
à¦°à¦Ĺ à¦ł
à§Ł à¦¨à¦ķ
à§Ł à¦Ĩà¦Ĺ
à¦Ĺ à¦²à¦ª
à¦¨à¦ľ à¦°à¦¦
à¦°à¦« à¦Ł
à¦ĩà¦® à¦¬
à¦¬à¦¨ à¦¶
à§Łà¦¦ à¦²
à¦¨à§Ł à¦ķà¦°
à¦® à¦¦à¦ķ
à¦®à¦¦ à¦¹
à¦ħà¦¬ à¦§
à¦¯à¦ĸ à¦¨à¦ķ
à¦® à¦ł
à¦² à¦¸à¦¹
à¦ķ à¦ıà¦ķà¦Ł
à§Ł à¦ķà¦¬
à¦¹à§Ł à¦¦
à¦ªà¦ķ à¦ľà¦¨
à¦· à¦ıà¦¬
à¦ĵ à¦°à¦¬
à¦ĵ à¦°à¦ķ
à§Łà¦¤ à¦¥
à§¨à§¦à§¦ à§¬
à§Ł à¦Ĩà¦ªà¦¨
à¦®à¦¤ à¦¦
à¦ķ à¦ĵà¦¬
à¦² à¦Ĩà¦Ľ
à¦ĸà¦¬ à¦°à¦¸
à¦°à¦ĩ à¦¨à¦ļ
à¦® à¦ıà¦ķà¦Ł
à¦¨ à¦ħà¦«
à¦ıà¦® à¦ı
à¦°à¦Ĩ à¦®à¦²
à¦² à¦ıà¦¨
à¦®à¦¦ à¦¶
à¦¬à¦¨ à¦ª
à¦ĩà¦¨ à¦¯
à§İ à¦ªà¦°à¦¤
à¦°à¦¯ à¦¨
à§§ à§§à§©
à¦°à¦Ĩ à¦ĺ
à¦¯ à¦Ĩà¦°
à¦°à¦Ĩ à¦ª
à¦² à¦ıà¦Ł
à§Ł à¦¹à§Ł
à¦Łà¦¬à¦² à¦¬
à¦²à¦ķ à¦Ń
à¦®à¦¨ à¦ľ
à¦ĩ à¦¯à¦¦
à¦¤ à¦ı
à¦¥ à¦ļ
à¦Ł à¦Ĩà¦®
à¦¸à¦® à§Łà¦¸
à¦ķ à¦¸à¦®à¦¸
à¦¤à¦ĸ à¦¨à¦¸
à¦ĸà¦¬ à¦°à¦¨
à¦ķ à¦ĵà§Ł
à¦¨à¦Ĩ à§Ł
à¦ĩ à¦ħà¦Ń
à¦ķ à¦¤à¦¬
à¦°à¦ª à¦°à¦Ĩà¦®
à¦¨à¦¤ à¦¨
à¦°à¦ı à¦®à¦ª
à¦Ĩ à¦ĩà¦ķ
à¦¦ à¦ĵ
à¦ĩà¦² à¦Ĺ
à¦¶ à¦¬à¦¨
à¦¹à¦² à¦¬
à¦¶ à¦ķà¦¤
à¦Ĺ à¦¤à¦°
à¦§ à¦ļ
à¦¸ à¦¹à¦¤
à¦¨à¦ıà¦ĩ à¦ª
à¦¬ à¦°à¦¸à¦ķ
à¦ł à¦ķà¦¦
à¦ķà¦° à¦ķ
à¦ªà¦ķ à¦Ń
à¦¡ à¦ı
à¦ķà¦° à¦¸
à¦£ à¦²
à§Ł à¦ıà¦²
à¦ĩà¦Ł à¦Ĩà¦ĩà¦¨
à¦¸ à¦§à¦°
à¦Ĩà¦¹à¦¤ à¦¹à§Ł
à¦ķ à¦¤à¦ķ
à§§ à§§à§«
à¦ıà¦°à¦ĩ à¦®à¦§
à¦°à¦ľ à§Ł
à¦°à¦īà¦ª à¦°à¦¬
à¦¦ à¦¤à¦¥
à¦°à¦ķ à¦¯
à¦¬ à¦ħà¦°
à¦· à¦Ĩà¦ªà¦¡
à¦°à¦ĵ à¦°
à¦ĵ à¦Ĩà¦°
à¦¦à¦¨à¦ª à¦¤
à¦°à¦ª à¦°à¦ĩ
à¦¨ à¦²à¦ķ
à¦°à¦ĵ à¦²
à¦ķà¦® à¦ªà¦ķ
à§ľ à¦ª
à¦ĩà¦¨ à¦°
à¦¬ à¦ªà¦¨
à¦°à¦ķ à¦²à¦ķ
à¦£ à¦ıà¦¶
à¦§ à¦ķà¦¤
à¦ıà¦® à¦¶
à¦°à¦ĵ à¦Ń
à¦Ĺ à¦ķà¦°à¦²
à¦« à¦ª
à¦¤ à¦ıà¦°à¦¸
à¦¹ à¦¤à¦¬
à¦® à¦°à¦ķ
à¦°à¦ıà¦¸ à¦ıà¦¸à¦¸
à¦°à¦ª à¦¤à¦¨
à¦¦ à¦Ĩà¦¬
à¦ª à¦Ļ
à¦¸à¦¬ à¦§à¦°à¦¨
à¦¤ à¦ĩà¦¤
à¦°à¦¨ à¦¸à¦®
à¦Ĺà¦¤ à¦ª
à¦¦ à¦Ĩ
à§İ à¦¤
à¦°à¦ı à¦¤
à¦ĸ à¦¨à¦¬
à¦ĩà¦¸ à¦¹
à¦® à¦ĩà¦¨
à¦ĩà¦¡ à¦ķ
à¦¤ à¦Ĩà¦°à¦¬
à¦® à¦ķà¦¬
à¦ĵ à¦¬à¦¨
à¦ıà¦ķà¦ľà¦¨ à¦¨
à¦ĩà¦² à¦¦
à¦ķà¦¸ à¦ķ
à¦Ł à¦Ĩ
à¦°à¦ī à¦ªà¦¨
à¦°à¦ĩ à§Ł
à¦®à¦¨ à¦¨
à¦° à¦°à¦ļà¦¨
à¦¦à¦ķ à¦¹
à¦ª à¦¶à¦¨
à¦ĩà¦² à¦ķà¦°
à¦² à¦Ĩà¦ªà¦¨
à¦°à¦ı à¦ĩà¦®
à§ĩà§Ĺ à¦ģ
à§¨à§¦ à§¨à§¦à§¨à§§
à¦Ĩà¦² à¦«
à¦¶ à¦¢
à¦£ à¦¤à¦¹à§Ł
à¦ħà¦ªà¦° à¦¦
à¦¨ à¦¹à¦ļ
à§Ł à¦Ĩ
à¦¨à¦¹ à¦ĵà§Ł
à¦Ĺà¦¤ à¦¯
à¦°à¦£ à¦Ĺ
à¦ı à¦¤à¦¬
à¦ª à¦°à¦¸
à¦¤ à¦ªà§ľ
à¦ķà¦ķ à¦¥
à¦ľà¦¨ à¦Ľ
à¦¸à¦ķ à¦°à¦Ľ
à¦ķ à¦ĵà¦®
à¦¦ à¦Ĺà¦ŀ
à¦ĩà¦īà¦ı à¦¨à¦ĵ
à§Ł à¦¨à¦¸
à¦°à¦ķ à¦¦
à¦Ĭ à¦°
à¦¶ à¦®à¦¨
à¦ľ à¦ħà¦¨
à¦¯ à¦¹à¦¯
à¦ħ à¦¬à¦ķ
à¦¨à¦ª à¦°à¦¬à¦°
à¦ıà¦ĩ à¦ĵà¦¯
à¦ķ à¦ĩà¦¸à¦²
à¦ķ à¦ıà¦²
à¦ĸ à¦ľ
à¦¤ à¦ªà¦ķ
à¦Ĺà¦¤à¦¬ à¦Ľà¦°
à¦°à¦ĸà¦¬ à¦°à¦¸
à¦¦à¦¨ à¦²
à¦² à¦°à¦ķ
à¦®à¦¤ à¦¹à¦ļ
à¦¦ à¦°à¦¬à¦¨
à¦ıà¦¸ à¦ķ
à¦¤à¦¨ à¦ķà¦°à¦¤
à¦ĵ à¦§
à¦¸à¦ķà¦² à¦¬
à¦°à¦ı à¦ľ
à¦ī à¦¶
à¦ķ à¦Ĩà¦ªà¦¨
à¦Ł à¦¨à¦ª
à¦®à¦¸ à¦¹
à¦Ł à¦®à¦¹
à¦Ľ à¦Ł
à¦¤à¦® à¦ľ
à¦¸à¦®à§Ł à¦²
à¦Ń à¦°à¦¯
à¦¨à¦¸ à¦ķà¦²
à¦¦ à¦ķà¦°à¦¤
à¦¤à¦¬ à¦Ľà¦°
à¦°à¦£ à¦¶
à¦°à¦ª à¦°à¦¯
à¦ĵ à¦Ĩà¦®à¦°
à¦°à¦® à¦Ļ
à¦Ŀ à¦¬
à¦ıà¦¸ à¦¡
à¦ıà¦ĩ à¦ĸ
à¦¹ à¦Ĩà¦²à¦®
à¦¨à¦Ĺ à¦²
à¦ĵà¦ı à¦°à¦Ĺ
à¦¸à¦ķà¦² à¦ª
à¦· à¦¸à¦®
à¦īà¦¬ à¦ļ
à¦ĵ à¦¬à¦°
à¦· à¦ħà¦Ń
à¦ļ à§Łà¦¤
à¦ĩà¦Ł à¦ķ
à¦īà¦² à¦Ĩà¦ī
à¦ķ à¦Ĩà¦°
à¦ıà¦ķ à¦¦à¦®
à¦ĸà¦¬ à¦°à¦Ł
à¦Ĩà¦® à¦¨
à¦Ľ à¦§à¦°
à¦ıà¦« à¦¬
à¦ªà¦ķ à¦¡
à¦¦à¦¨ à¦Ł
à¦ł à¦®
à¦¹à¦² à¦¸
à¦¨à¦ı à¦ª
à¦¯à¦ĸ à¦¨à¦¬
à¦ķà¦Ľ à§ľ
à¦¨à¦¦ à¦ķ
à¦¤ à¦¬à¦¨
à¦ĵ à¦ĩà¦¦
à¦ıà¦® à¦¡
à¦°à¦Ĺ à§ľ
à¦ķ à¦ħà¦«
à¦Ł à¦°à¦¬
à¦¤à¦ķ à¦¥
à¦¯ à¦ĩà¦ª
à¦°à¦ķ à¦·
à¦Ĩ à¦Ĩ
à¦ıà¦¡ à¦Ń
à¦ıà¦ķ à¦¨à¦ľà¦°
à¦¸ à¦¦à¦°
à¦¬à¦¹ à¦¨à¦ķà¦°
à¦°à¦ı à¦ĩà¦ķ
à¦¶à¦¨ à¦ıà¦¬
à¦¨à¦® à¦¤
à¦Ĩ à¦°à¦°
à¦ĸ à¦Ń
à¦ıà¦ĩ à¦¸à¦®
à¦®à¦¨ à¦ĸ
à¦ª à¦ķà¦¸
à¦²à¦ķ à¦ķà¦°
à¦ľà¦¨ à¦ľ
à¦°à¦ª à¦°à¦ıà¦ķ
à¦Ĺà¦ł à¦¨à¦¸
à¦® à¦°à¦£à¦ķà¦°
à¦ĸ à¦«
à¦ľ à¦²à¦ª
à¦ĩ à¦ħà¦°
à¦¶ à¦¹à§Ł
à¦¸ à¦ĩà§Ł
à¦ıà¦ķ à¦²
à¦ıà¦ĩ à¦¸à¦¬
à¦°à¦¶ à¦¸
à§Ł à¦ıà¦Ł
à¦ĵ à¦ĩà¦¨
à¦· à¦ķà¦ª
à¦ıà¦ķ à¦Ĺ
à¦ķ à¦¶à¦ķ
à¦® à¦ĩ
à¦Ńà¦ľà¦¨ à¦ķà¦¸
à¦¨à¦ķ à¦¶
à¦ı à¦²à¦¸
à¦ľ à¦ķà¦²
à§Ł à¦¬à¦¨
à¦Ĩà¦¨ à¦¹
à¦¤ à¦ħà¦¤
à¦Łà¦¬à¦² à¦Ł
à¦² à¦¨à¦ķà¦°à¦Ľ
à¦ĩà¦Ł à¦Ń
à§¨à§¦à§¦ à§§
à¦ıà¦¬ à¦Ľ
à¦ŀ à¦°
à¦°à¦¹ à¦®à¦¤
à§¨à§¯ à§¦
à¦§ à¦ªà¦°
à¦¯à¦ĸ à¦¨à¦¸
à¦ķ à¦§à¦°
à¦¨ à¦°à¦®
à¦¤ à¦¸à¦¨
à¦²à¦¤ à¦¸
à¦¤à¦ĸ à¦¨à¦ķ
à¦¬ à¦ĵ
à¦® à¦ĵà¦ľ
à¦°à¦¤ à¦¬à¦°
à¦® à¦ļà¦¨
à¦²à¦¹ à¦ķà¦¸
à¦¤ à¦ªà¦¦
à¦Ĺ à¦ļà¦Ł
à¦°à¦ľ à¦Ĺà¦¤
à¦ĩ à¦ł
à¦ī à¦¶à¦¨
à¦¹ à¦ĩà¦¬
à¦°à¦ķ à¦¤
à¦ĩà¦¡ à¦¬
à¦ĩ à¦¹à¦¯
à¦Ĩ à¦°à¦ļ
à¦Ľ à¦«
à¦¯ à¦¤à¦ķ
à¦¡ à¦ĵà§Ł
à¦ķà¦Ł à¦ķ
à¦Ĺ à¦Ĩà¦¨
à¦®à¦¨ à¦Ń
à¦Ĺ à¦¨à¦¸
à§Ł à¦īà¦¦
à¦ľà¦¨ à¦¸à¦®
à¦°à¦ĺ à¦¨
à¦°à¦ħ à¦²
à¦°à¦ĩ à¦ī
à¦· à¦¹à¦¬
à¦°à¦ı à¦Ĺ
à¦Ĺ à¦ħà¦¨
à¦Ł à¦īà¦ªà¦ľ
à¦¤ à¦ħà¦§
à¦ĩà¦Ł à¦ª
à¦ĵ à¦°à¦®
à¦¨à¦Ĩ à¦¤
à¦°à¦ª à¦ŀ
à¦²à¦¤ à¦¥
à¦°à¦Ĩ à¦ªà¦¡
à¦Ĩà§Ł à¦ķà¦°
à¦¹à¦¯à¦°à¦¤ à¦®
à¦°à¦Ĩ à¦°à¦¬
à¦¬ à¦°à¦£à¦ķà¦°
à¦®à¦¤ à¦ķ
à¦¬ à¦¬à¦²
à¦ĩ à¦Ĩà¦°
à§Łà¦¤ à¦²
à¦Ł à¦®à¦¨
à§§ à§§à§¨
à¦ĸ à¦ļ
à¦ľ à¦¬à¦¨
à¦Ĩ à¦¹à¦¬
à¦§à¦¨à¦ķà¦° à¦²
à¦ľ à¦¤à¦¨
à¦ĩà¦Ń à¦ķ
à¦°à¦ĵ à¦¶
à¦¨à¦Ĺ à¦¦
à¦¨ à¦«à¦°
à¦ĩà¦¨ à¦²
à¦ıà¦® à¦®
à¦¤ à§İà¦ķ
à¦¦à¦¨ à¦°
à¦¯ à¦¸à¦¬
à¦¯ à¦ĵà§Ł
à¦°à¦¹ à¦¨
à¦Ł à¦Ĩà¦ª
à¦¯ à¦ħà¦Ń
à¦ĩà¦¸ à¦¤
à¦°à¦īà¦ª à¦°à¦¹
à¦¶ à¦Ĩà¦®
à¦¨ à¦ħà¦¨à¦²
à¦· à¦ķà¦°à¦¤
à¦¸à¦® à§Łà¦¨
à¦Ķà¦· à¦§
à¦ı à¦²à¦¬
à¦¹à§Ł à¦ľ
à¦¦ à¦²à¦Ĺ
à¦¦ à¦Ĩà¦¤
à¦ĩ à¦¹à¦¤
à¦· à¦¹à¦¤
à¦Ł à¦°à¦ķ
à§Ł à¦ħà¦¸
à¦ĩ à¦ıà¦ĸ
à¦® à¦ķà¦°à¦¤
à¦ĸ à¦ªà¦°
à¦ķ à¦¨à¦Ń
à¦² à¦ł
à¦ıà¦¸ à¦ĩà¦¸
à¦°à¦¨ à¦¯
à¦ªà¦¦ à¦ª
à¦°à¦£ à¦Ľ
à¦Ľ à¦®
à¦°à¦¶ à¦Ļ
à¦² à¦ħà¦«
à¦Ĺ à¦¢
à¦¤à¦ª à¦¡
à¦ıà¦¸à¦¬ à¦ķ
à¦£ à¦ķà¦°à¦¤
à§Ł à¦¤à¦¨
à¦°à¦® à¦ŀ
à¦ĺ à¦ķ
à¦Ł à¦ķà¦°à¦¬
à¦Ĩà¦°à¦ĵ à¦ķ
à¦Ĩ à¦Ń
à¦ħà¦ª à¦®
à¦°à¦¯ à¦¶
à¦¨à¦ļ à¦°
à¦ļà§Ł à¦ªà¦¤
à¦® à¦Ĩà¦¹à¦®
à¦·à§Łà¦ķ à¦¸à¦®
à¦¬à¦¸ à¦īà¦¦à¦¯
à¦¼à¦¾ à¦Ĥ
à¦ı à¦¤à¦ķ
à¦ķ à¦°à¦¹à¦®
à¦ķà¦¸ à¦°
à¦°à¦¬ à¦Ļ
à¦¨à¦¬ à¦¹
à¦¨ à§ľ
à¦¸à¦® à§Łà¦ª
à¦ľ à¦ħ
à¦¬ à¦°à¦¡
à¦·à¦ķ à¦¶
à¦²à¦¨ à¦ħà¦¨
à¦Ļ à¦ļ
à¦¤ à¦ľà¦°
à¦Ł à¦ĺ
à¦°à¦¦ à¦ĸà¦²
à¦ıà¦ĸà¦¨ à¦¥
à¦· à¦ķà¦²
à¦ª à¦°à¦Ĺà¦¨
à¦°à¦¹ à¦¨à¦ķà¦°
à¦¬ à¦ĵà¦ª
à¦ı à¦°à¦Ń
à¦°à¦ķ à¦ł
à¦¸ à¦ķà¦°à¦¬
à¦°à¦¸ à¦¹à¦ľ
à¦¡ à¦ķà¦²
à§Ł à¦ªà§ľ
à¦¹ à¦°à¦¸
à§Ł à¦°à§Ł
à¦°à¦ı à¦ķà¦¨
à¦°à¦Ĩ à¦Łà¦ķ
à¦ı à¦°à¦ıà¦ķà¦Ł
à¦ķ à¦ĩà¦¨
à¦ĺà¦Ł à¦¤
à§¨à§¦à§¨ à§§à§¨à§¨
à¦ĵ à¦¢
à¦ĩ à¦Łà¦¨
à¦¨à¦ı à¦°à¦Ĩà¦Ĺ
à¦Ĺ à¦īà¦ł
à¦°à¦ Ĭ
à¦¶ à¦§
à¦ĩà¦² à¦¶
à¦¸à¦® à§Łà¦¤
à¦ķ à¦Ĩà¦¯
à§Ł à¦ıà¦ĩ
à¦§ à¦¬à¦ª
à¦§ à¦ķà¦°à¦Ľ
à¦°à¦¸à¦® à§Łà¦ķ
à¦°à¦Ĩà¦ĩà¦¨ à¦ľ
à§§à§ª à§ªà§ª
à¦ļ à¦ĸ
à¦² à¦ħà¦Ń
à¦ĵ à¦Ĩà¦¨
à¦® à¦¹à§Ł
à¦¤ à¦ıà¦Ł
à¦ĵ à¦īà¦¨
à¦ıà¦®à¦¨ à¦ª
à¦°à¦® à¦¦
à¦§ à¦ķà¦°à¦¬
à¦°à¦¦ à¦¶à¦ķ
à¦² à¦Ĩà¦ķ
à¦°à¦« à¦°à¦®à¦ª
à¦Ĩ à¦¬à¦°
à¦²à¦¸ à¦°à¦ķ
à¦ıà¦ķ à¦ļ
à¦Ī à¦¸
à¦£ à¦ĸ
à¦°à¦Ĩà¦Ĺ à¦®à¦¨
à¦¬ à¦°à¦¶
à¦ĩà¦¬ à¦Ľà¦°
à¦¨à¦ħ à¦²
à¦°à¦īà¦ª à¦¹
à¦ķ à¦ĩà¦īà¦¨
à¦Łà¦¬à¦² à¦ķ
à¦£ à¦Ĺà¦ŀ
à¦ī à¦ĩà¦¯
à¦¨à¦ı à¦¸à¦®à§Ł
à¦Ľ à¦Ĺ
à¦¦ à¦°à¦¦
à¦¤ à¦°à¦¸à¦®
à¦ıà¦ķ à¦ªà¦°
à¦® à¦¸à¦®à¦°
à¦ĸ à¦Ĺ
à¦ķ à¦ĵà¦ª
à¦°à¦Ĩ à¦¸à¦¨
à¦ıà¦®à¦¨ à¦¬
à¦¶à¦¨ à¦¥
à¦ĸ à¦¨à¦¨
à¦¨à¦¶ à¦¹
à¦¤à¦ķ à¦¸à¦®
à¦¸à¦« à¦²à¦¤
à¦ľ à¦Ĩà¦²
à¦¸ à¦ĩà¦¤
à¦¹à¦² à¦¦
à¦· à¦¡
à¦¸ à¦ļà¦²
à¦Ĺ à¦®à¦°
à¦¦ à¦°à¦ª
à¦¤ à¦ķà¦²
à¦ĩ à¦¸à¦®à¦¯
à¦¬à¦¨ à¦Ĺ
à¦¯ à¦¸à¦°
à¦ļ à¦ªà¦°
à¦²à§Ł à¦¶
à¦¤ à¦ĵà§Ł
à¦¯ à¦ĺ
à¦¬ à¦ķà¦¬
à¦°à¦ı à¦ķà¦ķ
à¦ĵ à¦ķà¦²
à¦ķà¦¤ à¦¤
à¦Ĩ à¦°à¦¹
à§Ł à¦°à¦¸
à¦² à¦ıà¦¸
à¦ĩ à¦ĵà¦¯
à§³ à§³
à¦²à¦¸ à¦¨
à¦ļ à¦¨à¦ķ
à¦°à¦Ĩ à¦¨à¦¤
à¦ĩ à¦ĩ
à¦°à¦¤ à¦¸
à¦¯ à¦īà¦¨
à¦¸ à¦ĩà¦īà¦¨
à¦²à¦ķ à¦¹
à¦Ĩà¦² à¦¤
à¦¸ à¦°à¦¬
à¦ķ à¦ľà¦¨à¦ķ
à¦Ĩ à¦ĩà¦«
à¦¹à¦¤ à¦¥
à¦¶ à¦ıà¦ķ
à¦¹ à¦¸à¦®
à¦ĵ à¦ıà¦¸
à§Ģ à¦ĥ
à¦ł à¦ķà¦ª
à¦ļ à¦°à¦ķ
à¦¯ à¦ĩà¦¸
à¦¨ à§Łà¦ķ
à¦² à¦ĩà¦īà¦¨
à¦¦à¦¨ à¦ħà¦¨
à¦°à¦ī à¦ł
à¦°à¦¨ à§Ł
à¦¤à¦ª à¦£
à¦¦à¦ĸà¦² à¦ķà¦°
à¦£ à¦®à¦¨
à¦² à§Łà¦ķ
à¦Ł à¦ıà¦²
à¦¨à¦ı à¦Ń
à¦°à¦« à¦²à¦ª
à¦¨à¦¬ à¦¬à¦°
à¦² à§Łà¦ª
à¦·à¦£ à¦ķà¦°à¦¤
à¦īà¦ľ à¦°
à¦°à¦£ à¦ħà¦¨
à¦¯ à¦ĩà¦¨
à¦² à§Łà¦¸
à¦°à¦¸ à¦°à¦¬à¦°
à¦²à¦ķ à¦¥
à¦¬à¦° à¦¯
à¦ĵà¦¸à¦® à¦®
à¦¡ à¦ĵà¦¯
à¦¤ à¦ľà¦¨
à¦¦à¦¨ à¦Ĺ
à¦Ĩ à¦°à¦ıà¦ķà¦Ł
à¦Ł à¦ķà¦²
à¦¥ à¦ªà¦°
à¦ļ à¦£
à¦ĵ à¦ħà¦¸
à¦¨ à¦§à¦¨
à¦·à¦£ à¦¶
à¦¨à¦ı à¦®à¦¨à¦ķ
à¦¨ à¦ıà¦ķà¦¬
à¦¨à¦ıà¦ĩ à¦¸
à¦¤ à¦¢
à¦¨à¦¤ à¦¦
à¦¦ à¦°à¦®
à¦ī à¦ĩ
à¦¨ à¦°à¦ķà¦®
à¦¦ à¦īà¦²
à¦ĩà¦ľ à¦°
à¦®à¦¦ à¦Ĩà¦²
à¦§ à¦¨à¦ª
à¦ĩ à¦ħà¦ªà¦°
à¦Ĩà¦Ĺ à¦·
à¦¹ à¦ıà¦¸à¦ıà¦¸à¦¸
à¦Ĩ à¦¸à¦®
à¦ıà¦¸à¦¬ à¦¬
à¦£ à¦¹à§Ł
à¦· à¦ħà¦¨
à§¬ à§¦à§¦
à¦¨à¦ĵ à¦¶
à¦°à¦ķ à¦ĸà¦¨
à¦¨ à¦ħà¦¬à¦¶
à¦Ĺ à¦ķà¦®
à¦² à¦ıà¦ĩ
à¦īà¦ª à¦¸à¦°
à¦¹à§Ł à¦ªà¦°
à¦°à¦īà¦ª à¦°à¦ª
à¦¹ à¦ªà¦°
à¦Ĩà¦ĩ à¦¨à¦¬
à¦¦ à¦°à¦¨
à¦¨à¦Ĩ à¦°à¦¬
à¦°à¦¹ à¦ĵà¦¯
à§¯à§¯ à§¯
à¦ĵ à¦ĺ
à§¨à§¦à§§à§¯ à§¨à§¦à§¨à§¦
à¦¯à¦¤ à¦®à¦¸
à§§à§¦ à§«
à¦Ń à¦īà¦¦
à¦² à¦Ŀ
à§Ł à¦¤à¦ª
à¦¸ à¦¨à¦®
à¦¯ à¦¨à¦¤
à¦ĩ à¦¶à¦¤
à§Ł à¦ħà¦¬à¦¸
à¦ŀ à¦¦
à¦Ĺà¦£ à¦¹à¦¤
à¦Ļ à¦²
à¦« à¦ķà¦°
à¦¨à¦Ĩ à¦ĩà¦¨
à¦£ à¦Ľ
à¦¨à¦ı à¦®
à¦¹à¦² à¦ª
à¦¨à¦Ĩ à¦°à¦¸
à¦¯ à¦īà§İà¦ª
à¦Ĺà¦¤à¦¬ à¦Ľ
à¦¯ à¦ĩà¦¬
à¦¥ à¦ħà¦¨
à¦¥ à¦Ł
à¦¹à§Ł à¦¶
à¦Ń à¦¬à¦ķ
à¦·à¦¦ à¦ļ
à¦ĩà¦Ń à¦Ł
à¦£ à¦¥
à¦ļ à¦¨à¦ª
à§® à§¦à§¦
à¦« à¦²à¦¬
à¦°à¦£ à¦ıà¦Ł
à¦°à¦ľ à¦¯
à¦°à¦® à¦ªà¦°
à¦ľ à¦Ĩà¦¦
à¦ī à¦¯à¦¦
à¦® à¦ĵà¦®
à§¨à§¦à§§à§Ń à§¨à§¦à§§à§®
à§İ à¦ľ
à§¨à§¦à§¦ à§ª
à¦Ĳ à¦¶
à¦ĩ à¦ıà¦ĸà¦¨
à¦ĺà¦Ł à¦Ľ
à¦ĩà¦¡ à¦²
à¦¸ à¦¬à¦°
à¦ĵ à¦ıà¦ĩ
à¦°à¦ľ à¦¨à¦¸à¦Ń
à¦ĸ à¦ķà¦¦
à¦² à¦§à¦°
à¦Ĩà¦°à¦ĵ à¦¸
à¦ľà¦¨ à¦¹
à§Ł à¦īà¦ªà¦ľ
à¦°à¦ĵ à¦ľ
à¦ĩà¦¸ à¦ķ
à¦« à¦¦
à¦ħà¦ª à¦¹
à¦®à¦¤ à¦¨
à¦Ĺ à¦²à¦¸
à¦§ à¦ķà¦°à¦²
à¦ķà¦² à¦¬
à¦ĩà¦ī à¦ıà¦¸
à¦¡ à¦¸à¦®
à¦¨à¦ľ à¦®
à¦¶ à¦¤à¦ķ
à¦¦à¦ķ à¦¸à¦®
à¦¶ à¦Ĩà¦ĵà§Ł
à¦Ĺà¦® à§Łà¦®à¦¨à¦¸
à¦²à¦ķ à¦¶
à¦Ĺà¦£ à¦¸
à¦ıà¦ķ à¦¸à¦®à§Ł
à¦°à¦£ à¦Ł
à¦ĩà¦² à¦ħ
à¦® à¦¬à¦¨
à¦£ à¦¡
à¦¨à¦¤ à¦¤
à¦¤à¦¨ à¦¹à¦¯
à¦°à¦¹à¦£ à¦ķà¦°à¦¬
à¦¯à¦® à¦¹
à¦· à¦ķà¦¥
à¦°à¦ª à¦¬
à¦°à¦Ĩ à¦¸à¦²
à¦¦ à¦°à¦Ń
à¦¤à¦® à¦ķ
à¦Ł à¦¸à¦¹
à¦ķ à¦Ĩà¦¹à¦®
à¦ĵ à¦ķà¦¨à¦Ł
à¦®à¦¸ à¦°
à¦¹à¦² à¦®
à¦¨à¦Ĺ à¦°à¦¬
à¦¨ à¦ĩà¦¬
à¦¹ à¦¨à¦¬
à¦ĸ à¦¬à¦¨
à¦¯à¦ĸ à¦¨à¦ª
à¦¨à¦® à¦§
à¦²à¦¹à¦ķ à¦ķà¦²
à¦Ń à§Łà¦ª
à¦¬ à¦ĩà¦Ĺ
à¦¯à¦® à¦ķ
à¦ª à¦ķà¦¬
à¦¸ à¦¹à§Ł
à¦¼ à§Ĥ
à¦°à¦Ĩ à¦¬à¦¹
à¦ĸà¦¬ à¦°à¦ľ
à¦¹à¦² à¦¤
à¦¶à¦¨ à¦«
à¦¶ à¦Ĩà¦¨
à§¨à§¦à§¨à§¨ à§§à§¦
à¦ķ à¦īà¦¤
à§Ł à¦ķà¦²
à¦²à¦¬ à¦ķ
à¦°à¦£ à¦ĸ
à¦¸ à¦¨à¦¸
à¦°à¦ĵ à¦ħà¦¨
à¦°à¦ī à¦ľ
à¦°à¦Ĩ à¦¬à¦¦
à¦¨à§Łà¦¨ à¦ķà¦°
à¦°à¦Ĩ à¦ªà¦¤
à¦ķà¦¸ à¦¹à¦¯
à¦°à¦Ń à¦¯
à¦¤ à¦¤à¦ķ
à¦ıà¦ķ à¦§à¦°à¦¨
à¦¹à¦¤ à¦¦
à¦ķ à¦ľà¦¨à¦ª
à¦¬à¦² à¦¦
à¦¶ à¦¨à¦¤
à¦® à¦īà¦²
à¦¹ à¦¨à¦¤
à¦ĩ à¦¹à¦ļ
à¦¨ à¦īà¦ļ
à¦Ĩà¦¸ à¦°
à¦Ĩà¦°à¦ĵ à¦ª
à¦ªà¦¨ à¦ª
à¦£ à¦ĵà¦ª
à¦¥ à¦¸à¦®
à¦¬ à¦ĺ
à¦°à¦£ à¦Ĩà¦®
à¦¬ à¦®à¦¨
à¦¨à¦¯ à¦ĸà¦¨
à¦ĩà¦² à¦ļ
à¦Ĩ à¦°à¦¡
à¦¬à§ľ à¦¬
à¦°à¦ī à¦°
à¦ª à¦Ĩà¦®
à¦ĵà¦ķ à¦ĸà¦¨
à§§à§© à§¦
à¦¹ à¦¬à¦¨
à¦ı à¦°à¦®à¦¤
à¦·à¦£ à¦ªà¦°
à¦§ à¦ħà¦¨
à¦²à¦¤ à¦ĸà¦¨
à¦°à¦¤ à¦ļ
à¦¶ à¦¬à¦°
à¦Ĺ à¦°à¦ª
à¦ĩà¦² à¦ľ
à¦ķ à¦Ĺà¦²
à¦ĩà¦® à¦¦
à¦°à¦ı à¦®
à¦Ĺà¦£ à¦¸à¦®
à¦¹ à¦°à¦¦
à§Ł à¦ķà¦¸
à¦Ł à¦¹à¦¤
à¦ķà¦° à¦°
à¦°à¦ı à¦¶
à¦¹ à¦ĩà¦¬à¦¨
à¦¤ à¦°à¦Ł
à¦īà¦² à¦ĩà¦¸à¦²
à¦ĩ à¦ħà¦ķ
à¦°à¦Ĭ à¦°
à¦īà¦² à¦Ĩà¦²
à¦§à¦¨ à¦«
à¦Ĩ à¦°à¦Ĺ
à¦°à¦Ī à¦¶
à¦¨à¦¬ à¦¦
à¦°à¦¸à¦® à§Łà¦ª
à¦ĩà¦Ń à¦¸
à¦¶à¦ķ à¦°à¦Ľ
à¦®à¦¤ à¦¸
à¦ľà¦¬ à¦Ĺ
à¦¦à¦¨ à¦«
à¦¤ à¦Ĺà¦¤
à§ľ à¦¸
à¦ª à¦ĵà¦¸
à¦ľà¦¨ à¦¸à¦Ń
à¦ıà¦® à¦ıà¦®
à¦ıà¦ĩ à¦ķà¦¥
à¦Łà¦ķ à¦ıà¦ķ
à¦¸à¦ĵ à¦Ĳà¦¤
à¦°à¦£ à¦ıà¦¬
à§¨à§¯à§¦ à§Ńà§¬
à§®à§®à§¦ à§¨à§®à§ªà§©
à§®à§®à§¦à§§à§Ń à§¨à§¯à§¦à§Ńà§¬
à¦¯à¦ª à¦£
à¦§ à¦§à¦°
à¦°à¦ Ķ
à¦¡ à¦ħà¦¨
à¦« à¦Ĺ
à§Ł à¦¨à¦®
à¦ľ à¦ĵà§Ł
à¦ķà¦° à¦¨
à¦ļà¦¨ à¦ħà¦«
à¦®à¦¸ à¦¨à¦¦
à¦Ĩ à¦¹à¦²
à¦Ĺ à¦¸à¦°à¦ķ
à¦ĵ à¦°à¦¸
à¦Ł à¦¸à¦¬
à¦°à¦¨ à¦ķà¦°
à§¨à§¦à§¨à§§ à§¨à§¦à§¨à§¨
à¦¬à¦¸ à¦¹
à¦· à¦®à¦¨
à¦§à¦¨ à¦Ľ
à¦Ĩà¦ľ à¦°
à§İ à¦¶
à¦ľ à¦Ĺà¦¨
à¦°à¦£ à¦¡
à§§à§§ à§§à§¨
à¦ľ à¦Ĩà¦®
à¦°à¦ĵ à¦·
à¦Ĺ à¦²à¦®
à¦°à¦ĵà¦ª à¦°à¦¹
à§§à§¯à§¯ à§¬
à¦°à§Ł à¦ķà¦°
à¦° à¦°à¦®
à¦¯ à¦īà¦ª
à¦· à¦ľà¦¨à¦ª
à¦ĺ à¦¬
à¦¬à¦¨ à¦¥
à§§à§ª à§¦
à¦ıà¦ĸ à¦¨à¦¦
à¦¶ à§Ł
à¦¥ à¦¹à¦¯
à¦¨ à¦°à¦¯
à¦¤ à¦ĵà¦¬
à¦¦à¦¨ à¦Ń
à¦ĵ à¦¸à¦¨
à¦¨à¦ĵ à¦ľ
à¦¬ à¦°à¦«
à¦®à¦¦ à¦ľ
à¦ħà¦¬ à¦¤
à¦¶ à¦ħ
à¦ıà¦« à¦¡
à¦¯ à¦§à¦¨
à¦°à¦īà¦ª à¦ªà¦°
à¦¡ à¦īà¦¤
à¦Ńà¦¬ à¦¹à¦¬
à¦¨à¦¤ à¦ķà¦°
à§¨à§¦à§¨à§¨ à§§à§¨
à¦¶à¦¤ à¦Ń
à¦Ĩà¦¸ à¦¸
à¦¹ à¦°à¦ª
à¦°à¦¬ à¦£
à¦ĩà¦¦ à¦²
à¦°à¦¬ à¦¦
à¦ª à¦ĺ
à¦¤à¦¨ à¦¶
à¦°à¦¹ à§Łà¦¨
à¦ķ à¦ĺà¦Łà¦¨
à¦¤ à¦²à¦¬
à¦· à¦®à¦¹
à¦ıà¦¨ à¦¡
à¦¶à¦ķ à¦ĵà¦¸à¦®
à¦°à¦ĩ à¦ķà¦¬
à¦¨à¦Ĺ à¦£
à¦¤à¦¬ à¦ķ
à¦·à¦ķ à¦¸à¦®
à¦°à¦Ń à¦ķ
à¦ķ à¦ķà¦°à¦²
à¦¸à¦¬ à¦¹
à§ľ à¦ķà¦¦
à¦Ł à¦¬à¦¨
à¦¨à¦ª à¦£
à¦¹ à¦ķà¦°à¦¤
à¦¯ à¦ħà¦¤
à§Ł à¦ķà¦°à¦¤
à¦°à¦ĵ à¦¶à¦¨
à¦²à¦¸ à¦°
à¦¨à¦ľ à¦¬
à¦ıà¦ķ à¦ĩà¦Ń
à¦Ĩà¦ľ à¦¶
à¦¯ à¦¬à¦¨
à¦°à¦¥à¦® à¦¶
à¦Ń à¦Ĺà¦¬
à¦ĵ à¦īà¦¦
à¦¨à¦ķ à¦ķ
à¦ľ à¦¹à¦¬
à¦ªà¦¦ à¦°
à¦°à¦ļ à¦²à¦ļ
à§Łà¦¬ à¦Ļ
à¦ı à¦¨à¦¬
à¦ĩà¦² à¦¸à¦®
à§Łà¦¦ à¦«
à¦ĵ à¦ĩà¦¸
à¦® à¦ĵà§Ł
à¦ĩ à¦ªà§ľ
à¦°à¦¥à¦® à¦Ł
à¦° à¦°à¦¯
à¦¦à¦ķ à¦Ĩà¦¬
à¦Ĺ à¦ķà¦°à¦Ľ
à¦ıà¦ĩ à¦ħ
à¦¯ à¦°à§Ł
à¦°à¦ĵà¦ªà¦° à¦¦
à¦¸à¦¬ à¦ĸà¦¬
à¦Ĩà¦ĩà¦¨ à¦ª
à¦ıà¦® à¦ľ
à¦Ĩ à¦ĩà¦Ń
à¦ĭ à¦·
à¦¹à§Ł à¦Ĩà¦®
à¦¦à¦ķ à¦®à¦¨
à¦Ĩà¦°à¦ĵ à¦Ń
à¦°à¦¹ à¦ķ
à¦Ĩà¦ľ à¦¥
à¦ķ à¦ĵà¦¯
à¦ļ à¦¨à¦¸
à¦ĵ à¦ķà¦°à¦¤
à¦¨à¦Ĺ à¦¬
à¦°à¦¨ à¦¬à¦¨
à¦ľà¦¨à¦Ĺà¦£ à¦ķ
à¦²à¦¨ à¦ķà¦°à¦¬
à¦ľ à¦ĵà¦¸
à¦ĩ à¦°à§Ł
à¦ª à¦ķà¦°à¦¤
à¦¨à¦ı à¦®à¦ª
à¦ıà¦®à¦¨ à¦¸
à¦¨à¦ķ à¦¨
à¦§à¦¨ à¦ķà¦°à¦¤
à¦ķ à¦Ŀ
à¦ĵ à¦°à¦ª
à¦¶ à¦ĵà¦¬
à§§ à§§à§®
à¦ī à¦ĩà¦®
à¦¯ à¦ı
à¦² à§Łà¦®
à¦°à¦¸ à¦«
à§Ń à§¦à§¦
à¦ĩà¦ī à¦²
à¦· à¦§
à¦īà§İ à¦¸à¦°
à¦Ĩ à¦°à¦ĸ
à¦¨ à¦ħà¦ķ
à¦¯ à¦ĩà¦ķ
à¦®à¦¦ à¦°
à§Ł à¦ĵà§Ł
à¦¸ à¦ªà¦¤
à¦Ł à¦¨à¦¸
à¦¤ à¦°à¦¤
à¦¸ à¦Ĳà¦¤
à¦¨à¦¦ à¦°
à¦Ł à¦¸à¦®à§Ł
à¦¹ à¦²à¦ķ
à¦® à§Łà¦¨
à¦¸ à¦°à¦¡
à¦¶ à¦¶à¦¤
à¦²à¦Ĩ à¦¹à¦¸
à¦² à¦Łà¦¨
à¦ĵ à¦§à¦°
à¦® à¦¢
à¦² à¦¨à¦¨
à¦Ń à¦¸à¦®
à¦¸ à¦¹à¦²
à¦ĵ à¦¹à§Ł
à¦°à¦®à¦£ à¦¬
à¦¤ à¦¤à¦¦
à¦¹ à¦°à¦¬
à¦°à¦ª à¦¨
à¦¶à¦¨ à¦ļ
à¦Ł à¦Ĩà¦ķ
à¦°à¦¨ à¦ķ
à¦® à¦°à¦¦
à¦¤à¦ĸ à¦¨à¦¬
à¦² à¦ĩà¦¤
à¦¶ à¦ķà¦ķ
à¦ĩà¦² à¦¡
à¦· à¦ľà¦¨
à¦¤ à¦¶à¦¬
à¦ıà¦« à¦ª
à¦°à¦¥à¦® à¦ªà¦°
à¦ľà¦ª à¦¥
à¦¨à§Ł à¦¨à¦ªà¦¤
à¦¯ à¦Ĩà¦Ĺ
à¦Ĩ à¦°à¦«
à¦ļà¦² à¦²
à¦¦ à¦ı
à¦ĩ à¦¶à¦°
à¦¨à¦§ à¦°à¦£
à¦¯ à§Łà¦¨
à¦·à§Ł à¦¬à¦¸
à¦¦ à¦¸à¦°
à¦ķ à¦ļà¦ķ
à¦ķà¦¸ à¦ª
à¦¸ à¦¸à¦¹
à¦¯ à¦ıà¦ĩ
à¦°à¦ķ à¦®à¦¬
à¦ĵà¦¯ à¦¦
à¦¨à§Ł à¦¨à¦ķ
à¦¨à¦ª à¦²
à¦ħà¦ª à¦¬
à¦¤à¦ĸà¦¨ à¦Ĩà¦®
à¦¨à§Ł à¦¨à¦¸
à¦¤ à¦²à¦ķ
à¦¯ à¦ĵà¦¬
à¦° à§Łà¦¨
à¦·à¦£ à¦Ĺ
à¦£ à¦ľà§Łà¦¨
à¦¸ à¦ıà¦¸
à§¨à§¦à§¦ à§«
à¦ª à¦¬à¦²
à¦ĩà¦ķ à¦Ĺ
à¦¯ à¦ħà¦ªà¦°
à¦°à¦¨ à¦¨
à¦¨à¦¤ à¦ĸà¦¨à¦¤
à¦ļ à¦²à¦ķ
à¦ĵ à¦īà¦ªà¦ľ
à¦¬à¦¹ à¦¨à¦§à¦°
à¦· à¦«
à¦Ĩà¦ľ à¦¤
à¦ĩ à¦īà¦¦
à¦¤à¦°à¦£ à¦«
à¦¯à¦¨ à¦¯
à¦²à¦¨ à¦¦
à¦°à¦Ĩ à¦¡
à¦« à¦Ĩà¦²
à¦²à¦¹ à¦ĵà§Ł
à§§ à§§à§¯
à¦¬à¦Ľ à¦°à¦ªà¦°
à¦¯ à¦ĵà¦ªà¦°
à¦¬ à¦°à¦ĸ
à¦ª à¦ļà¦°
à¦¹ à¦ıà¦¬
à¦ļ à¦Ń
à¦ıà¦¸à¦ıà¦® à¦ıà¦¸
à¦¹ à¦ħà¦¨
à¦°à¦ĩ à¦ľ
à¦¯ à¦ķà¦¬
à¦¯ à¦°à¦ļà¦¨
à¦°à¦¸ à¦¤à¦°
à¦§ à¦¨à¦¨
à¦¬ à¦¹à¦¤
à¦¨à¦® à¦°
à¦¬ à¦ĩà¦ķ
à¦Ł à¦¨à¦¬
à¦®à¦¦ à¦¬
à¦¯ à¦Ĩà¦Ľ
à¦ĩ à¦ħà¦¸
à¦¨ à¦ļà¦¨
à¦« à¦²à¦¸
à¦¤ à¦Ĩà¦¨
à¦£ à¦¤à¦ķà¦°
à¦ĩà¦¨ à¦¥
à¦ıà¦¸ à¦Ĩà¦ĩ
à¦°à¦£ à¦¸à¦Ń
à¦ªà¦° à¦¦
à¦¹ à¦²à¦¨
à¦ķà¦® à¦¦
à¦ı à¦¸à¦®à¦¯
à¦ª à¦ĵ
à§§à§§ à§§
à¦¹ à¦ĩà¦²
à¦ı à¦°à¦ľ
à¦¨à¦ķ à¦Ĩà¦īà¦Ł
à¦° à¦²à¦¨
à¦ªà¦¨ à¦īà¦ªà¦²à¦ķ
à¦¯à¦Ł à¦ķà¦¦
à¦¯ à¦¹à¦ļ
à¦°à¦ķ à¦¬à¦²
à§ģ à§ģ
à¦¯à¦¤à¦® à¦ª
à¦¬ à¦ĩà¦¨
à¦ĩà¦¸ à¦°à¦ķ
à¦¸à¦¬ à¦¥
à¦¡ à¦²à¦¸
à¦°à¦ĩ à¦Ń
à¦® à¦Ĩà¦°
à¦¶ à§Łà¦¤
à¦® à¦ħà¦°
à¦ĩ à¦¬à¦²à¦²
à¦¨à¦¸ à¦¹à¦ķ
à¦°à¦§ à¦¨
à§Ł à¦ħà¦¤
à¦ıà¦² à¦ľ
à¦¤ à¦ĵà¦ª
à¦¬ à¦®à¦¹
à¦°à¦ĩ à¦¨à¦¸
à¦ķà¦°à¦£ à¦¬
à¦°à¦£ à¦°
à¦® à¦ĵà¦¸
à¦¤à¦°à¦ĵ à¦¦à¦ķ
à¦¬ à¦¨à¦¤
à¦ī à§İà¦ķ
à¦¦ à¦Ĩà¦¨
à¦Ĩ à¦°à¦¯à¦¦
à¦ĸ à¦¡
à§Ł à¦ħà¦¨à¦²
à¦¤ à¦ľà¦®
à¦Ĩ à¦°à¦²
à¦°à¦ı à¦°
à¦Ł à¦¦à¦²
à¦®à¦¨ à¦²
à¦¨ à¦ĺà¦Ł
à¦¹à§Ł à¦ħà¦¨
à§Ł à¦īà¦¤
à¦ľà¦¨ à¦Ń
à¦¨à¦ª à¦¶
à¦¨ à¦ĺà¦°
à¦ª à¦§
à§Ł à¦ıà¦¤
à¦°à¦¬ à¦¤
à¦¤ à¦Ĩà¦ķ
à¦°à¦ĸ à¦¨
à¦² à¦Ĩà¦¸
à¦¬ à¦°à¦Ń
à¦°à¦ª à¦°à¦Ĺ
à¦¨à¦® à¦Ļ
à¦¤ à¦ħà¦¸
à¦Ĺ à¦ªà¦¤
à¦¤à¦® à¦¦
à¦¨à¦ª à§ľ
à¦Ĺ à¦°à§Ł
à¦ĵ à¦®à¦°
à¦ħà¦ª à¦¹à¦°à¦£
à¦°à¦¥ à¦®à¦¨
à¦¸à¦¹ à¦ļ
à¦§ à¦¹à¦¬
à¦® à¦ķà¦ķ
à¦°à¦¸à¦® à§Łà¦¤
à¦¸à¦® à§Łà¦¦
à¦ıà¦ķ à¦¬à¦Ľà¦°
à¦¦à¦ķ à¦¤
à¦²à¦Ĺ à¦Ļ
à¦Ł à¦®à¦¸
à¦°à¦ĩ à¦«à¦¤
à¦·à§Ł à¦¸à¦®
à¦Ĩ à¦ĩà¦²
à¦°à¦® à¦¸à¦ľ
à¦¬ à¦Ĩà¦²à¦¹
à¦¥ à¦ľ
à¦¨à¦ħ à¦®
à§§à§¦ à§®
à¦¬à¦¨ à¦Ł
à§¨à§¦à§¦ à§©
à¦Ĩà¦ľ à¦¦
à¦¡ à¦Ľ
à¦Ĩà¦ĩ à¦¨à¦¸
à¦¬ à¦ĵà§Ł
à¦¹ à¦°à¦°
à¦¤à¦¨ à¦Ĺ
à¦ĩ à¦Ĩà¦¨
à¦ķà¦° à¦ķà¦®
à§Ł à¦Ĩà¦°à¦ĵ
à¦® à¦ķà¦¸
à¦°à¦ı à¦ĩà¦¨
à¦ĸ à¦ķà¦¬
à¦°à¦ī à¦ķ
à¦¦ à¦°à¦ķà¦°
à¦Ľ à¦ļ
à¦¯ à¦ĩà¦®
à¦īà¦²à¦Ĩà¦ī à¦¯
à¦ıà¦ĸà¦¨ à¦¯
à¦«à¦Ł à¦ĵà§Ł
à¦¨à¦¹ à¦ĩà¦¨
à§Łà¦¦ à¦®
à§§à§¯ à§Ńà§«
à§Łà¦¬ à¦¹
à¦² à¦īà¦²
à¦°à¦ķ à¦®à¦²
à§§à§¦ à§§
à¦¹ à§İ
à¦°à¦Ń à¦Ł
à¦¨ à¦ĩà¦¸
à¦¨à¦¨ à¦¦
à¦£ à¦ªà¦¶
à¦² à¦¤à¦ķ
à¦ıà¦ĸ à¦¨à¦®
à§Łà¦¨ à¦¶
à¦¬à¦ķ à¦¨
à¦°à¦Ĩ à¦ĩà¦¸
à¦ĺ à¦²
à¦¨à¦Ĺ à¦ŀ
à¦°à¦ĵ à¦ľà¦¨
à¦¹à¦² à¦¯
à¦¸ à¦ĩà¦¨
à¦ī à¦«
à¦ĺ à¦¡
à¦ĩ à¦ªà¦ķ
à§Łà¦ķ à¦¥
à¦·à¦£ à¦ļ
à¦¨à¦ı à¦Ĺ
à¦°à¦Ľ à§ľ
à¦² à¦°à¦¬
à¦¬à¦ĩ à¦ªà¦¤
à¦® à§Łà¦¦
à¦¶à¦¨ à¦ħ
à¦°à¦ĵ à¦Ĺ
à¦¬à¦¨ à¦ľ
à¦Īà¦¦ à¦Ĺ
à¦¨ à¦īà¦ªà¦²à¦ķ
à¦°à¦ª à¦°à¦¹
à¦ıà¦¸ à¦ıà¦«
à¦Łà¦ª à¦£
à¦¤ à¦¸à¦¬
à¦ķà¦² à¦¸
à¦¨ à¦ľà¦¨à¦ª
à¦Ĺ à¦ĵ
à¦ī à¦²à¦¹
à§ªà§« à§¬
à§Ł à¦īà¦¨
à¦°à¦Ĺ à¦¡
à§Ł à¦īà¦ª
à¦Ĺ à¦°à¦ķ
à¦¯à¦® à¦°
à¦ıà¦¸à¦® à§Łà¦¤
à¦°à¦ĩ à¦īà¦Ł
à§Ł à¦¨à¦ª
à¦ľà¦¨ à¦¹à¦¯
à¦¸ à¦°à¦¸
à¦¸à¦« à¦Łà¦ĵà§Ł
à¦ĩ à¦¢
à¦ĩ à¦ħà¦Ĺ
à¦¨à¦¸ à¦ª
à¦°à¦ĩ à¦¦
à¦¬ à¦ĩà¦Ń
à¦Ĺ à¦īà¦¤
à¦ĩà¦¡ à¦¨
à¦¦ à¦īà¦¦
à¦ıà¦¸ à¦Ł
à¦® à¦°à¦¬
à¦ıà¦ĩ à¦¸à¦®à¦¯
à¦¬ à¦ĩà¦¤
à¦ĸ à¦¨à¦ª
à¦² à¦°à¦ª
à¦ļ à§Łà¦¦
à¦¨à¦¸ à¦¦
à¦°à¦ı à¦¡
à¦¨ à¦ĩà§Ł
à§İ à¦Ń
à¦Ł à¦¸à¦¨
à¦ĩà¦¨ à¦ªà¦°
à¦¦ à¦®à¦¤
à¦ķ à¦°à¦Ĺ
à¦¯ à¦¸à¦®à¦¸
à¦ļ à¦¨à¦¨
à¦¹ à¦°à¦®
à¦¸ à¦°à¦®
à¦® à¦°à¦¹
à¦®à¦¨ à¦Ĩà¦Ľ
à¦· à¦Ĩà¦®
à¦°à¦¹ à¦ķà¦°à¦¤
à§Ł à¦°à¦ª
à¦°à¦¸à¦¹ à¦ª
à¦°à¦ĩ à¦ŀ
à¦§ à¦¨à¦¦
à¦ª à¦ķà¦ķ
à¦¤ à¦°à¦Ļ
à¦Ĺà¦ł à¦¨à¦Ł
à¦Ĩ à¦ĸà¦¤
à¦Ĺ à¦¹à§Ł
à¦ĩ à¦ıà¦®à¦¨
à¦¦ à¦¹à§Ł
à§¨à§¦à§§à§¯ à§¨à§¦
à¦ıà¦°à¦¦ à¦¶à¦ķ
à¦¤ à¦¸à¦®à¦¯
à¦Łà¦® à¦¶
à¦ļà¦¨ à¦ħà¦¨
à¦¯ à¦°à¦ķà¦®
à¦°à¦¹ à¦ª
à¦ļ à¦°à¦£
à¦ĩ à¦Ŀ
à¦Ń à¦ķà¦°à¦¤
à§§ à§§à§¬
à¦ĵ à¦ĩà¦®
à¦¸ à¦°à¦ŀ
à§§à§¨ à§«
à¦¸ à¦ıà¦¨
à¦¦à¦« à¦¤à¦°
à¦¤à¦¨ à¦ĩà¦¤
à¦¶ à¦ı
à§Ł à¦ļà¦²
à¦ĩ à¦ıà¦Ĺ
à¦¨à¦Ĩ à¦°à¦¤
à¦ĩà¦¨ à¦ļ
à¦Ĺà¦£ à¦ªà¦°
à¦¸ à¦ıà¦ķà¦Ł
à¦® à¦Ĩà¦¸
à¦Ĩ à¦ĩà¦®
à¦Ĩà¦ľ à¦Ĩà¦®
à¦ĩ à¦ıà¦²
à¦ķà¦Ł à¦ª
à¦² à¦ıà¦²
à¦ķà¦® à¦°
à¦¨à¦ħ à¦ŀ
à§¦ à§§à§¯
à§§à§¬ à§§à§Ń
à¦°à¦ª à¦°à¦ľ
à§Ł à¦¬à¦ķ
à¦ĵà¦¸ à¦°à¦ķ
à¦¤ à¦īà¦¤
à¦®à¦¸ à¦²
à¦ļà¦² à¦¬à¦¨
à¦¶à¦¨ à¦¡
à¦²à¦Ĺ à¦¬
à¦ķ à¦¹à¦ĵà§Ł
à¦¬à¦° à¦²
à¦¹ à¦ĩà§Ł
à¦¶à¦¶ à¦¤à¦ķ
à¦¯ à¦ķà¦°à¦²
à¦² à¦ĩ
à¦°à¦¸à¦¦ à¦°à¦īà¦ªà¦ľ
à¦¨à¦ļ à¦ķ
à¦ĩà¦Ł à¦ķà¦°
à¦Ł à¦§à¦°
à¦²à¦Ĩà¦² à¦®
à¦ıà¦ĩ à¦§
à¦® à¦ĵà¦¯
à¦Ł à¦¬à¦°
à¦Ĩà¦¨ à¦²
à¦Łà¦ķ à¦°à¦Ľ
à¦°à¦¨à¦Ĺ à¦°à¦¬
à¦²à¦® à¦§
à¦¬ à¦ķà¦¸
à¦°à¦® à¦¤à¦ķ
à§§ à§§à§Ń
à¦£ à¦§
à§¯ à§§à§¦
à¦ķ à¦¸à¦¬à¦ľ
à¦Ĩ à¦¨à¦¬
à¦² à¦Ĩà¦¦
à¦ľà¦¨ à¦¹à¦¬
à¦¸ à¦ķà¦ķ
à§¨à§¦à§¦ à§¨
à§§à§© à§§à§ª
à¦°à¦ħ à¦ªà¦¬
à¦Ł à¦ĩà¦īà¦¨
à¦Ĺà¦¤ à¦¤
à¦¦ à¦²à¦¨
à¦·à¦® à¦¹à¦¬
à¦¤ à¦ļà¦ķ
à¦¦ à¦ĺ
à¦¶à¦¨ à¦¸à¦®
à¦ĸ à¦ĺ
à¦ıà¦¸ à¦ľ
à¦¶ à¦²à¦¬
à¦°à¦ĩ à¦¬à¦¨
à¦¹à¦¤ à¦¨
à¦¶ à¦¸à¦®à§Ł
à¦· à¦¦à¦°
à¦¯à¦ĸ à¦¨à¦®
à¦ķà¦° à¦¬à¦¨
à¦¸à¦® à¦Ŀ
à¦ľ à¦ķà¦°à¦²
à¦°à¦® à¦²
à§§à§¬ à§¦
à¦ĩ à¦Ĩà¦¶
à¦Ł à¦ķà¦°à¦²
à¦ķà¦® à¦Ľ
à¦¶à¦¨ à¦²
à¦¬à¦¸ à¦Ł
à¦ķ à¦ķà¦¬
à§İà¦¸ à¦ķà¦¦
à§Łà¦¨ à¦Ĩà¦ĵà§Ł
à¦Ń à¦¶
à¦¤à¦¸ à¦ļ
à¦² à¦ķà¦°à¦²
à¦Ł à¦Ĩà¦Ĺ
à¦®à¦¨ à¦ļ
à¦ĩà¦¨ à¦¹
à¦°à¦ĵ à¦¹
à¦ĵ à¦°à§Ł
à¦ıà¦ķ à¦¸à¦ª
à¦Ł à¦¸à¦ķ
à¦¤ à¦ĵà¦®
à¦Ń à¦°à¦¸
à¦Ĩà¦ĩ à¦ıà¦®
à¦Ĺà¦ł à¦¨à¦¬
à¦¯à¦¥ à¦Ń
à¦² à¦²à¦ķ
à¦§ à¦¡
à¦Ľ à¦¦à¦¸
à¦īà¦ª à¦¬
à¦¯ à¦ħà¦¸
à¦¶à¦¨ à¦ķà¦°à¦¤
à¦²à¦® à¦ľ
à¦¹ à¦¨à¦ª
à¦ĵ à¦ĩà¦ª
à¦°à¦ħ à¦¦
à§İ à¦¸à¦¬
à¦® à¦Ĩà¦¦
à¦¨à¦¨ à¦¯
à§¦ à§§à§®
à¦¤à¦°à¦Ĩ à¦¹à¦¤
à¦ıà¦ĩ à¦ħà¦¨
à¦¨à¦ıà¦ķ à¦¦
à¦¨à¦ıà¦ĩ à¦ķ
à¦ķà¦² à¦ª
à¦® à¦§à¦¨
à¦ķ à¦§à¦¨
à¦¬ à¦°à¦¹
à¦²à¦Ĺ à¦¸
à¦Ĩ à¦°à¦ħà¦¨
à§Ł à¦§à¦°
à¦£ à¦¬à¦¨
à¦¨à¦ı à¦°
à¦Ĩà¦Ł à¦ķà¦ķ
à¦°à¦® à¦¬à¦°
à¦¯à¦ĸà¦¨ à¦Ĩà¦ªà¦¨
à¦ª à¦®à¦¨
à¦« à¦°à¦ĩà¦ķà¦¬
à¦ĺ à¦¶
à¦īà¦ľ à¦ķ
à¦¨à¦¶ à¦¬
à§İà¦¸ à¦ķà¦°
à¦¤ à¦ĩà¦¨
à¦¨à¦ķ à§Ł
à¦®à¦¦ à¦Ĩà¦¬
à¦«à¦² à¦¦
à¦ł à¦ªà¦°
à¦¤ à¦°à¦¹
à¦£ à¦ĺ
à¦ª à¦ķà¦ª
à¦Ł à¦²à¦ķà¦°
à¦ĩ à¦¹à§Łà¦¤
à¦¹à§Ł à¦Ĺ
à¦®à¦Ĩà¦² à¦®à¦Ĺ
à¦®à¦¶ à¦¤à¦¬
à¦¤ à¦ĩà¦īà¦¨
à¦¨à¦ĵ à¦¹
à¦¬ à¦ĩà¦¯
à¦ķà¦¦ à¦°
à¦ĩà¦² à¦°
à¦« à¦²à¦ķ
à¦²à¦Ĺ à¦ĩà¦¨à¦ķà¦°
à¦¯à¦® à¦¯
à¦· à¦¹à¦ĵà§Ł
à¦ĩ à¦¸à¦®à¦¸
à¦°à¦ı à¦ķà¦¤
à¦· à¦°à¦ķà¦°
à¦¹ à¦ĵà¦¤
à¦·à¦£ à¦¤
à¦ķà¦¬ à¦Ļ
à§Ł à¦ıà¦®à¦¨
à¦ıà¦ĩ à¦ħà¦Ń
à¦ĩà¦² à¦¹
à¦¯ à¦īà¦ªà¦¯
à¦ĺà¦Ł à¦²
à¦°à¦¬ à¦²à¦²
à¦Ĩà¦¸ à¦ķ
à¦Ĳ à¦¨
à¦Ł à¦Ĩà¦¬
à¦¨à¦ı à¦°à¦®à¦§
à¦°à¦īà§İ à¦¸à¦¬
à¦°à¦Ĩ à¦Ń
à§İ à¦¯
à¦¤ à¦®à¦¸à¦ª
à¦ıà¦°à¦ª à¦°à¦¤
à¦¸ à§Ł
à§¦à§¦ à§¦à§¦
à¦²à¦¸ à¦¤
à¦¦ à¦Ĩà¦¹à¦®
à¦¦ à¦Ĩà¦¹à¦®à¦¦
à¦ı à¦°à¦¸à¦®
à¦®à¦¦ à¦¤
à¦¨à¦¸ à¦¦à¦¸
à¦ľ à¦²à¦¦
à¦ı à¦°à¦ħà¦¨
à¦² à¦ĵà¦ª
à¦ķà¦Ł à¦¥
à¦Ľ à¦¹
à¦Ń à¦°à¦ª
à¦Ń à¦°à¦¤
à§Ł à¦ħà¦§
à¦· à¦ĸà¦¬
à§ľ à¦¹
à¦² à¦¬à¦¸
à¦ĸ à¦¨à¦®
à¦°à¦¹ à¦¦
à¦¦à¦¨ à¦ļ
à¦Ľ à¦¸
à§§à§© à§§
à¦°à¦ħ à¦¨à¦¨
à¦¸à¦Ń à¦¬à¦¨
à¦Ł à¦§
à¦ĺ à¦ª
à¦²à¦ª à¦¥
à¦¯ à¦Łà¦ķ
à¦¨ à¦ĩà¦¬à¦¨
à¦¨ à¦ī
à§İ à¦¸à¦°
à§Ł à¦°à¦®
à¦ªà¦¨ à¦¸à¦®
à¦ĩà¦ķ à¦¦
à¦ĩà¦ľ à¦¬
à¦¸ à¦¸à¦°
à¦¨à¦¬ à¦¬
à¦²à¦¤ à¦¤
à¦Ł à¦Ĩà¦°
à§Ł à¦¯à¦¦
à¦· à¦¤à¦¬
à¦² à¦®à¦¤
à¦ķ à¦¢
à¦®à¦¨ à¦°
à¦°à¦ĩ à¦īà¦°
à¦ķ à¦ħà¦ŀ
à¦ľ à¦ĵ
à¦® à¦ªà¦¨
à¦¯ à¦ĵà¦ļ
à¦¨ à¦īà¦ªà¦¦
à¦Ĺà¦£ à¦ķ
à¦¨à¦¬ à¦¡
à¦ħà¦ª à¦°à¦ķ
à¦¸ à¦¨à¦¨
à¦°à¦¸ à¦¨à¦¦
à¦īà¦ľ à¦²
à¦ļ à¦ĩà¦ŀ
à¦Ł à¦¨à¦ķ
à¦°à¦ĩ à¦¹
à§Łà¦¨ à¦¦
à¦°à¦®à¦£ à¦ª
à¦°à¦§ à¦°à¦ķà¦°
à¦°à¦¬ à¦²à¦Ľ
à¦®à¦Ĺ à§ľ
à¦® à¦ĵà¦¬
à¦¨à¦Ĩà¦°à¦ĵ à¦ªà§ľ
à¦¯ à¦ĩà¦Ĩà¦®
à¦®à¦¨ à¦ıà¦ķà¦Ł
à¦® à¦¸à¦¬
à¦¡ à¦ĩà¦¨
à§Ł à¦Ŀ
à¦² à¦Ĩà¦®à¦°
à¦¶ à¦ĵà¦¸
à¦¬ à¦°à¦Ĩ
à¦® à§İà¦ķ
à¦ıà¦ĸ à¦¨à¦¨
à¦¯ à¦®à¦¸
à¦« à¦¤à¦°
à¦· à¦²à¦ķ
à¦¬ à¦ħ
à§§à§§ à§¨à§¦à§¨à§¨
à¦¨à¦ķ à¦ĸà¦¨
à¦Ł à¦¹à¦ļ
à¦¶ à¦ĺ
à¦¦ à¦°à¦Ĺà¦ŀ
à¦¶à¦¤ à¦¬à¦°
à§Ł à¦¹à¦¤
à¦¡ à¦ĸ
à¦ļ à¦²à¦¨
à¦¬à§ľ à¦²
à¦¨ à§Łà¦¤
à¦°à§Ł à¦ķ
à¦ĩ à¦²à¦¨à¦®
à¦¶à¦° à§İ
à¦¤ à¦ĺà¦Łà¦¨
à¦ĩà¦Ń à¦Ĩà¦°
à¦¦à¦¶ à¦Ł
à¦°à¦°à¦« à¦¹
à¦ı à¦°à¦°
à¦² à¦ĵà¦¸
à¦ª à¦¸à¦®à§Ł
à¦« à¦°à¦Ĺ
à¦°à¦Ĩ à¦ĩà¦ª
à¦¨à¦ıà¦ĩ à¦ļ
à¦ľ à¦ķà¦®
à¦ĵ à¦¸à¦°
à¦¬à¦¹ à¦¨à¦¬
à¦£ à¦¤à¦¹à¦¯
à¦°à¦¤ à¦¶
à¦¤ à¦Ĩà¦®à¦°
à¦ĩà¦Ń à¦¬
à¦¶à¦ª à¦¥
à¦Ĩ à¦°à¦ıà¦ķ
à¦¤ à¦Ľà¦¬
à¦² à§Łà¦¨
à§Ł à¦ł
à§Ł à¦¨à¦¨
à¦² à¦ĵà¦®
à¦ĵ à¦ıà¦ĸà¦¨
à¦°à¦ª à¦°à¦ıà¦¬
à¦« à¦²à¦®
à¦ı à¦°à¦¸à¦Ļ
à¦ħà¦ª à¦ª
à¦¬à¦¸ à¦ķ
à¦² à¦Ľà¦¬
à¦ıà¦ĩ à¦Ľà¦¬
à¦¬à¦² à¦²à¦¤
à¦¯ à¦īà¦¤
à¦ı à¦®à¦°
à¦ĩ à¦Ľà¦¬
à§Ł à¦°à¦ķ
à¦¹à¦¹ à¦¹à¦¹
à§Ł à¦Ĺà¦¤
à¦°à¦ī à¦ĩà¦¨
à¦ī à¦¦à¦ķ
à¦¡ à¦ħà¦«
à¦ªà¦¨ à¦°
à¦°à¦ĩ à¦°
à¦²à¦¬ à¦£
à¦ĵ à¦¸à¦¹
à¦®à¦¤ à¦¥
à¦¤ à¦«à¦²
à¦¥ à¦¡
à¦Ľà¦¨ à¦¥
à¦°à¦¦ à¦¶
à¦Ńà¦¬ à¦¹à§Łà¦¨
à¦ľà¦¨ à¦®à¦¤
à¦ľ à¦²à¦ķ
à¦² à¦ĩà§Ł
à¦Ĺ à¦®à¦¸
à¦¨à¦¬ à¦ª
à¦Ĺ à¦°à¦£
à¦Ĩà¦°à¦ĵ à¦ıà¦ķà¦Ł
à¦ª à¦¹à§Ł
à¦ľà¦¨ à¦ħà¦¨
à§§à§© à§«
à¦°à¦ħ à¦¥à¦¬
à¦® à¦Ĩà¦®à¦°
à¦® à¦²à¦®
à¦ķ à¦Ĺà¦¬
à¦·à§Ł à¦ķà¦¬
à¦¬à¦² à¦¹
à¦¬à¦ĵà¦ª à¦¶
à¦·à¦® à¦¹à§Ł
à¦¤ à¦ħà¦ŀ
à¦°à¦¤ à¦¸à¦°à¦ķ
à¦ĵ à¦Ĩà¦Ĺ
à§ľ à¦Ń
à¦ķà¦® à¦²à¦Ĺà¦ŀ
à§§à§® à§§à§¯
à¦ļ à¦ļ
à¦ļ à¦Ĺà¦¡
à¦¶à¦¨ à¦¹
à¦¨à¦® à¦ŀ
à¦ķà¦Ł à¦¸
à¦ĩ à¦ķà¦°à¦¬
à¦ķà¦² à¦ķà¦°
à¦ľà¦¨ à¦¡
à¦® à¦¹à¦¯
à¦¯ à¦°à¦¯
à¦¨à¦ıà¦ĩ à¦¦
à¦¸ à¦¶à¦¸
à¦Łà¦¬à¦² à¦ĸ
à¦¸à¦ķà¦² à¦¸
à¦® à¦ĩà¦¸à¦²
à¦¬à¦Ľ à¦°à¦®
à¦¶ à¦¹à¦¬
à¦ĵ à¦°à¦«
à¦¸à¦¬ à¦ĸ
à¦°à¦¶ à¦ªà¦¥
à¦ĩ à¦ĩà¦¸à¦²
à¦īà¦ª à¦®à¦¹
à¦Ĺ à¦Ĩà¦Ľ
à¦°à¦¨ à¦ľà¦°
à§§à§¯à§¯ à§¦
à¦ļ à¦ķà¦ª
à¦ĩà¦¨ à¦Ĩà¦ª
à¦¨à¦ª à¦ŀ
à§Łà¦¨ à¦¯
à¦ıà¦ķ à¦®à¦¹
à¦°à¦² à¦®
à¦¯ à¦Ļ
à¦¨à¦¨ à¦Ń
à¦¯ à¦¯à¦¥
à¦¬ à¦°à¦Ł
à¦ªà¦¨ à¦®
à¦¶ à¦ķà¦¸
à¦¹ à¦Ĩà¦Ĺ
à¦ľ à¦¹à§Ł
à¦ªà¦¦ à¦¥
à¦¶ à¦ĵà¦ª
à¦¤à¦Ĩà¦°à¦¬ à¦Ĩà¦®
à¦¨à¦¬ à¦¸à¦®
à¦ı à¦ıà¦®
à¦¨à¦ķ à¦²à¦ķ
à¦¥ à¦¬à¦°
à¦¦ à¦°à¦¥
à¦ĵ à¦¨à¦¤
à¦ķ à¦ķà¦Ł
à¦¬ à¦°à¦ı
à¦¤à¦¹à§Ł à¦¸
à¦¤à¦¸ à¦¤
à¦°à¦Ĩ à¦®à¦¨
à¦°à¦ĵ à¦¸à¦®
à¦¨à¦ª à¦¥
à§Ł à¦¦à¦°
à¦·à¦ķ à¦¹
à¦£ à¦Ĩà¦®
à¦¡ à¦¬à¦²
à¦ı à¦¥
à¦¸à¦¨ à¦ķà¦°
à¦°à¦¸à¦® à§Łà¦¨
à¦® à¦Ĩà¦¨
à¦ĵ à¦Ĩà¦¦
à¦°à¦īà§İ à¦ªà¦¤
à¦ħà¦ª à¦¶à¦¨
à¦¨ à¦Ĩà¦¬à¦¦
à¦ĵ à¦Ĩà¦¸
à¦°à¦ī à¦®
à¦¯ à¦ħà¦«
à§§à§¦ à§¯
à¦£ à¦ıà¦ķà¦Ł
à¦°à¦ļ à¦²à¦¨
à¦¬à¦Ľ à¦°à¦ķ
à¦¯ à¦Ĩà¦¦
à¦¯ à¦Ĩ
à¦Ĺ à¦¤à¦¨
à¦² à¦ķà¦°à¦¬
à¦Ĩà¦ľ à¦ª
à¦Ł à¦°à¦¦
à¦ķ à¦Ĩà¦ĩà¦¨
à¦ħ à¦£
à¦¸ à¦ķà¦¦
à¦¯à¦ĸà¦¨ à¦Ĩà¦®
à¦Ł à¦Ĩà¦ªà¦¨
à¦ķà¦° à¦®
à¦°à¦ĩ à¦¶
à§Łà¦ķ à¦ķà¦®
à¦ıà¦ķà¦ľà¦¨ à¦¶
à¦¦ à¦°à¦¹
à¦°à¦ª à¦°à¦Ń
à§Łà¦¸ à¦¹
à¦Ĺà¦¤à¦ķ à§Ł
à¦¨ à¦ĩà¦°
à¦°à¦£ à¦ķà¦°à¦¬
à¦¬ à¦¶à¦ķ
à¦² à¦Ĩà¦¹à¦®à¦¦
à¦ĵ à¦ĩà¦¤
à¦ĩà¦® à¦ª
à¦¯ à¦Ĩà§Ł
à¦°à¦ķ à¦°à¦£
à¦ı à¦®à¦¤
à¦°à¦ı à¦®à¦¨à¦ķ
à¦®à¦¦ à¦¶à¦¹
à¦°à¦® à¦®
à¦Ł à¦ħà¦°
à¦¶à¦¨ à¦¯
à¦¨à¦Ĺ à¦¤à¦ķ
à¦°à¦£ à¦«
à¦°à¦īà¦ª à¦°à¦¸
à¦ªà¦¨ à¦¶
à¦°à¦ĵà¦ª à¦°à¦¬
à¦Ń à¦ľ
à¦¯à¦ķ à¦°à¦Ľ
à¦ķà¦Ł à¦¨
à¦ĩ à¦¬à¦²à¦¤
à¦ı à¦ħà¦¬à¦¸
à¦ı à¦°à¦īà¦¦
à§İ à¦¹
à¦°à¦ľ à¦Ļ
à¦ıà¦°à¦ª à¦°à¦¥
à¦ľ à¦ļà¦²à¦Ľ
à¦°à¦Ĩ à¦ķà¦°
à§¨à§¦à§¨ à§ª
à¦²à¦ķ à¦¤
à¦¨ à¦¶à¦ķ
à§§à§¦ à§©
à¦ı à¦°à¦Ĩà¦¨
à¦¦ à¦¶à¦¬
à¦¶ à¦¹à¦¤
à¦ı à¦¨à¦ķ
à¦¶ à¦īà¦¨
à¦ķà¦¬ à¦Ľà¦°
à¦® à¦ĵà¦°
à¦¤ à¦ł
à¦¨à¦ıà¦ĩ à¦®
à¦ī à¦§
à¦¨à¦ĵ à¦¸à¦®
à¦¹à¦² à¦ıà¦ķà¦Ł
à¦¨ à¦ľà¦¨à¦ķ
à¦¨à¦ªà¦° à¦°
à¦ĺ à¦°à¦¦
à¦° à¦°à¦ŀ
à¦² à¦ħà¦¬
à¦ıà¦ķ à¦¸à¦®à¦¯
à¦¸ à¦ĵà¦¬
à¦·à¦ķ à¦ľà¦¨
à¦¸ à¦ħà¦°
à¦°à¦ī à¦ĩà¦ķ
à¦¥ à¦¯
à¦¬ à¦ıà¦¶
à¦°à¦ı à¦ĩà¦Ń
à¦¹à¦¤ à¦¸
à¦ĩ à¦ĩà¦¨
à¦ĵ à¦ħà¦¬
à§Ł à¦Ĩà¦ĵà§Ł
à¦¨à¦ħ à¦¶
à§ģ à§į
à¦®à¦ķ à¦¥
à¦ķ à¦ıà¦Ł
à¦¸à¦®à§Ł à¦Ł
à¦°à¦¤ à¦Ń
à¦°à¦ĩ à¦Ļ
à¦¬ à¦ĩà¦¦
à¦§ à¦«
à¦§ à¦¬à¦¨
à¦¬à§ľ à¦ª
à¦Ĩ à¦¶à¦ª
à¦ĩà¦Ń à¦ľ
à¦ı à¦°à¦ħà¦°
à¦²à¦ķ à¦ļ
à¦Ĩà¦ī à¦Łà¦¸
à¦ıà¦°à¦ª à¦ķ
à¦ı à¦°à¦¤
à¦§ à¦¨à¦®
à¦¨à§Łà¦¨ à¦¶
à¦¤ à¦ĩà¦¸à¦²
à¦Ł à¦Ĩà¦²
à¦¬à¦¸ à¦Ń
à¦°à¦ª à¦°à¦ļ
à¦ķà¦°à¦£ à¦ª
à§Ł à¦ķà¦ķ
à¦Ĺ à¦°à¦¬
à¦ľ à¦ªà§ľ
à¦² à¦«à¦²
à¦ī à¦Ľ
à¦ļ à¦Ľ
à¦Ł à¦ľà¦®
à¦°à¦ª à¦°à¦Ĩà¦ªà¦¨
à¦² à¦ħà¦¸
à¦¥ à¦ĵà¦¬
à¦² à¦ªà¦¦
à¦°à¦īà¦ªà¦° à¦¤
à¦² à¦¨à¦¤
à¦¬ à¦ľà¦¨à¦¦
à¦·à¦£ à¦Ń
à¦ĵ à¦Ĩà¦¤
à¦² à¦¶à¦¬
à¦« à¦°à¦¹
à¦¨à¦Ĩ à¦¯
à¦ķ à¦ĩ
à¦¨à¦Ĩ à¦ª
à¦® à¦ıà¦Ł
à¦¬à¦²à¦² à¦Ĩà¦®
à¦¶à¦¨ à¦Ń
à¦ļ à¦ıà¦ª
à¦¤à¦¨ à¦ļ
à¦°à¦£ à¦ªà¦°
à¦§ à¦¨à¦¯
à¦¬ à¦Ĩà¦¬
à¦¤ à¦Ĩà¦Ĺ
à¦¤ à¦¸à¦¹
à¦°à¦ķ à¦Ł
à¦¯ à¦ĵà¦¸à¦®
à¦Ĺà¦ł à¦¨à¦Ĺ
à§Ł à¦°à¦¬
à¦¸à¦®à§Ł à¦§à¦°
à¦¶à¦¨ à¦ľ
à¦ķà¦¤ à¦Ĩà¦²
à¦¤à¦¹à§Ł à¦¤
à¦¶ à¦§à¦°
à¦Ĺ à¦ĵà¦¸
à¦°à¦ħ à¦Ł
à¦Ĩà¦² à¦ľ
à¦® à§Łà¦ķ
à¦¬à¦¨ à¦Ń
à¦ıà¦¸à¦¬ à¦ª
à§§à§¦ à§Ń
à¦¤ à¦°à¦Ń
à¦· à¦¦à¦ķ
à¦ıà¦ĩ à¦¤à¦¥
à¦¶ à¦®à¦ľ
à¦®à¦¤ à¦ľ
à¦¯ à¦¢
à§Ł à¦¦à¦ķ
à¦ĸà¦¨ à¦Ĩà¦®
à¦§ à¦¨à¦¶
à§©à§¦ à§¨à§¦à§¨à§¨
à¦¸ à¦Ĩà¦Ľ
à¦² à¦¯à¦¦
à¦·à¦£ à¦¸à¦®
à¦§ à¦°à¦¬
à¦ıà¦®à¦¨ à¦ħà¦¨
à¦ı à¦°à¦Ĺ
à¦« à§Łà¦¸
à¦® à¦ļà¦ķ
à¦°à¦£ à¦²
à¦¬ à¦¤à¦¨à¦ķà¦°
à¦ķà¦ª à¦¥
à§Łà¦ľ à§ľ
à¦ıà¦ĩ à¦ªà¦¦
à¦ı à¦®à¦¹
à¦²à§Ł à¦ľ
à¦°à¦Ĩ à¦¶à¦ª
à§ľ à¦Ĺ
à¦§ à¦¶à¦¤
à¦°à¦Ĳ à¦ķ
à¦·à¦£ à¦ıà¦¬
à¦Ĺà¦£ à¦¶
à¦¤ à¦°à¦¶
à¦¨à¦Ĺ à¦°à¦īà¦ªà¦ľ
à¦°à¦£ à¦¹à¦²
à¦®à¦¨ à¦Ĺà¦°
à¦ıà¦ĩ à¦ĵà§Ł
à¦¬ à¦¦à¦°
à¦ı à¦ļ
à¦£ à¦ħà¦¨
à¦¨à¦¶ à¦¹à¦°
à¦Ĩà¦« à¦¸
à¦ĸà¦¬ à¦°à¦ķ
à§¨ à§©à§¦
à¦°à¦ľà¦¨ à¦¨
à¦Ĺà¦£ à¦¬
à¦ķ à¦Ĩà¦¦
à¦² à¦ĵà¦¬
à¦ĩ à¦Ĩà¦ľ
à¦°à¦ĸà¦¬ à¦°à¦ľ
à¦² à¦Ĺà¦²
à¦¨à¦Ĩ à¦¨à¦¨
à¦ı à¦¨à¦Ĩ
à¦ªà¦¥ à¦ª
à¦¶ à¦ķà¦ª
à¦ĩà¦² à¦Ľà¦¬
à¦īà¦ªà¦° à¦¨
à¦Ńà¦¬ à¦¹à§Ł
à¦¨ à¦Ĩà¦¸à¦²
à¦°à¦Ĺà¦£ à¦¸à¦®
à¦°à¦ı à¦¸à¦¬
à¦¡ à¦ķà¦®
à§§à§ª à§ª
à¦ıà¦ķ à¦Ń
à¦²à¦¹ à¦ķà¦¬
à¦¹ à¦¨à¦¸
à¦Ĩ à¦«à¦°
à¦ĩà¦Ł à¦¤
à¦¨ à§Łà¦¬
à¦°à¦£ à¦ħà¦§
à¦ıà¦ĩ à¦ħà¦¬à¦¸
à¦ĩà¦¨ à¦ıà¦¬
à¦Ĺà¦® à¦ĸ
à¦Ĺà¦¤ à¦¶
à¦ĸà¦°à¦ļ à¦ķà¦°
à¦¬à§ľ à¦ķ
à¦Ĳ à¦¬
à¦¸ à¦§
à¦ĩà¦² à¦²
à¦ªà¦¦ à¦¦
à§Ł à¦ĵà¦¸
à¦¤ à¦¦à¦°
à¦ĵ à¦Ĺà¦¬
à¦ĩà¦ķ à¦¨
à¦Ł à¦īà¦¦
à¦Ł à¦¸à¦°à¦ķ
à¦£ à¦¹à¦¯
à¦ĩ à¦ħà¦¬
à¦°à¦ª à¦¦à¦ķ
à¦¸à¦¹ à¦ľà¦ķà¦°
à¦ĸ à¦ķà¦ª
à¦² à¦¤à¦®
à¦¯ à¦ıà¦ĸ
à§Ł à¦ıà¦¦
à§§à§¯à§Ń à§¨
à¦® à¦²à¦ķ
à¦¨à§Ł à¦¬à¦°
à¦°à¦ı à¦Ľ
à¦ĩ à¦ıà¦¦
à¦¹à§Ł à¦¹
à¦Ĺ à¦ĺà¦°
à§Ł à¦ķà¦¤
à¦°à¦¸à¦® à§Łà¦®
à§¨ à§¨à§¦
à¦°à¦ı à¦°à¦ª
à¦¤ à¦°à¦«
à¦ıà¦ĩ à¦Ľ
à¦°à¦² à¦ľ
à¦¥ à¦«
à¦¹à§Ł à¦Ń
à¦²à¦® à¦°
à§§à§¯à§¯ à§§
à¦ļà¦² à¦ª
à¦¯à¦ĸ à¦¨à¦¦
à¦¸à¦² à¦ķà¦°
à¦ķ à¦ıà¦¸
à§§à§¯à§¯ à§¨
à¦ĩ à¦īà¦ªà¦ľ
à¦°à¦ĵ à¦ļ
à¦¸ à¦¶à¦°
à¦ľ à¦ıà¦²
à¦°à¦Ĩ à¦ĸ
à¦²à¦Ĺ à¦°
à¦¨à¦® à¦¡
à¦¤ à¦ĵà¦¸
à¦¨à¦ĵ à¦ªà¦°
à¦® à¦ķà¦²
à¦ķ à¦ķà¦°à¦¬
à¦¸ à¦ķà¦¬
à¦¶ à¦°à¦£
à¦ķ à¦¤à¦¨
à¦Ľ à¦Ń
à¦¨ à¦°à¦ļà¦¨
à¦ĩ à¦®à¦¤
à¦ķ à¦ĵà¦¦
à¦Ł à¦īà¦¤
à¦°à¦ķ à¦ļ
à¦¨à¦ı à¦ĩà¦¨
à¦°à¦ķ à¦²à¦®
à¦Ĩà¦¹à¦®à¦¦ à¦Ľà¦«
à¦¬à§ľ à¦¦
à§Ł à¦ĩà¦īà¦¨
à¦ķà¦° à¦®à¦¨
à¦Ń à¦¬à¦¸
à§§à§¯à§¯ à§Ń
à¦°à¦ª à¦°à¦ıà¦ķà¦Ł
à¦°à¦¸ à¦¬à¦¶
à¦ķ à¦¨à¦¤
à¦ľ à¦¬à¦²
à¦Ł à¦²à¦®
à§Ł à¦ĩà¦¨
à¦ī à¦¸à¦¸
à¦¤ à¦Ĺà¦²
à¦ķà¦¤ à¦¸
à¦§à¦¨ à¦ħà¦¨
à¦¨à¦ı à¦ĺà¦Łà¦¨
à¦ī à¦¡à¦¸
à¦®à¦¦à¦¶ à¦®à¦¶
à¦« à¦¯
à¦® à¦Ĩà¦Ľ
à¦ĩ à¦ļà¦²à¦Ľ
à¦² à¦Ĩà¦Ĺ
à¦ī à¦¬à¦¸
à¦Ľ à¦¦à¦¬
à¦ĸ à¦¨à¦¦
à¦¦ à¦ķà¦²
à¦Ł à¦²à¦ķ
à¦°à¦· à§ľà¦¯à¦¨
à¦Ńà¦¬ à¦ķà¦°à¦¤
à¦¹à¦¤ à¦ķà¦°
à§Ł à¦«à¦²
à¦®à¦¨ à¦Ľ
à¦Łà¦ķ à¦¨
à¦¬à¦² à¦Ł
à¦¸à¦® à¦®
à¦¤ à¦ħà¦ª
à¦ĩà¦¨à¦« à¦°à¦®
à¦°à¦¨ à¦¸
à¦ķà¦ķ à¦·
à§§à§® à§®à§¦
à¦ı à¦°à¦²
à¦¦à¦ķ à¦ķà¦°
à¦ĩà¦¯ à¦¥
à¦¬ à¦°à¦ļ
à§§à§¦ à§¨
à¦² à¦ļà¦¨
à¦°à¦ĵ à¦ĸ
à§Ł à¦ĩà¦¤
à¦® à¦īà¦ªà¦ľ
à§Łà¦® à¦®
à¦Ł à¦¸à¦°
à¦¯à¦ķà¦° à¦ķà¦°
à¦ĩà¦² à¦ĸ
à¦ªà¦¨ à¦ľ
à¦²à¦¨ à¦Ĺ
à¦ķ à¦īà¦²
à¦ī à¦¬à¦²
à¦ħà¦« à¦¬
à¦Ł à¦°à¦ª
à¦ķ à¦ħà¦ªà¦°
à¦² à¦ªà¦¤
à¦°à¦¸ à¦¹à¦¬
à¦Ł à¦¢
à¦Ĩà¦¹à¦¤ à¦¦
à¦£ à¦ħ
à¦¬ à¦°à¦¢
à¦° à§Łà¦¬
à¦ķà¦ĵ à¦īà¦ļ
à¦® à¦ķà¦ª
à¦Ĩà¦² à¦Ĩà¦®
à¦§ à¦¹à¦²
à¦°à¦ķ à¦®à¦ª
à¦°à¦¯ à¦ĸà¦¨
à¦°à¦¨ à¦ķà¦¶
à¦¶ à¦¬à¦²
à¦¤ à¦²à¦®
à¦Ł à¦¨à¦¦
à¦¶ à¦ķà¦¬
à¦¤à¦°à¦£ à¦ķ
à¦¯ à¦°à¦¬
à¦ĸà¦² à¦ķà¦°
à¦°à¦¤ à¦ķà¦°
à¦°à¦Ĺ à¦£à¦®
à¦¶ à¦ĺà¦Ł
à¦Ī à¦¨
à¦ĩ à¦ıà¦ª
à¦® à¦ľà¦¨
à¦Ľ à¦¶
à¦°à¦ªà¦°à¦¬ à¦Ľ
à¦°à¦¦ à¦°à¦¬
à¦ĺ à¦Łà¦¬
à¦Ł à¦ªà¦¤
à¦°à¦²à¦ķ à¦¡
à¦°à¦ĩ à¦¯
à§§à§¦ à§¬
à¦°à¦¥ à¦®à¦°
à¦² à¦²à¦¤
à¦¸ à¦Ĩ
à¦¨ à¦ªà¦¨
à¦ªà¦¨ à¦«
à§Ł à¦®à¦ķ
à§Ł à¦Ńà¦°
à¦²à¦Ń à¦°
à¦¨ à¦¨à¦ķ
à¦Ĺ à¦®à¦ķ
à¦°à¦¡ à¦ķ
à¦¬ à¦ªà¦¤
à¦°à¦® à¦¤à¦¸
à¦°à¦Ĩ à¦¨à¦¸
à§Ł à¦ħà¦¬
à¦ľ à¦Ĩà¦¹à¦®
à¦°à¦ı à¦Ń
à¦ĺ à¦·
à¦ľà¦¨ à¦ļ
à¦°à¦Ĩ à¦¨à¦¶à¦°
à¦¸ à¦°à¦²
à¦®à¦¤ à¦²à¦¬
à¦Ł à¦°à¦¨
à¦ıà¦ķà¦ĩ à¦°à¦ķà¦®
à¦£à¦Ń à¦Ł
à¦¯à¦® à¦ľ
à¦ĩà¦ī à¦ıà¦¸à¦¬
à¦Ĺ à¦Ńà¦°
à¦ĩ à¦ĩà¦¤
à¦ĩà¦¡ à¦®
à¦ĩ à¦¬à¦¸
à¦¬ à¦°à¦ĵà§Ł
à¦ª à¦²à¦ķ
à§§à§¨ à§®
à¦ıà¦ĩ à¦ľà¦¨
à¦ıà¦ĩ à¦®à¦¹
à§¨à§¦à§¨à§¨ à§¨à§©
à§§à§¯ à§¯à§¯
à§¨à§¦à§§à§® à§¨à§¦à§§à§¯
à¦¸à¦« à¦Łà¦ĵà¦¯
à¦°à¦ħ à¦¬à¦ķ
à¦ħ à¦¸à¦¨
à¦¤à¦ķ à¦¦
à¦¬ à¦§à¦°
à¦¨à¦Ĩ à¦°à¦ķ
à¦Ń à¦ļ
à¦¤à¦¨ à¦¥
à¦°à¦Ĩà¦¹ à¦®à¦¦
à¦¤à¦® à¦°
à¦ĩà¦² à¦¥
à¦«à¦² à¦ľ
à¦°à¦īà¦ª à¦°à¦ļ
à¦Ĩà¦°à¦ĵ à¦¤
à¦²à¦¨ à¦Ń
à¦ĩà¦¸ à¦Ĺ
à§Ł à¦®à¦°
à¦¨à¦Ĺ à¦°à¦ª
à¦°à¦¬ à¦²à¦¤
à¦¸ à¦°à¦¶
à¦² à¦¶à¦¨
à¦ĵ à¦ĩà¦¸à¦²
à¦¶ à¦ªà¦¤
à¦ıà¦ķ à¦®à¦¤
à¦ĩà¦ª à¦¡
à¦Ĺà¦¤ à¦ªà¦°
à¦¬ à¦ķà¦ª
à¦¯ à¦ªà¦¤
à¦· à§Łà¦¬
à¦¾ à¦¾
à¦· à¦ħà¦°
à¦Ł à¦Ĩà¦Ľ
à¦¤ à¦īà¦¨
à¦ªà¦¦ à¦®
à¦Ĺ à¦®à¦ª
à¦¬à¦¨ à¦°
à¦¸ à¦ħà¦ª
à¦¤ à¦°à¦Ĩà¦®
à¦ļà¦² à¦¸
à¦°à¦ľà¦¨ à¦ķ
à¦°à¦°à¦¸ à¦ĸ
à¦¬ à¦°à¦ĩ
à¦¤ à¦Ńà¦°
à¦¤à¦² à¦«
à¦¤ à¦¯à¦¦
à¦¥ à¦īà¦ª
à¦¨ à¦ĸà¦¬
à¦Ĩà¦ĩ à¦ı
à¦²à¦® à¦Ļ
à¦Ĺ à¦ĺ
à¦ĩà¦ī à¦ļ
à¦¨ à¦ĩà¦īà¦ķ
à¦¹ à¦¨à¦¨
à¦ĩà¦ľ à¦¤
à¦¯ à§Łà¦ķà¦°
à¦¸ à¦Ĩà¦°
à¦¸ à¦ªà¦¨
à¦¸ à¦¤à¦¤
à¦¨à¦ľ à¦Ł
à¦°à¦Ĩ à¦®à¦¦
à¦¯ à¦ļà¦°
à§Ł à¦Ĺà¦²
à¦· à¦¬à¦²
à§§à§¯à§¯ à§®
à¦Ĺà¦¤ à¦¸à¦ª
à¦¤à¦¸ à¦¦à¦¸
à¦īà§İ à¦ªà¦¨
à¦¤à¦ĸ à¦¨à¦ª
à¦°à¦¦ à¦¸
à¦ķ à¦Ĩà¦¸
à¦¦ à¦Ĩà¦ªà¦¨
à¦ľà¦¨ à¦ªà¦°
à§Ł à¦¹à¦²
à¦¸à¦ķ à¦·
à¦ĵ à¦¸à¦¬
à¦°à¦® à¦¤à¦ª
à¦Ĺà¦² à¦Ĺ
à¦°à¦ĸà¦¬ à¦°à¦ļ
à¦²à¦Ń à¦Ł
à¦· à¦¬à¦°
à¦¹ à¦Ĩà¦¬
à¦ķà¦¤ à¦¹
à¦ħà¦« à¦¸
à¦°à¦® à¦¬à¦¨
à¦ªà¦¨ à¦ķà¦°à¦Ľ
à¦¨à¦Ĩ à¦ĸà¦¤
à¦¤à¦¬ à§Łà¦¸
à¦°à¦ª à¦°à¦Ĩà¦¬
à§¨à§¦à§¨ à§«
à¦¨à¦¦ à¦£
à¦°à¦£ à§Łà¦¨
à¦°à¦ĸà¦¬ à¦°à¦ĵà¦¬
à¦·à§Łà¦ķ à¦®à¦¨
à§Ł à¦¶à¦¹
à¦Ĺ à¦®à¦¬
à¦°à¦ıà¦ĩ à¦ªà¦°
à§§ à§¨à§¦à§¨à§¨
à§§à§¬ à§ª
à¦² à¦ĵà¦ķ
à§İ à¦ļ
à¦¶ à¦¤à¦¬
à¦Ĺ à¦Ĩà¦®
à¦¶à¦¨ à¦ħà¦¨
à¦ķà¦Ł à¦®
à¦ĩà¦¡ à¦¶
à¦Ł à¦ķà¦¬
à¦ĸ à¦²à¦¨
à¦ķ à¦ıà¦ĩ
à¦ı à¦²à¦ķ
à¦ł à¦Ń
à¦ªà¦° à¦²
à¦ıà¦ķ à¦ķà¦¥
à¦¼à¦¾ à§ĩ
à¦°à¦« à¦ķ
à¦®à¦¤ à¦Ń
à¦ķ à¦Ĩà¦ĩà¦¡
à¦ªà¦¸ à¦Ł
à¦¤ à¦īà¦²
à¦¶à¦Ĺ à§ľ
à¦¬à¦² à¦ķà¦°
à¦£ à¦¹à¦¬
à¦¨à¦ı à¦ľ
à¦¹ à¦°à¦¹
à§¨à§¦à§¨ à§§à§¨
à¦ªà¦¦ à¦®à¦¨
à¦ļ à¦ľà¦¨
à¦ķà¦Ł à¦¬à¦°
à¦¸ à¦Ĩà¦ªà¦¨
à¦°à¦¨ à¦Ĺà¦°
à¦¶ à¦ħà¦°
à¦¤à¦ĵ à¦®à¦¹
à¦°à¦ķ à¦®à¦ķ
à§§à§© à§©
à§ľ à¦¶
à¦ķà¦° à¦¯
à¦ı à¦ħà¦¨
à¦°à¦®à¦£ à¦¸
à¦°à¦ĵà¦ª à¦°à¦Ń
à¦ĩ à¦ħà¦¤
à¦Łà¦ķ à¦¥
à§§à§¯ à§Ńà§¦
à¦Ĺà¦ł à¦¨à¦ķ
à¦°à¦¸à¦¬ à¦Ĺ
à¦¶ à¦¬à¦ª
à¦¸ à¦ĵà¦¨
à¦¨à¦ı à¦°à¦ªà¦°
à¦« à¦¨à¦¸à¦®
à¦ĭ à¦£à¦¦
à¦® à¦ĩà¦¤
à¦ĺ à¦°à¦¥
à¦ĩà¦ī à¦Ĩà¦°à¦ı
à¦ĩà¦ľ à¦Ļ
à¦¦ à¦ªà§ľ
à§§à§¨ à§§à§Ń
à¦ªà¦ķ à¦¹
à¦¦ à¦«à¦¤
à¦ıà¦ķ à¦ĩà¦¦
à¦¬à¦¨ à¦¸à¦®
à¦¦à¦¨ à¦ķà¦°à¦¬
à¦° à¦°à¦®à¦ľ
à¦°à¦¸à¦ķà¦² à¦¶
à¦¨ à¦¬à¦²à¦²
à§Ł à¦ķà¦¨
à¦¤à¦¤ à¦¤
à¦Ľ à¦¦à¦ª
à§§à§« à§¦à§¦
à¦ĩ à¦ıà¦ĩà¦¬
à¦®à¦¸ à¦¨
à§Ł à¦Ĩà¦¦
à¦¨à¦Ń à¦°
à¦¤à¦ĸ à¦¨à¦®
à¦ĩà¦Ĩà¦Ĺ à¦·
à§¨à§¦à§§à§¬ à§¨à§¦à§§à§Ń
à¦Ń à¦¹
à¦®à¦¨ à¦¶
à¦¸à¦¦ à¦°à¦¬
à¦Ĩ à¦°à¦Ľ
à¦¤ à¦¶à¦ķ
à¦¯ à¦¸à¦¨
à¦¨ à§Łà¦¸
à¦°à¦Ĩ à¦ĵà¦¯
à¦°à¦¤ à¦ľ
à¦Ł à¦Ŀ
à¦¤à¦°à¦£ à¦¬
à¦«à¦² à¦Ń
à¦Ńà¦¬ à¦¹à¦¯
à¦¬à¦² à¦ľ
à¦¬ à¦®à¦¤
à¦¯ à¦ĩà¦¸à¦²
à¦¤à¦® à¦°à¦¦
à¦Ĺ à¦§à¦°
à¦°à¦Ĩà¦ļ à¦°à¦£
à¦ļ à¦ķà¦¬
à¦·à§Ł à¦Ń
à¦® à¦Ĺà¦¤
à¦ıà¦¸ à¦ıà¦¸
à¦ĵà¦¸ à¦¤
à¦·à§Ł à¦ķà¦ª
à¦¸à¦¹ à¦ķà¦°
à¦¨à¦¹ à¦ĵà¦¯
à¦¤à¦ķ à§Ł
à¦¥ à¦¸à¦ª
à¦¶ à¦¹à¦²
à¦°à¦¡ à¦²
à¦°à¦ĸà¦¬ à¦°à¦¦
à¦¤ à¦Ĩà§Ł
à¦¬ à¦Ĩà¦°
à¦®à¦¤ à¦¤
à¦«à¦Ł à¦ĵà¦¯
à¦ªà¦¨ à¦¨
à¦ĩà¦¤ à¦¥
à¦ĩ à¦ĺà¦Łà¦¨
à¦²à¦¬ à¦Ļ
à§¨à§§à§® à§¨
à¦°à¦¸ à¦¬à¦¸
à¦ļà¦¨ à¦ªà¦°
à¦°à¦² à¦¡
à¦°à¦¹ à§Łà¦¤
à¦ī à¦ķà¦°
à¦Ł à¦Ĩà¦¨
à¦¹ à¦¨à¦°
à¦ĸ à¦ıà¦¬
à§§à§¯ à§ªà§Ń
à¦ł à¦Ľ
à¦°à¦¸ à§ľà¦ķ
à¦°à¦ľà¦¨ à¦ķà¦¬à¦Ļ
à§¯à§¯ à§¬
à¦ĸà¦ķ à¦²à¦ķ
à¦ª à¦²à¦¸
à¦ľà¦¨ à¦¹à¦¤
à¦ıà¦®à¦¨ à¦ªà¦°
à¦ªà¦¦ à¦ĸ
à¦® à¦¹à¦¬
à¦ĩà¦ª à¦²
à¦®à¦¤ à¦®
à¦¸à¦ķà¦² à¦®
à¦ĵ à¦°à¦Ĺ
à¦Ĩà¦Ł à¦ķà¦®
à¦¸ à¦°à¦¦
à§İ à¦īà§İà¦ª
à¦¨à¦¶ à¦¤
à¦ıà¦¸ à¦ªà¦°
à¦ĩà¦Ł à¦¦
à¦¨à¦ı à¦°à¦¸
à¦·à§Łà¦ķ à¦ķà¦°
à¦ĺà¦¨ à¦ĺ
à¦¬à¦ķ à¦Ĺ
à¦¯à¦¤ à¦¤
à¦¨à¦® à¦¸à¦ľ
à¦¡ à¦Ĩà¦°
à¦¯ à¦Ĩà¦¸
à¦¯ à¦Ĺà¦¤
à§«à§« à§«
à¦ļ à¦Ĩà¦¦
à¦ł à¦¥
à¦ĺ à§ľ
à¦Ľ à¦¦à¦®
à¦²à¦¹ à¦ķà¦ļ
à¦¶ à¦°à¦ķ
à¦ĩ à¦ħà¦ª
à¦ķ à¦ħà¦ª
à¦°à¦¥à¦® à¦¬à¦°
à¦ª à¦ĩà¦¤
à§Ł à¦Ĩà¦ľ
à¦ıà¦¸ à¦Ĩà¦ĩà¦¬
à¦¤ à¦Ĩà¦ĩà¦¨
à¦¨à¦ĵ à¦Ł
à¦Ńà§Ł à¦Ļ
à¦Ĩ à¦Łà¦Ł
à¦ıà¦ĸà¦¨ à¦¶
à¦ĩà¦ķ à¦°à¦Ľ
à¦¯ à¦¸à¦¬à¦ļ
à¦°à¦ĵà¦ª à¦°à¦ķ
à¦²à¦¤ à¦¦
à¦¬ à¦¬à¦¸
à¦ī à¦¨à¦¬
à¦ª à¦ł
à¦¤à¦° à¦°à¦¶
à¦¬ à¦īà¦¨
à¦ıà¦ķ à¦ĩà¦¬
à¦ª à¦¸à¦¬
à¦£ à¦ħà¦°
à¦Ĩ à¦ł
à¦ı à¦°à¦«
à¦°à¦¸ à¦¹à¦¸
à¦°à¦ĵà¦ª à¦°à¦ª
à¦Ĩ à¦ķà¦¸
à¦°à¦£ à¦¹à¦¤
à¦¬à¦¨ à¦¹
à¦Ĩ à¦ĩà¦°
à¦°à¦¸à¦¬ à¦¥
à¦¤ à¦ĩà¦®
à¦¬ à¦ī
à¦¯ à¦ĩà¦Ĩà¦ªà¦¨
à¦·à¦¦ à¦¬
à¦¡ à¦ķà¦°à¦¬
à¦²à¦ķ à¦°à¦Ľ
à¦¯ à¦ĩà¦¸à¦®
à¦¨ à¦ĩà¦īà¦°
à¦¬à¦ķ à¦¶
à¦® à¦ĵà¦²
à§§à§¨ à§§à§«
à¦ĩ à¦ıà¦ĩà¦ª
à¦® à¦ªà¦¤
à¦¯ à¦Ĺà¦²
à¦¹à§Ł à¦ıà¦¤
à§¬ à§¨à§¦à§¨à§¨
à¦® à¦ĵà¦¦
à§§à§® à§¦
à¦Ł à¦°à¦¯
à¦· à¦ħ
à¦® à¦ħà¦§
à¦°à¦ı à¦®à¦¡
à¦¨ à¦°à¦¨
à¦°à¦¸à¦¬ à¦ľ
à¦ļ à¦ķà¦¦
à¦®à¦¨ à¦¹
à¦ķà¦¬ à¦°à¦¸
à¦Ĩà¦² à¦®à¦¶
à¦¸à¦¬ à¦Ń
à¦· à¦¸à¦°
à¦ª à¦ħ
à¦¡ à¦Ĩà¦®
à¦ĵà¦ľà¦¨ à¦ķà¦®
à¦ķ à¦ıà¦®à¦ª
à¦Ł à¦ĵà¦¸
à¦ıà¦ĩ à¦¸à¦ª
à¦ļ à¦¬à¦Ľà¦°
à¦°à¦¬ à¦²à¦¬
à¦ıà¦¸à¦¬ à¦¤à¦¥
à¦¥ à¦īà¦¦
à¦ª à¦ıà¦ķà¦Ł
à¦°à¦ª à¦¦à¦¤
à¦ĩà¦¡ à¦ª
à¦°à¦ħà¦¬ à¦¨à¦¤
à¦² à¦īà¦ªà¦ľ
à¦² à¦ľà¦°
à¦¯ à§İ
à¦°à¦ı à¦°à¦¬
à¦ı à¦²à¦ª
à¦Ĩ à¦°à¦Ĩà¦ªà¦¨
à¦²à¦Ĩ à¦¯
à¦ĵ à¦Ĩà¦ķ
à¦Ĩà¦ĩà¦¨ à¦®à¦¨
à¦ĩ à¦Ĺà¦²
à¦¦ à¦°à¦īà¦ªà¦ľ
à¦¬ à¦¹à¦²
à¦°à¦ıà¦ķ à¦ªà¦°
à¦ŀ à¦¡
à¦¦ à¦¶à¦ķ
à¦¬à¦² à¦¶
à¦ľ à¦²à¦¹
à¦¨ à¦ĩà¦®à¦°
à¦¥ à¦ļà¦Ł
à¦¹à§Ł à¦ıà¦Ľ
à¦ħà¦¬ à¦ľ
à¦¤ à¦ħà¦ªà¦°
à¦ĵ à¦Ĩà¦°à¦¬
à¦ĵ à¦ıà¦¡
à¦ľà¦² à¦¢
à¦¦ à¦Ĺà¦²
à¦ķà¦Ł à¦²
à§§à§« à§«
à¦¸ à¦ıà¦²
à¦Łà¦¸ à¦¸
à¦²à¦¸ à¦«
à¦ĩ à¦Ĩà¦ķ
à¦¤à¦¦ à¦²
à¦ķà¦Ł à¦¦
à¦ļà¦² à¦ķà¦°
à¦²à¦ķ à¦¸à¦Ń
à§ª à§«à§¦
à¦°à¦¸à¦ķà¦² à¦ª
à¦¨à¦Ĩ à¦§
à¦£ à¦¹à¦²
à¦°à¦¬ à¦Ĺ
à¦¦ à¦¶à¦°
à¦ĩà¦Ł à¦¡
à¦°à¦Ī à¦¦à¦¶
à¦Ł à¦ıà¦¨
à¦ıà¦®à¦¨ à¦®
à§¨ à§¨à§¦à§¨à§¨
à¦² à¦ªà§ľ
à¦¤à¦ķ à¦¨
à¦°à¦£ à¦Ĩà¦ªà¦¨
à¦¶ à¦¸à¦¹
à¦Ł à¦ĵà¦ª
à¦ķà¦ķ à¦°à¦Ľ
à¦² à¦°à¦Ļ
à¦ıà¦ĩ à¦¬à¦²
à¦ĩ à¦Ĩà¦¦
à¦°à¦ı à¦°à¦¸
à¦ĩ à¦°à¦¶
à¦§à¦¨à¦ķà¦° à¦¬
à¦ĩ à¦¤à¦°
à§Ł à¦ķà¦ª
à¦·à¦£ à¦«
à¦ķ à¦¬à¦¸
à¦¨ à¦ĩà¦¨à¦¸
à¦°à¦¤ à¦ĸà¦¨
à§¨à§ª à§¨à§«
à¦ĭ à¦£à¦¨
à¦°à¦ıà¦ķ à¦¶
à¦² à¦ĩà¦®
à¦°à¦īà¦ª à¦°à¦®
à¦¤ à¦ıà¦¸
à¦Ł à¦Ĩà¦¦
à¦Ĳ à¦¦
à¦¨à¦ĵ à¦īà¦¤
à¦°à¦¸à¦ķà¦² à¦¸
à¦Ł à¦Ńà¦°
à¦°à¦« à¦¸à¦²
à¦« à¦¶
à¦Ł à¦°à¦®
à¦¨à¦Ĺ à¦°à¦Ĩà¦ĵà§Ł
à¦¦ à¦°à¦¤
à¦¤à¦° à¦°
à§Ł à¦Ĩà¦¹à¦¤
à¦ĵ à¦ħà¦¤
à¦ıà¦®à¦¨ à¦¦
à¦ıà¦ĩà¦ļ à¦ª
à¦¯à¦ķ à¦¨
à¦ĩ à¦Ĩà¦ľà¦ķ
à¦ķà¦¸ à¦¤
à¦Ł à¦ªà¦ķ
à¦¶ à¦ħà¦«
à¦ĵ à¦ħà¦§
à¦ļà¦² à¦¥
à¦²à§Ł à¦Ĺ
à¦¸ à¦Ĩà¦¨
à¦¨à¦ı à¦°à¦¬
à¦¤ à¦²à¦ª
à§Ł à¦ıà¦ķà¦ľà¦¨
à¦¶ à¦¹à¦¯
à¦¸à¦® à§Łà¦®
à¦ĩà¦Ń à¦ª
à¦¤ à¦°à¦ŀ
à¦® à¦ĵà¦ķ
à¦°à¦ļ à¦²à¦®
à¦¤ à¦ĸà¦¬
à¦ª à¦¦à¦¨
à¦® à¦īà¦¤
à¦Ĩà¦°à¦ı à¦Ł
à¦¬à¦² à¦°
à¦¶ à¦ĵà¦ľ
à¦¨ à¦°à¦¹
à¦Ĩà¦ľ à¦¸à¦ķ
à¦¯ à¦ĵà¦¨
à¦Ł à¦ĩà¦¤
à¦Ĺà¦¤ à¦¤à¦¥
à¦ĸ à¦§
à¦°à§Ł à¦¦
à§¨à§Ń à§¨à§¦à§¨à§¨
à¦® à¦¬à¦²à¦²
à§¯à§¬ à§§à§¨
à¦¬ à¦Ĩà¦Ľ
à¦§ à¦¹à¦¤
à¦ĩà¦¡ à¦ķà¦ķ
à§¨à§® à§¨à§¯
à¦¯ à¦¥à¦¬
à§¯ à§¦à§¦
à¦°à¦¬ à¦§
à¦²à¦¸ à¦Ń
à¦°à¦ı à¦ķà¦°
à¦ı à¦°à¦¯
à¦¶ à¦¬à¦Ľà¦°
à¦² à¦ħà¦¤
à¦ıà¦°à¦ª à¦°à¦¸
à¦°à¦®à¦£ à¦°
à¦² à¦īà¦¤
à¦ķ à¦ĩà¦ķ
à¦ķà¦ĸà¦¨ à¦ĵà¦ķà¦ĸà¦¨
à¦¹ à¦¸à¦ª
à¦ķà¦® à¦ľ
à¦¿ à¦¾
à¦Ĩà¦® à¦¤à¦²
à¦¨à¦Ľ à§ľ
à¦¶ à¦ıà¦ķà¦Ł
à¦·à¦ķ à¦ķà¦°
à¦·à¦£ à¦¬à¦¨
à¦Ĺà¦² à¦¦
à¦¬à¦Ľ à¦°à¦¸
à¦ľ à¦²à¦¸
à§Ł à¦Ĩà¦¸à¦Ľ
à¦°à¦¸ à¦®à¦¤
à¦ı à¦¤à¦¸
à¦Ĩà¦Ĺ à¦®à¦¨
à¦²à¦Ĺ à¦ĩà¦¨
à¦¤à¦¹à§Ł à¦¬
à¦Ł à¦°à¦¹
à¦ı à¦°à¦¹
à¦¦à¦ķ à¦ıà¦¬
à¦ıà¦ĩ à¦ħà¦ŀ
à¦ł à¦ķà¦ķà¦°
à¦¥ à¦ªà¦¤
à¦ķ à¦Ĩà¦¤
à¦°à¦Ľ à¦¨
à¦¨à¦ĵ à¦«
à¦¬à§ľ à¦¸
à¦¬ à¦ķà¦¤
à¦ķ à¦ī
à¦Ĺ à¦®à¦ľ
à¦ľà¦¨ à¦¹à¦²
à¦¤ à¦ľà¦¨à¦ª
à¦°à¦¤ à¦¯
à¦°à¦¨ à¦ĵà¦Ĺ
à¦¯à¦® à¦Ĺ
à¦¨à¦ı à¦¸à¦¬
à¦¨à¦¸ à¦ļ
à¦¨ à¦¹à¦¯à¦°à¦¤
à¦ıà¦« à¦Ĩà¦ĩ
à¦·à¦® à¦¹à¦¯
à§ľ à¦¥
à¦ľà¦¨ à¦«
à¦¸ à¦Ĩà¦¦
à§¨à§¬ à§¨à§¦à§¨à§¨
à¦¤ à¦ļà¦²
à¦Ľ à§Ł
à¦ĩ à¦ıà¦¤
à¦ıà¦ķ à¦§
à¦ĵ à¦ĩà¦ķ
à¦ĩ à¦ıà¦ĩà¦¸
à¦¦à¦¨ à¦ıà¦¬
à¦ķà¦® à§Łà¦¦
à¦¶ à¦ħà¦Ń
à¦°à¦ĸà¦¬ à¦°à¦¶
à¦¤ à¦°à¦ªà¦°
à¦¯ à¦ĵà¦ķ
à§ľ à¦ªà¦¤
à§¯ à§¨à§¦à§¨à§¨
à¦ķà¦² à¦¦
à¦ľ à¦¹à¦²
à¦ķà¦¬ à§ľ
à¦īà¦ľ à¦®
à§¨à§¬ à§¨à§Ń
à¦® à¦Ĩà¦¹
à¦ķà¦® à¦¸
à¦¥à¦² à¦¬à¦¨
à¦¹à§Ł à¦ļ
à¦¹à§Ł à¦ĸ
à¦ĩà¦¬ à¦¹
à¦īà¦ľ à¦ľ
à¦°à¦® à¦¸à¦®
à¦°à¦Ĩ à¦¨à¦ķ
à§Ł à¦ªà¦¦
à¦®à¦² à¦¦
à¦®à¦¸ à¦°à¦ķ
à¦Ł à¦°à¦°
à¦°à¦Ń à¦¦
à¦Łà¦¨ à¦¡
à¦ĵ à¦ĩà¦¶
à¦®à¦¹ à¦®
à¦¦ à¦ĩà¦¬à¦¨
à¦°à¦¸à¦® à§Łà¦¦
à¦¯à¦® à¦¡
à¦°à¦ķ à¦¹
à¦°à¦ı à¦ķà¦Ń
à¦Ł à¦ķà¦Ł
à¦¦ à¦ľà¦¬
à¦ĩ à¦Ĩà¦¤
à¦Ĩà¦ľ à¦¹
à¦²à¦® à¦¡
à¦°à¦¸ à¦°à¦ŀ
à¦¬à¦² à¦²à¦ķ
à¦°à¦¥à¦® à¦¥
à¦°à¦² à¦Ĺ
à¦ķà¦¸ à¦ĩà¦īà¦¨
à¦Ĩà¦¹à¦®à¦¦ à¦®
à¦°à¦¹ à¦ľ
à¦² à¦¶à¦°
à¦¨à¦ı à¦°à¦ľà¦¨
à¦ľà¦¨ à¦²
à¦ķ à¦Ĩà¦ķ
à¦²à¦¹ à¦ķà¦ķ
à¦¤à¦ķ à¦¤
à¦°à¦¸à¦® à¦ķ
à§ ±
à¦¤ à¦ĩ
à¦ĵ à¦°à¦¦
à§Ł à¦ĵà¦¬
à¦°à¦ĺ à¦Ł
à¦°à¦¥ à¦®à¦¸à¦ª
à¦ĸ à¦¡à¦²
à¦¤à¦¬ à¦¹
à¦°à¦Ĩ à¦°à¦¸
à¦¹ à¦°à¦¤
à¦§ à¦¨à¦°
à¦°à¦² à¦¤
à¦ķà¦ª à¦£
à¦°à¦® à¦ļ
à¦°à¦¸à¦® à¦Ĺ
à¦¤à¦¨ à¦°
à¦²à¦ľ à¦²
à¦¤ à¦ĵà¦¯
à¦¯ à§Łà¦¬
à¦ķ à¦Ĩà¦¶
à¦¨à¦ıà¦ĩ à¦Ń
à§§à§¨à§© à§ªà§«à§¬
à¦ªà¦® à§Łà¦¦
à§§à§ª à§«
à¦²à¦¨ à¦¯
à¦ľà§Ł à¦ķà¦°
à¦¤ à¦Ĩà¦ªà¦¡
à¦¯ à¦ıà¦¸
à¦¶ à¦ĵà¦¦
à¦£ à¦¤à¦¥
à¦² à¦°à¦®
à¦ļà¦¨ à¦ķà¦°à¦¤
à¦ĩ à¦¬à¦²à¦Ľ
à¦¤à¦® à¦§
à¦ľ à¦ıà¦ķ
à¦ĵ à¦¦à¦ķ
à¦² à¦ļà¦ķ
à§« à§¨à§¦à§¨à§¨
à¦¨à¦ı à¦ľà¦¨
à§Ł à¦ıà¦ĸà¦¨
à¦ĩà¦¸ à¦Ł
à¦¬à§ľ à¦®
à¦¨à¦ķ à¦²à¦®
à¦ĵ à¦īà¦²
à¦¬à¦Ľ à¦°à¦¤
à¦ĸà¦¬ à¦°à¦¶
à§§à§¦ à§ª
à§§à§¯à§¯ à§«
à¦¤ à¦°à¦ĸ
à¦¯à¦® à¦¬
à¦² à¦īà¦ª
à¦ıà¦ķ à¦¦à¦²
à¦¨à¦¤ à¦ķà¦°à¦¤
à¦Ł à¦¸à¦ª
à¦¼ à¦ĥ
à¦ĵ à¦ħà¦ªà¦°
à¦°à¦¹ à¦¶
à¦°à¦£ à¦Ĩà¦ĩà¦ª
à¦¤ à¦ħà¦¨à¦²
à¦ĵ à¦īà¦¤
à¦¬ à¦ł
à¦°à¦ĩ à¦®à¦§
à¦°à¦® à§Łà¦®à¦¨à¦¸
à¦¨à¦ķ à¦ª
à¦¤ à¦Ŀ
à¦ĵà¦¬ à¦Ļ
à¦¦à¦¨ à¦¡
à¦¨à¦ľ à¦°à¦°
à¦¨ à¦Īà¦¶
à¦Ł à¦ªà¦¦
à¦ĵ à¦ħà¦ª
à¦ª à¦ªà¦¤
à¦¬ à¦Ĩà¦ªà¦¨
à¦¤ à¦Ĩà¦¶
à¦ĩ à¦ħà¦¬à¦¸
à¦¨ à¦ĩà¦īà¦ª
à§Ł à¦®à¦¦
à¦¸à¦¬à¦ĸà¦¬ à¦°à¦ľà¦¨à¦ª
à¦°à¦Ĺ à¦Ļ
à¦ĸ à¦°à¦¤
à¦¬ à¦ĩà¦ļ
à¦ķà¦Ł à¦ķà¦®à§Łà¦¦
à¦ªà¦¨ à¦ķà¦°à¦²
à¦¬à¦° à¦°à¦¹à¦®
à¦¸ à¦ıà¦Ł
à¦°à¦¥à¦® à¦ľ
à¦¦ à¦¸à¦¹
à¦°à¦Ĩ à¦ŀ
à¦¾ à§į
à¦¶à¦¨ à¦ªà¦°
à¦® à¦ľà¦¬
à§§à§¯à§Ń à§©
à¦°à¦¥à¦® à¦¯
à¦¤ à¦ĵà¦¨
à¦Ń à¦§
à¦¨à¦ı à¦°à¦ķ
à§ĥ à¦Ĥ
à¦¯ à¦Ŀ
à¦°à¦¥à¦® à¦Ń
à¦ķ à¦°à¦ľ
à¦ªà¦¦à¦ķ à¦ª
à¦ľ à¦ı
à¦Ł à¦°à¦ľà¦®
à¦¤ à¦īà¦ļ
à¦Ń à¦ķà¦°à¦¬
à¦°à¦® à¦Ĺ
à¦¤à¦¨ à¦§à¦°
à¦°à¦¸ à¦«à¦²à¦¤
à§§à§¨à§©à§ªà§«à§¬ à§Ńà§®
à¦¤à¦° à¦ķà¦°à¦¤
à¦«à¦² à¦¶
à¦Ń à¦«
à¦¨ à§Łà¦ª
à¦¶ à¦¬à¦¸
à¦¨à¦ħà¦° à¦°à¦¶
à¦¨à¦® à¦®à¦¤
à¦īà¦² à¦«
à¦ļ à¦¨à¦¦
à¦¦à¦ķ à¦ªà¦¦
à¦ĩà¦Ł à¦°
à¦¥ à¦²à¦¥
à¦°à¦ĩ à¦īà¦ķ
à¦¨ à¦°à¦¤
à¦¯à¦¸ à¦°à¦¬à¦°
à¦¨ à¦ĩà¦ķ
à¦¨à¦¬ à§ľ
à¦¹ à¦ľà¦®
à¦¬ à¦°à¦ļà¦¨
à¦·à§Ł à¦ķà¦¸
à§Łà¦¸ à¦¤
à¦°à¦Ĩ à¦¸à¦°
à¦¦ à¦ħ
à§Ł à¦Ĩà¦¤
à¦¬à§ľ à¦Ń
à§§à§© à§¨
à¦® à¦¶à¦°
à¦ıà¦°à¦ª à¦°à¦¬
à¦ľ à§Łà¦¬
à¦ĺ à¦¬à¦¦
à¦¥ à¦ıà¦¬
à¦ĩà¦ľ à¦ķà¦°
à¦¨à¦¦ à¦ª
à¦°à¦¸ à¦¬à¦ª
à¦Łà¦¸ à¦¡
à¦¤à¦°à¦£ à¦¸
à¦Łà¦¨ à¦¯
à¦°à¦īà§İ à¦¸à¦®
à¦ıà¦¸à¦®à§Ł à¦īà¦ªà¦¸
à¦°à¦¬ à§Ł
à¦°à¦· à¦·
à¦¬ à§Łà¦ķ
à¦ĵ à¦¦à¦°
à¦°à¦® à¦¨à¦ķ
à¦²à¦¨ à¦ļ
à¦£ à¦¹à¦¤
à¦¬à¦ķà¦¦ à¦²
à¦° à¦°à¦ª
à¦°à¦¤à¦°à¦« à¦¥
à¦ıà¦¬ à¦Ľà¦°
à¦Ĺ à¦°à¦¯
à¦¨à¦¤ à¦ª
à¦Ķ à¦ªà¦¨
à¦ĩ à¦°à¦¯
à¦²à¦Ĺ à¦ķà¦°
à¦ª à¦°à¦ª
à¦°à¦£ à¦¹à§Ł
à¦¸ à¦ľà¦¨
à¦ĸ à¦ħà¦¨
à¦°à¦ĵ à¦Ł
à¦¨à¦¯ à¦¶
à¦® à¦°à¦¸
à¦Ń à¦¥
à¦ĵ à¦ķà¦¨à¦«
à¦Ńà¦¬à¦¨ à¦¯
à¦¸ à¦°à¦¯
à¦¬ à¦ı
à¦Ĺ à¦ħ
à¦®à¦¤ à¦ĸà¦¨
à¦ĩà¦ī à¦ıà¦¨
à¦°à¦Ĺ à¦łà¦¨
à¦ī à¦²à¦ķ
à¦ªà¦¦ à¦ľ
à¦Ĩà¦ļ à¦®à¦ķ
à¦Ł à¦¸à¦®à¦¯
à¦ħà¦¥ à¦ļà¦¤
à¦ľ à¦°à¦ľ
à¦ĵà¦® à¦°à¦«
à¦¯à¦¤à¦® à¦¬
à¦ķ à¦Ľà¦¬
à¦® à¦ĵà¦¨
à¦°à¦² à¦ª
à¦°à¦ĵ à¦«
à¦¨à¦Ĩ à¦°à¦¨
à¦ĵ à¦ľà¦²
à¦® à¦īà¦®
à¦¤à¦° à¦²
à¦¦à¦¸ à¦Ń
à¦¯à¦¸ à¦Ń
à¦ıà¦ĸà¦¨ à¦ħà¦¨
à§© à§¨à§¦à§¨à§¨
à¦¸à¦® à¦¹
à¦¥ à¦¨à¦¦
à¦ĩà¦¸ à¦¸
à¦¸à¦ķà¦² à¦¶
à¦ĩà¦¬ à¦¡
à¦ı à¦°à¦¥
à¦¨à¦¸ à§ľ
à¦®à¦ķ à¦°à¦£à¦ķà¦°
à¦¸à§ľ à¦ķà¦ªà¦°
à¦¹à§Ł à¦¬à¦²
à¦ª à¦¹à¦²
à¦Ĩà¦ĩà¦¨ à¦Ĺà¦¤à¦¬
à§¨à§© à§ªà§¬
à¦¡ à¦Ĩà¦¬
à¦ł à¦ķà¦¬
à¦¦à¦ķà¦¸ à¦¹
à¦Ł à¦ıà¦¸
à¦¦ à¦¬à¦°
à¦ķà¦¬à¦Ľ à¦°à¦§à¦°
à¦ıà¦ĸà¦¨ à¦Ĩà¦ªà¦¨
à¦ļà¦² à¦Ł
à¦² à¦ĵà¦°
à¦°à¦®à¦£ à¦¨
à¦ıà¦ķà¦ĩ à¦¸à¦®à§Ł
à¦¦à¦¨ à¦¯
à§§à§Ń à§«
à¦°à¦ª à¦°à¦Ĩ
à¦¨à¦ıà¦ķ à¦®
à§Ł à¦ľà¦°
à§§à§¯à§¯ à§©
à¦® à¦ĵà¦ª
à¦·à¦£ à¦°
à¦ĩà¦² à¦ĵà¦¯
à¦°à¦ĸà¦¬ à¦°à¦ķ
à§Ł à¦ħà¦Ĺ
à¦ĵ à¦ĵà§Ł
à¦Ł à¦¶à¦¨
à§Ł à¦ıà¦¨
à§ĥ à¦ĥ
à¦® à¦£à¦ª
à¦² à¦ĩà¦¸
à¦ĩà¦Ł à¦²
à§§à§© à§ª
à¦ª à¦īà¦¦
à¦Ł à¦ªà§ľ
à¦¨ à¦ĩà¦Ń
à¦ľ à¦ĺ
à¦ı à¦¨à¦Ł
à§§à§© à§Ń
à¦ªà¦¨ à¦¤
à¦®à¦¸ à¦ķ
à¦¬ à¦°à¦ıà¦¬
à¦® à¦ħà¦Ń
à§Łà¦¤ à¦ĸà¦¨
à¦¡ à¦¹à§Ł
à§¨ à§¨à§«
à¦ĩà¦² à¦Ń
à¦ĩ à¦ıà¦°à¦ķ
à¦¬à¦¬ à¦ľ
à§Ł à¦ľà¦®
à¦ıà¦ĩ à¦ļà¦Ł
à¦ıà¦ĩ à¦°à¦ķà¦®
à§§à§¦ à§§à§¨
à¦Ł à¦¹à¦ĵà§Ł
à¦®à¦¸ à¦¦à¦¸
à§¨à§¯ à§¨à§¦à§¨à§¨
à¦ĵ à¦°à¦¯
à¦¦ à¦ķà¦°à¦¬
à§§à§©à§§à§ª à§§à§«
à¦® à¦¤à¦°
à¦® à¦ķà¦¤
à¦®à¦¸ à¦ļ
à¦ıà¦¸ à¦¬à¦¨
à¦Ŀ à¦Ĺà§ľ
à¦² à¦¦à¦²
à¦Ĩà¦ļ à¦°à¦£à¦ķà¦°
à¦ľ à¦Ĺà¦¦
à§§à§¨ à§¨à§¦à§¨à§¨
à¦®à¦¨ à¦¹à¦¬
à¦ĺ à¦¨à¦ķà¦°
à¦²à¦¸ à¦¸
à¦® à¦ħà¦«
à¦ĩ à¦ĺà¦Ł
à¦°à¦Ĩ à¦ĩ
à¦ľ à¦¤à¦¬
à§§à§¬ à§®
à¦² à¦ĩà¦ŀ
à¦ķà¦® à¦ķ
à¦ĩà¦ķ à¦ª
à§¨à§¦ à§©à§¦
à¦¨à¦ĵ à¦²
à¦°à¦¦ à¦²à¦¨
à¦¬ à¦¶à¦°
à¦ª à¦Ĩà¦²
à¦² à¦ħà¦¬à¦¸
à¦ĩ à¦ıà¦ķà¦®
à¦ķà¦¬ à¦ķ
à¦ª à¦¬à¦¨
à¦°à¦ĵà¦ª à¦°à¦¸
à¦ķà¦¸ à¦Ļ
à¦ķà¦Ĩ à¦īà¦Ł
à¦§ à¦¹à¦ĵà§Ł
à¦¬ à¦ħà¦Ń
à¦¹ à¦Ĩà¦ªà¦¨
à¦ļ à¦¨à¦®
à¦ıà¦ķ à¦ħà¦¨
à§§à§¨à§© à§§à§©à§§
à§®à§®à§¦ à§¯à§¬à§§à§¨
à§¨à§§à§® à§§à§®à§®à§¦
à§¨à§®à§ªà§© à§¨à§§à§®à§¨
à§®à§®à§¦à§¨à§®à§ªà§© à§¨à§©à§ªà§¬
à§®à§®à§¦à§¨à§®à§ªà§© à§¨à§§à§®à§§à§®à§®à§¦
à§®à§®à§¦à§§à§Ńà§¨à§¯à§¦à§Ńà§¬ à§¯à§¯à§¯
à§®à§®à§¦à§§à§Ńà§¨à§¯à§¦à§Ńà§¬ à§¯à§¯à§¬
à§®à§®à§¦à§¯à§¬à§§à§¨ à§§à§¨à§©à§§à§©à§§
à§®à§®à§¦à§¨à§®à§ªà§©à§¨à§§à§®à§§à§®à§®à§¦ à§¨à§®à§ªà§©à§¨à§§à§®à§¨
à§®à§®à§¦à§§à§Ńà§¨à§¯à§¦à§Ńà§¬à§¯à§¯à§¬ à§®à§®à§¦à§§à§Ńà§¨à§¯à§¦à§Ńà§¬à§¯à§¯à§¯
à¦°à¦® à¦¨à¦Ĺ
à¦°à¦Ń à¦Ļ
à§Ł à¦ķà¦¸à¦°à¦ķ
à¦· à¦ĵ
à¦¹à¦¤ à¦ª
à¦¦ à¦Ĩà¦²à¦®
à¦°à¦£ à¦¤à¦¬
à¦ħ à¦°à¦£
à¦ķ à¦Ĩà¦ľ
à¦®à¦¦ à¦ĸ
à¦ª à¦ħà¦°
à¦¸ à¦°à¦£à¦ķà¦°à¦¤
à¦¨à¦¬ à¦Ĺ
à¦¨à¦¸ à¦¹à¦ľ
à¦ĩà¦Ł à¦ıà¦¬
à¦°à¦ĵà¦ª à¦°à¦ļ
à¦¸à¦¨ à¦®à¦¨
à¦¤à¦® à¦²
à¦ıà¦ĸà¦¨ à¦ĵà¦ªà¦°
à§¯à§§à§¦ à§§à§§à§§à§¨
à¦Ń à¦¤
à¦¦ à¦¨à¦¤
à¦¡ à¦¨à¦¬
à¦ķà¦Ń à¦Ł
à§Łà¦Ń à¦¬à¦¨
à¦¬à¦¹ à¦¨à¦ĵà¦¸
à¦¯à¦¤à¦® à¦ķ
à¦®à¦¹ à¦¸
à¦ª à¦Ĩà¦ªà¦¨
à§¨à§ª à§¦
à¦ıà¦ĩà¦ļ à¦ıà¦®
à¦² à¦§à¦¨
à¦ĩ à¦¸à¦¬à¦ļ
à¦¯ à¦¯à¦¦
à§§à§« à§®
à¦Ĩà¦Ł à¦ķà¦¸
à¦Ĺà¦£ à¦§à¦°
à¦¸ à¦Ĩà¦¬
à§§à§« à§©
à§Łà¦¨ à¦ľ
à¦ľ à¦®à¦¨
à¦¹à¦¤ à¦¹
à¦¨à¦¬à¦² à¦Ľ
à¦ĩ à¦ĺà¦°
à¦°à¦ħ à¦¬à¦¹
à¦® à§Łà¦ª
à¦¦à¦¨ à¦ķà¦°à¦²
à¦ļ à¦°à¦£à¦ķà¦°
à¦ķà¦¦ à¦²à¦Ĺ
à¦¬ à¦¹à§Ł
à¦ĸ à¦«à¦ľà¦²
à¦Łà¦ķ à¦¯
à¦°à¦Ĺ à¦Ńà¦°
à§§à§¬ à§Ń
à¦ĩ à¦°à¦ķ
à¦¨à¦ĵ à¦ļ
à¦Ł à¦ľà¦¨
à¦ĩà¦® à¦®
à¦¤à¦ª à¦¶
à¦°à¦¸ à¦¬à¦¬
à¦°à¦ª à¦°à¦«
à§İ à¦Ĺ
à¦¨à¦Ĩà¦² à¦¹
à§§à§Ń à§¦
à§§à§© à§¬
à¦ķà¦¶ à¦¨à¦¬
à¦ĺ à¦¸à¦®à¦¯
à¦ķ à¦Ļ
à¦Ĩà¦« à¦ľ
à¦¨ à¦ĩà¦ª
à¦ª à¦ıà¦²
à¦¦ à¦ķà¦°à¦²
à¦°à¦¹à¦£ à¦ķà¦°à¦²
à¦ļà¦² à¦Ĺ
à¦īà¦ľ à¦«
à¦ī à¦¸à¦ķ
à¦ıà¦ķà¦ľà¦¨ à¦Ń
à¦īà¦ªà¦ķà¦°à¦£ à¦¬
à¦ĵ à¦¹à¦¯
à¦ĵ à¦ıà¦ĩà¦ļà¦¡
à¦°à¦ķà¦® à¦°à¦ª
à¦¬ à¦ħà¦²
à¦¯ à¦¶à¦ķ
à¦¤à¦® à¦¤à¦¬
à¦¨à¦ħ à¦ľ
à¦ļ à¦¨à¦¬
à§§à§¯ à§®à§¦
à¦¤à¦¸ à¦Ļ
à¦ªà¦ķ à¦¡à¦®
à§Łà¦¸ à¦ķà¦²
à¦ªà¦¦ à¦Ĺ
à¦¨à¦® à¦£
à¦ª à¦ķà¦¦
à¦ªà¦¨ à¦¤à¦¥
à¦¦ à¦°à¦²
à¦Łà¦ķ à¦¶
à¦°à¦®à¦¤ à¦¦
à¦®à¦ķ à¦Ń
à§© à§«à§¦
à¦§ à¦ħà¦°
à¦°à¦ª à¦°à¦ħà¦¨
à¦ĵ à¦ĩà¦īà¦¨
à¦¶ à¦®à¦¹
à§Ł à¦ļà¦Ł
à¦ĸ à¦ķà¦®
à¦£ à¦¤à¦¹à¦¬
à¦¬à¦¨ à¦ķà¦°à¦¤
à¦¬ à¦°à¦¸à¦®
à¦°à¦ľ à¦Ł
à¦¸à¦¨ à¦Ń
à¦ķ à¦¨à¦¯
à¦°à¦ħ à¦¹
à¦¨à¦ħ à¦Ļ
à¦¸à¦«à¦² à¦Ń
à¦ı à¦°à¦ħà¦§
à¦¬à¦¨ à¦«
à¦Ĺà§ľ à¦¤
à¦° à¦²à¦¬
à¦¨ à¦Īà¦¦
à¦¨à¦¤ à¦¦à¦¨
à¦²à§Ł à¦Ńà¦°
à¦¯à¦¸ à¦ķà¦²
à§¯à§§à§¦à§§à§§à§§à§¨ à§§à§©à§§à§ªà§§à§«
à¦¤ à¦ļà¦Ł
à¦ľ à¦¢
à¦¦ à¦°à¦Ĺ
à¦°à¦ķ à¦Ń
à¦¬ à¦¹à¦¬
à§Ł à¦¸à¦®à§Ł
à¦Ĺ à¦ĵà¦¬
à¦Ń à¦¬à¦ª
à¦²à¦Ľ à§ľ
à¦°à¦« à¦ľ
à¦ıà¦® à¦Ń
à¦¸ à¦ĩà¦¸à¦²
à¦Ĩà¦Ł à¦ķà¦¬
à¦²à¦Ĩà¦ľ à¦¹
à¦°à¦ľà¦¨ à¦¨à¦®
à¦°à¦ļ à¦²à¦¤
à¦ıà¦ĸà¦¨ à¦ĵà¦¬
à¦Ļ à¦¨
à¦¤ à¦ĩà¦¸
à¦ª à¦ĵà¦¬
à¦ķà¦¬ à¦¡
à¦¨à¦ı à¦°à¦®
à¦¬à¦ĩ à¦ªà§ľ
à¦°à¦Ī à¦®
à¦¬à¦ľà¦¨ à¦°
à§Ł à¦īà¦ªà¦¸
à¦¤ à¦ªà¦¤
à¦°à¦ĸà¦¬ à¦°à¦¨
à¦« à¦ļ
à§§à§¯à§® à§§
à¦¨à¦Ĺ à¦°à¦¸
à¦¥ à¦Ľ
à¦ĸ à¦Ĩà¦®
à§§à§ª à§¯
à¦¸à¦ķ à¦¨
à¦ķ à¦Ĩà§Ł
à¦¨à¦®à¦¨ à¦¸
à¦ĩ à¦ªà¦¤
à¦ĵ à¦ĩà¦¯
à¦®à¦ĩ à¦°à¦¹
à¦¨ à¦Ĳ
à¦¨ à¦īà¦ªà¦¸
à¦¦ à¦ĩà¦¸à¦²
à¦®à¦¦ à¦Ĩà¦¬à¦¦
à¦¸à¦¦ à¦°à¦ķ
à¦·à¦ķ à¦Ĩà¦¬
à¦°à¦ĭ à¦£
à¦¸à¦¨ à¦°
à¦°à¦ı à¦ĩà¦°
à¦ħ à¦¬à¦¨
à¦°à¦ħ à¦¯
à§¨à§© à§¨à§ªà§¨à§«
à¦ł à¦°
à§¨à§ª à§Ń
à¦Ĩ à¦°à¦¥
à¦§ à¦°à¦Ľ
à¦² à¦¤à¦°
à¦¶à¦¹ à¦°à¦Ł
à¦°à¦®à¦¤ à¦²à¦¬
à¦¸à¦¬ à¦Ł
à¦ª à¦ķà¦¤
à¦°à¦ıà¦ķ à¦¹
à§Ł à¦°à¦¨
à¦ļ à¦®à¦¶
à¦¶à¦¤ à¦¶
à¦¶à¦ª à¦¥à¦¨
à¦ıà¦® à¦ıà¦²
à¦ªà¦¨ à¦ķà¦°à¦¬
à§§à§¬à§§à§Ń à§§à§®à§§à§¯
à¦Ĩà¦Ł à¦ķà¦ª
à¦°à¦¬ à¦¸à¦¬
à§Ł à¦ħà¦ŀ
à¦¯ à¦ħà¦¬à¦¶
à¦¹ à¦ĩà¦¸à¦²
à¦¸à¦¹ à¦¸à¦Ń
à¦² à¦ĵà¦¦
à¦¯ à¦ľà¦¨à¦ķ
à§¨à§®à§¨à§¯ à§©à§¦
à¦¤à¦¬ à¦¬
à¦ĸà¦¬ à¦°à¦®
à§Ģ à¦Ĥ
à¦¸à¦¦ à¦°à¦¥
à§§à§¯à§¯ à§ª
à§Łà¦¸ à¦ķ
à§§ à§¨à§¦à§¦
à¦°à¦¬ à¦¸à¦¤
à¦°à¦« à¦²à¦¨
à¦Ĺ à¦ľà¦¨
à¦Ĺ à¦°à¦¸
à¦ıà¦¸à¦¬ à¦¦
à¦ĵ à¦¶à¦°
à§Ł à¦®à¦¸à¦ľ
à¦Ĺà¦ł à¦¨à¦®
à¦Ĺà¦ł à¦¨à¦ª
à¦£à¦¬ à¦Ļ
à¦· à¦¹à¦ĵà¦¯
à¦°à¦² à¦Ļ
à¦°à¦Ĺ à¦°à¦®
à¦ķ à¦ĩà¦°
à¦¤à¦¹ à¦¨à¦¤
à¦ıà¦ķà¦ĩ à¦¸à¦®à¦¯
à¦ĸà¦¬à¦° à¦°
à§§à§ª à§©
à¦¶ à¦¬à¦ķ
à¦ī à¦Łà¦ª
à¦ĸ à¦Ĩà¦¬
à¦°à¦Ĩ à¦ĩà¦ķ
à¦¦ à¦Ĩà¦°
à¦ĩà¦¸ à¦ķà¦²
à¦ľà¦¨ à¦®à¦¨
à§Ł à¦ħà¦ªà¦°
à¦Ī à¦°
à¦ķ à¦¨à¦ķ
à¦¯ à¦ıà¦²
à¦Ĺà¦£ à¦Ńà¦¬à¦¨
à¦¦ à¦¹à¦²
à¦ī à¦Łà¦¸
à¦ĺ à¦°à¦ª
à¦ªà¦¥ à¦ļ
à¦¬ à¦Ĺà¦¤
à¦² à¦ıà¦°à¦ª
à¦®à§Ł à¦²
à¦°à¦Ń à¦Ĺ
à¦ķ à¦ħà¦¬
à¦ıà¦¸ à¦ĩà¦ĵ
à¦¬ à¦ĵà¦ķ
à¦°à¦ª à¦°à¦ı
à¦ĸ à§ľ
à¦ıà¦ķ à¦ķà¦°
à§¨à§©à§¨à§ªà§¨à§« à§¨à§¬à§¨à§Ń
à¦ħà¦¬à¦¸ à¦°à¦ª
à¦ķà¦ľà¦¨ à¦¤
à¦· à¦Ļ
à¦ª à¦¸à¦¨
à¦ļ à§Łà¦ķà¦°
à¦¬à¦¸ à¦Ľ
à¦¯à¦ĸ à¦¨à¦¨
à§¯à§§à§¦à§§à§§à§§à§¨à§§à§©à§§à§ªà§§à§« à§§à§¬à§§à§Ńà§§à§®à§§à§¯
à§¨à§ª à§©
à¦¨ à¦ĩà¦ŀ
à§Łà¦ķ à§Ł
à¦£ à¦ķà¦®
à¦£ à¦ķà¦°à¦¬
à¦¨ à§Łà¦®
à§§à§© à§®
à¦¦ à¦§
à¦¶ à¦Ĩà¦Ĺ
à¦°à¦¸ à§ľ
à¦¯ à¦¨à¦¬
à§Ł à¦ħà¦¶
à¦ķà¦ľà¦¨ à¦¬
à§§à§¨ à§ª
à¦°à¦ĺ à¦£
à¦ķ à¦ĵà¦¶
à¦¤ à¦°à¦ħà¦¨
à§¨à§¦à§¨à§§à§¨à§¨ à§¨à§©à§¨à§ªà§¨à§«à§¨à§¬à§¨à§Ń
à¦¦ à¦¹à¦¤
à¦¦à¦ķ à¦Ĺ
à¦ĩà¦¨à¦Ĩà¦ª à¦ķà¦°
à¦¨ à¦īà§İà¦ª
à¦ļ à¦¶à¦®
à¦°à¦ľ à¦Ĺ
à¦¯ à¦Ĩà¦ĩà¦¨
à¦°à¦® à¦¤à¦®
à¦°à¦¬ à¦¬
à¦°à¦® à¦ļà¦²à¦®
à¦ļà¦ª à¦ł
à¦ªà¦¨ à¦ªà¦°
à§¯à§§à§¦à§§à§§à§§à§¨à§§à§©à§§à§ªà§§à§«à§§à§¬à§§à§Ńà§§à§®à§§à§¯ à§¨à§¦à§¨à§§à§¨à§¨à§¨à§©à§¨à§ªà§¨à§«à§¨à§¬à§¨à§Ń
à¦ķà¦Ł à¦¤
à¦¶ à¦¦à¦²
à¦°à¦ª à¦°à¦²
à¦°à¦¸ à¦¸
à¦¤à¦¤ à¦Ł
à§§à§¯à§® à§¬
à¦°à¦¹à¦£ à¦¨
à¦Ĩ à¦ĩà¦¯
à¦¤à¦¹à§Ł à¦ª
à§Ł à¦ıà¦ĸ
à§Łà¦¸ à¦Ļ
à¦Ĺ à¦¹à¦²
à¦°à¦Ĩà¦¤ à¦Ļ
à§¯à§§à§¦à§§à§§à§§à§¨à§§à§©à§§à§ªà§§à§«à§§à§¬à§§à§Ńà§§à§®à§§à§¯à§¨à§¦à§¨à§§à§¨à§¨à§¨à§©à§¨à§ªà§¨à§«à§¨à§¬à§¨à§Ń à§¨à§®à§¨à§¯à§©à§¦
à¦¬à¦Ľ à¦°à¦¯
à¦¬ à¦ªà¦¦
à¦°à¦Ń à¦¬à¦¨
à¦¥ à¦¤à¦²
à¦°à¦ĵ à¦ķà¦°
à¦ĩà¦® à¦ļ
à§Ł à¦Ĩà¦¶
à§Łà¦¬ à¦¦
à¦ĵà¦ĩ à¦ıà¦²
à¦ªà¦° à¦¨
à¦¨à¦¸ à¦¬à¦ļ
à¦¦ à¦ħà¦°
à¦· à¦ĺ
à¦ķà¦¬ à¦°à¦ĸ
à¦¨à§Ł à¦¯
à¦Ł à¦°à¦Ĺ
à¦²à¦¨ à¦¸à¦®
à¦Ł à¦ħà¦Ń
à¦¶ à¦Ĺà¦¤
à¦Ĩà¦ľ à¦®à¦Ļ
à¦²à¦¨à¦ķ à¦ķ
à¦ľ à¦°à¦¤
à¦¤à¦°à¦£ à¦ª
à¦ĩà¦Ł à¦¯
à¦¥ à¦°à¦ķ
à§Ł à¦¶à¦¨
à¦°à¦® à¦¨à¦ľ
à§ľ à¦°
à§§à§¯à§Ń à§ª
à¦ľ à¦ķà¦¨
à¦¹ à¦¨à¦ķ
à¦ĩà¦Ł à¦ªà¦°
à¦ıà¦®à¦¨ à¦¨
à§İ à¦¸à¦®
à¦Ĩ à¦ľà¦¨
à¦« à¦ĸ
à¦īà§İà¦¸à¦¬ à¦®
à¦¶ à¦ħà¦§
à¦· à¦īà¦¦
à¦Ļ à¦¤
à¦¬à¦¹ à¦°
à¦°à¦ıà¦ķ à¦¯
à¦¥ à¦°à¦ĺ
à¦Łà¦¬à¦² à¦«
à¦ķ à¦īà¦ļ
à¦ıà¦¸ à¦¬à¦¸
à¦§à¦¨ à¦¸à¦®
à¦ĩ à¦ĵà¦Ń
à§§à§¨ à§¬
à¦¤à¦¤ à¦ĵà¦¹
à¦ļ à¦ıà¦¬
à¦°à§Ł à¦Ł
à¦² à¦ľà¦¨
à¦ĩ à¦¹à§Łà¦¨
à¦®à¦¹ à¦ļ
à¦¨à¦¸ à¦«
à¦°à¦¥à¦® à¦Ĺ
à¦¦ à¦Ĩà¦Ľ
à¦§ à¦°à¦ļà¦¨
à¦°à¦£ à¦ļ
à§§à§¬ à§«
à¦¤à¦¨ à¦ıà¦¬
à¦® à¦ıà¦²
à¦Ĺà¦« à¦°à¦Ĺ
à¦¨à¦¨ à¦Ĺ
à¦¤à¦ĸ à¦¨à¦¦
à¦ķ à¦ĵà¦ķ
à¦°à¦ķ à¦¤à¦Ł
à¦ķà¦ļ à¦°
à¦²à¦¤ à¦ĸ
à¦ī à¦ľà¦¨
à¦ĸ à¦¸à¦®
à¦¸à¦¹ à¦°
à¦® à¦ļà¦Ł
à¦ī à¦®à¦°
à¦¤ à¦°à¦ļ
à¦¤à¦ķ à¦ķ
à¦ľ à¦ĸà¦¬à¦°à¦¨
à¦Ľ à§Łà¦®
à¦ıà¦ĩ à¦ķà¦°
à¦ķ à¦ıà¦¨
à¦¤ à¦¤à¦®
à¦Ĺ à¦°à¦¦
à¦¸ à¦Ĩà¦ķ
à¦ķ à¦¯à¦¦
à¦¦ à¦ľà¦¨à¦ª
à¦Łà¦¨ à¦ķà¦°
à¦ļ à¦ħà¦¨
à¦°à¦ªà¦¥ à¦ļà¦²
à¦§ à¦¨à¦Ĺ
à§Ł à¦ıà¦ķà¦¦
à¦¯ à¦īà¦²
à¦¨à¦Ĩà¦°à¦ĵ à¦ªà¦¡
à¦Ł à¦ķà¦¸
à¦¤à¦°à¦ª à¦¶
à¦¨à¦¬ à¦®
à§Łà¦¨ à¦°
à¦¤ à¦Ĩà¦°à¦ĵ
à¦ĩ à¦ıà¦ķà¦¦
à¦¨ à¦°à¦«
à¦ª à¦¸à¦¹
à¦¯ à¦ħà¦¨à¦²
à§§à§® à§«
à¦ķà¦® à¦¡
à¦¨ à¦īà¦ķ
à¦· à¦ıà¦ķà¦Ł
à¦ĩà¦¡ à¦Ĺ
à¦°à¦®à¦£ à¦®à¦¤
à¦ķ à¦ĵà¦°
à§§à§¯ à§¦
à¦ĩà¦¨ à¦ķà¦¥
à¦ıà¦ĩ à¦®à¦¨
à¦¯à¦ķ à¦°à¦Ń
à¦ķà¦¸ à¦¦à¦¸
à¦« à¦¨à¦ķà¦°
à¦ĩà¦² à¦ıà¦¬
à¦¦ à¦¹à¦¯
à¦§ à¦ħà¦®
à¦¸ à¦¨à¦¤
à¦® à¦ĵà¦¤
à§§à§¦ à§§à§«
à¦¨ à¦īà¦®
à¦²à¦¸ à¦¡
à¦ķ à¦ħà¦Ļ
à¦ķà¦Ł à¦¬
à¦« à¦°à¦¯
à¦¨à¦¯ à¦¥
à¦¸ à¦°à¦¤
à¦Ł à¦¨à¦¤
à¦®à¦¸ à¦Ń
à¦Ĩà¦ī à¦Łà¦ª
à¦¶ à¦Ĩà¦°
à¦ķ à¦īà¦ªà¦¨
à¦ª à¦¸à¦®à¦¯
à¦ĩ à¦°à¦«
à¦Ĩà¦ľ à¦ĸà¦¬à¦°à¦¬
à¦® à¦ĵà¦¸à¦®
à¦ķ à¦¶à¦¬
à§©à§© à§©
à¦®à¦¨ à¦¥
à¦°à¦ļ à¦²à¦Ľ
à¦°à¦ı à¦ĩà¦²
à¦ĩà¦¨ à¦ĩà¦¨à¦ķ
à¦¤à¦ĸ à¦¨à¦¨
à¦°à¦ħà¦ª à¦ļ
à¦ĩ à¦¶à¦¬
à¦Ĩ à§Łà¦¨
à¦°à¦īà¦ªà¦° à¦°
à¦¸à¦¹à¦ľ à¦Ń
à§¨à§ª à§¨à§¦à§¨à§¨
à¦ª à¦ı
à¦Łà¦ĩ à¦ªà¦¤
à¦¬à¦Ľ à¦°à¦¦
à¦īà¦ľ à¦¶
à¦°à¦ıà¦ķ à¦Ĺ
à¦¯ à¦īà¦ļ
à¦ľ à¦ļà¦Ł
à¦· à¦®à¦ķà¦°
à¦īà¦ª à¦ªà¦°
à¦§ à¦Ĩà¦°
à§§à§¦ à§¨à§¦à§¨à§¨
à¦¨ à¦°à¦¹à¦®
à¦ķ à¦¤à¦°
à¦¸ à¦Ĺà§ľ
à¦ķ à¦¨à¦ª
à¦ıà¦ĩ à¦§à¦°à¦£
à¦¸ à¦ķà¦¸
à¦¬ à¦¶à¦¤
à¦¶à¦ķ à¦¨
à¦ĩ à¦ĵà¦¬
à¦ķà¦¤ à¦Ĺ
à¦Ĩà¦¨ à¦Ľ
à¦ĵ à¦²à¦ľ
à¦¨ à¦°à¦¶
à¦°à¦Ķ à¦·
à¦¹à¦¤ à¦®
à¦ķ à¦ĩà¦®
à¦¥ à¦¹à¦ļ
à¦®à¦¨ à¦«
à¦·à¦ķ à¦ªà¦°
à¦Ĺà¦¤ à¦ļ
à¦²à¦ª à¦¡
à¦ĩà¦ľ à¦ª
à¦°à¦¸à¦ķà¦² à¦¬
à¦· à¦Ĩà¦²
à¦¯ à¦ħà¦¬
à¦¦ à¦°à¦ıà¦ķà¦Ł
à¦²à¦¬ à¦¦
à¦°à¦Īà¦¦ à¦īà¦ªà¦¹
à¦Ł à¦ħà¦§
à¦¨à¦ª à¦ķ
à¦·à¦ķ à¦ľ
à¦ªà¦° à¦¯
à¦Ĩà¦¦ à¦®
à¦¦ à¦®à¦¹
à¦°à¦Ń à¦°à¦¸
à¦¤ à¦ħà¦®
à¦°à¦Ĩà¦°à¦ĵ à¦ªà§ľ
à¦ľ à§Łà¦ķ
à¦¨à¦¬ à¦®à¦¶
à¦ĸà¦ķ à¦¬à¦¨
à¦ĵ à¦Ľà¦¬
à¦ĩà¦¨ à§Ł
à¦ĩà¦² à¦¤
à¦¨à§Ł à¦¨à¦¨
à¦Ĩà¦°à¦¬ à¦¦
à¦ī à¦¨à¦ķ
à¦ł à¦ķà¦¶
à¦°à¦īà¦ª à¦°à¦ľ
à¦¹à¦¤ à¦ķ
à¦¨à¦Ń à¦Ł
à¦Ĺ à¦®à¦®
à¦ĵ à¦ħà¦¨à¦²
à§§à§¯à§® à§ª
à¦ĩà¦ī à¦¬
à¦Ĺ à¦¨à¦¬
à¦®à¦¨ à¦Ĩà¦®
à¦ķ à¦ĩà§Ł
à¦ı à¦°à¦¸à¦°
à¦¤à¦¹ à¦¨
à¦Ĺ à¦®à¦¤
à§Ł à¦¹à¦¬
à¦¨à¦¤ à¦ķ
à¦¦à¦¨ à¦ľà¦®
à¦ĵ à¦Ŀ
à¦Ĩà¦ĩà¦¨ à¦ħà¦¨
à¦²à¦¨ à¦°
à¦¯ à¦ĩà¦Ń
à¦¯ à¦Ĩà¦ķ
à¦ķ à¦°à¦£à¦ķà¦°
à¦ķà¦ľà¦¨ à¦¨
à¦°à¦ħ à¦¸à¦®
à¦²à¦ķ à¦ľ
à¦¨à¦Ĩ à¦ĵà¦¯
à¦¦ à¦¹à¦¬
à¦ī à¦Ĩà¦®
à¦¶ à¦Ĩà¦²
à¦Ĺà¦°à¦® à¦ª
à¦ĵ à¦Ĩà¦¶
à¦ª à¦¹à¦¯
à¦²à¦ķ à¦ªà¦°
à¦¸à¦¦ à¦°à¦°
à¦¹à¦ķ à¦¹
à¦°à¦¦ à¦ĵà¦ªà¦°
à¦Ĺà¦¤à¦¬ à¦ķ
à¦Ł à¦ķà¦ķ
à¦·à¦ķ à¦Ĺ
à¦« à§Ł
à¦ıà¦ķ à¦ĩà¦ªà¦°
à¦ķ à¦ľà¦®
à¦¹à§Ł à¦ıà¦°à¦ª
à¦¯à¦¸ à¦Ļ
à¦¤ à¦ªà¦¨
à¦¬ à¦°à¦¸à¦¨
à¦® à¦¯à¦¦
à§§à§¯à§® à§¯
à§Ł à¦ıà¦Ĺ
à¦· à¦ªà¦¦
à¦¶ à¦ĩà¦¨
à¦¯ à¦ıà¦ĩà¦¬
à¦°à¦¥à¦® à¦ļ
à¦ł à¦ķà¦ķ
à¦¹à¦² à¦Ń
à§Ń à§©à§¦
à¦°à¦¥à¦® à¦§
à¦ĸ à¦ĺà¦°
à§¨à§« à§«
à¦¬ à¦°à¦ħà¦ªà¦°
à¦¸ à¦ĵà¦®
à§Ł à¦°à¦ľ
à¦°à¦ħ à¦¸à¦¹
à¦ıà¦¨ à¦ıà¦¸
à¦ķà¦Ľ à¦²
à¦ķà¦° à§Ł
à¦¦à¦¸ à¦°à¦ķ
à¦ĵ à¦ļà¦²
à¦¨à¦¤ à¦°à¦ª
à¦Ľ à§Łà¦Ł
à¦² à¦ıà¦ĸà¦¨
à¦°à¦¹ à¦Ł
à¦Ī à¦¨à¦īà¦¦
à§§à§¨ à§Ń
à¦°à¦īà¦ª à¦¬
à¦°à¦Ĩà¦Ĺ à¦ªà¦°
à¦¬ à¦ķà¦°à¦¤
à¦ĸà¦ķ à¦Ĩà¦²à¦®à¦¶
à¦ļà¦ķ à¦ļà¦ķ
à¦· à¦ķà¦°à¦²
à¦¶ à¦ıà¦¸
à¦ĩà¦¸ à¦¦
à§ľ à¦Ł
à¦ıà¦ķ à¦«
à¦°à¦Ĩ à¦ĩà¦Ł
à¦® à¦ħà¦¸
à¦¶ à¦¤à¦ķà¦°
à¦§ à¦Ĩà¦®
à§Ł à¦ĺà¦Łà¦¨
à¦ķà¦ĵ à¦ħà¦°
à¦¤ à¦Ĺà¦°
à¦°à¦ĩà¦ī à¦ı
à¦ķà¦¤ à¦ĸà¦¨
à¦® à¦ĩà¦¬à¦¨
à¦īà¦¡ à¦ħà¦Ń
à¦°à¦® à¦ķà¦°à¦¤
à¦°à¦¡ à¦Łà¦ķà¦®
à¦¸ à¦Ĩà¦¹à¦®
à§©à§ª à§¬
à¦²à¦Ĩ à¦īà¦Ł
à¦Ĺ à¦¹à¦¤
à¦¶ à¦ĩà¦¤
à¦ľà¦¨ à¦ķà¦®
à¦® à¦ĩà¦īà¦¨
à¦¨à¦Ń à¦¬à¦¨
à§Ł à¦ıà¦°à¦ª
à¦°à¦¸ à¦ĸ
à¦ħ à¦²à¦°
à¦°à¦ĵ à¦¡
à§¨ à§§à§Ń
à¦¨à¦¸ à¦¹à¦¬
à§¨à§ª à§ª
à¦ķà¦¸ à¦Ł
à¦ķ à¦ľà¦¨à¦¸
à¦¦à¦¨ à¦¹
à¦¹à¦¯à¦°à¦¤ à¦Ĩà¦¬
à¦Ł à¦ł
à¦Ł à¦°à¦¶
à¦£à¦Ĺ à¦¤à¦®
à¦²à¦ķ à¦Ĺ
à¦¶à¦°à§İ à¦ļà¦¨
à¦¦à¦¶ à¦ľ
à¦¸ à¦¦à¦ķ
à¦¨à¦¦ à¦¯
à¦ĵ à¦Ĩ
à¦Ń à¦¡
à¦¹ à¦¡
à¦ªà¦ķ à¦¨
à¦Ĩà¦°à¦ķ à¦ĸà¦¨
à¦ĩà¦¡ à¦Ł
à¦¦ à¦ĵà¦¦
à¦°à¦ļ à¦°à¦®
à¦ıà¦ķ à¦Ľ
à¦¹à¦² à¦ľ
à¦ĸ à¦ķà¦ķ
à¦® à¦ıà¦¤
à¦¬ à¦°à¦ħà¦¨
à¦Ĺ à¦¹à¦¯
à¦² à¦ħà¦ª
à¦¨à¦¸ à¦¬à¦ķ
à¦ķà¦Ń à¦¬à¦¨
à¦ĵ à¦ĩà¦°
à¦Ĺ à¦¸à¦¹
à§§à§ª à§®
à¦¤ à¦Ĩà¦¤
à¦Ł à¦ľà¦¨à¦ª
à¦ĩ à¦¶à¦ķ
à¦¸ à¦¸à¦¬
à¦Ĩà¦ľ à¦¶à¦¨
à§Łà¦¨ à¦¹à§Ł
à¦¨ à¦īà¦ł
à¦« à¦¡
à¦ıà¦¸à¦¬ à¦®
à¦°à¦¬ à¦¶
à¦¤à¦¬ à¦¡
à¦ľ à¦ħà¦°
à¦ª à¦Ĺà¦²
à¦¬ à¦¤à¦®
à¦ĵ à¦ĩà¦Ĺ
à¦ħ à¦«à¦²
à¦¹à¦² à¦°
à¦¬à¦² à¦Ĺ
à¦· à¦¸à¦¨
à¦²à¦Ĩà¦² à¦®à¦®
à¦ĩ à¦ħà¦§
à¦ļ à§Łà¦¨
à§¨à§ª à§®
à¦°à¦Ĩ à¦¨à¦ª
à§§à§« à§¯
à¦¯à¦® à¦ª
à¦Ń à¦¸à¦ķ
à¦°à¦īà¦ª à¦°à¦¥
à¦Ĩà¦ĩà¦¨ à¦ķ
à¦¶ à¦ħà¦®
à¦ĸ à¦ķà¦°à¦¤
à¦¶à¦¨ à¦ħà¦«
à§Łà¦¨ à¦Ĺà¦°
à¦ıà¦ķ à¦ĩà¦ķ
à§© à§¨à§®
à¦¦ à¦ļà¦Ł
à¦¨à¦¹ à¦ł
à¦¯ à¦ł
à¦¶ à¦²à¦Ĺ
à¦¹à§Ł à¦«
à¦¯ à¦ĩà¦¦
à¦ī à¦ī
à¦¨ à¦ļà¦²à¦¤
à¦ķ à¦°à¦¶
à¦ł à¦ļ
à¦ĭ à¦£à¦¬
à¦¨à¦¹à§Ł à¦°
à¦¦ à¦ĵà¦¸
à¦ĸ à¦ķà¦¹
à¦¸ à¦ıà¦°à¦ª
à¦ª à¦ļà¦ķ
à¦ħà¦¬à¦¸ à¦°
à¦¹à¦¤ à¦¤
à¦Ĩà¦ľ à¦ªà¦°
à¦ĩ à¦Ĺà¦°
à¦°à¦¬à§ľ à¦Ń
à¦ľà¦¨ à¦Ł
à¦²à¦¹ à¦ķà¦¹
à¦¹à§Ł à¦ıà¦Ł
à¦¤à¦ķ à¦£
à¦ĵ à¦ıà¦²
à¦§ à¦ĵà¦¸
à§§à§« à§¬
à¦°à¦¨ à¦°
à¦² à¦ļà¦Ł
à¦°à¦ķ à¦®à¦¸
à§¨à§¨ à§¨
à¦²à¦Ĩà¦® à¦¦
à§§à§¯ à§«à§¨
à¦°à¦ķ à¦®à¦¨
à¦² à¦Ĩà§Ł
à¦°à¦¸à¦¹ à¦Ĩà¦Łà¦ķ
à¦²à¦¹ à¦ĵà¦¯
à¦Ī à¦¦à¦®
à¦ı à¦ıà¦¸
à¦°à§Ł à¦£à¦ª
à¦¯ à¦ħà¦ŀ
à¦ĩ à¦ĩà¦īà¦¨
à¦² à¦ļà¦²
à¦® à¦°à¦¯
à¦® à¦ıà¦¸
à¦® à¦Ŀ
à¦¹ à¦¹à¦²
à§Ł à¦īà¦ł
à¦°à¦Ĩ à¦°à¦¤
à¦² à¦ıà¦¦
à¦ıà¦ķ à¦ĩà¦ª
à¦¯ à¦ĩà¦ľ
à§§à§© à§¯
à¦°à¦īà¦ªà¦° à¦¯
à¦¤ à¦ļà¦°
à¦· à¦ļà¦¨
à¦¨à¦ľ à¦Ļ
à¦²à¦¤ à¦Ĩà¦¨
à¦ĵà¦¬ à¦¹
à¦ľ à¦ĩà¦īà¦¨
à¦¦à¦ķ à¦ĵà¦¬
à¦¨à¦¸à¦® à¦°
à¦°à¦ľà¦¨ à¦Ĺ
à§Ń à§¨à§Ń
à§Łà¦¨ à¦Ń
à¦Ĩà¦¤ à¦¸à¦®
à¦ĵ à¦ķà¦¥
à¦°à¦® à¦¨à¦¸
à¦¶ à¦ĺà¦Łà¦¨
à¦ľà¦¨ à¦ķà¦°à¦¬
à¦¤à¦¨ à¦¹à§Ł
à¦°à¦£ à¦ıà¦ķà¦Ł
à¦¨à§Ł à¦¶
à¦¨à¦ĵ à¦ĸ
à¦¨à¦ľ à¦²
à§§à§¯ à§©
à¦Ĩà¦ľ à¦Ĩà¦®à¦°
à§Łà¦ķ à¦¹
à¦² à¦¤à¦¨
à¦ī à¦Łà¦¨
à¦¡ à¦ĩà¦īà¦¨
à¦¬ à¦¬à¦¨
à¦Ł à¦¬à¦ķ
à¦¦à¦ķ à¦«
à¦°à¦¶ à¦ª
à¦¯à¦¸ à¦¦à¦¸
à¦°à¦ªà¦°à¦ª à¦°à¦ĩ
à¦²à¦¹ à¦ľ
à¦¬à¦² à¦¹à§Ł
à¦¨à¦¬ à¦¯
à¦ıà¦ĸà¦¨ à¦ĵà¦ķ
à¦ĩ à¦¸à¦¬à¦ķ
à¦ķà¦¸ à¦ļ
à¦ķ à¦Ĩà¦®à¦°
à¦¨à¦Ĩ à¦ªà¦¡
à¦¬à¦¸ à¦°
à¦Ĺ à¦®à¦¹
à¦°à¦ı à¦°à¦®à¦§
à§Ł à¦ıà¦Ľ
à§ª à§¨à§¦à§¨à§¨
à¦ł à¦Ĺ
à¦°à¦ı à¦°à¦®
à¦ľà§Ł à¦²
à¦ıà¦ķà¦ľà¦¨ à¦°
à¦ķ à¦¹à¦ļ
à¦·à¦£ à¦¯
à¦°à¦ı à¦ĩà¦ľ
à¦¨à¦ª à¦¬
à¦¯à¦¸ à¦¤
à¦Łà¦¸ à¦¤
à¦¸à¦« à¦Ł
à¦£ à¦Ĩà¦²
à¦ľà¦¨ à¦ªà¦¦
à¦¨à¦Ĺ à¦¨
à¦¦à¦¶ à¦¹
à¦ĭ à¦£à¦ª
à¦°à¦¨ à¦ª
à¦® à¦ıà¦°à¦ª
à¦ĩ à¦«à¦²
à¦¹à¦°à¦£ à¦¦
à¦Ĺ à¦¨à¦®
à¦ŀ à¦¬
à¦°à¦ı à¦ĩà¦Ĺ
à¦°à¦¸à¦¬ à¦ĸà¦¬à¦°à¦ª
à§§à§¨à§©à§ªà§«à§¬à§Ńà§® à§¯à§§à§¦à§§à§§à§§à§¨à§§à§©à§§à§ªà§§à§«à§§à§¬à§§à§Ńà§§à§®à§§à§¯à§¨à§¦à§¨à§§à§¨à§¨à§¨à§©à§¨à§ªà§¨à§«à§¨à§¬à§¨à§Ńà§¨à§®à§¨à§¯à§©à§¦
à§Ł à¦¶à¦°
à¦°à¦¸ à¦«à¦°
à¦· à¦¹à¦ļ
à§§à§¯ à§¬
à¦¬ à¦ªà¦¨à¦ķ
à¦® à¦ıà¦ĸ
à¦¦ à¦ĵà¦¬
à¦¬à¦¹ à¦¨à¦¶
à§İà¦« à¦°à¦°à¦¹à¦®
à¦ķ à¦¤à¦®
à¦·à¦¦à¦¸ à¦ļ
à¦®à¦® à¦Ń
à¦¨à¦® à¦¸
à¦®à¦ķ à¦°à¦£
à¦Ĩà¦īà¦Ł à¦²
à¦¸ à¦ĵà¦¦
à¦ªà¦ķ à¦¥à¦¨
à¦² à¦°à§Ł
à¦°à¦Ĩ à¦°à¦®
à¦¨à¦ı à¦°à¦Ĩà¦¨
à§ĩ à§ĩ
à¦ł à¦¸à¦ª
à§Łà¦¨ à¦Ĺ
à¦Ĩ à¦¤à¦¤
à¦¹ à¦ķà¦ķ
à¦ĩ à¦ħà¦¬à¦¶
à¦²à¦¸ à¦Ļ
à§¨à§¦ à§ªà§§
à¦¡ à¦Ĺà§ľ
à¦°à¦¸ à¦ľ
à¦ĩ à¦ªà¦¦
à¦§à¦° à§Ł
à¦Ł à¦ħà¦¨à¦²
à¦¨ à¦īà¦ªà¦°
à¦¬ à¦°à¦Ĩà¦®
à¦°à¦ĩ à¦¨à¦ķ
à¦® à¦Ĩà¦ķ
à¦ī à¦¨à¦ª
à¦®à§Ł à¦ķà¦°
à¦² à¦¦à¦¶
à¦¤à¦¹ à¦ĩà§Ł
à¦¨à§Ł à¦¨à¦®
à§§à§« à§ª
à¦¤ à¦°à¦¡
à¦²à¦Ĺ à§ľ
à¦ĵ à¦¤à¦¬
à¦¤ à¦ħà¦¬
à¦°à¦¸ à¦²
à¦ĩ à¦ıà¦°à¦ª
à¦°à¦£ à¦Ĩà¦®à¦°
à¦ª à¦¹à¦¤
à¦ķà¦® à¦¹à¦²
à¦ľ à¦®à¦¹
à¦ı à¦ħà¦Ń
à¦¥ à¦¨à¦ª
à¦ĩ à¦ıà¦°
à¦Ľ à¦¦à¦°
à§§à§¯ à§«
à¦ķ à¦ļà¦²
à¦īà¦Ńà§Ł à¦ªà¦ķ
à¦¶à¦¨ à¦Ľ
à¦®à¦¤ à¦¶
à¦ıà¦« à¦ıà¦«
à¦ĸ à¦Ĩà¦Ľ
à¦ĩà¦ī à¦¹
à¦¤à¦¨ à¦¹à¦¤
à¦¨à¦Ĺ à¦°à¦ķ
à¦² à¦ī
à¦¥ à¦¦à¦¤
à¦¹à¦¤ à¦¹à¦¯
à§Ł à¦ĩà¦¸à¦²
à¦¬à¦² à¦ļ
à¦¤ à¦ıà¦ĸ
à¦ķ à¦ħà¦¤
à¦¤à¦¹à§Ł à¦¯
à¦ķà¦¬ à¦¹
à¦¶à¦ķ à¦¨à¦¸
à¦°à¦ıà¦ķ à¦ľà¦¨à¦¸
à§§ à§§à§¦à§¦
à¦ļà¦² à¦Ń
à¦Ĩà¦ª à¦Ĺ
à¦Ĺ à¦ıà¦¨
à¦ł à¦ľ
à¦¸à¦¦ à¦°à¦¹
à¦°à¦¤ à§İà¦ķ
à¦ıà¦¸à¦® à§Łà¦¸
à¦ľ à¦¶à¦°
à¦ĩ à¦Ĩà¦Ĺà¦¸
à§§à§¨ à§§à§¬
à¦Ĩà¦Ĩ à¦Ĩà¦Ĩ
à¦¯ à¦Ĩà¦ľ
à¦°à¦Ĺà¦£ à¦¤à¦¨
à¦¦à¦¶ à¦¦
à¦· à¦Ĩà¦Ľ
à¦ľ à¦¬à¦°
à¦ĵà¦ĩ à¦¸à¦®à§Ł
à¦¨à¦¸ à¦¹à¦¸
à¦¹à§Łà¦¤ à¦ĸà¦¨
à¦Ĩ à¦°à¦ªà¦°
à§¨à§« à§¨à§¦à§¨à§¨
à¦ķ à¦°à¦Ń
à¦®à¦¤ à¦¸à¦®
à¦¦à¦¨ à¦¸à¦®
à¦¦ à¦ĵà§Ł
à¦¤à¦¬ à¦ľ
à¦Łà¦¬à¦² à¦®
à¦ıà¦¸à¦® à§Łà¦¬
à¦Ľ à¦¨à¦¦
à¦² à¦°à¦¸
à¦ĩ à¦°à¦¸
à¦ĩà¦Ľ à§ľ
à¦ķà¦¬à¦Ľ à¦°à¦Ĩà¦Ĺ
à¦Ĺ à¦ĩà¦¨
à¦® à¦²à¦¬
à¦ħ à¦°à¦¬
à¦¨ à¦īà¦¦à¦¯
à¦¨à¦¤ à¦ļ
à¦¤à¦¨ à¦¹
à§§à§¬ à§©
à¦² à¦ĩà¦²
à¦®à¦Ĩ à¦¹à¦¬
à¦¨ à¦ļà¦²à¦ļ
à¦Ł à¦īà¦ļ
à§İ à¦®à¦¨
à¦§ à¦¹à¦ļ
à§¨à§¦à§¨ à§§à§ª
à¦°à¦£ à¦¥
à¦ª à¦ıà¦ķ
à¦Ń à¦¬à¦¬
à¦¨à¦ľ à§Ł
à¦¡ à¦ĵ
à¦°à¦ĩ à¦Ľ
à§İ à¦Ĩà¦®
à¦²à¦® à¦²
à¦Ĺà¦ł à¦¨à¦¸à¦Ń
à¦Ł à¦ĵà¦¬
à¦°à¦ªà¦°à¦ĵ à¦¤
à¦¬ à¦īà¦¤
à¦¯ à¦¯à¦¨
à¦² à¦Ĺà¦¤
à¦ķ à¦Ĺà¦£
à¦ķà¦¶ à¦¨à¦ª
à¦² à¦ĵà¦¨
à¦ķ à¦§à¦°à¦¨
à¦®à¦° à§Ł
à¦° à¦°à¦ļ
à¦¨à¦¸ à¦ŀ
à§§à§¯ à§¬à§¯
à¦²à¦¸ à¦ªà¦°
à¦®à¦® à¦Ļ
à¦ªà¦¸ à¦¡
à¦ĸ à¦ķà¦¸
à¦¬ à¦ĩà¦Ľ
à¦¨à¦ħ à¦Ĺ
à§¨à§¦ à§§
à¦ª à¦ıà¦Ĺ
à¦ªà¦ķ à¦°à¦Ľ
à¦ľ à¦ĩà¦¤
à¦ľà¦¨ à¦¬à¦²
à¦¥ à¦²à¦ªà¦°
à§§à§¯ à§«à§¦
à¦¬à¦¤ à¦²
à¦ĩ à¦ıà¦¨
à¦¸ à¦ĵà¦ª
à¦°à¦ľ à¦²à¦¸
à¦¤ à¦ĵà¦¤
à¦¦ à¦ĵà¦ª
à¦Ĺ à¦¹à¦¬
à¦ĩ à¦°à¦¬
à¦ľà¦® à¦ľà¦®
à¦¯à¦¤à¦® à¦ľà¦¨à¦ª
à¦¨à¦Ĺ à¦£à¦®
à§Łà¦¨ à¦ķà¦°à¦¤
à¦Ł à¦Ļ
à¦ª à¦¸à¦¸
à¦¶à¦ķ à¦¶
à¦¨à¦Ĩ à¦«
à¦®à¦¬ à¦¦à¦²
à¦ĵ à¦°à¦¨
à¦¥à¦ķ à¦ħà¦Ń
à¦Ĩ à¦«à¦¤
à¦°à¦Ĩ à¦Ł
à¦ķà¦¤ à¦ª
à¦ķ à¦ļà¦Ł
à¦°à¦ħ à¦ªà¦®
à¦®à¦ª à¦ŀ
à¦ķ à§Łà¦²
à¦² à¦ıà¦ª
à¦¨à¦Ĺ à¦°à¦¦à¦ķ
à¦¸à¦ķ à¦²à¦¨
à¦Ĩà¦°à¦ĵ à¦¨
à¦¶ à¦ĵà¦®
à¦ľ à¦Ĩà¦ªà¦¨
à¦²à¦ľ à§Ł
à¦°à¦¹à¦£ à¦¶
à§Łà¦¨ à¦Ľ
à¦§ à¦Ĺà¦²
à¦ıà¦ĸà¦¨ à¦ĵà¦¸
à¦ªà¦¨ à¦¯
à§İ à¦²
à¦¤à¦°à¦£ à¦®
à¦®à¦ķ à¦°à¦Ľ
à§Ł à¦ıà¦ķà¦¬
à¦§ à¦¨à¦¤
à§¨à§© à§®
à¦ħ à¦¬à¦²
à¦¬ à¦ıà¦ķ
à¦ķ à¦ıà¦Ĺ
à§¨à§¦ à§«
à¦°à¦¤ à§İà¦ªà¦°à¦¤
à¦¨à¦¬ à¦ķà¦²
à¦® à¦Ĩà¦Ĺ
à¦¸ à¦¢
à¦°à¦Ĩ à¦¨à¦®
à¦¹ à¦Łà¦¨
à¦²à§Ł à¦ķà¦°
à§§à§¨ à§¯
à¦°à¦ķ à¦¬à¦°
à¦·à¦£ à¦§à¦°
à¦°à¦Ĩ à¦¨à¦¹
à¦® à¦Ĩà¦¹à¦®à¦¦
à¦¶ à¦°à¦¬
à¦¸ à¦ıà¦ª
à¦ıà¦ķà¦ľà¦¨ à¦²
à¦¨ à¦īà§İà¦¸à¦¬
à¦Ĺ à¦§
à¦ı à¦ı
à¦¡ à¦¸à¦¨
à¦ıà¦ĩ à¦ĺ
à¦¤à¦¹à§Ł à¦ķ
à¦¯ à¦°à¦ª
à¦ķ à¦¶à¦°
à¦¦ à¦¬à¦ª
à¦°à¦ª à¦°à¦Ł
à¦¬à¦¸ à¦ħà¦¨
à¦²à¦¸ à¦²
à¦§ à¦®à¦¨
à¦ĩà¦ª à¦¥
à§¨à§® à§¨à§¦à§¨à§¨
à¦¨à¦ĵ à¦ľà¦¨à¦®à¦¤
à¦°à¦¡ à¦¨
à¦¤ à¦²à¦Ń
à¦°à¦« à¦¸
à¦°à¦® à¦¤à¦ķà¦°
à¦°à¦¹ à¦ł
à¦ķà¦® à¦®
à¦® à¦ıà¦°
à¦Ł à¦°à¦ľ
à¦¨ à¦¹à§Łà¦¤
à¦¥ à¦ķà¦¸
à¦² à¦ıà¦¤
à¦¯ à¦īà¦ªà¦ķ
à¦°à¦ı à¦ĩà¦¤
à¦°à¦ĸà¦¬ à¦°à¦®
à¦§ à¦¨à¦Ł
à¦¬ à¦ħà¦¸
à§ľ à¦ªà¦°
à§Ł à¦®à¦¤
à¦ĵ à¦Ĩà¦ĵà§Ł
à§¨à§© à§ª
à¦ķà¦¡ à¦ĩà¦¨
à¦²à¦¨ à¦¹
à¦ĩà¦ī à¦ł
à¦¯ à¦ľà¦°
à¦¬à¦¹ à¦ħà¦Ĺ
à¦« à¦¨à¦¦
à¦®à¦¤à¦²à¦¬ à¦īà¦¤
à¦¹ à¦¨à¦¦
à¦¸à¦¹ à¦¶
à¦ľ à¦ĵà¦¯
à¦ķà¦ª à¦ķ
à¦ıà¦¸à¦® à§Łà¦ª
à¦¯ à¦¶à¦¸
à¦¬ à¦ĩà¦²
à¦¤à¦¨ à§Ł
à¦Ń à¦ľà¦¨à¦ķ
à¦² à¦ĩà¦¯
à¦®à¦ķ à¦ıà¦ķà¦Ł
à§Łà¦® à¦Ĺ
à¦ı à¦ħà¦ŀ
à¦¦ à¦°à¦¶
à¦¨à¦¨ à¦Ĺà¦°
à¦²à¦Ĺ à¦Ł
à¦°à¦ľ à§Łà¦ª
à¦ľ à¦¹à¦¯
à¦ĺ à¦Ń
à§§à§Ń à§®
à¦¹ à¦¬à¦°
à¦ĵà¦® à¦§
à¦°à¦£ à¦¹à¦ļ
à¦ķ à¦Ĩà¦ªà¦¡
à¦ľ à¦¹à¦ļ
à¦· à¦¬à¦¨
à¦Ĩà¦ĩà¦ıà¦® à¦ıà¦«
à¦°à§Ł à¦ª
à¦°à¦« à¦¹
à¦¨ à¦ĩà¦¯
à¦¶ à¦ľà¦¨à¦ª
à¦ıà¦ķ à¦ĸ
à¦² à¦¹à¦ļ
à¦¤ à¦°à¦Ľ
à¦ħà¦ª à¦Ł
à¦°à¦īà¦ª à¦¸à¦°
à¦ĵ à¦¸à¦®à¦¸
à¦¯à¦ķ à¦°à¦¹à¦¬
à¦ľ à§Łà¦®
à¦ķà¦°à¦£ à¦ķ
à¦¨à¦Ĩ à¦°à¦®
à¦¨à¦¸ à¦ł
à¦ķà¦¸ à¦ľ
à¦ļ à¦¤à¦²
à¦¨à¦® à¦ķ
à¦¸ à¦°à¦¨
à¦¤ à¦ħà¦«
à§Ł à¦°à¦²
à¦® à¦ĩà¦ķà¦¬
à¦ĩà¦Ł à¦«
à¦²à¦ķ à¦²à¦ķ
à¦²à¦Ĩ à¦¯à¦¹
à¦°à¦®à¦¤ à¦¤
à¦¬à¦Ń à¦Ł
à¦¨ à¦Ĳà¦¤
à¦ĩ à¦§à¦°à¦¨
à¦ı à¦§à¦°à¦£
à¦¸à¦ķà¦² à¦¦
à§©à§« à§«
à¦¬à¦¸ à¦¸
à¦Ĩà¦ľ à¦ľ
à¦¨à¦ıà¦ķ à¦ª
à¦¯à¦Łà¦¨ à¦¶
à¦ıà¦¸à¦ıà¦® à¦®
à§§à§« à§Ń
à¦ĩ à¦ħà¦¨à¦²
à¦°à¦ī à¦Ń
à¦ľ à¦Ĩà¦Ĺ
à¦¬à¦² à¦²à¦¨
à¦¤ à¦ĺà¦Ł
à¦Łà¦ª à¦Ł
à¦ľà¦¨ à¦¹à§Ł
à¦· à¦Ĩà¦Ł
à§Łà¦ķ à¦°à¦Ľ
à¦Ĺ à¦¹à¦ļ
à¦¬à¦¦ à¦²à¦¨
à¦ıà¦ķà¦ľà¦¨ à¦Ĺ
à¦¤ à¦¦à¦ķ
à¦ĵà¦ĩ à¦«à¦¤
à¦¶ à¦ĵà¦¨
à¦°à¦ĵà¦ª à¦°à¦Ĺ
à¦ĩ à¦¦à¦°
à¦°à¦Ĩ à¦°à¦ª
à¦°à¦¸à¦¹ à¦¦
à¦¨à¦ĵ à¦ħà¦¨
à§§à§ª à§¨
à¦ī à¦¬à¦Ń
à¦¨à§Łà¦¨ à¦¦
à¦¶ à¦īà¦¤
à¦· à¦°à¦¤
à¦¤à¦¬ à¦ķà¦ħà¦°
à¦®à¦¶ à¦²
à¦¸ à¦īà¦¤
à¦¦ à¦īà¦¤
à¦Ĩ à¦°à¦Ĩà¦²
à¦¯à¦¸ à¦ł
à¦· à¦¸à¦°à¦ķ
à¦ĩà¦ª à¦ķà¦°
à¦¯à¦® à¦ķà¦°
à¦¨à¦ĵ à¦¤à¦¥
à¦°à¦¸ à¦¬à¦®
à¦Ł à¦ıà¦Ł
à¦ķà¦¹ à¦ĵà¦¯
à§§à§¯ à§ªà§®
à¦ķ à¦ıà¦ª
à§© à§§à§©
à§§à§® à§¬
à¦¼ à¦¿à¦Ĥ
à¦¤ à¦ľà¦²
à¦²à§Ł à¦¸à¦®
à¦ľ à¦ķà¦¦
à¦ĩà¦¡ à¦ļ
à¦¨à¦¬ à¦°à¦Ĺ
à¦¥ à¦Ĩà¦¤
à¦¹ à¦ķà¦¸
à¦¬ à¦ªà§ľ
à¦² à¦ĺà¦°
à¦²à¦¸ à¦ª
à¦¤ à¦¤à¦°
à¦ķ à¦Ĩà¦¹à¦®à¦¦
à¦¬à¦¤ à¦¶
à¦ıà¦« à¦Ł
à¦ĩà¦¦à¦¹ à¦Ŀ
à¦ļ à¦ķà¦ķ
à¦ħ à¦¬à¦¬
à¦¹à¦¤ à¦¶
à¦°à¦¸ à¦¶à¦¸
à¦¹à¦² à¦Ĩà¦®
à¦°à¦Ĩ à¦¦à¦²
à¦¨ à¦ĸà¦¨
à¦ª à¦ķà¦°à¦¬
à¦¡ à¦¸à¦ķ
à¦¯à¦¦ à¦²
à¦¨à¦Ĺ à§ľ
à§¨à§¦à§¨ à§§à§Ń
à¦¡ à¦ħà¦¬
à¦® à¦ıà¦ĸà¦¨
à¦ķ à¦°à¦ļ
à¦¤ à¦ıà¦Ĺ
à§Ŀ à¦¤
à¦Ĺ à¦Ĩà¦°
à¦²à¦¨ à¦ıà¦¬
à¦²à¦¨ à¦¡
à¦ĵ à¦ľà¦¨à¦ª
à¦¤à¦¬ à¦Ļ
à¦°à¦®à¦£ à¦²
à¦ıà¦°à¦ķ à¦®à¦ķ
à¦ĩ à¦Ĩà¦¸à¦²
à¦§ à¦ĵà¦¦
à¦Ĺ à¦¤à¦ķà¦°
à¦¡ à¦¬à¦¨
à¦Ĩà¦°à¦ĵ à¦¤à¦¥
à¦¶à¦¨ à¦ı
à§ľ à¦«
à§¨à§ª à§«
à¦ľ à¦®à¦¬
à¦Ł à¦ħà¦ª
à¦ĩ à¦ıà¦®à¦¨à¦ķ
à¦¬ à¦ĩà¦¸à¦¨
à§Ł à¦ĩà¦īà¦ª
à¦°à¦®à¦£ à¦ķà¦°à¦¤
à¦¬à¦ķà¦° à¦¸
à§§à§ª à§¬
à¦¹ à¦ķà¦¬
à¦¨ à¦īà¦ĩà¦¨
à¦¬ à¦Ĺà¦²
à¦¨à¦¸ à¦²
à¦®à¦¹ à¦°
à§« à§¦à§¦à§¦
à¦Ń à¦Ń
à¦ļ à¦ķà¦®
à¦°à¦ıà¦ķ à¦Ľ
à§§à§ª à§Ń
à¦īà¦ľ à¦¦
à§Ł à¦ıà¦ĺà¦Łà¦¨
à¦ľà¦¨ à¦Ĺà¦¨
à¦Ĩ à¦Łà¦ķà¦°
à¦°à¦¥à¦® à¦¡
à¦ı à¦®à¦¦
à§Ł à¦Ĳà¦ķ
à¦ľ à¦®à¦ķ
à¦°à¦ª à¦°à¦ªà¦°
à¦°à¦Ĩ à¦¸à¦¬
à¦· à§Łà¦¸
à¦®à¦¨à¦Ĺ à¦°à¦¸
à¦ĩà¦¤ à¦ĸà¦¨
à¦®à¦°à¦£ à¦¸à¦Ń
à¦°à¦¬ à¦ĩà§Ł
à¦Łà¦¨ à¦Ł
à¦¦à¦¶ à¦ĸà¦£
à¦²à¦¤ à¦¶
à¦²à¦ķ à¦Ľ
à§Ń à§¨à§¦à§¨à§¨
à§§à§® à§®
à¦° à¦°à¦ī
à¦ī à¦²à¦¬
à¦¦ à¦ıà¦ķà¦Ł
à¦ĩà¦¨ à¦ĺ
à¦ķ à¦¶à¦ª
à¦¬à¦² à¦Ń
à¦¯ à¦°à¦¸
à¦ĵ à¦ıà¦¤
à¦°à¦ª à§Ł
à§§à§« à§¨
à§§à§¯à§® à§©
à¦¤à¦¬ à§ľ
à§Ł à¦ĩ
à¦Ł à¦¤à¦¥
à§¨à§¦à§¨ à§§à§¬
à¦Łà¦¸ à¦ľ
à¦°à¦ĵà¦¶à¦¨ à¦ıà¦°à¦¶
à¦ħà¦¬ à¦Ĺà¦¤
à¦¤à¦ª à¦²
à¦°à¦® à§Łà¦¦
à§§à§¯à§Ń à§¬
à¦°à¦¨ à¦¡
à¦ĵ à¦¦à¦²
à¦¹à¦ľ à¦°à¦¤
à¦¬ à¦ĩà¦ĸ
à¦¡ à¦ī
à¦ı à¦¡à¦¸
à¦¦ à¦²à¦ª
à§Łà¦® à¦Ļ
à¦¸ à¦°à¦£à¦ķ
à¦ĩà¦¨ à¦ĸ
à¦¥ à¦ķà¦ª
à¦ķ à¦ĩà¦¸
à¦Ĺ à¦¬à¦²
à¦°à¦ıà¦ķ à¦ľà¦¨à¦®
à¦¬à¦¹ à¦¨à¦®
à§§à§¯ à§¬à§®
à¦Ĩà¦°à¦¬ à¦¸
à¦ĵ à¦ıà¦¦
à¦¨ à¦īà¦ľ
à¦¡ à¦ıà¦²
à¦¤ à¦ıà¦ĩà¦¸
à¦īà¦ª à¦ļ
à§§à§¯à§® à§®
à¦¨à¦Ĩ à¦ļ
à¦°à¦¹ à§Łà¦°
à¦¡ à¦Ĩà¦ªà¦¨
à¦ķ à¦ĵà¦¨
à¦²à¦Ń à¦¯
à¦ĩ à¦ĵà¦ª
à¦°à¦ª à¦°à¦ĸ
à¦¯ à¦ľà¦®
à¦¤ à¦Ĩà¦ľ
à¦® à¦ķà¦¦
à¦°à¦īà¦¦ à¦¯
à§Ń à§«à§¦
à¦¤ à¦°à¦ıà¦¬
à¦īà¦ľ à¦ķà¦°
à¦ıà¦ĩ à¦Ĩà§Ł
à¦² à¦ĵà¦¤
à¦ı à¦¡à¦®
à¦ĵ à¦°à¦¹
à¦¬à¦Ľ à¦°à¦ľ
à¦·à¦ķ à¦Ľ
à¦ª à¦Ĩà¦Ľ
à¦¨à¦ıà¦ķ à¦¸
à¦ıà¦ĩ à¦ĸà¦¬à¦°à¦Ł
à¦Ĩ à¦¬à¦²
à¦°à¦ı à¦ĩà¦¶
à¦²à¦¬ à¦¹
à¦ĩ à¦ķà¦Ł
à¦·à¦£ à¦īà¦ªà¦ķ
à¦¬à¦² à¦ıà¦ķà¦Ł
à¦¶à¦¨ à¦ķà¦°à¦²
à¦§à¦¨à¦¸ à¦¨à¦¦
à§Ł à¦¹à¦ļ
à¦ĵ à¦ıà¦ĸ
à¦®à¦¸ à¦¤
à¦£ à¦¬à¦²
à¦®à¦ķ à¦¯
à¦²à§Ł à¦°
à¦¤ à¦ıà¦ķà¦¬
à§Ł à¦ļà¦²à¦ļ
à¦ľ à¦ĺà¦°
à¦¡ à¦Ĩà¦ĵà§Ł
à¦¹ à¦§à¦°
à¦Ĺà¦² à¦¥
à¦°à¦ĩ à¦§
à¦ĩà¦® à¦²
à¦¶ à¦²à¦ķ
à§® à§¨à§¦à§¨à§¨
à¦īà¦¨ à¦¶
à¦®à¦¶ à¦¹
à¦ı à¦īà¦ªà¦²à¦ķ
à¦°à¦ı à¦°à¦ķ
à¦« à¦¥
à¦Ł à¦°à¦¡
à¦¸à¦¦ à¦°à¦¦à¦ª
à¦²à¦¸ à¦ħ
à¦ªà¦¥ à¦¦
à¦ı à¦¸à¦®à¦¸
à¦¨à¦Ĺ à¦°à¦®
à¦ļ à§Łà¦ª
à¦Ńà¦¬ à¦ļ
à¦°à¦¸à¦® à§Łà¦Ĺ
à¦²à¦Ĺ à¦£
à§§à§¯ à§ª
à¦£ à¦īà¦¦
à¦¨à¦Ĺ à¦°à¦īà¦¤
à¦Ŀà§ľ à¦¸
à¦°à¦Ĺ à¦¦
à¦ľ à¦²à¦®
à¦°à¦ıà¦ķ à¦ļ
à¦ĩ à¦ıà¦ķà¦ľà¦¨
à¦°à¦ħ à¦·
à¦¦ à¦®à¦ķ
à¦² à¦°à¦¯
à¦Ł à¦ħà¦¬
à§¨à§« à§©
à§§à§¯à§® à§«
à¦¦ à¦°à¦«
à¦Ĺ à¦¨à¦¶
à¦ĩà¦¨ à¦ħà¦¨
à¦¨à¦Ń à¦¬
à§Ł à¦ıà¦ĩà¦¬
à¦¨ à¦°à¦Ļ
à§§à§¯à§Ń à§¯
à¦°à¦¸ à¦«à¦²
à¦¨ à¦ĩà¦¹
à¦ıà¦ĩ à¦īà¦¦
à§§à§ª à§¦à§¦
à¦¤à¦ĸà¦¨ à¦¥
à¦ĩà¦¡ à¦¦
à§§à§¨ à§©à§¦
à§Łà¦® à¦ħà¦¨
à¦ī à¦ıà¦ĩà¦ļ
à¦°à¦ª à¦Ł
à¦¨à¦ıà¦ĩ à¦Ł
à¦ķ à¦ĩà¦¨à¦¸
à¦¦ à¦°à¦ĸ
à¦¨à¦Ĺ à¦°à¦¶
à¦°à¦¸à¦¹à¦ľ à¦īà¦ª
à¦¬ à¦ľà¦°
à¦¤ à¦ľà¦¬
à¦²à¦¬ à¦¡
à¦¥ à¦¸à¦¹
à¦īà¦ª à¦¤
à§© à§Ńà§¦
à¦®à¦¨ à¦Ĩà¦ªà¦¨
à¦¦à¦®à¦¨ à¦ķà¦®
à¦£ à¦¬à¦¸
à¦°à¦ħ à¦¬à¦¤
à¦ľ à¦ķà¦¥
à¦ħ à§Ł
à¦·à¦£ à¦Ł
à¦°à¦£ à¦ķà¦°à¦²
à¦īà¦¨à¦¸ à¦Ł
à¦ĵ à¦ľà¦°
à¦¨à¦ĵ à¦¡
à¦¦ à¦ħà¦Ń
à¦² à¦¸à¦®à¦¸
à¦Łà¦¨ à¦Ń
à¦ķ à¦ıà¦¤
à¦·à§Ł à¦¹à¦²
à§¨à§¦à§¨ à§§à§®
à§Ł à¦Ĩà¦Łà¦ķ
à¦ıà¦¸ à¦Ń
à¦¶ à¦¸à¦°
à§ľ à¦¹à§Ł
à¦¨à¦¹ à¦°
à¦ķ à¦ĺà¦£
à¦Ĺà¦² à¦ķà¦°
à¦Ł à¦ī
à¦¨à¦ª à¦°à¦¬
à¦°à¦ķ à¦¨à¦¸
à¦¨à¦¬ à§Łà¦¸
à¦¯ à¦¤à¦¨
à§§à§¬ à§¯
à¦ľ à¦ĵà¦°
à¦ĵ à¦ĩà¦ļ
à¦¯ à¦īà¦ªà¦¸
à¦Ĺ à¦²à¦¤
à¦¨ à¦ĩà¦īà¦¸
à§Ł à¦ħà¦ª
à¦® à¦²à¦¤
à¦ĵ à¦ħà¦²
à¦ª à¦¸à¦ķ
à¦ĵ à¦¹à¦¬
à¦¬à¦Ľ à¦°à¦¶
à¦²à¦¨ à¦ķà¦°à¦²
à§§à§¬ à§¬
à¦¸ à§İ
à¦² à¦Ĩà¦¤
à¦¨à¦Ĺ à¦°à¦¨
à§¨à§¬ à§®
à¦°à¦¸à¦¹ à¦¸à¦®
à¦¨à¦¤ à¦ľ
à¦°à¦ı à¦ĩà¦¯
à¦Łà¦¬ à¦¡
à¦°à¦Ŀ à§ľ
à¦°à¦Ĩ à¦²à¦ľ
à¦Ńà¦¬ à¦ĺ
à¦¦à¦ķ à¦Ĩà¦®
à¦ľ à¦ªà¦¡
à¦¤à¦® à¦¬à¦°
à§Ł à¦Ĺà¦ŀ
à§§à§¯ à§¬à§¦
à¦¹ à¦°à¦ľà¦¨
à¦¹à¦ľ à¦¯
à¦Ĺà¦² à¦Ĩà¦®
à¦īà¦ľ à¦¥
à¦¹à§Ł à¦Ĩà¦ªà¦¨
à¦¨à¦¤à¦ĸà¦¨ à¦Ĩà¦ªà¦¨
à¦Ľ à¦Ľ
à¦§ à¦¨à¦Ń
à¦ª à¦¸à¦°
à¦ĩà¦Ł à¦ļ
à¦²à¦ª à¦¶
à¦ĩà¦¨ à¦ªà¦¤
à¦¸à¦¬ à¦¯
à¦ıà¦® à¦Ł
à¦ĩà¦¯ à¦ĸà¦¨
à¦Łà¦¸ à¦¦
à¦°à¦®à¦£ à¦®
à¦¯ à¦ĺà¦Łà¦¨
à¦Ĩ à¦ķà¦¤
à¦§ à¦Ĺà¦®
à¦· à¦°à¦ķ
à¦ł à¦¨à¦ķà¦°
à¦ĩ à¦°à¦®
à¦ľ à¦ķà¦¬
à¦ĩ à¦ĸà¦²
à¦¨à¦ª à¦¡
à¦ľ à¦ıà¦ķà¦Ł
à¦· à§Łà¦ª
à¦¶à¦¹ à¦°à¦¥
à¦ļà¦¨ à¦¹à¦¬
à¦¡ à¦§
à¦ĩ à¦Ĩà¦Łà¦ķ
à¦¨à¦¡ à¦ķ
à¦ķ à¦¦à¦ķ
à¦¬à¦ķ à¦·
à¦¤ à¦¸à¦ķ
à¦¶à¦¹ à¦°à¦Ĺ
à¦¯à¦ĸà¦¨ à¦Ĩà¦®à¦°
à¦ŀ à¦¸
à¦ıà¦®à¦¨ à¦²
à¦¦ à¦ıà¦ķ
à¦¯ à¦ŀ
à¦²à¦¨ à¦Ł
à¦® à¦ħà¦¤
à¦Ł à¦ıà¦°à¦¸
à¦Ŀ à¦°à¦¨
à¦¤à¦°à¦£ à¦ħà¦¨
à§¨à§© à§¬
à¦² à¦ĵà¦¶
à¦Ł à¦ıà¦¸à¦ıà¦¸à¦¸
à¦¬à§ľ à¦¹à§Ł
à¦¬ à¦Ĩà¦¨
à¦ķà¦¦ à¦«
à¦Łà¦¬à¦² à¦ª
à¦°à¦īà¦ª à¦°à¦ıà¦ķà¦Ł
à¦ķà¦ľà¦¨ à¦Ĺ
à¦¦ à¦°à¦ķà¦¥
à¦Ĺ à¦ħà¦Ń
à¦¤ à¦Ĩà¦°à¦ĵà¦ªà§ľ
à¦¬à¦² à¦²à¦¹
à¦ĩà¦¨ à¦Ĩà¦¬
à¦²à¦ķ à¦¯
à§¨à§¬ à§¯
à¦¯à¦® à¦«
à¦¬ à¦ľà¦¨à¦ª
à¦¶ à¦ĵà§Ł
à¦¯à¦Ł à¦¨à¦¸
à¦°à¦¡ à¦¬
à¦ĩ à¦Ĩà¦°à¦¸
à¦ĺ à¦°à¦Ł
à¦°à¦®à¦£ à¦Ń
à¦Ń à¦¹à¦¬
à¦¥ à¦ķà¦¤
à¦ľà¦¨ à¦Ĩà¦Ľ
à¦· à¦¨à¦ķà¦°
à¦ĵ à¦ĩà¦Ń
à¦īà§İà¦¸à¦¬ à¦ª
à§¨à§ª à§¬
à¦°à¦¤ à¦Ĺ
à¦°à¦² à¦¸
à¦ĩà¦ķ à¦ł
à¦¬ à¦ĵà¦®
à¦¤à¦°à¦£ à¦¶
à¦ĩà¦¸ à¦¹à¦ľ
à¦ľà¦¨ à¦ķà¦¨
à¦°à¦¸à¦¹ à¦ķà¦°
à¦¨à¦¤ à¦²
à¦¬à¦¸ à¦¹à¦ķ
à¦Ń à¦ķà¦°à¦²
à§§à§¯ à§¬à§¨
à¦ķ à¦¯à¦¨
à¦§ à¦ļà¦²
à¦ĩà¦īà¦ª à¦ķ
à§§à§¯à§® à§¨
à¦Ĺ à¦ĵà¦ª
à§¨à§¦à§¨à§¨ à§¯
à¦¶à¦¸ à¦«à¦²
à¦ľ à¦¹à¦¤
à¦ľ à¦Ĩà¦¨
à¦¸à¦¨ à¦ľ
à¦ĸà¦¬à¦°à¦ª à¦¡
à¦Ł à¦Ĩà¦¸
à§§à§® à§Ń
à¦¶ à¦ıà¦¶
à¦®à¦°à¦£ à¦ľ
à¦Ĩ à§Łà¦¬
à¦ĵ à¦ķà¦¬
à¦¦ à¦Ĩà¦¸
à¦¬ à¦ĵà¦¸
à¦ĵ à¦ıà¦Ĺ
à¦¦à¦ķ à¦°à¦Ľ
à¦°à¦ĸà¦¬à¦° à¦°
à¦ĵ à¦ªà§ľ
à¦°à¦¦ à¦®
à¦¯ à¦ıà¦ĸà¦¨
à¦ļà¦¨ à¦¸à¦®
à¦®à¦® à¦ľ
à¦¬ à¦°à¦ĵ
à¦°à¦Ĩ à¦¬à¦°
à¦°à¦ī à¦Ńà¦¯
à¦ıà¦« à¦«
à¦¤à¦® à¦£
à¦¯à¦Ł à¦¨à¦ķ
à¦°à¦¨ à¦¥
à¦®à¦¤ à¦¹
à¦¡ à¦¸à¦¬
à¦¨à¦ı à¦°à¦ªà¦°à¦¤
à¦ĵ à¦Ĺà¦²
à¦°à¦£ à¦ĺà¦Ł
à¦°à¦£ à¦ķà¦°à¦Ľ
à§Ł à¦Ĩà§Ł
à¦·à¦£ à¦ķà¦°à¦Ľ
à¦°à¦ĩ à¦ıà¦ķà¦Ł
à¦¬à§ľ à¦¬à§ľ
à§« à§§à§¦
à¦ĺ à¦°à¦¨
à¦ıà¦ķ à¦Ŀ
à¦ĸà¦¬ à¦°à¦ĸà¦¬à¦°
à¦¦ à¦ĩà¦¬
à¦¬ à¦ĵà¦¬
à§İ à¦ĸ
à¦® à§Łà¦¬
à¦°à¦¦ à¦£
à¦ķà¦Ĺ à§ľ
à¦§ à¦ķà¦®
à¦¨à¦ı à¦¸à¦®
à¦ľ à¦Ĩà¦¬
à§§à§® à§¯
à¦°à¦ħ à¦¬à¦°
à¦ľ à¦Ĩà¦Ľ
à¦² à¦¦à¦ķ
à¦¨à¦ľ à¦¹
à¦¨à¦Ĩà¦² à¦¬
à¦°à¦¸à¦® à§Łà¦¶
à¦°à¦¦ à¦²à¦ķ
à¦ľà¦¨ à¦ĸ
à¦¨à¦ı à¦¸à¦®à§Łà¦¤
à¦Ńà¦¬ à¦¹à¦²
à¦ķà¦¦ à¦¶à¦ķ
à¦Łà¦ħ à¦¸à¦¨
à¦¸ à¦ļà¦°
à¦¤ à§İà¦ª
à¦¤à¦¹ à¦ĩà¦¬
à¦ĩà¦² à¦¯
à¦ĸ à¦ľà¦¨à¦ķ
à§§à§¯à§Ń à§®
à¦² à¦ħà¦ķ
à¦¡ à¦ĩà¦¤
à¦¨à¦ıà¦ĩ à¦Ĺ
à¦ĵ à¦Ĩà¦ĸ
à¦°à¦Ĩ à¦¨à¦ĸ
à¦Ĩà¦Łà¦ķ à¦«
à¦ĩà¦ª à¦¸
à¦²à¦¨ à¦²
à¦ħà¦ª à¦Ľà¦¨
à¦ķ à¦ıà¦¶
à¦ī à¦¡à¦¬
à¦Ĺ à¦®à¦Ĺ
à¦¦ à¦ĵà¦®
à¦ľ à§Łà¦¸
à¦ķ à¦Ĺà¦¤
à¦²à¦Ĺ à¦«
à¦· à¦ĸà¦¬à¦°à¦ª
à§Łà¦ª à¦£
à§§à§¬ à§«à§«à§«
à¦· à¦Ĩà¦¬
à¦¨à¦Ĺà¦¦ à¦ħà¦°
à§Ł à¦Ĩà¦°à¦ĵà¦ªà§ľ
à¦¨à¦¤ à¦¸
à¦¯à¦ķ à¦ª
à¦°à¦¨ à§ľ
à¦¯ à¦°à¦¤à¦ļ
à¦ĩà¦ª à¦Ľà¦¨
à¦°à¦īà¦ª à¦°à¦Ĺ
à§¨à§¦à§§à§¯ à§¨à§¦à§¨à§¦à§¨à§¦à§¨à§§
à¦¬à¦¨ à¦ıà¦¬
à¦£ à¦ħà¦¬à¦¸
à¦°à¦Ĩà¦ĩà¦¨ à¦¶
à¦ĩ à¦ıà¦ķà¦¬
à¦ļà¦² à¦°
à§¨ à§¨à§¬
à¦¨ à¦Ī
à¦¨ à¦¬à¦²à¦¤
à¦°à¦¸ à¦¬à¦°
à¦°à¦ĵà¦ª à¦°à¦®
à¦¨ à¦ĩà¦¦
à§Ł à¦°à¦¸à¦¹à¦¸à¦Ń
à¦§ à¦¬à¦²
à¦ĵ à¦°à¦Ļ
à¦·à¦£ à¦ĸà¦¬à¦°à¦ĵà¦¬
à¦ļ à¦ŀ
à¦ľ à¦ĵà¦¬
à¦ĩà¦² à¦ĵà§Ł
à¦ķ à¦¨à¦¬
à¦²à¦¸ à¦¦
à¦ľà¦¨ à¦ĺ
à¦¨à¦ļ à¦¤
à¦ĩà¦« à¦Ł
à¦« à¦¬à¦²
à§§à§¯à§Ń à§Ń
à¦¸ à¦°à¦°
à¦ĩà¦ľ à¦¡
à¦ı à¦°à¦ħà¦Ń
à¦¬à¦° à§Ł
à¦¸à¦¹ à¦ľà¦¸
à¦¤à¦« à¦¸
à¦¨à¦ª à¦°à¦¶
à¦īà¦¬ à¦ĵà§Ł
à¦°à¦¥ à¦®à¦¹
à¦°à¦ĵà¦ªà¦° à¦¤
à¦ıà¦ĸà¦¨ à¦Ń
à¦Łà¦ķ à§Ł
à¦· à¦¨à¦¬
à¦¯ à¦ıà¦¨
à¦¨à¦¨ à¦²
à¦¨à¦ª à¦¦à¦ķ
à¦°à¦ı à¦«
à¦Ł à¦ĩà¦®
à¦¦ à¦ĵà¦¯
à¦ĩ à¦ĵà¦¸
à¦ľà¦¨ à¦¬à¦²à¦¨
à§¨à§® à§®
à§¨à§¦ à§®
à¦°à¦ķ à¦ļà¦ķ
à¦¤ à¦ħà¦ķ
à¦°à¦ĵ à¦®à¦¨
à¦Łà¦¸ à¦²
à¦¨ à¦¹à§Łà¦¨
à¦§ à¦Ĩà¦Ľ
à¦ĸ à¦®à¦¨
à¦Ĺ à¦ıà¦ķ
à¦Ĺà¦² à¦Ł
à¦· à¦¦à¦®
à¦ķà¦¶ à¦¨à¦¸
à¦¤à¦¨ à¦Ĩà¦¨
à¦¨ à¦ľà¦¨à¦Ĺà¦£
à¦¹ à¦ĩà¦¯
à¦¤à¦¨ à¦²
à¦ĩà¦¡ à¦°
à¦¯ à¦ªà§ľ
à¦¡ à¦¢
à¦¬à¦² à¦¡
à¦¶ à¦²à¦¨
à¦Ĩà¦°à¦¬ à¦¬
à¦°à¦£ à§Łà¦¨à¦ķà¦°
à¦ķ à¦īà¦ªà¦ķ
à¦Ń à¦ıà¦¬
à¦°à¦Ĩ à¦°à¦ĵà¦¬
à¦¨à¦Ĩà¦°à¦ĵ à¦¦
à¦ıà¦ĸà¦¨ à¦ĵà¦ª
à¦°à¦Ĩà¦¸ à¦Ľ
à¦īà§İà¦¸ à¦¥
à¦¬ à¦¹à¦¯
à¦Ĩ à¦ĩà¦¤
à¦ĩà¦ľ à¦²
à¦« à¦°à¦ķ
à¦°à¦ķ à¦¡
à¦Łà¦¬à¦² à¦¦à¦²
à¦ıà¦® à¦ıà¦«
à¦¡ à¦ĺ
à§ª à§©à§¦
à¦¤ à¦°à¦ªà¦¤
à¦°à¦ī à¦·
à¦²à¦ķ à¦ıà¦¬
à¦Ĩà¦² à¦®à¦¡
à¦¶ à¦ıà¦Ĺ
à¦°à¦ıà¦ķ à¦ľà¦¨à¦¬
à§§à§¯ à§¬à§¬
à¦²à¦¹à¦ķ à¦¬à¦²
à¦¹à§Ł à¦ıà¦ĩ
à§¨à§© à§¯
à¦¨ à¦Łà¦¨
à§Ł à¦ıà¦ķà¦®
à¦ªà¦¬ à¦¯
à¦ĵ à¦ļà¦Ł
à¦¹à§Ł à¦ıà¦ķ
à¦¨ à¦Ĳà¦ķ
à¦¦ à¦¢
à¦°à¦¨ à¦²
à¦¨à¦ı à¦¸à¦®à¦¯
à§Łà¦¬ à¦Ľ
à¦ł à¦Ł
à¦²à¦¹ à¦ķà¦¦
à¦¬ à¦¤à¦¬
à¦® à¦°à¦®
à¦Ĩà¦¹à¦¤ à¦ķà¦°
à§Ł à¦ıà¦°
à¦¨ à¦ľà¦¨à¦¸
à¦¬ à¦°à¦Ĺà¦ŀ
à¦¤ à¦ĵà¦ķ
à§§à§¯ à§¨
à¦Ĩà¦ķà¦¬ à¦°à¦Ĩà¦²
à¦°à¦ıà¦ķ à¦ľà¦¨à¦ª
à¦Ĩ à¦¨à¦ľ
à¦¨à¦Ĩ à¦°à¦¯
à¦¥ à¦¹à¦¤
à¦ĩ à¦ĵà¦ķ
à¦¤à¦Ń à¦Ł
à¦°à¦« à¦¯
à¦·à¦£ à¦¥
à¦ĩ à¦¹à¦°
à¦ľ à¦°à¦¬
à¦¹à¦¤ à¦«
à¦Ĩà¦ľ à¦Ĺ
à¦¡à¦® à¦ŀ
à¦°à¦ĸà¦¬ à¦°à¦Ĩà¦ľà¦ķ
à¦¬à¦¸ à¦°à¦ķ
à§Ł à¦īà¦²
à§§à§¯ à§¬à§ª
à¦¨à¦Ĩ à¦Łà¦ķ
à¦ıà¦®à¦¨ à¦ıà¦ķ
à¦ķà¦¶à¦¨ à¦¦
à¦¦ à¦īà¦ªà¦¸
à¦ĩà¦Ń à¦¨
à¦¬ à§İà¦¸
à¦Ĩà¦°à¦ı à¦¸
à¦¨ à¦ıà¦¸à¦ıà¦¸à¦¸
à¦¨à¦ı à¦«
à¦²à¦Ĩà¦² à¦®à¦¸
à§Ł à¦Ľà¦¬
à¦°à¦¬ à¦ļ
à¦²à§Ł à¦Ł
à¦ĵ à¦¨à¦¬
à¦²à¦ķ à¦ħà¦¨
à§Ł à¦ľà§Ł
à¦°à¦¡ à¦Ĺ
à¦ľ à¦¸à¦°à¦ķ
à¦¸ à¦īà¦ª
à¦®à¦® à¦§
à§® à§§à§¦
à¦¤ à¦ıà¦¦
à¦ĸ à¦°à¦¬
à¦¨à¦ķ à¦²à¦ķà¦°
à¦£ à¦®à¦¤
à¦°à¦ĵ à¦ıà¦ķà¦Ł
à¦ľà¦¨ à¦Ĩà¦®
à¦ıà¦ĩ à¦Ĩà¦ĩà¦¨
à¦¨à¦ıà¦ĩ à¦¤
à¦°à¦Ĩ à¦¨à¦¥
à¦¶ à¦ĵà¦Ń
à¦Ńà¦¬ à¦¹à¦ļ
à¦Ĩ à¦°à¦ķà¦°
à¦¨à¦Ĩ à¦«à¦Ĺ
à¦ķ à¦°à¦¹
à§§à§Ń à§¬
à¦¶ à¦®à¦¤
à¦¨à¦ı à¦¡
à¦® à§Łà¦¸
à¦ķà¦¸à¦® à¦ķ
à§§à§¨ à§§
à¦¯ à¦ħà¦¬à¦¦
à¦°à¦¹à¦£ à¦ķà¦°à¦Ľ
à¦¨à§Ł à¦Ĩà¦®
à¦¬à¦ķ à¦ł
à¦¹ à¦ķà¦¤
à§§à§¯à§® à§Ń
à§¨à§¦ à§ª
à¦ķà¦® à¦¥
à¦ıà¦ķà¦ľà¦¨ à¦®à¦¹
à¦Ĩà¦¦ à¦°à¦ķà¦°
à¦ıà¦ķ à¦°à¦ľà¦®
à¦ĵ à¦¶à¦ķ
à¦²à¦Ĺ à¦¨
à¦¨à¦ķà¦Ĩà¦īà¦Ł à¦ªà¦°
à¦Ł à¦ĵà¦Ń
à¦¹ à¦¨à¦®
à§¨à§© à§Ń
à¦¨à¦ľ à¦²à¦¬
à¦¸à¦®à¦¤ à¦²à¦ª
à¦¨à¦Ń à§Ł
à¦°à¦ı à¦ĩà¦Ł
à§§à§Ń à§ª
à§¬ à§«à§¦
à¦ªà¦¨ à¦Ĺ
à§Łà¦¶ à¦Ļ
à¦¹à§Ł à¦¸à¦®
à§§à§® à§ª
à¦¸ à¦ĵà¦ľ
à¦¦ à¦°à¦Ł
à¦·à¦¦à¦¸ à¦¦à¦¸
à¦¯ à¦ĩà¦²
à§¨à§¦à§§à§Ńà§¨à§¦à§§à§® à§¨à§¦à§§à§¯à§¨à§¦à§¨à§¦à§¨à§¦à§¨à§§
à¦ıà¦®à¦¨ à¦ķà¦¥
à¦°à¦¸à¦® à§Łà¦¯
à¦¬à§ľ à¦§à¦°à¦¨
à¦·à¦£ à¦¹
à§İ à¦¥
à¦°à¦¹à¦£ à¦¸
à¦¨à¦¯ à¦ĸà¦¨à¦¤
à¦¸à¦¬ à¦Ľ
à¦°à¦ĵ à¦ł
à§¨à§¦à§¨ à§§à§¦
à¦¸ à¦¶à¦¨
à¦ķ à¦ħà¦¶
à¦¸à¦¸ à¦°à¦¬à¦°
à¦£ à¦¤à¦°
à¦®à¦ķ à¦¨
à¦ķ à¦ħà¦Ĺ
à¦¹à§Ł à¦¡
à¦§à¦¨ à¦ļ
à¦£ à¦ļà¦¨
à¦¹à§Ł à¦Ľ
à¦Ł à¦ĵà¦®
à¦ĩà¦¬ à¦Ļ
à¦°à¦ªà¦¥ à¦ª
à¦¸à¦¬ à¦ķà¦¥
à¦® à¦ĵà¦Ĺ
à¦ĩ à¦ķà¦°à¦²
à¦² à¦Ĩà¦¹
à¦ķà¦° à¦ªà¦°
à¦ıà¦¤ à¦Ĺ
à¦¨à¦¨ à§Ł
à¦°à¦īà¦ª à¦²à¦ķ
à§Łà¦ķ à¦¶
à¦¤ à¦ıà¦ĩà¦¬
à¦¶ à¦¨à¦¤à¦¥
à¦§ à¦°à¦ĩà¦²
à¦· à¦ķà¦°à¦¬
à¦¤à¦¸ à¦²
à¦°à¦ķ à¦¶
à¦²à¦¹ à¦°
à¦¤ à¦°à¦¢
à¦°à¦Ĩà¦ĩà¦ķ à¦¨à¦Ł
à¦Ĩà¦ľ à¦Ĩà¦ªà¦¨
à¦ķà¦² à¦ķà¦°à¦¤
à¦¬à¦² à¦Ĩà¦®
à¦ķ à¦ħà¦ķ
à¦°à¦Ĺ à¦£à¦¤
à¦¨à¦ħ à¦¥
à¦¦à¦² à¦¥
à¦ķà¦ĵ à¦Ĺà¦£à¦¶
à¦£ à¦ªà¦¦
à¦¨à¦ķ à¦£
à¦Ĩà¦ĩà¦¡ à¦¬
à¦® à¦ıà¦¨
à¦¬à¦ķ à¦¥
à¦ªà¦ķ à¦ļ
à¦ķ à¦ĩà¦²
à¦°à¦ı à¦ķà¦¥
à¦¨à¦Ĩ à¦ĩà¦ľ
à¦°à¦ľ à¦²à¦¬
à¦¦à¦°à¦¬ à¦¨à¦¸
à¦ıà¦ĸà¦¨ à¦Ĩà¦®à¦°
à¦ħà¦¥ à¦ļà¦¸
à§¨à§¦à§¨à§¨ à§§à§®
à¦°à¦Ĩ à¦®à¦¤à¦²
à¦¯à¦ķà¦° à¦¸
à¦°à¦¸à¦®à§Ł à¦Ł
à¦ĩà¦² à¦ı
à¦ıà¦ķ à¦Ĩà¦²
à¦ķà¦¬ à¦ľ
à¦°à¦¸à¦®à§Ł à¦Ĩà¦®
à¦²à¦Ĩ à¦°à¦ķ
à¦ĩà¦ª à¦¬
à¦¤ à¦¨à¦¬à¦¨
à¦¤à¦¨ à¦ľ
à¦Łà¦¨ à¦¥
à¦¦ à¦°à¦°
à¦£ à¦¶à¦ķ
à¦¤à¦¨ à¦¸à¦®
à¦¨ à¦ĩà¦īà¦Ł
à¦ıà¦ĩ à¦Ĩà¦°
à¦¸à¦® à¦ľ
à¦ıà¦ĩ à¦ĵà¦·
à¦²à¦¹ à¦ķà¦°
à¦«à¦² à¦Ł
à¦¨à¦ıà¦ĩ à¦²
à¦ĩ à¦ıà¦ĩà¦¦
à¦Ĺ à¦°à¦°
à¦¶à¦¨ à¦ĵà¦¸
à§« à§«à§¦
à¦®à¦¨à¦Ĺ à¦°à¦¥
à¦¤ à§ľ
à¦² à¦īà¦¨
à¦ıà¦ĩ à¦Ĺà¦²
à¦¥ à¦¬à¦²
à¦¤à¦°à¦£ à¦¦
à¦¬à¦¹ à¦¨à¦ķ
à¦¨à¦Ĩ à¦ĩà¦¨à¦ľ
à¦¬ à¦ļà¦¨
à¦¦à¦¨ à¦Ĺà¦°
à¦ľà¦¸ à¦ľ
à¦¨à¦¸ à§ľà¦ķ
à¦°à¦®à¦£ à¦¶
à¦¨à¦ıà¦ķ à¦ķ
à§Ł à¦ķà¦°à¦²
à¦ľ à¦°à¦¸
à¦ĸ à¦¢
à¦ľ à¦ľà§Ł
à¦°à¦£ à¦¤à¦ķ
à¦¨ à¦īà¦ªà¦¨
à¦¤à¦¹à§Ł à¦ıà¦¬
à¦® à¦ķà¦°à¦²
à¦¶ à¦ļà¦Ł
à¦ľà¦¨ à¦Ĩà¦¹à¦¤
à¦¬à¦ķ à¦¯
à¦ĸ à¦ķà¦²
à¦ľà¦¨ à¦Ĩà¦¹à¦¤à¦¹à§Ł
à¦Ĺ à¦¸à¦¹à¦ķ
à¦ĩ à¦ĵà¦°
à¦Ĩà¦ĩà¦¸ à¦ķ
à§¨à§« à§¬
à¦°à¦ķ à§ľ
à¦°à¦¦ à¦«à¦¤à¦°
à¦Ł à¦°à¦Ł
à¦· à¦Ĩà§Ł
à¦¨ à¦ĩà¦ī
à¦Ĩà¦ĩ à¦ıà¦«
à¦Ńà¦¬à¦¨ à§Ł
à¦Ĩà¦°à¦¬ à¦²
à¦ĩ à¦ĩà¦ī
à§Ł à¦¶à¦¤
à¦ªà¦¨ à¦ļ
à¦¸ à¦ħà¦¬
à¦°à¦ıà¦ķ à¦ķà¦°
à¦¸à¦¦ à¦¬
à¦¶à¦¹ à¦°à¦¬
à¦°à¦ª à¦¥à¦¬
à¦ľà¦¨ à¦¸à¦ļ
à¦Łà¦® à¦¡
à¦¬à¦ª à¦¡
à¦¤à¦¨ à¦Ľ
à¦°à¦ľ à§Łà¦¨
à¦°à¦ķà¦® à¦Ń
à¦¨à¦¡ à¦®
à¦¸ à¦ķà¦ª
à¦² à¦Ĩà¦¶
à§¨à§« à§¦à§¦
à¦ª à¦¹à¦¬
à¦¯ à¦ĵà¦ľ
à¦§ à¦ĵ
à§¨à§® à§¦
à¦¨à¦ķ à¦¤
à¦ľ à¦°à¦ķ
à¦Ĺà¦¤ à¦Ĺ
à¦Łà¦¬ à¦Ĺ
à¦¬ à¦Ĩà¦¦
à¦ļà¦¤ à¦°à¦Ĺà¦£
à¦£ à¦¤à¦®
à¦·à¦ķ à¦ıà¦¬
à¦® à¦Ĺà¦£
à¦°à¦¬ à¦ĩà¦ª
à¦¨à¦ħ à¦¡
à§§à§« à§§
à¦® à¦ıà¦Ń
à¦¬ à¦ªà¦ķ
à¦ĺ à¦ľ
à¦Ĩà¦Ĺ à¦°à¦¤à¦²
à¦· à¦¸à¦®à§Ł
à¦ķà¦¦ à¦®
à§Ł à¦Ĩà¦¸à¦¤
à¦ħ à¦®à¦¨
à¦ĩà¦² à¦ªà¦°
à§Łà¦Ń à§Ł
à¦¤à¦¨ à¦Ł
à¦² à¦°à¦¹
à¦¥ à¦°à¦¬
à¦² à§Łà¦¦
à¦ĩà¦¸ à¦ł
à§© à§©à§¦
à¦¤ à¦ıà¦ķà¦¸
à¦Ĺà¦ł à¦¨à¦¨
à¦¬ à¦°à¦£à¦ª
à¦ı à¦²à¦¨
à¦ŀ à¦ļ
à¦¬ à¦ļà¦Ł
à¦¯à¦ĸà¦¨ à¦¶
à¦· à¦īà¦ªà¦²à¦ķ
à¦¯à¦Ĩà¦® à¦¦
à¦® à¦Ĩà¦¯
à¦Ł à¦Ĩà§Ł
à¦²à¦¨ à¦Ľ
à¦°à¦ı à¦¯
à¦¦à¦¨ à¦ªà¦°
à¦Ł à¦¸à¦¬à¦ļ
à¦ľà¦¨ à¦¥
à¦¬ à¦ķà¦°à¦¬
à¦² à¦ħà¦ªà¦°
à¦²à¦ķ à¦Ł
à¦ıà¦¸ à¦«
à§¨à§¦à§§à§Ń à§§à§®
à¦°à¦¬ à¦ĩà¦®
à¦ªà¦¦ à¦ļ
à¦® à¦²à¦¸
à¦¤à¦¨ à¦ĺà¦Ł
à§§à§¯ à§¬à§§
à¦ħà¦¬à¦¸ à¦°à¦¨
à¦Īà¦¦ à¦īà¦²à¦«
à§§à§¯ à§«à§ª
à¦¬ à¦°à¦īà¦¦
à¦¬à¦¸ à¦¦
à¦ī à¦Ĩà¦¬
à¦ľ à¦ĵà¦¹
à§¨à§« à§®
à¦¤ à¦Ĩà¦¸à¦²
à¦¯ à¦ĵà¦¦
à¦¨à¦ķ à¦¯
à¦ĸ à¦ķà¦¶
à¦°à¦ĵ à¦Ĩà¦®
à¦¸à¦® à¦¶
à¦¹à§Ł à¦Ł
à¦ĩà¦ľ à¦Ł
à¦¶à¦¨ à¦ķà¦°à¦¬
à¦°à¦Ĺà¦£ à¦¹à¦¤
à¦¶ à¦ķà¦²
à¦¯ à¦Ĩà¦¶
à¦°à¦Ĩ à¦¨à¦¬
à¦¦à¦¶ à¦®à¦¶
à§¨ à§§à§¦
à¦ı à¦°à¦Ł
à§§à§¨à§¦ à§«
à¦¯ à¦ĩà¦īà¦°
à¦¥ à¦ķà¦¬
à¦°à¦¸à¦® à¦ªà¦°
à¦« à¦ľà¦°
à¦ıà¦¸ à¦ĩà¦¤
à¦ļ à¦ķà¦²
à¦« à¦°à¦¸
à¦ħà¦ªà¦¹ à¦°à¦£à¦ķà¦°
à¦¹à§Ł à¦²
à¦°à¦¸à¦¹ à¦ħà¦¨
à¦ķ à¦ĸà¦¬
à¦°à¦ªà¦°à¦ĵ à¦ķ
à¦ĵ à¦Ĩà¦ľ
à¦¦ à¦¤à¦¬
à¦ıà¦ĩ à¦ıà¦²
à¦¬à¦¹ à¦¨à¦¸
à§¨à§® à§¯
à¦°à¦ĵ à¦ķà¦®
à¦¤ à¦Ĺà¦£
à¦ıà¦ĩ à¦ħà¦°
à¦ıà¦°à¦ª à¦°à¦ª
à¦¨ à¦ĩà¦ļ
à¦² à¦ıà¦ĸ
à¦Ĩ à¦°à¦ıà¦¬
à¦· à¦ıà¦ķ
à¦¥ à¦°à¦¦
à¦¬ à¦¨à¦¸à¦Ļ
à¦ľ à¦ķà¦¤à¦¤
à§¨à§¦à§¨à§¨ à§Ń
à¦¬à¦ķ à¦°à¦Ľ
à¦· à¦Ĩà¦ªà¦¨
à¦īà¦² à¦Ļ
à¦ıà¦ķà¦° à¦ķà¦®
à¦² à¦¸à¦®à¦°
à¦¤à¦² à¦ĵà¦ľà¦²
à¦· à¦¦à¦ª
à¦°à¦¹ à¦ĩà¦¤
à¦¸à¦¬ à¦ªà¦°
à¦® à¦°à¦¨
à¦· à¦ħà¦®
à¦®à¦¤ à¦ķà¦°
à¦¬ à¦°à¦ħà¦Ĺ
à¦¨à¦Ń à¦¦
à¦¤à¦¨ à¦®à¦¨
à¦·à¦£ à¦ħà¦¨
à¦¨ à¦ļà¦²à¦Ľ
à¦ķ à¦īà¦ªà¦ľ
à¦¸ à¦ĩ
à¦°à¦¬ à¦ĩà¦¸à¦®
à¦ķà¦°à¦£ à¦ıà¦¬
à¦Ĺà¦² à¦°
à¦¸ à¦°à¦¶à¦Ļ
à¦ľà¦² à¦ĸ
à¦¨à¦¶ à¦¨à¦¸
à¦ľ à¦ħà¦«
à¦ı à¦°à¦¡
à¦¤ à§İà¦ªà¦°à¦¤
à¦Ĩà¦® à¦ľ
à¦ĩà¦¨ à¦ĵà§Ł
à¦¦ à¦¹à¦ļ
à¦ķà¦ľà¦¨ à¦®
à¦ĩà¦ķ à¦ļ
à§Łà¦¸ à§ľà¦ķà¦¦
à¦² à¦ĵà¦¸à¦®
à¦Ĩ à¦°à¦¸à¦®
à¦Ŀ à¦ªà¦¥
à¦¦ à¦¬à¦¨
à§İ à¦Ĩà¦ªà¦¨
à¦ıà¦® à¦ıà¦¬
à¦Ńà¦¬à¦¨ à¦¨
à¦® à¦Ĩà§Ł
à¦¶ à¦Ŀ
à¦ĸ à¦ķà¦¤
à¦¡ à¦ıà¦¨
à¦¹à§Ł à¦ıà¦¦
à§ľ à¦ľ
à¦¢ à¦²
à¦ıà¦ķà¦ľà¦¨ à¦¯
à¦Ł à¦ħà¦ŀ
à§Ł à¦ħà¦«
à¦ĩ à¦ĵà¦¦
à¦°à¦¸à¦¦ à¦°à¦¶
à¦°à¦ĭ à¦£à¦¦
à¦¶ à¦Ĩà¦ĵà¦¯
à¦°à¦Ĩ à¦°à¦¨
à¦¸à¦¦ à¦®
à¦ķ à¦ħà¦¨à¦²
à¦°à¦ĩ à¦¸à¦°
à¦Ł à¦°à¦«
à¦¬ à§Łà¦¸à¦Ń
à¦²à¦¯ à¦ĸà¦¨
à¦²à¦¹ à¦ķà¦¶
à§¬ à§©à§¬
à¦ķ à¦ķà¦ª
à§§à§Ń à§¨
à¦¹à¦¯à¦°à¦¤ à¦¶
à¦¬à¦² à¦¯
à§Ł à¦¬à¦¸à¦¬
à¦£ à¦ĵà¦¸
à¦ıà¦®à¦¨ à¦¯
à§¨à§¦à§§à§« à§¨à§¦à§§à§¬
à¦² à¦ļà¦°
à¦ı à¦§
à§¨à§ª à§¯
à¦¡ à¦Ĩà¦²
à¦°à¦¬ à§ľà¦¬
à§¨à§¦à§¨ à§¬
à¦¯ à¦¤à¦°
à¦¹ à¦ľà¦¨
à¦ªà¦¨ à¦¥
à¦°à¦ĵ à¦Ľ
à¦¹à¦¤ à¦¦à¦°
à¦ªà¦¥ à¦ļà¦²
à¦¸à¦° à§Ł
à¦ª à¦īà¦ªà¦¨
à¦® à¦ĸà¦¨
à¦ıà¦®à¦¨ à¦¸à¦®à§Ł
à¦¯à¦ķ à¦ķ
à¦¡ à¦¹à¦²
à¦¨à¦ª à¦Ľà¦¨
à¦¦à¦ķ à¦ļ
à¦§ à¦ķà¦¬
à¦¤ à¦Ĩà¦¬à¦¦
à§Łà¦¤ à¦¦à¦¨
à§Ł à¦ķà¦°à¦¬
à¦°à¦¬ à¦ĩà¦Ł
à¦Ľ à¦ĸ
à§§à§¯ à§©à§¦
à¦Ĩà¦ľ à¦«
à§§à§ª à§¨à§§
à¦ķà¦ķ à¦¨
à¦¸à¦¨ à¦¥
à¦ªà¦¬ à§Łà¦¸
à¦ĵ à¦¹à¦²
à¦£ à¦ĵà¦¬
à¦¨à¦¸ à¦°à¦¬à¦°
à¦¤ à¦Ĺà¦¬
à§§à§ª à§¨à§¨
à¦ĩà¦Ľ à¦¡
à¦ĩà¦ķ à¦ķà¦°
à¦ĩà¦¨ à¦¸à¦®
à¦Ł à¦¬à¦¸
à¦¹ à¦Ĩ
à¦ªà¦¨ à¦Ń
à§© à§¬à§¦
à¦Ĩà¦Ł à¦ĺà¦°
à¦·à¦ķ à¦Ĩà¦²
à¦°à¦Ŀ à¦¡
à¦¯ à¦Ĩà¦¤
à¦ĸ à¦ľà¦¨
à¦°à¦ķ à¦¸à¦®
à¦ļà¦¨ à¦¶
à¦ıà¦« à¦ķ
à¦¦à¦¨ à¦«à¦°à¦®
à¦ĩà¦¬ à¦¦à¦²
à¦®à¦ľ à¦²
à¦°à¦¶ à¦°à¦£
à¦¸à¦Ń à¦°
à¦ļ à¦¸à¦®
à¦¹à¦¤à¦° à§Ł
à¦² à¦ĸà¦¬à¦°à¦ĵà¦¬
à¦ľ à¦ł
à§Ł à¦®à¦¬
à¦ª à¦¬à¦¸
à¦« à¦°à¦®à¦ª
à¦¦ à¦Ĩà¦¶
à¦ı à¦°à¦ĸ
à§İà¦¸ à¦°à¦¬à¦°
à¦īà¦ª à¦ª
à§¨à§¬ à§«
à¦¯à¦¦ à¦°
à¦¨à¦Ĩ à¦Ĺà¦¸
à¦Ĩ à¦°à¦ħ
à¦¯ à¦ĩà¦ļ
à¦¹ à¦®à¦¹
à¦ħà¦ª à¦ķà¦°
à¦ĩà¦ľ à¦¦
à¦ªà¦¸ à¦ıà¦¨
à§§à§¯ à§¬à§Ń
à¦ĺ à¦°à¦¸
à¦® à¦ħà¦¨à¦²
à¦²à¦ķ à¦¸à¦®
à¦ľ à¦¸à¦¹
à¦ıà¦® à¦ıà¦ķ
à¦°à¦ĵà¦ª à¦°à¦ľ
à¦¯ à¦Ĩà¦ĩà¦¨à¦Ĩà¦¦
à¦¨à¦ħà¦¨ à¦¨
à¦ıà¦ĩ à¦¬à¦Ľà¦°
à¦ıà¦ĸà¦¨ à¦ĵà¦¤
à¦· à¦¤à¦¥
à¦¸ à¦Ľà¦¬
à¦¤ à¦Ĺà¦¦
à¦ĩ à¦ıà¦¸à¦¬
à¦¹ à¦ªà§ľ
à¦ļ à¦ĵà§Ł
à§§à§¯ à§¬à§«
à¦¹à¦² à¦Ĺ
à¦ıà¦°à¦ĩ à¦§
à¦¬à§ľ à¦ªà¦°
à¦®à¦² à¦Ĺà¦ŀ
à¦Ĺà¦£ à¦ľ
à¦īà¦² à¦Ł
à§©à§ª à§®
à¦®à¦ĺ à¦Łà¦ª
à¦¤ à¦Ĩà¦ĵà§Ł
à¦¨ à¦ĸà¦¬à¦°à¦ª
à¦ªà¦¸ à¦Ĺ
à¦¯à¦ĸà¦¨ à¦ıà¦ķà¦Ł
à¦ĵ à¦ĩà¦Ł
à¦ĸà¦¬ à¦°à¦Ĺ
à¦ıà¦ķà¦ľà¦¨ à¦¦
à§§à§¯ à§«à§¬
à§¨à§« à§Ń
à¦ķà¦ĸ à¦¨à¦ķ
à¦ľ à¦ĸà¦®
à§Łà¦¦ à¦¶
à§¨à§« à§¯
à¦¯ à¦Ĺà¦¬
à¦¯à¦¬ à¦ľ
à¦¯ à¦ıà¦ĩà¦ª
à¦¨à¦ħ à¦ļ
à¦īà¦¡ à¦¬à¦²
à¦Łà¦ªà¦¤ à¦Ļ
à¦ıà¦¸à¦ıà¦® à¦ľ
à¦Ĺà¦² à¦ħ
à¦ĵ à¦«à¦²
à¦® à¦ķà¦°à¦¬
à¦¹ à¦ĩà¦ļ
à¦°à¦¤ à¦¹à¦¬
à¦ħà¦¬ à¦¨à¦¤
à¦ļ à¦ķà¦°à¦¤
à¦ļà¦² à¦¶
à¦¥ à¦®à¦ķ
à¦ĩ à¦ľà¦¨à¦ª
à¦ıà¦°à¦ª à¦°à¦ķ
à¦ıà¦®à¦¨ à¦ľ
à¦ļà¦¨ à¦ķà¦°à¦¬
à¦ĩà¦Ń à¦¦
à¦ªà¦¨ à¦ħà¦¨
à§§à§Ń à§§à§®
à¦¤ à§Ł
à¦¨à¦ĵ à¦°à¦«
à§ªà§ª à§¬
à¦°à¦īà¦ª à¦°à¦¶
à¦ªà¦¦ à¦Ń
à¦¯ à¦ĵà¦¤
à¦¥ à¦ĺ
à¦°à¦ķ à¦«
à¦¤à¦® à¦¯
à¦ª à¦Ńà¦Ł
à¦¶ à¦°à¦¦
à¦¨ à¦īà¦°
à¦ķ à¦¨à¦®
à¦¤ à¦°à¦ļà¦¨
à¦ļà¦¨ à¦°
à¦¡ à¦²à¦¬
à¦¸à¦¦ à¦Ńà¦¬à¦¨
à¦¦ à¦°à¦¯
à¦¨à¦Ĩ à¦°à¦ª
à¦°à¦¨ à¦Ĺà¦¦
à¦Ĩà¦ľ à¦¯
à¦Ĩ à¦ªà¦¸
à¦°à¦® à¦¨à¦®
à¦¨à¦ıà¦ĩ à¦°
à¦ı à¦°à¦īà¦¤
à¦ĵ à¦īà¦ļ
à¦ī à¦Łà¦¬
à¦ķ à¦ĺà¦¨
à¦®à¦ĸ à¦£
à¦°à¦ª à¦Łà¦Ń
à¦¤à¦¨ à¦ªà¦°
à¦¨ à¦²à¦¨
à¦ĩà¦Ł à¦ľ
à¦¹à¦¤ à¦Ń
à¦ıà¦ķà¦ľà¦¨ à¦ķà¦°
à¦¤ à¦ĵà¦¦
à¦ıà¦ĩà¦ļ à¦¸
à§¨à§Ń à§¯
à¦ıà¦¸ à¦Ĩà¦°à¦ı
à¦¦ à¦°à¦ļ
à¦¨à¦ı à¦®à¦ıà¦ķ
à¦¨à¦Ĺ à¦¡
à¦Ĩà¦® à¦¬
à¦²à¦ª à¦²
à§¨à§® à§©
à¦¨ à¦īà¦ªà¦ķ
à¦Ł à¦Ĩà¦Ĺà¦¸
à§Ł à¦Ĺà¦£à¦¸à¦®
à¦¤à¦¨ à¦¹à¦¬
à¦¨à¦Ĺ à¦°à¦Ľ
à¦¸à¦ª à¦¡
à§©à§¬ à§«
à§¨à§¦à§¨à§¨à§¦ à§¯
à¦ī à¦«à¦«
à¦¨à¦ķ à¦ł
à¦¦ à¦²à¦¸
à¦²à§Ł à¦¹
à¦°à¦ľ à¦¸
à¦¨à¦¬ à¦ªà¦¦
à¦§ à¦¨à¦¹
à¦¬à¦Ľ à¦°à¦¨
à¦² à¦®à¦¸à¦ľ
à¦¡ à¦¸à¦¹
à¦« à§Łà¦ľ
à¦¤à¦ķ à¦¶
à¦¯ à¦¶à¦°
à¦ĭ à¦£à¦Ĺ
à¦°à¦¸ à¦¬à¦¦
à¦ıà¦¸ à¦ı
à¦¯ à¦ĵà¦¶
à¦· à¦Ĩà¦¹à¦¤
à¦¦à¦¨à¦¦ à¦¤
à§§à§¯ à§§à§¨
à¦ķ à¦¹à¦°
à¦°à¦®à¦£ à¦¥
à¦¥ à¦ĸ
à¦ıà¦ĸà¦¨ à¦°
à¦¬ à¦ĵà¦¯
à¦ľ à¦Ĩà¦°
à¦¦à¦ķà¦¸à¦¹ à¦Ĩà¦Łà¦ķ
à¦¤à¦® à¦Ĺ
à¦¬ à¦ĵà¦¤
à§ªà§¦ à§ª
à¦ķ à¦Ĩà¦ľà¦ķ
à¦Ł à¦ĵà¦°
à¦· à¦Ĩà¦¦
à¦°à¦« à¦ľà¦²
à¦ĸ à¦²à¦¦
à¦Ĩ à¦ĩà¦ļ
à¦¯ à¦¹à¦ĵà§Ł
à§§à§¦ à§¦à§¦à§¦
à¦Ńà¦¬ à¦¤à¦¬
à¦ı à¦°à¦ħ
à¦°à¦£ à¦¤à¦ª
à§§à§¨ à§§à§©
à¦ķà¦Ŀ à¦ķ
à¦ķ à¦ĩà¦īà¦ª
à¦¸à§ľà¦ķ à¦ħà¦¬à¦°
à¦¯à¦īà¦¦ à¦ĺ
à¦¯à¦¤ à¦ª
à¦ıà¦ķ à¦§à¦°à¦£
à¦² à¦ıà¦Ľ
à¦¹ à¦¨à¦Ń
à¦¦à¦ķ à¦ĵà¦¸
à¦² à¦ĵà¦ªà¦°
à¦¨à¦Ĩ à¦°à¦Ĩà¦®
à¦® à¦Ĩà¦¸à¦²
à¦« à¦Ĩà¦¹à¦®
à¦¨à¦Ĩà¦² à¦®
à¦¸ à¦ħà¦Ń
à¦¸ à¦ħà¦§
à¦«à¦² à¦°
à§ªà§Ń à§§à§¬
à¦¯à¦ĸà¦¨ à¦ľ
à¦Ĩà¦°à¦ĵ à¦ĸ
à¦¶ à¦Ĩà¦ªà¦¨
à¦¬à¦¨ à¦ļ
à¦§à¦¨ à¦¹à¦¬
à§ľ à¦ĸ
à¦® à¦¶à¦ķ
à¦ĩà¦® à¦ľ
à¦·à¦£ à¦ļà¦¨
à¦ķà¦¸ à¦¹à¦ľ
à¦Ĩà¦² à¦Ĺ
à¦Ĺà¦¤ à¦ħà¦°
à¦Ĺà¦® à¦Ĺà¦ŀ
à¦°à¦² à¦°
à¦²à¦¸à¦® à¦Ĺ
à¦ļ à¦ĩà§Ł
à¦ħ à¦§à¦°
à¦¤à¦® à¦ħà¦§
à¦¶ à¦°à¦¤
à¦ī à§ľà¦¤
à¦ĵà¦ļ à¦²à¦¬
à¦°à¦¸à¦¬ à¦Ł
à¦¯ à¦ıà¦¶
à¦¥ à¦ķà¦Ń
à¦°à¦ľ à¦ĵà§Ł
à¦¨à¦¸ à¦¬à¦ľ
à¦² à¦ħà¦§
à¦ĸ à¦Ĩà¦¬à¦¦
à¦ľ à¦¸à¦®à¦¨
à¦¨à¦« à¦Ł
à¦ľ à¦ĵà¦®
à¦ķ à¦«à¦²
à¦ĩà¦Ń à¦Ĩà¦ªà¦¡
à¦¤ à¦¤à¦¸
à¦¤à¦ķ à¦Ĩà¦¸
à¦² à¦īà¦ļ
à¦°à¦¤ à¦ħà¦¬à¦¸
à¦¤à¦°à¦£ à¦¨
à¦ĩà¦« à¦ĩà¦¨
à¦Ĩà¦°à¦ĵ à¦ļ
à¦· à¦ĵà¦¬
à¦ĩ à¦ĵà¦¨
à¦ĩ à¦ıà¦°à¦¸
à§§à§Ń à§©
à¦īà¦¡ à¦«
à¦¤à¦® à¦¸à¦®
à¦² à¦ħà¦²
à¦¨à¦ľ à¦°à¦ķ
à§İ à¦ļà¦¨
à¦Ł à¦ıà¦ĩ
à¦¤à¦ª à¦¥
à¦® à§Łà¦®
à¦Ł à§Łà¦²
à¦Ĺ à¦ıà¦²
à¦§ à¦ªà¦ķ
à¦® à¦Ĩà¦ªà¦¡
à¦Ł à¦¨à¦¨
à¦ĩ à¦Ĩà¦ª
à¦² à¦Ĩà¦ĩà¦¨
à¦¤à¦ĸà¦¨ à¦Ĩà¦ªà¦¨
à¦¨à¦Ĺ à¦°à¦¥
à¦ħà¦¸ à¦¤
à¦°à¦Ĺà¦ł à¦¨à¦ķà¦°
à¦¸ à¦ľà¦®
à¦ª à¦Ĩà§Ł
à§Ł à¦¸à¦®à¦¸
à¦°à¦ĺ à¦°à¦¬
à¦¹ à¦°à¦Ĺ
à§Ł à¦Ļ
à¦ĩ à¦ıà¦ĩà¦ķ
à¦·à¦£ à¦ľ
à¦¨à¦Ĩ à¦ķà¦°
à¦°à¦ª à¦°à¦¹à¦¤
à¦¡ à¦¸à¦Ń
à§¨à§¦à§¨ à§§à§§
à§©à§« à§®
à¦ıà¦¸ à¦¨
à¦¤ à¦Ļ
à¦ĵ à¦ĩà¦²
à§§à§¯ à§ªà§¬
à¦ıà¦ĩà¦¬ à¦ĩà¦Ł
à¦ĸ à¦°à¦ªà¦°
à¦¨à¦ı à¦®à¦¬
à¦°à¦® à¦ħà¦¨
à¦°à¦¤ à¦¹
à¦°à¦¥ à¦®à¦ķà¦°
à¦°à¦īà¦ª à¦ª
à¦¨à¦ıà¦ĩà¦ļ à¦ıà¦¸à¦¸
à¦¦ à¦ĩà¦īà¦¨
à¦¡ à¦¸à¦ª
à¦ľà¦ľ à¦Ĩà¦¦
à¦ª à¦²à¦¬
à¦¸à¦¨ à¦ıà¦¬
à§¨à§¯ à§«
à¦¹ à¦ķà¦®
à¦¤à¦¹à§Ł à¦®
à¦£ à¦Ĩà¦ªà¦¨
à¦¤à¦¹ à¦ĩà¦¤
à¦°à¦ĵ à¦¤à¦¥
à¦¸à¦² à¦ķà¦°à¦¤
à¦Ľ à¦ķà¦°
à¦°à¦ľ à¦¨à¦¤
à¦°à¦ıà¦ķ à¦ľà¦¨à¦ķ
à¦¸à¦« à¦°à¦®
à¦¸à¦ı à¦¨à¦ıà¦®à¦ıà¦ķ
à¦ĵ à¦°à¦ļ
à¦®à¦¸ à¦¦
à¦ķ à¦°à¦ĸ
à¦·à¦¦ à¦¤
à¦¨à¦ıà¦ĩ à¦ħà¦Ń
à§¨à§¦à§¨à§¨à§¦ à§®
à¦¬à¦ĩà¦ª à¦¡
à¦°à¦ķ à¦Ĺ
à¦¤à¦® à¦ĵà¦Ń
à¦¡ à¦²à¦ķ
à¦ķ à¦Ĩà¦§
à¦¤à¦ª à¦¦à¦ķ
à¦ľ à¦Ŀ
à¦ĵà¦ª à¦°à¦¬à¦°
à¦« à¦°à¦¶
à¦ļ à¦ħà¦Ĺ
à¦¨à¦¬ à¦®à¦¦à¦¶à¦®à¦¶
à¦¤ à¦£
à¦° à¦°à¦¨
à§§à§Ń à§¯
à¦¹à§Ł à¦ıà¦¸à¦®à§Ł
à§İ à¦¸à¦°à¦ķ
à¦« à¦Ľ
à¦ł à¦¯
à¦² à¦«à¦°
à¦® à¦īà¦ª
à¦°à¦¤ à¦®à¦¹
à¦°à¦ħ à¦ªà¦¸
à¦°à¦¹ à¦¥
à¦īà¦¨ à¦Ł
à¦°à¦Ķ à¦·à¦§
à¦² à¦Ĩà¦°à¦¬
à§§à§« à§¨à§¦
à¦ķà§Ł à¦Ł
à¦Ĩ à¦°à¦Ĩà¦®à¦°
à¦ıà¦¸ à¦ķà¦²
à§¨à§¦à§¨à§¨ à§¨
à¦¨à¦Ń à¦ķ
à¦¹ à¦¨à¦ķà¦°
à¦ªà¦¦ à¦ıà¦¬
à¦¨à¦¸ à¦¹à¦¯
à¦ĵ à¦ªà¦¦
à¦¬à¦ķà¦° à¦°
à¦¯à¦ĸà¦¨ à¦°
à¦Ńà¦¬à¦ķ à¦°à¦Ľ
à¦¬ à¦¶à¦¤à¦¬à¦°
à§Łà¦¬ à¦Ľà¦°
à¦ıà¦ķà¦¦ à¦¶à¦ķ
à¦¤ à¦®à¦¸à¦ľ
à¦¸à¦¦ à¦°à¦¶
à¦ªà¦¸ à¦«
à¦¯ à¦¸à¦®à§Ł
à¦¯ à¦ĵà¦°
à¦¦à¦ķ à¦¡
à¦²à¦Ń à¦ķ
à¦¬à¦² à¦²à¦¬
à¦² à¦ĵà¦¹
à¦¬à¦² à¦ĸ
à¦Ĺ à¦¬à¦¸
à¦¤ à¦«à¦°
à§Ł à¦ķà¦¦
à¦¯à¦® à¦¦
à¦¨à¦ıà¦ĩ à¦ł
à¦¯ à¦Ĺà¦°
à§§à§¯ à§§à§§
à¦® à¦ıà¦ĩ
à¦¨à¦¸à¦¹ à¦ħà¦¨
à¦¤ à¦ıà¦ĩà¦ª
à¦¯à¦ķ à¦¯
à¦¨à¦Ĩ à¦Ļ
à§Ł à¦°à¦¸à¦ļ
à¦°à¦ĸ à¦£
à¦°à¦¸ à¦¨à¦ĸ
à¦® à¦ıà¦°à¦¸
à¦²à¦Ĩ à¦īà§Ł
à¦¡ à¦ıà¦ķà¦Ł
à¦¤ à¦ĩà¦¬
à¦¬à¦¨ à¦Ńà¦°
à¦¤à¦¹ à¦¨à¦¨
à¦ĩà¦ļ à¦²à¦¬
à¦° à¦°à¦ľ
à¦ķ à¦ħà¦¥à¦¬
à§Ł à¦¶à¦ķ
à¦ĩà¦¦ à¦¹à¦¸
à¦· à§Łà¦¤
à¦¸à¦¬ à¦¡
à¦ķ à¦ĵà¦Ń
à¦¸ à¦°à¦ª
à¦¹à¦² à¦¶
à¦¯à¦¤à¦® à¦ıà¦ķà¦Ł
à¦² à¦¬à¦²à¦²
à¦®à¦¨ à¦§à¦°
à¦²à¦¦ à¦¤
à¦² à¦ħà¦¬à¦¶
à¦¨à¦Ĩ à¦ĩà¦¸
à§Ł à¦¬à¦²à¦²
à§Ł à¦ħà¦¥à¦¬
à¦ħ à¦ĸ
à¦ķ à¦ĵà¦Ł
à¦ĩà¦ª à¦¶
à¦°à¦¸à¦® à¦¬
à¦°à¦ı à¦°à¦ªà¦°
à¦¨ à¦ĩà¦¶
à¦°à¦ª à¦°à¦¡
à¦ĸ à¦°à¦¬à¦¸
à¦°à¦ĸà¦¬ à¦°à¦Ł
à§¨à§© à§©
à¦¤à¦¸à¦® à§Łà¦ª
à¦ľà¦¨ à¦¸à¦¦à¦¸
à¦Ń à¦¨à¦¦
à¦¥ à¦Ĩà¦®
à¦ĵ à¦Ĩà¦ĩà¦¸
à§¨à§¦à§¨ à§§à§¦à§«
à¦¨à¦ĸ à¦¬à¦°
à¦°à¦¬à¦Ľ à¦°à¦Ĩà¦Ĺ
à¦¬à¦¦ à¦®
à¦ĩ à¦ĺà¦£
à¦ĵ à¦ķà¦¨
à¦Ń à¦¬à¦Ľ
à¦ľ à¦¬à¦Ľ
à¦Ĩà¦¯ à¦¹
à¦¯à¦ĸà¦¨ à¦¬à¦²
à§Ł à¦ĵà¦ª
à¦ľ à¦°à§Ł
à¦Ĺ à¦¸à¦°
à¦¥ à¦Ĩà¦Ľ
à¦¤ à¦ĵà¦Ĺ
à¦°à¦Ĺ à¦¹
à¦ª à¦Łà¦¨
à¦ĵ à¦ĩà¦¹
à§Ł à¦¦à¦¸
à¦Łà¦¬ à§ľ
à¦ıà¦ĸà¦¨ à¦ļ
à¦¬à§ľ à¦ħ
à¦ľ à¦īà¦¨
à¦ħ à¦®à¦¸
à¦ķà¦° à¦¬à¦²
à¦ĩà¦² à¦Ĩà¦ªà¦¨
à¦īà¦²à¦Ĩà¦ī à§Ł
à¦¦à¦ķ à¦¹à¦²
à¦Ĩà¦ľ à¦Ń
à¦°à¦£ à¦¹à¦¯
à¦¨à¦® à¦¯
à¦² à¦ıà¦ĩà¦¬
à¦°à¦¨ à¦²à¦ķ
à¦£ à¦ıà¦²
à¦¨ à§Łà¦¦
à¦īà¦¨ à¦®
à¦Łà¦¬à¦² à¦ħà¦¨
à¦® à¦ĵà¦¶
à¦ĵ à¦īà¦ªà¦¸
à¦°à¦¸à¦® à§Łà¦¹
à§Łà¦ĸ à¦£
à¦¶à¦¤ à¦¶à¦¤
à¦ķ à¦°à¦«
à¦® à¦Ĺà¦²
à¦¥ à¦¨à¦ľ
à¦ıà¦®à¦¨ à¦ħà¦¬à¦¸
à¦Ĩà¦°à¦ĵ à¦ķà§Ł
à§İ à¦ĺ
à¦®à¦² à¦ª
à¦¨à¦ª à¦°à¦®
à¦¯à¦ľà¦¨ à¦ķà¦Ń
à¦¯ à¦ĵà¦®
à¦²à¦¤ à¦ľ
à¦Ĩà¦°à¦ĵ à¦¶
à¦§ à¦ħà¦Ń
à¦¯à¦¬ à¦¦à¦²
à§Ł à¦²à¦ķà¦¡
à¦¹à§Ł à¦Ĺà¦¤
à¦°à¦¸à¦ķà¦² à¦®
à¦¯ à¦ĩà¦¯
à§§à§¯ à§«à§®
à¦® à¦ľà¦®
à¦Ĺ à¦ħà¦¸
à¦¬ à¦Ĩ
à¦ķ à¦Ĳà¦¤
à¦¹à§Ł à¦¯à¦¦
à¦¨à¦Ĩ à¦ľà¦¬
à§Ł à¦Ĩà§ľ
à¦¶ à¦Ĩà¦¸
à¦ıà¦ķ à¦ıà¦ķà¦Ł
à¦Ĺà¦¤ à¦¥
à¦ıà¦ĩ à¦¨à¦¤
à¦ķ à¦¨à¦ľ
à§© à§¦à§¦à§¦
à¦°à¦®à¦£ à¦ļ
à§©à§© à§®
à§¨à§© à§¨à§¦à§¨à§¨
à¦¦ à¦°à¦ıà¦¬
à¦¥ à¦¹à¦ĵà§Ł
à§¨à§¦à§§à§® à§§à§¯
à¦« à¦Ń
à¦ľ à¦«à¦«
à¦Ńà¦¬ à¦¯
à¦¨à¦ıà¦ĩ à¦¯
à¦¸à¦¹à¦ľ à¦ıà¦¬
à§©à§© à§¬
à¦¥ à¦¸à¦°à¦ķ
à§§à§¨à§¦ à§®
à§Ł à¦Ĩà¦¸à¦²
à¦¤à¦ķ à¦ł
à¦Ĺà¦² à¦¶
à¦¬ à¦¤à¦¤
à¦¬ à¦£à¦Ń
à¦°à¦Ĩ à¦īà¦Ł
à¦°à¦Ľ à¦¡
à§§à§¯ à§§à§¦
à¦¶à¦¸ à¦«à¦°
à¦·à§Ł à¦¯
à¦¬à¦² à¦«
à¦ĩà¦Ń à¦®
à¦Ĳ à¦ĸ
à¦°à¦¸à¦¦ à¦°à¦¹
à¦¤ à¦ħà¦Ł
à¦°à¦¸à¦¬ à¦§à¦°à¦¨
à¦¶ à¦²à¦ª
à¦¹à¦¬ à¦¹
à¦ıà¦¸ à¦ıà¦®à¦¸
à¦ľà¦¸à¦¦ à¦°à¦īà¦ªà¦ľ
à¦ĵ à¦ħà¦Ĺ
à¦ľà¦¨ à¦Ĺà¦°
à¦¹à¦¨ à¦ļà¦²
à¦¸ à¦ĩà¦¨à¦¸
à¦ĩ à¦Ĩà¦¨à¦¨
à§¬ à§©à§¦
à¦ķ à¦¨à¦Ĺ
à¦Ĩà¦Ł à¦ķà¦¦
à¦¨à¦ıà¦ķ à¦¥
à¦°à¦īà¦ª à¦²à¦¬
à§¨à§© à§«
à¦¹à§Ł à¦ıà¦ķà¦Ł
à¦°à¦®à¦¹ à§ľ
à¦¥ à¦§
à¦ĸ à¦ķà¦Ń
à¦¯ à¦Ĩà¦§
à¦°à¦£ à¦¹à¦¬
à¦¹à¦¤ à¦ķà¦°à¦¤
à¦ª à¦¸à¦ª
à¦ħ à¦®à¦°
à¦ľà¦¨ à¦ıà¦°à¦®à¦§
à§ª à§¬à§¦
à¦¹ à¦°à¦Ĺà¦ŀ
à¦ĸ à¦ķà¦¸à¦®
à¦ıà¦ĩ à¦¶à¦°
à¦® à¦ĸà¦²
à¦°à¦® à¦¥
à¦°à¦ª à¦°à¦Ĩà¦®à¦°
à¦«à¦² à¦«à¦²
à§§à§¯ à§¨à§¯
à¦ľ à¦²à¦¨
à¦ľ à¦²à¦°
à¦¯à¦ķ à¦¤
à¦°à¦ĸà¦¬ à¦°à¦ĸ
à¦ĸ à¦²à¦®
à¦ĩà¦¬ à§ľ
à¦°à¦¬ à¦ī
à¦ĸà¦¬ à¦°à¦ĸ
à¦ľà¦¨ à¦¬à¦¨
à¦² à¦ĵà¦Ń
à¦¦à¦ķ à¦Ľ
à¦ıà¦ĸà¦¨ à¦¹
à¦¹à¦¯à¦°à¦¤ à¦¸
à¦¥ à¦¬à¦¨
à¦Ĩà¦°à¦ĵ à¦ıà¦ķà¦¬
à¦ĸà¦¬ à¦°à¦¡
à¦² à¦ľà¦¨à¦ª
à¦Ĩà¦ĩà¦¨ à¦ĵà¦¬
à¦ĩà¦Ł à¦¸à¦®
à¦ĩà¦¡ à¦¹
à¦ª à¦ķà¦°à¦²
à¦ľ à¦ĵà¦ª
à¦¹ à¦¸à¦°
à¦ķà¦ª à§ľ
à¦· à¦ħà¦¸
à¦·à¦ķ à¦Ĩà¦¨
à¦² à¦°à¦¦
à¦¤à¦ª à¦Ł
à¦¯à¦ĩ à¦ıà¦ķà¦Ł
à¦ªà¦¦ à¦²
à¦¤ à¦ļà¦²à¦ļ
à§Ł à¦Ĺà¦°
à¦¶ à¦ľà¦®
à¦¸à¦ļà¦² à¦°
à¦Ł à¦°à§Ł
à¦¬à¦¬ à¦Ļ
à¦Łà¦¨ à¦ļ
à¦· à¦ªà¦¥
à¦¬à§ľ à¦ķà¦°
à¦Ĺ à¦¨à¦ķ
à§¬ à§¨à§®
à¦ł à¦¡
à¦°à¦ķ à¦®à¦¤
à¦ªà¦¨ à¦ıà¦¬
à¦ĩ à¦¬à¦²à¦¬
à¦²à¦¬ à¦¶
à¦¸à¦¹ à¦ıà¦ķà¦Ł
à¦ıà¦°à¦ª à¦°à¦®
à¦¸ à¦¸à¦¹à¦ķ
à¦° à¦°à¦¥
à¦¸à¦¨ à¦¶
à¦§ à¦ķà¦²
à¦ĩà¦² à¦ħà¦¨
à¦¬à¦ķ à¦¹
à¦ª à¦Ĩà¦°
à¦ķà¦°à¦£ à¦Ł
à¦· à¦¹à§Łà¦¨
à§Ł à¦ĵà¦¦
à¦¨ à¦²à¦ķà¦¡
à¦®à¦² à¦Ĺ
à¦¦ à¦ªà¦¡
à¦¸à¦¹ à¦ľà¦¬
à§Ł à¦ľà¦¨à¦ª
à¦¶à¦ķ à¦¹
à¦·à¦£ à¦ķà¦°à¦¬
à¦ªà¦¦ à¦¯
à¦°à¦¤ à¦Ľ
à¦Ĩà¦ĩ à¦ĵà¦ıà¦¸
à¦¤ à¦ıà¦ª
à¦¨à¦¬ à¦¸à¦Ń
à¦¯ à¦¸à¦®à¦¯
à¦°à¦ıà¦ķ à¦ĩà¦¸à¦®à§Ł
à¦¤ à¦¶à¦¤
à¦ĵ à¦¤à¦¥
à¦¹ à¦ħà¦°
à¦¶ à¦®à¦°
à¦Ĺ à¦ħà¦°
à¦ıà¦ķ à¦ĺ
à¦¬à¦² à¦²à¦¸
à¦ł à¦¸à¦®
à¦² à¦ĩà¦¨à¦¸
à¦¨à§Łà¦¨ à¦ªà¦°
à¦Łà¦¨ à¦°
à¦²à§Ł à¦ªà¦°
à§§à§ª à§§
à¦¯ à¦īà¦ªà¦²à¦¬
à¦Ĺà¦¤ à¦¶à¦¨
à§¨à§¦ à§Ń
à¦°à¦¥à¦® à¦«
à¦¬à¦° à¦ķà¦°
à¦²à§Ł à¦ıà¦¬
à¦Ł à¦ķà¦¦
à¦ĩ à¦ľà¦¨à¦ķ
à§ªà§© à§¬
à¦Ĩà¦² à¦¸
à¦ķ à¦Ĩà¦°à¦¬
à¦°à¦ĺ à¦°à¦¥
à¦ĩà¦ķ à¦ķ
à¦Ĺ à¦Ĩà§Ł
à§§à§¯ à§ªà§¦
à¦¤ à¦ħà¦ªà¦¸
à¦¤ à¦ļà¦¨
à¦ĩà¦² à¦ªà¦Ł
à¦¯ à¦Ī
à¦ı à¦Ĩà¦ªà¦¨
à¦§à¦¨ à¦¹à§Ł
à¦¨à¦Ĺ à¦¦à¦Ł
à¦¨à¦¤ à¦ĸà¦¨à¦¸
à¦¨à¦¨ à¦°
à¦ķà¦² à¦Ļ
à¦¨à¦Ĺ à¦°à¦¹
à¦¤ à¦¯à¦¶
à¦¸à¦ķ à¦Ń
à¦® à¦ļà¦°
à¦¶ à¦Ĩà¦¬
à¦² à¦°à¦¹à¦®
à¦¬à¦ª à¦Ľà¦¨
à§¨à§¦à§¨à§¨ à§®
à¦ª à¦ľà§Ł
à¦ĵà¦¯ à¦¥
à¦°à¦Ĺ à¦®
à§¨à§Ń à§«
à¦¯à¦¤à¦® à¦¶
à¦īà¦® à¦°à¦°
à¦®à¦ª à¦²
à¦ıà¦ĸà¦¨ à¦ıà¦ķà¦Ł
à¦¬à¦² à¦¥
à¦¬ à¦Ĩà¦®à¦°
à§¨à§¦à§¨ à§§à§§à§§
à§¨à§« à§ª
à¦ıà¦² à¦¡
à¦¯ à¦Łà¦ķà¦°
à¦°à¦ı à¦ĩà¦¹
à¦® à¦¶à¦¬
à¦īà¦ª à¦¶
à¦ª à¦¥à¦¨
à¦ħ à¦®à¦²
à¦® à¦ĩà§Ł
à¦°à¦¥ à¦®à¦²
à§Łà¦ª à¦²
à¦°à¦ª à¦¯
à¦¯à¦¤ à¦Ĺ
à¦ıà¦ķ à¦¡
à¦Ĩ à¦·
à¦°à¦® à§İà¦¸
à¦¬ à¦ĩà¦īà¦°
à¦°à¦ı à¦°à¦¨
à¦ıà¦ĸà¦¨ à¦ľ
à¦ĺ à¦¨à¦¤
à¦¨ à¦°à¦ª
à¦Ľ à¦²à¦¤
à¦ł à¦ķà¦¸
à¦ıà¦®à¦¨ à¦ķà¦°
à¦ıà¦ķà¦ĩ à¦§à¦°à¦¨
à§Ł à¦ıà¦®à¦¨à¦ķ
à¦¸à¦¬ à¦¤
à§Łà¦¸ à¦¦à¦¸
à§§à§¬ à§¨à§¦à§¨à§¦
à¦¹à¦² à¦Ĩà¦ªà¦¨
à¦¸à¦¹à¦ľ à¦¹à¦¬
à¦ıà¦°à¦ķà¦® à¦ıà¦ķà¦Ł
à¦¬ à¦ħà¦ª
à¦ĵ à¦°à¦Ń
à¦ĩà¦¨ à¦ķà¦°à¦¤
à§§à§® à§©
à§Ł à¦¦à¦¨
à¦ĵ à¦²à¦ķ
à¦°à¦Ŀ à¦°
à¦°à¦Ĩà¦Łà¦ķ à¦ķà¦°
à¦¨à¦¸à¦® à¦Ĺ
à¦ľ à¦¤à¦²
à¦¶ à¦Ĩà¦ľ
à¦· à¦¯à¦¦
à¦īà¦ľ à¦Ń
à¦Ł à¦¬à¦²à¦²
à¦¯ à§Łà¦¬à¦¹
à¦¶à¦¨ à¦ıà¦ķ
à¦¬ à¦ħà¦¬
à¦¨à¦ĸ à¦°à¦ļ
à¦ĩ à¦ıà¦®
à¦ıà¦ĩ à¦ķà¦®
à¦¦ à¦īà¦ªà¦ľ
à¦¨à¦ĵ à¦ķà¦°
à¦¬à¦¨ à¦ªà¦°
à¦® à¦®à¦°
à¦®à¦¹ à¦ĵà§Ł
à¦¬ à¦Ĩà¦¹à¦®
à¦²à¦¹ à¦ķà¦ª
à¦ļ à¦ħ
à¦īà¦Ł à¦ĩà¦¨
à¦Ł à¦Ĩà¦ľ
à¦°à¦ī à¦ĸ
à§Ł à¦ħà¦®
à¦ļ à¦°à¦¬
à¦Ĺà¦£ à¦Ń
à¦ĺ à¦°à¦Ń
à§¨ à§¨à§ª
à¦² à¦ĵà¦Ĺ
à§Łà¦® à¦§
à¦°à¦® à¦¥à¦ļ
à¦²à¦¹ à¦ķà¦ľ
à¦ĩà¦² à¦¸à¦¦
à¦ĸ à¦ķà¦¨
à¦Ĳ à¦¸
à¦¸ à¦ĵà¦¤
à¦¬ à¦°à¦Ľ
à¦¥ à¦¦à¦£
à¦ĩ à¦ıà¦°à¦¬
à¦¨à¦¦ à¦°à¦ķ
à¦® à¦Ľà¦¬
à¦°à¦ħ à¦£
à¦²à¦¤ à¦ªà¦°
à§§à§Ń à§Ń
à¦¤à¦¸à¦ķà¦² à¦¤à¦¥
à¦¬ à¦¹à¦ļ
à¦ĵ à¦ĩà¦īà¦°
à¦°à¦īà¦ª à¦¸à¦ļ
à¦°à¦¸à¦¦ à¦°à¦¸
à¦² à¦ıà¦°à¦®
à§Ł à¦°à¦¯
à¦ĵ à¦¸à¦ķ
à¦ıà¦ķ à¦ĩà¦Ĺ
à§© à§©à§«
à¦²à¦¹ à¦ķà¦¨
à¦ļ à¦ķà¦¸
à¦¯ à¦¸à¦¬à¦ķ
à¦« à¦²à¦¹
à¦® à¦Ĩà¦¶
à¦ļ à§Łà¦¬
à¦°à¦§ à¦°à¦£
à¦ľà¦¸à¦¦ à¦°à¦®
à§§à§ª à§§à§«
à¦Ľ à¦Ĩà¦®
à¦²à¦¤ à¦ĸà¦¨à¦¤
à¦¤ à¦°à¦ħà¦¸
à¦¡ à¦¸à¦°
à§§à§¬ à§¨
à¦Ĩà¦°à¦¬ à¦Ĩà¦®
à¦¸à¦ķà¦² à¦ľ
à¦ĺ à¦°à¦Ľ
à¦ªà¦£ à¦¨
à¦¶ à¦Ĩà¦¦
à¦¦ à¦¤à¦¹
à¦¦ à¦īà¦ªà¦¨
à¦¤ à¦ķà¦¸
à¦¶à¦Ĺ à¦¡
à¦« à¦īà¦¦
à¦¹à§Ł à¦Ĩà¦¬
à¦¨ à¦ľà¦¨à¦¨
à¦¯à¦® à¦®
à§©à§Ń à§Ń
à¦ķà¦°à¦£ à¦¸
à¦ķ à¦ĩà¦¬
à¦¤à¦¨à¦Ń à¦Ĺà¦¤
à¦ľ à¦ĺà¦¨
à¦ħà¦¬ à¦¤à¦°à¦£
à¦¤à¦¸à¦® à§Łà¦¸
à¦°à¦ıà¦ķà¦¸ à¦Ļ
à¦® à¦ļà¦²
à§İ à¦Ľ
à¦°à¦ĩ à¦¸à¦®
à¦Ĺà¦°à¦® à¦ķà¦°
à¦ĵ à¦ľà¦¨à¦¬
à¦°à¦ĸà¦¬ à¦°à¦ħà¦¨
à¦Ł à¦ħà¦ªà¦°
à¦Ĺ à¦īà¦¨
à¦· à¦°à¦ļà¦¨
à¦¸à¦°à¦¡ à¦®
à¦Ń à¦¨à¦¬à¦¬à¦°
à¦¬ à¦Ĩà¦¸
à¦®à¦¦ à¦Ĩà¦®
à¦¨à¦ħ à¦¦
à¦· à¦īà¦¦à¦¯
à§Łà¦ķ à¦ĸà¦¨
à¦¡à¦¬ à¦Ĺ
à¦ķ à¦ıà¦ĸ
à¦Łà¦¸ à¦¶
à¦°à¦ı à¦¹
à¦īà¦¡ à¦¤
à¦°à¦² à¦¸à¦Ń
à¦²à¦ļ à¦¤
à¦ľ à¦²à¦ľ
à¦Łà¦« à¦Ł
à¦® à¦ħà¦ª
à¦ªà¦ķ à¦Ĺ
à§¬à§¦ à§¬
à¦¤ à¦ıà¦Ľ
à¦°à¦ĩ à¦ħà¦¨
à¦¸à¦¹à¦ľ à¦²à¦Ń
à¦ĩ à¦ļà¦Ł
à¦ĵ à¦¬à¦¸
à§¨à§¬ à§ª
à¦ĵ à¦¸à¦®à¦¯
à¦ĸ à¦¬à¦ķ
à¦¥ à¦¹à¦¬
à¦īà¦ª à¦¸à¦®
à¦®à¦¦ à¦¦
à¦¯ à¦Ĩà¦ľà¦ķ
à¦°à¦¬ à¦ĩà¦¬
à§İà¦¸ à¦ķà¦¤
à¦ķà¦¨ à¦¡
à¦¤ à¦Ĩà¦¯
à¦°à¦ª à¦°à¦ĵà¦¬
à¦¨à¦¨ à¦¨
à¦¨à¦ĵ à¦·
à¦£ à¦¹à¦ĵà§Ł
à¦°à¦¬ à¦īà¦ķ
à¦¨à¦Ĺ à¦°à¦Ĺ
à¦°à¦¸à¦¹ à¦Ĺ
à¦ĺ à¦¸à¦®à§Ł
à¦£ à¦¬à¦°
à¦¸à¦®à§Ł à¦®à¦¤
à¦¬ à¦ļà¦°
à¦ľ à¦ļà¦²
à¦ı à¦ıà¦«à¦ª
à¦ıà¦ķ à¦²à¦ķà¦°
à¦īà¦Ł à¦ħà¦¬
à¦¸ à¦ĵà¦ķ
à¦·à¦£ à¦ĸ
à¦£ à¦īà¦ĩà¦®
à¦¨à§Łà¦ķ à¦°à¦Ľ
à§Łà¦īà¦ª à¦¸à¦®
à¦ª à¦§à¦°
à¦¨à¦¤ à¦ĸà¦¨à¦ķ
à¦²à¦¸ à¦ļ
à¦Ĺà¦¤ à¦¸à¦®
à¦ıà¦ĩ à¦¸à¦°à¦ķ
à§©à§® à§Ń
à¦ķ à¦Ĩà¦¨à¦¨
à¦Ł à¦ĩà¦²
à¦°à¦¤ à¦«à¦¸
à§Ł à¦ĩà¦®
à¦ıà¦² à¦°
à¦¨ à¦ĩà¦ľ
à¦¸ à¦ħà¦¸
à¦¨à¦ıà¦ĩ à¦ļà¦¡
à¦¸à¦¹à¦ľ à¦īà¦ª
à¦« à¦īà¦¨
à§¨à§¦ à§¬
à¦¯à¦¦ à¦°à¦ķ
à¦¬ à¦ĵà¦¦
à¦Ĺà¦¤ à¦¡
à§§à§§ à§§à§©
à¦Ĺ à¦¨à¦¤
à¦« à¦°à¦ľ
à¦¨à¦ı à¦°à¦¨
à¦¶ à¦ıà¦ĸà¦¨
à¦ĩ à¦Ĩà¦ĩà¦Ł
à§§à§¯ à§«à§«
à¦°à¦īà¦ª à¦°à¦Ĩà¦²
à¦Ľ à¦¦à¦¶
à¦¯à¦¬ à¦¡
à¦²à¦¤ à¦ħà¦ªà¦°
à¦Ĺ à¦ħà¦«
à¦¨à¦ľ à¦¸
à¦¨à¦ı à¦¯
à¦· à¦ĵà¦Ń
à¦ĩà¦¨ à¦ħ
à¦ķà¦¸à¦® à¦¨
à¦¤à¦ĸà¦¨ à¦°
à¦°à¦£ à¦Ĩà¦ĩà¦¨
à¦ĵ à¦Ĩà¦¨à¦¨
à¦¨à¦¹ à¦ķ
à¦ĩà¦ī à¦Ń
à¦¨à¦Ĩ à¦īà¦Ł
à¦² à¦¦à¦°
à¦¸à¦¬ à¦§à¦°à¦£
à¦°à¦ĵ à¦®à¦°
à¦¨à¦ª à¦Ł
à§Ł à¦¬à¦²à¦¤
à¦®à¦¨ à¦ħà¦¨
à¦°à¦¸ à¦°à¦¦
à¦Ĺà¦¤à¦® à¦Ļ
à¦Ĳ à¦®
à¦ł à¦²
à§§à§¯ à§©à§¯
à¦¸à¦ķ à¦Ĺ
à¦· à¦¨à¦¨
à¦¸à¦¹ à¦ĵà§Ł
à¦¯à¦ĸà¦¨ à¦¯
à§¦ à§«à§¦
à¦¶à¦¦ à¦¤
à¦² à¦Ĩà¦ĵà§Ł
à¦Ĩà§Ł à¦ķà¦°à¦¤
à¦· à¦¨à¦¦
à¦ªà¦¦ à¦ķà¦°
à¦Ĺ à¦¸à¦®à§Ł
à¦¹ à¦ĩà¦Ľ
à¦¤ à¦ıà¦ķà¦ª
à¦Ĺ à¦ĩà¦¤
à¦īà¦² à¦Ĩà¦²à¦®
à§ľà¦ķ à¦īà¦¨
à¦¦à¦ķ à¦ħ
à§§à§« à§§à§¬
à¦¨à¦® à¦²
à§§à§¯ à§ªà§¯
à¦« à¦²à¦Ĺ
à¦¡ à¦¹à¦¤
à¦¦à¦¶ à¦¸
à¦°à¦ļ à¦®à§İà¦ķ
à¦²à¦ª à¦°à¦¬à¦°
à¦¶à¦ª à¦²
à¦Ĳ à¦ª
à§¨à§® à§«
à§Ł à¦Ĩà¦ľà¦ķ
à¦ĺ à¦Łà¦ķ
à¦¬à¦Ľ à¦°à¦¥
à¦¤à¦® à¦Ļ
à¦® à¦Ĩà¦ª
à¦¶ à¦ł
à¦Ĩà¦°à¦ĵ à¦īà¦ªà¦¸
à§¨à§¯ à§®
à¦°à¦¹ à¦¨à¦ķ
à¦² à¦ıà¦°
à§¨à§¦ à§¨à§¦à§¦
à¦ħà¦¥ à¦ļà¦ª
à¦°à¦¶ à¦®
à¦ĩà¦²à¦« à¦²à¦ķ
à¦¶ à¦¤à¦°
à¦°à¦®à¦¤à¦²à¦¬ à¦¦à¦ķ
à¦¦ à¦ĵà¦ķ
à¦¨à¦¨ à¦ľà¦°
à¦· à¦ħà¦¬à¦¦
à¦°à¦£ à¦Ĩà¦²
à¦² à¦īà¦®
à§¨à§¦à§¨ à§§à§©
à¦ĩà¦ľ à¦ªà¦°
à¦¶ à¦ľà¦¨
à¦ĩ à¦¦à¦ķ
à¦ıà¦ķ à¦ĩà¦®
à§Ł à¦°à¦ªà¦¦
à¦Ĺ à¦¨à¦ª
à¦°à¦¬ à¦ļà¦¨
à¦ĩà¦¨à¦¬ à¦ķ
à¦ĵ à¦Ĩà¦§
à¦²à¦¨ à¦¥
à¦°à¦® à¦ıà¦¬
à¦¹à¦ķ à¦ªà¦°
à§Ł à¦ıà¦¸à¦®à§Ł
à¦¬à¦¹ à¦¸
à¦°à¦® à¦¨à¦Ń
à¦®à¦ļ à¦¤
à¦¨ à¦°à¦ľ
à¦Ĩ à¦ĩà¦¹
à¦¯à¦¸ à¦¹à¦¯
à¦¬ à¦ĩà¦¶
à¦ķà¦ľà¦¨ à¦¦
à¦ķ à¦ĺà¦°
à¦ļ à¦¶à¦¤
à¦¯ à¦ĩà¦īà¦¨
à¦°à¦īà¦Ń à§Łà¦Ńà¦¬à¦¨
à§© à§ªà§¦
à¦°à¦Ĺ à¦¤à¦ķ
à¦°à¦ī à¦¸
à¦¯ à¦ľà¦¨à¦ª
à¦°à¦ķ à¦¨à¦Ł
à¦¦ à¦§à¦°
à¦¬à¦¨ à¦¡
à¦°à¦ĸ à¦¤
à¦¨à¦« à¦ķ
à¦² à¦ħà¦ŀ
à¦īà¦ľ à¦¸à¦®
à¦ĩà¦ľ à¦¯
à¦¬ à¦ħà¦§
à§§à§Ń à§¨à§¦à§¨à§¨
à¦ľ à¦¤à¦¥
à¦²à¦¬ à¦ª
à¦ĵ à¦ĩà¦Ľ
à¦Ĩà¦°à¦ĵ à¦¶à¦ķ
à¦ķ à¦ļà¦²à¦ļ
à¦ĩà¦« à¦īà¦¦
à¦ĩ à¦Ĺà¦¤
à§Ł à¦ľà¦²
à¦¡à¦¸ à¦«
à§¨à§ª à§¨
à§Ł à¦®à¦¸
à¦¸à¦¹ à¦¨à¦¶
à¦¤à¦°à¦£ à¦Ľ
à§Ł à¦ħà¦Ł
à¦Ł à¦ľà¦¨à¦¸
à¦¹ à¦ķà¦°à¦¬
à¦ĺ à¦¨à¦ķ
à§§à§¯ à§¨à§¦
à¦¤ à¦ħà¦²
à§Ł à¦īà¦ļ
à¦°à¦®à¦¤ à¦ıà¦ķà¦Ł
à¦¯ à¦¬à¦²à¦¤
à¦ĩà¦® à¦Ł
à¦Ł à¦īà¦ª
à§Łà¦ķ à¦ľ
à¦ł à¦ķà¦°à¦¤
à¦¬ à§İ
à¦ħ à¦ľà¦Ĺ
à¦ªà¦¥ à¦Ĺ
à¦ķà¦°à¦ľ à¦²à¦¦
à§©à§® à§¬
à¦ħ à¦ļà¦²
à¦¸ à§İà¦®
à¦¡ à¦Ĩà¦ķ
à¦¬à¦ķ à¦¸à¦®
à¦¬à¦¸ à¦¦à¦¸
à¦°à¦Ĩà¦°à¦ĵ à¦¦
à¦ĸà¦¬ à¦°à¦¤
à¦ļ à¦ķà¦Ń
à§İ à¦ĵà¦ľ
à¦¨à¦ıà¦ķ à¦ĩà¦¸à¦Ļ
à¦Ľ à¦¦à¦ķà¦ķ
à¦¦ à¦²à¦¤
à¦¨ à¦ĺà¦¨
à¦¶à¦¨à¦ħ à¦¬à¦¬
à¦Ĺà¦Ń à¦Ļ
à¦¹ à¦ıà¦ķ
à§ľ à¦ļ
à¦ľ à¦Ĩà¦¹à¦®à¦¦
à¦¯ à¦īà¦ł
à§©à§« à§ª
à¦¬ à§Łà¦ķà¦°
à¦Ĩà¦² à¦®à¦¸
à¦ĸà¦°à¦ļ à¦¬
à§Ł à¦ıà¦ĩà¦¸
à¦ıà¦¤à¦¬ à¦¡
à¦¬à¦¸ à¦ĵ
à¦· à¦ħà¦§
à¦¬à§ľ à¦ľ
à¦ı à¦Ĩà§Ł
à¦ļ à¦ĵà¦¸
à¦ħ à¦¯à¦¥
à¦¬à¦¸ à¦Ĩà¦ľ
à¦ĸà¦ķ à¦·
à¦°à¦ıà¦ĩà¦ļ à¦¡
à¦Ĩ à¦ĩà¦¶
à¦ķà¦Ł à¦°
à§Ł à¦°à¦¤
à¦®à§Ł à¦«
à¦¹ à¦°à¦ªà¦¥
à¦ķ à¦ĵà¦¤
à¦Ĩà¦Ĺ à¦²
à¦ķà¦ĸà¦¨ à¦ĵ
à¦ıà¦®à¦¨ à¦ĺà¦Łà¦¨
à¦¦ à¦¸à¦¬
à¦²à¦ķ à¦§
à¦²à¦¹à¦ķ à¦®à¦¨
à¦¹à¦¤ à¦¯
à¦¹à§Ł à¦¬à¦°
à¦ıà¦ĩ à¦¬à¦Ľ
à¦¯ à¦Ĩà¦¹
à¦ļà¦® à¦ķà¦ª
à¦²à¦¬ à¦¦à¦²
à¦ıà¦ĩ à¦Ĩà¦²
à§¨à§¦à§¨à§§à§¦à§« à§ªà§¦
à¦°à¦ĩ à¦Ĺ
à¦¬à¦² à¦¸à¦®
à§« à§¨à§¦à§¨à§§à§¦à§«à§ªà§¦
à¦¸à¦¹ à¦Ĩà¦°
à¦¹à¦¸ à¦ķà¦°
à¦°à¦ı à¦°à¦Ĩà¦Ĺ
à¦§ à¦Ĩà¦¨
à¦·à¦£à¦¸à¦® à¦¤à¦²à¦ĵà¦ľà¦²
à¦ī à¦ĩà¦ľ
à¦īà¦¨ à¦¯
à¦ªà¦¥ à¦Ń
à¦¹ à¦Łà¦¸
à¦¤ à¦ıà¦¤
à¦¤à¦ª à¦¬
à¦ĭà¦£ à¦ªà¦°
à¦· à¦¸à¦ª
à¦¦ à¦ħà¦¸
à§Ł à¦ĩà¦¸
à¦¨à¦Ĩ à¦°à¦¦
à¦¸ à¦²à¦¤
à¦®à¦¨ à¦¡
à¦¹à¦° à¦°à¦¸
à¦¬ à¦°à¦®à¦¹
à¦¸à¦¨ à¦ļ
à¦¯à¦ª à¦¶
à¦ıà¦ķ à¦¨à¦¤
à¦¯ à¦ĩà¦¶
à¦¨à¦ľ à¦¯
à¦Ĺ à¦ĵà¦¯
à¦ľà¦¨ à¦®à¦¹
à¦¨à¦¬à¦ķ à¦£
à¦ªà¦ķ à¦ªà¦°
à¦¶à¦Ĺ à§ľà¦¤
à¦® à¦ıà¦®
à§§à§ª à§¨à§©
à¦ĭà¦£ à¦ĸ
à¦¦ à¦Ĩà¦¬à¦¦
à¦°à¦ĩ à¦Ĩà¦®
à¦ıà¦¸à¦ıà¦® à¦ıà¦®
à¦°à¦£ à¦ľà¦¨à¦Ĺà¦£
à¦¨à¦Ĺ à¦°à¦°
à¦°à¦Ĩ à¦ľà¦¬
à¦ıà¦ķà¦ľà¦¨ à¦ļ
à¦¦ à¦Ĩà¦¦
à¦ĩ à¦ıà¦ĩà¦®
à¦ª à¦ħà¦Ń
à¦°à¦ĸ à¦ª
à¦¨à¦« à¦ľ
à¦ĵà¦¸à¦® à¦°
à¦²à¦Ń à¦¬à¦¨
à§Łà¦¨ à¦ĺ
à¦°à¦ª à¦°à¦Ľ
à¦°à¦¸ à¦¦à¦°
à¦·à¦¤ à¦ļ
à¦ĵ à¦ľà¦¬
à¦ĩà¦® à¦§
à¦ķ à¦¨à¦¦
à¦¬à¦ªà¦¨ à¦®
à¦ª à¦®à¦¹
à¦¦ à¦®à¦²
à¦ķà¦² à¦°
à¦Ĩà¦ĩà¦¨ à¦®
à¦Ĩ à¦Łà¦²
à¦¸à¦¹ à¦ľà¦ķ
à¦°à¦¨ à¦¹
à§İà¦¸à¦ķ à¦¨
à¦¤à¦ķ à¦Ĺ
à¦°à¦ĩ à¦¨à¦«
à¦ıà¦ķà¦ľà¦¨ à¦¡
à¦¨à¦Ĩ à¦°à¦¶
à¦Ĺ à¦®à¦ķà¦°
à§¨ à§¨à§©
à¦¯ à¦²à¦ķ
à¦¹ à¦¨à¦Ĺà¦ŀ
à¦ĵ à¦ľà¦®
à¦ıà¦°à¦ª à¦°à¦¦
à§©à§« à§¬
à¦¡ à¦ķà¦Ń
à¦°à¦ĩ à¦Ł
à¦ĵà¦¸ à¦¹à¦¯
à¦°à¦§à¦°à¦¨ à¦ħà¦¨
à¦¬à§ľ à¦¶
à¦Ĩà¦² à¦¨
à¦² à¦ıà¦®
à¦¯ à¦ıà¦¤
à¦°à¦ıà¦ķ à¦«
à¦°à¦ı à¦°à¦ľà¦¨
à¦²à¦ľ à¦¬à¦¬
à¦°à¦ķ à¦ķà¦°
à¦Ĺ à¦Ĩà¦¬
à¦· à¦¤à¦¸
à¦¨à¦ª à¦°à¦ķ
à§Ł à¦ªà§ľà¦¤
à¦ķà¦¸ à¦¨à¦¦
à¦® à¦ħà¦¬à¦¸
à¦ıà¦®à¦¨ à¦ħà¦Ń
à¦Ĺ à¦īà¦łà¦²
à¦ıà¦ĩ à¦ļà¦ķ
à¦¸à¦¬ à¦ıà¦²
à¦¤ à¦ħà¦Ļ
à¦® à¦ªà¦¦
à¦² à¦ıà¦ľ
à¦¬ à¦ľà¦²
à¦Ľ à¦§à¦°à¦¤
à¦ĵ à¦ļà¦²à¦Ľ
à§¨à§¬ à§¦
à¦īà§İà¦ķ à¦£
à¦ª à¦īà¦ļ
à§§à§¯ à§ªà§©
à¦¬à¦² à¦²à¦®
à¦ħà¦¥ à¦ļà¦¬
à¦¶à¦ĵ à¦ķà¦¤
à¦¯ à¦ĺà¦°
à¦ª à¦ľà¦²
à¦¨à¦¦ à¦²à¦Ł
à¦ĸà¦¬ à¦°à¦ļ
à¦²à¦ĵ à¦ķà¦²
à§§à§¯ à§ªà§«
à§Ł à¦°à¦ı
à¦°à¦¬à¦Ľ à¦°à¦§à¦°
à¦¤ à¦ĵà¦Ń
à¦ĩà¦Ł à¦¶
à¦¤ à¦¸à¦ķà¦²à¦ķ
à¦¨ à¦¨à¦¸
à¦²à¦Ĺ à¦Ĺ
à¦¨à¦¸à¦ķà¦² à¦ª
à¦¨ à¦°à¦¦
à¦ĩà¦¡ à¦«
à¦ĵ à¦®à¦¤
à¦¬à¦ķ à¦Ĩà¦Łà¦ķ
à¦ĩ à¦Ĩà¦ĵà§Ł
à¦Ĩà¦°à¦ĵ à¦¯
à¦¤à¦ķ à¦¡
à¦¹à¦¤ à¦Ľ
à¦· à¦®à¦¬
à¦ķà¦Ł à¦¹à¦¤
à¦¸ à¦¤à¦¬
à¦·à¦ķ à¦¯
à¦§ à¦ĵà¦¬
à¦²à¦Ĩ à¦°à¦¤
à¦ľà¦¨ à¦ķà¦°à¦Ľ
à¦® à¦ħà¦¬
à¦°à¦£ à¦ħà¦Ń
à¦¸à¦¹ à¦¸à¦®
à¦®à¦² à¦ķà¦°à¦¬
à¦Ĺà¦² à¦¡
à¦¨à¦¬ à¦¦à¦²
à§§à§¦ à§§à§§
à¦Ĩà¦® à¦¨à¦§
à¦¦ à¦¸à¦¨
à¦¯à¦¤à¦® à¦®
à§¨à§¦à§¨à§¨ à§§à§¬
à¦¶à¦¹ à¦ĵà§Ł
à¦®à¦¤ à¦ªà¦°
à¦¤à¦¸ à¦ŀ
à¦Ĺà¦¤à¦ķ à¦¯
à¦¤ à¦īà§İà¦ª
à¦°à¦Ĩ à¦¨à¦ħà¦¨
à¦ĵ à¦¸à¦®à§Ł
à§Ł à¦ªà¦ķ
à¦ªà¦¦ à¦¶
à¦¤ à¦¤à¦ª
à¦¤à¦ĸ à¦°à¦ļ
à¦·à¦ķ à¦°à¦Ľ
à¦ĵ à¦Ĺà¦°
à¦¬à§Ł à¦ķà¦®
à¦·à¦£ à¦ķà¦°à¦²
à¦²à¦ª à¦£
à¦¬à¦°à¦£ à¦¦
à§Ł à¦Ĺà¦£à¦®
à¦¹ à¦Ĩà¦¨
à¦ĺ à¦¤
à¦¦ à¦ł
à¦¤ à¦Ĩà¦¨à¦¨
à¦ļ à¦Ĺà¦¤
à¦¨à¦ª à¦°à¦¸
à¦§ à¦ķà¦°à¦£
à¦ķà¦¸ à¦Ĺ
à§©à§© à§Ń
à¦ļà¦² à¦ķà¦°à¦¤
à¦īà¦ľ à¦ļ
à¦¯ à¦ıà¦Ĺ
à¦ĩà¦² à¦¸à¦°
à§§à§ª à§¨à§ª
à¦°à¦Ĩ à¦¨à¦ĵà¦¹
à§§à§ª à§¨à§®
à§Ł à¦¸à¦¬à¦ļ
à§¬ à§Ńà§¬
à¦ķà¦Ń à¦°
à¦°à¦ĩ à¦īà¦ľ
à¦ĩà¦² à¦īà¦ªà¦ľ
à¦¶ à¦Ĩà¦Ľ
à§¨à§¨ à§¨à§¦à§¨à§¨
à¦īà§ľ à¦¨
à¦Ĺ à¦ıà¦ķà¦Ł
à¦ĩ à¦ħà¦«
à§§à§¦ à§§à§Ń
à¦¯ à¦ĩà¦°
à¦Ł à¦¯à¦¦
à¦² à¦ĵà¦ħà¦¨
à¦Łà¦Ĩ à¦ªà¦¬
à§ª à§¦à§¦à§¦
à¦£ à¦ķà¦°à¦²
à¦Ĩ à¦Łà¦ª
à¦¸à¦¬ à¦ĩà¦¬
à¦ĵ à¦ıà¦ĩà¦¬
à§§à§® à§¦à§¦
à¦°à¦Ľ à¦¤
à¦¸ à¦ıà¦°à¦¬
à¦ľ à¦ĵà¦ķ
à¦°à¦ĵà¦ªà¦° à¦¯
à¦¸ à¦ıà¦°à¦®
à¦Ĺ à¦ľà¦²
à¦°à¦¤ à¦²à¦¦
à¦² à¦ľà¦®
à§¬ à§¨à§Ń
à§§à§¯ à§¦à§®
à¦² à¦Ĩà¦ľà¦ķ
à¦¡ à¦ħà¦°
à¦ĵà¦ª à¦¡
à¦ıà¦² à¦«
à§§à§¨à§¦ à§Ń
à§Ŀ à¦¬
à¦°à¦ĸà¦¬ à¦°à¦Ĺ
à¦Ī à¦¦à¦ķ
à¦Ĺà¦¦ à¦¤
à¦Ł à¦ıà¦°à¦ª
à¦ī à¦ĩà¦¥
à§Ł à¦°à¦¹
à¦°à¦® à¦Ń
à¦ĵà¦ĵ à¦®à¦°
à¦ıà¦ĩ à¦¸à¦¬à¦ķ
à¦°à¦§ à¦°à¦¤
à¦ª à¦¸à¦¦
à¦Ł à¦ıà¦°à¦®
à¦¶ à¦Ĩ
à§¨à§¦ à§©
à¦Ńà¦° à¦ķà¦°à¦¤
à¦ĩà¦ª à¦®
à§Ł à¦°à¦¶
à¦¤à¦® à¦ŀ
à¦ıà¦¸ à¦¹
à¦ĵà¦¸ à¦ļ
à¦² à¦°à¦ªà¦¦
à¦Ń à§Łà¦ķà¦°
à¦® à¦ĩà¦īà¦°
à¦ĩ à¦°à¦¹
à¦ıà¦¸à¦¬ à¦ľ
à¦°à¦ĺ à¦¨à¦¤
à§Ńà§« à§®
à¦¨à¦¬ à¦¶
à¦Ń à¦ĺ
à¦°à¦¸à¦® à¦·
à¦²à§Ł à¦Ľ
à§Ł à¦ıà¦ĩà¦ª
à¦¹ à¦Ľà¦²
à§Ł à¦Ĩà¦§
à¦¬à¦¨ à¦ķà¦¥
à¦¯ à¦ıà¦ª
à¦¨à¦² à¦¡
à¦ķ à¦ıà¦ĩà¦¬
à¦¬ à¦ļà¦ķ
à¦°à¦® à¦¹à¦²
à¦£ à¦Ĩà¦Ľ
à¦°à¦ħ à¦¬à¦®
à¦Ĺà¦£ à¦Ł
à¦ķà¦® à¦¤à¦¬
à§§à§¯ à§«à§§
à¦ľ à¦®à¦¤
à¦ķ à¦ħà¦®
à¦¹à¦¤ à¦¹à¦ĵà§Ł
à¦¡ à¦²à¦ª
à¦ªà¦¨ à¦Ľ
à¦¸à¦ķ à¦¶
à¦ķ à¦ľà¦°
à¦¤à¦¨ à¦ķà¦°à¦¬
à¦¦ à¦ıà¦²
à§§à§¨ à§§à§¨
à¦¯ à¦ĩà¦¹
à§« à§©à§¦
à¦ķ à¦¨à¦¨
à¦¨à¦ª à¦°à¦ª
à¦§ à¦¹à¦ĵà¦¯
à¦ķ à¦°à¦Ĩ
à¦£ à¦ªà¦£
à¦īà§İ à¦ªà¦¤
à¦ĩ à¦°à¦ķà¦®
à¦ħ à¦ľà¦¸
à¦ķà¦¤ à¦ĸ
à¦ľ à¦§à¦°
à¦°à¦® à§Łà¦¨
à¦ŀ à¦ķ
à¦°à¦« à¦²à¦¸
à¦ļà¦°à¦® à¦¦
à¦ıà¦¸ à¦°
à¦°à¦ľ à§ľ
à¦·à¦ķ à¦ĵà¦¶
à¦£ à§Ł
à¦® à¦Ĩà¦¤
à¦°à¦ĵ à¦ĩà¦¬
à¦²à¦ķ à§Ł
à§Łà¦ľ à¦Ļ
à¦°à¦ªà¦¥ à¦ĸ
à¦°à¦ªà¦¦ à¦ļ
à¦ª à¦¬à¦°
à¦°à¦ĩ à¦¨à¦ľ
à§Ł à¦¤à¦°
à¦ī à¦¨à¦¤
à¦¨à¦ķ à¦·
à¦¡à¦² à¦«
à§Ł à¦ıà¦ĩà¦¦
à¦Ī à¦¦à¦¸
à¦ľ à¦Ĩà¦¸
à¦°à¦ı à¦¸à¦ª
à¦ĵ à¦ħà¦«
à¦²à¦ķ à¦ħà¦§
à¦ı à¦ıà¦ķà¦Ł
à¦°à¦ªà¦°à¦ĵ à¦Ĩà¦®à¦°
à¦¤ à¦ļà¦²à¦Ľ
à¦¦ à¦¤à¦ķà¦°
à¦°à¦¤ à¦¸à¦²
à¦°à¦ĸà¦¬ à¦°à¦«
à¦£ à¦ķà¦°à¦Ľ
à¦īà¦ľ à¦Ĺ
à¦¨à§Ł à¦¹
à¦¹à¦°à¦£ à¦¹
à¦¬ à¦īà¦ķ
à¦ĩ à¦«à¦°
à¦£ à¦¸à¦¹
à¦² à¦¸à¦¹à¦Ĩà¦Łà¦ķ
à¦ĵ à¦ĩà¦¸à¦®
à¦Ĺ à¦Ĩà¦²
à¦ī à¦¸à¦ª
à¦¯à¦ķ à¦¸
à§§à§§ à§§à§®
à§¦ à§§à§«
à¦Łà¦ķ à¦¹
à¦Ł à¦°à¦īà¦¦
à¦¤ à¦°à¦ı
à§¨à§¬ à§©
à¦¦ à¦ĩà¦¤
à¦¶ à¦ıà¦²
à§İ à¦ªà¦¤
à§¨à§Ń à§®
à¦¬ à¦°à¦¶à¦¨
à§¨à§Ń à§¨
à¦¦ à¦²à¦®
à¦¨ à¦īà¦ĩà¦²
à¦²à¦¨ à¦ĩà¦¸à¦²
à¦ĸà¦¸ à§ľ
à¦· à¦ĩà¦¤
à¦² à¦¶à¦ķ
à¦¹à¦° à¦°à¦¹à¦®à¦¤
à¦¹à¦¯à¦°à¦¤ à¦Ĩà¦²
à¦¨à¦ıà¦ĩ à¦ľ
à¦¬à¦ķ à¦«
à¦¶à¦¨ à¦ĸ
à¦¨à¦Ĺ à¦°à¦¯
à¦Ł à¦¤à¦²
à¦ıà¦ĩ à¦¸à¦¤
à¦Ĺà¦²à¦® à¦¹à¦²
à§¨à§¦à§¨à§¨ à§§à§Ń
à¦¦ à¦Ŀ
à¦¨à¦Ĩ à¦ľà¦®
à¦īà¦¨ à¦ķà¦°
à¦ķà¦¸ à¦ķà¦²
à§©à§¦ à§©
à¦ĸà¦¬ à¦°à¦¸à¦°
à§§à§§ à§¨à§¦à§¨à§§
à¦²à¦¨ à¦Ĺà¦°
à¦ªà¦¡ à¦ķ
à§Ł à¦ħà¦ľ
à¦¦à¦ķ à¦Ĩà¦¨
à¦°à¦¸à¦¹ à¦§à¦°
à¦°à¦ĵà¦ª à¦°à¦¥
à¦ħ à¦¤à¦¨
à¦Łà¦ķ à¦ļ
à¦ĵ à¦¬à¦²à¦¤
à¦ıà¦ĸà¦¨ à¦ĵà¦ľ
à¦ļ à¦ªà¦¦à¦¸
à¦¹ à¦°à¦«
à¦ļ à¦Ĩà¦²
à¦®à¦¹ à¦ķ
à¦®à¦² à¦°
à¦¹à¦² à¦ļ
à¦¦à¦¨ à¦ħà¦°
à¦¤ à¦īà¦ªà¦ľ
à¦Ĩ à¦°à¦®à¦¨
à¦Ńà¦¬ à¦ķà¦°à¦²
à¦§ à¦¨à¦ľ
à¦¸à¦¨ à¦²
à¦°à¦¨à¦ľ à¦°à¦ķ
à¦¬ à¦ĩà¦¸à¦²
à¦ľ à¦īà¦²
à¦¨à¦Ń à¦Ļ
à¦Ń à¦°à¦ķà¦°à¦¬
à¦ĩà¦ķ à¦ĸà¦¨
à§©à§« à§¯
à¦¶ à¦°à¦£à¦ĸ
à¦¨à¦ı à¦°à¦«à¦²
à¦¦ à§Łà¦ķ
à¦£ à¦ħà¦Ń
à§Łà¦¨ à¦Ĺà¦ŀ
à¦²à¦Ĩ à¦°à¦¸
à¦°à¦Ľ à¦¯
à¦·à§Ł à¦ħà¦¨
à¦ĩà¦² à¦ıà¦ķ
à¦£à¦¤ à¦¹à¦¤
à¦¤à¦® à¦¡
à¦°à§Ł à¦ķà¦°à¦¤
à¦¤ à¦ĩà¦īà¦ª
à¦ĩ à¦ĩà¦ļ
à¦¹ à¦Ĩà¦¹à¦®à¦¦
à¦¯ à¦¬à¦²à¦Ľ
à¦Ĺ à¦¦à¦ª
à¦ıà¦ķ à¦ĺà¦£
à§İ à¦ħà¦¨
à¦ĵà¦ª à¦¶
à¦¨à¦ħ à¦¥à¦ļ
à¦ķ à¦°à¦ıà¦¬
à¦ıà¦®à¦¨ à¦¸à¦®à¦¯
à¦Łà¦¹ à¦ĵà¦¯
à¦¨à¦¦ à¦®
à¦Ĩà¦ĩ à¦ıà¦²
à¦¦à¦¨ à¦¥
à¦ĩà¦¡ à¦ķà¦°
à¦ĸà¦® à¦£
à¦®à¦® à¦¯
à¦¬ à¦¤à¦¸
à¦°à¦ª à¦°à¦ıà¦ķà¦¬
à¦£ à¦ħà¦ŀ
à¦ªà¦¨ à¦Ł
à¦® à¦łà¦¬
à¦Ĺ à¦īà¦¦
à¦¤à¦¬ à¦¦à¦²
à¦¶à¦ķ à¦ķà¦°
à¦°à¦² à¦Ń
à¦ķà¦ª à¦²
à¦ĩà¦ī à¦®
à¦¶à¦Ń à¦Ł
à§Ł à¦²à¦ķ
à¦£ à¦ł
à¦ħ à¦¸à¦Ń
à¦¨à¦ħ à¦Ł
à¦¯ à¦Ĺà¦£
à¦ĩ à¦ķà¦¸
à¦£ à¦¨à¦¤
à¦ľà¦¨ à¦ªà§ľ
à¦ıà¦® à¦ıà¦ĩà¦ļ
à¦°à¦ķà¦® à¦ªà¦°
à¦¤ à¦ıà¦ķà¦®
à¦Ĩ à¦°à¦¬à¦°
à¦¡ à¦ĵà¦¸
à¦¨à¦ķ à¦¸
à¦²à¦¬ à¦¬
à§§à§¯ à§¬à§©
à¦¬à¦Ľà¦°à¦ª à¦°à¦ª
à¦ĩà¦Ł à¦ĵà§Ł
à§ªà§¬ à§®
à¦°à¦Ĩ à¦ĩà¦¨à¦¬
à¦¬à§ľ à¦ļ
à§ªà§« à§®
à¦¹ à¦¸à¦¬
à¦Īà¦¦ à¦Ĩà¦¨à¦¨
à¦ıà¦ķà¦ĩ à¦ıà¦²
à¦ĩ à¦ĵà¦®
à¦°à¦¥à¦® à¦ħ
à¦² à¦°à¦¨
à¦°à¦¸ à¦¡
à¦¸ à¦īà¦ªà¦ľ
à¦ªà¦¥ à¦¹
à¦ī à¦Ĩà¦ªà¦¨
à¦¥ à¦ķà¦ķà¦°
à¦°à¦¸à¦® à§Łà¦ļ
à¦¯à¦ĸà¦¨ à¦Ń
à¦¨à¦® à§Łà¦®à¦¨à¦¸
à§Ł à¦ħà¦²
à¦ªà¦¦ à¦ļà¦Ł
à¦ıà¦ĸà¦¨ à¦ĸ
à¦ª à¦ıà¦Ł
à¦°à¦ķ à¦ıà¦¬
à¦ı à¦Ĩà¦®
à¦£ à§Łà¦ķà¦°
à¦¬à¦¹ à¦¨à¦ķà¦°à¦¤
à¦¸ à¦¤à¦¥
à§§à§¯ à§«à§©
à¦°à¦¥à¦® à¦ĩà¦¨
à¦¤à¦°à¦£ à¦ļ
à¦² à¦īà§İà¦ª
à¦¨à¦ķ à¦¨à¦¸
à¦°à¦Ł à¦Ļ
à¦¨à¦« à¦¸à¦²
à¦ķ à¦°à¦īà¦¦
à¦ķà¦² à¦Ł
à¦Ł à¦ıà¦®
à§Ł à¦ħà¦ķ
à¦ĩà¦Ń à¦¯
à§Ł à¦ľà¦¨à¦Ĺà¦£
à¦ª à¦Ĩà¦¬
à¦¹ à¦¸à¦¹
à§§à§¨à§©à§ªà§«à§¬à§Ńà§®à§¯à§§à§¦à§§à§§à§§à§¨à§§à§©à§§à§ªà§§à§«à§§à§¬à§§à§Ńà§§à§®à§§à§¯à§¨à§¦à§¨à§§à§¨à§¨à§¨à§©à§¨à§ªà§¨à§«à§¨à§¬à§¨à§Ńà§¨à§®à§¨à§¯à§©à§¦ à§©à§§
à¦ľ à¦«à¦°
à¦°à¦¨ à¦ĸ
à¦ªà¦Ł à¦²
à¦ķà¦¤ à¦¦à¦¨
à§§à§© à§¦à§¦
à¦°à¦ļ à¦¶à¦®
à¦¶à¦¬ à¦Ļ
à¦°à¦¥à¦® à¦ıà¦¬
à¦ıà¦ķà¦ľà¦¨ à¦ľ
à¦¯ à§İà¦¨
à¦· à¦¤à¦¨
à¦ķà¦¤ à¦Ń
à¦² à¦ıà¦®à¦¨à¦ķ
à§ľ à¦ĺ
à¦ıà¦ĩ à¦¶à¦¬
à§§à§¯ à§«à§¯
à¦Ĺà¦¤ à¦īà¦¨
à¦Ł à¦ĵà¦ķ
à¦¨à¦Ĺ à¦°à¦ĩà¦īà¦¨
à¦°à¦ĩ à¦«
à¦Łà¦Ĺ à§ľ
à¦¸à§ľ à¦ķà¦¨
à§ªà§« à§«
à¦ª à¦Ľà¦¬
à¦ª à¦°à¦ĸ
à¦ĩ à¦ıà¦ķà¦¸
à¦ı à¦°à¦¸à¦Ń
à¦°à¦ķ à¦®à¦¦
à¦°à¦¤ à¦«
à¦īà§İ à¦¸à¦¬à¦ķ
à§Ł à¦ķà¦Ł
à¦¦ à¦¨à¦¤à¦¥
à¦ĸ à¦°à¦Ĺ
à¦°à¦Ĩ à¦«
à¦¹à¦¤ à¦ļ
à¦°à¦Ĺ à¦¸
à¦°à¦Ĩà¦°à¦ĵ à¦ķ
à§ªà§ª à§®
à¦¶ à¦Ĺà¦²
à¦Ĺ à¦¨à¦ļ
à¦ķà¦° à¦¬à¦ķ
à¦°à¦ıà¦®à¦¨ à¦ıà¦ķà¦Ł
à¦Ĩà¦¹ à¦¹à¦¹
à¦°à¦Ĩ à¦ľà¦®
à§¦ à§®à§¦
à¦¤à¦°à¦£ à¦°
à¦°à¦ľà¦¨à¦Ĺà¦£ à¦ķ
à¦¤ à¦ĵà¦ľ
à§§à§¨ à§§à§ª
à¦ĩà¦īà¦ıà¦¨ à¦ĵà¦¸
à¦ķà¦¨ à¦¹
à¦ĩ à¦Ĩà¦§
à¦ıà¦ĩ à¦Ĩà¦¨
à¦¯à¦ĸà¦¨ à¦Ĺ
à¦¨à¦ĵ à¦ħ
à¦°à¦¶à¦ªà¦¥ à¦Ĺ
à¦°à¦ı à¦®à¦¸
à§Łà¦¨ à¦¸à¦®
à¦ľà¦² à¦ĵà¦Ĩà¦¤
à¦ĸà¦¬ à¦°à¦«
à§Łà¦¸à¦® à¦¬
à¦ĩ à¦ļà¦ķ
à¦°à¦ħà¦¬ à¦ķà¦®
à¦¤ à¦ĩà¦°
à¦Ĺ à¦ĵà¦ł
à¦°à¦ĸ à¦²
à¦¸ à¦ĩà¦ķà¦°
à¦ıà¦ķ à¦ĩà¦¨
à¦®à¦¦ à¦Ĺ
à¦Ł à¦¤à¦¬
à¦² à¦Ĩà¦¬à¦¦
à¦¤à¦¹ à¦ĩà¦¯
à¦°à¦ķ à¦¨à¦«
à§§à§¨à§¦ à§©
à¦¨ à¦°à¦®à¦ľ
à§¨à§¦à§¨ à§§à§«
à¦²à¦¨ à¦ľ
à¦¦à¦¨ à¦ĵà¦¬
à¦¯ à¦Ĩà¦°à¦ĵ
à¦ļ à¦ĺ
à¦°à¦¬ à¦®
à¦ĸ à¦¸à¦°
à¦¡ à¦Ĩà¦¨
à¦°à¦īà¦ª à¦°à¦«
à¦¦ à¦¶à¦¨
à§¦ à§¯à§¦
à¦°à¦ıà¦ķ à¦ľ
à¦ķ à¦Ĩà¦¹
à¦Ń à¦°à¦ķà¦°à¦Ľ
à¦°à¦¬ à¦ŀ
à¦¶à¦¹ à¦°à¦ķ
à¦¹ à¦Ĩà¦ķ
à¦· à¦¸à¦¬
à¦¹à¦¤ à¦ħà¦¨
à¦ĩà¦ī à¦¡
à§Ńà§¦ à§Ń
à¦ĩ à¦Īà¦¶
à¦°à¦Ĩ à¦¨à¦ĵ
à¦°à¦® à¦Ł
à¦®à¦°à¦¤ à¦Ľ
à¦®à¦ı à¦°à¦Ĩà¦¨
à¦°à¦ī à¦¹
à¦§à¦¨ à¦ĸ
à¦¨à¦¤ à¦¹à¦¬
à§§à§¬ à§¦à§¦
à¦¦à¦®à¦¨ à¦ķà¦°
à§Ł à¦¯à¦¥
à¦ıà¦® à¦ĩà¦ı
à¦ª à¦ªà§ľ
à¦®à¦¤ à¦ļ
à¦¨à¦ĵ à¦¸à¦®à¦¸
à¦ĩà¦Ľ à¦²
à¦¶ à¦ĩà¦¸
à¦ĩà¦¡ à¦ĸ
à§§à§§ à§§à§«
à¦® à¦°à¦«
à¦¯à¦® à¦ļ
à¦ľ à¦¹à¦ĵà§Ł
à¦²à¦¥ à¦ķ
à¦¹ à¦°à¦¸à¦¨
à¦¨à¦Ĩ à¦°à¦ľ
à¦ī à¦ķà¦¥
à¦ĵà¦® à¦°à¦°
à¦¯à¦ķ à¦ł
à§Ł à¦ĩà§Ł
à¦Ń à¦¹à§Ł
à¦ļà¦°à¦® à¦¬
à§§à§® à§¨
à¦ıà¦ĩ à¦²à¦ķ
à¦ĩà¦ī à¦ĩà¦ķ
à¦ħà¦Ń à§Łà¦¨à¦Ĺà¦°
à¦ıà¦ķà¦ľà¦¨ à¦«
à¦ļ à§Łà¦ľ
à¦·à¦£ à¦²
à¦¯à¦® à¦Ł
à¦¨à¦Ĩ à¦ĩ
à¦°à¦£ à¦¸à¦¦à¦¸
à¦· à¦ħà¦¬à¦¸
à¦¯à¦ķ à¦²à¦ķ
à¦¹ à¦¹à¦¤
à¦¡ à¦¹à¦ļ
à¦¤ à¦²à¦ľ
à¦¬ à¦ķà¦Ł
à¦¦à¦ķ à¦īà¦¦
à¦ĸ à¦ķà¦ªà¦°
à§® à§«à§¦
à§Ł à¦īà§İà¦¸à¦¬
à¦Łà¦ª à¦²
à¦ĩ à¦ħà¦ľ
à¦· à¦¨à¦¤
à¦°à¦£ à¦¤à¦¸
à¦®à¦¨ à¦¬à¦²
à¦¡ à¦Ŀ
à¦¨à¦Ĩ à¦°à¦ĵà¦¬
à¦°à¦¹à¦£ à¦¬
à¦¨à¦ıà¦ĸà¦¨ à¦Ĩà¦®
à¦¤ à¦īà¦ķ
à¦¦ à¦ľà¦®
à§Ŀ à¦ª
à¦° à§Łà¦¸
à¦Ĺà¦ł à¦¨à¦¸à¦®
à¦²à¦¯ à¦¶
à¦¶ à¦ĩà¦®
à¦ĩ à¦¶à¦¨
à¦ıà¦¤ à¦Ń
à¦ľ à¦ķà¦¤
à¦īà¦¬ à¦¥
à¦¸à¦¬ à¦¸à¦®
à¦²à¦ª à¦Ł
à¦ķ à¦īà¦ªà¦¦
à¦ı à¦°à¦Ĩà¦ĵà¦¤
à¦£ à¦¤à¦ķà¦°à¦¤
à§Ł à¦ĵà¦¤
à¦¨à¦ĵ à¦Ľ
à¦¯à¦® à§Ł
à§§à§¯ à§¦à§¦
à¦¨à¦® à¦®
à¦Ĺà¦¤ à¦ıà¦¬
à¦¨à¦¸à¦¹ à¦¸à¦Ń
à¦ıà¦ĩ à¦ħà¦¸
à¦ĩ à¦Ĩà¦°à¦ķ
à§İà¦¸à¦ķ à¦¡
à¦Ĩ à¦¹à¦¯
à¦¨à¦¤ à¦¸à¦®
à¦°à¦¤ à¦ıà¦¬
à¦ıà¦¸à¦¬ à¦ķà¦°
à§ĥ à§ĥ
à¦°à¦ĸà¦¬ à¦°à¦¡
à¦¤ à¦ıà¦°
à¦°à¦ªà¦°à¦¬à¦Ľ à¦°à¦§à¦°
à¦ıà¦ķà¦ľà¦¨ à¦¹
à¦¨à¦ıà¦ĩ à¦ªà¦°
à¦ķ à¦ıà¦ľ
à¦°à¦ı à¦§à¦°à¦¨
à¦ĵ à¦ĵà¦Ń
à¦§ à¦¸à¦¤
à¦Ĩà¦® à¦Ĺ
à¦¯ à¦ıà¦¦
à¦Ń à¦°à¦¦
à§§à§¯ à§§à§Ń
à¦¦ à§ľ
à¦ĩà¦Ń à¦°
à¦ı à¦ħ
à¦²à¦® à¦¯
à¦² à¦ĩà¦¬
à¦¥ à¦²à¦ľ
à¦ıà¦ĸà¦¨ à¦ĵà¦¨
à¦¯ à¦ļà¦²à¦ļ
à¦® à¦Ĩà¦ľà¦ķ
à¦¶ à¦¸à¦®à¦¯
à¦²à¦ķ à¦«
à¦°à¦¸à¦® à§Łà¦°
à¦²à¦® à§Łà¦®à¦¨à¦¸
à¦īà¦² à¦Ĩà¦¯à¦¹
à¦²à¦ľ à¦¹
à§©à§Ń à§¯
à¦¶ à¦ĩà¦¬
à§« à§ªà§¦
à¦¤ à¦ĩà¦īà¦°
à¦² à¦¹à§Łà¦¨
à¦ķà¦ĵ à¦·
à¦¹ à¦ıà¦ķà¦Ł
à¦Ĩ à¦°à¦ĺ
à¦² à¦Łà¦ª
à¦ĵ à¦ĵà¦¯
à§Łà¦¨ à¦«
à§©à§Ń à§©à§®
à¦®à¦¤ à¦Ł
à¦Ĩà¦ļ à¦°à¦£à¦¬
à§¬ à§ªà§¦
à¦¸à¦ķà¦² à¦ļ
à¦ĩ à¦Ĩà¦°à¦¬
à¦ķà¦¤ à¦²
à¦§ à¦ħà¦¸
à¦°à¦ķ à¦ľ
à¦ªà¦ķ à¦¶
à¦ħà¦¨ à¦¸
à¦§à¦¨ à¦¡
à¦² à¦ıà¦Ń
à¦°à¦Ĩà¦°à¦ĵ à¦ıà¦ķà¦Ł
à¦¶à¦¬ à§ľ
à§§à§¯ à§ªà§ª
à¦²à¦¹ à¦ķà¦¤
à¦¸ à¦ıà¦°à¦¸
à¦¶ à¦ĩà¦¸à¦²
à¦ł à¦¹
à§Łà¦¦ à¦Ĩà¦²
à§Ł à¦¤à¦®
à¦¤ à¦Ĩà¦°à¦ķ
à¦¶à¦¬ à¦¡
à¦ļ à¦Łà¦ķ
à¦¸à¦¬à¦¸à¦®à§Ł à¦Ń
à§© à§®à§¦
à¦ĵà¦ľ à¦²à¦¬
à¦¡ à¦Ĩà¦Ľ
à§Ł à¦ĵà¦Ń
à¦ıà¦« à¦Ń
à¦¸ à¦¸à¦Ń
à¦ĵ à¦Ĺà¦¤
à¦ıà¦®à¦¨ à¦ļ
à¦¹ à¦Łà¦²
à¦ľ à¦ĩà¦¨
à¦¹à§Ł à¦ıà¦°à¦Ĩà¦Ĺ
à¦Ĺà¦ĵà¦¸ à¦¹à¦¯
à¦¸à¦¨ à¦¯
à¦¸à¦¦ à¦°à¦ª
à¦ľà¦ª à¦ŀ
à¦ı à¦°à¦īà¦ª
à¦¯à¦ľà¦¨ à¦ķà¦®
à¦¬à¦¨ à¦²
à¦¸à¦® à¦¤à¦²
à¦²à¦Ĺ à¦Ń
à§©à§¬ à§®
à¦Ĺ à¦®à¦¦
à¦ĵ à¦ķà¦°à¦¬
à¦īà¦ľ à¦¤
à¦ľà¦¶ à¦¹à¦°
à§Ł à¦ļà¦²à¦¤
à¦¤ à¦°à¦¹à§Ł
à¦«à¦² à¦ķà¦°
à¦¨à¦¤ à¦¹
à¦°à¦®à¦¤ à¦²
à¦· à¦Ĩà¦°
à§Ł à¦ħà¦¬à¦¶
à¦Ĩ à¦¦à¦¨
à¦Ĺ à¦Ĩà¦ªà¦¨
à¦²à¦¹ à¦ķà¦ĸ
à¦ĵ à¦ĩà¦ľ
à§§à§¯ à§ªà§§
à¦¸ à¦¸à¦¨
à¦¬à¦² à¦ıà¦¬
à¦¦à¦² à¦¦
à¦ĩà¦¦ à¦¶à¦ķ
à¦¸à¦ķ à¦¥
à¦ĵ à¦ĸà¦¨
à¦¬ à¦°à¦ĺ
à¦Ń à¦Ľ
à¦ĵ à¦Ĩà¦ľà¦ķ
à§©à§« à§Ń
à¦ķ à¦Ĳà¦ķ
à§Ł à¦¨à¦ķà¦°à¦Ľ
à¦¡ à¦ĺà¦Ł
à¦² à¦ıà¦ĩà¦ª
à¦¨ à¦ıà¦ķà¦ľà¦¨à¦¬
à§Ł à¦Ľà§ľ
à§Ł à¦¨à¦ķà¦®
à¦ĩà¦® à¦ķ
à§¨à§¦à§¨à§¨ à§§à§§à§«
à§¨à§¨ à§§
à¦¬à¦ĩà¦¸ à¦¹à¦ľ
à¦Ĩà¦ľ à¦ĩà¦Ĩà¦ªà¦¨
à§©à§ª à§Ń
à§¨à§Ń à§¦
à¦ª à¦Ĩà¦¨
à¦§ à¦ıà¦ķà¦Ł
à§§à§¯ à§§à§ª
à§§à§¯ à§«à§Ń
à¦¸à¦Ł à¦²à¦ķà¦°
à¦ķà¦® à¦ĸà¦°à¦ļ
à¦¯à¦® à¦£
à¦·à¦ª à¦ŀ
à¦¡ à¦®à¦¹
à¦¨à¦Ĩ à¦ĩà¦Ł
à¦¦à¦¨ à¦Ľ
à¦¬à¦Ľ à¦°à¦ĩ
à¦°à¦¬à§Łà¦¸ à¦¹à§Ł
à¦¶ à¦ıà¦Ł
à¦°à¦¸ à¦¤à¦¤
à§® à§¦à§¦à§¦
à¦¨à¦ı à¦¨à¦Ĩà¦ĩà¦¡
à¦ļà¦¤ à¦°à¦®
à¦°à¦¶ à¦¤à¦ķà¦°
à¦°à¦Ĺ à¦£à¦¨
à¦°à¦ĵà¦ªà¦° à¦°
à§§à§¬ à§¨à§¦à§¨à§¨
à¦¤à¦ĸà¦¨ à¦¶
à¦¸à¦¬ à¦ł
à¦ħà¦¬ à¦¤à¦°à¦£à¦ķà¦°
à¦ı à¦²à¦®
à¦®à¦® à¦®à¦®
à¦² à¦ħà¦¥à¦¬
à¦¶ à¦¤à¦¥
à¦ĵ à¦¹à§Łà¦¨
à¦®à¦¦ à¦«
à¦°à¦® à¦®à¦¤
à¦ķà¦Ł à¦¤à¦®à¦ª
à¦Ŀ à¦²à¦ķ
à¦Ĺà¦² à¦¹
à¦¤à¦ĸà¦¨ à¦Ĩà¦®à¦°
à¦ı à¦¹à¦¸
à¦¹à§Ł à¦Ĩà¦®à¦°
à¦«à¦² à¦«
à¦¤ à¦¶à¦¨
à¦ħà¦« à¦¦
à¦¦ à¦°à¦Ľ
à¦°à¦Ĩ à¦¸à¦¤
à¦°à¦ıà¦ķà¦¬ à¦Ľ
à¦ıà¦¸ à¦Ĩà¦ĩà¦®
à¦· à¦ĩà¦¨
à§Łà¦® à¦ľ
à¦ĵà¦ķ à¦ł
à¦Ĩ à¦ªà¦ķ
à¦Ŀ à¦Ĺà¦¡
à¦¨à¦ļ à¦²à¦¬
à¦ĵà¦ĩ à¦ĺà¦Łà¦¨
à¦°à¦¨à¦ľ à¦°à¦¦
à¦ļ à¦°à¦ª
à¦· à¦§à¦°
à§ľ à¦ķà¦ªà¦°
à¦®à¦® à¦£
à¦ľà§Ł à¦¢
à¦Ĺ à¦ĩà¦®
à¦°à¦Ĩ à¦«à¦Ĺ
à¦¨à¦ĵ à¦®à¦¹
à¦¯à§Ł à¦ķà¦°à¦¤
à¦¨à¦¦ à¦¨à¦¦
à¦¯à¦ķ à¦°à¦ĸ
à¦ªà¦¶ à¦¨à¦¬
à¦ĩà¦ļ à¦°
à¦ĩà¦² à¦Ľ
à¦Ĺ à¦Ĩà¦Ĺ
à¦Ń à¦¹à¦¯
à¦°à¦ıà¦ĩ à¦¸à¦®à§Ł
à¦ľ à¦īà¦¤
à¦Ĩ à§Łà¦¤
à¦® à¦Ĩà¦°à¦¬
à¦°à¦Ń à§Łà¦¦
à¦°à¦¹à¦£ à¦ª
à¦¬à¦¦ à¦²à¦ķà¦°
à¦¬ à¦ĩà¦ľà¦°
à¦ķà¦¶ à¦¹
à¦°à¦ĵ à¦Ĩà¦Ĺ
à¦°à¦¨ à¦Ł
à¦²à¦Ń à¦¬
à§Łà¦ª à¦°à¦¬à¦°
à¦² à¦ıà¦Ĺ
à¦Ĺà¦² à¦ıà¦¡à¦¸
à¦¤à¦ľ à¦Ĺà¦¤
à¦¡ à¦¡à¦ķ
à¦ıà¦® à¦ĸ
à¦°à¦¥à¦®à¦ķ à¦²à¦ķ
à¦¥ à¦ħà¦§
à¦£ à¦ıà¦ķ
à¦Ĺ à¦ªà¦¦
à¦Ľ à¦¦à¦ķ
à¦ĩ à¦ıà¦Ń
à¦ªà¦ķ à¦ľ
à§©à§Ń à§®
à¦¨à¦ĵà¦¸ à¦¦à¦¸
à¦ļ à¦ķà¦¨
à¦Ĩà¦°à¦ı à¦¤
à¦ıà¦¸ à¦ıà¦²
à¦² à¦Łà¦¸
à¦ĸà¦°à¦ļ à¦ķà¦°à¦¤
à¦ķà¦¸ à¦¸
à¦Ł à¦°à¦¤
à¦ĵ à¦ıà¦°
à¦ĵ à¦īà¦ª
à¦ľà¦¨ à¦¸à¦®à¦ķ
à¦°à¦ªà¦¦ à¦¥
à¦ĸà¦¬à¦° à¦²
à¦¨à¦Ĩ à¦°à¦ıà¦¸
à¦ľ à¦ħà¦§
à¦ıà¦¸à¦® à§Łà¦®
à¦ĵà¦¸ à¦Ļ
à§Łà¦¦ à¦¤
à¦¡ à¦¨à¦¥
à¦ļ à¦Ĩà¦¨
à¦ĵ à¦ĵà¦ª
à¦®à¦ķ à¦¹
à¦ıà¦ĸà¦¨ à¦Ĺ
à¦Ĩà¦¦ à¦¤
à¦¡à¦Łà¦ķà¦® à¦¸à¦®
à¦īà¦Ń à§Łà¦¦
à¦¥ à¦°à¦¸
à¦®à¦¨à¦Ĺ à¦°à¦īà¦ªà¦ľ
à¦ĵ à¦ıà¦¨
à¦ķà¦ľ à¦Ł
à¦Ł à¦°à¦ıà¦¬
à¦ī à¦²à¦Ĺ
à¦°à¦ĵ à¦¸à¦Ļ
à¦Ĩà¦ĩà¦ķ à¦¨
à¦ľ à¦¸à¦°
à¦¦à¦Ľ à¦«
à¦¤à¦¹ à¦¨à¦ıà¦¬
à¦¸à¦¸ à¦¹à¦¬
à¦Ĩà¦² à¦®à¦®
à¦¹ à¦¨à¦Ĺ
à¦¹à¦¤ à¦Ĩà¦¹à¦¤
à¦·à§Ł à¦Ĩà¦¹à¦®à¦¦à¦Ľà¦«
à¦¶ à¦¸à¦Ń
à¦¨à§Ł à¦Ł
à¦§ à¦ķà¦Ĺ
à¦°à¦ĩ à¦¶à¦¤
à¦¯à¦¥ à¦®à¦°
à¦Ł à¦Ĩà¦¯
à¦°à¦® à¦¨à¦ķà¦°
à§Łà¦ª à¦ŀ
à¦¯ à¦ħà¦¬à¦¸
à¦°à¦¸à¦¬ à¦ķà¦°
à¦¯ à¦Ĳà¦¤
à¦Ĺ à¦ľà¦®
à¦Ĺ à¦°à¦ľ
à¦°à¦ı à¦ĩà¦«
à¦ı à¦°à¦§
à¦¨à¦¶ à¦«
à¦°à¦¦ à¦ĸà¦²à¦¨
à¦¸ à¦¯à¦¦
à§§à§¯ à§¨à§¦à§¨à§¨
à¦Łà¦¸ à¦«
à¦ª à¦ħà¦¬à¦¸
à¦Ł à¦Ľà¦¬
à¦« à¦ıà¦¬
à¦¥ à¦¬à¦¸
à¦ľà¦¨ à¦°à¦¸
à¦°à¦£ à¦¦à¦°
à¦«à¦² à¦ĺ
à¦¨à¦ıà¦ķà¦ľà¦¨ à¦¸
à¦ĩà¦¹ à¦ł
à¦Ĺ à¦ļà¦²à¦Ľ
à§¨à§¦à§¨ à§Ń
à¦Ĩà¦ĩ à¦ĵ
à¦¥ à¦®à¦¹
à¦°à¦¥à¦® à¦ªà¦¤
à¦Ł à¦ħà¦¸
à¦°à¦®à¦¤ à¦ļ
à¦°à¦ıà¦ĩ à¦ĺà¦Łà¦¨
à¦Ĩà¦°à¦ı à¦ķà¦¬
à¦ĩà¦Ń à§Ł
à¦°à¦ª à¦°à¦ıà¦Ł
à¦¦à¦ĸ à¦²à¦¦
à¦¦ à¦ĵà¦¤
à¦§ à¦¬à¦¦
à§© à§ªà§«
à¦ıà¦ķ à¦ħà¦Ń
à¦°à¦£ à¦¬à¦®
à¦ĩà¦¸ à¦Ń
à¦Ł à¦ļà¦Ł
à¦Łà¦¨ à¦ĸ
à¦¹à¦² à¦Ł
à¦Ńà¦¬ à¦¤à¦¤
à¦ĩ à¦®à¦¨à¦¸
à¦Ĩà¦ĩ à¦¨à¦¤
à¦Ĩà¦¹ à¦Ĩà¦¹
à§§à§¯ à§©à§§
à¦ªà¦¨ à¦¹
à¦°à¦ıà¦ĩ à¦ħà¦¨
à¦¶ à¦¶à¦¨
à¦¨à¦¯ à¦¤à¦ķ
à¦¤ à¦ıà¦¨
à¦°à¦¬ à¦¥
à¦¨à¦ªà¦° à¦¦
à¦® à¦¬à¦¸
à¦ķà¦° à¦°à¦¬
à¦¸ à¦°à¦¹
à¦Ł à¦ĩà¦¸
à¦Ł à¦ıà¦¡
à¦¨à¦ıà¦ķ à¦ªà¦°
à¦ĵ à¦°à¦ľ
à§Łà¦¨ à¦Ĩà¦²
à¦ĵà¦¬ à§ľ
à¦°à¦ªà¦¥ à¦¦
à¦ķ à¦Ĺà¦¨
à¦ĵ à¦Ĩà¦ĩà¦ª
à¦²à¦¹ à¦ł
à¦²à¦¸ à¦°à¦¬à¦°
à§§à§¯ à§§à§¬
à¦£à¦ª à¦¦à¦ķ
à§Ł à¦ĸà¦¨
à¦®à¦ķ à¦ļ
à¦¯à¦ĸà¦¨ à¦²
à¦Ł à¦ıà¦°à¦¬
à¦¬ à¦Ĩà¦Ĺ
à¦ıà¦ĩà¦ļ à¦¬
à¦ĩ à¦ħà¦¶
à¦Ń à¦¬à¦¹
à¦¶ à¦°à¦¸à¦®à¦Ĺ
à¦Ĺà¦łà¦¨ à¦ĵà¦¬
à¦ī à¦¨à¦¨
à¦ľà¦¨ à¦Ĩà¦ķ
à¦¬à¦¨ à¦ĸ
à¦¦ à§Łà¦¬
à¦ĵ à¦ıà¦ª
à¦°à¦¤ à¦ĺ
à¦ĩà¦ķà¦® à¦¬
à¦ī à¦«à¦²
à¦ľà¦¨ à¦¬à¦°
à¦ĵà¦¸à¦® à¦¬
à¦Ĺ à¦ľà¦¦
à¦¬à§ľ à¦¨
à¦¨à¦Ĩ à¦ĩà¦ª
à§Łà¦¤ à¦ĸà¦¨à¦¤
à¦ıà¦ĸà¦¨ à¦«
à¦¡ à¦¨à¦®
à¦¤à¦¹à§Ł à¦ıà¦¤
à§¨à§¦ à§¦à§¦à§¦
à¦¹à¦¤ à¦ıà¦¬
à¦Ł à¦¶à¦¹à¦°
à¦¨à¦¸à¦® à¦¨
à¦ı à¦¹à¦¤
à¦ĩ à¦ıà¦Ľ
à¦®à¦¤ à¦ħà¦¨
à¦°à¦ıà¦ĩ à¦ħà¦Ń
à§Ńà§® à§®
à§İ à¦ıà¦¬
à¦ĵ à¦¹à§Łà¦¤
à¦ıà¦°à¦¸ à¦¦à¦¸
à¦¶à¦ľ à¦²à¦¬
à¦ªà¦¸ à¦ľ
à§© à§¨à§¯
à¦ķ à¦«à¦°
à¦ķ à¦ĵà¦ľ
à¦°à¦ĸ à¦¨à¦¨
à¦¨à¦ĵ à¦ĩà¦¦
à¦ı à¦Ĩà¦¬
à¦°à¦Ĩ à¦°à¦¶
à¦² à¦¶à¦¹
à¦²à¦¸ à¦¹à¦¬
à¦ĩà¦¬ à¦ķ
à¦¶ à¦ħà¦¬
à¦Ī à¦¦à¦¶
à¦¨à¦ı à§Ł
à¦¸à¦®à§Ł à¦¥
à¦¯à¦ĸà¦¨ à¦ıà¦Ł
à¦¹ à¦ĵà¦®
à§¦ à§¬à§¦
à¦¨à¦® à¦¦
à¦¦à¦® à¦¯
à¦® à¦ĵà¦¹
à¦Ĩà¦ľ à¦°à¦¬
à¦Łà¦® à¦Ļ
à¦ħà¦¥ à¦ļà¦ķ
à¦°à¦īà¦ª à¦°à¦¸à¦¨
à¦¹ à¦ĵ
à¦¨ à¦ĩà¦¸à¦°
à¦¨à¦Ĩ à¦°à¦ı
à¦² à¦ĵà¦ľ
à¦°à¦¹ à¦¨à¦¯
à¦ĸ à¦°à¦¸
à¦°à¦® à¦¨à¦Ł
à¦Ĺà¦ª à¦Ľà¦¨
à¦¯à§Ł à¦¨à¦ªà¦¤
à¦¡ à¦¹à¦¯
à¦¤ à¦Ĩà¦¸à¦¨
à¦ªà¦¤ à§İà¦ªà¦°à¦¤
à§Ł à¦Ĩà¦°à¦ķ
à¦Ĺ à¦Ĩà¦¸
à¦¯à¦ª à¦¡
à¦°à¦ıà¦ķ à¦ħà¦¨
à¦¨à¦Ĩ à¦°à¦¯à¦¦
à¦¯ à§İà¦ª
à¦¸ à¦ķà¦¦à¦²
à§Łà¦¨ à¦ķà¦°à¦¬
à¦¡ à¦īà¦¨
à§©à§« à§¦à§¦
à¦²à¦Ľ à¦¡
à¦² à¦Ĩà¦ª
à§Łà¦¦ à¦ıà¦¨
à¦¨à¦¸à¦¦ à¦°à¦īà¦ªà¦ľ
à¦°à¦Ĺ à¦£à¦¸
à¦ķà¦ħ à¦¬à¦ķ
à¦ĺ à¦ªà¦°
à¦īà¦¨ à¦¡
à¦¤à¦¤ à¦ĸà¦¨
à¦ķà¦¸ à¦¹à¦ķ
à¦Ĩà¦ķ à¦¬à¦°
à§Ńà§¦ à§®
à§Ł à¦Ĩà¦¨à¦¤
à¦¹ à¦¸à¦¨
à¦· à¦®à¦°
à¦ªà¦¤ à¦¨
à¦¨à¦Ĩ à¦¦à¦°
à§¨à§¦à§¨à§§ à§§à§¨
à¦°à¦¸à¦¦ à¦°à¦Ĺ
à¦¥ à¦°à¦¨
à¦¤à¦¹ à¦ĩà¦²
à¦· à¦¨à¦Ń
à¦Ĺà¦² à¦ļ
à¦ķà¦® à¦§
à¦ĩ à¦Ĩà§Ł
à¦¸à¦¹ à¦ľà¦¨
à¦¸ à¦ĩà¦¯
à¦Ļ à¦¬
à¦¬à¦¹ à¦£
à¦°à¦ıà¦ķ à¦ľà¦¨à¦¨
à¦¤ à¦ĩà¦²
à¦īà¦ª à¦ķà¦®
à¦¸à¦¹ à¦¹
à¦² à¦ıà¦®à¦¨
à§® à§ªà§®
à¦°à¦ľ à¦Ĺà¦¨
à§©à§¦ à§¯
à¦¦ à¦¯à¦¨
à¦ĭ à¦¦
à¦ıà¦ķ à¦¸à¦®
à¦°à¦£ à¦ĵà¦ª
à¦²à¦® à¦ŀ
à¦ķ à¦īà§İà¦ª
à¦ķ à¦ıà¦®à¦¨
à¦¦ à¦°à¦¹à¦®
à¦¯ à¦Ĺà¦£à¦®
à§Ł à¦Ĩà¦¸à¦¬
à¦²à¦ķ à¦¬à¦²
à¦°à¦ĩ à¦ĸ
à§Ł à¦ıà¦ª
à¦ĩà¦ľ à¦ľ
à§§à§¯ à§¦à§§
à¦®à¦¤ à¦ĸ
à¦ĩà¦Ń à¦ĸ
à¦ĩà¦¨ à¦īà¦¦
à¦ĸ à¦ķà¦¥
à¦°à¦Ł à¦¨
à¦°à¦ª à¦°à¦¯à¦¦
à¦¬à¦¨ à¦°à¦ķ
à¦Ĩà¦ĩ à¦ıà¦¸à¦ª
à¦¤ à¦ıà¦°à¦®à¦§
à¦ĸ à¦«à¦ľ
à¦°à¦ı à§Ł
à¦ļà¦® à¦ķà¦¦
à¦²à¦¬ à¦Ľ
à¦°à¦§ à¦°à¦£à¦«
à¦ļà¦¨ à¦Ń
à¦°à¦Ĩà¦¸ à¦²à¦ķ
à¦¨à¦¸ à¦ľ
à¦²à¦¤ à¦Ĺ
à¦¤ à¦¤à¦¨
à¦¤ à¦ıà¦ĩà¦¨
à¦ıà¦ķà¦ľà¦¨ à¦¤
à¦Ł à§Ł
à¦ĸ à¦¹à§Ł
à¦°à¦Ń à¦ª
à¦² à¦ıà¦ķà¦¦
à¦¯ à¦ħà¦Ĺ
à¦¬à¦² à¦²à¦¦
à¦¸ à¦Ĺà¦²
à¦¦ à¦²à¦Ń
à¦¨à¦ĵ à¦ĩà¦®
à¦īà¦Ń à§Łà¦Ńà¦¬à¦¨
à¦¹ à¦®à¦¨
à¦ıà¦ķ à¦ĩà¦ľ
à§§à§¯ à§§à§¯
à¦ī à¦¢
à¦¨à¦ı à¦§à¦°à¦¨
à¦¸ à¦Ĩà¦®à¦°
à¦Ĺ à¦ĵà§Ł
à§Łà¦¸ à¦ŀ
à¦§à¦¨ à¦ıà¦¬
à¦·à¦ķ à¦ļ
à¦· à¦°à¦¨
à¦Ĳ à¦°
à¦¬à¦¸ à¦¤à¦ĺ
à¦īà¦ª à¦®à¦¨
à¦·à§Ł à¦«
à¦¨à¦ıà¦®à¦¨ à¦Ł
à¦ªà§ľ à¦ªà¦°
à¦¸à¦ª à§ľ
à¦ķà¦ª à¦¦à¦ķ
à¦ľà¦ª à¦²
à¦īà§İà¦¸à¦¬ à¦¬
à¦ªà¦¥ à¦¶
à¦ª à¦¹à¦ļ
à¦· à¦ķà¦ªà¦¦
à¦ĵ à¦Ĩà¦ĩà¦¨
à¦ıà¦ķà¦ľà¦¨ à¦ĸ
à¦ķà¦¶à¦¨ à¦Ł
à¦°à¦Ĩà¦²à¦® à¦¡
à¦¨ à¦īà¦ªà¦¹
à¦§ à¦ıà¦ķ
à§İ à¦ıà¦ķà¦Ł
à¦²à¦¹ à¦ķà¦«
à¦¯ à¦īà¦ªà¦¨
à¦Ł à¦°à¦ļ
à¦ĸà¦¨ à¦¨à¦ķ
à¦¬à¦² à¦¹à¦¯
à¦§à¦¨ à¦ªà¦°
à¦· à¦ħà¦ª
à¦¬à¦¸ à¦¤à¦¬
à¦¶à¦¨ à¦ıà¦²
à¦¹à¦¯ à¦¦
à¦ķà¦¨ à§Ł
à¦°à¦Ĩà¦°à¦ĵ à¦ªà¦¡
à¦¬ à¦®à¦ľ
à¦Ĺ à§Ł
à§§à§¯ à§¨à§¨
à¦ľ à¦¬à¦ķ
à¦ĵà¦¬ à¦¡
à¦Ĩ à¦°à¦ł
à¦Ĳ à¦ļ
à¦£à¦¬ à¦¯
à¦¹à¦¸ à¦¦
à¦ª à¦Ŀ
à¦¬ à¦ıà¦¨
à¦¤à¦¬ à¦ª
à¦°à¦ķà¦® à¦ıà¦ķà¦Ł
à§§à§¯ à§¨à§§
à¦² à¦ıà¦¡
à¦Ĺ à¦ľà¦¬
à§Ńà§« à§¦à§¦
à¦§ à¦®à¦ķ
à§§à§¬ à§§à§§
à¦ľà§Łà¦¨ à¦Ĺ
à¦īà¦ª à¦¸à¦¹à¦ķ
à¦ıà¦¸à¦¬ à¦¶
à¦ĵ à¦ħà¦¶
à¦ĵà¦¬ à¦Ł
à§Ł à¦®à¦ª
à¦¶ à¦²à¦¸
à¦ĵ à¦ıà¦ķà¦ĩ
à¦¶ à¦ħà¦¸
à¦¬à¦ķ à¦ıà¦¬
à¦¤ à¦®à¦¤à¦²
à¦¨à§Łà¦¨ à¦¸à¦®
à¦² à¦²à¦®
à¦°à¦£ à¦¤à¦Ń
à¦¤ à¦ħà¦¶
à¦¤ à¦¹à¦°
à¦¨à¦Ĺ à¦£à¦¤
à¦¨à¦« à¦ĸà¦°
à¦¶à¦² à¦ħà¦§
à¦² à¦ĩà¦ķ
à§¨ à§¨à§¯
à¦ı à¦°à¦ķà¦¥
à¦® à¦·
à¦§ à¦¸à¦¨
à¦ıà¦ķà¦ľà¦¨ à¦Ľ
à¦ıà¦ĩ à¦¹à¦¤
à§İ à¦Ĩà¦²
à¦¹à§Ł à¦ķà¦°
à¦°à¦¸à¦ķ à¦²à¦¨
à¦łà¦ķ à¦ħà¦¨
à¦¥ à¦°à¦®
à¦¶à¦¹ à¦°à¦ª
à¦¯à¦ĸà¦¨ à¦ĸ
à¦ħà¦¬ à¦ĩà¦¨
à¦¬à¦² à¦¬à¦¨
à¦§ à¦ªà¦¥
à¦¯à¦ĸà¦¨ à¦ļ
à¦¹ à¦¨à¦¤à¦¬
à¦¸à¦¬ à¦¸à¦®à§Łà¦¸
à¦Ł à¦ªà¦¡
à§©à§¯ à§Ń
à¦¡ à¦ľà¦¨
à¦°à¦£ à¦ĵà¦®
à¦«à¦² à¦ĸ
à¦¸ à¦ĩà¦®
à¦¤ à¦ĵà¦¹
à¦Ŀ à§ľà¦¬
à§¨à§¦ à§¨à§¦à§¨à§¨
à¦ľà¦¨ à¦ļà¦Ł
à¦°à¦Ĩ à¦¨à¦¶
à¦°à¦¶ à¦«
à¦°à¦¤ à¦®à¦£
à¦ķ à¦īà¦ªà¦¸
à¦§à¦¨ à¦ĵà¦ª
à¦¸à¦«à¦² à¦¹à§Ł
à¦®à¦¶ à¦¹à¦°
à¦¨ à¦ĺà¦£
à§Łà¦® à¦Ł
à¦¬à¦ķ à¦ĸ
à§©à§© à§ª
à¦ª à¦īà¦¤
à¦¦ à¦ıà¦Ł
à¦° à¦°à¦¤
à¦¤ à¦ħà¦Ĺ
à¦¤ à¦°à¦ħ
à¦°à¦ĩ à¦ķà¦°
à¦ª à¦ļà¦Ł
à¦¶ à¦ĩà¦ľ
à¦ĩà¦¨ à¦ľà¦¨
à¦¬ à¦īà¦ª
à¦¹ à¦¨à¦ıà¦¬
à¦· à¦ľà¦¨à¦ķ
à¦ĵ à¦ªà§ľà¦¤
à¦Łà¦¸ à¦ļ
à¦Ľà¦¨ à¦«
à¦¤ à¦ĵà¦¶
à¦¸à¦« à¦°à¦ķ
à¦¯à¦¤ à¦¸
à§Łà¦Ĺ à¦¤à¦ķ
à¦ĩà¦ª à¦£
à¦® à¦ıà¦°à¦¬
à¦®à¦« à¦¸
à¦ĩà¦¤ à¦¸
à¦°à¦®à¦£ à¦ıà¦¬
à§®à§®à§¦ à§¨à§¯
à¦¯ à¦ļà¦²
à¦¦ à¦Ĩà¦ľ
à¦¸à¦¸ à¦ļ
à¦¡ à¦¨à¦¸
à¦ĩà¦ª à¦°à¦¬à¦°
à¦¤ à¦īà¦ł
à¦¯ à¦¸à¦ª
à¦ıà¦ĸà¦¨ à¦ĵà¦ħà¦¨
à¦®à¦¨ à¦Ĩà¦²
à¦¨à¦ı à¦ķà¦°
à§Ł à¦ĺà¦°
à¦¥ à¦ķà¦ķ
à¦Ĺ à¦ĵà¦¤
à¦² à¦ıà¦ķà¦¬
à¦ľ à§Łà¦Ĺ
à¦¨à¦Ĩ à¦¶à¦°
à§®à§Ń à§ªà§ª
à¦°à§Ł à¦²
à¦°à¦¨ à¦Ĩà¦®
à¦¨à¦¸ à¦¹à¦ª
à¦Ľ à¦ķà¦¬
à¦ħà¦¤à¦ıà¦¬ à¦¤
à¦¯ à¦Ĩà¦¦à¦°
à¦°à¦® à¦ħà¦¬
à¦ķà¦² à¦¨à¦¬
à¦® à¦ıà¦°à¦ķ
à¦¹ à¦°à¦Ń
à¦°à¦ĵ à¦ħ
à¦® à¦ıà¦®à¦ª
à¦¿ à§į
à¦® à¦Ĩà¦°à¦ķ
à¦°à¦ı à¦ĩà¦Ľ
à¦¨à¦ı à¦°à¦¶
à¦¬ à¦ĩà¦°
à¦ı à¦ıà¦ĩà¦ļ
à¦® à¦ıà¦ª
à¦Īà¦¦ à¦īà¦ªà¦¹
à¦Ĺà¦¤ à¦¹
à¦ı à¦Ļ
à¦¤à¦ķ à¦¯
à¦²à¦ª à¦ŀ
à¦ĸ à¦¤à¦®
à§¨à§Ń à§©
à¦® à¦°à¦¶
à¦¯à¦ĸà¦¨ à¦¹
à¦¸ à¦¸à¦ª
à¦ĵ à¦īà¦ªà¦ķ
à¦¹à¦² à¦¥
à§§à§¬ à§§
à¦°à¦ıà¦ķ à¦¬à¦¨
à¦°à¦¨à¦¬ à¦Ĺà¦ł
à¦¹ à¦°à¦ľ
à¦¡ à¦®à¦¨
à¦¯ à¦ĵà¦Ń
à¦Ĩ à¦°à¦ĩ
à¦°à¦ª à¦°à¦¬à¦²
à¦ľ à¦ľà¦®
à¦ķà¦² à¦Ĺ
à¦¨ à¦Īà¦®
à¦Ĺ à¦°à¦¨
à¦¨à¦ĵ à¦ıà¦ķà¦Ł
à¦°à¦Ĩà¦°à¦ĵ à¦Ń
à¦¸ à¦ıà¦®
à¦Ĺ à¦¸à¦®à¦¯
à¦°à¦Ľ à¦²
à¦¯à¦ķ à¦°à¦¶
à¦¨à¦Ĺ à¦¤à¦®
à¦ķ à¦Ĩà¦ļ
à¦ķà¦¸ à¦°à¦ŀ
à¦ķ à¦ıà¦°
à¦°à¦ıà¦ķ à¦ľà¦¨à¦ķà¦°
à¦® à¦Ĩà¦ĩà¦¨à¦Ĩà¦¦
à§§à§¯ à§ªà§¨
à¦ĩ à¦§à¦¨
à¦¬ à¦ıà¦Ł
à¦ľà¦¨ à¦ķà¦°à¦²
à¦°à¦ıà¦ķ à¦ĸ
à§¨à§® à§Ń
à¦ĵà¦¹ à¦°à¦²
à¦¬à¦ĩ à¦ķà¦®
à¦¸à¦°à¦£ à¦ķà¦°à¦¬
à¦Ĩ à¦°à¦¸à¦¬
à¦ĵ à¦ħà¦ķ
à¦¹ à¦ĩà¦¨
à¦Łà¦¨ à¦ĵà¦Ĺ
à¦°à¦¬ à¦ľ
à¦¯à¦¤à¦® à¦Ĺ
à¦ļ à¦®à¦¤
à¦ī à¦ıà¦¸
à¦ıà¦ĩ à¦®à¦°
à§Ńà§« à§«
à¦ª à¦ħà¦«
à¦°à¦®à¦¤ à¦Ń
à¦ľà¦¨ à¦¶à¦ķ
à¦¨à¦¬ à¦ľà¦®
à¦®à¦Ĩà¦² à¦¦
à¦§à¦¨ à¦ĵà¦¬
à¦¸ à¦ĵà¦°
à¦® à¦Ĺà¦°
à¦Ĩà¦°à¦ı à¦®à¦ª
à¦Ł à¦Ĺà¦¬
à¦¬à¦Ľ à¦°à¦ķà¦°
à¦¬ à¦°à¦¸à¦°
à¦ł à¦ĸ
à¦ĺ à¦¸à¦®à§Łà¦§à¦°
à¦ĩ à¦ĺà¦¨
à¦¨à¦¶ à¦®
à¦¶à¦ª à¦¥à¦Ĺ
à§Ł à¦¸à¦¬à¦ķ
à¦ĵ à¦¨à¦¸
à¦ľà¦¨ à¦¬à¦¸
à¦¨à¦¤ à§İà¦ķ
à¦®à¦¨ à¦¸à¦®
à¦¨à¦ıà¦ĸ à¦¨à¦¤
à¦¬à¦° à¦°à¦¬
à¦²à¦ķ à¦Ĩà¦²
à¦¸à¦¬ à¦ĸà¦¬à¦°à¦¦
à¦¦à¦ķ à¦ħà¦¨
à¦ħà¦ªà¦¹ à¦°à¦£à¦®
à¦ľà¦® à¦ħ
à¦«à¦² à¦¸à¦®
à¦·à¦£ à¦Ĩà¦®
à¦ĩà¦® à¦ļà¦°
à¦²à¦¨ à§Ł
à¦ıà¦¨ à¦īà¦¦
à§« à§¨à§¨
à¦ĩà¦ľ à¦Ń
à¦· à¦§à¦¨
à§Łà¦¶ à¦¹à¦°
à¦Ł à¦ªà¦¨
à¦¨ à¦ĩà¦īà¦ıà¦¨à¦ĵ
à¦¤à¦¨ à¦ĵà¦¸
à¦ıà¦ĸà¦¨ à¦Ł
à¦°à¦¸ à¦¹à¦®
à¦ıà¦ĩà¦ļ à¦Ĩà¦ĩà¦Ń
à¦¬à¦ĩ à¦ħà¦¸à¦¨
à§¦à§¬ à§¨à§¦à§¨à§¨
à¦Ĩà¦°à¦ĵ à¦Ĺ
à¦°à¦¹à¦£ à¦ħà¦¨
à¦¸ à¦ħà¦¤
à¦ı à¦ŀ
à§¨à§§ à§¨à§¦à§¨à§¨
à¦Ł à¦ĩà¦¨à¦¸
à¦ĸ à¦²à¦ķ
à¦¨à¦ıà¦¬ à¦Ľ
à¦Ĩà¦¹ à¦¤à¦°
à¦ľà¦¨à¦ķ à¦ħà¦¬à¦¸
à¦¦à¦² à¦Ľ
à¦¶ à¦¹à¦ļ
à¦²à¦ķ à¦¨à¦Ł
à¦¯à¦¬ à¦Ļ
à¦ªà¦® à¦ŀ
à¦ıà¦¸à¦¬ à¦ļ
à¦Ł à¦ħà¦¶
à¦¨à¦Ĩ à¦¸à¦¬
à¦² à¦¸à¦®à¦¯
à¦°à¦· à¦¡
à¦¡ à¦®à¦§
à§ªà§ª à§Ń
à¦°à¦®à¦¤ à¦¯
à¦· à¦Ńà¦Ł
à¦ħ à¦¦à¦®
à¦¨à¦¬ à¦¸à¦¤
à¦ĸà¦¬ à¦°à¦Ń
à¦¸ à¦²à¦ķ
à¦² à¦Ĩà¦¸à¦²
à¦ľ à§Łà¦¤
à¦ĩà¦¶ à¦¹à¦°
à¦ĵ à¦ĺà¦Ł
à¦ľà§Ł à¦ļà¦ķ
à¦Ł à¦²à¦¬
à¦¸à¦¦ à¦°à¦¸
à¦® à¦ĩà¦ª
à¦°à¦Ń à¦®
à¦°à¦¸à¦¬ à¦ķà¦Ł
à¦¸à¦ķà¦² à¦°
à¦°à¦¦ à¦«
à¦ªà§ľ à¦¦
à¦¶ à¦ĵà¦ķ
à¦§ à¦¬à¦ķ
à¦¨à¦ĵ à¦ĩà¦¬
à§¨à§¯ à§¬
à¦Ĺà¦² à¦¹à§Ł
à¦¹ à¦ķà¦°à¦Ľ
à¦²à§Ł à¦ĸ
à¦¤ à¦°à¦®à¦¨
à§İ à¦¬à¦¨
à§Łà¦¦ à¦Ĩà¦¬
à¦¶à¦¸ à¦¹à¦¬
à¦¤ à¦ĺà¦°
à¦ľ à¦¸à¦¨
à§§à§¯ à§¦à§«
à¦¤ à¦ĵà¦ħà¦¨
à¦ĵ à¦¨à¦¦
à§İ à¦Ł
à¦ıà¦®à¦¨ à¦®à¦¨
à¦¯ à¦ıà¦ĩà¦¸
à¦Ĩ à¦ªà¦Ł
à¦Ĩà¦°à¦ı à¦¸à¦ıà¦¸
à¦°à¦Ĩ à¦°à¦ı
à¦¸ à¦ĩà¦īà¦°
à¦¸à¦ķà¦² à¦²
à¦ķà¦¸ à¦²
à¦ķà¦¸ à¦¹à¦¬
à¦® à¦ķà¦®à¦²
à¦Ĺ à¦®à¦¶
à¦°à¦Ĩ à¦²à¦¹
à¦¶ à¦¦à¦¬
à¦Ĺ à¦ĩà¦īà¦¨
à¦§ à¦¹à§Łà¦¨
à¦¨ à¦¯à¦¨
à¦Ķà¦· à¦§à¦ķ
à¦¬ à¦ĩà¦¹
à¦ĩà¦¨ à¦·
à¦¤ à¦°à¦ľà¦¨
à¦Ĩà¦® à¦²à¦ķ
à¦¥ à¦ĵ
à¦¸à¦« à¦²à¦¬
à¦ķà¦ĸà¦¨ à¦ĵà¦ķ
à¦®à¦Ĩ à¦°à¦¨
à¦°à¦ħ à¦«à¦²
à§Ł à¦ıà¦¸à¦ıà¦¸à¦¸
à§Łà¦¨ à§Ł
à¦®à¦¸ à¦¶
à¦¦à¦® à¦ŀ
à¦ıà¦°à¦¸ à¦¹à¦¯
à¦¸ à¦ĩà¦¬
à¦¨à¦¬ à¦īà¦ª
à¦ĩ à¦ĵà¦ĩ
à¦ıà¦ķ à¦ħà¦¦
à¦ľ à¦ĵà¦¨
à¦°à¦¸ à¦¦à¦°à¦ķ
à¦¨à¦¦ à§Ł
à§«à§¦à§¦ à§¦à§¦
à§Ł à¦ıà¦®à¦ª
à¦®à¦°à¦¤ à¦Ĩà¦Ľ
à§§à§¯ à§§à§©
à¦ķà¦ĸà¦¨ à¦ĵà¦¬
à¦ıà¦¡ à¦ĵà§Ł
à¦ķà¦¸à¦®à§Ł à¦²
à¦² à¦ĩà¦ľ
à¦¨à¦Ĺ à¦°à¦ľ
à¦ķà¦ĵ à¦Ĩà¦°
à¦ıà¦ķ à¦ĺà¦¨
à§Ŀ à¦Ń
à¦¶ à¦īà¦ļ
à¦ķà¦ķ à¦ł
à¦® à¦°à¦¹à¦®
à¦¶à¦ķ à¦ł
à¦¨à§Ł à¦¤à¦¬
à¦ķà¦¶à¦¨ à¦¨
à¦ķ à¦Ĺà¦°
à¦® à¦ħà¦ŀ
à¦ī à¦¬à¦ª
à¦ĩà¦¬ à¦¤
à¦¤ à¦Ĩà¦§
à¦¥ à¦ķà¦®
à¦ķà¦ļ à¦ķà¦°
à¦°à¦Ĩ à¦²à¦¬
à¦ıà¦¸ à¦ıà¦®à¦¬
à¦²à¦Ĩ à¦ĩà¦¸
à§¨ à§§à§¯
à¦Ĭ à¦²
à¦· à¦Ĺà§ľ
à¦¯à¦ķà¦° à¦ªà¦°
à§¨à§¦à§§à§Ńà§¨à§¦à§§à§®à§¨à§¦à§§à§¯à§¨à§¦à§¨à§¦à§¨à§¦à§¨à§§ à§¨à§¦à§¨à§¨à§¨à§¦à§¨à§©
à¦¶ à¦ĩà¦īà¦¨
à¦°à¦¸à¦ķà¦² à¦¦
à¦¯ à¦Ĩà¦°à¦ĵà¦ªà§ľ
à¦ªà¦ķ à¦Ĩà¦¬
à§§à§® à§§
à¦Ĺà¦£à¦Ńà¦¬à¦¨ à¦¥
à¦°à¦£ à¦¤à¦®
à¦Ł à¦°à¦ķà¦®
à¦ķ à¦¶à¦¤
à¦¯ à¦°à¦ľà¦¨
à¦¹ à¦ķà¦¨
à¦ĺ à¦·à¦¤
à¦ł à¦¸à¦¨
à¦®à¦¨ à¦ªà¦°
à¦¨ à¦Ĩà¦¸à¦Ľ
à§¨à§¦à§¨à§¨ à§¬
à¦ĩà¦¨ à¦Ľ
à¦®à¦¸ à¦Ļ
à¦¹à¦¸ à¦ľ
à¦ļà¦ķ à¦¹
à¦ıà¦¸à¦¬ à¦Ń
à§Ł à¦Ĩà¦ĩà¦¨
à¦°à¦ı à¦¡à¦®
à§§à§¦ à§©à§¦
à§Ł à¦ļà¦ķ
à¦°à¦īà¦ª à¦°à¦Ĩà¦®
à¦ķà¦¸à¦¹ à¦¸à¦Ń
à¦¯à¦ķà¦° à¦ķ
à¦¥ à¦Ĩà¦¦
à¦°à¦ıà¦ĩ à¦Ĩà¦°
à¦² à¦ĺà¦Łà¦¨
à¦² à¦°à¦¶
à¦· à¦ĵà¦¨
à¦ī à¦ĩà¦¸
à§ľ à¦ıà¦²
à¦£ à¦®à¦ľ
à¦ı à¦¨à¦°
à¦Ĩà¦¹ à¦¤à¦¬
à¦ķà¦¸ à¦«
à¦°à¦¸à¦®à§Ł à¦¥
à¦ĩ à¦Ĩà¦°à¦¤
à¦°à¦Ĩ à¦ĩà¦ľ
à¦® à¦¬à¦²à¦¤
à¦Ńà¦¬à¦¨ à¦Ł
à¦ķ à¦°à¦ŀ
à¦¬à¦¨ à¦ĵà¦ľ
à¦°à¦ħà¦¬à¦¸ à¦°à¦ª
à¦ı à¦ıà¦¬
à¦Ł à¦²à¦¸
à¦°à¦¤ à¦¸à¦«à¦°
à¦°à¦ı à¦®à¦ı
à§¨à§§ à§§à§¨
à¦°à¦ĸ à¦¸à§ľ
à¦°à¦ĺ à¦°à¦ª
à§Łà¦¨ à¦ıà¦¬
à¦¬ à¦°à¦ıà¦ķà¦Ł
à¦Ł à¦«à¦²
à§Łà¦¨ à¦ļ
à¦¤ à¦¶à¦¹
à¦¦ à¦¨à¦ķà¦°à¦Ľ
à¦ļ à§Łà¦®
à¦ĩà¦¨ à¦¬à¦²
à¦°à¦¥à¦® à¦ħà¦§
à¦¶ à¦ĩ
à¦§ à¦ĵà¦¨
à¦¸ à¦ľà¦°
à¦¯ à§Łà¦®
à¦«à¦« à¦«
à¦ıà¦ĩ à¦ıà¦ķà¦Ł
à§Ł à¦ĵà¦ķ
à¦¨à¦ıà¦ĩ à¦¹
à¦¯ à¦°à¦ŀ
à¦ľ à¦īà¦ķ
à¦ªà¦£ à¦ķà¦°à¦¤
à¦°à¦ıà¦ĩ à¦¸à¦®
à¦²à¦Ĩà¦² à¦®à¦ļ
à¦ķ à¦°à¦ĺà¦Łà¦¨
à¦¨ à¦īà§İà¦¸
à¦¯à¦ķ à§Ł
à¦Ł à¦ıà¦°à¦ķ
à¦¹ à¦¹à¦¬
à¦Ĺà¦¤ à¦«
à¦ķ à¦ıà¦¡
à¦ª à¦¤à¦¬
à¦· à¦°à¦¬
à§ľ à¦¸à¦®
à¦Ĩà¦® à¦¤
à¦Ĩ à§Łà¦ķ
à¦ķà¦ľà¦¨ à¦¶
à¦¦ à¦¤à¦ķ
à¦ªà¦¥ à¦¯
à¦ª à¦²à¦®
à¦¦ à¦°à¦ĵ
à¦²à¦ľ à¦¯
à¦¤à¦®à¦¤ à¦¸
à¦Ĩà¦² à¦ĩà¦®à¦°
à¦ī à¦ħà¦¨
à¦°à¦£ à¦ıà¦¤
à¦ħà¦¸ à¦ļ
à¦¹à¦¤ à¦ľ
à¦®à¦¦ à¦ĩà¦¬à¦¨
à§Łà¦ķ à¦¹à¦¬
à¦ł à¦Ĺà§ľ
à¦Łà¦¸ à¦¦à¦¸
à§İà¦¸ à¦ķà¦ķ
à¦¨à¦¨ à¦¦à¦Ń
à¦®à¦¸ à¦ł
à¦« à¦Łà¦ķ
à¦ıà¦ķ à¦ķà¦Ń
à¦¤à¦¨ à¦ľà¦¨
à¦·à¦£ à¦¬à¦°
à¦¸ à¦Ĩà¦ª
à¦Ł à¦°à¦Ń
à¦®à¦ķ à¦Ĩà¦®
à¦¬à¦Ľ à¦°à¦°
à¦¸à¦ķà¦² à¦Ń
à§§à§¯ à§©à§®
à¦°à¦¬ à¦ļà¦¨à¦ª
à¦°à¦£ à¦Ĩà¦Ľ
à¦ĵà¦ķ à¦²à¦ķ
à¦ķà¦° à¦²à¦¸
à¦·à¦£ à¦ħà¦§
à¦ıà¦¸à¦¬ à¦Ĺ
à¦¤ à¦īà§İà¦¸à¦¬
à¦® à¦ĺà¦Łà¦¨
à¦¨à¦Ĩ à¦¤à¦¤
à¦°à¦ıà¦ķà¦® à¦¹
à¦¸ à¦Ĩà¦¤
à¦°à¦Ĩ à¦¬à¦¶
à§§à§¯ à§§à§«
à¦¯ à¦¦à¦ķ
à¦°à¦ı à¦ĩà¦ķà¦¥
à¦Ĩà¦¹ à¦°à¦£
à¦°à¦ª à¦¥à¦¨
à¦ķ à¦°à¦ĺ
à¦¬ à¦ıà¦¸
à¦°à¦¨ à¦°à¦¸
à¦°à¦¤ à¦ĵà¦¬
à§¨ à§§à§©
à¦¤à¦ľ à§Łà¦¨
à¦ħà¦ª à¦°à¦Ł
à¦® à¦ĩà¦¨à¦¸
à¦²à¦Ĩ à¦ļ
à¦°à¦¥à¦®à¦¦ à¦«
à¦ķ à¦¹à§Łà¦¨
à¦°à¦ª à¦°à¦ĵà¦¸
à¦¬à¦Ľ à¦°à¦Ń
à¦¦ à¦°à¦¸à¦®
à¦Ń à§Łà¦¦
à¦°à¦ľ à¦¹
à¦¨à¦¦ à¦¨
à§©à§© à§¯
à¦¦à¦¨à¦® à¦¤
à¦ªà¦¨ à¦ķà¦®
à¦ıà¦ĩ à¦§à¦°
à¦¬à§ľ à¦Ĺ
à¦ª à¦£à¦¬
à¦·à§Ł à¦Ľ
à¦Ľ à¦ªà¦¦
à¦°à¦¦ à¦²à¦Ł
à¦ľà¦¨ à¦°à§Ł
à¦īà¦¨ à¦¦
à¦®à¦ľ à§Łà¦¨
à¦°à¦ĵ à¦ħà¦§
à¦ķà¦Ł à¦¸à¦®
à¦®à¦² à¦Ńà¦Ł
à¦ĩà¦ª à¦Ł
à¦¨à¦ĵ à¦¸à¦®à¦¯
à¦īà§İ à¦ķà¦°
à¦¬ à¦°à¦§
à¦īà¦¥ à¦ĩà¦¸
à¦īà§İ à¦¯
à¦°à¦ķ à¦ĵà¦¬
à§ľ à¦¨à¦¸
à¦ľà¦¨ à¦Ĩà¦¸
à¦ķ à¦°à¦ļà¦¨
à¦ĸà¦¨ à¦¥
à¦ĸ à¦īà¦ªà¦¸
à¦¹à§Ł à¦ħà¦Ń
à¦ıà¦ĩà¦¨ à¦¯
à¦°à¦¬ à¦¸à¦¨
à¦¬à¦¸ à¦Ĺ
à¦°à¦² à¦Ł
à¦¬à¦¬ à¦¹
à§«à§« à§¯
à¦¸ à¦Ĩà¦¸
à¦ıà¦ĩ à¦ıà¦ķ
à¦¬ à¦°à¦ĵà¦¯
à¦ı à¦°à¦īà¦ªà¦°
à¦¶ à¦ķà¦Ł
à¦¤à¦īà¦ª à¦¬
à¦¨à¦ı à¦¡à¦Ń
à§Ł à¦°à¦Ĩà¦¤
à¦·à¦£ à¦Ľ
à¦ķà¦ª à¦¡
à¦²à¦Ĩà¦² à¦®à¦Ĺ
à¦¨à¦Ĺ à¦°à¦Ł
à¦ªà¦£ à¦¸
à¦¡ à¦ªà¦²
à¦°à¦ķ à¦®à¦®
à¦¤à¦ķ à¦ľ
à¦¶ à¦ıà§Ł
à¦°à¦Ĺ à¦«à¦°à¦Ĺ
à¦°à¦ķ à¦¤à¦¦
à¦¨à¦¸ à¦¡
à¦¶à¦¨ à¦ĩà¦¤
à¦¬ à¦ĩà¦īà¦ªà¦ķ
à¦²à¦¸ à¦ĵà¦¯
à¦¬à¦²à¦² à¦¯
à¦ľ à¦ĩà¦¸à¦²
à¦ĺ à¦°à¦°
à¦ķà¦¤ à¦ļ
à¦°à¦¸à¦® à§Łà¦ľ
à¦¦à¦ª à¦¶
à¦°à¦ķà¦® à¦ªà¦ķ
à¦® à¦ıà¦¦
à¦¬à¦¸ à¦Ĩà¦¨
à¦Ĳ à¦¯
à¦ħà¦® à¦°à¦ıà¦ķ
à¦°à¦® à¦ĵà¦¦
à¦¬à¦ª à¦¶
à¦°à¦ı à¦®à¦¬
à¦² à¦²à¦¨
à¦¨à¦¬ à¦ĩà¦Ł
à¦® à¦«à¦°
à¦°à¦¦ à¦«à¦¤
à¦ıà¦ĩ à¦¶à¦¹à¦°
à¦²à¦¨ à¦ľà¦°
à§§à§¯ à§©à§©
à¦¬à¦¨ à¦ļà¦°
à¦²à¦¨ à¦īà¦ªà¦²à¦ķ
à¦¨à¦ı à¦°à¦¦
à§Łà¦ª à¦¶
à§©à§Ń à§ª
à¦Ĩà¦ĩà¦¨ à¦Ł
à¦Ī à¦¦à¦ª
à¦Ĩ à¦ĵà¦²
à¦°à¦Ĩ à¦°à¦¦
à¦¯ à¦«à¦²
à¦Ĺ à¦ĵà¦¨
à¦¡ à¦®à¦°
à¦·à¦£ à¦¸à¦®à¦¤à¦²à¦ª
à¦²à¦Ĩ à¦ĩà¦Ł
à¦ª à¦ªà¦¦
à¦ķ à¦ıà¦ĸà¦¨
à¦§ à¦°à¦¯
à¦ĸ à¦ªà¦¤
à¦ĸ à¦²à¦¤
à¦¯ à¦ħà¦¥à¦¬
à¦²à¦Ĩ à¦ĩà§Ł
à¦°à¦®à¦¨ à¦ĸ
à¦Ĭ à¦¦
à¦¶à¦ķà¦¤ à¦¦à¦¨
à¦£à¦¬ à§Łà¦¸
à¦Ĩ à¦ĸà¦°
à¦¯à¦¤ à¦®à¦¨
à¦¬à¦Ľ à¦°à¦¹
à¦® à¦īà¦ļ
à¦ıà¦ĩ à¦Ĩà¦®
à¦¨à¦Ĩ à¦ľà¦¹
à¦ľà¦¬à¦Ľ à§ľ
à§§à§¯ à§©à§Ń
à¦®à¦¦ à¦¯
à¦ĸ à¦Łà¦¨
à§¯ à§©à§¦
à¦¨à¦ķ à¦²à¦¬
à¦¬à¦Ľ à¦°à¦Ĺ
à¦ķ à¦ĵà¦¸à¦®
à§¨à§¦à§§à§® à§¦
à¦ª à¦ħà¦²
à¦°à¦ı à¦¤à¦¥
à¦¤ à¦īà¦ªà¦ķ
à¦ĵ à¦ıà¦ĩà¦ª
à¦¨à¦Ĺ à¦¤à¦¬
à¦¨à¦« à¦ľà¦²
à¦¡ à¦¬à¦°
à¦£ à¦¹à¦ļ
à¦¨à¦¦ à¦²à¦ķ
à¦ı à¦°à¦ķà¦°
à¦£ à¦ħà¦¬à¦¦
à¦¨à¦ıà¦ĩ à¦ĺà¦Łà¦¨
à¦¤ à¦²à¦Ĺ
à¦¬à¦¨ à¦īà§İà¦¸à¦°
à¦Ĺà¦ł à¦¨à¦¶
à¦¯ à¦¸à¦¹à¦ľ
à¦°à¦¸ à¦Ĺ
à¦°à¦Ĩ à¦°à¦ıà¦ķà¦Ł
à¦¸à¦®à§Ł à¦¯
à¦ıà¦® à¦Ĩà¦ĩ
à¦¸à¦«à¦² à¦¹à¦¤
à¦ĩà¦ľ à¦¸
à§®à§®à§¦ à§¨à§®
à§©à§Ń à§¬
à§©à§® à§«
à¦¤à¦ĸà¦¨ à¦ħà¦¨
à¦²à¦ķ à¦Ĩà¦¬
à¦Ł à¦ħà¦ķ
à¦ĩ à¦Īà¦¦
à¦°à¦ı à¦¤à¦¦
à¦·à¦£ à¦Ĩà¦Ĺ
à¦ĩ à¦ħà¦²
à¦ı à¦ªà¦¦
à¦² à¦¨à¦¬à¦¨
à¦· à¦°à¦£
à¦¯à¦ĵ à¦ħà¦°
à¦®à¦ĵ à¦ħà¦°
à¦ª à¦ĸà¦°à¦ļ
à¦ĵ à¦ıà¦°à¦ª
à¦ı à¦Ĩà¦¦
à¦ļ à¦ĵà§ľ
à¦°à¦Ĩ à§Łà¦¨
à¦ľà¦¶ à¦¹
à¦ĸ à¦¹à¦¤
à¦®à¦¬ à¦ķ
à¦®à¦ĵ à¦°à¦«
à¦ķà¦ķà¦² à¦¹
à¦ķ à¦¬à¦²à¦¤
à¦ľ à¦°à¦¯
à¦Ĺ à¦¸à¦¨
à¦ĵ à¦Ĩà¦ªà¦²
à¦Ĺà¦°à¦® à¦¬
à§ªà§¦ à§®
à¦ªà¦¦ à¦īà¦¨
à¦°à¦ıà¦ĩ à¦§à¦°à¦¨
à¦¨à¦¦ à¦ĸà¦²à¦ķà¦°
à¦°à¦Ĩà¦² à¦Ĩà¦®
à¦Ľ à¦ıà¦¬
à¦Ļ à¦ķ
à¦¦à¦¨ à¦¹à§Ł
à¦®à¦¦ à¦Ĩà¦¨
à¦¨à¦ķ à¦ļ
à¦ªà¦¨ à¦Ĺà¦°
à¦¥ à¦ļà¦ķ
à¦Ĺà¦£ à¦¯
à¦Ĺà¦ł à¦¨à¦¦
à§¨ à§§à§§
à¦ĺ à¦°à¦ķ
à§ľ à¦¯
à¦°à¦¹ à¦ıà¦¬
à¦°à¦¹à¦£ à¦ıà¦¬
à¦ļà¦ķ à¦ļ
à¦°à¦£ à¦¤à¦¦
à¦°à¦¸à¦® à§Łà¦Ń
à¦·à§Ł à¦ľ
à¦°à¦¦ à¦¶à¦®
à¦ĩà¦Ĺ à§ľ
à¦® à§Łà¦Ń
à¦« à¦®à¦¹
à¦īà¦ľ à¦ĸ
à§§à§® à§¨à§¦à§¨à§¨
à¦¨à¦¡ à¦¬
à¦ľ à¦ıà¦°à¦¸
à¦Ĩà¦°à¦ĵ à¦²
à§¬ à§ªà§¯
à¦²à¦¨ à¦ĸ
à§İ à¦īà¦¦
à¦¨à¦ĵ à¦ł
à¦ıà¦« à¦ıà¦®
à¦ľà¦¨ à¦ıà¦Ľ
à¦Ĺ à¦¦à¦ķ
à¦ķà¦Ĺ à¦¡
à¦°à¦¦à¦² à¦ĺ
à§Ł à¦Ĺà¦¬
à¦¦à¦¶ à¦«
à¦ľ à¦ıà¦¨
à¦¨à¦ĵ à¦Ĩà¦®
à¦® à¦ıà¦°à¦¨
à§Łà¦¬ à¦¦à¦²
à§§à§¨à§¦ à§¬
à¦Ľà¦¦ à¦ıà¦ķ
à¦°à¦ĭ à¦£à¦ª
à§§à§¯ à§¨à§Ń
à¦¯ à§Łà¦¸
à¦ı à¦ĺ
à¦¨à¦ı à¦ªà¦°
à¦Ĩà¦¹à¦¤ à¦¹à¦¯
à¦² à¦ıà¦ĩà¦¸
à¦Ń à¦°à¦¬
à§«à§¦ à§«
à¦¤ à¦²à¦¤
à¦¬ à¦¯à¦¦
à¦¡ à¦ķà¦°à¦²
à¦°à¦ı à¦ķà¦²
à¦ª à¦¥à¦¬
à¦°à¦ĵà¦ª à¦°à¦¶
à§§à§¦à§¦ à§©
à¦²à¦Ĩà¦² à¦®à¦ĸ
à¦¤à¦¹ à¦¨à¦¸
à¦Ł à¦Ĩà¦īà¦Ł
à¦ĩà¦ķ à¦·
à¦°à¦ıà¦ķ à¦ľà¦¨à¦¶
à¦ĩà¦¨ à¦¶à¦ª
à§Łà¦¬ à§ľ
à¦²à¦¤ à¦«
à¦ªà¦¸ à¦ıà¦¬
à¦² à¦ıà¦°à¦ķ
à¦°à¦ı à¦ĩà¦ķà¦°
à¦· à¦¸à¦¤
à¦¡ à¦ħà¦¸
à¦ķà¦¸à¦®à§Ł à¦ħà¦¨
à¦°à¦īà¦ª à¦°à¦Ľ
à¦¤ à¦ľà¦¨à¦¤
à¦°à¦¸ à¦¨à¦¬
à¦²à¦ķ à¦ĸà¦¨
à¦ħ à¦Ĺà¦£
à¦¨à¦ĵ à¦Ĩà¦ķ
à¦°à¦®à¦¨à¦ľ à¦¯
à¦°à¦ªà¦¥ à¦§à¦°
à¦¦ à¦ªà¦¦
à¦ĩ à¦ĩà§Ł
à§¨à§¬ à§Ń
à¦ķ à¦ıà¦°à¦¸
à¦¤à¦¨ à¦ħà¦¨
à¦¶ à¦¨à¦ķà¦®
à¦°à¦¹ à¦ķà¦°à¦Ľ
à¦°à¦ĵ à¦ĩà¦¨
à§Ł à¦ıà¦ĩà¦ķ
à¦ļ à¦°à¦ľ
à§« à§¨à§©
à§¨à§® à§¨à§¦à§¨à§¦
à¦°à¦¸à¦¹ à¦¨
à¦²à¦¹à¦ķ à¦Ĩà¦¨
à¦¸ à¦īà¦ļ
à¦¹ à¦°à¦¨à¦¬
à§ľ à¦ľà¦®
à¦·à§Ł à¦¹à¦ļ
à¦°à¦ª à¦¦à¦¬
à¦¦à¦¨ à¦Ĩà¦®
à¦¸à¦ķà¦² à¦¤à¦¥
à¦¨à¦ħà¦¤ à¦ıà¦¬
à¦Ĺà¦°à¦® à¦¸
à¦Ł à¦īà¦²
à¦¹à§Ł à¦Ĩà¦²
à¦¨à¦¦ à¦²à¦¸
à§Ł à¦¹à¦¸
à¦°à¦¬ à¦°à¦Ĺ
à¦¨à¦ķ à¦¦
à¦ĵ à¦ıà¦®à¦¨
à¦°à¦£ à¦¬à¦Ńà¦Ł
à¦¶ à¦²à¦®
à¦ĵà¦ª à¦£
à¦¸ à¦ľà¦¬
à¦ĩ à¦ĩà¦®
à¦ĩà¦¸ à¦«à¦²à¦¤
à¦¤à¦¤ à¦ıà¦ķà¦Ł
à¦°à¦£à¦¬ à¦¶à¦¤
à¦Ī à¦²
à¦°à¦¸ à¦«à¦Łà¦ĵà§Ł
à§¨ à§§à§¨
à¦°à¦ľ à¦²à¦ĸ
à¦°à¦Ĺ à¦ª
à¦¸à¦¨ à¦Ĺ
à¦¨à¦ħà¦ªà¦° à¦¦
à¦¤à¦ļ à¦²à¦¬
à¦ķ à¦¨à¦ķà¦°
à¦¸ à¦īà¦¨
à¦¹à§Ł à¦ıà¦ĺà¦Łà¦¨
à¦² à¦ĸà¦¨
à¦«à¦² à¦ķà¦°à¦¤
à¦Łà¦ķ à¦¡
à¦°à¦ĵ à¦¥
à§Łà¦ıà¦ķ à¦ķ
à¦ķà¦¸ à¦¦
à¦¤à¦ķ à¦ĸà¦¨
à¦¤à¦² à¦Ł
à¦ı à¦¤à¦¨
à§§à§§ à§§à§ª
à¦£ à¦Ĩà¦°
à¦Ĺà¦®à¦¨ à¦ķà¦°
à¦ķ à¦ĩà¦¦
à¦¹à¦² à¦ıà¦¬
à¦ķ à¦°à¦¶à¦ķ
à¦¶ à¦īà¦ªà¦ķ
à¦· à§Łà¦®
à¦¸à¦ķà¦² à¦§à¦°
à¦Ĺà¦² à¦Ľ
à¦¹ à¦Ĩà¦°
à¦¡ à¦¸à¦¸
à¦¸ à¦ļà¦ķ
à¦ĵ à¦Īà¦¦
à¦§ à¦ĩà¦¤
à§Ī à¦ĥ
à§Łà¦Ĺ à§ľ
à¦¤ à¦Ĩà¦ľà¦ķ
à¦¶à¦¨ à¦ħà¦°
à¦ļà¦°à¦® à¦Ń
à¦ħ à¦²à¦¸
à¦¤à¦® à¦ļ
à¦¯à¦® à¦¥
à¦ªà¦¥ à¦¸à¦Ń
à¦°à¦īà¦ª à¦°à¦Ĩà¦ķ
à¦¦ à¦Ĩà¦¹à¦¸
à¦¨à¦¸ à¦«à¦°
à¦Łà¦¸ à¦ıà¦¬
à¦Ĺà¦® à¦¯
à¦Ł à¦ĵà¦¦
à¦¸ à¦ĵà¦²
à¦¯ à¦®à¦¨à¦¸
à¦ıà¦ĩ à¦ĺà¦°
à¦¶ à¦ıà¦¦
à¦¨à¦Ń à¦¬à¦ĺ
à¦°à¦ªà¦°à¦¬ à¦²à¦²
à¦§ à¦Ĩà¦ªà¦¨
à¦°à¦² à¦¯
à¦ĵà¦Ń à¦°
à¦°à¦¨ à§Łà¦¤
à¦°à¦ľà¦¨ à¦¨à¦ķ
à¦¬ à¦°à¦®à¦¨
à¦ĵ à¦ľà¦¨à¦¨
à¦®à¦¤ à¦Ĺ
à¦ªà¦¦ à¦¹
à¦¦à¦¶ à¦ĵà¦¦
à¦°à¦¹à¦¯ à¦°à¦¤
à¦ħ à¦Ĺà¦¸
à¦ıà¦² à¦ĩà¦¡
à¦Ĩà¦² à¦Ń
à§İà¦¸ à¦ķà¦®
à¦Ń à¦¬à¦¦
à¦¬à¦¨ à¦Ĩà¦®
à¦¨à¦ıà¦ĩ à¦¸à¦®à¦¯
à¦¬à¦§ à¦²
à¦²à§Ł à¦¢
à¦Ł à¦ıà¦ª
à¦¹ à¦°à¦ªà¦ķ
à¦¥ à¦¨à¦ķ
à¦¹à§Ł à¦«à¦²
à¦ĩ à¦Ĩà¦°à¦ı
à¦¸à¦® à¦§
à¦īà§İ à¦ĸ
à¦ĵ à¦ĺà¦°
à¦ĵ à¦ıà¦°à¦¬
à¦¸ à¦ıà¦Ĺ
à¦ĩ à¦ħà¦®
à¦ĵ à¦¨à¦¯
à¦°à¦² à¦ŀ
à¦®à¦°à¦¤ à¦¸
à¦Ľ à¦Łà¦«
à¦¡ à¦²à¦®
à¦Ł à¦Ĩà¦®à¦°
à¦īà¦ª à¦§
à¦ħà¦¤ à¦Ł
à¦¹à¦² à¦¹
à§Łà¦® à¦ķà¦°
à¦²à¦ķ à¦ªà¦¦
à¦¯à¦¬ à¦¯
à¦°à¦®à¦£ à¦¦
à¦ķà¦¶ à¦¨à¦ķ
à¦Ľ à¦ĺà¦Łà¦¨
à¦¯ à¦ıà¦ķà¦ľà¦¨
à¦¯ à¦ħà¦ķ
à¦¨à¦¸ à¦¤à¦°
à¦ħà¦¥à¦ļ à¦Ĩà¦®
à¦ıà¦ĩ à¦īà¦¨
à¦®à¦¯ à¦ľ
à¦°à¦¹ à¦Ľ
à¦Ł à¦¶à¦ķ
à¦¹à¦¤ à¦Ł
à¦Ł à¦°à¦ħ
à§Ł à¦Ĩà¦¨à¦¨
à¦īà¦ª à¦Ĺ
à§Ł à¦īà¦ľ
à¦¹à§Ł à¦Ĩà¦°
à§©à§¯ à§®
à¦² à¦ĵà¦ļ
à§Ł à¦ĵà¦¨
à¦ī à¦ĩà¦¦
à¦°à¦Ĩ à¦¹à¦¤
à¦°à¦ĩ à¦ªà¦°
à¦Ł à¦²à¦¨
à¦¬à§ľ à¦ķà¦¥
à¦²à¦¹ à¦ľà¦®
à¦¨à¦ıà¦°à¦ª à¦°à¦¶
à¦ķà¦² à¦ľ
à¦¬à¦Ľ à¦°à¦ĸ
à¦°à¦®à¦£ à¦ł
à¦ī à¦¸à¦¬
à§§à§ª à§¨à§¦à§¨à§¨
à¦ªà¦¥ à¦ķ
à¦ĺ à¦°à¦¤
à¦¹à¦¤ à¦Ĩà¦Ľ
à¦Ĩà¦ĩà¦¨ à¦¦
à¦ķ à¦ıà¦ĩà¦ª
à¦°à¦Ĺ à¦ķ
à¦ĩ à¦ıà¦ĩà¦¨
à¦°à¦ª à¦°à¦ĩà¦¤
à¦īà¦ł à¦²à¦¸
à¦¨à¦ıà¦®à¦¨ à¦ıà¦ķà¦Ł
à¦°à¦ĩ à¦¨à¦¬à¦ķ
à¦ª à¦®à¦§
à¦¨à¦ıà¦ķ à¦¹
à¦¨à¦¤ à¦ĸà¦¨à¦¬
à¦ķà¦ª à¦¶
à¦¤ à¦¸à¦¬à¦ļ
à¦°à¦¬ à¦ĩà¦¯
à¦¬ à¦°à¦Ĩà¦¨
à¦®à¦¦ à¦Ĩà¦¸
à¦ĩà¦¨à¦¸ à¦¹
à¦®à¦« à¦ķ
à¦ķà¦Ĩà¦ª à¦ķà¦°
à¦² à¦ıà¦®à¦ª
à¦£ à¦ķà¦¥
à¦¦à¦ķ à¦Ĩà¦²à¦¹
à¦ĩà¦ķ à¦²à¦ķ
à¦¬ à¦¦à¦ķ
à¦Ĩ à¦°à¦Ĩà¦Ĺ
à¦Ĩà¦°à¦ĵ à¦®
à¦¨ à¦ĩà¦¸à¦®
à¦Ĩ à¦°à¦£
à¦ĵà¦¸ à¦Ń
à§Ł à¦ıà¦Ń
à¦°à¦Ľ à¦¦
à¦ķà¦°à¦¬ à¦¤
à¦°à¦¥à¦® à¦ħà¦¨à¦²
à§¨à§¨ à§¨à§©
à¦Ł à¦¶à¦°
à§Ł à¦¹à¦°
à¦°à¦« à¦¦
à§¨à§Ń à§ª
à¦ıà¦ķ à¦ĩà¦ķà¦¥
à¦°à¦ļ à¦ķà¦°
à¦¸à¦®à§Ł à¦¶
à¦®à¦ķ à¦Ĺ
à¦¨à¦² à¦ľ
à¦¤à¦ĸà¦¨ à¦¯
à¦Ĩ à¦£
à¦ħ à¦ĺà¦Łà¦¨
à¦ĩà¦® à¦¡
à¦¨à¦Ĺ à¦Ń
à¦Ł à¦¸à¦®à¦¸
à¦· à¦Ĩà¦Ĺ
à¦ĵ à¦Ĩà¦¸à¦²
à¦¬à¦ķ à¦Ń
à¦ľ à¦¶à¦¨
à¦°à¦ķà¦®à¦² à¦Ĺà¦ŀ
à¦¬ à¦ĩà¦īà¦¨
à¦ª à¦°à¦Ń
à¦ĵ à¦Ĩà¦ĩ
à¦¨à¦Ĺ à¦°à¦¦
à¦°à¦®à¦¤ à¦¹
à¦¨à¦ĩ à¦Ĩà¦¸
à¦¬ à¦ĩà¦¸à¦®
à¦°à¦ĸ à¦¸à¦°
à¦°à¦Ł à¦ª
à¦°à¦īà¦ªà¦° à¦²
à¦® à¦Ĺà¦¬
à¦¨à¦ıà¦ĩ à¦¶
à¦°à¦¶ à¦¤à¦Ń
à¦¯à¦ķ à¦®à¦¨
à¦ĩ à¦ħà¦¦
à¦°à¦¹ à¦Ĩà¦²
à¦ĩà¦® à¦¶
à¦ĵ à¦ķà¦¤à¦Ĩà¦²
à¦°à¦ı à¦¤à¦¸
à¦¶ à¦¶à¦°
à¦°à¦« à¦²à¦ķ
à¦¨à¦ıà¦¸à¦®à§Ł à¦īà¦ªà¦¸
à§Ł à¦Īà¦¦
à¦¯ à¦ĵà¦²
à¦ł à¦ł
à¦°à¦Ĩ à¦¨à¦ĵà¦¤
à¦ĸà¦¬ à¦°à¦ħà¦¨
à¦Ĺ à¦¸à¦¤
à¦Ľà¦¦ à¦Ĩà¦¨
à¦ª à¦Łà¦ķ
à¦ļ à§Łà¦ķ
à¦²à¦ª à¦¥à¦®à¦¨
à¦®à¦¸ à¦¹à¦ķ
à¦¸ à¦¶à¦¹
à¦ıà¦® à¦Ĩà¦ĩà¦¡
à¦¹à¦¤ à¦²
à¦Ĩà¦¶ à¦«
à¦¤à¦ĸà¦¨ à¦ĩà¦¤
à¦¨ à¦ĸà¦¬à¦°à¦¨
à¦ĩà¦Ń à¦¸à¦®
à¦Ĩà¦ĩ à¦ıà¦¸à¦¸
à¦ī à¦²à¦®
à¦²à¦¬ à§ľ
à¦ĩà¦ī à¦Ľ
à¦¦ à¦ıà¦¸
à¦Ŀ à¦ķ
à¦°à¦ĩ à¦ħ
à§¨à§¦à§§à§¯ à§¦
à¦ľ à¦ķà¦¸
à¦ıà¦ĩ à¦¬à¦¨
à¦¦à¦² à¦ļ
à§¨à§¯ à§Ń
à¦¥ à¦ħ
à¦ī à¦¡à¦ķ
à¦¶à¦¨à¦¬ à¦°
à§Ł à¦ľà¦¨à¦ķ
à¦¦ à¦¡à¦¸
à¦¬ à¦īà¦ªà¦ķ
à§Łà¦¦ à¦¹
à¦ľ à¦Ĺà¦²
à¦Ĺ à¦ħà¦¬
à¦§ à§ľ
à¦Ĩ à¦ĩà¦¦
à¦Ĳ à¦Ĺ
à¦°à¦®à¦¤ à¦ľ
à¦Łà¦¬ à¦Ļ
à¦ķà¦¸à¦¹ à¦Ĺ
à¦Ńà¦¬ à¦¬à¦²
à¦ķ à¦Ĩà¦Łà¦ķ
à¦Ĺ à¦ıà¦¸
à¦ĵ à¦ħà¦¸à¦®
à§¨à§¦à§¨ à§§à§¯
à§©à§¬ à§Ń
à§¨à§¦à§§à§Ńà§¨à§¦à§§à§®à§¨à§¦à§§à§¯à§¨à§¦à§¨à§¦à§¨à§¦à§¨à§§à§¨à§¦à§¨à§¨à§¨à§¦à§¨à§© à§¨à§¦à§¨à§ª
à¦ĵ à¦¬à¦²à¦²
à¦Ĩà¦°à¦ĵ à¦īà¦¨
à¦¤ à¦ıà¦ĸà¦¨
à¦ĵ à¦Ĩà¦ª
à¦¬à¦¨ à¦ħà¦¨
à¦ĩà¦² à¦ħà¦ª
à§¨à§¬ à§¬
à¦¬à¦² à¦Ĩà¦²
à¦¤à¦¬ à¦¸à¦®
à¦ĵ à¦ıà¦ķà¦¬
à¦°à¦®à¦¤ à¦ħà¦¨
à¦· à¦Ĩà¦ķ
à§§à§¬ à§§à§®
à¦¨à¦ıà¦ķ à¦ĩà¦¸
à§Łà¦¨ à¦¡
à¦¤ à¦ħà¦¦
à¦Ł à¦Ĺà¦£à¦¨
à§Ł à¦ĩà¦¬
à¦« à¦°à¦Ĩà¦²à¦®
à§Łà¦¨ à¦¥
à¦°à¦ıà¦ĸ à¦¨à¦ķ
à¦¤ à¦ħà¦ľ
à¦¸à¦®à§Ł à¦ľ
à¦ķà¦Ł à¦ķà¦Ł
à¦°à¦ıà¦ĩ à¦īà¦¦
à¦ı à¦°à¦Ľ
à¦ķà¦ª à¦Ł
à¦°à¦ĩ à¦®à¦°
à§ªà§© à§Ń
à¦ĵ à¦ĩà§Ł
à§¨ à§§à§ª
à¦°à¦ĵ à¦°à¦«
à¦¦à¦ķ à¦¥
à¦Łà¦¸ à¦ķà¦°
à¦°à¦¬ à§ľà¦Ľ
à§¨à§¦à§¨à§¨ à§§à§§à§¨
à¦Ĺà¦ł à¦¨à¦¤à¦¨
à§ª à§¯à§¦
à¦¦ à¦²à¦¹
à¦¯à¦ĸà¦¨ à¦«
à§ªà§« à§Ń
à¦®à¦Ĩ à¦°à¦¦
à¦® à¦ªà§ľ
à¦°à¦¹à¦£ à¦®
à¦°à¦ıà¦ĩ à¦®à¦¨
à¦¦ à¦¨à¦ķà¦®
à¦°à¦¬ à¦ª
à¦ł à¦ıà¦¬
à§Łà¦¸ à§ľà¦ķ
à¦¸à¦¬ à¦«
à¦ª à¦ļà¦¨
à¦°à¦¤ à¦¡
à¦¯à¦ª à¦²
à¦ı à¦¨à¦Ĩà¦°à¦¸
à¦ĵ à¦ıà¦ĩà¦¸
à¦ıà¦® à¦Ĩà¦¬
à¦Ł à¦Ĩà¦ĩà¦¡
à¦¦à¦² à¦ľ
à¦°à¦¥à¦®à¦¸ à¦¨
à¦ī à¦¥à¦¬
à¦Ŀ à¦ķà¦Ŀà¦ķ
à¦¡ à¦°à¦ķ
à¦¨à¦¬ à¦Ł
à¦¸ à¦¸à¦°à¦ķ
à¦¨à¦ıà¦ĩ à¦§à¦°à¦¨
à¦®à¦ķà¦Ĩà¦® à¦²à¦Ń
à§¨à§¦à§§à§Ńà§¨à§¦à§§à§®à§¨à§¦à§§à§¯à§¨à§¦à§¨à§¦à§¨à§¦à§¨à§§à§¨à§¦à§¨à§¨à§¨à§¦à§¨à§©à§¨à§¦à§¨à§ª à§¨à§¦à§¨à§«
à¦§ à¦ħà¦¬à¦¸
à§¯à§¯ à§¦
à¦°à¦ıà¦ķà¦¸ à¦ª
à¦Ľ à¦Ĩà¦²
à§Łà¦¤ à¦¤
à¦°à¦ĵ à¦ĩà¦¸
à§Łà¦ª à¦¡
à¦ķà¦¸à¦® à¦°
à¦¤à¦ĸà¦¨ à¦Ń
à¦¯ à¦īà§İà¦¸
à¦ĩ à§ľ
à¦īà¦Ł à¦°
à¦ıà¦ĩ à¦Ĩà¦¶
à¦¯à¦¬ à¦ļ
à¦¬à¦¹ à¦Ĩà¦Ĺ
à¦ª à¦°à¦¹
à¦ª à¦ĵà¦¯
à¦ĩà¦« à¦¬
à¦ıà¦°à¦ķ à¦®à¦¬
à¦® à¦Ĩà¦°à¦¤
à¦¦ à¦°à¦ªà¦°
à¦²à¦¶ à¦¹à¦°
à¦¦ à¦®à¦®
à¦°à¦ī à§ľ
à¦¨à§Ł à¦ķà¦°à¦¤
à§¨à§¦à§§à§Ń à§¦
à¦ıà¦® à¦«
à¦¨ à¦°à¦£à¦¬
à¦¸à¦¨ à¦Ł
à§ªà§Ń à§Ń
à¦¹ à¦ķà¦ª
à¦¸à¦ľ à¦Ļ
à¦ķ à¦¹à¦¸
à¦ī à¦®à¦¨
à¦Ĩ à¦°à¦¬à¦¨
à¦Ĩà§Ł à¦¶
à¦Ł à¦¹à§Łà¦¨
à¦ĩ à¦Ĩà¦¸à¦Ľ
à¦¦à¦ķ à¦¬à¦²
à¦Ĺ à¦ľà¦Ł
à¦¨à¦¬ à¦ĩà§Ł
à¦¨à¦ħà¦ª à¦Ł
à¦¬ à¦īà¦²
à§¦ à§§à§©
à¦¯ à¦ľà¦¬
à¦®à¦¹ à¦ł
à¦¬ à¦¢
à¦Ń à¦¹à¦²
à¦°à¦¬ à¦ĩà¦Ĺ
à¦°à¦¸à¦¦ à¦°à¦¨
à¦ķà¦Ł à¦ļ
à¦°à¦ªà¦¤à¦¨ à¦ĺà¦Ł
à¦ī à¦Łà¦ķ
à¦ĩà¦Ł à¦ĸ
à¦Łà¦Ĩà¦ª à¦ħà¦Ł
à¦· à¦Ńà¦°
à§§à§¯ à§©à§¬
à¦°à¦ľ à§Łà¦ľ
à¦ļà¦Ł à¦ĸ
à¦ıà¦ķà¦ľà¦¨ à¦ħà¦Ń
à¦¤à¦Ń à¦¦
à¦· à¦ľà¦Ĺ
à¦ĵ à¦ıà¦ķà¦®
à¦« à¦ħà¦¨
à¦· à¦¦à¦¶
à¦¤à¦® à¦ªà¦°
à¦Ĺ à¦ħà¦§
à§ª à§§à§¦
à¦¸à¦ķ à¦¹
à¦°à¦ı à§ľ
à¦ķà¦Ĩà¦ª à¦Ń
à¦ıà¦« à¦ı
à¦ĩ à¦ıà¦°à¦®
à¦°à¦ª à¦°à¦ĵà¦ª
à¦¯à¦ķà¦° à¦ª
à¦¬ à¦īà¦²à¦Ĩà¦²
à¦ĵ à¦¶à¦¹
à¦¹à§Ł à¦Ĩà¦Ĺ
à¦ĸà¦¨ à¦ªà¦°
à¦¬à¦¨ à¦®à¦¨
à¦°à¦¶ à¦¤à¦¬à¦°
à¦¨à¦¶ à¦¨à¦ķ
à§§à§¨ à§¨à§¯
à§Ł à¦£à¦ª
à§Ł à¦ľà¦¨à¦¸
à¦°à¦¸ à¦¹à¦ļ
à¦Łà¦¨ à¦Ĺ
à¦¨à¦¹à§Ł à¦¬
à¦ĩ à¦ļà¦²à¦¤
à¦¯à¦¥ à¦ª
à¦¶ à¦Ĩà¦ķ
à¦ħ à¦ķà¦²
à¦¦à¦¶ à¦¶à¦¤
à¦¦à¦® à¦¶
à¦Ĩà¦īà¦Ł à¦¡
à¦°à¦ĸà¦¬ à¦°à¦¸à¦°
à§Łà¦ıà¦ķ à¦¹
à¦²à¦Ł à¦¬à¦°
à¦¨à§Łà¦¨ à¦ıà¦¬
à¦ıà¦¸ à¦°à¦ķ
à§«à§¦ à§®
à¦¶ à¦ħà¦ª
à¦°à¦ĩ à¦¡
à¦ĩ à¦ªà¦¨
à§§à§¯ à§©à§ª
à¦Ĩà¦Łà¦ķ à¦¨
à¦¡ à¦¬à¦¸
à¦²à¦ķ à¦¬à¦ķ
à¦ľà¦¨à¦ķ à¦£
à¦ıà¦ĩ à¦ķà¦²
à¦ĩà¦¦ à¦«
à¦īà¦ª à¦²à¦Ń
à¦²à¦Ĩ à¦§
à§® à§©à§¦
à¦¡ à¦ħà¦ª
à¦Łà¦¦ à¦²à¦ķ
à¦ľà¦¸à¦¦ à¦°à¦¶
à§¨à§¦ à§¯
à¦ķà¦® à¦¯
à§ĩ à§į
à¦ªà¦° à§Ł
à¦² à¦ıà¦ķà¦®
à¦°à¦ıà¦ķà¦¬ à¦Ľà¦°
à¦°à¦ıà¦®à¦¨ à¦ª
à¦¨ à¦ĸà¦²
à¦ķ à¦ĵà¦ļ
à¦¨à¦¨ à¦·
à¦īà§İà¦¸à¦¬ à¦ħà¦¨
à¦Ī à¦¦à¦¨
à¦¨à¦® à¦¶
à§Łà¦¸ à¦ļ
à¦² à¦£
à¦«à¦² à¦ļ
à§«à§¦ à§¬
à¦¯ à¦ĩà¦«
à¦²à¦¤ à¦ļ
à§©à§¦ à§¬
à¦ĵ à¦ıà¦ĩà¦ļ
à¦ıà¦¸ à¦²
à¦īà¦ª à§ľ
à¦ĵà¦ķ à§Ł
à¦²à¦¦ à¦¹
à¦ĵ à¦ķà¦°à¦Ľ
à¦Ł à¦ħà¦¥à¦¬
à¦¨à¦ķ à¦Ł
à¦Ĺà¦® à¦¬à¦²
à¦°à¦® à¦īà¦¦
à¦²à¦Ĩ à¦ĩà¦¡
à¦ĸà¦¬ à¦°à¦ħà¦¨à¦²
à¦¸à¦¹ à¦ıà¦ķ
à¦ĩ à¦¶à¦¦
à¦°à¦ª à¦°à¦§
à¦£ à¦ļà¦Ł
à¦¦à¦° à§Ł
à¦Ĺ à¦¶à¦°
à¦°à¦īà¦ª à¦®à¦¹
à¦¶ à¦ĵà¦¯
à¦§ à¦Ĩà¦ĩà¦¨
à¦°à¦® à¦ķà¦°à¦Ľ
à§Ł à¦Ĩà¦°à¦¤
à¦ķà¦¦ à¦¤
à¦ħà¦¨ à¦°
à¦²à¦Ĺ à¦ķ
à¦ĩà¦¹ à¦ĵà§Ł
à¦® à¦ĵà¦ĸ
à¦¤à¦ı à¦°à¦¡
à§¨à§¦à§§à§¬ à§§à§Ń
à¦®à¦¦ à¦ĩà¦īà¦¨
à¦°à¦ıà¦ĩ à¦¸à¦®à¦¸
à¦¹ à¦¶à¦°
à¦ª à¦ĵà¦¨
à¦ĵ à¦ıà¦ķà¦ª
à¦°à¦® à¦¨à¦¨
à¦Ĺ à¦®à¦²
à¦®à¦¬ à¦¡
à¦ķà¦¶ à¦¹à¦°
à¦¯ à¦ħà¦Ļ
à¦°à¦Ĳ à¦¶
à¦ı à¦°à¦¬à¦°
à¦¨à¦¸à¦®à§Ł à¦Ł
à¦¯à¦® à¦¶
à¦¬à¦ĩ à¦ªà¦°
à¦¶ à¦¸à¦¨
à¦ľà¦¨ à¦¸à¦¨
à¦¤ à¦ĩà§Ł
à§Ł à¦ĵà¦ľ
à¦Łà¦¨ à¦Ĺà¦°
à¦¤à¦² à¦ł
à¦Ł à¦ļà¦²
à¦¨à¦¯ à¦¤
à¦§ à¦§
à¦°à¦ľ à¦²à¦ª
à§§à§® à§§à§©
à¦ªà¦£ à¦ķ
à¦ľà¦¬ à¦¸à¦®
à§Ł à¦ıà¦ķà¦¸
à¦¸à¦¬ à¦¤à¦¥
à¦¬à¦Ľ à¦°à¦ļ
à¦¨à¦ıà¦ĩ à¦¸à¦®à§Ł
à¦ķà¦°à¦£ à¦®
à¦ķ à¦ĩà¦īà¦Ł
à¦¡ à¦§à¦°
à¦¤à¦® à¦īà¦ª
à¦¤à¦ľ à§Ł
à¦ľà¦¨ à¦¦à¦¤
à¦¯à¦¨ à¦°
à¦ĵà¦¸ à¦°à¦¬à¦°
à§§à§« à§§à§Ń
à¦¨à¦ª à¦¤à¦¨
à¦¨à¦¦ à¦¤
à¦°à¦ıà¦ķ à¦ıà¦ķà¦Ł
à¦Ĺ à¦īà¦ªà¦ľ
à¦Ĩà¦¹à¦® à¦®
à¦² à¦°à¦¤
à¦ª à¦¯à¦¦
à¦« à¦¤à¦®
à¦¨à¦¬ à¦īà¦¨
à¦¦à¦°à¦¨ à¦Ĺà¦°
à¦ı à¦¤à¦®
à¦® à¦ħà¦¬à¦¶
à¦°à¦ĵà¦ª à¦°à¦ıà¦ķà¦Ł
à¦® à¦ĵà¦Ń
à¦ŀ à¦¥
à¦¯à¦¬ à¦Ľà¦°
à¦ķà¦¦ à¦²à¦¬
à¦² à¦ıà¦°à¦¸
à¦¯ à¦ıà¦ĩà¦ķ
à¦ħ à¦²à¦ķ
à¦Ń à¦ĸ
à¦°à¦¦à¦ĸà¦² à¦ķà¦°
à¦¬à¦¹ à¦Ń
à¦ķà¦° à¦²à¦ķ
à¦°à¦Ĩ à¦¸à¦ķ
à¦°à¦Ĩ à¦°à¦ĵà¦¸
à§§à§¯ à§¨à§®
à§§à§¯ à§©à§¨
à¦ķ à¦¯à¦¤
à¦ľà¦ĸ à¦®à¦ķà¦°
à¦¯ à¦ĩà¦ĸ
à¦·à¦® à¦ķà¦°à¦¤
à§Ł à¦īà¦ķ
à¦¶ à¦°à§Ł
à¦ª à¦°à¦ļà¦¨
à¦¯ à¦ªà¦ķ
à¦²à¦¸ à¦Ĺ
à¦¯à¦¤à¦® à¦¦
à¦¦à¦ķà¦® à¦£
à¦¤à¦® à¦ļà¦ķ
à¦¨à¦ı à¦¤à¦¦
à¦ı à¦Ĩà¦ĩ
à§Łà¦ħ à¦¸à¦¹
à¦ªà¦¦ à¦ħà¦°
à¦ıà¦ķ à¦¤à¦°
à¦ĩà¦® à¦Ļ
à¦² à¦ĩà¦°
à¦¤ à¦°à¦¨à¦¬
à¦¹à§Ł à¦¢
à¦¯ à¦¸à¦ķ
à¦¶à¦Ĺ à¦Ļ
à¦Łà¦ķ à¦Ĺ
à¦¬ à¦ľà§Ł
à¦Ł à¦Łà¦²
à¦Ĩ à¦ĩà¦¸à¦²
à¦¨à¦ĵ à¦ħà¦Ń
à§Ńà§¬ à§®
à¦¬ à¦Ĩà§Ł
à¦ĩ à¦¹à¦¸
à¦ĩà¦ķ à§Ł
à§§à§ª à§§à§¬
à¦¬ à¦ĵà¦ķà¦°
à¦¯ à¦Ĩà¦°à¦ķ
à¦ķà¦° à¦²à¦¬
à¦¸à¦¬ à¦ķà¦°
à¦¦ à¦ľà§Ł
à¦Ł à¦°à¦ļà¦¨
à§Łà¦ķ à¦°à¦£
à¦ı à¦²à¦¤
à¦ı à¦ıà¦²
à¦ľà¦¨ à¦¨à¦¤
à§Ł à¦°à¦°
à¦ĵà¦ħ à¦¡
à¦¬ à¦ªà§ľà¦¬
à¦īà¦Ń à§Łà¦ķ
à¦ĺ à¦°à¦Ĺ
à¦°à¦ı à¦¸à¦®à§Ł
à¦¨à¦¦ à¦ªà¦¤
à¦ķ à¦ıà¦ĩà¦®
à¦¡ à¦ļà¦¤
à¦ķà¦Ń à¦¬
à¦¯à¦Ł à¦¨à¦ª
à¦ĩà¦¸ à¦«
à§¯ à§§à§§
à¦¸ à¦ıà¦¶
à¦°à¦¹ à§Łà¦¸
à¦²à¦¨à¦ķ à¦¶
à¦¬à¦¹ à¦ª
à¦¨ à¦ıà¦¸à¦ª
à§§à§§à§© à§¦
à¦īà¦²à¦Ĩà¦² à¦®à¦¡
à¦¶ à¦¤à¦ª
à¦¬à¦² à¦¨à¦ķ
à¦¤à¦ķ à¦·
à¦ĵ à¦ıà¦®à¦¨à¦ķ
à¦°à¦® à¦¸à¦²
à¦¯ à¦ħà¦®
à§§à§¯ à§©à§«
à¦Ŀ à§ľà¦¤
à¦Ĺà¦ķ à¦ĸà¦¨
à¦Łà¦Ĩà¦ª à¦ķà¦°
à¦¸ à§İà¦ķ
à¦°à¦Ĩ à¦Łà¦Ł
à¦®à¦ª à¦¡
à¦ĩà¦ľ à¦ķà¦°à¦¤
à¦Ĩà¦ĩà¦¨ à¦īà¦ªà¦¦
à¦ĸ à¦¹à¦²
à¦°à¦¹ à¦¨à¦¨
à§ª à§§à§¬
à¦® à¦ħà¦ªà¦°
à¦¸à¦¹ à¦ħà¦¸
à¦Łà¦¨ à¦²
à¦¸ à¦°à¦Ĺ
à¦°à¦ª à¦°à¦Ĩà¦°
à¦°à¦¹ à¦ķà¦°à¦¬
à¦¤à¦® à§Łà¦®à¦¨à¦¸
à¦¹ à¦Ĩà¦Ľ
à§§à§¦ à§©à§§
à¦· à¦¨à¦ª
à¦ª à¦°à¦ªà¦°à¦¦
à¦¸à¦¨ à¦ħà¦§
à¦°à¦ıà¦ĩ à¦ħà¦¬à¦¸
à¦ķà¦Ĩ à¦ªà¦¸
à§¨à§¦à§§à§Ńà§¨à§¦à§§à§®à§¨à§¦à§§à§¯à§¨à§¦à§¨à§¦à§¨à§¦à§¨à§§à§¨à§¦à§¨à§¨à§¨à§¦à§¨à§©à§¨à§¦à§¨à§ªà§¨à§¦à§¨à§« à§¨à§¦à§¨à§¬
à¦¸à¦¨ à¦¹
à¦ī à¦¬à¦¬
à¦Ĺà¦£ à¦Ĩà¦¨
à¦¿ à§ģ
à¦¦ à¦ħà¦§
à¦§ à¦Ĺà§ľ
à¦°à¦īà¦ª à¦°à¦¬à¦¸
à¦¨à¦ıà¦®à¦¨ à¦ª
à¦Ķà¦· à¦§à¦ª
à¦ļ à¦¸à¦¦à¦¸
à¦ľ à¦ıà¦¸
à¦§ à¦¤à¦°
à¦¯à¦ķ à¦¤à¦Ł
à¦Łà¦¸ à¦ķà¦²
à¦¯ à¦ıà¦®
à§§à§§ à§§à§§
à§Łà¦¯ à¦ĸà¦¨
à¦ķ à¦ĩà¦īà¦°
à¦¨à¦Ĩ à¦ŀ
à¦¦ à¦ĩà§Ł
à§Ł à¦°à¦Ĩà¦°
à¦°à¦¨ à¦·
à¦Ł à¦ľà¦°
à¦°à¦ĵ à¦ħà¦Ń
à¦¯ à¦īà¦ªà¦ľ
à§¨à§® à§ª
à¦¨à¦ķ à¦¤à¦Ł
à¦īà¦¦ à¦¹
à¦²à¦Ń à§Ł
à¦® à¦ĺà¦°
à¦ħ à¦ĺ
à¦¦à¦ķ à¦ªà¦°
à¦¬à¦¤ à¦ľ
à¦¨à¦¸à¦®à§Ł à¦²
à¦¥ à¦ħà¦¬à¦¸
à¦°à¦¦ à§Ł
à¦¯ à¦Ĩà¦¯
à¦°à¦£ à¦¤à¦¤
à¦¨à¦¤ à¦¤à¦ķ
à¦°à¦®à¦¤ à¦Ĺ
à§§à§Ń à§§à§ª
à¦¬à¦¹ à¦¦
à¦ĩà¦Ł à¦¸à¦°
à¦Ĩà¦ĩ à¦ıà¦¨
à§Ł à¦«à¦°
à¦¨à¦Ĩà¦¹à¦® à¦¦à¦ķ
à¦°à¦¥à¦® à¦®à¦¹
à¦¶ à¦²à¦¦
à¦ļ à¦ķà¦°à¦²
à¦°à¦¶ à¦¯
à¦ĩà¦Ń à¦²
à¦¤à¦Ĩ à¦Łà¦Ł
à¦¤ à¦ĵà¦°
à¦ıà¦°à¦ª à¦°à¦ĵ
à¦ĵ à¦ĩà¦¨à¦ķ
à¦ī à¦²à¦¹à¦ķ
à¦¯à¦ķ à¦ĸà¦¨
à§¨à§¦à§¨à§¨à§¦ à§Ń
à¦Ĩà¦°à¦¬ à¦ķ
à¦Łà¦² à¦ķà¦°à¦¤
à¦¿ à§ĩ
à¦® à¦ıà¦ķà¦¦
à¦°à¦¦ à¦²à¦Ĺ
à¦ª à¦Ĩà¦¤
à¦ľà¦¨ à¦ķà¦²
à¦¤ à¦Ĩà¦¹
à¦£ à¦īà¦ª
à¦ĩ à¦ļà¦²à¦ļ
à¦® à¦ıà¦¶
à¦¬à¦¦ à¦²à¦Ĺ
à§¨à§¦à§¨à§§ à§§à§ª
à¦®à¦ĺà¦Ł à¦¶
à¦ĵ à¦°à¦¤
à¦ĸà¦¨à¦¨ à¦ķà¦°
à¦ľ à¦ªà¦¤
à¦· à¦Ĺà¦¤
à¦¨à¦ıà¦ĩ à¦¸à¦®
à¦·à§Łà¦ķ à¦Ĩà¦²
à¦Ł à¦°à¦¥
à§¦à§§à§Ń à§§à§¬
à¦°à¦¨ à¦ķà¦°à¦¤
à¦°à¦¨ à¦²à¦¡
à¦¤à¦® à¦Ĩà¦¦
à¦° à¦°à¦¸à¦®
à¦® à¦ħà¦ķ
à§§à§¯ à§¨à§«
à¦¨à¦ı à¦¨à¦ľ
à¦§ à¦®à¦¹
à¦°à¦¦ à¦²à¦¬
à¦Ł à¦ľà¦¬
à¦¬à¦ĩ à¦ĩà¦¤
à¦ķà¦® à¦Ł
à¦ľà¦¬à¦¸ à¦¸
à¦ħà¦² à¦Ļ
à¦¶ à¦®à¦¶
à¦°à¦® à¦¶à¦¬
à¦¨à¦¸à¦® à§Łà¦¸
à§©à§ª à§¯
à¦° à¦°à¦¡
à¦¬à¦¹ à¦¨à¦®à¦¨
à¦°à¦§ à¦¨à¦¬
à¦¶ à¦¯à¦¦
à¦°à¦Ĩ à¦°à¦ľ
à§¨à§¦à§¨à§¨ à§§à§§à§ª
à§ľ à¦ķà¦°à¦¤
à¦¤à¦¹à§Ł à¦¦
à¦ľ à¦²à¦¤
à¦¸à¦¬ à¦ķà¦Ł
à¦¤ à¦²à¦¸
à¦¸ à¦ıà¦°à¦ķ
à¦ıà¦« à¦¨
à¦¤à¦ĸà¦¨ à¦ľ
à¦°à¦® à¦¨à¦ª
à¦°à¦ª à¦°à¦ħà¦¬à¦¶
à§Ńà§® à§¬
à¦ķà¦® à¦ķà¦°
à¦®à¦Ĺ à¦¡
à¦°à¦Ĩ à¦ªà¦²
à¦¨à¦Ĩà¦°à¦ıà¦¸ à¦ıà¦¸à¦«
à¦ķà¦° à¦¬à¦¸
à¦°à¦¯ à¦¤à¦Ł
à¦°à¦ıà¦ĩ à¦ħ
à¦® à¦ĩà¦²
à¦¤à¦ª à¦Ľà¦¨
à¦ĸà¦°à¦ļ à¦¹à§Ł
à¦¸à¦ĵ à¦ĩà¦®
à¦ªà¦Ł à¦Ń
à§¨à§® à§¬
à¦¯à¦¤à¦® à¦¹
à§Ł à¦¹à§Łà¦¤
à¦ķà¦° à¦¬à¦°
à¦°à¦¸à¦¦ à¦°à¦°
à§Ł à¦īà¦ªà¦¨
à¦¨à¦¸ à¦¬à¦¬
à¦¶ à¦¸à¦®à¦¸
à¦ķ à¦ĭà¦£
à¦°à¦ľ à¦¡
à¦ķà¦® à¦²à¦ķ
à¦Ĺà¦² à¦«
à¦¶à¦² à¦ĵà¦ª
à¦² à¦ħà¦¨à¦²
à¦°à¦Ĩ à¦¨à¦ªà§ľ
à¦¤ à¦¸à¦®à¦°
à¦Ń à§Łà¦Ń
à¦¨à¦¸ à¦¸
à¦®à¦² à§Łà¦°
à¦¬à¦Ľ à¦°à¦ħà¦¨
à¦Ńà¦¬à¦¨ à§Łà¦¤
à¦¤à¦°à¦¦ à¦ķ
à¦ĩà¦¬à¦Ľ à¦°à¦Ĩà¦Ĺ
à¦ĺ à¦°à¦®
à¦°à¦Ĺ à¦¯
à¦¯à¦¬ à§Łà¦¸
à¦¤à¦ĵ à¦·
à¦¬ à¦°à¦Ĩà¦ªà¦¨
à¦¯ à¦ıà¦ķà¦¬
à¦ĵ à¦§à¦¨
à¦ķà¦¬ à¦ĩà¦®
à¦ľ à¦¦à¦²
à¦¦ à¦ĵà¦¨
à¦°à¦®à¦£ à¦ªà¦°
à¦¬ à¦°à¦¹à¦²
à¦°à¦¦ à¦¨
à¦²à¦« à¦ľà¦²
à¦¯ à¦Ĩà¦¨à¦¨
à¦ľ à¦Ĺà§ľ
à¦ĩ à¦ıà¦ĩà¦Ń
à¦ķà¦®à¦¬ à§Łà¦¸
à§Ł à¦Ĩà¦ĺ
à¦Łà¦¸ à¦¦à¦°à¦ª
à§ªà§¬ à§«
à¦ĩà¦ķ à¦°à¦£
à¦¶à¦¨à¦¸ à¦²
à¦¨à§Ł à¦ľ
à§Ńà§« à§ª
à§Ł à¦Ĩà¦¨à¦¸
à§Ńà§« à§Ń
à¦§ à¦«à¦²
à¦ĩà¦¨ à¦ĵà¦¯
à¦ıà¦®à¦¨ à¦Ĺ
à¦Ł à¦°à¦ı
à¦°à¦¬ à¦¦à¦¨
à¦· à¦ĵà¦¸
à¦®à¦¦ à¦²
à¦·à¦ķà¦¦ à¦²
à¦ı à¦°à¦¨à¦¤
à¦¡ à¦ĵà¦ª
à¦°à¦¨ à¦²à¦Ľ
à¦¸ à¦ķà¦¤
à¦ľà¦¨ à¦Ĩà¦ªà¦¨
à¦ŀ à¦Ĩà¦¦
à¦¶à¦¨ à¦Ĩà¦²à¦ķ
à¦ĵà¦ĩ à¦ªà¦°
à¦¬à¦°à¦Ĩ à¦ľà¦®
à¦ľ à¦ĵà¦¦
à¦§ à¦¸à¦°
à¦°à¦ħà¦ªà¦° à¦¨
à¦ľ à¦ĩà¦®
à§Łà¦® à¦¡
à¦ļà¦² à¦¦
à¦¨à§Ł à¦ħà¦¨
à¦°à¦ī à¦ĩà¦²
à¦ķà¦Ł à¦¯
à§§à§Ń à§¦à§¦
à¦¤ à¦ıà¦ķà¦ľà¦¨
à¦« à¦°à¦ĸ
à¦ķ à¦ıà¦°à¦ª
à§ª à§¨à§¦
à§ªà§© à§¯
à¦· à¦°à¦¦
à¦Īà¦¦ à¦ĸ
à¦¸à¦īà¦¦ à¦°
à¦² à¦ĵà¦«
à§Ł à¦°à¦¸à¦¹à¦ķ
à¦¹ à¦ĵà¦¸
à¦ī à¦£
à¦Ĩà¦°à¦ı à¦ĩà¦ķ
à¦²à¦Ĩ à¦¨à¦¨
à¦· à¦¢
à¦¯à¦¬ à¦¶à¦¤
à¦¤à¦¨ à¦«
à¦¦ à¦Ĩà¦ķ
à¦Ľ à¦ľ
à¦ļà¦¨ à¦īà¦ªà¦²à¦ķ
à¦°à¦ľà§Łà¦ľ à§Łà¦ķ
à¦¥ à¦ĵà¦Ń
à¦ĭ à¦¤à¦¬
à¦Ĩà¦¦à¦° à¦ķà¦°à¦¤
à¦¸à¦¨à¦ª à¦°à¦¬
à¦ıà¦¸à¦ĩà¦ĵ à¦ıà¦¸à¦ıà¦¸à¦¸
à¦ħ à¦ľà¦¯
à¦ł à¦¹à§Ł
à¦ĩà¦ī à¦ªà¦¨
à¦°à¦¹ à¦¨à¦ķà¦°à¦¤
à¦Łà¦¨ à¦ıà¦¬
à¦¨à¦ħ à¦¬à¦ķ
à¦¹ à¦£à¦ķà¦°
à¦Ĺ à¦ĵà¦Ľ
à¦¦à¦ķ à¦ıà¦¡à¦Ń
à¦¨à¦¬à¦Ľ à¦°à¦Ĩà¦Ĺ
à¦® à¦«à¦²
à¦¯ à¦ĩà§Ł
à¦ªà¦¨ à¦ĸ
à¦ıà¦ĸà¦¨ à¦Ĩà¦¬
à¦¨ à¦²à¦Ĺà¦ĩà¦¨
à¦· à¦ļà¦°
à¦ıà¦ĩ à¦ħà¦ªà¦°
à¦Ĺà¦ł à¦¨à¦ıà¦¬
à¦°à¦ķà¦¬à¦² à¦¥
à¦Ł à¦ıà¦°
à¦ķà¦° à¦²à¦¤
à¦¡ à¦¨à¦ª
à¦ķà¦ĵ à¦Ĺà¦¬
à§¨ à§§à§«
à¦Ĩà¦ĩ à¦ĩà¦¡
à¦¯ à¦ĩà¦ħà¦¨
à¦ķà¦Ĩ à¦ªà¦ķ
à¦ľà¦¨ à¦¹à§Łà¦¨
à§ªà§« à§¯
à¦²à¦¤ à¦ħà¦¬à¦®
à¦¤ à¦Ľà¦¨
à¦¨ à¦ıà¦ķà¦ľà¦¨à¦®
à¦°à¦¸à¦ķà¦² à¦²
à¦Ĺ à¦ıà¦Ł
à¦·à§Ł à¦¶
à¦ªà¦¬ à¦¡
à¦®à§Ł à¦¹
à¦ķà¦°à¦¬à¦² à¦°à¦¬
à§§à§¦ à§§à§©
à¦°à¦Ĩ à¦²à¦¤
à¦ĩà¦Ł à¦Ĩà¦ªà¦¨
à¦¶à¦ª à¦¬
à¦ĩ à¦·
à¦¨à¦ĩ à¦ķà¦¬
à¦¹à¦² à¦²
à¦ķà¦ĸ à¦¨à¦¬
à¦ħ à¦²à¦Ĩà¦īà¦Ł
à¦¤à¦¹à§Ł à¦ľ
à¦ħà¦® à¦°à¦®
à¦ıà¦¸à¦ĩ à¦ĵà¦¸
à¦¤ à¦ıà¦ķà¦¦
à¦·à¦£ à¦¹à¦¤
à§¨à§ª à§§
à¦Ĩà¦ĩà¦¨ à¦¨
à¦ķ à¦ĩà¦ŀ
à¦¦à¦ķ à¦ĸ
à¦² à¦ħà¦Ļ
à¦ħ à¦¹à¦¨
à¦ıà¦ĸà¦¨ à¦¯à¦¦
à¦Ĩà¦¹à¦¤ à¦¹
à¦® à¦īà¦ªà¦ķ
à¦ļ à¦ľà¦¨à¦ķ
à¦Ĩà¦°à¦ı à¦ĸ
à¦ĩ à¦¶à¦¹
à¦īà¦ª à¦®
à¦Łà¦¨ à¦¢
à¦® à¦Ĩà¦°à¦®
à¦£ à¦ľà¦¯
à¦ķà¦² à¦¤
à§®à§¦ à§§à§Ń
à¦ĵà¦ĩ à¦¤à¦°
à¦¨à¦® à¦¹à¦²
à¦®à¦² à¦¹
à¦¬à¦¬ à¦¡
à¦·à¦£ à¦ĩà¦¨
à§«à§« à§¬
à¦Ĺà¦¤ à¦ħà¦¨
à¦¬à¦Ľ à¦°à¦ªà¦°à¦¬
à¦°à¦ıà¦ĩ à¦§
à¦¤à¦°à¦¨ à¦ķà¦°
à¦ĵà§ľ à¦¨
à¦¨ à¦ħà¦¬à¦¦
à¦Ł à¦Ĩà¦ªà¦¡
à¦¯à¦¤ à¦ĸ
à¦¸ à¦ĵà¦Ń
à¦¸ à¦ľà¦²
à¦Ĺ à¦Ŀ
à¦°à¦Ľ à§Łà¦Ł
à¦¹à§Ł à¦®à¦¹
à¦¯ à¦ıà¦®à¦¨
à¦ľ à¦¸à¦Ń
à¦ľ à¦Ńà¦Ł
à¦¤ à¦°à¦ĵà¦¸
à¦Ĩà¦°à¦¬ à¦ª
à¦¯ à¦¸à¦¹à¦ķ
à¦Ł à¦ħà¦¤
à¦· à¦¸à¦®à¦¯
à¦ĵ à¦ħà¦Ł
à¦ľ à¦°à¦Ļ
à¦¶ à¦ıà¦¨
à¦¶à¦¨ à¦°à¦¯
à¦°à¦¸à¦® à§Łà¦²
à¦¤ à¦ĩà¦ª
à¦®à¦¨ à¦¹à¦¤
à¦®à¦¤ à¦Ĩà¦®
à¦¶à¦¸ à¦ļ
à¦« à¦ıà¦¨
à¦¨à¦¸à¦® à¦ķ
à§Ł à¦°à¦¦
à¦°à¦®à¦¤ à¦Ĩà¦®
à§¬ à§¦à§¦à§¦
à¦°à¦ĭ à¦¤
à¦² à¦ıà¦°à¦®à¦§
à§Ł à¦Ĩà¦°à¦¸
à¦°à¦¤ à¦°à¦Ļ
à¦¨à¦ı à¦°à¦ķà¦®
à¦¯ à¦Ńà¦¬
à¦ĵ à¦¤à¦°
à¦£ à¦¸à¦¬
à¦¸à¦® à¦£
à¦¨à¦¸ à¦¹à¦®
à¦¨à¦ıà¦ĸà¦¨ à¦ªà¦°
à¦¨ à¦īà§ľ
à¦ĵ à¦ļà¦°
à¦°à¦ĸ à¦°à¦°
à¦¨à¦ĵ à¦ĩ
à§Ł à¦ıà¦¸à¦¬
à¦¹ à¦°à¦¯
à¦· à¦¸à¦Ļ
à¦¨à¦¸ à¦¬à¦¶
à¦¨à¦Ĩà¦® à¦²
à¦ļà§Ł à¦ĩà¦¤
à§© à§¨à§¦
à§ľ à¦Ŀ
à¦·à¦ķ à¦Ĺà¦¬
à¦ıà¦¸ à¦ıà¦ķ
à¦ı à¦¨à¦Ń
à¦¯à¦¹ à¦ĵà¦¯
à¦¤à¦°à¦¸ à¦¥
à¦Ľ à§Łà¦ľà¦¨
à¦· à¦Ĩà¦¨
à¦°à¦¤ à¦¸à¦®
à¦Ĩ à¦°à¦ķà¦¥
à¦¯à¦ħ à¦¬à¦¨
à¦® à¦ıà¦ĩà¦¬
à¦¬ à¦¤à¦¥
à¦¤ à¦ħà¦¥à¦¬
à§ľ à¦¬à¦¨
à¦ıà¦ĩ à¦ķà¦¬
à¦®à¦¨ à¦ĵà§Ł
à¦ĩà¦¨ à¦Ĩà¦®
à¦Ĺ à¦¨à¦¦
à¦¬ à¦°à¦Ĩà¦¸
à¦ľà¦¨ à¦ħ
à¦¤à¦Ľ à§ľ
à¦°à¦Ĩ à§Łà¦¬
à§© à§§à§¦
à§Łà¦ıà¦®à¦¨ à¦®à¦¨
à¦Ł à¦Ĺà¦°
à¦Ĺ à¦Ĩ
à¦°à¦ĵ à¦ļà¦°
à¦¥à¦® à¦¥à¦®
à§Ł à¦¨à¦¬à¦¨
à¦Ĩà¦°à¦ĵ à¦ķà¦ł
à§Ł à¦¤à¦ķ
à¦°à¦ķ à¦ĵà¦ķ
à¦¬à¦¦ à¦°à¦¬
à¦¬ à¦°à¦¬à¦°
à¦ĩ à¦ľà¦¨à¦¨
à¦°à¦Ĺ à¦ľ
à¦¨à¦ĵ à¦ĩà¦¨
à¦¤à¦ıà¦ĩ à¦ĵà¦¯
à¦°à¦¸à¦¬ à¦¸à¦®à§Ł
à¦®à¦¨à¦Ĺ à¦°à¦¬
à¦¸ à¦ĩà¦¬à¦¨
à¦°à¦ī à¦Ńà§Ł
à¦ļ à¦ªà¦¦
à¦¸ à¦ħà¦ķ
à¦¶ à¦¸à¦ª
à¦ļ à¦¢
à¦ķà¦° à¦ķà¦°
à¦ª à¦°à¦Ĩà¦®
à¦°à¦¹ à¦²à¦°
à¦Łà¦¸à¦® à§Łà¦¬
à¦ķ à¦Ĩà¦ĩà¦¨à¦¶
à¦Ł à¦Ĩà¦ľà¦ķ
à¦¬à¦² à§Ł
à¦¡à¦Ł à¦ķà¦®à¦¬
à¦Ń à¦¶à¦ķ
à¦ľ à¦ħà¦Ń
à¦ľ à¦ķà¦ļ
à¦ıà¦ĩ à¦ªà¦¥
à¦Ńà¦¬ à¦®
à¦¨à§Łà¦¨ à¦ļ
à¦Ł à¦ĵà¦¨
à§« à§§à§¨
à¦Ĩà¦¨ à¦«
à¦«à¦« à¦°à¦¹
à¦ľà¦¨ à¦ıà¦¨
à¦§à¦¬ à¦§à¦¬
à§ªà§« à§¦à§¦
à¦°à¦Ĩ à¦ĩà¦«
à¦°à¦ı à¦ĺà¦Łà¦¨
à¦¸à¦¹ à¦Ń
à§¨à§¦à§¨à§¨ à§§à§«
à¦ĵ à¦ħà¦¬à¦¶
à§© à§ªà§ª
à§§à§® à§§à§¦
à¦¶à¦¤ à¦¦à¦¨
à¦°à¦Ł à¦°
à¦ªà¦ķ à¦ļà¦¨
à¦¨à§Ł à¦Ń
à¦¨à¦¸à§ľ à¦ķà¦ª
à¦¹ à¦Ļ
à¦ł à¦ķà¦°à¦²
à¦°à¦¹ à¦¨à¦¤
à¦®à¦¸ à¦¬à¦¨
à¦² à¦¹à§Łà¦¤
à¦¬à¦¸ à¦ķà¦²
à¦¸à¦¬ à¦¦à¦²
à¦¦à¦¨ à¦ĩà¦¸à¦²
à¦ıà¦°à¦ª à¦°à¦Ĩà¦®
à¦°à¦ĵà¦ªà¦° à¦²
à§ªà§Ń à§¬
à¦°à¦¥à¦® à¦ĵà¦¦
à¦ª à¦°à¦Ľ
à¦²à¦¥ à¦Ĺ
à¦ľà¦¨ à¦ķà¦¬
à¦® à¦°à¦Ĺ
à¦Ĩ à¦°à¦ĩà¦ī
à¦°à¦Ĩà¦²à¦® à¦Ĺ
à¦¨à¦¤ à¦¹à§Ł
à¦²à¦¤ à¦°à¦ħà¦Ń
à¦ĩ à¦Ĳà¦¤
à¦¨à¦Ĩ à¦ľà¦¸
à¦¤ à¦ħà¦¬à¦¶
à¦ªà¦¨ à¦¡
à¦¨à¦Ĺ à¦¤à¦°
à¦Ī à¦Ĺà¦²
à¦Ĺà§ľ à¦¬
à¦ĵ à¦ĩà¦īà¦ª
à¦¯à¦ķ à¦°à¦£
à¦¹ à§İà¦ª
à¦Łà¦¸ à¦°à¦¬à¦°
à¦¤à¦¹à§Ł à¦¸à¦Ń
à¦£ à¦Ĩà¦¨
à¦ª à¦Łà¦®
à¦ķà¦Ĩ à¦ĩà¦Ł
à¦§ à¦°à¦¦
à¦ħ à§Łà¦¨
à§§ à§¨à§¦à§¨à§¦
à¦¸à¦® à¦·
à¦®à¦ķ à¦ĸà¦¨
à¦Ĩà¦°à¦ı à¦«
à¦¤à¦¨ à¦¹à¦²
à§Łà¦ħ à¦®à¦°
à¦¸ à¦ıà¦ĩà¦ļà¦¡
à¦¦ à¦ıà¦®à¦ª
à¦ĵ à¦§à¦°à¦¤
à¦ª à¦°à¦ľ
à¦²à¦¤ à¦ıà¦ķà¦Ł
à¦Ł à¦ĩà¦¸à¦²
à¦Ĩà¦® à¦²à¦ķà¦°
à¦°à¦ı à¦ĩà¦ĸ
à§İ à¦Ĩà¦¨
à§ªà§¦ à§«à§¦
à¦· à¦ĵà¦¦
à¦¹à§Ł à¦ħà¦°
à¦ĩà¦¨ à¦ĩà¦¨à¦ķà¦°
à¦ıà¦® à¦Ĩà¦¶à¦°
à¦¯ à§İà¦ķ
à¦¥ à¦ķà¦°à¦¤
à¦ıà¦ĩ à¦ħà¦§
à¦Ĩà¦¹à¦®à¦¦ à¦Ĩà¦²
à¦²à¦ķ à¦ľà¦¬
à¦Ĩà¦ľ à¦ļ
à¦¯à¦ķà¦° à¦ķà¦°à¦¤
à¦² à¦ıà¦°à¦¬
à¦ĩ à¦ĩà¦¬
à¦°à¦ī à§İà¦ķ
à¦¬ à¦ĺà¦Ł
à¦² à¦ıà¦ĩà¦¦
à¦ı à¦°à¦¸à¦®à¦¯
à¦ĵ à¦ħà¦¬à¦¸
à¦¶à¦¨ à¦ĵà¦¯
à¦Ĩà¦Ľ à§ľ
à¦¯à¦ĸà¦¨ à¦ħà¦¨
à¦ĩà¦² à¦ĩà¦¨
à¦¨à¦Ĩ à¦ķà¦¤
à¦¤à¦°à¦£ à¦ķà¦°à¦²
à¦® à¦ĩà¦¬
à¦°à¦¥à¦® à¦Ľà¦¬
à¦¨à¦ıà¦ķ à¦¨
à¦¬ à¦ħà¦¤
à¦ķà¦¸ à¦ħ
à¦¨à¦Ĩ à¦¸à¦®
à¦¨à¦Ł à¦®
à¦¨à¦¤à¦ĸà¦¨ à¦Ĩà¦®
à¦® à¦Īà¦¦
à¦§ à¦¤à¦¬
à¦ĵ à¦ħà¦®
à¦°à¦ı à¦¨à¦ľ
à¦ĵà¦¸ à¦¦à¦¸
à§®à§¦ à§®
à¦¤ à¦¸à¦¬à¦ķ
à¦Ĺà¦¤ à¦²
à¦°à¦ĸà¦¬ à¦°à¦§à¦°
à¦īà¦ł à¦²à¦¤
à¦ĵ à¦¸à¦¹à¦ķ
à¦ī à¦ıà¦¬
à¦· à¦¨à¦¯
à¦ıà¦®à¦¨ à¦¤à¦¥
à¦ªà¦¦ à¦Ł
à¦¸à¦ķ à¦«
à¦ª à¦ªà¦¡
à§ľ à¦²à¦ķ
à§¨à§¦à§¨à§§ à§§à§«
à¦īà¦¥ à¦ıà¦¶
à¦ķ à¦Ĩà¦¬à¦¹
à¦¯ à¦ıà¦ķà¦¦
à¦¡ à¦¨à¦¤
à¦ľà¦¨ à¦ķà¦Ń
à¦¤à¦® à¦Ĩà¦¨
à¦Ľ à¦¨à¦ª
à§ľ à¦ķà¦Ł
à¦¦à¦ķ à¦Ń
à¦Ĺà¦¨ à¦ħà¦¨à¦²
à§©à§¦ à§Ń
à¦¤à¦ĸà¦¨ à¦ļ
à¦¤ à¦ıà¦ĩà¦®
à¦¯ à§İà¦¬
à¦ľ à¦¤à¦¤
à¦ļ à¦¸à¦ķ
à¦ĵ à¦«à¦°
à¦¡ à¦ĵà¦®
à¦¨à¦ıà¦ķ à¦¯
à¦°à¦¨ à¦«
à¦°à¦ĩ à¦ķà¦¥
à¦² à¦Ĩà¦ĩ
à¦Ļ à¦¦
à¦°à¦£ à¦¶à¦°
à¦ıà¦®à¦¨ à¦Ľ
à¦¨à¦ªà¦° à¦¤
à¦ļ à¦®à¦¬
à¦¸à¦¦ à¦°à¦¦à¦ķ
à¦°à¦Ĩ à¦¶à¦°
à¦Ī à¦¦à¦¬
à¦°à¦¸à¦ķà¦² à¦¸à¦¦à¦¸
à¦¤ à¦īà¦ªà¦¸
à¦¯ à¦ªà¦¨
à¦°à¦Ĺ à¦ļ
à¦ĩà¦¸ à¦¦à¦¸
à§Ł à¦¹à¦ĵà§Ł
à¦ıà¦® à¦Ĺ
à¦Ĩà¦īà¦Ł à¦ķà¦°
à¦® à¦Ĩà¦°à¦¸
à¦· à¦¸à¦¹
à¦® à¦ĩà¦¸
à¦ĩà¦² à¦Ĩà¦°
à¦Ł à¦¸à¦Ń
à¦ĩ à¦°à¦īà¦ªà¦ľ
à¦ľ à§Łà¦¶
à¦°à¦ĩ à¦²à¦¸
à¦ĵà¦ª à¦Ľà¦¨
à¦¯ à¦Ĺà§ľ
à¦¸à¦¸ à¦Ļ
à¦°à¦Ĩà¦ĩà¦¨ à¦Ĩà¦¦
à¦ľ à¦ıà¦Ĺ
à¦ĵ à¦Ĩà¦¦à¦°
à§ªà§¦ à§§
à¦¬à¦² à¦ħà¦¨
à¦¸à§ľ à¦ķà¦¬
à¦¹ à§İà¦¸
à§©à§¦ à§®
à§ªà§¦ à§¨
à¦ªà¦¨ à¦¸à¦°
à¦¬à¦¸ à¦ĵà¦Ĩà¦¨
à¦ıà¦ĩ à¦ªà¦£
à¦ķà¦¬à¦² à¦¨
à¦¬ à¦ķà¦°à¦²
à¦¸ à¦¶à¦¬
à¦¶ à¦¦à¦ķ
à¦īà§İà¦¸ à¦¬à¦¸
à¦¤à¦ª à¦°à¦¬à¦°
à¦® à§Łà¦Ĺ
à§« à§§à§§
à¦®à¦ı à¦°à¦ħà¦¨
à¦Łà¦¸ à¦Ļ
à¦°à¦ī à¦¡
à¦ĵà¦¸ à¦ł
à¦²à¦ľ à¦Ļ
à¦ĩà¦Ĺ à¦Ń
à¦ķ à¦¨à¦°
à¦ķ à¦Ĩà¦¬à¦¦
à¦Ĺà¦ł à¦¨à¦Ľ
à¦ıà¦ĸà¦¨ à¦ıà¦Ł
à¦¬à¦°à¦® à¦Ļ
à¦¦ à¦ĵà¦°
à¦°à¦ª à¦°à¦ıà¦ķà¦¦
à¦¹ à¦Ĩà¦¹à¦®
à¦¤ à¦°à¦ħà¦Ń
à¦°à¦ª à¦°à¦Ĩà¦²
à¦ļà¦² à¦ıà¦¬
à¦Ŀ à¦®
à¦Ńà¦¬ à¦¹à¦¤
à¦ķ à¦Ĩà¦ļà¦°à¦£
à¦ª à¦īà¦¨
à¦Ĺà¦¤ à¦īà¦¦
à¦Ĺà¦² à¦¯
à¦¨à¦¸ à¦°à¦¦
à¦¶à¦® à¦Ļ
à¦¦ à¦ıà¦°à¦¸
à¦ĵ à¦¬à¦ķ
à¦ł à¦ķà¦¨
à¦¡à¦Ł à¦ķà¦®à¦ª
à¦¦ à¦ĩà¦ķà¦¬
à¦« à¦ĩà¦¸à¦²
à§©à§¦ à§ª
à¦¬à¦ĩ à¦¦à¦ķ
à¦¬à¦¨ à¦ķà¦°à¦²
à¦¨à¦Ĩ à¦ªà¦¤
à¦² à¦ĩà¦Ń
à¦ľ à¦¹à§Łà¦¨
à¦¡à¦² à¦ħà¦°
à¦§ à¦ıà¦Ł
à¦¯ à¦«à¦°
à¦£ à¦ļà¦°
à¦°à¦¬ à¦ĩà¦¨
à¦Ń à¦²à¦ªà¦®
à¦Ĺà¦² à¦¹à¦¯
à¦¨ à¦Ĩà¦¸à¦¤
à¦¤ à¦ıà¦ĩà¦¦
à¦ľ à¦ľà¦¨
à¦¹à§Ł à¦ıà¦ĸ
à¦ķà¦Ĩ à¦¦à¦°
à¦ı à¦ıà¦«
à¦ĵà¦ľ à¦Ļ
à¦ķà¦ª à¦Ľà¦¨
à¦« à¦ªà¦°
à¦¸à¦¹ à¦ķà§Ł
à¦® à¦²à¦¨
à¦ľà¦¨ à¦Ńà¦Ł
à¦¦ à¦Ĩà¦Ĺ
à¦¬à¦²à¦² à¦Ĩà¦ªà¦¨
à¦¯ à¦Ĩà¦ª
à¦¨à¦¨ à¦ľ
à¦ļà¦ķ à¦ªà¦°
à¦® à¦°à¦£à¦ķ
à¦Ł à¦ħà¦¬à¦¸
à¦¤ à¦°à¦®à¦¤à¦²à¦¬à¦¦à¦ķ
à¦¸ à¦¯à¦ĸà¦¨
à¦¯ à¦¹à§Łà¦¨
à¦Ĺ à¦ĩà¦¬
à§§à§¯ à§¨à§¬
à¦¹à¦ľ à¦°à¦¤à¦®
à¦ıà¦¨à¦Ĩ à¦¡
à§Ł à¦ıà¦®
à¦¨à¦¯ à¦¤à¦¦
à¦¬à¦¹ à¦ªà¦°
à§¨à§¦à§¨à§§ à§§à§¬
à¦īà§İà¦¸à¦¬ à¦¦
à§³à§³ à§³à§³
à¦°à¦ª à¦ľ
à¦ł à¦¬à¦¨
à¦¯à¦¤à¦® à¦¹à¦²
à§¦à§§à§Ń à§§à§©
à¦¯à¦Łà¦¨ à¦°à¦ķà¦®
à¦² à¦ĵà¦¡
à¦Ĩà¦® à¦ķ
à¦°à¦¸ à¦«à¦Łà¦ĵà¦¯
à§Ł à¦°à¦ļ
à¦°à¦£ à¦ķà¦®
à¦¹ à¦°à¦¶
à¦ķà¦°à¦¬ à¦Ĩà¦®
à¦°à¦ĸà¦¬ à¦°à¦Ń
à¦Ĺà¦ł à¦¨à¦¹
à¦ª à¦ĵà¦ª
à§§à§¦ à§ªà§§
à¦¤à¦¨ à¦Ĩà¦¨à¦¤
à¦¨à¦ıà¦ĸ à¦¨à¦ķ
à¦°à¦£ à¦ĵà¦¬
à¦ıà¦ĸà¦¨ à¦ĵà¦®
à¦°à¦¶ à¦¶
à¦Ŀ à¦²à¦¸
à¦°à¦¹à¦£ à¦¸à¦®
à¦¬ à¦°à¦ļà¦Ł
à¦² à¦īà¦ł
à¦¤à¦ľ à¦Ł
à§§à§¯ à§¨à§©
à¦²à¦Ń à¦®
à¦°à¦¥à¦® à¦ĵà§Ł
à¦¶à¦¹ à¦°à¦ķà¦²à¦ķ
à§Łà¦ķ à¦²à¦ķ
à¦ľà¦Ĺ à§İ
à¦ķà¦ħ à¦¸à¦¹
à¦¯à¦ķà¦°à¦¤ à¦¥
à¦Ķà¦· à¦§à¦¬
à¦ķ à¦ĵà¦²
à¦¬ à¦ħà¦ªà¦°
à¦¦à¦¨à¦« à¦°à¦®à¦ª
à¦¡ à¦²à¦Ĺ
à§İ à¦ļà¦ķ
à§Ńà§¦ à§ª
à¦ľà¦¨à¦ķà¦¨ à§Łà¦ıà¦®à¦¨à¦®à¦¨
à¦¤à¦¹ à¦īà¦¨à¦¯
à§¨à§¦à§¨à§§ à§§à§Ń
à¦°à¦ĩ à¦¨à¦¬
à¦ĵ à¦Ĩà§Ł
à¦¬à¦ľ à¦Ĺà¦¤
à¦°à¦¹ à¦¨à¦ª
à¦ĩà¦¡ à¦¬à¦Ĺ
à§§à§ª à§¦à§§
à¦°à¦ļ à¦¬
à¦¯à¦« à¦¸à¦²
à¦®à¦°à¦£ à¦ª
à¦ĩà¦¡ à¦¨à¦°à¦¸
à¦¯à§Ł à¦¹à§Ł
à¦ı à¦²à¦Ĺ
à¦¬à¦¸ à¦¡à¦ħ
à¦¨à¦ª à§Ł
à¦¬ à¦ıà¦²
à¦¹ à¦¨à¦¯
à¦« à¦Ĩà¦ľ
à¦£ à¦ıà¦ĩà¦ļà¦¡
à¦ªà¦Łà¦ª à¦¬
à¦¤ à¦Ĩà¦ļ
à¦ĵ à¦ħà¦Ļ
à§§à§¦ à§«à§§
à§§à§® à§¬à§¦
à¦ħà¦¸ à¦Ļ
à¦¶ à¦ħà¦¤
à¦¤ à¦ıà¦®à¦¨à¦ķ
à¦¨à¦« à¦°à¦®
à¦Ł à¦°à¦²
à¦°à¦īà¦ª à¦°à¦ħà¦¨
à¦¨à¦¹ à¦ľ
à¦ļ à¦®à¦¸à¦ª
à¦ĵ à¦ľà¦¨à¦¸
à§¯à§¦ à§Ń
à¦¨ à¦īà¦ªà¦Ń
à¦ĵ à¦¶à¦¨
à¦¸à¦¹ à¦ľà¦ª
à¦¸ à¦Ĩà§Ł
à¦²à¦¨ à¦Ĺà§ľ
à¦Ĺà¦ľ à¦¸à¦®
à¦®à¦« à¦¯
à¦¨à¦Ĩ à¦¨à¦¤
à¦°à¦ı à¦¤à¦Ł
à¦¥à¦¨ à¦ķà¦°à¦¤
à¦¤à¦®à¦¤ à¦®
à¦°à¦ı à¦°à¦ķà¦®
à¦£à¦Ĺ à¦Ļ
à¦°à¦¹ à¦¹
à¦ĩà¦² à¦®à¦§
à§¬ à§ªà§¬
à¦«à¦² à¦¯
à§¬à§« à§®
à¦¯ à¦ĵà¦ħà¦¨
à¦Ł à¦®à¦¬
à¦®à¦¨ à¦ĩà¦¤
à¦°à¦Ĩ à¦°à¦Ĩà¦®
à§©à§® à§®
à¦ı à¦«à¦²
à¦¡ à¦ıà¦¸
à¦°à¦® à¦Ľ
à¦¤ à¦°à¦ıà¦ķ
à¦°à¦¹ à§Łà¦ķ
à¦ĺ à¦ļ
à¦¶à¦¤ à¦²
à¦¸à¦¸ à¦¤
à¦¦à¦® à¦«
à¦ķà¦¸à¦® à§Łà¦¬
à§į à§į
à¦¬ à¦°à¦£à¦ķ
à¦¤ à¦²à¦¨
à¦īà§İà¦¸à¦¬ à¦¶
à¦ķà¦¤ à¦ĩà¦¨
à¦§à¦¬ à¦ķà¦°
à¦¸à¦ļ à¦¤
à¦¥ à¦²à¦¨
à¦°à¦£ à¦¤à¦¨
à¦ĵà¦ª à¦ŀ
à¦¬à§ľ à¦¹
à¦ĩà¦¸à¦¬ à¦¬
à¦ªà¦£ à¦¦
à¦°à¦® à¦¨à¦¬
à¦ªà¦¨ à¦²
à¦ķà¦ĸà¦¨ à¦¯
à¦ı à¦ĵà§Ł
à¦·à¦¦ à¦ªà¦°
à¦¤ à¦¯à¦¨
à¦Łà¦¬à¦² à¦¸
à¦Ĩ à¦ªà¦¦
à¦Ĺà¦² à¦Ń
à¦¬ à¦°à¦Ĩà¦²
à¦ł à¦ķà¦°à¦¬
à¦¬à¦Ľ à¦°à¦Ĩà¦®
à¦¦à¦Ĩ à¦¤à¦¬
à¦ıà¦ĩ à¦īà¦ª
à¦®à¦® à§Łà¦®à¦¨à¦¸
à¦ľ à¦Ńà¦°
à¦Ĺ à¦¸à¦®à¦°
à¦Ĩ à¦¨à¦ķ
à§§à§¦ à§§à§¦
à¦ĸà¦¬ à¦°à¦Ĩà¦®
à¦ı à¦Ľà¦¬
à¦ļ à¦Ļ
à¦ªà¦¶ à¦¨à¦¸
à¦¸ à¦°à¦ļà¦¨
à¦ķà¦² à¦¨à¦¸
à§¨à§¦à§¨à§§ à§§à§©
à§Ł à¦Ĺà¦£
à¦ĵ à¦ıà¦ĩà¦ļà¦ıà¦¸à¦¸
à¦®à¦¸ à¦¸
à¦ıà¦®à¦¨ à¦¶
à¦¸ à¦Ĩà¦ĩ
à¦² à¦Īà¦®
à¦¶ à¦Ĩà¦¶
à§Łà¦¨ à¦¹
à¦®à¦¦ à¦ĩà¦īà¦¸
à¦ħà¦¨ à¦¶à¦¨
à¦Ĩà¦¸ à¦¨à¦ª
à¦¸à¦¨ à¦¡
à§© à§¨à§¦à§¨à§¦
à¦°à¦¥ à¦²
à¦¸à¦¹ à¦Ł
à¦Ńà¦¬ à¦ķà¦°à¦¬
à¦Ńà¦¬à¦¨ à¦¥
à¦«à¦¤à¦® à¦ľà¦²
à§Ń à§¦à§¦à§¦
à§İ à¦īà¦¨
à¦¨à¦ı à¦¹
à¦ı à¦°à¦ıà¦ķ
à¦¨à¦Ĩ à¦«à¦°
à¦¯à¦¤ à¦Ń
à¦¸ à¦ĩà¦²
à¦ª à¦Łà¦¦
à¦¤à¦ĸà¦¨ à¦ıà¦Ł
à¦²à¦¹à¦ķ à¦ıà¦®à¦ª
à¦ľ à¦ĸà¦²
à¦·à§Ł à¦ªà¦°
à§Ł à¦Ĺà¦£à¦¤à¦¨
à¦ı à¦ıà¦ķ
à¦¨à¦¬ à¦Ĩà¦¬
à¦¦ à¦«à¦°
à¦§ à¦Ĩà¦ĩà¦¨à¦Ĩà¦¦
à§§à§¯ à§¨à§ª
à¦Ĺà¦¤ à¦¸à¦¹
à¦¬à¦¨ à¦ĩà¦¸à¦²
à¦¨à¦ı à¦°à¦ĩà¦®à¦§
à¦¹ à¦¹à§Ł
à¦¤ à¦°à¦ĩà¦¸à¦²
à§® à§¬à§¦
à¦¯à¦ķ à¦¶
à¦¥ à¦ķà¦¨
à¦¶à¦¨ à¦ĵà¦°
à¦¨à¦Ĺ à¦¤à¦¬à¦Ľ
à¦¨à¦Ń à¦¸
à§¨à§¦à§§à§Ńà§¨à§¦à§§à§®à§¨à§¦à§§à§¯à§¨à§¦à§¨à§¦à§¨à§¦à§¨à§§à§¨à§¦à§¨à§¨à§¨à§¦à§¨à§©à§¨à§¦à§¨à§ªà§¨à§¦à§¨à§«à§¨à§¦à§¨à§¬ à§¨à§¦à§¨à§Ń
à¦¦ à¦®à¦¸
à¦ľ à¦®à¦¸
à¦°à¦ķ à¦īà¦¨
à¦¹à¦¹à¦¹à¦¹ à¦¹à¦¹à¦¹à¦¹
à¦īà¦¨ à¦ĺ
à¦°à¦ıà¦ĩ à¦Ľà¦¬
à¦ı à¦¨à¦Ĺ
à¦ļ à¦ļà¦²
à¦·à¦£ à¦¡
à¦ķ à¦ĩà¦¯
à¦¤à¦¬ à¦®
à¦Ĳ à¦¹
à¦ªà¦¦ à¦Ĩà¦¶
à§İà¦¸ à¦ķà¦¸
à¦ħà¦ªà¦¹ à¦°à¦£à¦ķ
à¦ķ à¦ıà¦°à¦¬
à¦¥ à¦ķà¦²
à¦°à¦ª à¦°à¦¸à¦®
à¦¬à¦ķ à¦Ľ
à§Ł à¦ĩà¦²
à¦¸ à¦Ĩà¦ĩà¦¡
à¦· à¦ĵà¦ª
à¦¦à¦² à¦¯
à¦¤à¦īà¦ª à¦¸à¦°
à¦¯à¦« à¦¨
à§Ł à¦ĵà¦°
à§¨à§¦à§¨à§¨ à§«
à¦² à§ľà¦Ľ
à¦ĩà¦¨ à¦«à¦°
à¦°à¦¡ à¦®
à¦Ĩ à¦¤à¦ķ
à¦²à¦ķ à¦ĸ
à§¬à§« à§¯
à¦ĸ à¦ł
à¦¨à¦ı à¦°à¦ªà¦°à¦¥
à¦ķà¦¬à¦Ľ à¦°à¦Ĺ
à§¨à§¦à§¨à§§ à§§à§®
à¦²à¦Ĩà¦² à¦®à¦¬
à¦¸ à¦¨à¦Ĩ
à¦¶ à¦¨à¦ķà¦°à¦Ľ
à¦· à¦Ĩà¦¨à¦¨
à¦¤à¦¨ à¦¹à¦ĵà§Ł
à¦°à¦ĩ à¦ľà¦¨
à¦¬ à¦ĵà¦¨
à¦ĩà¦« à¦Ĩà¦²
à¦ķ à¦Ĺà¦£à¦®
à¦Ĺ à¦¸à¦¬
à¦ĩ à¦°à¦Ļ
à¦· à¦ıà¦Ł
à¦Ń à¦ķà¦°à¦Ľ
à¦Ĩà¦² à¦Ĩà¦°
à¦¸à¦¹ à¦¸à¦ķà¦²
à¦°à¦ĩ à¦ķà¦®
à¦°à¦īà¦ª à¦°à¦Ŀ
à¦¨à¦Ĩà¦¬ à¦¹
à¦ľà¦¡ à¦¦
à¦¨à¦Ĩ à¦¨à¦Ń
à¦°à¦¥à¦® à¦¬à¦²
à¦¡ à¦²à¦¤
à¦®à¦¤ à¦ıà¦¬
à¦ĵ à¦¨à¦¹
à¦ªà§ľ à¦ķ
à¦ķà¦°à¦£ à¦¨
à¦Łà¦¹à¦² à¦¦
à¦ĵ à¦īà¦ł
à¦ķà¦ľà¦¨ à¦ľ
à¦Ĩà¦°à¦ı à¦ĸà¦¨
à§Ł à¦ļà¦²à¦Ľ
à¦ļà§Ł à¦Ĩà¦²
à¦¬ à¦Ĩà¦¬à¦¦
à¦¹ à¦ķà¦°à¦²
à§¨à§¦ à§«à§¦
à¦Ł à¦ıà¦ĸ
à¦§ à¦ĵà¦ª
à¦ķ à¦°à¦Ĩà¦®
à¦°à¦ª à¦ª
à¦® à¦īà¦ł
à§Ł à¦ļà¦°
à¦Ĩ à¦ĩà¦Ĺ
à¦¸à¦« à¦²à¦ķ
à¦°à¦ĸ à¦°
à§§à§¨à§¦ à§¯
à¦·à§Ł à¦ıà¦¬
à¦ĵ à¦Ľà§ľ
à¦°à¦ª à¦°à¦¨à¦¤
à¦¨à§Łà¦¨ à¦«
à¦ĵ à¦ķà¦¤
à¦¨à¦¬ à§Ł
à¦°à¦¥à¦® à¦ħà¦¨
à¦ļ à¦®à¦¸
à¦ĸ à¦°à§Ł
à¦²à¦ª à¦°à¦¶
à§Łà¦¨à¦¸ à¦²
à¦¨à¦Ĩà¦¤ à¦Ļ
à¦¨ à¦ĩà¦Ĩà¦®
à¦ĩà¦¸à¦® à¦ķ
à¦¯à¦ĩ à¦ıà¦Ł
à¦¸ à¦ıà¦°à¦ľà¦¨
à¦¦ à¦ıà¦¨
à¦°à¦ı à¦ªà¦°
à¦²à¦ķ à¦®à¦¨
à¦¯à¦ĩ à¦Ĩà¦®à¦°
à¦ĵ à¦¹à¦ļ
à¦¯à¦¸ à¦ŀ
à¦ĩà¦¦ à¦¹à¦ľ
à¦ıà¦¸à¦¬ à¦ĺà¦Łà¦¨
à¦ļà¦ķ à¦Ĺ
à¦¤ à¦°à¦ıà¦ķà¦Ł
à¦°à¦īà¦ª à¦ķà¦®
à¦¡à¦ª à¦ŀ
à§ªà§¯ à§®
à§Łà¦¬ à¦ĩà¦¬
à¦ĸà¦¬ à¦°à¦¹
à¦¯ à¦īà§İà¦¸à¦¬
à¦Ĩ à¦Łà¦®
à¦ªà¦¦ à¦®à¦°
à¦Łà¦ª à¦¸
à¦² à¦ıà¦ķà¦¸
à¦¨à¦Ĩà¦® à¦¦
à¦¶ à¦¤à¦¨
à¦ĩ à¦ľà¦¨à¦Ĺà¦£
à§Łà¦ĵ à¦Ĩà¦¨
à¦¶ à¦²à¦Ł
à¦¤ à¦°à¦ħà¦«
à¦«à¦² à¦ħà¦¨
à¦ĩà¦¦ à¦Ĩà¦¹à¦®
à¦ĸ à¦°à¦ķ
à¦®à¦¡ à¦°
à¦°à¦¸à¦ķà¦² à¦¤à¦¥
à¦ĵ à¦¨à¦ķ
à¦°à¦¬ à¦ĩ
à¦¶à¦ĵà¦¸ à¦¹à¦¯
à¦¸ à¦ļà¦Ł
à¦¶à¦Ĺ à¦¤à¦ķ
à¦ıà¦¸à¦¬ à¦ĸ
à¦¶à¦¨à¦ª à¦¦
à¦¬ à¦°à¦ķà¦²
à¦· à¦°à¦¸
à¦ĵ à¦ħà¦ľ
à¦¯à¦® à¦§
à¦¸à¦¦ à¦°à¦¦à¦«à¦¤à¦°
à¦ıà¦ķ à¦Ĩà¦¤
à¦¤à¦°à¦Ĩ à¦¹à¦¤à¦¹à§Ł
à¦¨à¦Ĺà¦£ à¦¤à¦¨
à¦¬ à¦Ĺà¦¨
à¦¬à¦¨ à¦Ľ
à§ª à§®à§¦
à¦®à¦¤ à¦Ĩà¦²
à§§à§§ à§§à§Ń
à¦¨à§Ł à¦ıà¦Ł
à¦¨à¦ħ à¦¸à¦®
à¦¹à§Ł à¦¸à¦Ń
à¦°à¦īà¦ª à¦Ń
à¦¬ à¦ľà¦®
à¦²à¦¹ à¦¸à¦ª
à¦ĵ à¦ıà¦®
à§¨à§Ń à§¬
à¦¦à¦ķ à¦¶à¦¹
à§Ł à¦Ĩà¦ĩà¦¸
à¦ħ à¦¤à¦°
à¦ľà¦® à¦®
à¦ł à¦ħà¦¨
à¦¦à¦ķà¦¸ à¦¨
à¦¨ à¦°à¦ĵà¦¯
à§©à§¬ à§¯
à¦§à¦¶ à¦¤à¦ķ
à§© à§¨à§«
à¦¨à¦Ń à¦¯
à§¨à§¦à§¨à§¨ à§§à§©
à¦¦à¦ķ à¦Ĩà¦¸
à¦¨ à¦ļà¦²à¦®
à¦¬ à¦Ĩà¦¹à¦¸
à¦ª à¦ħà¦¬à¦¦
à¦²à¦Ĺ à¦¡
à¦²à¦ľ à¦¬à¦¸
à¦®à¦¸ à¦«
à§ª à§¨à§¬
à§§à§¦ à§Ńà§§
à¦®à¦¯ à¦ĸà¦¨
à¦ĩ à¦Ĺà¦¬
à§¨à§¦à§¨à§¨à§¦ à§¬
à¦ķ à¦ħà¦²
à¦¹ à¦Ĩà¦ľ
à¦Ń à¦¬à¦²
à¦§ à¦īà¦ªà¦¸
à¦¨à¦ı à¦°à¦ħà¦¨
à¦¨à¦ķ à¦®à¦²
à§İà¦¸à¦ķ à¦ĵà¦¸
à¦° à¦°à¦¦
à¦ľ à¦ķà¦ķ
à¦· à¦¨à¦ļ
à¦·à¦£ à¦ıà¦ķ
à¦°à¦ĩ à¦¥
à¦¨à¦ĵ à¦Ĩà¦²
à¦¤à¦¹ à¦¨à¦¬
à¦ıà¦¸à¦® à§Łà¦ķ
à¦ĩ à¦ıà¦ķà¦ĩ
à¦¡ à¦ıà¦®
à¦ª à¦Ľà§ľ
à¦²à¦Łà¦¨ à¦«
à¦ıà¦ĩ à¦¸à¦¬à¦¬
à¦¨à¦ıà¦ķ à¦¸à¦®à§Ł
à¦¬ à¦¤à¦ķ
à¦°à¦¥à¦® à¦Ľ
à¦¶ à¦Ĩà¦®à¦°
à¦²à§Ł à¦Ń
à¦ķà¦ĸ à¦Ĺà¦ĺ
à¦¸ à¦Ĩà¦¶
à¦¯ à¦Ľà§ľ
à¦¹à¦¨ à¦ķà¦°à¦¤
à¦Ĩà¦°à¦ľ à¦Ĩà¦²
à¦²à¦¥ à¦Ł
à¦² à¦ħà¦®
à§Ł à¦ĵà¦®
à¦°à¦ľà¦¨ à¦¸à¦®
à¦Łà¦ķ à¦¨à¦«
à¦¬ à¦¬à¦²à¦²
à¦¯ à¦ıà¦¡
à¦¯à¦ĵ à¦Ĺà¦¬
à¦®à¦ĵ à¦ľà¦¨
à¦ıà¦ķ à¦¨à¦®
à¦īà¦¨ à¦°
à¦¨à¦ı à¦°à¦ªà¦°à¦¸
à¦² à¦®à¦¨à¦¸
à¦² à¦īà§İà¦¸
à¦¥à¦¸ à¦¹à¦¬
à§«à§« à§®
à¦ıà¦°à¦ª à¦°à¦¨
à¦ĺà¦Ł à¦ķà¦¸
à§¨à§¦à§¨à§§à§¨ à§§
à¦Ĺ à¦¹à¦¨
à¦¤à¦¨ à¦ĸ
à¦®à¦¨ à¦ĩà¦¸à¦²
à¦°à¦¸ à¦¨à¦ª
à¦¨à¦Ĩ à¦²à¦ķ
à¦°à¦¡ à¦¶
à¦°à¦īà¦ª à¦°à¦ħ
à¦¤à¦°à¦£ à¦ľ
à§Ł à¦Ĳà¦¤
à¦¶ à¦¬à¦²à¦Ľ
à¦¥ à¦¨à¦¨
à¦ĩà¦ķ à¦¯
à¦ĩà¦¡ à¦ĩà¦¨à¦¸
à¦¡à¦² à¦¸à¦®
à¦ıà¦°à¦ª à¦°à¦¶
à¦¤à¦ĸ à¦¬à¦°
à§İ à¦¹à§Ł
à¦Ł à¦īà¦ªà¦°
à¦ľà¦¨ à¦ªà¦¡
à¦¦à¦²à¦¬ à¦¦
à¦² à¦®à¦¸
à¦Ń à¦¬à¦°
à¦· à¦ıà¦ĸà¦¨
à¦ĵ à¦°à¦ľà¦¨
à¦°à¦® à¦«
à¦¨à¦ľ à¦Ĺ
à¦ĩ à¦ĩà¦¸
à¦ĵ à¦ıà¦ķà¦¦
à¦²à¦ķ à¦®à¦²
à¦¬ à§İà¦¸à¦°
à¦²à¦Ĺ à¦ľ
à¦ıà¦ķà¦¤ à¦°à¦«
à¦Ń à¦®à¦¹
à¦°à¦¬à§Łà¦¸ à¦¸
à¦Ĩ à¦ĵà¦¤
à¦ķà¦ħ à¦¯
à¦°à¦¬ à¦īà§Ł
à¦°à¦¤ à¦Ł
à§§à§Ń à§§
à¦§à¦® à¦ķà¦¦
à¦² à¦ļà¦²à¦¤
à¦Ĺ à¦®à¦§
à¦¬à¦¹ à¦¨à¦ª
à¦¤ à¦Ĺà§ľ
à¦¸ à¦¯à¦¤
à¦· à¦ĵà¦®
à¦§ à¦°à¦ķ
à¦¸ à§İà¦¬
à¦°à¦£ à¦ıà¦ĸ
à¦Łà¦ķ à¦ķà¦°
à¦¤à¦¤ à¦²
à¦ħà¦« à¦®
à¦¹à§Ł à¦ıà¦°à¦®à¦§
à¦ķà¦°à¦£ à¦Ĺ
à¦ī à¦ħ
à¦¸à¦«à¦² à¦¹à¦¬
à¦² à¦ıà¦¶
à¦¹ à¦°à¦ħà¦¨
à¦¯à¦ª à¦°à¦¬
à¦¯ à¦ĩà¦Ĺ
à§Łà¦® à¦¶
à¦¶ à¦°à¦ª
à¦Ĺ à¦¹à¦ĵà§Ł
à¦®à¦® à¦¡
à§Ł à¦¤à¦¸
à¦¹ à¦¸à¦°à¦ķ
à¦¸à¦ķ à¦¨à¦«
à¦Ĩà¦°à¦ı à¦ĩà¦ª
à¦°à¦ıà¦ĩà¦¸ à¦ıà¦¸à¦¸
à¦°à¦¤ à¦ķà¦®
à§§à§¦ à§¨à§¨
à§ªà§¦ à§¯
à¦Ł à¦Ĩà¦ĩà¦¨à¦ľ
à¦§ à¦Ĩà¦ķ
à§Łà¦ª à¦¦à¦ķ
à¦°à¦¥à¦® à¦ıà¦ķ
à¦¸ à¦ĩà¦ŀ
à§İ à¦¡
à¦ıà¦¨à¦ı à¦«
à¦Ĩà¦°à¦ı à¦Ń
à¦°à¦Ĩà¦¹ à¦®à¦¦à¦®
à¦¸ à¦¯à¦¨
à¦£ à¦ªà¦¤
à¦īà¦ª à¦°à¦ª
à¦®à¦Ł à¦°à¦¸
à¦¤ à¦§à¦¨
à¦¶ à¦ĩà¦ª
à¦· à¦ĵà¦¯
à¦Ĩà¦¬ à¦Ľ
à¦¯à¦¶ à¦¹à¦°
à¦Ĩà¦ĩà¦ıà¦« à¦Ĩà¦ĩà¦¸
à§Łà¦ķ à¦£
à¦¸ à¦Ĺà¦°
à¦¯ à¦ħà¦¶
à¦§ à¦°à¦®
à¦¶à¦¨ à¦īà¦¦
à§§à§© à§§à§«
à¦Ĩ à¦¹à¦ķ
à¦§ à¦¬à¦°
à¦°à¦ı à¦ĸà¦¤
à¦¸à¦¹ à¦ªà¦°
à¦ıà¦² à¦Ł
à¦Ĺ à¦ľà¦ª
à¦¦ à¦¹à¦ĵà§Ł
à¦ķà¦ľà¦¨ à¦¯
à¦°à¦¬ à¦®à§Ł
à¦ķà¦¬ à¦°à¦¦
à¦ıà¦¸ à¦ıà¦¸à¦ķ
à¦®à¦¤ à¦¹à¦¬
à¦¬ à¦ªà¦¨à¦¸
à¦ħà¦ª à¦¶à¦ķ
à¦ĩà¦ıà¦ķ à¦¥
à¦°à¦¥à¦®à¦¸ à¦Ń
à¦Ĩ à¦¯à¦¯
à¦¡ à¦ķà¦ª
à§ĥ à§į
à¦ķà¦Ł à¦¶à¦¬
à¦°à¦ª à¦°à¦Ĺà¦¤
à¦ķà¦Ł à¦Ĺ
à¦²à¦¤ à¦¸à¦®
à¦Ĩà§Łà¦ķà¦° à¦°
à¦ħà¦¥ à¦ļà¦®
à¦°à¦ª à¦¦à¦¸
à¦°à¦¹ à¦Ĺ
à¦¨à¦Ĩ à¦°à¦Ĩà¦ªà¦¨
à¦Ł à¦Ĩà¦¶
à¦ł à¦¨à¦Ń
à¦ª à¦²à¦Ĺ
à¦°à¦ķ à¦ĵà¦®
à¦Ĺà¦£ à¦¥
à¦ıà¦¤à¦¬ à§ľ
à¦¦à¦¶ à¦¬à¦Ľà¦°
à¦¦à¦® à¦ľ
à¦¡ à¦¹à¦¬
à¦Ĩà¦°à¦ĵ à¦ªà¦°
à¦² à¦Łà¦¬
à§¨à§© à§¨
à¦¤à¦¬ à¦Ĺ
à¦²à¦¹à¦ķà¦® à¦®à¦¤
à¦ľà¦® à¦¹à¦²
à¦°à¦¸ à§Ł
à¦ķà§ľ à¦¸
à¦ĵ à¦°à¦®à¦ľ
à¦®à§Ł à¦ļà¦ķ
à¦¨ à¦²à¦¤
à¦Ĺà¦°à¦® à¦®
à¦ľ à¦Ĺà¦£
à¦Ń à¦¨à¦®
à§Łà¦¨ à¦Ł
à¦ĵà¦¤ à¦ĸà¦¨
à§¨à§« à§©à§¦
à¦Ĩà¦Łà¦ķ à¦Ľ
à¦ıà¦ĩà¦ļ à¦¹
à¦°à¦Ķà¦· à¦§à¦ķ
à¦ª à¦²à¦ª
à¦¦ à¦¤à¦°
à¦°à¦ª à¦²à¦ķ
à¦¬à¦¸ à¦°à¦ļà¦¨
à¦ķ à¦ıà¦¦
à¦ıà¦¸ à¦ıà¦°à¦¸
à§§à§¨ à§«à§¦
à¦¯ à¦¶à¦¨
à¦Ĺ à¦«à¦°
à¦®à¦¦ à¦ıà¦°à¦¶
à§Łà¦¹ à¦ł
à¦ħ à¦ħ
à¦ķà¦Ľ à¦¡
à¦¶ à¦¸à¦¬
à¦ķ à¦¬à¦²à¦²
à¦īà¦¡ à¦Ń
à¦ĸ à¦²à¦¬
à¦£ à¦®à¦¹
à¦Ń à¦ħ
à¦°à¦īà¦ª à¦°à¦ĸ
à¦¤ à¦¯à¦¤
à¦°à¦® à¦ľà¦²
à¦®à¦¤ à¦¯
à§¬à§« à§¬
à¦·à¦ħ à¦¦à¦ķ
à¦¨à¦ıà¦« à¦°à¦¹à¦®
à¦® à¦ªà¦ķ
à¦¶ à§Łà¦¨
à¦ıà¦ĩ à¦Ĺà¦¬
à¦ľ à¦ªà§ľà¦¤
à¦ĸà¦°à¦ļ à¦ķà¦®
à§ĩ à§ģ
à¦ķ à¦ĩà¦īà¦ķ
à¦· à¦ĵà§Ł
à¦¥ à¦Ĩà§Ł
à¦®à¦¸ à¦ĵà§Ł
à¦ľà¦¨ à¦ıà¦Ł
à¦ĵ à¦ĩà¦ĸ
à§¨à§¯ à§¨
à¦°à¦ª à¦°à¦ĺà¦£
à¦ĵ à¦°à¦¶
à¦Ĺà¦² à¦ľ
à¦¨à¦² à¦Ļ
à¦® à¦¸à¦®à§Ł
à¦§ à¦ıà¦²
à¦°à¦ıà¦¸ à¦ıà¦®
à¦¤ à¦°à¦¹à¦®
à¦· à¦®à¦ľ
à§Łà¦ķ à¦Ń
à¦¦ à¦°à¦Ļ
à¦¶ à¦Ĺà¦łà¦¨
à¦¥ à¦¨à¦¬
à¦¡ à¦¨à¦ķ
à¦¨à¦ĵ à¦ħà¦¸
à¦¨à¦ĩ à¦²à¦¨à¦®
à§¨à§¦à§¨à§¨à§¦ à§«
à¦°à¦ĵ à¦ĩà¦ļ
à¦ĩà¦ľ à§Ł
à¦¯ à¦ĩà¦īà¦Ł
à¦ľ à¦Ĩà¦®à¦¦
à¦¬à¦ĩ à¦ľà¦¨à¦ª
à¦ıà¦¸à¦ıà¦® à¦ıà¦¸à¦ª
à¦¨à¦¸à¦¬ à¦¸à¦®à§Ł
à¦· à¦¤à¦¤
à¦¨à¦Ĩ à¦¹à¦¬
à¦®à¦² à¦Ĺà¦Ļ
à¦¬à¦ľ à¦Ł
à¦¬ à¦ĸà¦¨
à¦Ł à¦īà¦¨
à§Ł à¦ħà¦¸à¦®
à¦¨à¦Ĺ à¦¤à¦¬à¦Ľà¦°
à¦ķ à¦īà¦ķ
à¦ĩ à¦Ĩà¦¸à¦¬
à¦ļà¦¨ à¦ıà¦¬
à¦¸ à¦ıà¦¡
à¦¦à¦ķ à¦ħà¦§
à¦¤à¦ķ à¦°à¦£à¦¸
à¦¶à¦ķ à¦ıà¦¬
à¦ªà¦ķ à¦ľà¦¨à¦ª
à¦®à¦Ĩ à¦°à¦Ľ
à¦¤à¦Ĺ à¦Ļ
à¦¬à¦ļ à¦°à¦®
à¦Ĺ à¦ķà¦²
à¦Ĩ à§Łà¦®
à§Łà¦¸ à¦¹à¦¯
à¦ı à¦ıà¦®à¦¨
à¦ľà¦¨ à¦¢
à¦¤ à¦ıà¦ĩà¦ķ
à¦ª à¦¸à¦¤
à¦Ł à¦ħà¦Ļ
à¦ĩ à¦ħà¦¸à¦®
à¦¹à¦² à¦¡
à¦Ĩà¦ĩà¦¨ à¦ĵà¦ħà¦ªà¦°
à¦¨à¦« à¦¯
à¦ķà¦ĸà¦¨ à¦ĵà¦¦
à¦°à¦ı à¦ľà¦¨
à¦Ł à¦¬à¦²à¦¤
à¦®à¦¨ à¦ıà¦¬
à¦¬ à¦ļà¦¤
à¦¬ à¦Ĩà¦¶
à¦² à¦¸à¦¹à¦Ĺ
à¦¶ à¦ħà¦¥à¦¬
à¦ĸ à¦Ĩà¦²
à¦¶à¦¨ à¦ıà¦¨
à¦ĵà¦ª à¦²
à¦°à¦Ĩ à¦ķà¦¸
à¦Ł à¦ķà¦¤
à¦ı à¦°à¦ĵà¦¬
à¦°à¦¸ à¦¨à¦ķ
à¦ªà¦¥ à¦ĸ
à¦ķà¦Ĩà¦ĩà¦¨ à¦®
à¦ļ à¦¬à¦°
à¦ļà§Ł à¦Ĩà¦®
à¦Łà¦¬à¦² à¦ıà¦ķ
à¦ļà¦ķ à¦ľ
à¦ıà¦¸à¦ıà¦® à¦¶
à¦Ł à¦²à¦Ł
à§İ à¦¬à¦²
à¦°à¦ķà¦° à¦¨
à¦¤ à¦°à¦īà¦ļ
à§Ł à¦¤à¦ķà¦°
à¦¤ à¦°à¦ļà¦ķ
à¦¯ à¦ĩà¦¬à¦¨
à¦Ĺà¦² à¦ıà¦ķ
à¦¯à¦¸à¦® à¦¨
à¦¨ à¦°à¦¹à¦¸
à¦² à¦ĵà¦ĸ
à¦ł à¦§
à¦¯ à¦ĵà¦Ĺ
à¦¯à¦¨ à§Ł
à¦²à¦Ń à¦ª
à¦®à¦°à¦£ à¦Ń
à§©à§¦ à§«
à¦Ĩà¦°à¦ı à¦ĩà¦¬
à¦ľà¦¨ à¦ıà¦ķà¦Ł
à¦ľà¦¨ à¦ıà¦¦
à¦¸ à¦ħà¦²
à¦¯ à¦ĩà¦ķà¦°
à¦¨à¦¸ à¦¬à¦®
à¦¯à¦Ł à¦¨à¦¬
à¦¯ à¦¸à¦ķà¦²à¦ķ
à¦°à¦ķ à¦¤à¦®
à¦¯ à¦¤à¦ķà¦°
à¦¡ à¦¦à¦ķ
à¦¤à¦® à¦ıà¦¬
à¦¯à¦Ń à¦Ł
à¦ĩ à¦īà¦ªà¦¸
à¦¡ à¦ĩà§Ł
à¦°à¦Ĩ à¦«à¦°
à¦ľà¦ª à¦£
à§«à§® à§®
à¦¡ à¦¬à¦ķ
à¦¶à¦¨ à¦ĵà§Ł
à¦¬à¦¹ à¦¨à¦ļ
à¦¤à¦¹à§Ł à¦¶
à¦Ńà¦¬ à¦¤à¦¸
à¦²à¦¥ à¦¸
à¦¶à¦¤à¦¶ à¦¤à¦®
à¦¨ à¦°à¦°
à¦°à¦ı à¦ĩà¦¡
à¦¬à¦² à¦ķà¦°à¦¤
à¦Ĩà¦°à¦ĵ à¦ķà¦®
à¦¶à¦¸à¦«à¦² à¦ķà¦°à¦¤
à§¨ à§¨à§Ń
à¦ķ à¦ĵà¦ªà¦°
à¦Ł à¦Ĩà¦ĩà¦¨à¦¸
à¦¡ à¦²à¦°
à¦¶à¦¨ à¦Ĩà¦®
à¦· à¦ĩ
à¦²à¦¬ à¦®
à¦¯à¦ªà¦¦ à¦ª
à¦¬ à¦Ĩà¦ľ
à¦ī à¦¬à¦²à¦¤
à¦°à¦ķ à¦¬à¦ķ
à¦Ĩà¦°à¦ĵ à¦¬à¦ķ
à¦¤ à¦ĵà¦ªà¦°
à¦§ à¦ļà¦²à¦Ľ
à¦°à¦ĩ à¦®à¦¨
à¦ħà¦ª à¦¶à¦¨à¦Ł
à¦¤ à¦¸à¦¹à¦ķ
à¦¬à¦īà¦²à¦Ĩà¦² à¦®à¦¹
à¦°à¦£ à¦ĵà¦ķ
à¦¦ à¦Ĩà¦«
à§©à§¦ à§§
à¦¶ à¦Ĩà¦ĩà¦ľ
à¦° à¦°à¦ľà¦¨
à¦¤ à¦ĩà¦ļ
à¦ª à¦īà¦ĩà¦ķ
à¦°à¦Ŀ à¦²à¦ķ
à¦Ł à¦ľà¦ķ
à¦¥ à¦¨à¦ļ
à¦·à¦Ĺà§ľ à¦ªà¦°à¦¤
à¦°à¦Ĩà¦Ĺ à¦®
à¦Łà¦Ĺà§ľ à¦ªà¦°à¦¤
à¦¶ à¦²à¦ķà¦°
à§¯ à§«à§®
à¦īà¦ľ à¦¡à¦Łà¦ķà¦®
à¦ľ à¦¦à¦ķ
à¦· à¦ıà¦ľà¦¨
à¦ĺ à¦°à¦ľà¦¨
à¦ī à¦ŀ
à¦ķà¦ľà¦¨ à¦Ľ
à¦Ĺ à¦Ĺà¦łà¦¨
à§ľ à¦ķà¦¨
à¦¶ à¦Łà¦¨
à§§à§¦ à§§à§ª
à¦ĵà¦« à¦°à¦®
à¦ĩ à¦Ĺà¦¨
à¦Ł à¦ĵà¦¸à¦®
à¦ľà¦¨ à¦¸à¦¹
à¦ıà¦ĸà¦¨ à¦ĵà¦¦
à¦¶à¦¹ à¦°à¦¤à¦²
à§¨ à§§à§¬
à¦Ĩà¦² à¦Ł
à¦Łà¦¨ à¦ľ
à¦¶à¦¨ à¦ĩà¦¸
à¦¤ à¦°à¦Ĩà¦²
à¦Ł à¦ĩà§Ł
à¦°à¦ª à¦°à¦Ĩà¦¸
à¦°à¦ĵ à¦Ĩà¦ªà¦¨
à¦¤ à¦ľà¦¨à¦Ĺ
à¦²à¦¤ à¦ķà¦°
à¦°à¦Ī à¦¦à¦Ĺ
à¦§ à¦īà¦ª
à§§à§« à§§à§®
à¦· à¦§à¦°à¦¨
à¦ĸ à¦²à¦¸
à¦¦à¦ķ à¦Ĩà¦¬à¦¦
à¦·à¦ķ à¦«
à§¨à§« à§§
à¦°à¦ķ à¦®à¦°
à¦°à¦¬ à¦²à¦Ń
à¦²à¦ķ à¦ľà¦¨
à¦² à¦²à¦¸
à¦ª à¦Ĩ
à¦¬à¦² à¦ªà¦°
à¦¡à¦ī à¦ĩà¦ļ
à§¨ à§¨à§®
à¦°à¦ĺ à¦°à¦Ł
à¦¤à¦ĸà¦¨ à¦ıà¦ķà¦Ł
à§ªà§ª à§ªà§«
à¦¬à¦°à¦ķ à¦ķ
à¦¨à¦¤ à¦ĸà¦¨à¦ª
à¦·à¦ķ à¦¬à¦²
à¦²à¦Ĺà¦ĩà¦¨ à¦ķà¦°à¦¤
à¦¡ à¦ĸà¦¨
à¦¨à¦¤ à¦®à¦¬
à¦ĵà¦® à¦ľ
à¦¨à¦ī à¦²à¦¹à¦ķ
à¦¯à¦ķ à¦°à¦¹à§Ł
à¦ħà¦ľ à§Łà¦¦
à¦¨à¦Ĺ à¦Ńà¦°
à¦® à¦ıà¦ķà¦¬
à¦ĵ à¦Ĳà¦¤
à¦ıà¦®à¦¨ à¦¤
à¦¹ à¦īà¦ªà¦²à¦ķ
à¦ī à¦²à¦¸
à¦ĩà¦¨ à¦ľà¦°
à¦ıà¦ĩ à¦¡à¦¸
à¦ļ à¦ħà¦ªà¦°
à¦ıà¦ĩ à¦ļà¦°
à¦¸à¦«à¦² à¦ķà¦°
à¦¨ à¦¨à¦¬à¦¨
à§Ł à¦ıà¦ĩà¦®
à¦§ à¦ħ
à¦ľà§Łà¦¨ à¦Ĺà¦°à¦¬
à¦¹à§Ł à¦ªà¦°à¦¬à¦°
à¦²à¦ķ à¦ĵà¦ª
à§Ł à¦°à¦ķà¦°
à¦¸à¦ª à¦¦
à¦²à¦Ĺ à¦®
à¦¯ à¦¨à¦®
à¦¸à¦® à¦²
à¦°à¦¨ à¦°à¦®
à¦¸ à¦Ľà§ľ
à¦°à¦¸à¦®à§Ł à¦ħà¦¨
à¦¨ à¦Ĳà¦¨
à¦·à¦£ à¦ĵà¦ª
à¦·à¦¯ à¦ĸà¦¨
à¦¦à¦¬ à¦ĩà¦®
à¦¸à¦«à¦² à¦ķà¦°à¦¤
à¦ŀ à¦®
à¦ľ à¦ªà¦¦
à¦ľà¦¦ à¦°à¦¬
à¦°à¦ĵ à¦ĩà¦ª
à¦§à¦¨ à¦¹à¦²
à¦¯à¦ķà¦° à¦¨
à¦²à¦Ĩ à¦°à¦Ĩà¦®
à¦Ĺ à¦¨à¦ľ
à¦Ĺà¦£ à¦§
à¦¶à¦¨ à¦Ĩà¦ªà¦¨
à¦· à¦®à¦¸
à¦§à¦¨ à¦¹à¦¤
à¦®à¦ļ à¦ª
à¦¹à¦¨ à¦ĵà§Ł
à¦¬ à¦°à¦ıà¦ķ
à¦Ĩà¦¸ à¦¨à¦¥
à¦°à¦ı à¦®à¦¨à¦¸
à¦°à¦ĩ à¦²à¦¨
à¦Ĺ à¦Ĩà¦Ļ
à¦¥ à¦ħà¦Ń
à¦¨à¦ĵ à¦īà¦ª
à¦²à§Ł à¦ļ
à¦ľà¦¬ à¦ķà¦°
à§© à§§à§«
à¦¤à¦¤ à¦¦à¦¨
à¦ĵà¦Ń à¦¬
à¦¹à§Ł à¦¸à¦°
à¦¨à¦ľà¦¨ à¦®
à¦¦à¦Ĩà¦² à¦®à¦ĸ
à¦°à¦« à¦²à¦¶
à¦²à¦¸ à¦¹à¦¤
à¦¡ à¦ĩà¦ŀ
à¦°à¦¸à¦ķà¦² à¦ªà¦°
à¦¤à¦¬à¦Ľ à¦°à¦§à¦°
à¦°à¦ª à¦°à¦¸à¦¬
à¦ķà¦® à¦ŀ
à¦¯à¦¨ à¦Ĺà¦°
à¦«à¦² à¦ıà¦¬
à¦Ĩ à¦īà¦²
à¦°à¦¥ à¦¯
à¦īà¦ľ à¦®à§Łà¦¦
à§Ń à§¯à§¯
à¦ļà¦² à¦¨à¦¬
à¦² à¦¸à¦¬à¦ļ
à¦¦ à¦ĩà¦¨
à¦²à¦ĵ à¦ħà¦Ń
à¦¥à¦ķà¦¸ à§ľà¦ķà¦¦
à¦® à¦ıà¦Ľ
à¦£ à¦¸à¦Ń
à§Łà¦® à§İà¦¸
à¦²à¦¯ à¦¥
à§ªà§¦ à§§à§Ń
à¦¶ à¦²à¦¶
à¦¶ à¦ħà¦¸à¦®
à¦Ń à¦Ĩà¦¸
à§©à§§ à§§à§®
à¦¯à¦ĵ à¦īà¦¦
à¦· à¦ĵà¦®à¦¹
à¦°à¦¹ à¦¸à¦¨
à¦ķà¦® à¦¶
à¦¨à§Łà¦¨ à¦ħà¦§
à¦¬à¦Ľà¦°à¦ª à¦°à¦¸
à¦¬ à¦°à¦Ĩà¦¬
à¦°à¦ĵ à¦ĩà¦¤
à¦·à¦£ à¦ĵà¦¹à¦¤
à¦Ĺà¦® à¦«
à¦® à¦ħà¦®
à¦ªà§ľ à¦¨
à¦Ĩ à¦°à¦§
à¦ªà¦¦ à¦¸à¦®
à¦¯à§Ł à¦§à¦°
à¦ķà¦® à¦ļ
à¦ıà¦® à¦ħà¦¨à¦²
à¦ķà¦Ĩ à¦°à¦¨
à¦¸à¦¬ à¦®à¦¨
à¦¨à¦Ĩ à¦ķà¦¨
à¦¬à¦Ľ à¦°à¦²
à¦¤ à¦Ńà¦¬
à¦°à¦ª à¦°à¦¢
à¦ĵà¦ĩà¦¬ à¦Ľà¦°
à¦īà¦ľ à¦²à¦ª
à¦¤à¦¨ à¦¹à¦ļ
à§Łà¦¸ à¦¦
à¦ľ à¦ļà¦²à¦®
à¦«à¦² à¦¹à¦¬
à¦¨ à¦¨à¦ķà¦¶
à¦ľà¦¨ à¦¤à¦¬
à¦¬ à¦ĩà¦¥
à¦®à¦ľ à¦¯
à¦¶à¦ĵ à¦ķà¦¤à¦Ĩà¦²
à¦¦ à¦īà¦ļ
à§Ł à¦ĩà¦¸à¦°
à¦£ à¦¹à¦ĵà¦¯
à¦ĺ à¦¯
à¦¯à¦ĩà¦ķ à¦ª
à¦¤ à¦²à¦¦
à¦ĩ à¦ĩà¦īà¦°
à§¨à§© à§§
à¦¶ à¦Ĺà¦¬
à¦ĩà¦¨ à§Łà¦¤
à¦ªà§ľ à¦ļ
à¦ª à¦¢
à¦°à¦£ à¦¬à¦²
à¦ĺ à¦²à¦¸
à¦® à¦¸à¦¬à¦Ĺ
à¦°à¦¶à¦¹ à¦°à¦¶
à¦°à¦Ĺ à§Łà¦¨
à¦¤à¦¹à§Ł à¦¤à¦¬
à¦² à§Łà¦¤
à¦¯ à§Łà¦¦
à¦¹ à§İà¦¬
à¦§ à¦ıà¦ª
à§¬à§¦ à§¨
à§Ł à¦Ĩà¦ļ
à¦°à¦£ à¦ıà¦Ń
à§®à§®à§¦ à§¨à§«
à¦® à¦Īà¦¨
à¦¸à¦¬ à¦ĩà¦¤
à¦ĩà¦² à¦«à¦°
à§ĥ à¦¼
à¦¨à¦¬ à¦Ĺà¦ł
à¦Łà¦¨ à¦¹
à¦ªà¦ĵ à¦ķà¦¬
à¦§ à¦īà¦¦
à¦¬à¦¹ à¦¬à¦¨
à¦ļ à¦ķà¦¤
à¦· à¦°à¦ľ
à¦Ĩà¦ĩà¦¨ à¦ħà¦ªà¦°
à¦°à¦¬ à¦Ł
à¦¤à¦¨ à¦ķà¦°à¦²
à§§à§« à§¨à§¦à§¨à§¨
à§Ńà§Ń à§Ń
à¦¬ à¦°à¦¬à¦¨
à¦ªà¦ķ à¦īà¦¨
à¦¨à¦ĵ à¦¬à¦¨
à§Ł à¦ıà¦°à¦Ĩà¦Ĺ
à§§à§¯ à§¦à§¯
à¦Ĺà¦¤ à¦ħà¦Ń
à¦¤à¦ĵ à¦ľà¦¨à¦ķà¦®
à¦¯ à¦īà¦ªà¦Ń
à¦« à¦ľà§Ł
à¦¸à¦®à§Łà¦¨ à¦·
à¦Ĩà¦°à¦ı à¦ĩà¦¸
à¦¬à¦¸ à¦ľ
à¦¥ à¦¸à¦Ń
à§Łà¦® à¦ŀ
à¦¸ à§İà¦Ń
à¦Łà¦ķ à¦²à¦ķ
à¦ĩà¦ı à¦°à¦ļ
à¦¬ à¦Ĺà§ľ
à¦¤ à¦ĩà¦Ń
à¦® à¦ħà¦²
à¦Ł à¦®à¦°
à¦¶ à¦¦à¦°
à¦¯à¦¨ à§Łà¦ķ
à¦¨à¦ı à¦¸à¦®à§Łà¦ª
à¦Ĩà¦°à¦ķ à¦¤à¦¦
à¦¯ à¦ħà¦²
à¦°à¦¨ à§Łà¦¬
à§§à§¯ à§§à§®
à¦°à¦ıà¦¸ à¦Ĩà¦ĩ
à§§à§® à§¬à§§
à¦² à¦Ĩà¦°à¦ĵ
à¦¶ à¦®à¦§
à¦¦à¦® à¦ħà¦¨
à¦ıà¦« à¦ľ
à§¨à§¯ à§¯
à¦§ à¦Ĩà¦¬
à¦Łà¦¸ à¦Ł
à¦« à¦Ĩà¦¬
à¦¨à¦Ĩ à¦°à¦¹
à¦ľ à¦ıà¦Ł
à¦°à¦£ à¦ħ
à¦ıà¦ĩ à¦Ĩà¦¬
à¦¹à¦² à¦ĸ
à¦¸à¦¹ à¦ĵà¦¯
à§¬à§¦ à§Ńà§¦
à¦Ł à¦¶à¦¬
à¦°à¦ĵ à¦®à¦¤
à¦ıà¦®à¦¨ à¦°
à¦ıà¦ķà¦ľà¦¨ à¦ªà¦°
à¦¡ à¦ĵà¦¬
à¦² à¦īà¦ªà¦¸
à¦¯ à¦¶à¦¬
à¦°à¦ħ à¦ªà¦ª
à¦ľà¦Ĩà¦² à¦ĸà¦²
à¦ĸà¦ķ à¦ĸ
à¦°à¦ªà¦¥ à¦¸
à¦¸ à¦¸à¦®à¦°
à¦Ĺ à¦¹à§Łà¦¨
à¦¶ à¦ªà§ľ
à¦¬à¦¹ à¦ĵà§Ł
à¦ıà¦ķ à¦ķà¦ª
à¦¤à¦¸ à¦ł
à¦ĩ à¦¤à¦¨
à¦· à¦°à¦ª
à¦« à¦¸à¦®
à§Ń à§¯à§¬
à¦ª à¦ĩà¦¨
à¦ı à¦Ńà¦°
à¦°à¦¨ à¦¶
à¦¦à¦Ĩà¦¤ à¦ıà¦¬
à¦² à¦ıà¦¸à¦ıà¦¸à¦¸
à§Ł à¦ıà¦ĸà¦¨à¦ªà¦°
à¦¤à¦ķà¦° à§Ł
à¦¹ à¦°à¦ĩà¦¬
à¦¤ à¦Ĳà¦¤
à§ª à§ªà§¦
à¦ĸà¦ķ à¦ıà¦ĩà¦¨
à¦· à¦¬à¦¸
à¦¸ à¦ıà¦°
à¦ĸ à¦¸à¦¡
à¦¬à¦¸ à¦Īà¦¦à¦Ĩà¦¨à¦¨
à¦¬à¦¦ à¦°à¦Ĺà¦ŀ
à¦¥ à¦¹à¦ĵà¦¯
à¦¶à¦¨ à¦ĵà¦®
à¦· à¦Ĩà¦ľ
à¦ķ à¦ĵà¦ķà¦°
à¦¦ à¦°à¦ªà¦¤
à§İ à¦ħà¦¸
à§Łà¦¦ à¦Ĩà¦¬à¦¦
à¦²à¦ĵ à¦Ĩà¦¬
à¦¸ à¦¦à¦²
à§Łà¦ķ à¦ķà¦°
à¦ľà¦¨ à¦¸à¦°à¦ķ
à¦¯à¦® à¦Ĩà§Ł
à¦ĵà¦¸ à¦¤à¦°
à¦¨à¦² à¦ŀ
à¦¡à¦¹ à¦°à¦«
à¦¨à¦¹ à¦ĩà¦¤
à¦ªà¦¨ à¦ķà¦¥
à¦¨à¦Ĩ à¦°à¦°
à¦ħà¦¬ à¦ĩà¦¨à¦Ń
à¦ıà¦ĸà¦¨à¦ª à¦°à¦¬
à¦¦à¦ķ à¦¯
à¦ļà¦Ł à¦ķà¦°
à¦ıà¦ķ à¦ķà¦¬
à¦°à¦ı à¦°à¦¦
à¦Ĺà¦¤ à¦¸à¦®à¦¸
à¦¹ à¦£
à¦°à¦ª à¦°à¦®à¦¨
à¦®à¦¤ à¦ħà¦«à¦¬
à¦ıà¦¸ à¦Ľ
à¦¨à¦ľ à¦Ĺà¦¨
à¦ªà¦£ à¦ķà¦°à¦²
à¦¶ à¦¸à¦¦à¦°à¦¦à¦ª
à¦®à¦¸ à¦ĵà¦¯
à¦Ńà¦¬ à¦ıà¦Ł
à¦īà¦¡ à¦Łà¦²
à¦¹ à¦Ĩà¦¦
à¦®à¦² à¦ļà¦¨
à¦¨à¦ı à¦ıà¦¯
à§ĩà¦¾ à¦ĥ
à¦ļà¦ķ à¦®à¦¨
à¦Ĺà¦¤ à¦Ĩà¦ķ
à¦¤ à¦°à¦¸à¦¨
à¦ıà¦¸à¦® à§Łà¦¦
à¦°à¦® à¦°à¦®
à¦°à¦² à¦¦
à¦¯ à¦ıà¦ĩà¦®
à¦¯à¦¦ à¦¶à¦®
à¦²à¦¨ à¦īà¦¦
à¦īà¦¨ à¦Ĺ
à¦°à¦ĩ à¦²à¦®
à¦®à¦¦ à¦¸à¦¹
à¦ľà¦¨ à¦ķà¦ķ
à¦°à¦ĵ à¦¸à¦°à¦ķ
à¦¤ à¦¨à¦ķà¦®
à¦Ł à¦ıà¦°à¦ľà¦¨
à¦°à¦Ĩ à¦²à¦ĩà¦¸à¦²
à¦¸à¦¬ à§Łà¦¸
à¦¨ à¦ĩà¦Ł
à¦ī à¦ĺ
à§« à§ªà§¯
à¦¨à¦ķ à¦¤à¦¬
à¦®à¦¸ à¦Ĺ
à§Łà¦ķ à¦«
à¦²à¦¹ à¦ķà¦Ń
à¦ľà§Ł à¦¹
à¦Ĩà¦¹à¦¤ à¦ª
à¦¬ à¦°à¦£à¦¬
à¦¯ à¦Ńà¦°
à¦® à¦Ńà¦°
à¦¨à¦Ĩ à¦ľà¦¶
à¦ĩà¦¸à¦¬ à¦®
à¦°à¦¬à¦Ľ à¦°à¦ª
à¦¶ à¦ļà¦²à¦ļ
à¦ĸ à¦°à¦¨
à§§à§¦ à§«à§¦
à¦Ĺà¦ļ à¦°à¦®
à¦¸ à¦īà¦²
à¦ıà¦ĩ à¦¦à¦²
à¦Łà¦Ĺ à¦Ń
à¦Ń à¦ĩà¦¨
à¦ĩà¦¡ à¦ħ
à¦·à¦ķ à¦®à¦¨
à¦ĸ à¦ĵà¦ł
à¦ļ à¦Ĩà¦®
à¦£ à¦ĵà¦ľ
à¦ĩ à¦ĩà¦¹
à¦ķ à¦ĩà¦ª
à¦ıà¦¸à¦¬ à¦ıà¦²
à¦¯ à¦ıà¦ķà¦®
à¦ı à¦īà¦¦
à¦ĩà¦« à¦®
à¦ķ à¦īà§İà¦¸à¦¬
à¦Ł à¦īà§İà¦ª
à¦ı à¦°à¦Ńà§Ł
à¦¥ à¦²à¦¸
à¦ļà¦¨ à¦ļ
à¦¨à¦¨ à¦ĵà¦Ĺ
à¦ĸà¦® à¦Ļ
à¦Ĩà¦¹à¦¤ à¦ħà¦¬à¦¸
à¦¯ à¦īà¦ªà¦¹
à¦¦ à¦ľà¦¨
à§Ł à¦ĺà¦£
à¦¹ à¦«à¦°
à¦· à¦¨à§Ł
à¦¤à¦® à¦ĺ
à¦Ĺà¦²à¦ķ à¦®à¦²à¦Ĺà¦ŀ
à¦Ń à¦ħà¦¨
à¦ķ à¦ħà¦Ł
à§Łà¦¬ à¦ĩà¦¹
à¦¯ à¦ıà¦ĩà¦¨
à¦¡ à¦ľà¦®
à¦Īà¦¦ à¦Ĩà¦¹à¦®
à¦¶ à¦ĵà¦¤
à¦ĩà¦¡ à¦¡
à§Ł à¦°à¦ĸ
à¦ľ à¦Ĩà¦ķ
à¦¬ à¦ĩà¦ľà¦¤
à¦® à¦ıà¦°à¦®
à¦² à¦Ĩà¦¬à¦¹
à¦ļ à¦Ŀ
à¦· à¦Ĩà¦ķà¦°
à¦ıà¦°à¦ª à¦°à¦ĩ
à¦¬à¦°à¦¸ à¦¤à¦°
à§ªà§® à§¬
à¦¹à¦¤ à¦¹à¦ļ
à¦®à¦¶ à¦Ĺ
à¦¡à¦ª à¦ªà¦°
à¦Ĩà¦°à¦ı à¦¦
à¦² à¦ıà¦ĩà¦¡
à§Ł à¦°à¦ħà¦«
à¦ľà¦¨ à¦Ĺà¦¤
à¦¨à¦¯ à¦ĸà¦¨à¦ķ
à¦¯ à¦ıà¦Ľ
à¦²à¦¸ à¦ķà¦²
à¦Ĩà¦īà¦Ł à¦¹à§Ł
à¦¶ à¦¸à¦¬à¦¸à¦®à§Łà¦Ń
à¦¬à¦¸ à¦¶
à¦Ĳ à¦Ł
à¦¤à¦²à¦¬ à¦ķà¦°
à¦¤à¦ķ à¦Ń
à¦¡ à¦ĵà¦Ń
à¦ıà¦ĩ à¦¸à¦ķà¦²
à¦¸à¦¹à¦ľ à¦¹à§Ł
à¦¶à¦¨ à¦ıà¦ķà¦Ł
à¦ļ à§Łà¦¸
à¦°à¦ĵ à¦¬à¦²
à¦²à¦Ĺ à¦¹
à¦°à¦¸à¦¬ à¦¤à¦¥
à¦¤à¦ľ à¦Ļ
à§¬à§¦ à§Ń
à¦Ĺ à¦ľà¦¨à¦ķ
à¦£ à¦Ĩà¦ĵà§Ł
à§İ à¦¸à¦¨
à¦¦ à¦ĵà¦ľ
à¦¤à¦® à¦¬à¦¸
à¦¸ à¦¡à¦ķ
à¦ŀ à¦¨
à¦²à¦¹ à¦¸
à¦ıà¦ĩà¦¬ à§Łà¦¸
à§¦à§§à§Ń à§§à§§à§©
à¦¬ à¦°à¦¹à¦®
à¦ĸ à¦¬à¦²
à§§à§® à§¨à§®
à¦¬à¦¹ à¦¨à¦¨
à¦¸ à¦ĩà¦¨à¦«
à¦Ł à¦Ĩà¦¤
à¦¹à¦² à¦«
à¦¨à¦¦ à¦¶à¦ķ
à¦¸à¦ª à¦£
à¦ķà¦ķ à¦Ļ
à¦¦à¦¸à¦® à§Łà¦¬
à¦°à¦® à¦¹à¦¤
à¦ĩà¦¡ à¦«à¦°
à¦¤à¦ĸà¦¨ à¦Ľ
à¦²à¦¹à¦ķ à¦°à¦¹à¦®
à¦¬ à¦¤à¦°
à¦¶ à¦ĩà¦¨à¦¸
à§ľ à¦Ļ
à¦¹à¦² à¦«à¦¨
à¦¯à¦¬ à¦ķ
à¦®à¦¤ à¦īà¦²
à§§à§ª à§ªà§©
à¦ªà¦¨ à¦ļà¦Ł
à¦°à¦ķ à¦¸à¦¬
à§ªà§® à§Ń
à¦ĸà¦°à¦ļ à¦¹à¦¬
à¦ī à¦¶à¦¨à¦ķ
à¦¤à¦ĸà¦¨ à¦ĸ
à¦ĸà¦¬à¦° à¦¯
à§¬ à§¨à§«
à¦¨à¦Ĩà¦¹ à¦®à¦¦à¦®
à¦ŀ à¦ıà¦¬
à¦¶ à¦¬à¦Ľà¦°à¦Ĩà¦Ĺ
à¦īà¦ł à¦²à¦ķ
à¦¦à¦ĸ à¦²à¦ķ
à¦Ĩà¦¸ à¦¨à¦¬
à¦ĩà¦¸ à¦ľ
à¦ļà¦¨ à¦ĺà¦¡
à¦¸à¦¹à¦ľ à¦Ľ
à¦ł à¦¬à¦°
à¦¶à¦¨ à¦ĵà¦¬
à¦°à¦¥à¦® à¦ĸà¦£
à§Łà¦ľ à¦²à¦¬
à¦¨ à¦¯à¦®
à¦® à¦Ĺà¦¨
à§Ł à¦²à¦¬
à§Ł à¦Ĩà¦ª
à¦ı à¦¤à¦¤
à¦¬à¦¸ à¦¯
à¦¤ à¦Īà¦¶
à¦ı à¦ħà¦°
à¦¬à¦² à¦Ĩà¦ªà¦¨
à¦¨à¦ħ à¦¸à¦¹
à¦¸ à¦ıà¦ĸ
à¦¬ à¦Ĩà¦¨à¦¨
à¦¦ à§Łà¦¦
à¦ĩ à¦®à¦¸à¦ľ
à¦¤à¦® à¦Ń
à¦¤à¦¹à§Ł à¦°
à¦°à¦®à¦¤ à¦¶
à¦°à¦ıà¦ķ à¦¨à¦®
à¦¬ à¦Ĩà¦¯
à§Ł à¦¡à¦ķ
à¦°à¦ĵ à¦Ĩà¦Ľ
à§Ł à¦Ĩà¦°à¦¬
à¦°à¦ª à¦°à¦ĺ
à¦¬à§ľ à¦°
à¦¡ à¦°à§Ł
à¦Ĩà¦® à§ľ
à¦¸à¦Ł à¦¯
à¦²à¦Ĩ à¦°à¦®
à§Ł à¦īà§İà¦ª
à¦ł à¦ķà¦®
à¦¹à¦² à¦ıà¦Ł
à¦ĩà¦¸à¦® à§Łà¦ķ
à¦ĩ à¦ħà¦ŀ
à¦¨à¦ķ à¦¬à¦²
à¦¦à¦ķ à¦ıà¦¸
à¦¹ à¦®à¦¦
à¦°à¦ª à¦¦à¦ª
à¦¤à¦¨ à¦ıà¦¸
à¦ªà¦ķ à¦¸à¦®
à¦¯à¦Ĺ à¦¡
à¦¶à¦ĵà¦ķà¦¤ à¦ĵà¦¸à¦®
à¦¶ à¦Ńà¦°
à§Ł à¦°à¦Ĩà¦¬
à§Ł à¦īà¦ĩà¦ķ
à¦¨à¦ı à¦°à¦ªà¦°à¦¬
à¦¹ à¦§
à¦¶à¦ª à¦¥à¦ķà¦°
à§§à§¯ à§§
à§Łà¦® à¦ļ
à¦Ĩà¦ĩà¦ıà¦¸ à¦ıà¦¸
à¦° à¦°à¦ķà¦®
à¦²à¦® à§Łà¦¦
à§§à§¦ à§¬à§§
à¦Ĺà¦® à¦ļ
à¦ķà¦ķ à¦ķ
à¦ĵà¦¯ à¦ĸà¦¨
à§Ńà§¦ à§¨
à¦®à§ľ à¦¦
à¦¦à¦°à¦¬ à¦¨à¦ķ
à§«à§¬ à§¯
à§Ł à¦īà¦ªà¦ķ
à¦°à¦ķ à¦®à¦ķà¦°
à§§à§¯ à§¦à§¬
à§§à§® à§©à§¦
à¦¬ à¦°à¦¬à¦²
à¦ª à¦Łà¦¬
à¦ķà¦® à¦¸à¦®à§Ł
à¦®à¦¤ à¦ĸà¦¨à¦Ĩà¦®
à¦°à¦Ĩ à§Łà¦¤
à¦ıà¦ĩ à¦¬à¦°
à¦°à¦°à¦ľ à¦¤à¦ľà§Łà¦¨
à¦¤ à¦ĩà¦īà¦ķ
à¦¶ à¦ĩà¦¶
à¦£ à¦§à¦°
à¦Ĩà¦² à¦ĩà¦ĸà¦²
à¦¹à¦¤ à¦ĵ
à¦ķ à¦°à¦Ł
à¦°à¦ª à¦°à¦ıà¦ĸà¦¨
à¦°à¦Ļ à¦¬
à¦Ń à¦²à¦ķ
à¦ľà¦¨ à¦§
à¦Łà¦¬à¦² à¦Ń
à¦¸à§ľ à¦ķà¦ļ
à¦ķà¦ķ à¦ĸà¦¨
à¦¸à§ľ à¦ķà¦Ł
à¦·à¦ľà¦¨ à¦¶à¦ķ
à¦¤ à¦°à¦¹à¦¤
à¦ªà¦¦ à¦¹à¦¤
à¦·à¦ķ à¦Ĺà¦£
à¦¹ à¦¢
à¦ľ à¦°à¦ª
à¦¸à¦¬ à¦§à¦°
à¦¸à¦¦ à¦°à¦Ĺ
à¦¨à¦Ĺ à¦Ļ
à§İ à¦ķà¦°à¦¤
à¦¨à¦ħ à¦·
à¦¦ à¦¨à¦¸à¦°
à¦ı à¦¤à¦ª
à¦¯ à¦Ĩà¦ªà¦¡
à¦Ĺ à¦Ńà¦¬à¦¨
à¦¤à¦ª à¦ŀ
à¦¯ à¦ħà¦ªà¦¸
à¦¸à¦°à¦£ à¦ķà¦°à¦Ľ
à¦ī à¦¬à¦²à¦Ľ
à¦¸ à¦īà¦ľ
à¦¹ à¦ĵà¦¬
à§§à§© à§§à§¬
à¦ħà¦¥ à¦ļà¦¦
à¦°à¦ĵ à¦ıà¦ķ
à¦°à¦Ń à¦Ńà¦Ł
à¦Ń à¦°à¦ķ
à¦ĵà¦ķ à¦·
à¦¡ à¦ĩà¦¨à¦¸
à¦°à¦£ à¦¨à¦Ń
à¦®à¦¸ à¦¹à¦¬
à¦ľ à¦ĵà¦ĵà¦®à¦°
à¦ĵ à¦¬à¦²à¦Ľ
à¦¤à¦« à¦Ł
à¦Ĺà¦°à¦® à¦ļ
à¦¥ à¦ĸà¦£
à¦ĩà¦Ń à¦Ĺ
à¦²à¦Ĩ à¦Ł
à¦ķ à¦ķà¦¤à¦Ł
à§¨à§« à§¨
à¦°à¦¸à¦¦ à¦°à¦¦à¦ª
à¦ī à¦Łà¦®
à¦Ĩà¦ĩà¦¨ à¦ķà¦°
à¦Ń à¦ķà¦®
à¦¨à¦ĵ à¦°à¦ķà¦®
à¦¦à¦¤ à¦¬à¦¨
à¦¤à¦ĸà¦¨ à¦¹
à¦¡ à¦ĩà¦®
à¦« à¦ıà¦ķà¦Ł
à¦ĵ à¦ıà¦ĩà¦ķ
à¦¶à¦¨ à¦ļà¦¤
à¦ĩà¦¡ à¦«à¦Ł
à¦¨à¦Ł à¦²
à¦°à¦ªà¦°à¦ĵ à¦®
à§Ł à¦ľà¦¬
à¦¨à¦ķ à¦Ń
à¦¶à¦² à¦Ĺà¦¤
à§«à§® à§«à§«
à¦¬à¦ĩà¦ķ à¦ł
à§Ł à¦ĩà¦°
à¦¹à¦¯à¦°à¦¤ à¦ĸ
à§¨à§¦à§¨ à§§à§©à§¦
à¦°à¦¤ à¦ĵà¦ª
à¦ĩà¦² à¦ıà¦¡
à¦ª à¦Ĩà¦®à¦°
à¦ĩ à¦¯à¦¤
à¦ķà¦¸ à§ľà¦ķ
à¦¸ à¦ĸà¦¨
à¦Ĺ à¦¨à¦¯
à¦°à¦® à¦¹à§Ł
à¦¤à¦¨ à¦ıà¦¨
à¦¯à¦ľ à¦Ĺà¦¤
à¦ĩà¦īà¦ı à¦¨à¦ĵà¦®
à¦¸à¦¨à¦¦ à¦ªà¦¤
à¦°à¦¨ à§Łà¦ķ
à¦ıà¦ĸà¦¨ à¦¸à¦®à§Ł
à¦ŀ à¦¶
à¦¨à¦ı à¦¸à¦®à§Łà¦¸
à¦¤à¦°à¦Ĩà¦¹à¦¤ à¦ħà¦¬à¦¸
à¦¬ à¦°à¦ĩà¦¤
à¦¹ à¦¨à¦¹
à¦ľà¦¨ à¦¬à¦¹
à¦¦à¦ķ à¦ı
à¦¤à¦¹à§Ł à¦ħà¦¨
à¦·à¦ķ à¦¹à¦¤
à§Ł à¦ĸà¦¬
à¦¥ à¦ľà¦®
à¦ıà¦« à¦ıà¦¸
à¦¡ à¦ĩà¦¸à¦²
à¦¨à¦¸à¦® à§Łà¦¬
à§ªà§¬ à§¯
à¦ľ à¦Ĺà¦łà¦¨
à¦°à¦¸ à¦¶
à¦°à¦Ĩà¦¸ à¦²à¦¨
à¦¨à¦ıà¦ĸà¦¨ à¦Ĩà¦ªà¦¨
à¦°à¦ĵà¦ª à¦°à¦«
à¦ıà¦ĩà¦¸à¦®à§Ł à¦Ł
à¦Łà¦Ĩà¦ª à¦Ĺ
à¦¨ à¦īà¦¡
à¦¸ à¦ĵà¦Ł
à¦Ĺà¦ķ à¦²à¦ķ
à¦ĩ à¦ħà¦¥à¦¬
à¦·à§Ł à¦ķà¦ķ
à¦· à¦Ĩ
à¦®à¦ķ à¦²à¦ķà¦¡
à¦°à¦¸à¦¦ à¦°à¦¥
à¦Łà¦ĩ à¦«à¦¤
à¦¨ à¦Ĩà¦¸à¦¨
à¦¨à¦¬ à¦¸à¦¨
à¦¤à¦ĸà¦¨ à¦Ĺ
à¦¨à¦ķà¦® à¦ªà¦ķ
à¦ĭ à¦£à¦¸
à¦ıà¦¡ à¦Ĺ
à¦°à¦¸ à¦°à¦¹à¦¤
à§ľ à¦§à¦¸
à§©à§© à§¨à§¯
à¦® à¦®à¦²
à¦£ à¦¤à¦¬
à§ľ à¦¶à¦¤
à¦ĩ à¦ľà¦¨à¦¸
à¦¸à¦¦ à¦°à¦ĩà¦īà¦¨
à¦ĵà¦ĵ à¦ĵà¦ĵ
à¦¹ à¦ĺ
à¦¹ à¦Ĩà¦¬à¦¦
à¦Ĺ à¦ı
à¦ķà¦¬ à¦¦à¦²
à¦® à¦°à¦£à¦¬
à¦ªà¦£ à¦¨à¦ķ
à¦īà¦¶à¦¨ à¦«
à¦ı à¦°à¦ļà¦¨
à¦ıà¦ķ à¦¬à¦¨
à¦¨à¦¤ à¦®à¦¸
à¦¡à¦¸ à¦ħ
à¦ıà¦ĩà¦ļ à¦ľ
à¦¯ à¦¸à¦®à¦°
à¦°à¦Ĩ à¦²à¦ķ
à¦°à¦£à¦¤ à¦ıà¦ķà¦Ł
à¦¡ à¦°à¦¯
à¦²à§Ł à¦¯
à¦°à¦®à¦£ à¦¹
à¦ī à¦Ńà¦ķ
à¦Ĩà¦² à¦ĩà¦¸à¦²
à¦®à¦¦ à¦¶à¦®
à¦°à¦¸à¦® à§Łà¦ķà¦°
à¦¬à¦¦ à¦°à¦ķ
à¦°à¦ķ à¦ħà¦¨
à¦°à¦ħà¦¬ à¦Ĺà¦¤
à§¦ à§ªà§Ńà§§à§¬
à¦°à¦Ĩ à¦¨à¦ľ
à¦ķà¦¸à¦® à§Łà¦¦
à¦¹à¦¯à¦°à¦¤ à¦ľ
à¦ķ à¦²à¦¨à¦®
à¦°à¦¹ à¦¬à¦²
à¦Ĺà¦¤ à¦ªà¦¤
à§§à§® à§«à§Ń
à§Ł à¦ĩà¦īà¦ıà¦¨à¦ĵ
à¦Ĩà¦°à¦ı à¦ľà¦¨
à¦ĩà¦¦à¦¹ à¦ĸ
à¦ķ à¦ªà¦¨
à¦ıà¦ĩà¦ļà¦ıà¦® à¦ĸ
à¦ľ à¦ľà¦¯
à¦¶ à¦°à¦¨
à¦ĵ à¦°à¦ĵ
à¦Ĩà¦°à¦ĵ à¦Łà¦ĩà¦ªà¦¤
à¦² à¦ĩà¦īà¦¸
à¦¦ à¦ıà¦°à¦ª
à¦¡ à¦¤à¦¥
à¦ıà¦ķ à¦²à¦ķ
à¦§à¦¨ à¦Ĩà¦¬
à§¨à§¯ à§¨à§¦à§¨à§¦
à¦· à¦¨à¦ķ
à¦· à¦īà¦¤
à¦ıà¦°à¦ķ à¦®à¦ª
à¦°à¦ĵà¦¶à¦¨ à¦Ĩà¦°
à¦ķ à¦īà¦Ł
à¦² à¦¨à¦¸à¦Ń
à¦§ à¦ĵà¦®
à¦ħà¦¨ à¦¬à¦¦
à¦ķà¦ª à¦¬
à¦²à¦« à¦ľà¦²à¦¬
à¦łà¦ķ à¦¡
à¦°à¦Ĩà¦¦ à¦®à¦¦
à¦ıà¦¸à¦®à§Ł à¦ħà¦¨
à¦¥ à¦ĵà¦®
à¦ī à¦ĩà¦¤
à¦¸à¦®à§Ł à¦ļ
à¦°à¦ļ à¦®
à¦²à¦¤ à¦¶à¦¹
à¦·à¦ķ à¦Ń
à§©à§§ à§§à§ª
à§¦à§¦à§¦ à§¯
à¦¨à¦ĩà¦¨ à¦¶
à¦¶ à¦ıà¦°à¦¸
à¦¡ à¦ıà¦ª
à¦²à¦ķ à¦ķà¦°à¦¤
à¦·à¦¬ à¦°à¦£
à¦¯ à¦Ĩà¦ĵà§Ł
à¦¦ à¦ĩà¦ħà¦¨
à¦¡ à¦¯à¦¶
à¦Ľ à¦¶à¦°
à¦ķà¦² à¦¨à¦ķ
à¦¸à¦®à§Ł à¦Ĩà¦®
à§§à§© à§¨à§¦à§¨à§¨
à¦ª à¦¸à¦®à¦Ĺ
à¦ľ à¦¹à¦°
à¦®à¦¤ à¦¹à§Ł
à¦¯à¦¨ à§Łà¦¤
à¦ĩà¦Ł à¦ªà¦°à¦¬à¦°
à¦ķ à¦ĵà¦¹
à¦Ń à¦Ĩà¦®
à¦¬à¦¨ à¦°à¦ļà¦¨
à§§à§® à§¯à§¬
à¦¨à¦ıà¦®à¦¨ à¦¬
à¦¤ à¦ķà¦Ł
à¦ª à¦¸à¦¹à¦ľ
à¦ıà¦ĩ à¦ħà¦¤
à¦·à¦ķ à¦¡
à¦°à¦ľ à§Łà¦Ĺ
à¦Łà¦¸ à¦¹à¦¬
à¦°à¦Ĩà¦ĩà¦¨ à¦ª
à§© à§§à§¯
à¦ĩà¦ıà¦ĩ à¦°
à§§à§§à§¦ à§¨
à¦¬à¦¸ à¦Ĩà¦¬
à¦¬à¦° à¦°à¦ļà¦¨
à¦ĩà¦ľ à¦Ĺ
à¦ī à¦®à¦®
à¦£ à¦ķà¦²
à§©à§ª à§¨
à¦ķà¦° à¦¬à¦¬
à¦°à¦ª à¦°à¦ıà¦ķà¦¸
à¦¤à¦¶ à¦¹à¦°
à¦ī à¦¸à¦¨
à¦ªà¦Ł à¦ĸ
à¦¦à¦¨à¦ª à¦¦
à¦¶à¦¨ à¦ĵà¦Ł
à¦ĩà¦¡ à¦Ń
à¦ĩà¦ľ à¦¹
à¦ıà¦ĸà¦¨ à¦ĵà¦¶
à¦¨à¦® à¦ķà¦¬
à¦²à¦¹ à¦ķà¦Ł
à§§à§¨ à§©à§©
à¦°à¦Ĩà¦°à¦ĵ à¦ĸà¦¬
à¦ħ à¦Ĺà¦¤
à¦¶à¦ķ à¦ıà¦¸
à¦¸à¦ķà¦² à¦§à¦°à¦¨
à¦°à¦Ń à¦²
à¦°à¦ªà¦¥ à¦ķ
à¦¨ à¦·à¦·
à¦£ à¦¨à¦Ĺ
à¦¨à¦¬ à¦īà¦¦
à¦¹à§Ł à¦®à¦¨
à¦¸à¦¬ à¦¸à¦®à§Łà¦¬
à¦ıà¦« à¦ıà¦ķ
à¦ī à¦°à¦¬
à¦°à¦ª à¦°à¦®à¦¹
à§ľ à¦Ĺà§ľ
à¦ıà¦ķ à¦¶à¦¤
à¦²à¦¤ à¦¯
à¦¬à¦°à¦£ à¦ķà¦°à¦²
à¦¬ à¦ħà¦¬à¦¸
à¦¨à¦Ĩ à¦¨à¦¸
à¦ıà¦®à¦¨ à¦¹
à¦ıà¦¸à¦ĩ à¦ĵà¦ķ
à¦ħà¦¨ à¦§
à¦¦à¦¶ à¦ħà¦¨
à¦¥ à¦²à¦Ń
à¦°à¦Ĩ à§Łà¦ķà¦°
à¦¬à¦¨ à¦§à¦°
à¦§à¦¨ à¦īà¦ªà¦²à¦ķ
à¦¸ à¦ĩà¦¥
à¦Ĺ à¦°à¦¥
à§§à§« à§¨à§«
à¦Ĺà¦ł à¦¨à¦¤
à¦Ĩ à¦°à¦¨à¦¤
à¦ī à¦Ĩà¦Ľ
à¦°à¦ı à¦¡à¦Ń
à¦¨à¦¸ à¦Ĺ
à¦ªà§ľ à¦Ĺ
à¦ĵà¦ª à¦¬
à¦¶à¦¬ à¦¹
à§§à§¯ à§¦à§Ń
à¦ĩà¦¨ à§Łà¦¸
à¦ķ à¦ıà¦Ń
à¦¤ à¦īà¦ªà¦¨
à¦ĵ à¦ıà¦ĩà¦¦
à¦°à¦¬ à¦²à¦ª
à¦Ļ à¦Ľ
à¦°à¦ħ à¦¥
à¦°à¦ħà¦ª à¦¹
à¦² à¦¸à¦®à§Ł
à¦²à¦¤ à¦Ĩà¦®
à¦²à¦¤ à¦ħà¦¨
à¦¯à¦¥ à¦¸
à¦°à¦ĵ à¦Ĩà¦²
à¦ĵà¦ļ à¦®à¦ķ
à¦ķ à¦ļà¦²à¦¤
à¦ıà¦² à¦Ń
à¦Ĩ à¦ķà¦®à¦¬
à¦¸ à¦¦à¦ª
à§§à§¬ à§¦à§§
à¦Ĺà¦ª à§İà¦Ĩà¦¨
à¦°à¦īà§İ à¦ĸ
à¦ĩà¦ĩ à¦ĩà¦ĩ
à¦¬ à¦ľà¦¬
à¦£ à¦¸à¦°à¦ķ
à¦¤ à¦ıà¦°à¦ª
à§Łà¦¸à¦® à§Łà¦¬
à¦² à¦ħà¦¶
à¦¹à¦¤ à¦Ńà¦®
à¦¨à¦ı à¦¸à¦®à§Łà¦¬
à¦¸à¦¦ à¦°à¦ªà¦²
à¦ıà¦°à¦ķ à¦¬
à¦²à¦¨à¦ķ à¦¥
à¦¬ à¦ĸà¦¬à¦°à¦ĵà¦¬
à¦ľ à¦¤à¦ķà¦°
à¦¶à¦¨ à¦§à¦°
à¦īà¦ª à¦¶à¦®
à¦ľ à¦°à¦¤à¦ķà¦°
à¦¹à¦² à¦ħà¦¨
à¦ķà¦¸ à¦¹à¦¸
à¦ĩà¦® à¦«
à¦°à¦¢ à¦²à¦¨
à¦Ń à§İà¦¸
à¦ħ à¦ªà¦ķ
à§§à§® à§¯à§¦
à§¨à§Ń à§§
à¦°à¦® à¦¥à¦¨
à¦°à¦® à§Łà¦²
à¦¸à¦« à¦²à¦¹
à¦ªà¦¶ à¦¨à¦ª
à¦°à¦£ à¦®à¦¹
à¦ªà¦¸ à¦ļ
à¦°à¦Ĩà¦¨à¦ĵ à¦Ĩà¦§
à¦°à¦¬ à¦°à¦ĸ
à¦¸à¦¦à¦Ńà¦¬à¦¨ à¦ľ
à¦® à¦ĩà¦°
à¦¯ à¦¶à¦¹
à¦¨à¦¸ à¦¹à¦¨
à¦°à¦ı à¦ĩà¦®à¦¹
à¦°à¦ĸà¦°à¦ļ à¦¬
à¦® à¦Ĩà¦ļ
à¦Ĩ à¦°à¦Ĩà¦°
à§« à§Ńà§¦
à¦ĩà¦² à¦ĩà¦ŀ
à¦ľà§Ł à¦Ł
à§®à§¦ à§Ń
à§Ł à¦Ĩà¦°à¦¯
à¦īà¦¨ à¦Ĩà¦°à¦¬
à¦ļà¦¨ à¦ķà¦°à¦²
à¦¨à¦ıà¦ĩ à¦«
à¦ĭ à¦·à¦Ń
à¦Ĩà¦ľ à¦ħà¦¨
à¦¤à¦Ĩ à¦ĩà¦ľ
à¦® à¦¶à¦¤à¦¬à¦°
à¦Ĩà¦ľ à¦ĵà¦¬
à§¨à§¦à§¨ à§§à§ªà§¦
à¦¦à¦¬ à¦ħà¦¨
à¦·à¦¦à¦¸ à¦Ń
à¦®à¦ĩ à¦°à¦¶
à¦¦à¦ı à¦ħà¦¨
à¦ľ à¦°à¦®
à¦« à¦īà¦ªà¦ľ
à§§à§® à§Ńà§§
à¦ķà¦ľà¦¨ à¦Ĺà¦£
à¦°à¦¶à¦ª à¦¥à¦¨
à¦¨ à¦ĭà¦¤
à¦¹ à¦ķà¦²
à¦¦à¦Ĩà¦² à¦«
à¦ĩà¦¨ à¦Ĩà¦°
à¦ķà¦¦ à¦°à¦¶à¦¬
à§©à§¦à§¦ à§¦à§¦
à¦Ĩ à¦īà¦¨
à¦Ĩ à¦°à¦¸à¦°
à¦°à¦ľà¦¨ à¦®
à¦¨à¦ĵ à¦ĩà¦ķ
à§§à§¦à§¦ à§Ń
à¦§ à¦¤à¦¥
à¦§ à¦¸à¦°à¦ķ
à¦ľà¦¨ à¦īà¦¦
à¦ļà¦²à¦ķ à¦°à¦Ľ
à¦ķ à¦¨à¦Ĺà¦°
à§ªà§Ń à§¯
à¦ķ à¦ħà¦¬à¦¶
à¦Ĺ à¦ħà¦ªà¦°
à¦°à¦¸ à¦ĵà§Ł
à¦¬à¦¨ à¦ĵà¦«
à¦²à¦® à¦£
à¦ħà¦¸ à¦¹à¦¯
à§¨à§« à§§à§§à§¨à§¦à§¨à§¨
à¦¡à¦Łà¦ķà¦® à¦°à¦ª
à¦ĩ à¦Ĩà¦ĩà¦¨
à¦°à¦¸ à¦¬à¦¨
à¦ıà¦ķ à¦¬à¦Ľ
à¦®à¦¨ à¦¹à¦²
à¦ħà¦¨ à¦¬à¦°à¦¤
à¦ľà¦īà¦¦ à¦¦
à§Ł à¦ļà¦¨
à¦¶ à¦ıà¦ĸà¦¨à¦¬
à¦Łà¦ķ à¦¨à¦¸
à¦ķ à¦ĩà¦¬à¦²
à¦Ľ à§Łà¦¦
à¦¨à¦ľà¦¨ à¦Ĺ
à¦ĩà¦² à¦Ĩà¦ĩà¦¡
à¦īà¦ľ à¦ªà¦°
à¦¨à§Ł à¦ķà¦°à¦¬
à¦°à¦Ĺ à¦Ł
à¦°à¦Ĩà¦°à¦ĵ à¦ħà¦¨
à¦ķ à¦°à¦ļà¦ķ
à¦¶à¦¨ à¦ħà¦¬
à§®à§¦ à§¯
à¦¤ à¦ıà¦®
à¦¸à¦¬ à¦Ĩà¦®
à§Łà¦ıà¦¬ à¦Ľ
à¦Ĺ à¦ĵà¦¦
à¦¨à¦¬ à¦¶à¦°
à¦¯à¦¬ à¦¤
à¦Ŀ à¦Ľ
à§§à§¯ à§¦à§ª
à¦¹à¦ļ à¦°
à¦ıà¦² à¦ıà¦¨à¦ľ
à¦¤à¦« à¦¸à¦²
à¦°à¦ªà¦°à¦ĵ à¦¯à¦¦
à¦ıà¦ĩ à¦ħà¦«
à¦¬ à¦īà§Ł
à¦§ à¦ļà¦ķ
à¦¨à¦Ĩà¦² à¦Ĩà¦ľ
à¦¦ à¦ĩà¦ª
à¦Ł à¦¤à¦°
à¦°à¦Ĺ à¦£à¦ª
à¦¶à¦¨ à¦ĩà¦¨à¦¸
à¦°à¦ī à¦ªà¦¤
à¦ķà¦² à¦¶
à¦ķ à¦ĵà¦ħà¦¨
à§Ł à¦ıà¦ľà¦¨
à¦¸à¦¹ à¦Ĩà¦¹à¦¤
à§¨à§¯ à§ª
à¦°à¦¹ à¦Ĩà¦¬
à¦¨à¦¹à¦¯ à¦¬à¦°
à¦² à¦°à¦°
à¦°à¦£ à¦ķà¦Ń
à¦¨à¦ıà¦ĸ à¦¨à¦¬
à¦§ à¦ķà¦ķ
à¦ĵ à¦Ĺà¦£
à§Ł à¦Ĩà¦«
à¦ħ à¦¥à¦°
à¦£ à¦¢
à¦°à¦Ĺ à¦£à¦¬
à¦īà¦Ł à¦ħà¦«
à§¨à§ª à§§à§¨
à¦·à¦® à¦¹à¦²
à¦² à¦Łà¦ķà¦°
à¦·à¦£ à¦ĵà¦¬
à¦¨à¦ĵ à¦®à¦¨
à¦¶à¦¤ à¦ĸ
à¦ıà¦¨ à¦ĵà¦¸
à¦¡à¦¬ à¦ĩà¦¬
à§«à§¦ à§Ń
à¦®à¦ļ à¦®à¦¸
à¦¤à¦¨ à¦Ńà¦Ł
à¦ĩà¦¡ à¦ĵà§Ł
à¦¦ à¦īà¦ľ
à¦¶ à¦ĵà¦¸à¦®
à¦°à¦£ à¦īà¦Ń
à¦ıà¦ķà¦ĩ à¦ħà¦¬à¦¸
à¦°à¦£ à¦Ĩà¦Ń
à¦Ł à¦ıà¦Ń
à¦®à¦¨ à¦¹à¦¯
à¦¨ à¦ľà¦¨à¦¬
à¦Ĺà¦¤ à¦®à¦¤
à¦ıà¦°à¦ª à¦°à¦¯
à§©à§« à§§
à¦°à¦Ĩà¦¦ à¦¬à¦¸
à¦ĩà¦Ł à¦ħà¦¨
à¦¨à¦ı à¦¤à¦¥
à¦Ĺà¦² à¦ıà¦¬
à§Ł à¦Ĩà¦¹à¦¤à¦¹à§Ł
à¦ıà¦ķ à¦®à¦¨
à¦°à¦¹ à¦²à¦¦
à¦¨à¦Ĩ à¦ĸ
à¦°à¦¥à¦® à¦ĸ
à¦ĩà¦« à¦ª
à¦¬à¦¦ à¦²à¦¸à¦Ń
à§§à§® à§®à§§
à¦Łà¦ª à§Ł
à§¨à§¦à§§à§« à§§à§¬
à¦Ń à¦¹à§Łà¦¨
à¦²à¦¤ à¦¹
à§ªà§« à§«à§«
à¦Ĺà¦°à¦® à¦ķ
à§ľ à¦ĸà¦£
à¦·à¦£ à¦ķà¦®
à¦¤à¦¹ à¦¨à¦ª
à¦² à¦ıà¦ĩà¦ļà¦¡
à§Ł à¦ĵà¦¶
à¦°à¦£ à¦¬à¦Ń
à¦¨ à¦īà¦Ńà¦¯
à¦¡ à¦ıà¦Ł
à¦²à¦Ĺ à¦¦
à§§à§® à§§à§ª
à¦Łà¦® à¦¹à¦²
à¦ªà¦¥ à¦§à¦°
à¦¨à§Łà¦¨ à¦ĵà¦®
à¦Ĩà¦ī à§Ł
à¦ı à¦«à¦¤
à¦Ľ à¦ªà§ľ
à¦¼à§ĩ à¦¾
à¦°à¦¦ à¦²à¦ª
à¦¯à¦¸ à¦¤à¦°
à¦Ĺà¦°à¦® à¦¥
à¦¨à¦Ĩà¦¦ à¦¬à¦ķ
à¦¨à¦® à§İà¦¸
à§Ń à§¨à§¬
à¦·à¦ķà¦¬ à¦°à¦ĸ
à¦Ĺ à¦ĵà¦ķ
à¦°à¦ľà¦¨ à¦¨à¦¸
à§§à§® à§¨à§¦
à¦¬ à¦ıà¦ĩà¦¡
à¦¹ à¦Ĺà¦²
à¦Ĺ à¦Ĩà¦ķà¦°
à¦°à¦Ń à¦°à¦£à¦ª
à§§à§® à§®à§¯
à§Ńà§« à§¨
à¦Ł à¦ıà¦Ľ
à¦Ĺ à¦ľà¦ķ
à¦°à¦£ à¦§
à¦°à¦ħ à¦¸à¦¨
à¦¶ à¦°à¦®
à¦ĵ à¦¨à¦®
à§Łà¦¨ à¦°à¦ļà¦¨
à§§à§¦à§¦à§¦ à§¦à§¦
à¦ľ à¦Ĩà¦ª
à¦¶ à¦£
à¦ĸ à¦ķà¦°à¦²
à¦°à¦ĵà¦ª à¦°à¦Ľ
à¦¦ à¦®à¦°
à§Ł à¦ľà¦¨à¦¤
à¦Ńà¦ľà¦¨ à¦ķà¦¬
à¦ĵ à¦ħà¦¥à¦¬
à¦²à¦ķ à¦£
à¦ķà¦°à¦£ à¦¯
à¦°à¦£ à¦²à¦Ń
à¦°à¦ļ à¦®à¦ķ
à¦¯à¦¨ à¦·
à¦¸à¦¨ à¦ªà¦°
à¦īà¦Ń à§Łà¦ª
à¦£ à¦ħà¦§
à¦ıà¦ĩ à¦¥
à¦ĭ à¦£à¦ķ
à¦ķ à¦īà¦ªà¦°
à¦¤ à¦²à¦ķà¦¡
à¦°à¦¸à¦¬ à¦Ń
à§¨à§¦à§§à§Ńà§¨à§¦à§§à§®à§¨à§¦à§§à§¯à§¨à§¦à§¨à§¦à§¨à§¦à§¨à§§ à§¨à§¦à§¨à§¨
à¦¯ à¦ļà¦¨
à¦ıà¦« à¦ķà¦°
à¦ķà¦¶à¦¨ à¦®
à¦§ à¦°à¦ª
à¦¡ à¦Ĩà¦Ĺ
à¦°à¦ı à¦°à¦¶
à§ª à§§à§®
à¦°à¦ªà¦°à¦ĵ à¦Ĩà¦®
à¦Ł à¦ľà§Ł
à¦¬à§ľ à¦Ĺà¦²
à¦ľ à¦Ĩà¦ľ
à¦ªà¦ķ à¦Ĩà¦²
à¦²à§Ł à¦¨à¦¬à¦®à¦¶
à¦Ĺ à¦Ĩà¦®à¦°
à¦®à¦ľ à¦¹
à¦Ĩà¦ľà¦® à¦ĩà¦¸à¦²
à¦¦à¦ı à¦°à¦Ĩà¦¨
à¦ļ à§Łà¦¯
à¦¬à¦¨à¦¸ à¦¦à¦¸
à¦¸ à§İà¦ķà¦°
à§Ń à§§à§¦
à¦¯à¦¦ à¦ª
à§¦à§§à§® à§«à§¦
à¦Ł à¦Ĩà¦«à¦Ĺ
à¦ĸ à¦Ńà¦°
à¦°à¦£ à¦°à¦Ń
à¦¸à¦¹ à¦ľà¦¤
à¦¹à¦¯à¦°à¦¤ à¦¹
à¦¯à§Ł à¦¹à¦¬
à¦¨à¦Ĩà¦°à¦ĵ à¦¬à¦²
à¦¦à¦ĸ à¦ħà¦¨
à¦¤ à¦ıà¦¶
à¦°à¦£ à¦¤à¦°
à¦°à¦£ à¦ªà¦Ń
à¦°à¦£ à¦ļà¦Ń
à¦ıà¦ĩ à¦Ĩà¦¦
à¦²à¦¸ à§ľà¦ķ
à§§à§¯ à§¦à§©
à¦²à¦¡ à¦¨à¦¸
à¦īà¦¬ à¦ĩà¦īà¦°
à¦¦à¦Ĺ à¦ħà¦¨
à¦¦à¦Ĩ à¦ħà¦¨
à¦¦à¦ħ à¦ħà¦¨
à¦¨à¦¹à¦¯à¦¬à¦° à¦²à¦ķà¦®
à¦¦ à¦¯à¦ħà¦¨
à¦¹ à¦¹à¦¯
à¦°à¦£ à¦ľà¦Ń
à¦°à¦£ à¦§à¦Ń
à¦°à¦£ à¦¦à¦Ń
à¦°à¦£ à¦ĺà¦Ń
à¦²à¦¶ à¦¯
à¦Łà¦ı à¦¹à¦Ľ
à¦¨à¦Ĩà¦¸ à¦¸
à¦°à¦¬à¦ļà¦¨ à¦ĩà¦¸à¦²
à¦² à§ľà¦¬
à¦« à¦ıà¦¸à¦ĩà¦ĵà¦ıà¦¸à¦ıà¦¸à¦¸
à¦°à¦£ à¦¯à¦Ń
à¦°à¦£ à¦®à¦Ń
à¦°à¦£ à¦¶à¦Ń
à¦²à¦¤ à¦«à¦²à¦«à¦²
à¦°à§Ł à¦®
à¦¦à¦¸ à¦ħà¦ªà¦¸
à¦¦à¦ª à¦ħà¦¨
à¦Ĩà¦ĩà¦¨ à¦ĵà¦Ĩà¦¦
à¦¦à¦ľ à¦ħà¦¨
à¦°à¦Ĩà¦¦ à¦¬à¦ķà¦«
à§Łà¦£ à¦Ĺà¦Ļ
à¦¦à¦Ń à¦ħà¦¨
à¦°à¦£à¦¹ à¦Ń
à¦°à¦£à¦Ń à¦Ń
à¦°à¦£à¦Ľ à¦Ń
à¦¦à¦ĺ à¦ħà¦¨
à¦ķà¦īà¦Ł à¦ıà¦ĩà¦ļà¦ıà¦¸à¦¸
à§§à§® à§¯à§§
à¦Ĩà¦ĩà¦¤ à¦¦à¦¨
à§©à§Ńà§©à§® à§§à§®
à§¦à§§à§®à§«à§¦ à§©à§Ńà§©à§®à§§à§®
à§Ł à¦ĩà¦¦
à¦°à¦®à¦¤ à¦Ľ
à¦°à¦īà¦ª à¦¸à¦¹à¦ķ
à§§à§« à§¦à§§
à¦°à¦¸à¦¬ à¦ªà¦°
à¦°à¦¸à¦®à§Ł à¦Ľ
à¦ĩ à¦Ĩà¦°à¦ĵ
à¦Ŀ à¦¨
à¦¸à¦¦ à¦¤
à¦¨à¦¹à¦¯à¦¬à¦°à¦²à¦ķà¦® à¦Ĩà¦ªà¦¨
à¦ĩà¦¨ à¦ıà¦ķ
à¦ļà¦² à¦ľ
à¦·à¦¦ à¦ļà¦¤
à¦¸ à¦¸à¦®à¦¯
à¦²à¦¸ à¦ľ
à¦ĩà¦Ł à¦ħ
à¦ĩà¦« à¦ķ
à¦ķ à¦Ĩà¦ĵà§Ł
à§Ł à¦ħà¦¦
à¦ľà¦¨ à¦ħà¦¤
à¦ĺ à¦°à¦ľ
à¦¨à¦¦ à¦°à¦ľ
à¦²à¦Ĩ à¦¶à¦°
à¦¬à§ľ à¦ıà¦ķà¦Ł
à¦ķà¦°à¦¬ à¦¯
à¦Ĩà¦ĩ à¦ĩà¦īà¦¸
à¦§ à¦¬à¦¬
à¦ħà¦¨ à¦¤
à¦¬ à¦¤à¦ª
à¦°à¦¬ à¦ĩà¦¤
à¦Ńà¦¬à¦¨ à§Łà¦ķ
à¦ª à¦Ĩà¦Ĺ
à¦§ à¦¨à¦¨à¦®
à¦®à¦¦ à¦«à¦ľà¦²
à§§à§§ à§§à§¦
à§Ńà§Ń à§Ńà§®
à¦°à¦īà¦ªà¦°à¦Ń à¦°à¦¸
à¦ĵ à¦ıà¦°à¦¸
à¦¯à¦¨ à¦ľ
à¦°à¦¸à¦®à§Ł à¦¡
à¦Ĺà¦¡ à¦¹
à¦§ à¦Ĩà¦®à¦°
à¦¨à¦ħ à¦¯
à¦® à¦ıà¦Ĺ
à¦² à¦ªà¦ķ
à¦¦ à¦¬à¦ķ
à¦°à¦® à¦°à¦¶
à¦·à¦¦ à¦¥
à¦¹ à¦ĵà¦ª
à¦ĸà¦¨ à¦¶
à¦Ĩà¦Ĩà¦Ĩà¦Ĩ à¦Ĩà¦Ĩà¦Ĩà¦Ĩ
à¦ıà¦¸ à¦ĩà¦ı
à§§à§ª à§¨à§Ń
à¦īà§ľ à¦Ľ
à¦ļ à¦¨à¦¤
à¦°à¦² à¦¬à¦¨
à¦Łà¦ª à¦ľ
à¦°à¦¬à§ľ à¦®
à¦¸ à¦¸à¦ķ
à¦ļ à¦ıà¦ĩà¦ļà¦¡
à¦¸à¦¦ à¦®à¦¨
à¦ıà¦¸à¦¬ à¦¤
à¦¤à¦²à¦Ń à¦¬à¦¨
à¦¡ à¦²à¦ķà¦°
à¦¨à¦Ĩ à¦«à¦¸
à¦¶à¦ķ à¦·
à¦Ĺà¦£ à¦¦
à¦ıà¦ĩà¦¸ à¦¬à¦¸
à¦ī à¦ĩà¦ļ
à¦¸à¦ķà¦² à¦ªà¦°
à¦²à¦¹à¦ķ à¦Ĩà¦¬à¦¦
à¦ľ à¦ĵà¦¶
à§§à§¬ à§¨à§¬
à¦Ĺ à¦ĵà¦Ń
à¦¥ à¦Ĩà¦¹à¦¸
à¦£ à¦Ĩà¦¬
à¦°à¦¨ à¦ķà¦²à¦®
à§ª à§¯à§¯
à¦¶ à¦ħà¦¨à¦²
à¦°à¦¬ à¦ĩà¦Ń
à¦¬à¦ĩà¦® à¦¦
à§§à§§ à§¨à§¦
à¦¦à¦¨ à¦ı
à¦ķà¦¤ à¦«
à¦Ĺà¦® à¦«à¦ľ
à¦ĩà¦ª à¦ŀ
à¦ħà¦ª à¦ļ
à¦Łà¦® à§Łà¦®à¦¨à¦¸
à¦¶ à¦ĵà¦°
à¦¨à¦® à¦°à¦¹
à¦¯à¦® à¦Ļ
à¦¶ à¦ıà¦°à¦®
à¦°à¦ľ à§Łà¦¦
à¦¯ à¦¹à§Łà¦¤
à¦ī à¦ķà¦ª
à¦¤à¦ľ à¦Ĺà¦¨
à¦ľà§Łà¦¨ à¦Ĺà¦°
à¦Ń à¦¬à¦¶
à¦¨ à¦ĩà¦¡
à§© à§§à§ª
à¦¸ à¦°à¦ļ
à¦Ľ à¦¦à¦ĸ
à¦¯à¦ķ à¦°à¦ıà¦¬
à¦®à¦ļ à¦®à¦§
à¦£ à¦ĵ
à¦£ à¦Ĩà¦¶
à¦¨ à¦°à¦ĵà¦¶à¦¨à¦ıà¦°à¦¶
à¦°à¦¬ à§ľà¦²
à¦®à¦² à¦ļà¦ķ
à¦¨à¦Ĩà¦² à¦«
à¦¯à¦ĩ à¦ķà¦°à¦¤
à¦ĩà¦¦ à¦°à¦ľ
à¦¦ à¦īà¦ªà¦Ń
à¦²à¦¨ à¦ªà¦°
à¦Ĺà¦² à¦¬à¦¨
à¦¬ à¦ıà¦ĩ
à¦°à¦¦ à¦²à¦¸
à¦¯ à¦Īà¦¶
à¦ĵ à¦īà§İà¦¸
à¦°à¦ª à¦°à¦ķà¦°
à¦¯ à¦īà¦ĩà¦¨
à¦£ à¦°à¦ķ
à¦¤à¦¦ à¦¬
à¦¸ à¦ıà¦¦
à¦ªà¦¥ à¦®
à¦¸à¦¦ à¦°à¦ļ
à¦ıà¦®à¦ı à¦ĵà§Ł
à¦ħà¦¬ à¦Ĺà¦¤à¦ķà¦°
à¦¯à¦¹ à¦ĩà¦¬
à¦°à¦ħà¦ª à¦°à¦ª
à¦ī à¦Ĩà¦²
à¦¤ à¦°à¦ĺ
à¦Ĺ à¦ĩà¦¨à¦¸
à¦°à¦¸ à¦¦à¦°à¦¬
à¦ĩà¦² à¦ĺ
à¦¦à¦¨ à¦Ĩà¦¨
à¦ĵà¦¤ à¦¦à¦¨
à¦°à¦ıà¦ķ à¦§à¦°à¦¨
à¦² à¦ħà¦Ł
à¦¯ à¦ĩà¦¡
à¦¦ à¦ħà¦ľ
à¦¶ à¦°à¦¯
à¦§ à¦Ĩà¦¦
à¦Ŀ à¦¦
à¦ª à¦²à¦¨
à¦® à¦Ĩà¦«
à¦¦ à¦ļà¦°
à¦ľ à¦īà§İà¦ª
à¦£ à¦ĵà¦¸à¦®
à¦Ńà¦¬ à¦¤à¦ķ
à¦°à¦® à¦¨à¦¯
à¦«à¦² à¦Ľ
à§®à§¦ à§¬
à¦² à¦ĵà¦Ł
à¦°à¦¶ à¦ĸ
à¦°à¦ľà¦¨ à¦ªà¦¦à¦ķ
à§¨à§¦à§¨à§¨ à§§
à¦¤à¦¹à§Ł à¦¹
à§¨à§¬ à§¨
à§©à§« à§¨
à§©à§© à§§
à¦ķ à¦ĵà¦Ĺ
à¦¶ à¦ļà¦²
à¦ĺ à¦®à¦¹
à¦²à¦Ĩà¦² à¦®à¦¬à¦²
à§ªà§ª à§¯
à§© à§¯à§¦
à¦ķ à¦ľà¦²
à¦ª à¦ħà¦£
à¦· à¦®à¦ķ
à¦¸à¦¨ à¦ĸ
à¦¶à¦ª à¦°à¦Ĺà¦¨
à¦§ à¦Ĩà¦ľ
à¦ĵ à¦ıà¦ķà¦ľà¦¨
à¦Ń à¦ħà§Ł
à§§à§ª à§ªà§¨
à¦ıà¦ĩà¦ª à¦¦à¦ķ
à¦ĩà¦īà¦ıà¦¸ à¦ıà¦¸
à¦¸ à¦¦à¦¶
à¦Ĺ à¦ĵà¦®
à§® à§¬à§¯
à¦°à¦ķà¦® à¦Ľ
à¦ķà¦ªà¦° à¦¤
à¦ĩà¦² à¦ĩà¦®
à¦Ńà¦¬ à¦Ń
à¦¸à¦« à¦°à¦ķà¦°
à§«à§¦à§¦ à§¦à§¦à§¦
à§Łà¦ļ à§ľ
à¦ıà¦ķ à¦¸à¦¨
à¦°à¦ĵ à¦¸à¦¨
à¦¬à¦ķ à¦ļ
à¦¬ à¦Ĩà¦ķ
à¦¸ à¦Łà¦ª
à¦ľ à¦ħà¦¬à¦¸
à¦« à¦£
à§§à§¯ à§¦à§¨
à¦² à¦ĩà¦īà¦°
à¦®à¦² à¦¯
à¦°à¦ķà¦¬ à¦°à¦ľ
à¦ª à¦ĩà§Ł
à¦ĵ à¦ıà¦ĩà¦®
à§Łà¦¨ à¦°à¦¸
à§Ńà§« à§¯
à¦°à¦Ĩà¦Ĺà¦®à¦¨ à¦ĺà¦Ł
à¦¸ à¦Ĩà¦Ĺà¦¸
à¦®à¦¨ à§Ł
à¦Ĩà¦ĩà¦¨ à¦Ĺ
à§ªà§¦ à§«
à¦ıà¦ĩ à¦īà¦ªà¦¨
à¦Ĩà¦¨ à¦Ĩà¦®
à¦¯à¦ĩ à¦ķà¦®
à§§à§§à§¦ à§¬
à¦· à¦¨à¦®
à¦°à¦¬ à¦ĩà¦¸
à¦ĵà¦Ĩà¦® à¦¦
à¦ħà¦¸à¦¹ à¦¨
à¦¡ à¦¸à¦²
à¦°à¦īà¦ª à¦°à¦¸à¦®
à¦¹à§Ł à¦¨à¦¤
à§İ à¦ıà¦ķà¦¦
à¦Ĺà¦® à¦ķà¦°à¦¤
à¦¨à¦ıà¦ĩ à¦ķà¦¥
à§Łà¦¦à¦¨ à¦ľà¦°
à¦¯ à¦ıà¦®à¦¨à¦ķ
à¦ĭà¦£ à¦Ĩà¦¦
à¦¦ à¦¹à§Łà¦¨
à¦§à¦¨ à¦ļà¦Ł
à¦¤ à¦°à¦¹à¦²
à¦Ł à¦ıà¦°à¦¨
à¦¨à¦¬ à¦¬à¦§
à¦²à¦ķ à¦¹à¦²
à¦¸à¦¸ à¦¸à¦¸
à¦°à¦ı à¦²à¦¸
à§© à§§à§¨
à¦® à¦°à¦Ł
à¦² à¦ħà¦¸à¦®
à¦¦ à¦ĵà¦¶
à¦¸à¦¬ à¦Ĺà¦²
à¦¤à¦¨ à§Łà¦¤
à¦ķ à¦ħà¦ľ
à¦ĩ à¦Ĩà¦¯
à¦ķà¦° à¦¤à¦¬
à¦¬à¦¨ à¦¦à¦°
à¦¬ à¦ļà¦²
à¦² à¦ħà¦ľ
à¦®à¦ª à¦¶
à¦Łà¦Ľ à¦¡
à¦°à¦ıà¦®à¦¨ à¦¬
à¦¬ à¦Ĩà¦²à¦®
à¦¬à¦Ľ à¦°à¦ħà¦¤
à¦¨à¦ıà¦ķ à¦¤
à¦ļ à¦¶à¦ķ
à¦¥ à¦²à¦¬
à¦¡ à¦īà¦¦
à¦ĺ à¦ıà¦¬
à¦ľà¦¹ à¦ĵà¦¯
à¦¨à¦ĵ à¦¸à¦¨
à¦¬ à¦Ĳà¦¤
à¦¦à¦ķ à¦Ĩà¦ľ
à¦²à¦Ĩ à¦°à¦¨
à¦¤à¦¤à¦® à¦¸à¦®à§Ł
à¦¶ à¦ıà¦ĸ
à¦ı à¦¤à¦°
à¦°à¦®à¦£ à¦§à¦°
à¦Ĺà¦ł à¦¨à¦ľ
à¦¸à¦« à¦°à¦¸
à¦°à¦ıà¦ĩ à¦ĵà¦¯
à¦¨à¦®à¦¨ à¦ª
à¦¸ à¦ļà¦¨
à¦¥ à¦²à¦¤
à¦ľ à§Łà¦°
à¦ªà¦ķ à¦īà§İà¦¸
à¦ķà¦¦à¦¶à¦ķ à¦§à¦°
à¦¤ à¦ĭà¦¤
à¦Ĩ à¦ķà¦¨
à¦²à¦¸ à¦¨à¦¦
à¦Ĩà¦Ĺ à¦®à¦¨à¦ķà¦°
à¦° à¦°à¦¸à¦¬
à¦«à¦² à¦²
à¦§à¦¹ à¦¨à¦¤
à¦¯ à§Łà¦¨à¦ķà¦°
à¦ļà¦Ĺà§ľ à¦¥
à¦ıà¦« à¦ļ
à¦ī à¦¸à¦Ĺ
à¦£ à¦ħà¦¸
à§§à§« à§©à§¦
à¦ª à¦°à¦®à¦ķà¦°
à¦ħ à¦¤à¦ª
à¦ĸà¦¨ à¦Ń
à¦ĩà¦¬ à¦ĩà¦Ł
à¦¯à¦ª à¦Ł
à¦¨ à¦¨à¦ª
à¦¡ à¦ĩà¦¸à¦°
à¦¬ à¦ĩà¦¬à¦¨
à§§à§« à§ªà§¬
à¦· à¦ħà¦¬à¦§
à¦ªà¦£ à¦ª
à¦ĸà¦ķ à¦ıà¦¬
à¦ĵ à¦Ĩà¦¸à¦¤
à¦ĩà¦¸à¦¬ à¦¦
à¦¨à¦ıà¦ķà¦ľà¦¨ à¦ª
à¦ľ à¦ĩà¦¬à¦¨
à¦¥ à¦ĵà¦¸
à¦¨à¦Ĩ à¦ĩà¦«
à¦ĩ à¦¬à¦¸à¦¬
à¦ī à¦ĩà¦ª
à¦²à§Ł à¦ĵà¦¬
à¦Ľ à¦ħà¦¬à¦®
à¦¯à¦¬ à¦ĩà§Ł
à¦²à¦Ĺ à¦łà¦¨à¦ķà¦°
à¦¹à¦¯à¦°à¦¤ à¦īà¦®
à¦°à¦ļ à¦¯
à¦¶ à¦¶à¦ķ
à¦¤à¦¨à¦¬ à¦Ľ
à¦· à¦īà¦¨
à¦ıà¦¸ à¦¤
à¦²à¦Ĩ à¦«
à¦°à¦Ĺà¦ł à¦¨à¦¤à¦¨
à¦Ĩà¦ªà¦¨ à¦Ń
à¦²à¦¨ à¦«
à¦¤à¦² à¦°
à¦ĩà¦ı à¦°à¦¦
à¦īà¦ªà¦ķà¦°à¦£ à¦Ĺ
à¦¡ à¦ıà¦°à¦ªà¦ķ
à¦°à¦¹ à§Łà¦¬
à¦ķà¦Ł à¦«
à¦¨à¦ı à¦°à¦ľ
à¦¨à¦¯à¦ĸà¦¨ à¦Ĩà¦ªà¦¨
à¦· à¦ħà¦¶
à¦¨ à¦°à¦²à¦Ĺ
à¦ª à¦ĵà§Ł
à¦¯ à¦®à¦¸à¦ľ
à¦¹ à¦ľà¦¨à¦ķ
à¦ıà¦ĩ à¦¸à¦Ń
à¦ª à¦ıà¦ª
à¦§ à¦¬à¦¸
à¦ł à¦ĸà¦£
à¦£ à¦Ĩà¦ķ
à¦¸à¦¬ à¦¸à¦®à¦¸
à¦¸ à¦ĵà¦¸à¦®
à¦¦ à¦°à¦ĵà¦¸
à¦ľ à¦¸à¦¬
à¦ħ à¦ķà¦¥
à§ª à§§à§§
à¦®à¦Ĺ à¦ľ
à¦ıà¦° à¦°à¦ķ
à¦¯ à¦ĩà¦ªà¦°
à¦¨à§Ł à¦ıà¦¬
à§Łà¦« à¦¸à¦²
à¦ķà¦ī à¦¶à¦°
à¦¶ à¦Ĩà¦®à¦²
à¦ĩà¦® à¦Ń
à¦¶ à¦°à¦¹
à§ľ à¦ıà¦¬
à¦¬ à¦ĵà¦Ń
à¦² à¦ıà¦°à¦ªà¦°
à¦¨à¦¤ à¦ĸ
à¦ıà¦ĩ à¦ł
à¦¶à¦¨ à¦ĩà¦¨
à§Ł à¦£à¦®
à¦Łà¦¨ à¦ıà¦²
à¦°à¦¸à¦¬ à¦¸à¦®à¦¯
à§¨à§¦à§¨à§© à§¨à§¦à§¨à§©
à¦¨ à¦ıà¦¸à¦ıà¦®
à¦¯à¦¬ à¦¶
à¦¨à§Ł à¦²
à¦ľà¦¨ à¦Ĩà¦Łà¦ķ
à§Łà¦® à¦®à¦¤
à§§à§Ń à§¨à§Ń
à¦ıà¦¨ à¦ıà¦¸à¦Ĩà¦ĩ
à¦· à¦ļà¦²à¦ļ
à¦ıà¦ĩ à¦¤à¦°
à¦¯à¦ķà¦° à¦ªà¦¦à¦ķ
à¦¤ à¦°à¦«à¦°
à¦ī à¦ıà¦²
à¦ıà¦ĩà¦¨ à§Łà¦¯
à¦¶ à¦ĩà¦¹
à¦¬à¦Ľ à¦°à¦Ł
à¦¨à¦ıà¦ķ à¦¨à¦ľà¦°
à¦ıà¦¬à¦Ľ à¦°à¦®
à¦¦ à¦Ĩà¦®à¦°
à¦¥ à¦¬à¦¹
à¦ĵ à¦¤à¦ª
à¦ŀ à¦¹
à¦ĩà¦¤ à¦²
à¦Ĺà¦² à¦²
à¦ķ à¦¹à§Łà¦¤
à§Ł à¦¡à¦ª
à¦Ń à¦²à¦ª
à¦īà¦ľ à¦¸à¦¤
à¦°à¦¬à¦¸à¦¤ à¦Ń
à¦§ à¦¨à¦ĵ
à¦Ńà¦¬ à¦Ĩà¦®
à¦ıà¦°à¦ª à¦°à¦°
à¦ıà¦¸à¦¬ à¦ªà¦°
à¦¡ à¦¨à¦Ń
à¦²à¦¤ à¦¬à¦²
à¦¯à¦ª à¦¥
à¦· à¦Ĩà¦®à¦°
à¦¡ à¦ķà¦¨
à¦ľ à¦¬à¦¬
à¦°à¦ħ à¦ļ
à¦ĩà¦² à¦Ĩà¦®
à¦Ĩà¦¹à¦¤ à¦ħà¦°
à¦¸à¦¹ à¦¸à¦¬
à§ªà§© à§®
à¦ľà¦¨ à¦ĵà§Ł
à¦ķ à¦ıà¦Ľ
à¦ĵ à¦Ĩà¦°à¦ĵ
à¦°à¦ļ à¦°à¦¬
à¦ıà¦®à¦¨ à¦ĸ
à¦īà§İà¦¸ à¦¸à¦®
à¦² à¦²à¦¬
à§Ł à¦Ĩà¦¸à¦¨
à¦¤à¦¤ à¦Ĩà¦®
à¦¶à¦¨ à¦¢
à¦¯à¦¬ à§Ł
à¦¦ à¦ļà¦ķ
à¦«à¦² à¦¨à¦ª
à¦²à¦ľ à¦¬à¦ª
à¦ıà¦¤ à¦ĸ
à¦ľ à¦®à¦²
à¦°à¦¯ à¦¬
à¦Ĺà¦¤ à¦¦à¦¨
à¦°à¦¥à¦® à¦ĵà¦Ń
à¦Ĺà¦łà¦¨ à¦ķà¦°à¦¤
à¦°à¦ħà¦¬à¦¸ à¦°
à§§à§¨à§¦ à§§
à¦¸ à¦¬à¦²à¦Ľ
à¦°à¦Ĩ à¦ĩà¦ıà¦¸
à§Łà¦¨ à¦Ĩà¦¦
à¦¨à§Łà¦¨ à¦īà¦¨
à¦ľà¦² à¦¦à¦¸
à¦¶ à¦¨à¦¬à¦¨
à¦£ à¦ħà¦¤
à§ľ à¦ķà¦°à¦Ľ
à¦°à¦Ł à¦®
à§§à§¨ à§©à§¬
à¦² à¦ªà¦¨
à¦¨à¦¬ à¦ĩà¦¤
à¦°à¦Ĺ à¦¹à¦¨
à§©à§¦ à§¨
à¦¦à¦¨à¦® à§Łà¦¦
à§Ł à¦¶à¦¬
à¦· à¦°à¦°
à¦§à¦¨ à¦ĵà¦¸
à¦¹ à¦¸à¦ķ
à¦¥ à¦²à¦Ĺ
à¦· à¦Ĺà¦²
à¦īà¦ª à¦°à¦¥
à¦® à¦ħà¦¥à¦¬
à§© à§¯à§¯
à¦Ŀ à¦²à¦®à¦²
à¦ķà¦°à¦² à¦Ĩà¦®
à¦£à¦¤ à¦¹à¦²
à¦¤ à¦¨à¦ªà¦¦
à¦¬à¦¨ à¦Ĺà¦°
à¦ıà¦¸à¦¬ à¦ħà¦Ń
à¦ĩà¦ı à¦ľà¦¨
à¦«à¦¸à¦² à¦īà§İà¦ª
à¦Ĩ à¦°à¦§à¦°
à§§à§® à§®à§®
à§§à§§ à§¨à§¦à§¨à§¦
à¦² à¦ıà¦ĩà¦®
à¦Ł à¦ıà¦ľ
à¦¤à¦¨ à§Łà¦ı
à¦°à¦¨ à¦ķà¦Ĩà¦īà¦Ł
à¦Łà¦¸ à¦Ĺ
à¦¸ à¦¨à¦¤à¦¨
à¦¹à§Ł à¦¸à¦°à¦ķ
à§¨à§¦à§§à§© à§¨à§¦à§§à§ª
à¦¶ à¦ĩà¦ķ
à¦°à¦¦ à¦°à¦¯
à¦ķà¦°à¦£ à¦ªà¦°
à¦°à¦¶à¦° à§İà¦ļà¦¨
à¦¸à¦¹ à¦ľà¦®
à¦°à¦īà¦ª à¦°à¦ªà¦°
à¦¹à¦°à¦¦ à¦°à¦¬
à¦°à¦¸ à¦¨à¦¸
à¦ıà¦¸ à¦ĩà¦¬
à¦Ĺ à¦ĩ
à¦¤à¦¬ à¦¦
à¦°à¦ıà¦ĩ à¦¨à¦¤
à¦·à§Łà¦ķ à¦ªà¦°
à¦°à¦¸ à¦ªà¦ķ
à¦ĩà¦¬ à§Łà¦¸
à¦ĩà¦ī à¦ªà¦°
à¦¶ à¦²à¦¤
à¦Ľ à¦¦à¦¦
à¦°à¦ķ à¦¬à¦°à¦¸
à¦ĩà¦¸ à¦¤à¦°
à¦ķà¦² à¦¡
à¦® à¦Ĩà¦¬à¦¦
à¦¯ à¦Ĩà¦²à¦¹
à¦Ļ à¦¸
à¦¹à¦¤ à¦Ĺ
à¦¶à¦¹ à¦°à¦ľ
à¦° à¦°à¦¸à¦¦
à¦ķ à¦°à¦Ļ
à¦ľ à¦ħà¦¬
à¦ĩ à¦¦à¦¸
à¦¿à¦Ĥ à¦ĥ
à¦ķ à¦ĩà¦¤à¦¬
à¦°à¦ĸà¦¬ à¦°à¦¸à¦°à¦ķ
à¦¸ à¦°à¦Ĩà¦¬
à¦ī à¦ĵà§Ł
à¦¤à¦¸ à¦°à¦¬à¦°
à¦ı à¦°à¦īà¦ļ
à§© à§¨à§¬
à¦¶à¦ª à¦°à¦®
à¦ķà¦¨ à¦²
à§§à§® à§¯à§¯
à¦ĩà¦¸à¦¬ à¦ª
à¦Ĺ à¦°à¦¤
à¦ıà¦ķ à¦ĩà¦°
à¦°à¦ĵ à¦ĺ
à¦¤à¦° à¦ķà¦°à¦¬
à§§à§¨ à§«à§¨
à§§à§© à§«à§¦
à¦·à¦¦ à¦¸à¦®
à¦ķ à¦ıà¦ĩà¦ķ
à¦¤ à¦§à¦°à¦£
à¦²à¦¨à¦Ĺ à¦°à¦°
à¦ªà¦ķ à¦ħà¦¨
à¦¤à¦« à¦°à¦®
à¦®à¦°à¦£ à¦ķà¦°à¦¤
à¦Ŀ à¦ª
à¦īà¦ķ à¦ĸà¦¨
à¦Ĩà¦°à¦¤ à¦ĸà¦¨
à¦¤à¦¨ à¦¹à§Łà¦¨
à¦ĩà¦Ń à¦Ĩà¦®
à¦ī à¦Łà¦Ĺ
à¦°à¦¦ à§ľ
à¦ľà¦¨ à¦ķà¦¹
à¦°à¦ı à¦¸à¦®
à¦²à¦ķ à¦ķà¦®
à¦ĩà¦ī à§İà¦¸à¦¬
à¦°à¦¬à§ľ à¦¦
à¦¡ à¦Łà¦¨
à¦ļà¦² à¦¸à¦®
à¦¨à¦ı à¦°à¦ªà¦°à¦ª
à§©à§¦ à§ªà§¦
à¦® à¦ħà¦¡
à¦°à¦ĵ à¦ľà¦¨à¦¬
à¦¯à¦¬ à§ľ
à¦°à¦ĩ à¦īà¦¸
à§§à§¯ à§¨à§¦à§¨à§§
à¦°à¦¥à¦® à¦Ĩà¦®
à§Łà¦ħà¦¨ à¦¨
à¦ķ à¦Ĩà¦ĩà¦¨à¦Ĩà¦¦
à¦² à¦ľà¦¨à¦¸
à¦Ĺ à¦¸à¦¹à¦¨
à¦¨à¦¶ à¦¨à¦¬
à¦ıà¦¸à¦¬ à¦¹
à¦Ĩà¦ĩ à¦¨à¦¸à¦Ń
à¦¬à¦¨ à¦ļà¦¨
à¦¤à¦ķ à¦ªà¦°
à§¦à§¨ à§§à§¨à§¨à§¦à§¨à§¨
à¦Ĺ à¦°à¦¹
à¦ıà¦ĩ à¦¸à¦¬à¦ª
à¦®à¦¬ à¦¹
à§§à§¦ à§¨à§¦
à¦Ĩà¦§ à¦Ł
à¦§à¦¦ à¦®à¦¨
à¦°à¦Ĩà¦ĸ à§ľ
à¦ª à¦ĵà¦ķ
à¦ľ à¦ıà¦°
à¦¶à¦ª à¦¶
à¦ĩà¦ıà¦ĩ à¦Ł
à¦ıà¦°à¦ķà¦® à¦ħà¦¨
à¦¬ à¦ĵà¦ľ
à¦¯ à¦Ĩà¦¹à¦¬
à¦Łà¦ķ à¦Ń
à¦Łà¦Ń à¦²
à¦¶à¦¨à¦¸ à¦¹
à¦¤ à¦ĵà¦²
à¦£ à¦īà¦¨
à¦¬à¦² à¦²à¦ª
à¦®à¦¦ à¦¸à¦¹à¦Ĩà¦Łà¦ķ
à¦·à§Ł à¦ķà¦¤à¦¥
à¦«à¦¤ à¦ĵà§Ł
à¦²à¦ķà¦® à¦²à¦ķ
à§Ńà§§ à§§à§¬
à¦ı à¦¨à¦Ĩà¦°à¦¬
à¦ı à¦ıà¦¸à¦ª
à¦¡ à¦ħà¦¥à¦¬
à¦°à¦£ à¦²à¦ķ
à¦¸à¦¨ à¦ĵà¦ª
à¦ľà¦¸ à¦¦à¦°à¦ķ
à¦¡à¦¬ à¦ļ
à¦¶ à¦«à¦°
à¦¦à¦ķ à¦ıà¦¸à¦ıà¦®
à§Łà¦¸à¦¬ à¦§à¦°à¦¨
à¦°à¦¤ à¦Ĩà¦¨
à¦īà¦ł à¦²à¦Ĩà¦®
à¦¨à¦ıà¦ĩ à¦ĸ
à¦ªà¦°à¦ĸ à¦ķà¦°
à¦¯ à§Łà¦ª
à§Ł à¦ĩà¦īà¦°
à¦§ à¦¶à¦ķ
à§¨ à§¨à§¦à§¦à§¦
à§Łà¦ķ à¦Ľ
à¦Ĩ à¦°à¦Ĩà¦¬
à¦« à¦°à¦¬
à¦°à¦ĵ à¦ĩà¦¦
à¦¨à¦« à¦²à¦¸
à¦¨à¦ı à¦°à¦ļ
à¦ĩà¦Ń à¦Ľà¦¬
à¦ľà¦² à¦Ľ
à¦· à¦Ĩà¦¶
à¦§ à¦ĵà§Ł
à¦¯à¦ĸà¦¨ à¦Ľ
à¦ļà¦Ĺà§ľ à¦ľ
à¦ĸ à¦ķà¦°à¦¬
à¦ıà¦² à¦¦
à¦ľà¦¨à¦Ĺà¦£ à¦¨
à¦¸ à¦Ĩà¦ŀ
à¦® à¦Ĩà¦°à¦ĵ
à¦®à¦¹ à§ľ
à¦ıà¦« à¦ıà¦¨à¦ı
à¦¤ à¦ħà¦¸à¦®
à¦°à¦£ à¦°à¦¯
à§§à§ª à§¨à§¬
à¦®à¦ļ à¦¬
à¦¹ à¦¹à¦ļ
à¦°à¦ĵ à¦ĩà¦īà¦¨
à¦¦ à¦īà¦¸à¦¸
à¦ļ à¦īà¦ĩà¦ķ
à¦£ à¦°à¦¯
à¦ļà¦¨ à¦¥
à§Ł à¦ĵà¦·
à¦ľ à¦ħà¦ª
à¦ķà¦¬ à¦ĩà¦īà¦¨
à§¨à§§ à§§à§©
à¦Łà¦« à¦°à¦®
à§¬à§¬ à§¯
à¦¤à¦Ń à¦¬à¦¨
à¦¯à¦Ĩà¦® à¦¨
à¦¯à¦¤à¦®à¦¸ à¦¦à¦¸
à¦ķ à¦¬à¦²à¦Ľ
à¦¸ à¦°à¦¨à¦ķà¦°
à¦¡ à¦ıà¦°à¦¸
à¦® à¦Ĩà¦²à¦¹
à¦¡ à¦Ńà¦¬
à¦ĩà¦Ł à¦ĵà¦¯
à¦¸à¦®à§Ł à¦Ľ
à¦¨à¦ıà¦ķ à¦¶
à¦Ĭ à¦·
à¦² à¦ĵà¦²
à¦ªà¦ķ à¦ıà¦¬
à¦¤à¦Ĺ à¦Ń
à¦¹à¦°à¦£ à¦Ł
à§Ł à¦°à¦Ł
à¦°à¦ķà¦¤ à¦īà¦²
à¦§ à¦Ĩà¦²
à¦°à¦¬ à¦¨à¦¦
à¦¨à¦Ĩ à¦ĩà§Ł
à¦²à¦¸ à¦°à§Ł
à¦«à¦¤ à¦Ĩà¦²
à¦°à¦¸à¦®à§Ł à¦«
à¦°à¦Ĩà¦ļ à¦°à¦£à¦ķ
à¦ĵ à¦¨à¦Ń
à¦ıà¦¸ à¦¬à¦°
à¦ĩà¦Ł à¦¬à¦¨
à¦ĩà¦« à¦·
à¦ľ à¦ĩ
à¦ļ à¦®à¦§
à¦Ń à¦ªà¦°
à¦ľà¦¸à¦¦ à¦°à¦¹
à¦® à¦®à¦¬
à¦¯ à¦¸à¦¹à¦¨
à§§à§¦ à§§à§¬
à¦ĵà¦® à¦łà¦¬
à¦ĵà¦¸à¦® à§Łà¦¸
à¦Ĭ à¦¨
à¦¸ à¦Ĺà¦£
à¦¸à¦¬ à¦¸à¦®à§Łà¦ª
à¦īà§İà¦¸à¦¬ à¦Ń
à¦¬à¦Ľà¦°à¦ª à¦°à¦ķ
à¦¬ à¦īà¦ļ
à¦°à¦£ à¦¬à¦ķ
à§İà¦ķà¦° à¦¦à¦¸
à¦·à¦ĺ à¦¨à¦¦
à¦¤à¦¨à¦Ńà¦Ĺà¦¤ à¦ľà¦¯
à¦®à¦¨ à¦Ĩà¦®à¦°
à§§à§© à§§à§Ń
à¦ıà¦¸à¦ıà¦®à¦ıà¦® à¦ĩà¦ī
à¦¨ à¦ĸà¦¤
à¦² à¦°à¦²
à¦ª à¦Ĩà¦°à¦ĵà¦ªà§ľ
à¦ªà¦¨ à¦Ĩà¦®
à¦ĵà¦ļ à¦¤
à¦ľ à¦ıà¦°à¦ª
à¦Ĺ à¦ĩà¦²
à§Łà¦ħ à¦ļ
à¦¬à¦ıà¦ĩà¦¡ à¦¸à¦¦
à§§à§« à§Ńà§®
à¦²à¦ĺ à§ľ
à§¬ à§¨à§¯
à¦¯à¦ĸ à¦°à¦ļ
à¦ĩà¦ĸ à¦¸
à§Ŀ à¦ķà¦°
à¦°à¦ıà¦ĩà¦¬ à¦ķ
à¦® à¦¶à¦¤
à¦¸à¦¦ à¦¦
à¦°à¦¸à¦ķà¦² à¦ķà¦°
à¦¤ à¦°à¦ľà¦®
à¦ĵà¦¬ à¦¦à¦²
à§ªà§« à§ª
à¦¸à¦® à¦¡
à¦ķ à¦ıà¦ķà¦¬
à¦Ĺ à¦«à¦²
à§¨à§¨ à§¨à§¨
à¦ķà¦¦ à¦°à¦¬
à¦łà¦ķ à¦Ĩà¦ªà¦¨
à¦ľ à¦®à¦¦
à¦¨à¦¤ à¦¯
à¦·à¦® à¦ĸ
à¦¦ à¦¬à¦¦
à¦¤à¦¨ à§Łà¦¸
à¦ķà¦°à¦£ à¦¶
à¦¯ à¦¸à¦¬à¦ľ
à¦Ľ à¦¨à¦°
à¦¨à¦Ĺ à¦°à¦ļ
à¦Ĺà¦² à¦ĸ
à¦¤ à¦¬à¦²à¦¤
à¦® à¦ĵà¦«
à¦¥ à¦°à¦ª
à¦°à¦ļ à¦°à¦Ńà¦¦
à¦¶à¦¨ à¦Ĩà¦°
à¦¤à¦¨ à¦Ĺà¦°
à¦ª à¦¹à¦ĵà§Ł
à¦ıà¦¸ à¦ķà¦°
à§Ł à¦ıà¦ķà¦ĩ
à¦£ à¦¦à¦ķ
à¦¤à¦ķ à¦ļ
à¦¶à¦² à¦ħà¦¬à¦²à¦®
à¦°à¦ıà¦ķà¦ľà¦¨ à¦¸à¦¦à¦¸
à¦§ à¦¢
à§Łà¦¨ à¦ĵ
à¦¸à¦®à§Ł à¦ªà¦°
à¦°à¦Ŀ à¦Ĺà§ľ
à¦¶à¦ķ à¦¸à¦®
à§§à§® à§¦à§§
à¦Łà¦ª à¦¬
à¦² à¦¸à¦¹à¦¨
à¦Ĺ à¦¸à¦Ļ
à¦Ľ à¦¦à¦²
à¦¸à¦¬ à¦Ĩà¦²
à¦ıà¦¸ à¦ıà¦¬
à¦ĩà¦ı à¦§à¦°à¦¨
à¦ľà¦¨ à¦ħà¦°
à¦ıà¦ĩ à¦«à¦²
à¦ĩà¦¸à¦¬ à¦ĸ
à¦¬ à¦°à¦ħà¦Ń
à¦Ł à¦ķà¦®à¦ª
à¦¨à§Łà¦¨ à¦ľà¦®
à§Łà¦¸à¦® à¦¨
à¦ķ à¦ıà¦ĩà¦¸
à¦ķà¦°à¦Ĩ à¦¹à¦¸
à¦¸ à¦ħà¦¨à¦²
à¦¨à¦ĵ à¦ķà¦¥
à¦² à¦°à¦ľ
à¦ª à¦¸à¦°à¦ķ
à¦Ł à¦īà¦ĩà¦¨
à¦°à¦ª à¦°à¦ıà¦ĩà¦ª
à¦¦à¦ķ à¦¨à¦ľà¦°
à¦ķà¦¤ à¦¯
à¦Ĩ à¦Łà¦¹
à¦°à¦ª à¦°à¦ĵà¦¯
à¦°à¦ªà¦°à¦ĵ à¦¦
à¦Ł à¦ıà¦Ĺ
à¦® à¦°à¦ª
à¦°à¦ıà¦ĸà¦¨ à¦ªà¦°
à¦ı à¦°à¦ĩà¦®
à¦°à¦ħ à¦ªà¦ķà¦°
à¦¸à¦®à§Ł à¦Ĩà¦Ľ
à¦¯ à¦ĩà¦¥
à¦· à¦ļà¦Ł
à¦¥ à¦·
à¦¥ à¦Ĩà¦²
à¦ĵ à¦¸à¦¹à¦ľ
à¦ĵ à¦ħà¦¦
à¦°à¦¦ à¦¶à¦Ł
à¦°à¦°à¦ī à¦«à¦¤
à¦ĵ à¦¨à¦¨
à¦¶à¦¨ à¦ĵà¦ª
à¦¬à§ľ à¦Ľ
à¦°à¦ıà¦ĸ à¦¨à¦¬
à¦¸ à¦Ŀ
à¦¨à¦ľ à¦Ĺà¦¤
à¦¬ à¦ªà¦¨à¦¬
à¦Ł à¦ĩà¦ŀ
à¦¦ à¦°à¦¹à§Ł
à¦ĩ à¦ħà¦Ļ
à¦¨à¦² à¦°
à¦°à¦ıà¦ķ à¦ĩà¦¸
à¦·à§Łà¦ķ à¦īà¦ªà¦¦
à¦ļ à¦°à¦°
à¦ľà¦¨ à¦¶à¦¨
à¦°à¦ª à§ľà¦¤
à¦ĩà¦ª à¦ª
à¦¨à¦ĵ à¦®à¦°
à¦ķà¦¶à¦¨ à¦¥
à¦² à¦Ĩà¦ĩà¦¨à¦ľ
à¦Ĺ à¦¨à¦ķà¦°
à¦ı à¦«à¦°
à¦²à¦¸ à¦°à¦¯
à¦°à¦¹à¦£ à¦Ľ
à¦®à¦Ĩ à¦°à¦Ĩà¦®
à¦¬ à¦Łà¦Ĺ
à¦ľ à¦ıà¦ª
à¦ĸ à¦ķà¦Ńà¦Ł
à¦ª à¦¸à¦Ń
à§Ł à¦ħà¦¬à¦¤
à¦ĩ à¦¸à¦®à¦°
à¦¯à¦® à¦ĵà¦¸
à¦°à¦¸à¦®à§Ł à¦ĸ
à¦¤ à¦Ĩà¦°à¦ĵà¦ªà¦¡
à§§à§© à§¦à§§
à¦² à¦¸à¦¹à¦ķ
à¦ĵ à¦īà¦ľ
à¦¹à§Ł à¦ıà¦ĩà¦¬
à¦°à¦£ à¦ĵà¦¸
à¦°à¦§ à¦¨à¦¸à¦®
à¦ķ à¦ĩà¦Ľ
à¦¦ à§Łà¦¸
à¦°à¦¸ à¦¹à¦¤
à§Łà¦ķ à¦Ĩà¦¬
à¦¨à¦ıà¦ĩ à¦ħà¦¬
à¦¤ à¦ıà¦®à¦¨
à¦¯ à¦Ĩà¦°à¦¬
à¦ľ à¦°à¦¶
à¦°à¦ħ à¦¦à¦®
à¦Ĩà¦¹ à¦¹à¦¹à¦¹à¦¹
à¦ĸà¦ķ à¦ĵà¦ª
à¦¨à¦ĵ à¦ĩà¦°
à¦¬ à¦ħà¦¸à¦¹
à¦¤ à¦ī
à¦ı à¦¨à¦¤
à¦ķ à¦Ĺà¦£à¦¤
à¦¶ à¦ªà¦¦
à¦« à¦®à¦¨
à¦ľà¦¨ à¦ĵà¦¸
à¦°à¦ķà¦®à¦¬ à¦¯
à¦¸ à¦ħà¦¥à¦¬
à¦¹ à¦°à¦Ľ
à¦Ľ à¦°à¦ª
à¦¥ à¦¨à¦ķà¦°à¦¬
à¦¤à¦¬ à¦ĩà¦ª
à§Ńà§® à§¯
à¦°à¦¬ à¦¨à¦¤
à¦°à¦¨ à¦¬à¦¬à¦°
à¦°à¦£ à¦¬à¦°
à¦¡à¦¬ à¦¡
à¦¸ à¦Ĩà¦ªà¦¡
à¦²à¦¬ à¦Ľà¦°
à¦¸à¦¨ à¦ħà¦¨
à¦Ĩà¦ľ à¦§à¦¨
à§©à§§ à§§à§¨
à¦ĵà¦ľà¦¨ à¦¹
à¦°à§Ł à¦ļ
à¦¸à¦ķà¦² à¦«
à¦Ĩà¦ª à¦®
à¦ķà¦¸ à¦ķà¦®
à¦ħà¦¬ à¦ļ
à¦¸à¦®à§Ł à¦«
à¦¤à¦Ń à¦ķ
à¦īà¦ªà¦¸ à¦ļ
à¦°à¦Ĩà¦°à¦ĵ à¦¬à¦²
à¦°à¦ª à¦°à¦Ĩà¦¤
à¦·à¦® à¦¹à¦¤
à¦ļ à¦®à¦¨
à¦ħ à¦¸à¦®à§Ł
à¦Ĳ à¦ķà¦®à¦¤
à¦Ĺ à¦²à¦®à¦¹
à¦ıà¦ķ à¦ĩà¦¬à¦Ľà¦°
à¦¬à¦² à¦¬à¦¯
à¦°à¦Ĩà¦ĩà¦¨ à¦ķà¦°
à¦¸à¦ıà¦¨ à¦ĩà¦ī
à¦¸ à¦Ĩà¦°à¦¬
à¦ľà¦¨ à¦ĩà¦¬
à¦°à¦¹ à¦ĩà§Ł
à¦¸à¦¬ à¦ĺà¦Łà¦¨
à¦ªà¦£ à¦¶
à¦¤ à¦¯à¦¥
à¦ĵ à¦®à¦¸
à¦ĵ à¦ĵà¦ķ
à¦²à¦ª à¦¬
à¦§à¦¨ à¦«à¦°à¦®
à¦Ńà¦¬ à¦ıà¦¬
à¦¥ à¦¨à¦¯
à¦ħà¦¬ à¦Ĺ
à¦Łà¦ħà¦« à¦®
à¦°à¦¯ à¦®
à¦¸à¦¬ à¦ħà¦Ń
à¦¤à¦ķ à¦°à¦£à¦ķ
à¦ª à¦Ĩà¦¦
à¦ļà¦¨ à¦Ĩà¦²
à¦¸à¦ıà¦¨à¦ĩà¦ī à¦ıà¦®à¦ıà¦ķ
à¦¬ à¦°à¦Ĩà§Ł
à¦ĺ à¦°à¦¶
à¦ķ à¦Īà¦¶
à¦Ĩà¦® à¦²à¦¬
à¦ıà¦ĩ à¦īà§İà¦¸à¦¬
à¦¨à¦ª à¦ª
à¦ªà¦£ à¦¡
à¦¸ à¦·
à¦°à¦¤ à¦Ĩà¦¸
à¦¨à¦¶ à¦ĵ
à¦¡à¦¸ à¦¦à¦¸
à¦ĵ à¦°à¦¸à¦Ļ
à¦¤à¦¨ à¦Ĩà¦¸
à¦°à¦¡ à¦Łà¦¨
à§ªà§© à§ª
à¦ıà¦ķ à¦ħà¦¸
à§¨à§« à§¯à§®
à¦ĵ à¦ıà¦°à¦ķ
à¦°à¦ĺ à§ľ
à¦Łà¦¸à¦® à§Łà¦¸
à¦¯ à¦Ĩà¦¬à¦¦
à¦§ à¦¸à¦¹
à§«à§¬ à§Ń
à¦ıà¦¸à¦ıà¦°à¦¸ à¦ļ
à¦¨à¦ľ à¦Łà¦¨
à§Ł à¦Ĩà¦Ł
à¦«à¦² à¦ıà¦ķ
à¦ľà¦ķà¦® à¦®
à¦ķ à¦īà¦·
à¦¦ à¦Ľà¦¬
à¦ļ à¦ĵà¦¯
à¦¨à¦ª à¦¯
à¦²à¦¤ à¦¡
à¦¨à¦ıà¦ķ à¦ľ
à¦¤ à¦¹à¦¸
à¦°à¦ķ à¦¸à¦°à¦¬à¦°
à¦ķà¦ľà¦¨ à¦°
à¦ķ à§Łà¦°
à§©à§® à§ª
à¦¦à¦®à¦¨ à¦ľ
à¦¥ à¦°à¦Ł
à¦ħà¦¸à¦® à¦¬à¦¨
à¦¨à¦ĩ à¦īà¦ľ
à¦ı à¦Ĩà¦²
à§¨à§¦ à§Ńà§¨
à§Łà¦¨à¦ĺ à¦¨à¦«
à§§à§® à§¯à§®
à¦¹ à¦°à¦ªà¦°
à¦ī à¦Ńà¦®
à¦ª à¦°à¦Ĺà¦£
à¦ĩà¦¡ à¦¤
à¦¤à¦ķà¦°à¦£ à¦ıà¦¬
à¦¤ à¦°à¦Ĩà¦ªà¦¨
à¦² à¦Īà¦¦
à¦Ł à¦Ĩà¦ĩà¦¨
à¦¹à§Ł à¦īà¦²
à¦²à¦¹ à¦ķà¦Ĺ
à¦ľà¦® à¦¡
à¦Ł à¦ĵà¦²
à¦ľ à¦¯à¦¦
à¦¦à¦¨ à¦¹à¦²
à¦ĩà¦®à¦¸ à¦ħà¦¬à¦ĩà¦¨
à¦¬ à¦°à¦ħ
à¦¤à¦° à¦ķà¦°à¦²
à¦Ī à¦ķ
à¦«à¦²à¦¨ à¦ĺà¦Ł
à¦¡ à¦ıà¦¸à¦ıà¦¸à¦¸
à¦ıà¦® à¦ĵà¦ª
à§¨à§Ń à§Ń
à¦Łà¦« à¦°à¦¬
à¦¬ à¦ĵà¦°
à¦¤ à¦ľà¦¨à¦ķ
à¦· à¦Ľà§ľ
à¦°à¦ļ à¦°à¦ķ
à¦ĩà¦Ł à¦Ĩà¦Ľ
à¦°à¦ĩà¦ī à¦Ĩà¦°à¦ı
à¦¨ à§Łà¦°
à§Ł à¦¸à¦¬à¦ľ
à¦ıà¦ķà¦ľà¦¨ à¦Ĩà¦®
à§Ł à¦Ĩà¦°à¦ı
à¦ķà¦ĸà¦¨ à¦ĵà¦Ń
à¦°à¦ĩà¦īà¦ı à¦¨à¦ĵ
à¦Ĩà¦® à¦«
à¦Ń à¦ıà¦¸
à¦¤à¦ķ à¦²à¦ķ
à¦¨à¦ıà¦ĩ à¦®à¦¹
à¦°à¦Ĩà§Ł à¦¤à¦¨
à¦ª à¦īà§İà¦¸à¦¬
à¦īà¦¨ à¦«
à§§à§® à§«à§§
à¦°à¦Ĺà¦£ à¦ªà¦°
à¦®à¦¦ à¦®à¦¨
à¦ĩà¦ı à¦ķà¦°
à§Łà¦īà¦ª à¦®à¦¹
à¦¡ à¦²à¦¨
à¦·à¦¦ à¦Ń
à¦¸ à¦²à¦¨
à¦ī à¦¡à¦ª
à¦®à¦¦ à¦¨à¦®
à¦ıà¦® à¦ķà¦²
à§Ńà§« à§¬
à¦ĩ à¦¶à¦ª
à¦¶ à¦ħà¦ŀ
à¦²à¦¤à¦ĸà¦¨ à¦Ĩà¦®
à¦¬ à¦īà¦®
à¦¨à¦¤ à¦ıà¦¬
à¦ıà¦ĩ à¦¦à¦®
à¦Łà¦ķ à¦ħà¦¨
à¦ĵ à¦¨à¦Ĺ
à¦¶à¦ªà¦° à¦°
à¦¸ à¦ĵà¦¹
à¦¡ à¦¬à¦¹
à¦°à¦¨à¦Ĺà¦¦ à¦ħà¦°
à¦¥ à¦ļà¦²
à¦¦à¦¶ à¦Ĺ
à¦¹ à¦Īà¦®
à§¨à§¦à§¨à§¨ à§§à§ª
à¦¦à¦¬ à¦ĩà§Ł
à¦¨à¦Ĩà¦² à¦®à¦Ĺ
à¦ĩ à¦ĩà¦²
à¦°à¦®à¦§ à¦°
à¦¸à¦¨ à¦īà¦¦
à¦®à¦² à¦®à¦¤
à¦°à¦ĩ à¦®à¦¤
à§Łà¦¸ à¦ķà¦²à¦ª
à¦ĩà¦¡ à¦¬à¦°
à¦¹à¦¯à¦°à¦¤ à¦ĩà¦®
à§§à§¨ à§®à§§
à¦Ĺà¦ł à¦¨à¦°
à¦¸ à¦ħà¦¬à¦¸
à¦¨à¦¤ à¦ĸà¦¨à¦®
à¦ıà¦¡ à¦ĵà¦¯
à¦¤ à¦°à¦ķà¦®
à¦¤ à¦ıà¦Ń
à¦Ń à¦²à¦Ń
à¦°à¦® à¦¤à¦°
à¦ķà¦ĸà¦¨ à¦ĵà¦¸
à¦ĵ à¦ĩà¦īà¦ķ
à¦°à¦ķ à¦Ļ
à¦°à¦ľà¦¨ à¦¨à¦¸à¦®à§Ł
à¦ķà¦¦ à¦²à¦ķ
à¦°à¦¸à¦¦ à¦°à¦ĩà¦īà¦¨
à¦ĸà¦°à¦ļ à¦ķ
à¦¦à¦ķ à¦Ĩà¦²
à¦²à¦¤ à¦ĸà¦¨à¦¸
à¦Ĩà¦ķà¦¬ à¦°à¦ĸ
à¦ļ à¦ĵà¦¡
à§¨à§® à§§
à¦ĩ à¦ĵà¦¤
à¦¯à¦ķ à¦°à¦¹à¦¯
à¦®à¦¸ à¦¹à¦¸
à¦·à§Ł à¦¬à¦²
à¦¨à¦¶ à¦¨à¦ª
à¦ĩà¦Ń à¦¶
à¦¤à¦¨ à¦¡
à§¨à§¦à§¨ à§¨à§¦à§¨
à§§à§¦à§¦ à§ª
à¦ľà¦ľ à§Łà¦ª
à§¨à§¦à§§à§§ à§¨à§¦à§¨à§¨
à¦¤ à¦ĵà¦¸à¦®
à¦² à¦Ĩà¦Łà¦ķ
à¦· à¦Ĩà¦°à¦ķ
à¦¥ à¦Ĩà¦ªà¦¨
à¦¡ à¦ĩ
à§¨à§§ à§§à§®
à§¯à§¦ à§®
à¦¹ à¦°à¦£à¦¬
à¦Ĩà¦ľ à¦ıà¦ķà¦Ł
à¦²à¦Ĩà¦² à¦®à¦¶
à¦ĩà¦īà¦ıà¦¸ à¦ı
à¦¬ à¦¤à¦¦
à¦¡ à¦°à¦¬
à¦ıà¦ĸà¦¨ à¦Ĩà¦°à¦ķ
à¦°à¦ĸà¦¬ à¦°à¦Ĩà¦®
à§¬à§« à§Ń
à¦¨à§Ł à¦Ĩà¦ªà¦¨
à¦¸ à¦ĵà¦¶
à¦Ń à§Łà¦ķ
à¦ķà¦°à¦¤ à¦¤
à§§à§¦ à§¨à§ª
à¦¤ à¦ĩà¦¹
à¦ľ à¦ļà¦ķ
à¦ĩ à¦Ĺà¦£
à¦¨à¦¸à¦® à§Łà¦ķ
à¦°à¦¸à¦®à§Ł à¦ıà¦¸
à¦ľà¦¨à¦Ĺ à¦°à¦¶
à§¨ à§¨à§¦à§¦
à§§à§« à§«à§§
à§Ńà§¦ à§§à§Ń
à¦²à¦Ĩà¦² à¦®à¦ª
à¦ķà¦Ĩ à¦ªà¦¬
à¦¨ à¦īà¦łà¦¤
à¦ĩ à¦ĩà¦īà¦ª
à¦°à¦¬ à¦£à¦ķà¦°
à¦ķà¦°à¦£ à¦¦
à¦°à¦īà¦ª à¦°à¦īà¦ł
à¦Ĩ à¦°à¦¹à¦¬
à¦· à¦ħà¦ªà¦°
à¦°à¦¬ à§Łà¦¸à¦¬
à§¨à§¦à§§à§ª à§§à§«
à¦¶à¦¨ à¦ıà¦°à¦ª
à¦¨à¦ĩ à¦«à¦¤
à¦® à¦¹à§Łà¦¤
à¦ª à¦ıà¦¸
à¦°à¦£ à¦īà¦¦
à¦Ĺà¦® à¦Ń
à¦ķà¦ıà¦ķ à¦ĩà¦Ń
à§¦à§§à§Ń à§§à§§à§®
à¦¨à¦Ĩ à¦Ł
à¦¤ à¦Ĺà¦¨
à¦Ł à¦¶à¦¹
à¦¨à¦¨ à§Łà¦¤
à§§à§© à§¦à§¨
à¦°à¦ıà¦ĩ à¦ĵà§Ł
à¦¬à§Ł à¦¸à¦¬
à¦ī à¦ıà¦ķ
à¦īà¦¥ à¦ĩà¦¨
à¦ĩà¦¡à¦¬ à¦ĩà¦¡
à¦¦ à¦Ĩà¦°à¦¬
à¦ļ à¦¬à¦Ľà¦°à¦ª
à¦²à¦Ĩ à¦ªà¦¡
à¦¨à¦Ĩà¦ľ à¦Ĩà¦¤à¦Ļ
à¦ıà¦ıà¦®à¦¨ à¦ıà¦ķà¦®à¦¹
à¦¬ à¦°à¦Ĩà¦ľ
à¦¬ à¦ĩà¦īà¦Ĩà¦°à¦ı
à¦¦ à¦¨à¦¬à¦¨
à¦ıà¦ķ à¦ĺà¦°
à¦°à¦£ à¦¤à¦¯
à§§à§© à§«à§§
à¦¨à¦ıà¦ķà¦ľà¦¨ à¦ķ
à¦Ĩ à¦°à¦ħà¦Ń
à¦ķà¦¦ à¦®à¦¤à¦²
à¦Ĩà¦¦ à¦®à¦Ĩ
à¦ħà¦ª à¦°à¦ª
à§¯ à§¨à§¦à§§à§¯
à§§à§« à§«à§¯
à¦ĵà¦Ń à§Ł
à¦Łà¦¬à¦² à¦¨
à¦ķ à¦§à¦°à¦£
à¦² à¦ıà¦ĩà¦ķ
à¦¡ à¦ıà¦°à¦¬
à¦ĩà¦ıà¦ĩ à¦Ĺ
à¦¤à¦¨à§Łà¦ı à¦°à¦Ńà§Ł
à¦¬ à¦ħà¦ļ
à¦°à¦£ à¦®à¦¨
à§¬à§¬ à§¬
à¦Ł à¦ĵà¦ľ
à¦°à¦¤ à¦²à¦ª
à¦¸à¦¹à¦ľ à¦ķà¦°à¦¤
à¦°à¦® à¦¶à¦ķ
à¦¦à¦² à¦°
à¦ĵà¦ĩ à¦¸à¦®à¦¯
à¦¸ à¦¤à¦¨
à¦¸ à¦īà¦ªà¦¨
à¦®à¦¤ à¦¨à¦¯
à¦ķà¦¸ à¦°à¦¬à¦°
à¦ľ à¦¬à¦ª
à¦°à¦® à¦°à¦¸
à¦ļà¦°à¦® à¦ªà¦¨
à¦īà¦ªà¦ķà¦°à¦£ à¦¹
à¦ľà¦ĵ à¦īà¦®à¦°
à¦ķà¦² à¦¨à¦ª
à¦¨à¦¦ à¦«
à¦¯à¦® à¦¬à§ľà¦ª
à¦°à¦¹à¦£ à¦ļà¦²à¦Ľ
à¦ĩà¦¸ à¦¥
à¦°à¦« à¦°à¦ľà¦ĵà§Ł
à¦ıà¦®à¦ıà¦¸ à¦ıà¦«
à¦¶à¦¤à¦ķ à¦ľà¦®
à¦ª à¦Ĩà¦ķ
à¦°à¦£ à¦ħà¦°
à¦ĩà¦¨ à§Łà¦¬
à¦°à¦¡ à¦¹
à¦¤à¦¨à¦¦ à¦®à¦¨à¦Ł
à¦ĩ à¦Ĩà¦°à¦ª
à¦ĵ à¦ªà¦¤
à¦¨ à¦ĩà¦®à¦¨
à¦¸ à¦ıà¦ĩ
à¦ķà¦° à¦¸à¦¦à¦¸
à¦°à¦ľ à¦¨à¦¬
à¦°à¦ĵ à¦¹à¦¤
à¦®à¦ª à¦Ł
à¦ĩà¦¡ à¦ªà¦ŀ
à¦¶à¦¨ à¦Ĺà¦¦
à¦ĩà¦² à¦®à¦¤
à¦°à¦§ à¦¨à¦Ł
à¦¶à¦ķ à¦ĸà¦¨
à¦ķà¦° à¦²à¦¨
à¦¨à¦ıà¦ĸ à¦¨à¦¸
à¦ķ à¦°à¦Ĩà¦¦
à¦ĺ à¦²à¦¸à¦®
à¦°à¦ĩ à¦Ĩà¦²
à¦ĩà¦Ń à¦¥
à¦·à§Ł à¦¥
à¦ĵà¦Ĺ à¦Ń
à¦°à¦¬à¦Ľ à¦°à¦¤
[...]
