{"[SOT]":0,"[PAD]":1,"[EOT]":2,"[UNK]":3,"[MASK]":4,"[CLS]":5,"[SEP]":6,"!":7,"\"":8,"#":9,"$":10,"%":11,"&":12,"'":13,"(":14,")":15,"*":16,"+":17,",":18,"-":19,".":20,"/":21,"0":22,"1":23,"2":24,"3":25,"4":26,"5":27,"6":28,"7":29,"8":30,"9":31,":":32,";":33,"<":34,"=":35,">":36,"?":37,"@":38,"A":39,"B":40,"C":41,"D":42,"E":43,"F":44,"G":45,"H":46,"I":47,"J":48,"K":49,"L":50,"M":51,"N":52,"O":53,"P":54,"Q":55,"R":56,"S":57,"T":58,"U":59,"V":60,"W":61,"X":62,"Y":63,"Z":64,"[":65,"\\":66,"]":67,"^":68,"_":69,"`":70,"a":71,"b":72,"c":73,"d":74,"e":75,"f":76,"g":77,"h":78,"i":79,"j":80,"k":81,"l":82,"m":83,"n":84,"o":85,"p":86,"q":87,"r":88,"s":89,"t":90,"u":91,"v":92,"w":93,"x":94,"y":95,"z":96,"{":97,"|":98,"}":99,"~":100,"¡":101,"¢":102,"£":103,"¤":104,"¥":105,"¦":106,"§":107,"¨":108,"©":109,"ª":110,"«":111,"¬":112,"®":113,"¯":114,"°":115,"±":116,"²":117,"³":118,"´":119,"µ":120,"¶":121,"·":122,"¸":123,"¹":124,"º":125,"»":126,"¼":127,"½":128,"¾":129,"¿":130,"À":131,"Á":132,"Â":133,"Ã":134,"Ä":135,"Å":136,"Æ":137,"Ç":138,"È":139,"É":140,"Ê":141,"Ë":142,"Ì":143,"Í":144,"Î":145,"Ï":146,"Ð":147,"Ñ":148,"Ò":149,"Ó":150,"Ô":151,"Õ":152,"Ö":153,"×":154,"Ø":155,"Ù":156,"Ú":157,"Û":158,"Ü":159,"Ý":160,"Þ":161,"ß":162,"à":163,"á":164,"â":165,"ã":166,"ä":167,"å":168,"æ":169,"ç":170,"è":171,"é":172,"ê":173,"ë":174,"ì":175,"í":176,"î":177,"ï":178,"ð":179,"ñ":180,"ò":181,"ó":182,"ô":183,"õ":184,"ö":185,"÷":186,"ø":187,"ù":188,"ú":189,"û":190,"ü":191,"ý":192,"þ":193,"ÿ":194,"Ā":195,"ā":196,"Ă":197,"ă":198,"Ą":199,"ą":200,"Ć":201,"ć":202,"Ĉ":203,"ĉ":204,"Ċ":205,"ċ":206,"Č":207,"č":208,"Ď":209,"ď":210,"Đ":211,"đ":212,"Ē":213,"ē":214,"Ĕ":215,"ĕ":216,"Ė":217,"ė":218,"Ę":219,"ę":220,"Ě":221,"ě":222,"Ĝ":223,"ĝ":224,"Ğ":225,"ğ":226,"Ġ":227,"ġ":228,"Ģ":229,"ģ":230,"Ĥ":231,"ĥ":232,"Ħ":233,"ħ":234,"Ĩ":235,"ĩ":236,"Ī":237,"ī":238,"Ĭ":239,"ĭ":240,"Į":241,"į":242,"İ":243,"ı":244,"Ĳ":245,"ĳ":246,"Ĵ":247,"ĵ":248,"Ķ":249,"ķ":250,"ĸ":251,"Ĺ":252,"ĺ":253,"Ļ":254,"ļ":255,"Ľ":256,"ľ":257,"Ŀ":258,"ŀ":259,"Ł":260,"ł":261,"Ń":262,"à¦":263,"à§":264,"à¦¾":265,"à¦°":266,"à§ĩ":267,"à§į":268,"à¦¿":269,"à¦¨":270,"à¦ķ":271,"à¦¬":272,"à¦¤":273,"à¦¸":274,"à¦®":275,"à¦²":276,"à¦ª":277,"à¦¦":278,"à¦¯":279,"à§ģ":280,"à¦°à¦":281,"à§Ł":282,"à¦¹":283,"à¦Ł":284,"à§ĭ":285,"à¦ľ":286,"à¦¶":287,"à§Ģ":288,"à¦Ĺ":289,"à¦ĩ":290,"à¦Ĩ":291,"à¦ı":292,"à¦Ľ":293,"à¦ļ":294,"à¦ķà¦°":295,"à¦·":296,"à¦Ń":297,"à¦¥":298,"à¦§":299,"à¦ĵ":300,"à¦ĸ":301,"à¦¼":302,"à¦¡":303,"à¦Ĥ":304,"à¦ħ":305,"à¦°à¦¸":306,"à¦ī":307,"à¦«":308,"à¦°à¦ķ":309,"à¦°à¦¬":310,"à¦°à¦®":311,"à¦°à¦ª":312,"à¦£":313,"à§¨":314,"à§§":315,"à§ľ":316,"à§¦":317,"à¦ªà¦°":318,"à¦°à¦¤":319,"à§Ĥ":320,"à¦¸à¦®":321,"à§ĥ":322,"à¦ıà¦ķ":323,"à¦®à¦¨":324,"à¦ł":325,"à¦Ĩà¦®":326,"à¦¬à¦²":327,"à¦ľà¦¨":328,"à¦°à¦¦":329,"à¦°à¦¹":330,"à¦°à¦¨":331,"à¦°à¦ľ":332,"à¦ģ":333,"à¦¬à¦¨":334,"à¦Ļ":335,"à¦¼à¦¾":336,"à¦¼à§ĩ":337,"à¦°à¦Ĩ":338,"à¦¹à§Ł":339,"à¦¾à¦Ĥ":340,"à¦ħà¦¨":341,"à¦¨à¦¬":342,"à¦ĵà§Ł":343,"à§§à§":344,"à¦°à¦£":345,"à¦¨à¦¤":346,"à¦ŀ":347,"à¦ĺ":348,"à¦ıà¦¬":349,"à¦ªà¦¨":350,"à¦¨à¦¸":351,"à¦¬à¦°":352,"à¦¬à¦¸":353,"à¦°à¦ħ":354,"à¦¾à¦ģ":355,"à¦°à¦¶":356,"à¦²à¦ķ":357,"à§¨à§¦":358,"à¦¨à¦ķ":359,"à¦¹à¦¬":360,"à¦ĥ":361,"à¦°à¦ı":362,"à¦ĩà¦¨":363,"à¦¤à¦¬":364,"à¦ĩà¦¸":365,"à¦°à¦ļ":366,"à¦°à¦ľà¦¨":367,"à¦¨à¦ª":368,"à¦°à¦ĵ":369,"à§©":370,"à¦¨à¦¨":371,"à¦Ĩà¦²":372,"à¦¸à¦¬":373,"à¦ıà¦ĩ":374,"à§ª":375,"à§Į":376,"à¦¤à¦°":377,"à§«":378,"à¦°à¦Ĺ":379,"à¦¶à¦¨":380,"à§Ī":381,"à¦ķà¦°à¦¤":382,"à¦ķà¦®":383,"à¦¨à¦®":384,"à¦ıà¦ķà¦Ł":385,"à¦ķà¦¬":386,"à¦¹à¦²":387,"à¦°à¦Ń":388,"à¦°à¦ī":389,"à§İ":390,"à¦¿à¦Ĥ":391,"à¦Ĩà¦ªà¦¨":392,"à¦Ĩà¦¬":393,"à¦¹à¦¤":394,"à¦īà¦¨":395,"à¦ķà¦²":396,"à§Łà¦¨":397,"à¦īà¦ª":398,"à¦²à¦¨":399,"à¦¯à¦¬":400,"à¦°à¦Ľ":401,"à¦°à¦ķà¦°":402,"à¦°à¦¯":403,"à¦²à¦¬":404,"à§®":405,"à§¬":406,"à¦¨à¦¦":407,"à§Ń":408,"à¦®à¦¤":409,"à¦¹à¦¯":410,"à¦¯à¦ķ":411,"à§¯":412,"à¦°à¦°":413,"à¦Ĩà¦¸":414,"à¦¤à¦¨":415,"à¦°à¦¥":416,"à¦®à¦¸":417,"à¦ĩà¦²":418,"à¦Ŀ":419,"à¦ļà¦²":420,"à¦ķà¦Ł":421,"à¦¦à¦ķ":422,"à¦°à¦ĩ":423,"à¦°à¦§":424,"à¦ĩà¦ķ":425,"à¦ªà¦¤":426,"à¦ıà¦¸":427,"à¦ĸà¦¨":428,"à¦¦à¦¨":429,"à¦°à¦²":430,"à¦¤à¦®":431,"à¦¤à¦ķ":432,"à¦°à¦¸à¦®":433,"à¦ĵà¦¯":434,"à¦ķà¦¸":435,"à¦·à¦£":436,"à¦²à¦®":437,"à¦°à¦«":438,"à¦²à¦¤":439,"à§Łà¦¸":440,"à¦§à¦°":441,"à¦Łà¦¨":442,"à¦ļà¦¨":443,"à¦ĩà¦®":444,"à¦ĩà¦¬":445,"à¦īà¦¦":446,"à¦¸à¦¹":447,"à¦¯à¦¦":448,"à¦°à¦ªà¦°":449,"à¦°à¦®à¦§":450,"à¦¨à¦Ĩ":451,"à¦ĩà¦¤":452,"à¦ªà§ľ":453,"à¦°à¦ĸ":454,"à¦®à¦¹":455,"à§Łà¦ķ":456,"à¦¸à¦¨":457,"à¦¸à¦°":458,"à¦ķà¦¦":459,"à¦ķà¦¤":460,"à¦¯à¦¨":461,"à¦¯à¦®":462,"à¦¨à¦ķà¦°":463,"à¦®à¦¦":464,"à¦¨à¦ľ":465,"à¦¨à¦°":466,"à¦ħà¦Ń":467,"à¦ĩà¦Ł":468,"à¦°à¦Ł":469,"à¦®à¦¬":470,"à¦ķà¦¨":471,"à¦Ĩà¦Ľ":472,"à¦²à¦¸":473,"à¦ħà¦°":474,"à¦¨à¦Ń":475,"à¦¨à¦ı":476,"à¦®à¦ķ":477,"à§¨à§§":478,"à¦¶à¦ķ":479,"à¦¦à¦°":480,"à¦®à¦²":481,"à¦ĵà¦¬":482,"à¦¬à¦ķ":483,"à¦¨à¦Ĺ":484,"à¦Ĩà¦Ĺ":485,"à§Łà¦¬":486,"à¦¸à¦ª":487,"à¦¢":488,"à¦ķà¦ª":489,"à§ĩà¦¾":490,"à¦ĩà¦¸à¦²":491,"à§§à§¯":492,"à¦Ĩà¦¨":493,"à¦Ĩà¦°":494,"à¦¨à¦¯":495,"à¦¸à¦ķ":496,"à¦¤à¦ķà¦°":497,"à¦¦à¦¸":498,"à¦®à¦°":499,"à¦ĩà¦¬à¦¨":500,"à¦ıà¦Ł":501,"à¦¬à¦¬":502,"à¦°à¦ħà¦¨":503,"à¦ĩà¦°":504,"à¦Ĩà¦®à¦°":505,"à¦®à¦ª":506,"à¦ķà¦ķ":507,"à¦ĵà¦¸":508,"à¦ĩà¦ª":509,"à¦¬à¦ª":510,"à§Łà¦¤":511,"à¦°à§Ł":512,"à¦¯à¦¬à¦¸":513,"à¦¨à¦¶":514,"à¦ħà¦¬":515,"à¦Ĺà¦¤":516,"à¦²à¦ª":517,"à¦ĵà¦ª":518,"à¦¯à¦¸":519,"à¦°à¦¸à¦Ļ":520,"à§Łà¦¦":521,"à§§à§¦":522,"à¦Łà¦ķ":523,"à¦¬à¦Ľ":524,"à§Łà¦ª":525,"à¦¤à¦ª":526,"à¦Ĩà¦ľ":527,"à¦¹à¦ļ":528,"à¦¯à¦ª":529,"à¦Ĩà¦¦":530,"à¦¤à¦¸":531,"à¦ĩà§Ł":532,"à¦¾à¦ĥ":533,"à§Łà¦®":534,"à¦¯à¦¬à¦¹":535,"à§¨à§¦à§¨à§§":536,"à¦ªà¦ķ":537,"à¦¼à¦¿":538,"à¦¯à¦¤":539,"à¦¶à¦°":540,"à¦ĸà¦¬":541,"à¦Ĺà¦ŀ":542,"à¦²à¦¹":543,"à¦ªà¦¦":544,"à¦Ĺà¦²":545,"à¦īà¦¤":546,"à¦Ĩà¦°à¦ĵ":547,"à¦īà¦ľ":548,"à¦¸à¦°à¦ķ":549,"à¦ıà¦²":550,"à¦¨à¦ĵ":551,"à¦ķà¦¥":552,"à¦°à¦®à¦¤":553,"à¦ľà¦®":554,"à¦Ĺà¦°":555,"à¦ķà¦°à¦²":556,"à¦¦à¦²":557,"à¦¶à¦¬":558,"à¦·à§Ł":559,"à¦¸à¦®à§Ł":560,"à¦Ĩà¦ķ":561,"à¦¨à¦®à¦¨":562,"à¦ķà¦°à¦¬":563,"à¦ĩà¦ľ":564,"à¦¤à¦¥":565,"à¦¨à¦¹":566,"à¦ĸà¦¤":567,"à¦¹à¦®":568,"à¦°à¦īà¦ª":569,"à¦¨à¦Ł":570,"à¦¤à¦¦":571,"à¦Ĺà¦£":572,"à¦Ĩà¦¤":573,"à¦ħà¦¸":574,"à¦°à¦ĺ":575,"à¦Ĺà¦¬":576,"à¦¸à¦²":577,"à¦ĩà¦¦":578,"à¦ĵà¦®":579,"à¦ĩà¦Ń":580,"à¦¬à¦¹":581,"à¦°à¦Ĩà¦Ĺ":582,"à¦°à¦¬à¦°":583,"à¦°à¦ķà¦¥":584,"à¦°à¦¡":585,"à¦ħà¦§":586,"à¦¨à¦ļ":587,"à¦²à§Ł":588,"à¦¸à¦Ń":589,"à¦ħà¦¬à¦¸":590,"à¦¤à¦¹à§Ł":591,"à¦ħà¦¤":592,"à§ģà¦ģ":593,"à¦°à¦°à¦¹":594,"à¦«à¦°":595,"à¦§à¦¨":596,"à¦Łà¦¬":597,"à¦ıà¦®à¦¨":598,"à¦ľà¦¶":599,"à¦¬à¦¦":600,"à¦ªà¦¡":601,"à§¨à§¦à§§à§":602,"à§İà¦¸":603,"à¦²à¦Ĺ":604,"à¦ĵà¦¤":605,"à¦°à¦ıà¦ķà¦Ł":606,"à¦ħà¦«":607,"à¦īà¦²":608,"à¦Ī":609,"à¦¸à¦¤":610,"à¦¹à¦°":611,"à¦¶à¦¤":612,"à¦ĩà¦īà¦¨":613,"à¦·à¦ķ":614,"à¦«à¦²":615,"à¦ıà¦ĸ":616,"à§§à§¨":617,"à¦ľà¦¬":618,"à¦ľà¦¸":619,"à§¦à§¦":620,"à¦¹à¦¸":621,"à¦ıà¦ĸà¦¨":622,"à¦²à¦¦":623,"à¦ĺà¦Łà¦¨":624,"à¦¤à¦¤":625,"à¦Ĺà¦¨":626,"à¦īà¦ł":627,"à¦Ĩà¦ĩà¦¨":628,"à§¨à§ª":629,"à¦Łà¦¸":630,"à¦°à¦ħà¦Ń":631,"à¦¶à¦®":632,"à¦Ľà¦¨":633,"à¦īà¦ªà¦ľ":634,"à¦Łà¦ª":635,"à¦ĵà¦ķ":636,"à¦®à¦®":637,"à¦ħà¦ª":638,"à¦ĩà¦¯":639,"à¦¬à¦¤":640,"à¦°à¦®à¦¨":641,"à¦¨à¦ıà¦¬":642,"à¦Ľà¦¬":643,"à¦ħà¦ªà¦°":644,"à¦ķà¦Ń":645,"à¦°à¦¹à¦£":646,"à¦°à¦īà¦¦":647,"à¦¦à¦ª":648,"à¦ķà¦°à¦Ľ":649,"à¦¬à¦¶":650,"à¦¸à¦¸":651,"à¦ĩà¦«":652,"à¦°à¦°à¦¹à¦®":653,"à¦Łà¦Ĺ":654,"à¦ıà¦®":655,"à¦¸à¦¦":656,"à¦ħà¦ķ":657,"à¦²à¦Ń":658,"à§§à§«":659,"à¦ľà¦°":660,"à¦īà¦ļ":661,"à¦·à¦¤":662,"à¦®à¦ķà¦°":663,"à¦ĩà¦¡":664,"à¦¨à¦²":665,"à§§à§®":666,"à¦¶à¦¸":667,"à¦ĩà¦ī":668,"à¦°à¦¥à¦®":669,"à¦ĸà¦²":670,"à¦°à¦ıà¦ķ":671,"à§§à§Ń":672,"à¦«à¦¤":673,"à¦ļà¦Ł":674,"à¦ĵà¦¦":675,"à¦¥à¦¨":676,"à¦·à¦¦":677,"à¦ıà¦ķà¦ľà¦¨":678,"à¦¶à¦ª":679,"à§§à§ª":680,"à¦¨à¦Ĩà¦®":681,"à§Łà¦°":682,"à¦¤à¦¹":683,"à¦¥à¦¬":684,"à¦¯à¦ķà¦°":685,"à¦¨à§Ł":686,"à¦ĩà¦¹":687,"à¦ķà¦¶":688,"à¦Ĺà¦ł":689,"à§Łà¦Ĺ":690,"à§·":691,"à¦ĵà¦¨":692,"à¦®à¦Ĺ":693,"à¦ıà¦¨":694,"à¦²à¦ĩà¦¸à¦²":695,"à¦¬à¦²à¦²":696,"à¦¦à¦®":697,"à¦¯à¦°":698,"à¦§à¦¬":699,"à¦Łà¦ķà¦°":700,"à¦Łà¦®":701,"à¦¶à¦ķà¦°":702,"à¦Ĩà¦¶":703,"à§¨à§¦à§¦":704,"à¦¦à¦¬":705,"à¦¸à¦®à¦¸":706,"à§§à§©":707,"à¦¤à¦²":708,"à§§à§§":709,"à¦ĺà¦Ł":710,"à¦°à¦¸à¦Ń":711,"à¦²à¦ľ":712,"à¦¼à§ĭ":713,"à¦¨à¦ĸ":714,"à¦ļà¦ķ":715,"à¦°à¦®à¦£":716,"à§§à§¬":717,"à¦¸à¦®à¦¯":718,"à¦¨à¦¡":719,"à§©à§¦":720,"à¦®à¦§":721,"à¦²à¦¯":722,"à¦ĺà¦°":723,"à¦¨à¦¥":724,"à¦®à¦ľ":725,"à¦¨à¦«":726,"à¦¨à¦ªà¦°":727,"à¦ľà¦ķà¦°":728,"à¦Ĺà¦ķà¦°":729,"à¦²à¦°":730,"à¦ıà¦¤":731,"à¦¬à¦Ľà¦°":732,"à¦°à¦£à¦ķà¦°":733,"à¦Ĩà¦¬à¦¦":734,"à¦ķà¦ķà¦°":735,"à¦īà¦Ł":736,"à¦°à¦Ĩà¦²":737,"à¦Ĳ":738,"à¦¶à¦¦":739,"à¦ĩà¦ļ":740,"à¦¯à¦¥":741,"à¦ıà¦ª":742,"à¦Ĺà¦¦":743,"à¦ıà¦¨à¦ª":744,"à¦¹à¦ĵà§Ł":745,"à¦Ĺà¦®":746,"à¦¬à¦®":747,"à¦°à¦ķà¦²":748,"à¦ªà¦¸":749,"à¦¶à¦¹":750,"à§Łà¦ķà¦°":751,"à§¨à§¨":752,"à¦°à¦ıà¦¬":753,"à¦ľà¦ª":754,"à¦ĵà¦Ń":755,"à¦§à¦ķà¦°":756,"à¦·à¦¯":757,"à¦£à¦¬":758,"à¦¹à¦ķ":759,"à§ĩà¦ģ":760,"à¦īà§İ":761,"à¦¬à¦²à¦¤":762,"à¦²à¦ķà¦°":763,"à¦Ńà¦°":764,"à¦ıà¦Ĺ":765,"à¦®à¦¸à¦ľ":766,"à¦Ńà¦¬":767,"à¦ĩà¦Ĺ":768,"à¦°à¦¸à¦¬":769,"à¦¤à¦ľ":770,"à¦Ĩà¦ĵà§Ł":771,"à¦ıà¦¦":772,"à¦²à¦Ľ":773,"à¦§à¦°à¦¨":774,"à§¨à§«":775,"à¦īà¦ķ":776,"à¦®à¦¶":777,"à¦§à¦¤":778,"à¦ªà¦¬":779,"à¦Ĺà¦¬à¦¨":780,"à¦¹à¦ľ":781,"à¦Ĩà§Ł":782,"à¦·à¦®":783,"à¦ķà¦ļ":784,"à¦ĵà¦²":785,"à¦¹à§Łà¦¨":786,"à¦¶à¦Ĺ":787,"à¦¤à¦Ľ":788,"à¦ľà¦²":789,"à¦ıà¦°à¦ª":790,"à¦¨à¦ħà¦¨":791,"à¦¦à¦¶":792,"à¦¤à¦Ń":793,"à¦°à¦ķà¦®":794,"à¦²à¦¥":795,"à§İà¦ķ":796,"à¦·à¦®à¦¤":797,"à¦Łà¦°":798,"à¦¨à¦¸à¦®":799,"à¦ķà¦°à¦£":800,"à§¨à§®":801,"à¦¨à¦ıà¦ĩ":802,"à¦Łà¦¦":803,"à¦ĩà¦¶":804,"à¦Ĺà¦ª":805,"à§ĭà¦ģ":806,"à¦ĵà¦°":807,"à¦ıà¦ĩà¦¸":808,"à¦°à¦ĵà¦ª":809,"à§Łà¦¶":810,"à¦¤à¦¶":811,"à¦ħà¦¬à¦¶":812,"à¦ļà¦°":813,"à¦ĵà¦¶":814,"à¦¨à¦ħ":815,"à¦ķà¦¹":816,"à¦²à¦Ł":817,"à¦°à¦¸à¦°à¦ķ":818,"à¦¨à§Łà¦¨":819,"à¦°à¦Ĩà¦®":820,"à¦¬à§ľ":821,"à¦¸à¦Ļ":822,"à¦°à¦¬à¦¨":823,"à¦ªà¦Ł":824,"à¦Ĩà¦Łà¦ķ":825,"à¦°à¦ħà¦°":826,"à¦°à¦Ĩà¦¨":827,"à¦ľà¦ķ":828,"à¦ıà¦¸à¦¬":829,"à¦Ĩà¦ĩ":830,"à¦¸à¦ļ":831,"à¦°à¦ħà¦§":832,"à¦ªà¦¶":833,"à¦²à¦²":834,"à¦¦à¦¦":835,"à¦ľà§Ł":836,"à¦ķà¦Ĺ":837,"à¦ľà¦¨à¦ª":838,"à¦°à¦¸à¦°":839,"à¦°à¦ªà¦ķ":840,"à¦²à¦«":841,"à¦Ĩà¦«":842,"à¦¹à§Łà¦¤":843,"à§«à§¦":844,"à¦ľà¦¨à¦ķ":845,"à§¨à§©":846,"à¦¤à¦¹à¦¯":847,"à¦īà¦ĩà¦ķ":848,"à¦°à¦¸à¦¨":849,"à¦ķà¦¸à¦®":850,"à¦¡à¦¸":851,"à§Łà¦¯":852,"à¦¸à¦ķà¦°":853,"à¦īà¦ªà¦¸":854,"à¦·à¦¸":855,"à¦ªà¦²":856,"à¦Ĩà¦°à¦¬":857,"à¦ªà¦£":858,"à¦¸à¦Ł":859,"à¦ķà¦¯":860,"à¦¡à¦²":861,"à¦ķà¦ľ":862,"à¦¡à¦¬":863,"à¦ĵà¦ľ":864,"à¦¨à¦Ĩà¦ªà¦¨":865,"à¦ıà¦ĩà¦ļ":866,"à¦°à¦Ĩà¦¬":867,"à¦¯à¦¶":868,"à§Łà¦ľ":869,"à¦¬à¦Ļ":870,"à¦¼à§Ģ":871,"à¦¯à¦ĸ":872,"à¦®à¦ļ":873,"à¦ħà¦¨à¦²":874,"à¦ĵà¦Ĺ":875,"à§®à§¦":876,"à¦¤à¦¹à¦¬":877,"à¦¸à¦«":878,"à¦Ĺà§ľ":879,"à¦¡à¦ķ":880,"à¦ıà¦ĩà¦¬":881,"à§¨à§¦à§¨à§¦":882,"à§¨à§¬":883,"à§¨à§Ń":884,"à¦¨à¦¬à¦²":885,"à¦·à¦ķà¦°":886,"à¦ªà¦¥":887,"à¦¨à¦Ľ":888,"à¦Ĺà¦¸":889,"à¦¯à¦®à¦¨":890,"à¦²à¦¶":891,"à¦ıà¦«":892,"à¦Ĩà¦¸à¦²":893,"à¦¤à¦ĸ":894,"à¦Īà¦¦":895,"à§¨à§¯":896,"à¦īà¦®":897,"à¦¯à¦ľ":898,"à¦ıà¦ķà¦¬":899,"à¦ľà¦¦":900,"à¦¯à¦¯":901,"à¦¬à¦ľ":902,"à¦¹à¦¨":903,"à¦°à¦ĺà¦Łà¦¨":904,"à¦¸à¦¦à¦¸":905,"à¦ıà¦Ľ":906,"à¦¸à¦ľ":907,"à¦ĩà¦Ĩà¦®":908,"à¦ĩà¦Ľ":909,"à§Łà¦Ń":910,"à¦¸à¦ķà¦²":911,"à¦²à¦ļ":912,"à¦®à¦Ĩ":913,"à¦Ĩà¦Ĺà¦¸":914,"à¦£à¦¨":915,"à¦¤à¦°à¦£":916,"à¦ıà¦ķà¦¦":917,"à¦²à¦Ĩ":918,"à¦ķà¦ªà¦°":919,"à¦£à¦®":920,"à¦¡à¦®":921,"à¦ĵà¦ļ":922,"à¦°à¦ªà¦¤":923,"à¦¡à¦¨":924,"à¦ĺà¦¨":925,"à§ªà§¦":926,"à¦¨à¦Ĩà¦²":927,"à¦¦à¦¤":928,"à¦°à¦®à¦¹":929,"à¦ĸà¦¹":930,"à¦Łà¦²":931,"à¦°à¦¸à¦¦à¦¸":932,"à¦°à¦«à¦²":933,"à¦¬à¦²à¦Ľ":934,"à¦¯à¦Ĺ":935,"à¦¬à¦¡":936,"à¦Ĩà¦ª":937,"à¦ıà¦¸à¦¸":938,"à¦Ĩà¦¸à¦Ľ":939,"à§Łà¦²":940,"à¦ĩà¦īà¦ª":941,"à¦ĺà¦£":942,"à¦¯à¦¹":943,"à¦¡à¦ª":944,"à¦¥à¦®":945,"à¦ªà¦ª":946,"à¦ļà¦²à¦Ľ":947,"à¦ĵà¦¹":948,"à¦°à¦īà¦¤":949,"à¦°à¦¬à¦²":950,"à¦¼à§ģ":951,"à¦°à¦¨à¦¤":952,"à¦ľà¦¤":953,"à¦¤à¦Ĺ":954,"à¦°à¦¸à¦®à§Ł":955,"à¦ĩà¦¨à¦¸":956,"à¦¦à¦ķà¦°":957,"à¦ħà¦®":958,"à¦ľà¦§":959,"à¦°à¦¹à¦£à¦ķà¦°":960,"à¦¿à¦ĥ":961,"à¦·à¦¨":962,"à¦·à¦ª":963,"à¦·à§Łà¦Ł":964,"à¦Łà¦Ł":965,"à¦°à¦¹à§Ł":966,"à¦°à¦ķà¦°à¦¤":967,"à¦¨à¦ıà¦ķ":968,"à¦°à¦²à¦ķ":969,"à¦Ĩà¦ľà¦ķ":970,"à¦ĩà¦ķà¦°":971,"à§¨à§¦à§§à§¯":972,"à¦¤à¦«":973,"à¦§à¦ķ":974,"à¦īà¦¬":975,"à¦ħà¦Ĺ":976,"à¦Ĩà¦¹":977,"à¦¨à¦¬à¦¨":978,"à¦¶à¦Ł":979,"à¦Ĺà¦ķ":980,"à¦®à¦¯":981,"à¦¤à¦ļ":982,"à¦·à¦ĸà¦¬":983,"à¦°à¦¸à¦¹":984,"à¦¤à¦Ł":985,"à¦°à¦ĸà¦¬":986,"à¦·à¦¬":987,"à¦°à¦§à¦°":988,"à¦¶à¦¶":989,"à¦¶à¦²":990,"à¦łà¦ķ":991,"à¦Ĩà¦°à¦ķ":992,"à¦ıà¦°":993,"à¦ŀà¦ª":994,"à§Łà¦¹":995,"à¦ļà¦¤":996,"à¦¥à¦ķ":997,"à¦ļà¦®":998,"à¦°à¦¶à¦°":999,"à¦ħà¦²":1000,"à¦Łà¦¤":1001,"à¦°à¦Ĩà¦°":1002,"à§ľà¦ķ":1003,"à¦°à¦ªà¦¥":1004,"à¦ıà¦ĩà¦ª":1005,"à¦ĭ":1006,"à§ĭà¦ĥ":1007,"à¦ĵà¦ł":1008,"à¦Ľà¦°":1009,"à¦°à¦£à¦¸à¦®":1010,"à¦ĸà¦Ľ":1011,"à¦¤à¦Ĩà¦¦":1012,"à¦Łà¦«":1013,"à¦ķà¦ĸà¦¨":1014,"à¦®à¦¡":1015,"à¦ķà¦Ľ":1016,"à¦°à¦īà¦ªà¦°":1017,"à¦Ĩà¦¯":1018,"à¦Ĺà¦łà¦¨":1019,"à¦²à¦¨à¦ķà¦°":1020,"à¦ľà¦¨à¦ķà¦°":1021,"à¦īà§İà¦ª":1022,"à¦°à¦¸à¦ķ":1023,"à¦°à¦ħà¦¬à¦¸":1024,"à¦°à¦¹à¦¤":1025,"à¦ķà¦«":1026,"à¦°à¦Ĺà¦²":1027,"à¦Ĺà¦²à¦¬":1028,"à¦£à¦ķ":1029,"à¦ıà¦®à¦¨à¦ķ":1030,"à¦°à¦Ĩà¦¶":1031,"à¦®à¦¨à¦¸":1032,"à¦Łà¦ľ":1033,"à¦¬à¦Ń":1034,"à¦Łà¦¬à¦²":1035,"à¦¦à¦¹":1036,"à¦ĵà¦¸à¦®":1037,"à¦£à¦ª":1038,"à¦®à§Ł":1039,"à¦ħà¦¶":1040,"à¦ĸà¦ķ":1041,"à§Įà¦ģ":1042,"à¦°à¦ĵà¦¬":1043,"à¦ŀà¦¤":1044,"à¦ľà¦Ł":1045,"à¦¯à¦Ń":1046,"à¦ļà¦¬":1047,"à¦īà¦¨à¦²":1048,"à¦°à¦Ļ":1049,"à¦ªà¦®":1050,"à¦°à¦ĵà§Ł":1051,"à¦īà¦ªà¦²à¦ķ":1052,"à¦Ńà¦¬à¦¨":1053,"à¦°à¦ĩà¦¤":1054,"à¦ĸà¦®":1055,"à¦¤à¦¯":1056,"à¦Ľà§ľ":1057,"à¦Ĩà¦§":1058,"à¦ĸà¦°":1059,"à¦°à¦īà¦¨":1060,"à§Łà¦ļ":1061,"à¦Łà¦¹":1062,"à¦²à¦ªà¦°":1063,"à¦°à¦Ŀ":1064,"à¦ľà¦¨à¦¸":1065,"à¦ıà¦°à¦¸":1066,"à¦°à¦¸à¦®à¦¯":1067,"à¦Ńà¦ķ":1068,"à¦°à¦¦à¦°":1069,"à¦ħà¦¥à¦¬":1070,"à¦°à¦¤à¦¥":1071,"à¦¯à¦ĸà¦¨":1072,"à¦ķà¦ĸ":1073,"à¦¤à¦ķà¦°à¦¤":1074,"à¦ĵà¦ªà¦°":1075,"à¦¤à¦ĸà¦¨":1076,"à¦¯à¦Ł":1077,"à¦¤à¦ªà¦°":1078,"à¦ĵà¦Ł":1079,"à¦ľà¦¹":1080,"à¦§à¦®":1081,"à¦ķà§Ł":1082,"à¦²à¦ĸ":1083,"à¦²à¦¡":1084,"à¦ıà¦¡":1085,"à¦¨à¦¤à¦¬":1086,"à¦ĸà¦ķà¦°":1087,"à¦°à¦¬à¦ķ":1088,"à¦¶à¦«":1089,"à¦°à¦ļà¦¨":1090,"à¦ĩà¦«à¦¸":1091,"à¦ĩà¦ĸ":1092,"à¦ķà¦¡":1093,"à¦¤à¦¹à¦²":1094,"à¦¦à¦ľ":1095,"à¦Ĩà¦¹à¦¤":1096,"à¦Ĩà¦°à¦ı":1097,"à¦ĩà¦¥":1098,"à¦ķà¦ľà¦¨":1099,"à¦Ĩà¦¹à¦®":1100,"à¦ıà¦¶":1101,"à¦°à¦īà¦ªà¦ľ":1102,"à¦£à¦¸":1103,"à¦ĵà¦¡":1104,"à¦®à¦Ł":1105,"à¦ĩà¦¨à¦¬":1106,"à¦ıà¦°à¦ķ":1107,"à¦ħà¦ŀ":1108,"à¦¸à¦¬à¦ļ":1109,"à¦Ĩà¦Ł":1110,"à¦ķà¦ł":1111,"à¦¬à¦Ĺ":1112,"à¦ĩà¦¸à¦®":1113,"à¦ĵà¦ħà¦¨":1114,"à¦īà¦¡":1115,"à¦ľà¦Ĺ":1116,"à¦£à¦¤":1117,"à§¬à§¦":1118,"à¦°à¦¢":1119,"à¦ıà¦®à¦ª":1120,"à¦ķà¦²à¦ķ":1121,"à¦°à¦ħà¦¸":1122,"à¦¨à¦Ĺà¦°":1123,"à§©à§©":1124,"à§¯à§¯":1125,"à¦°à¦ĩà¦¬à¦¨":1126,"à¦¹à¦ķà¦°":1127,"à¦«à¦Ł":1128,"à¦¹à¦¹":1129,"à¦¤à¦¸à¦®":1130,"à¦Ĺà¦ľ":1131,"à¦·à¦°":1132,"à¦ļà¦²à¦¤":1133,"à¦¨à¦§à¦°":1134,"à¦Ŀà¦¤":1135,"à¦īà¦¸":1136,"à¦°à¦¹à¦®":1137,"à¦ıà¦ķà¦®":1138,"à§Łà¦«":1139,"à¦¬à¦Ĺà¦ŀ":1140,"à¦°à¦Ĩà¦¸":1141,"à¦®à¦Ń":1142,"à¦Łà¦Ń":1143,"à¦¡à¦Ł":1144,"à¦Ĩà¦¨à¦¨":1145,"à¦¡à¦ķà¦°":1146,"à¦¨à¦Ĩà¦¬":1147,"à§ªà§«":1148,"à¦°à¦Ĩà¦ķ":1149,"à¦²à¦Ĩà¦²":1150,"à§ªà§©":1151,"à¦¹à§Łà¦ķ":1152,"à¦¯à¦ļ":1153,"à¦ªà¦Ľà¦¨":1154,"à¦°à¦Ĩà§Ł":1155,"à¦®à¦Ļ":1156,"à¦®à¦ĸ":1157,"à¦«à¦¸":1158,"à¦ıà¦Ń":1159,"à¦¤à¦®à¦¨":1160,"à¦°à¦Ĺà¦ŀ":1161,"à¦¶à¦ľ":1162,"à¦ĩà¦īà¦°":1163,"à¦¥à¦²":1164,"à¦¯à¦¹à¦¬":1165,"à¦Ĩà¦ªà¦¡":1166,"à¦Łà¦Ľ":1167,"à¦¹à¦ĩà¦¬à¦¨":1168,"à¦°à¦Ĺà¦¤":1169,"à§ľà¦¤":1170,"à¦²à¦ķà¦²":1171,"à¦Ĩà¦°à¦¸":1172,"à§Ńà§¦":1173,"à¦Ĩà¦¸à¦¤":1174,"à¦¸à¦¹à¦ľ":1175,"à¦ıà¦°à¦¬":1176,"à¦·à¦ľ":1177,"à¦¸à¦®à¦°":1178,"à¦°à¦ĩà¦īà¦¨":1179,"à¦°à¦Ĩà¦¹":1180,"à¦®à¦«":1181,"à¦°à¦ł":1182,"à§ģà¦ĥ":1183,"à¦¯à¦¸à¦®":1184,"à¦Ĩà¦ļ":1185,"à¦¹à¦ª":1186,"à§¨à§¦à§§à§®":1187,"à§Łà¦Ł":1188,"à¦ĵà¦ķà¦°":1189,"à¦¨à¦ķà¦®":1190,"à¦¬à¦²à¦¬":1191,"à¦°à¦Ľà¦¬":1192,"à¦ĵà¦«":1193,"à¦ħà¦ľ":1194,"à¦¨à¦ıà¦ķà¦Ł":1195,"à¦°à¦ĵà¦ªà¦°":1196,"à¦°à¦Ĩà¦¤":1197,"à¦°à¦ªà¦¦":1198,"à¦ĸà¦Ł":1199,"à¦°à¦Ĩà¦¦":1200,"à¦¸à¦²à¦®":1201,"à¦°à¦ıà¦ĩ":1202,"à¦ļà¦²à¦ļ":1203,"à¦®à¦£":1204,"à¦¬à¦§":1205,"à¦¦à¦£":1206,"à¦¬à¦¯":1207,"à¦°à¦¸à¦®à¦¸":1208,"à¦·à§Łà¦ķ":1209,"à¦¦à¦ķà¦®":1210,"à¦¨à¦ľà¦¨":1211,"à¦ľà¦¯":1212,"à¦Łà¦¥":1213,"à¦Ĺà¦¤à¦¬":1214,"à¦Ľà¦¥":1215,"à¦¤à¦ıà¦¬":1216,"à¦ªà¦ķà¦°":1217,"à¦¬à¦°à¦¸":1218,"à¦¯à¦²":1219,"à¦¤à¦°à¦¬":1220,"à¦Ĩà¦¸à¦¬":1221,"à¦¯à¦¤à¦®":1222,"à¦¶à¦Ń":1223,"à¦§à¦¨à¦ķà¦°":1224,"à¦¦à¦Ĺ":1225,"à¦°à¦ŀ":1226,"à¦¨à¦ĩà¦¬à¦¨":1227,"à¦§à¦¸":1228,"à¦£à¦Ń":1229,"à¦¦à¦ĩà¦¬à¦¨":1230,"à¦ļà§Ł":1231,"à§©à§«":1232,"à¦ªà§ľà¦¤":1233,"à¦¸à¦¬à¦ķ":1234,"à§§à§¦à§¦":1235,"à¦¦à¦¸à¦®":1236,"à§Łà¦ħà¦¨":1237,"à¦¬à¦°à¦ħ":1238,"à¦²à¦ķà¦¡":1239,"à¦īà¦°":1240,"à¦ľà§ľ":1241,"à¦§à¦ª":1242,"à§¨à§¦à§§à§Ń":1243,"à¦ĵà¦ĸ":1244,"à¦·à¦¥":1245,"à§Łà¦ªà¦°":1246,"à¦²à¦Ĩà¦®":1247,"à¦¬à¦ķà¦°":1248,"à¦¨à¦ħà¦Ń":1249,"à¦ľà¦¨à¦¨":1250,"à¦£à¦¦":1251,"à¦ĩà¦¬à¦²":1252,"à¦Ĺà¦¡":1253,"à¦Łà¦¶":1254,"à¦īà¦ªà¦ķ":1255,"à¦¨à¦ķà¦°à¦¤":1256,"à¦Ĩà¦°à¦ĵà¦ªà§ľ":1257,"à¦ªà¦¨à¦ķà¦°":1258,"à¦Ĺà¦Ń":1259,"à¦Ĺà¦¤à¦ķ":1260,"à§Łà¦Ľ":1261,"à¦ıà¦ĩà¦®":1262,"à§Łà¦ĸ":1263,"à¦²à¦ıà¦¬":1264,"à¦°à¦£à¦ķ":1265,"à¦¹à¦¯à¦°à¦¤":1266,"à¦¨à¦ĵà¦ª":1267,"à¦Ĳà¦¤":1268,"à¦Ńà§Ł":1269,"à§İà¦¬":1270,"à§¨à§¦à§§à§¬":1271,"à¦¦à¦Ł":1272,"à¦¨à¦ħà¦¤":1273,"à¦Łà¦¸à¦®":1274,"à¦¹à§Łà¦¸":1275,"à§§à§¯à§¯":1276,"à¦ĩà¦ªà¦°":1277,"à¦°à¦¹à¦¬":1278,"à¦¥à¦¤":1279,"à¦ıà¦ĩà¦¦":1280,"à¦¸à¦Ĺ":1281,"à¦¤à¦¹à¦¤":1282,"à¦ĩà¦¨à¦®":1283,"à¦ıà¦°à¦®":1284,"à¦¡à¦Ń":1285,"à¦¨à¦¹à§Ł":1286,"à¦®à¦¨à¦ķ":1287,"à¦ªà¦°à¦¬à¦°":1288,"à¦£à¦ķà¦°":1289,"à¦¨à¦ıà¦Ł":1290,"à¦°à¦¨à¦Ń":1291,"à¦¯à¦ħà¦¨":1292,"à¦ľà¦ľ":1293,"à¦Ĩà¦ĩà¦¸":1294,"à¦°à¦ľà¦®":1295,"à¦Ĩà¦«à¦Ĺ":1296,"à¦ıà¦°à¦®à¦§":1297,"à¦°à¦¬à§Łà¦¸":1298,"à¦¨à¦Ĩà¦Ĺ":1299,"à¦¬à¦ļ":1300,"à¦īà¦ªà¦¨":1301,"à¦¤à¦ħà¦¨":1302,"à¦¶à¦¥":1303,"à¦¨à¦¸à¦°à¦ķ":1304,"à¦°à¦¸à¦ķà¦²":1305,"à¦¥à¦ª":1306,"à¦°à¦ħà¦¤":1307,"à¦ĵà¦Ĩà¦®":1308,"à¦¤à¦°à¦¦":1309,"à¦°à¦¸à¦¬à¦ļ":1310,"à¦°à¦ħà¦ª":1311,"à¦®à¦Ľ":1312,"à¦¹à¦¦":1313,"à¦°à¦¹à¦²":1314,"à¦°à¦Ĩà¦ĵà¦¤":1315,"à¦ıà¦ĩà¦ķ":1316,"à¦¤à¦°à¦ª":1317,"à¦¦à¦ĸ":1318,"à§©à§§":1319,"à¦¨à¦Ĩà¦®à¦°":1320,"à¦¸à¦¡":1321,"à¦¯à¦ªà¦°":1322,"à¦¦à¦°à¦ķ":1323,"à¦¦à¦ķà¦¬":1324,"à§§à§¯à§Ń":1325,"à¦Ĩà¦¸à¦¨":1326,"à¦Ĩà¦ķà¦°":1327,"à¦ıà¦ķà¦¸":1328,"à¦°à¦¦à¦²":1329,"à¦¦à¦«":1330,"à§İà¦ª":1331,"à§ľà¦Ľ":1332,"à¦¬à¦ľà¦¨":1333,"à§ªà§¬":1334,"à¦¬à¦¦à¦²":1335,"à§®à§®à§¦":1336,"à¦¦à¦°à¦¬":1337,"à¦°à¦¬à¦Ľ":1338,"à¦Īà¦¶":1339,"à¦¶à¦¹à¦°":1340,"à¦®à¦¥":1341,"à¦ķà¦Ĩ":1342,"à¦°à¦Ĩà¦ĩà¦¨":1343,"à¦·à¦£à¦ķà¦°":1344,"à¦°à¦ĵà¦¸":1345,"à§¨à§¦à§§à§«":1346,"à¦¸à¦¸à¦®":1347,"à¦°à¦ĩà¦¨":1348,"à¦Łà¦ĸ":1349,"à¦°à¦ĵà¦¯":1350,"à¦ĩà¦ŀ":1351,"à¦ªà¦·":1352,"à¦Ĩà¦°à¦¤":1353,"à¦ıà¦°à¦Ĩà¦Ĺ":1354,"à¦°à¦Ĩà¦ªà¦¨":1355,"à¦¬à¦°à¦¬":1356,"à¦¤à¦¦à¦¨":1357,"à¦¬à¦²à¦®":1358,"à¦°à¦ĩà¦®":1359,"à¦¸à¦ł":1360,"à¦Łà¦ļ":1361,"à¦¬à¦¬à¦°":1362,"à¦ħà¦¸à¦®":1363,"à¦ªà¦Ĺ":1364,"à¦®à¦¹à¦¤":1365,"à¦ħà¦¦":1366,"à¦°à¦¹à¦¯":1367,"à¦°à¦¥à¦®à¦ª":1368,"à¦¥à¦¸":1369,"à¦¬à§Ł":1370,"à¦°à¦ıà¦¸":1371,"à¦¯à¦ıà¦ķà¦Ł":1372,"à¦¸à¦¶":1373,"à¦°à¦ľà¦¬":1374,"à¦Łà¦°à¦¸":1375,"à¦¹à¦«":1376,"à¦°à¦ıà¦²":1377,"à¦¸à¦ĸ":1378,"à¦°à¦¥à¦®à¦¬":1379,"à¦īà¦¦à¦¯":1380,"à¦¦à¦°à¦¹":1381,"à¦¶à¦¯":1382,"à¦ĸà¦¬à¦°":1383,"à¦·à¦ķà¦¦":1384,"à¦Ĩà¦²à¦®":1385,"à¦°à¦ķà¦¬":1386,"à¦ĵà¦ĩ":1387,"à¦¬à¦¤à¦¨":1388,"à¦¬à¦ĩ":1389,"à¦ħà¦Ļ":1390,"à¦®à¦¬à¦Ļ":1391,"à§¨à§¦à§§à§ª":1392,"à¦®à¦ªà¦°":1393,"à¦°à¦·":1394,"à¦Ńà¦ķà¦°":1395,"à¦ĩà¦¸à¦°":1396,"à¦®à¦¸à¦®":1397,"à¦ķà¦ĵ":1398,"à¦¨à¦¬à¦¬à¦¨":1399,"à§¯à§¦":1400,"à§¨à§¦à§§à§©":1401,"à¦·à¦ªà¦°":1402,"à¦¾à§ĩ":1403,"à¦¨à¦ľà¦°":1404,"à¦¨à¦§":1405,"à¦¬à¦°à¦ª":1406,"à¦°à¦ļà¦²":1407,"à¦°à¦ķà¦¨":1408,"à¦¨à¦°à¦¹":1409,"à¦Ĺà¦Ĺ":1410,"à¦°à¦¦à¦ķ":1411,"à¦°à¦ªà¦°à¦¤":1412,"à¦ľà¦¨à¦¬":1413,"à¦ªà¦ļ":1414,"à§¯à§®":1415,"à¦¦à¦¯":1416,"à¦Ĩà¦ĩà¦ª":1417,"à¦¦à¦¨à¦¬":1418,"à¦¤à¦¹à¦ĵà§Ł":1419,"à¦°à¦£à¦®":1420,"à¦¦à¦¨à¦ķà¦°":1421,"à¦īà¦ªà¦°":1422,"à§Łà¦Ĩà¦®":1423,"à¦ıà¦ĩà¦¨":1424,"à§ªà§®":1425,"à¦ħà¦¥":1426,"à¦ļà¦¸":1427,"à¦ªà¦ľ":1428,"à¦¬à¦°à¦¦":1429,"à¦ľà¦ķà¦°à¦¤":1430,"à§¦à§Ń":1431,"à¦¨à¦ķà¦°à¦Ľ":1432,"à¦°à¦¬à¦¸":1433,"à¦¶à¦ĸ":1434,"à¦ľà¦¨à¦Ĺà¦£":1435,"à§Łà¦¸à¦®":1436,"à¦²à¦Ļ":1437,"à¦ĩà¦ħà¦¨":1438,"à¦ĵà¦Ľ":1439,"à¦°à¦£à¦¬":1440,"à¦®à¦Ĩà¦®":1441,"à¦Ĺà¦Ľ":1442,"à¦¶à¦¨à¦ķà¦°":1443,"à¦¨à¦Ĩà¦ľ":1444,"à¦ķà¦ħà¦¨":1445,"à¦°à¦¤à¦¬":1446,"à¦¨à¦Ĩà¦¹à¦®":1447,"à¦ĩà¦®à¦¨":1448,"à§ľà¦¬":1449,"à¦¨à¦ĩà¦®":1450,"à¦¸à¦¥":1451,"à¦¨à¦¸à¦®à§Ł":1452,"à¦ªà§ľà¦²":1453,"à¦°à¦®à¦ľ":1454,"à¦īà§ľ":1455,"à¦¯à¦Ĩà¦®":1456,"à§©à§Ń":1457,"à¦¬à¦¸à¦¬":1458,"à¦ķà¦¤à¦Ł":1459,"à¦¨à¦ħà¦°":1460,"à¦¦à¦¨à¦¶":1461,"à¦¨à¦¬à¦°":1462,"à¦²à¦ĺ":1463,"à¦¶à¦®à¦¶":1464,"à§Łà¦£":1465,"à¦ļà¦¯":1466,"à¦ľà¦¥":1467,"à¦ıà¦ľ":1468,"à¦¤à¦¹à¦ļ":1469,"à¦¶à¦®à¦ķ":1470,"à§§à§¨à§¦":1471,"à¦²à¦¹à¦ķ":1472,"à¦¨à¦īà¦ª":1473,"à¦¯à¦Ľ":1474,"à¦Ĩà¦°à¦®":1475,"à§Łà¦¨à¦ªà¦°":1476,"à¦¹à§Łà¦¬":1477,"à¦¨à¦īà¦¦":1478,"à§Łà¦ıà¦ķ":1479,"à§¦à§¬":1480,"à¦¨à¦®à¦¹":1481,"à¦°à¦Ĩà¦°à¦ĵ":1482,"à¦¯à¦ıà¦¬":1483,"à¦¡à¦¹":1484,"à¦°à¦ªà¦°à¦ª":1485,"à¦ĩà¦¸à¦¬":1486,"à¦§à¦¦":1487,"à§Łà¦ıà¦¬":1488,"à¦ľà¦¡":1489,"à¦·à¦Ł":1490,"à¦¨à§Łà¦¨à¦¬":1491,"à¦ħà¦Ł":1492,"à¦łà¦ķà¦°":1493,"à§«à§«":1494,"à¦Ńà¦¯":1495,"à¦¥à¦Ĺ":1496,"à¦īà§İà¦¸à¦¬":1497,"à¦¸à¦Ĩ":1498,"à¦¸à¦¹à¦¯":1499,"à¦ļà¦ª":1500,"à¦ĩà¦Ĩà¦ªà¦¨":1501,"à¦ķà¦ıà¦¬":1502,"à¦ĩà¦¨à¦ķ":1503,"à§Łà¦¥":1504,"à¦°à¦¨à¦¬":1505,"à§ľà¦²":1506,"à¦°à¦Ĺà¦¨":1507,"à¦°à¦¸à¦¦":1508,"à¦ĩà¦ı":1509,"à¦¨à¦ªà¦¤":1510,"à¦¶à¦¨à¦¸":1511,"à§©à§¬":1512,"à¦°à¦¥à¦®à¦¦":1513,"à¦¹à¦ĵà¦¯":1514,"à¦¨à¦Ĩà¦°":1515,"à¦®à¦Ĺà¦ŀ":1516,"à¦ĸà¦¸":1517,"à§ªà§Ń":1518,"à¦¬à¦Ł":1519,"à¦²à¦¸à¦®":1520,"à¦ľà¦ķà¦°à¦Ľ":1521,"à¦Ĩà¦²à¦¹":1522,"à¦¹à¦°à¦£":1523,"à¦²à¦ķà¦ª":1524,"à¦¦à¦¶à¦®":1525,"à¦¬à¦ĸ":1526,"à¦°à¦¬à¦¹":1527,"à§¯à§¬":1528,"à¦ıà¦¸à¦®":1529,"à¦Łà¦ªà¦°":1530,"à¦§à¦¹à§Ł":1531,"à¦¹à¦ł":1532,"à¦¨à¦¸à¦Ń":1533,"à¦¬à¦¨à¦¯":1534,"à¦ªà¦¦à¦ķ":1535,"à¦ľà¦Ľ":1536,"à¦¸à§ľà¦ķ":1537,"à¦ĩà¦ıà¦ķ":1538,"à¦°à¦ªà¦°à¦¸":1539,"à¦ĺà¦¦":1540,"à¦ĩà¦īà¦Ł":1541,"à¦°à¦Ĩà¦Ľ":1542,"à¦ĩà¦²à¦¸":1543,"à¦®à¦ŀ":1544,"à¦Ĺà¦ªà¦°":1545,"à¦ªà¦Ń":1546,"à¦ľà¦¨à¦®":1547,"à¦°à¦ħà¦¬":1548,"à¦¸à¦¹à¦¬":1549,"à¦°à¦¸à¦¹à¦¯":1550,"à¦°à¦īà¦ļ":1551,"à¦°à¦Ī":1552,"à¦°à¦ĺà¦°":1553,"à§ĩà§":1554,"à¦°à¦£à¦¤":1555,"à¦¡à¦¦":1556,"à¦¨à¦¹à¦²":1557,"à¦·à¦Ń":1558,"à¦ĩà¦¸à¦Ļ":1559,"à¦Ĩà¦¤à¦¸à¦®":1560,"à¦°à¦ĵà¦®":1561,"à§Łà¦Ĩà¦ķ":1562,"à¦ķà¦ħ":1563,"à§Ńà§«":1564,"à¦Ĺà¦¥":1565,"à¦°à¦ªà¦°à¦¥":1566,"à¦¸à¦¹à¦ķ":1567,"à¦®à¦ıà¦¬":1568,"à¦Łà¦¡":1569,"à¦¬à¦¸à¦®":1570,"à¦¦à¦Ń":1571,"à¦°à¦¹à¦¸":1572,"à¦¸à¦¤à¦°":1573,"à¦²à¦¬à¦²":1574,"à¦ĩà¦²à¦¬":1575,"à§ĩà§Ĺ":1576,"à¦łà¦¶":1577,"à¦ªà¦ŀ":1578,"à¦¹à¦°à¦¹":1579,"à¦°à¦ļà¦°":1580,"à¦īà§İà¦¸":1581,"à¦¤à¦°à¦ķ":1582,"à¦ĩà¦ķà¦®":1583,"à¦¸à§ľ":1584,"à¦ĵà¦ľà¦¨":1585,"à¦°à¦ªà¦°à¦¬":1586,"à§©à§ª":1587,"à¦§à¦°à¦£":1588,"à¦¥à¦°":1589,"à¦¼à§į":1590,"à¦Ĺà¦£à¦®":1591,"à¦²à¦ķà¦¬":1592,"à¦®à¦°à¦£":1593,"à§©à§¨":1594,"à¦¦à¦Ĩà¦²":1595,"à¦Ĩà¦¹à¦®à¦¦":1596,"à¦¨à¦Ĩà¦¦":1597,"à¦²à¦®à¦¨":1598,"à¦§à¦Ń":1599,"à¦ķà¦°à¦ª":1600,"à§İà¦¸à¦ķ":1601,"à¦²à¦ħà¦¨":1602,"à¦®à¦īà¦¦":1603,"à¦ľà¦¨à¦¤":1604,"à¦°à¦ħà¦«":1605,"à¦¨à¦¤à¦¥":1606,"à¦¶à¦¨à¦¬":1607,"à¦¤à¦¨à¦¤":1608,"à¦¿à¦ģ":1609,"à§©à§®":1610,"à¦ķà¦¶à¦¨":1611,"à¦£à¦Ĺ":1612,"à¦¸à¦ħ":1613,"à¦¸à¦®à¦ķ":1614,"à¦Ĺà¦ķà¦°à¦¤":1615,"à¦°à¦ªà¦°à¦®":1616,"à¦ıà¦ķà¦ĩ":1617,"à¦ıà¦¨à¦ı":1618,"à¦¬à¦°à¦£":1619,"à¦®à¦ĩà¦¬à¦¨":1620,"à¦Īà¦®":1621,"à§Łà¦¡":1622,"à¦°à¦Ĺà¦£":1623,"à¦ıà¦ĩà¦ļà¦ıà¦¸à¦¸":1624,"à¦¡à¦°":1625,"à¦ıà¦°à¦¦":1626,"à¦°à¦ªà¦¶":1627,"à¦ĩà¦²à¦«":1628,"à¦¨à¦ĩ":1629,"à¦¨à¦ĵà¦Ĺ":1630,"à¦°à¦Ĳ":1631,"à¦Ľà¦²":1632,"à¦¨à¦ªà¦¦":1633,"à¦¯à¦«":1634,"à¦Ńà¦¦":1635,"à§Łà¦Ĩ":1636,"à§Łà¦ķà¦®":1637,"à¦¥à¦¦":1638,"à¦¤à¦¨à¦ķà¦°":1639,"à¦ķà¦®à¦¨":1640,"à¦ľà¦Ļ":1641,"à¦ıà¦ķà¦¥":1642,"à¦ļà¦¦":1643,"à¦¨à¦·":1644,"à¦ĩà¦Łà¦¬":1645,"à¦ıà¦ĺà¦Łà¦¨":1646,"à¦Ĩà¦°à¦ĵà¦¬":1647,"à¦ķà¦¬à¦°":1648,"à¦ĸà¦°à¦ļ":1649,"à¦¯à¦ĩ":1650,"à¦°à¦¸à¦ļ":1651,"à¦®à¦°à¦¹":1652,"à¦¨à¦§à¦°à¦¨":1653,"à¦ıà¦°à¦ªà¦°":1654,"à¦¨à¦¨à¦¤":1655,"à¦¤à¦ıà¦ķà¦Ł":1656,"à¦ĩà¦¨à¦«":1657,"à¦¨à¦Ĩà¦°à¦ĵ":1658,"à¦¡à¦«":1659,"à¦¦à¦¨à¦ľ":1660,"à¦īà¦ľà¦¬":1661,"à¦®à¦ĵ":1662,"à¦Ŀà§ľ":1663,"à¦¯à¦ħà¦§":1664,"à¦°à¦°à¦ķ":1665,"à¦¸à¦¬à¦ľ":1666,"à¦īà¦ªà¦¹":1667,"à¦ľà¦¨à¦¶":1668,"à¦ıà¦¸à¦®à§Ł":1669,"à¦°à¦ªà¦°à¦ĵ":1670,"à¦ľà¦¨à¦¦":1671,"à§¨à§¦à§¨à§¨":1672,"à¦®à¦¬à¦²":1673,"à¦Ĩà¦ĩà¦¡":1674,"à¦¸à¦ªà¦°":1675,"à¦§à¦¸à¦®":1676,"à¦ıà¦°à¦¨":1677,"à¦ªà¦ªà¦°":1678,"à¦®à¦¤à¦¬":1679,"à¦¨à¦ķà¦²":1680,"à¦²à¦ĵà§Ł":1681,"à¦¨à¦¢":1682,"à¦¤à¦¨à¦¬":1683,"à¦¦à§Ł":1684,"à¦¬à¦°à¦¹":1685,"à¦ķà¦·":1686,"à¦¸à¦¯":1687,"à¦¬à¦°à¦¨à¦Ń":1688,"à¦²à¦¹à§Ł":1689,"à¦¨à¦ĵà¦¸":1690,"à¦Ķ":1691,"à¦£à¦¹":1692,"à¦¦à¦ļ":1693,"à¦Ĩà¦°à¦ª":1694,"à¦ľà¦¨à¦Ĺ":1695,"à¦°à¦®à¦°":1696,"à¦°à¦®à¦ª":1697,"à¦®à¦®à¦¤":1698,"à¦ıà¦ķà¦ª":1699,"à§Łà¦®à¦¨":1700,"à¦ĸà¦¬à¦°à¦ª":1701,"à¦ĩà¦®à¦°":1702,"à¦ĩà¦¹à¦¬":1703,"à¦ħà¦¸à¦¹":1704,"à¦ıà¦ĩà¦Ń":1705,"à¦¯à§Ł":1706,"à¦Ĩà¦°à¦¨":1707,"à¦¨à¦Ĩà¦¨":1708,"à§ªà§ª":1709,"à¦¨à¦ĵà¦¬":1710,"à¦Ĭ":1711,"à¦ıà¦ľà¦¨":1712,"à¦¡à¦Ĺ":1713,"à¦°à¦¥à¦®à¦¸":1714,"à¦ªà¦¯":1715,"à¦īà¦łà¦²":1716,"à¦°à¦¹à¦ķà¦°":1717,"à¦¬à¦°à¦ħà¦ķ":1718,"à¦£à¦°":1719,"à¦īà¦łà¦¤":1720,"à¦Ńà¦¬à¦¤":1721,"à¦°à¦ĩà¦ļ":1722,"à¦¬à¦«":1723,"à¦ĸà¦¯":1724,"à¦¨à¦¸à¦°":1725,"à¦°à¦Ĺà¦°":1726,"à¦¬à¦°à¦ķ":1727,"à¦ħà¦¬à¦¦":1728,"à¦°à¦ıà¦ķà¦®":1729,"à¦¨à¦¸à¦¹":1730,"à¦°à¦£à¦ª":1731,"à¦°à¦¬à§ľ":1732,"à¦¨à¦¸à¦¬":1733,"à¦ıà¦¸à¦ª":1734,"à¦®à§ľ":1735,"à¦¬à¦°à¦®":1736,"à¦¨à¦ıà¦ĸ":1737,"à¦ĸà¦ª":1738,"à¦°à¦īà§İ":1739,"à¦ļà¦¨à¦ķà¦°":1740,"à¦²à¦ķà¦®":1741,"à¦¬à¦¸à¦ª":1742,"à¦°à¦¸à¦¤":1743,"à¦ķà¦®à¦ª":1744,"à¦«à¦ķ":1745,"à¦§à¦¶":1746,"à¦ĵà¦ı":1747,"à¦¬à¦¨à¦¬":1748,"à¦²à¦¨à¦ķ":1749,"à¦¬à¦Ľà¦°à¦ª":1750,"à¦¯à¦Ĩà¦ªà¦¨":1751,"à¦°à¦ķà¦°à¦Ľ":1752,"à§Łà¦Ĩà¦¨":1753,"à¦°à¦ķà¦°à¦²":1754,"à¦¦à¦ķà¦¸":1755,"à¦¶à¦ļ":1756,"à¦ĸà¦¦":1757,"à§«à§¬":1758,"à¦Ĺà¦£à¦¤à¦¨":1759,"à¦ľà§Łà¦¨":1760,"à¦Ĩà¦ĺ":1761,"à¦ĩà¦ķà¦¬":1762,"à¦Ĩà¦ĸ":1763,"à¦Ńà¦Ļ":1764,"à¦¨à¦Ĩà¦¸":1765,"à¦°à¦¨à¦®":1766,"à§¦à§¯":1767,"à¦¨à¦¹à¦¤":1768,"à¦ĩà¦ľà¦¨":1769,"à¦°à¦Ĩà¦¯":1770,"à¦Ĩà¦Łà¦ķà¦ķà¦°":1771,"à¦¶à¦¨à¦¸à¦®":1772,"à§©à§¯":1773,"à¦²à¦ĵ":1774,"à¦¨à¦Ĩà¦ķ":1775,"à¦²à¦īà¦¦":1776,"à§Łà¦£à¦Ĺà¦ŀ":1777,"à¦Łà¦ķà¦°à¦¤":1778,"à¦¨à¦ĵà¦¯":1779,"à¦¨à¦ķà¦°à¦²":1780,"à§«à§¦à§¦":1781,"à¦ļà¦²à¦®":1782,"à¦°à¦¸à¦®à¦°":1783,"à¦¯à¦ĵ":1784,"à§¨à§¦à§§à§¦":1785,"à¦Ľà¦¡":1786,"à¦¨à¦ķà¦¬":1787,"à¦²à¦Ĺà¦ŀ":1788,"à¦¬à§Łà¦¸":1789,"à§§à§¯à§®":1790,"à¦Łà¦ĵà§Ł":1791,"à¦°à¦¹à¦ĵà§Ł":1792,"à¦ļà¦²à¦¬":1793,"à¦Ĩà¦Ļ":1794,"à¦ĩà¦ıà¦ķà¦Ł":1795,"à¦ıà¦°à¦ľà¦¨":1796,"à¦Ĳà¦ķ":1797,"à§¦à§§":1798,"à¦¡à¦¡":1799,"à¦ķà¦ħà¦«":1800,"à¦¸à¦¦à¦¸à¦¦à¦¸":1801,"à¦¨à¦ĺ":1802,"à¦Łà¦ıà¦¬":1803,"à§Łà¦¸à¦°à¦ķ":1804,"à¦ıà¦ĩà¦°":1805,"à¦§à¦¥":1806,"à§Łà¦§":1807,"à¦ıà¦¨à¦ľ":1808,"à¦¹à¦Ľ":1809,"à¦ªà§Ł":1810,"à¦¨à¦ıà¦Ľ":1811,"à¦¤à¦°à¦¸":1812,"à§Łà¦ħ":1813,"à¦°à¦¯à¦¦":1814,"à¦ĩà¦¨à¦¡":1815,"à¦²à¦¸à¦¹":1816,"à¦Ńà¦Ł":1817,"à¦īà¦°à¦°à¦¹à¦®":1818,"à¦¶à¦¨à¦ķ":1819,"à¦°à¦ĩà¦¬":1820,"à¦¦à¦¨à¦ķ":1821,"à¦°à¦ķà¦°à¦¬":1822,"à§İà¦°":1823,"à¦ĵà¦ıà¦ķà¦Ł":1824,"à¦¹à¦Ĺ":1825,"à¦§à¦ľ":1826,"à§«à§®":1827,"à¦®à¦¤à¦ª":1828,"à¦¸à¦ŀ":1829,"à¦Łà¦ħ":1830,"à¦²à¦ħ":1831,"à¦®à¦£à¦¬":1832,"à¦¨à¦ĵà§Ł":1833,"à§Łà¦¨à¦¬":1834,"à¦ļà¦¶":1835,"à¦Łà¦¹à§Ł":1836,"à¦ıà¦¸à¦ıà¦®":1837,"à¦Ĺà¦¯":1838,"à§ªà§¨":1839,"à¦ıà¦ĩà¦Ł":1840,"à¦¶à¦ªà¦°":1841,"à§Łà¦ħà¦Ń":1842,"à¦¤à¦¡":1843,"à¦°à¦¶à¦ķ":1844,"à¦Ĺà¦Ł":1845,"à¦¸à¦ķà¦°à¦¤":1846,"à¦°à¦ªà¦°à¦ķ":1847,"à¦ıà¦¸à¦ıà¦¸à¦¸":1848,"à§¦à§«":1849,"à¦¥à¦¹à§Ł":1850,"à¦¦à¦¨à¦ª":1851,"à¦ĩà¦Ĩà¦®à¦°":1852,"à¦Ĩà¦°à¦ĵà¦¬à¦²":1853,"à¦®à¦Ĩà¦²":1854,"à¦ĵà¦·":1855,"à¦Łà¦«à¦°":1856,"à¦°à¦ĵà¦ķ":1857,"à¦¸à¦ıà¦¬":1858,"à¦¤à¦ķà¦°à¦¬":1859,"à¦ĵà¦ıà¦¬":1860,"à¦¹à§Łà¦ª":1861,"à¦¨à¦ıà¦²":1862,"à¦¸à¦Ľ":1863,"à§¬à§Ń":1864,"à¦Łà¦¯":1865,"à¦°à¦ĩà¦²":1866,"à¦ľà¦Ń":1867,"à§ªà§§":1868,"à¦°à¦ªà¦°à¦¦":1869,"à¦¯à¦ķà¦°à¦¤":1870,"à¦ĵà¦ıà¦ķ":1871,"à¦°à¦ıà¦ķà¦¬":1872,"à¦¸à¦°à¦¬à¦°":1873,"à¦¬à¦¨à¦ķ":1874,"à¦¨à¦¸à¦¨":1875,"à¦¸à¦ĵà§Ł":1876,"à¦¤à¦Ĩà¦²":1877,"à¦ħà¦¬à¦¹":1878,"à¦ªà¦¹":1879,"à¦°à¦£à¦¨":1880,"à¦ĭà¦£":1881,"à§Łà¦Ĩà¦°à¦ĵ":1882,"à¦¨à¦¶à¦¨":1883,"à¦°à¦ħà¦ªà¦°":1884,"à¦ķà¦ħà¦°":1885,"à¦°à¦Ĩà¦²à¦®":1886,"à¦ıà¦ķà¦ķ":1887,"à¦ĩà¦«à¦¤":1888,"à¦Łà¦¸à¦ħ":1889,"à§ªà§¯":1890,"à¦ķà¦¹à§Ł":1891,"à¦Ĩà¦¦à¦°":1892,"à¦ķà¦¸à¦¹":1893,"à¦¶à¦®à¦īà¦¨":1894,"à¦¹à¦īà¦¦":1895,"à¦¬à¦°à¦¥":1896,"à¦¤à¦Ĩà¦®":1897,"à¦Ĩà¦¬à¦¹":1898,"à¦ĩà¦¨à¦ª":1899,"à¦·à¦¶":1900,"à§¨à§¦à§¦à§¯":1901,"à¦¶à¦īà¦¦":1902,"à¦¨à¦īà¦¤":1903,"à¦Ľà¦¦":1904,"à¦¨à¦ħà¦§":1905,"à¦Ĩà¦¤à¦Ļ":1906,"à¦¡à¦ıà¦¬":1907,"à¦°à¦īà¦²":1908,"à§¨à§¦à§§à§§":1909,"à§«à§Ń":1910,"à¦°à¦ıà¦ĩà¦¦":1911,"à¦ıà¦°à¦¶":1912,"à¦ļà¦°à¦®":1913,"à¦¨à¦¬à¦¤":1914,"à¦¶à¦ķà¦°à¦¤":1915,"à¦ķà¦¸à¦Ń":1916,"à¦¬à¦Ľà¦°à¦¬à§Łà¦¸":1917,"à¦¶à¦¨à¦ª":1918,"à¦īà¦ĩà¦¨":1919,"à¦īà¦ªà¦¯":1920,"à¦ķà¦Ĩà¦®":1921,"à§Łà¦ķà¦°à¦¤":1922,"à¦°à¦ªà¦Ľà¦¨":1923,"à¦¸à¦īà¦ªà¦ľ":1924,"à§Łà¦ıà¦ķà¦Ł":1925,"à¦«à¦«":1926,"à¦°à¦ıà¦Ł":1927,"à§Ŀ":1928,"à¦°à¦£à¦¸":1929,"à¦Ĩà¦¨à¦¤":1930,"à¦°à¦°à¦¸":1931,"à¦ľà¦ļ":1932,"à¦ĩà¦ĺ":1933,"à¦¤à¦ķà¦®":1934,"à¦£à¦Ĩà¦«":1935,"à¦¤à¦°à¦¬à¦Ļ":1936,"à¦ĩà¦īà¦¸":1937,"à¦ķà¦Ĺà¦ŀ":1938,"à¦°à¦¤à¦°":1939,"à¦®à¦ħà¦¨":1940,"à¦°à¦īà¦ªà¦ķ":1941,"à¦²à¦¹à¦¬":1942,"à¦¤à¦ĺ":1943,"à¦¯à¦ħà¦°":1944,"à¦¨à¦ĵà¦®":1945,"à¦Ĺà¦°à¦®":1946,"à¦¨à¦¡à¦²":1947,"à¦¤à¦®à¦¹":1948,"à¦ĩà¦ıà¦ĩ":1949,"à¦¨à¦¯à¦¦":1950,"à¦°à¦ļà¦Ł":1951,"à¦°à¦ħà¦Ĺ":1952,"à¦¨à¦¹à¦¬":1953,"à¦¶à¦¨à¦¶":1954,"à¦°à¦ĵà¦¨":1955,"à¦Ńà¦®":1956,"à¦°à¦ıà¦ķà¦ľà¦¨":1957,"à¦¨à¦¨à¦¬":1958,"à§©à§¦à§¦":1959,"à¦¶à¦¸à¦®":1960,"à¦ĵà§ľ":1961,"à¦ıà¦ķà¦¤":1962,"à¦¤à¦§à¦°":1963,"à¦Ĩà¦²à¦ķ":1964,"à¦ħà¦¨à¦¨":1965,"à¦ķà¦Ĩà¦²":1966,"à¦«à¦Ń":1967,"à¦¶à¦Ľ":1968,"à¦ıà¦ķà¦°":1969,"à§§à§¦à§¦à§¦":1970,"à§Łà¦®à¦¨à¦¸":1971,"à¦Ĩà¦¹à¦²":1972,"à¦ªà¦°à¦¤":1973,"à¦ĩà¦ıà¦¬":1974,"à¦Ľà¦¤":1975,"à¦¬à¦°à¦°":1976,"à¦¸à¦¹à¦¸":1977,"à¦¡à¦¶":1978,"à¦ķà§ľ":1979,"à¦¸à¦®à¦¨":1980,"à¦ĩà¦¬à¦°":1981,"à¦¸à¦Ĩà¦ŀ":1982,"à¦ķà¦ħà¦¬à¦¸":1983,"à¦§à¦ķà¦°à¦¤":1984,"à¦Ķà¦·":1985,"à¦ħà¦¡":1986,"à¦¤à¦¨à¦ª":1987,"à¦Ľà¦ķ":1988,"à¦®à¦¨à¦¬":1989,"à¦Ĩà¦ĩà¦Ł":1990,"à§¨à§¦à§¨":1991,"à¦°à¦¤à¦ª":1992,"à¦īà¦ªà¦¦":1993,"à¦Ĩà¦¬à¦°":1994,"à¦°à¦ĩà¦¸à¦²":1995,"à¦°à¦£à¦ķà¦°à¦¤":1996,"à¦¯à¦¬à¦§":1997,"à¦ķà¦īà¦¦":1998,"à§¬à§®":1999,"à¦²à¦ķà¦ķ":2000,"à¦ľà¦ĸ":2001,"à¦°à¦®à¦¶":2002,"à¦®à¦¤à¦ķ":2003,"à¦¦à¦¨à¦¦":2004,"à¦¤à¦ıà¦ķ":2005,"à¦łà¦ª":2006,"à¦®à¦¦à¦¸":2007,"à¦ķà¦²à¦®":2008,"à§¨à§¦à§§à§¨":2009,"à¦¤à¦ķà¦°à¦£":2010,"à¦Ĩà¦ľà¦¬":2011,"à¦°à¦ķà§Ł":2012,"à¦Ńà¦ľà¦¨":2013,"à¦¸à¦¬à¦¸à¦®à§Ł":2014,"à¦ıà¦ªà¦°":2015,"à§Ńà§§":2016,"à§¨à§¦à§¦à§®":2017,"à¦¹à§Łà¦¯":2018,"à¦¸à¦°à¦£à¦ķà¦°":2019,"à¦¤à¦®à¦¬":2020,"à¦·à¦ħà¦¤":2021,"à¦ķà¦®à¦²":2022,"à¦īà§Ł":2023,"à¦·à¦¹à§Ł":2024,"à¦ıà¦¯":2025,"à¦īà¦Ĺ":2026,"à¦ªà§ľà¦¬":2027,"à¦°à¦ĩà¦¸":2028,"à¦¬à¦ªà¦°":2029,"à§İà¦ķà¦°":2030,"à¦°à¦ĩà¦īà¦ª":2031,"à¦ĸà¦ĸ":2032,"à¦°à¦Ĩà¦®à¦°":2033,"à¦Ĺà¦¶":2034,"à¦²à¦¤à¦¬":2035,"à§ľà¦¯à¦¨":2036,"à¦Ńà¦¸":2037,"à¦°à¦¬à¦Ľà¦°à¦¬à¦Ľ":2038,"à§Łà¦¬à¦²":2039,"à¦¨à¦ĩà¦¸à¦²":2040,"à¦°à¦ıà¦ķà¦¦":2041,"à§«à§¨":2042,"à¦¤à¦ĵ":2043,"à¦°à¦Ĩà¦Ĺà¦¸":2044,"à¦°à¦ħà¦ķ":2045,"à¦ıà¦ĸà¦¨à¦ªà¦°":2046,"à¦¤à¦¬à¦°":2047,"à¦§à¦¹à¦¬":2048,"à¦ķà¦¬à¦²":2049,"à¦ĸà¦¨à¦¤":2050,"à§«à§¯":2051,"à¦ĩà¦²à¦ķ":2052,"à¦°à¦Ńà¦°":2053,"à¦ħà¦ªà¦¸":2054,"à¦¨à¦ĩà¦¤":2055,"à¦·à¦Ĺ":2056,"à¦ļà¦«":2057,"à¦°à¦ªà§ľ":2058,"à¦ªà§ľà¦Ľ":2059,"à¦Ĺà¦ļ":2060,"à¦°à¦īà¦ªà¦¸":2061,"à¦¶à¦¨à¦¦":2062,"à¦¥à¦®à¦¨":2063,"à¦ĵà¦¥":2064,"à¦Ĩà¦ĩà¦¨à¦ľ":2065,"à¦«à¦ĸà¦°":2066,"à¦ħà¦¬à¦°":2067,"à¦Ńà¦¨":2068,"à¦¦à¦Ĩà¦¤":2069,"à¦ĩà¦²à¦ķà¦°":2070,"à§Łà¦ħà¦°":2071,"à¦¨à¦¦à¦²":2072,"à¦°à¦ıà¦®à¦¨":2073,"à¦ķà¦¹à¦²":2074,"à§Łà¦¬à¦°":2075,"à¦Ĺà¦¸à¦®":2076,"à¦Ĩà¦°à¦Ł":2077,"à¦ķà¦®à¦¬":2078,"à¦²à¦ıà¦ķ":2079,"à¦¸à¦¬à¦¨":2080,"à§¬à§¬":2081,"à¦¦à¦Ľ":2082,"à¦ķà¦®à¦¤":2083,"à¦¤à¦°à¦£à¦ķà¦°":2084,"à§ĩà¦¾à¦ģ":2085,"à¦ľà¦«":2086,"à¦¬à¦°à¦ħà¦ªà¦°":2087,"à¦ķà¦¸à¦®à§Ł":2088,"à¦¬à¦¸à¦¤":2089,"à¦¯à¦¹à§Ł":2090,"à¦¸à¦¬à¦®":2091,"à¦°à¦ľà¦¨à¦ª":2092,"à¦¨à¦ħà¦¬à¦¸":2093,"à¦¬à¦¥":2094,"à¦ĵà¦®à¦¨":2095,"à¦ļà¦¨à¦ķà¦®":2096,"à¦īà¦Ń":2097,"à¦°à¦®à¦¸":2098,"à¦ªà¦°à¦Ĺà¦¨":2099,"à¦°à¦ľà¦°":2100,"à¦¶à¦¨à¦¨":2101,"à¦¤à¦°à¦ķà¦°":2102,"à¦ıà¦ķà¦ľà¦¨à¦®":2103,"à§¦à§®":2104,"à¦°à¦¶à¦¬":2105,"à¦®à¦Ĩà¦¬":2106,"à§¬à§«":2107,"à¦§à¦ıà¦¬":2108,"à¦¯à¦¡":2109,"à¦ĩà¦¸à¦ļ":2110,"à¦Ĩà¦ĩà¦¨à¦¶":2111,"à¦¶à¦ķà§Ł":2112,"à¦°à¦£à¦ľ":2113,"à¦ıà¦ĩà¦ļà¦¡":2114,"à¦Ľà¦¹":2115,"à¦¥à¦ķà¦°":2116,"à¦¯à¦¹à¦¤":2117,"à¦Łà¦ĵà¦¯":2118,"à¦Ĩà§ľ":2119,"à¦¤à¦°à¦¨":2120,"à¦°à¦ļà¦£":2121,"à¦¸à¦ıà¦ķ":2122,"à¦¬à¦£":2123,"à¦¹à§Łà¦®":2124,"à¦°à§Łà¦ķà¦°":2125,"à¦¶à¦ķà¦®":2126,"à¦¸à¦¬à¦¬":2127,"à¦²à¦Ĩà¦°":2128,"à¦¯à¦¹à¦²":2129,"à¦¦à¦¨à¦¸":2130,"à¦ķà¦Ĩà¦Ľ":2131,"à¦¨à¦ıà¦ĸà¦¨":2132,"à¦¹à¦®à¦¦":2133,"à§Łà¦¦à¦ª":2134,"à¦ĩà¦Łà¦Ĩà¦ĩà¦¨":2135,"à¦īà¦ĸ":2136,"à¦¹à¦°à¦¨":2137,"à¦°à¦¸à¦ł":2138,"à¦¦à¦Ĩà¦®":2139,"à¦°à¦¬à¦¯":2140,"à¦¨à¦īà¦ªà¦ľ":2141,"à¦°à¦¬à¦¡":2142,"à¦ıà¦ĸà¦¨à¦¸":2143,"à¦ļà¦ķà¦°":2144,"à¦°à¦¤à¦ķ":2145,"à¦¬à¦¹à¦¨":2146,"à¦¦à¦ķà¦ķ":2147,"à¦ľà¦²à¦¬":2148,"à¦ľà¦Ĺà¦ŀ":2149,"à¦°à¦Ĩà¦ªà¦¡":2150,"à¦¹à¦¤à¦°":2151,"à¦¨à¦ķà¦°à¦¬":2152,"à¦¹à¦¬à¦§":2153,"à§¦à§ª":2154,"à¦·à¦¹":2155,"à¦Ĺà¦«":2156,"à¦¯à¦ıà¦ķ":2157,"à¦ķà¦Ĩà¦¤":2158,"à¦°à¦Ĩà¦¹à¦®":2159,"à¦§à¦ĸ":2160,"à¦¤à¦°à¦®":2161,"à¦°à¦Ĩà¦ĵà§Ł":2162,"à¦®à¦ı":2163,"à¦²à¦¹à¦²":2164,"à¦°à¦Ńà¦¬":2165,"à¦¦à¦°à¦ľ":2166,"à¦ļà§ľ":2167,"à¦ķà¦£":2168,"à¦Ĩà¦°à¦ĵà¦ªà¦¡":2169,"à¦¸à¦Ĩà¦²":2170,"à¦°à¦¬à¦¦à¦²":2171,"à§¨à§¦à§¦à§¦":2172,"à¦¦à¦ĸà¦²":2173,"à¦°à¦¸à¦®à§Łà¦ķ":2174,"à¦ĩà¦²à¦Ł":2175,"à§Łà¦ĵ":2176,"à¦¨à¦ĩà¦¨":2177,"à¦ħà¦¬à¦®":2178,"à§¦à§§à§Ń":2179,"à¦°à¦¸à¦®à§Łà¦¸":2180,"à¦§à¦Ł":2181,"à¦Ĩà¦°à¦¦":2182,"à¦ĩà¦¨à¦¦":2183,"à¦ĭà¦¤":2184,"à¦¤à¦Ĩà¦Ľ":2185,"à¦¨à¦ıà¦®à¦¨":2186,"à¦Ĺà¦ĸ":2187,"à¦ıà¦ĸà¦¨à¦ķ":2188,"à¦°à¦ıà¦ĩà¦¬":2189,"à¦²à¦Ĩà¦ľ":2190,"à¦Ĩà¦®à¦²":2191,"à¦¤à¦ħ":2192,"à¦īà¦ľà¦¡":2193,"à¦²à¦¬à¦¨":2194,"à¦ĸà¦¬à¦°à¦¬":2195,"à¦¨à¦īà¦¨":2196,"à§¨à§§à§®":2197,"à¦°à¦¹à¦ķ":2198,"à§ĭà¦Ĥ":2199,"à¦¨à¦¹à¦¯":2200,"à¦ľà¦²à¦ª":2201,"à¦¤à¦§":2202,"à¦Łà¦ķà¦®":2203,"à¦¯à¦§à¦°":2204,"à§Łà¦¢":2205,"à¦«à¦¹":2206,"à¦°à¦¹à¦ļ":2207,"à¦ķà¦ªà¦ł":2208,"à¦ķà¦Ĩà¦Ĺ":2209,"à¦¨à¦¬à¦ľ":2210,"à¦¤à¦ıà¦ĩ":2211,"à¦¤à¦ªà§ľ":2212,"à¦¥à¦¹":2213,"à¦ıà¦§à¦°à¦¨":2214,"à¦Ĺà¦²à¦¨":2215,"à¦°à¦ıà¦ĩà¦¸":2216,"à¦ĩà¦Ĩà¦²":2217,"à¦°à¦«à¦°":2218,"à¦®à¦¬à¦°":2219,"à¦¨à¦ıà¦¤":2220,"à¦«à¦¨":2221,"à¦Ĩà¦ĵà¦¯":2222,"à¦°à¦¤à¦¨":2223,"à§Ńà§®":2224,"à§Łà¦¸à¦Ń":2225,"à§Ńà§¨":2226,"à¦ıà¦°à¦ļ":2227,"à¦°à¦Ĩà¦¨à¦¨":2228,"à¦°à¦ıà¦ĸ":2229,"à¦Ĩà¦¨à¦¸":2230,"à§¦à§©":2231,"à¦°à¦¶à¦¹":2232,"à¦°à¦ĸà¦¬à¦°":2233,"à¦īà¦ªà¦Ń":2234,"à¦¤à¦ħà¦Ń":2235,"à§«à§ª":2236,"à¦¡à¦ľ":2237,"à¦²à¦§":2238,"à¦°à¦¤à¦¤":2239,"à¦ħà¦¥à¦ļ":2240,"à¦°à¦¤à¦²":2241,"à¦Ĩà¦®à¦°à¦ĩà¦¬à¦¨":2242,"à¦¨à¦¸à¦®à¦¸":2243,"à¦¨à¦ĵà¦ķ":2244,"à¦¨à¦ļà¦²":2245,"à¦ªà¦°à¦°":2246,"à¦¨à¦¸à¦ķ":2247,"à¦īà¦ªà¦¸à¦°":2248,"à¦°à¦Ĩà¦ľ":2249,"à¦Ŀà¦°":2250,"à¦ıà¦¨à¦¸":2251,"à¦Ĺà¦¤à¦®":2252,"à¦Ĩà¦®à¦¦":2253,"à¦ıà¦ĩà¦Ĺ":2254,"à¦ıà¦®à¦¨à¦ıà¦ķà¦Ł":2255,"à¦¨à¦ł":2256,"à¦®à¦¹à¦²":2257,"à¦Ĺà¦¤à¦ľ":2258,"à¦īà¦łà¦Ľ":2259,"à¦ľà¦īà¦ªà¦ľ":2260,"à¦ıà§Ł":2261,"à¦¨à§Łà¦¨à¦ª":2262,"à¦ĩà¦¨à¦Ń":2263,"à¦īà¦¸à¦®":2264,"à¦Ĺà¦®à¦¨":2265,"à§¨à§¦à§¦à§¬":2266,"à¦¬à¦Ĩà¦²":2267,"à¦ĩà¦Ĩ":2268,"à§Łà¦¸à¦¬":2269,"à¦ĩà¦Ĩà¦Ľ":2270,"à¦ĩà¦®à¦¸":2271,"à¦£à¦¶":2272,"à¦°à¦°à¦¶":2273,"à¦¨à¦¬à¦¸":2274,"à¦¯à¦¸à¦°à¦ķ":2275,"à§¯à§®à§¨à§ª":2276,"à¦ıà¦°à¦ķà¦®":2277,"à¦°à¦¤à¦¦à¦¨":2278,"à¦«à¦°à¦¯":2279,"à¦¨à¦ıà¦¸":2280,"à¦ıà¦ĩà¦ľ":2281,"à¦ķà¦¹à¦¬":2282,"à¦¯à¦¸à¦¹":2283,"à¦°à¦Ĩà¦§":2284,"à¦ıà¦ķà¦ľà¦¨à¦¬":2285,"à¦§à¦°à¦¤":2286,"à¦£à¦«":2287,"à¦¹à§Łà¦°":2288,"à¦°à¦Ńà§Ł":2289,"à¦¶à¦ħà¦¨":2290,"à§Łà¦Ĩà¦¸":2291,"à¦²à¦¨à¦ķà¦°à¦¤":2292,"à¦¶à¦ĵ":2293,"à¦¬à¦Ľà¦°à¦Ĩà¦Ĺ":2294,"à¦ķà¦ıà¦ķ":2295,"à¦·à¦¦à¦¨":2296,"à¦¨à¦Ĩà¦ĩà¦¨":2297,"à¦¬à¦°à¦¤":2298,"à¦°à¦¸à¦¹à¦ķ":2299,"à¦°à¦¹à¦°":2300,"à¦¨à¦¤à¦ĸà¦¨":2301,"à¦¨à¦ħà¦¸":2302,"à¦¤à¦Ĩ":2303,"à¦¤à¦¤à¦¥":2304,"à¦°à¦ıà¦ĩà¦ª":2305,"à¦¤à¦¬à¦²":2306,"à¦ıà¦ĸà¦¨à¦¬":2307,"à¦ıà¦°à¦ĩ":2308,"à¦°à¦ıà¦ĸà¦¨":2309,"à¦°à¦¸à¦®à§Łà¦¬":2310,"à¦ıà¦ĩà¦¯":2311,"à¦¦à¦¡":2312,"à¦¯à¦Ĩà¦²":2313,"à¦¨à¦ıà¦¦":2314,"à¦¯à¦ĵà¦ª":2315,"à¦¬à¦Ľà¦°à¦§à¦°":2316,"à¦ĩà¦ıà¦Ł":2317,"à§«à§©":2318,"à¦·à¦£à¦ķ":2319,"à¦¶à¦ıà¦¬":2320,"à¦Ĺà¦¬à¦°":2321,"à§Łà¦¨à¦ķà¦°":2322,"à§§à§¯à§Ńà§§":2323,"à¦ªà¦¨à¦¬":2324,"à¦¸à¦ĵ":2325,"à¦ıà¦ĩà¦¸à¦®à¦¯":2326,"à§ģà§į":2327,"à¦¤à¦¨à¦¸":2328,"à¦·à¦£à¦¦":2329,"à¦¸à¦®à¦Ĺ":2330,"à¦¹à¦¶":2331,"à¦°à¦ļà¦ķ":2332,"à¦°à¦ķà¦ª":2333,"à§Ńà§©":2334,"à¦ķà¦¦à¦²":2335,"à¦¨à¦¶à¦°":2336,"à§Łà¦ĺ":2337,"à¦ªà¦¦à¦¤":2338,"à¦¸à¦°à¦£":2339,"à§Łà¦Ĩà¦²":2340,"à¦ıà¦ķà¦¨":2341,"à§¬à§ª":2342,"à¦¤à¦ħà¦°":2343,"à¦ıà¦®à¦¬":2344,"à¦Ĩà¦¬à¦¶":2345,"à¦ľà¦īà¦¦":2346,"à¦°à¦®à¦ķà¦°":2347,"à¦¸à¦«à¦²":2348,"à¦®à¦¤à¦²":2349,"à¦¤à¦ħà¦¬à¦¸":2350,"à§Łà¦¸à¦°":2351,"à¦¤à¦¨à¦ķ":2352,"à¦¸à¦¹à¦ª":2353,"à§Łà¦¤à¦¬":2354,"à¦ıà¦®à¦¨à¦Ł":2355,"à¦®à¦Ĩà¦ľ":2356,"à¦¦à¦¬à¦²":2357,"à¦°à¦¦à¦¤":2358,"à¦¯à¦¬à¦°":2359,"à¦°à¦ıà¦®à¦ª":2360,"à¦¬à¦¨à¦ķà¦°":2361,"à¦¬à¦°à¦¨":2362,"à¦¨à¦Ĩà¦Ľ":2363,"à¦¨à¦«à¦²":2364,"à¦¦à¦ıà¦¬":2365,"à¦Ĩà¦īà¦Ł":2366,"à§«à§§":2367,"à¦ıà¦ĩà¦ªà¦°":2368,"à¦¦à¦¥":2369,"à¦ıà¦ĩà¦¤":2370,"à¦¯à¦ĩà¦¤":2371,"à¦ĩà¦ķà¦²":2372,"à¦ĩà¦ĵ":2373,"à¦Łà¦ĩà¦¨":2374,"à¦ĩà¦²à¦®":2375,"à¦¨à¦°à¦¸":2376,"à¦¤à¦ķà¦°à¦²":2377,"à§¨à§¦à§¦à§§":2378,"à¦¨à¦¬à¦Ļ":2379,"à¦ıà¦ĩà¦²":2380,"à¦°à¦Ĳà¦¤":2381,"à¦ıà¦¨à¦ıà¦¨à¦¬":2382,"à¦¶à¦¸à¦°à¦ķ":2383,"à¦Ĺà¦¤à¦Ń":2384,"à¦Ĺà¦łà¦¨à¦ķà¦°":2385,"à¦²à¦ķà¦Ń":2386,"à¦Ĺà¦¹":2387,"à¦°à¦ıà¦ķà¦ª":2388,"à¦°à¦ĵà¦¤":2389,"à¦ľà¦¸à¦®":2390,"à¦°à¦Ĺà¦¬":2391,"à¦ľà§Łà¦¦":2392,"à¦°à¦£à¦¦":2393,"à¦®à¦ĺ":2394,"à¦¯à¦ħ":2395,"à¦°à¦ªà¦°à¦°":2396,"à¦°à¦ħà¦¬à¦¶":2397,"à¦°à¦¥à¦®à¦¤":2398,"à¦ļà¦¡":2399,"à¦°à¦ªà¦£":2400,"à¦¤à¦īà¦¦":2401,"à¦ĩà¦¦à¦¹":2402,"à¦Ńà¦°à¦ķà¦°":2403,"à¦ĩà¦¤à¦¬":2404,"à¦¨à¦ĺà¦Łà¦¨":2405,"à¦¨à¦īà¦ĩà¦ķ":2406,"à¦¦à¦ķà¦¦":2407,"à¦Ĩà¦ĩà¦¨à¦Ĩà¦¦":2408,"à¦°à¦¦à¦°à¦ķ":2409,"à¦°à¦¤à¦ħà¦¬à¦¸":2410,"à¦²à¦ıà¦ķà¦Ł":2411,"à¦¤à¦®à¦¸":2412,"à¦²à¦¹à¦¤":2413,"à¦ĩà¦ĵà§Ł":2414,"à¦ĩà¦ķà¦°à¦¤":2415,"à¦Ĩà¦®à¦¨":2416,"à¦°à¦ĩà¦ª":2417,"à¦ĩà¦Ĩà¦Ĺ":2418,"à¦°à¦Ĭ":2419,"à¦¹à¦°à¦ķ":2420,"à§¨à§®à§ªà§©":2421,"à¦ıà¦¤à¦¥":2422,"à¦¯à¦Łà¦¨":2423,"à¦°à¦ĭ":2424,"à¦¸à¦ķà¦²à¦ķ":2425,"à¦°à¦Ĩà¦¶à¦Ļ":2426,"à¦«à¦ľ":2427,"à¦ķà¦ĩà¦¬à¦¨":2428,"à¦®à¦§à¦°":2429,"à¦¹à¦¤à¦¹à§Ł":2430,"à¦Ĺà¦Ļ":2431,"à¦¡à¦¤":2432,"à§®à§¯":2433,"à¦¹à¦Ĩà¦²":2434,"à¦·à¦£à¦ª":2435,"à¦Ĩà¦¸à¦®":2436,"à¦¶à¦Ļ":2437,"à¦¡à¦¥":2438,"à¦ĸà¦¬à¦°à¦ĵà¦¬":2439,"à§¨à§¦à§¦à§¨":2440,"à¦ķà¦§":2441,"à¦ľà¦¨à¦°":2442,"à§¬à§¯":2443,"à§³":2444,"à¦ĩà¦īà¦ķ":2445,"à¦ĸà¦£":2446,"à¦¬à¦¨à¦¤":2447,"à¦¬à¦°à¦Ĩà¦Ĺà¦¸":2448,"à¦Ńà¦ª":2449,"à¦¦à¦¨à¦²":2450,"à¦°à¦¹à¦£à¦¯":2451,"à¦ªà¦¦à¦¸":2452,"à¦ıà¦ķà¦¹":2453,"à¦Ĺà¦£à¦¨":2454,"à¦¥à¦¬à¦Ľà¦°":2455,"à¦ıà¦¤à¦¦":2456,"à¦°à¦Ĩà¦ĺ":2457,"à¦°à¦¥à¦®à¦®":2458,"à¦ªà¦Ĺà¦ŀ":2459,"à¦Ľà¦Ł":2460,"à§İà¦¨":2461,"à¦Ĩà¦ĩà¦¬":2462,"à¦°à¦Ĩà¦¨à¦¤":2463,"à¦ķà¦ħà¦Ń":2464,"à¦Łà¦ĵ":2465,"à¦¨à¦ķà¦¥":2466,"à¦°à¦ķà¦ķ":2467,"à¦²à¦Ĩà¦¬":2468,"à¦Ĺà¦²à¦ķ":2469,"à¦ıà¦ĸà¦¨à¦ĵ":2470,"à¦¯à¦¤à¦¥":2471,"à¦ĩà¦Łà¦¸":2472,"à¦¦à¦Ĩ":2473,"à¦°à¦ħà¦Ļ":2474,"à¦¨à¦Ĩà¦ĵà§Ł":2475,"à¦°à¦®à¦¤à¦¬":2476,"à§ľà¦¦":2477,"à¦°à¦¯à¦¤":2478,"à¦°à¦®à¦°à¦¦":2479,"à¦Ļà¦ļ":2480,"à¦°à¦īà¦ªà¦°à¦¨":2481,"à¦®à¦ķà¦®":2482,"à¦«à¦ª":2483,"à§®à§®à§¦à§§à§Ń":2484,"à§Łà¦®à¦¹":2485,"à¦Łà¦¹à¦¬":2486,"à¦¸à¦®à§Łà¦ķ":2487,"à¦Łà¦ħà¦¨":2488,"à¦®à¦¨à¦¦":2489,"à¦łà¦¬":2490,"à§¦à§¨":2491,"à¦Ĩà¦ī":2492,"à¦¡à¦ħ":2493,"à¦Ĺà¦£à¦¤":2494,"à¦ĩà¦Ĩà¦¬":2495,"à¦°à¦¤à¦¦":2496,"à¦¸à¦¹à¦¨":2497,"à¦¡à¦Łà¦ķà¦®":2498,"à¦ĵà¦ĩà¦¬":2499,"à¦¸à¦¬à¦ª":2500,"à¦ķà¦¬à¦¨":2501,"à¦²à§ľ":2502,"à¦īà¦¥":2503,"à¦¨à¦ıà¦ķà¦ľà¦¨":2504,"à¦¸à¦ķà¦°à¦²":2505,"à¦ıà§ľ":2506,"à¦°à¦īà¦ªà¦¹":2507,"à¦¸à¦¹à¦¦":2508,"à¦¹à¦¬à¦²":2509,"à¦²à¦ķà¦°à¦¤":2510,"à¦¤à¦¬à¦¤":2511,"à¦°à¦¤à¦®":2512,"à¦ĩà¦īà¦ı":2513,"à¦Ľà¦¦à¦ľ":2514,"à¦ĩà¦®à¦ª":2515,"à¦Ľà¦ª":2516,"à¦¬à¦ķà¦ķ":2517,"à¦ľà¦ķà¦°à¦¬":2518,"à¦Ĩà¦ĩà¦¨à¦¬":2519,"à¦ĵà¦ħ":2520,"à¦«à¦Ĺ":2521,"à¦°à¦ľà¦¨à¦ķ":2522,"à¦¯à¦Ĩà¦¬":2523,"à¦ĵà¦Ĩà¦²":2524,"à¦®à¦¨à¦Ĺ":2525,"à¦¤à¦ĵà¦ª":2526,"à¦ĩà¦īà¦ľ":2527,"à¦¤à¦®à¦ª":2528,"à¦¨à¦Ľà¦¬":2529,"à§Łà¦¨à¦¤":2530,"à¦¯à¦ľà¦¨":2531,"à¦ĵà¦¬à¦²":2532,"à¦¬à¦¸à¦¨":2533,"à¦°à¦¥à¦®à¦ķ":2534,"à¦Ĩà¦ĩà¦ľ":2535,"à¦¯à¦ĵà¦¸":2536,"à¦¤à¦¬à¦Ľ":2537,"à¦¤à¦¨à¦¦":2538,"à¦²à¦ķà¦¸":2539,"à§ĩà¦ĥ":2540,"à¦²à¦ĵà¦¯":2541,"à¦ĩà¦²à¦ª":2542,"à¦¦à¦°à¦®":2543,"à§ªà§¦à§¦":2544,"à¦·à¦¹à¦²":2545,"à¦Ĩà¦°à¦¯":2546,"à¦²à¦ı":2547,"à§Ńà§Ń":2548,"à¦¨à¦ħà¦ªà¦°":2549,"à¦īà¦ľà¦Ł":2550,"à§İà¦®":2551,"à¦ķà¦īà¦¨":2552,"à¦ªà¦«":2553,"à¦ıà¦ķà¦¸à¦Ļ":2554,"à¦Ĺà¦¤à¦¦":2555,"à§®à§®":2556,"à¦°à¦ªà¦°à¦¨":2557,"à¦¬à¦°à¦ªà¦°":2558,"à§Łà¦Ĩà¦°":2559,"à¦Ĩà¦¡":2560,"à¦¨à¦¬à¦Ľà¦°":2561,"à¦ıà¦®à¦¸":2562,"à¦·à¦ļ":2563,"à§§à§§à§¦":2564,"à¦°à¦¹à¦£à¦ķà¦°à¦¤":2565,"à¦®à§Łà¦®à¦¨à¦¸":2566,"à§Łà¦ıà¦¸":2567,"à¦ķà¦®à¦¹":2568,"à¦Ĩà¦°à¦ĵà¦¦":2569,"à¦ľà¦ªà¦°":2570,"à¦ĩà¦ļà¦²":2571,"à¦Łà¦ħà¦«":2572,"à¦ĩà¦²à¦¨":2573,"à¦¥à¦ķà¦¦":2574,"à¦¸à¦¹à¦ħà¦¨":2575,"à¦¥à¦¶":2576,"à¦°à¦¨à¦Ĺ":2577,"à¦¬à¦¨à¦§":2578,"à¦ķà¦¤à¦¥":2579,"à¦°à¦«à¦¤":2580,"à¦Ĺà¦¤à¦¸":2581,"à¦¨à¦ĩà¦īà¦¨":2582,"à¦ķà¦ĩà¦¤":2583,"à¦ķà¦¨à¦Ł":2584,"à¦¦à¦Ĩà¦¹à¦®":2585,"à¦·à¦ķà¦¨":2586,"à¦Ĩà¦¶à¦°":2587,"à¦°à¦®à¦¤à¦¨":2588,"à¦¨à¦ħà¦¨à¦²":2589,"à¦¦à¦īà¦²":2590,"à¦°à¦¬à¦£à¦¤":2591,"à¦ĩà¦¨à¦¤":2592,"à¦°à¦®à¦¬":2593,"à¦«à¦²à¦ª":2594,"à¦°à¦ıà¦ķà¦¸":2595,"à¦¨à¦°à§Ł":2596,"à¦¹à¦ķà¦¦":2597,"à¦¸à¦ĩà¦¬à¦¨":2598,"à¦¶à¦¨à¦Ł":2599,"à¦®à¦¦à¦®":2600,"à¦§à¦²":2601,"à¦ĵà¦¹à¦¤":2602,"à¦ķà¦¨à¦«":2603,"à¦¸à¦¨à¦ķ":2604,"à¦°à¦ľà¦²":2605,"à¦¬à¦ıà¦¬":2606,"à§Ńà§¬":2607,"à¦²à¦Ĺà¦¸":2608,"à¦ľà§Łà¦ª":2609,"à¦ıà¦ķà¦ĩà¦¸à¦Ļ":2610,"à¦²à¦°à¦¹":2611,"à¦¬à¦¸à¦īà¦ªà¦²à¦ķ":2612,"à¦²à¦°à¦ļà¦¨":2613,"à§ģà¦Ĥ":2614,"à¦¤à¦°à§Ł":2615,"à¦°à¦«à¦¯":2616,"à¦¹à§Łà¦ıà¦¬":2617,"à¦ªà¦¨à¦¸":2618,"à¦Ŀà¦¡":2619,"à¦Ĩà¦°à¦¶":2620,"à¦īà¦ªà¦²à¦¬":2621,"à¦·à¦£à¦¨":2622,"à§¨à§¦à§¦à§Ń":2623,"à¦¨à¦ħà¦ª":2624,"à¦®à¦®à¦¹":2625,"à¦¦à¦®à¦¨":2626,"à¦¨à§Łà¦¨à¦ªà¦¤":2627,"à¦·à¦£à¦¬":2628,"à¦ĩà¦§à¦°":2629,"à¦°à¦¸à¦®à¦¨":2630,"à¦«à¦®":2631,"à§§à§«à§¦":2632,"à¦°à¦ªà¦²":2633,"à¦°à¦ıà¦ª":2634,"à¦ĵà¦®à¦°":2635,"à¦°à¦°à¦¬":2636,"à§§à§§à§¨":2637,"à¦°à¦ķà¦£":2638,"à¦ıà¦ĸà¦¨à¦¤":2639,"à¦§à¦Ĺ":2640,"à¦¬à¦ķà¦®":2641,"à¦¯à¦¤à¦Ł":2642,"à¦ĩà¦ıà¦¸":2643,"à¦°à¦ķà¦°à¦£":2644,"à§İà¦¦":2645,"à¦®à¦¤à¦¦":2646,"à¦¸à¦°à¦¹":2647,"à¦ªà¦Ľ":2648,"à¦ĩà¦ħ":2649,"à¦ĩà¦īà¦¤":2650,"à¦·à¦ĸà¦¬à¦°":2651,"à¦ĩà¦¸à¦®à§Ł":2652,"à¦£à¦ļ":2653,"à¦¦à¦ķà¦ĵà¦ª":2654,"à¦°à¦¨à¦¦":2655,"à¦ıà¦ĩà¦¸à¦®à§Ł":2656,"à¦īà¦ľà¦ª":2657,"à¦īà¦ĩà§Ł":2658,"à¦«à¦ľà¦²":2659,"à¦łà¦¸":2660,"à¦¬à¦ħà¦¨":2661,"à¦¨à¦ħà¦¥à¦¬":2662,"à¦¸à¦īà¦¦":2663,"à¦²à¦¹à¦ķà¦®":2664,"à¦¨à¦¸à¦®à¦¯":2665,"à¦ıà¦®à¦ķ":2666,"à¦¬à¦ĩà¦¬à¦¨":2667,"à¦¦à¦ħà¦¨":2668,"à¦°à¦¨à¦¨":2669,"à§¨à§¦à§¦à§«":2670,"à¦Ĩà¦ªà¦¤":2671,"à¦¦à¦ķà¦ľ":2672,"à§Łà¦ªà¦¤":2673,"à¦¦à¦¨à¦®":2674,"à¦¯à¦§":2675,"à¦°à¦¬à¦Ļ":2676,"à¦¬à¦°à¦¶":2677,"à¦¨à¦Ĩà¦¤":2678,"à¦¯à¦ķà¦®":2679,"à¦¥à¦¥":2680,"à¦¬à¦²à¦¸":2681,"à§ľà¦ķà¦°":2682,"à¦®à¦¨à¦Ł":2683,"à¦ĩà¦¹à§Ł":2684,"à¦ĩà¦Łà¦¦":2685,"à¦¤à¦¹à¦ĵà¦¯":2686,"à¦¥à¦Ń":2687,"à¦£à¦¯":2688,"à¦°à¦¹à¦£à¦ķ":2689,"à¦ªà§Łà¦¸":2690,"à¦īà¦¹":2691,"à¦Łà¦ĩ":2692,"à§¦à§¦à§¦à§¦":2693,"à¦ıà¦ķà¦¯":2694,"à¦łà¦¨":2695,"à¦°à¦ħà¦¶":2696,"à§Łà¦¤à¦¥":2697,"à¦¨à¦ªà¦Ľà¦¨":2698,"à¦¬à¦ıà¦ķà¦Ł":2699,"à¦¦à¦ĵ":2700,"à¦ıà¦¤à¦Ł":2701,"à¦¬à¦²à¦¨":2702,"à¦¯à¦®à¦¤":2703,"à§§à§¨à§§":2704,"à¦ľà¦¨à¦ıà¦¬":2705,"à¦°à¦¥à¦®à¦Ĩà¦²":2706,"à¦·à¦ķà¦ķ":2707,"à§ľà¦®":2708,"à¦°à¦¤à¦°à¦«":2709,"à¦°à¦ıà¦¨":2710,"à¦°à¦īà§İà¦ª":2711,"à§Łà¦¦à¦²":2712,"à¦ĩà¦ķà¦¥":2713,"à¦īà¦łà¦¬":2714,"à¦°à¦¸à¦¹à¦¸à¦Ń":2715,"à¦¨à¦«à¦°":2716,"à¦Ĩà¦°à¦Ĩà¦®":2717,"à¦¬à¦°à¦¡":2718,"à¦¯à¦¬à¦²":2719,"à¦·à§ľà¦¯à¦¨":2720,"à¦ķà¦°à¦¦":2721,"à§°":2722,"à¦§à¦¹":2723,"à¦ĵà¦Ĩà¦ªà¦¨":2724,"à§¬à§§":2725,"à¦£à¦ªà¦°":2726,"à¦īà¦Ńà¦¯":2727,"à¦ıà¦¹":2728,"à¦¤à¦¨à¦®":2729,"à¦¸à¦ķà¦®":2730,"à¦ľà¦Ĺà¦¤":2731,"à¦ıà¦ĩà¦ĺà¦Łà¦¨":2732,"à¦ķà¦¬à¦Ľ":2733,"à¦¯à¦ķà¦°à¦¬":2734,"à¦¤à¦¨à¦¨":2735,"à¦°à¦Īà¦¦":2736,"à¦¤à¦ķà¦°à¦Ľ":2737,"à¦¤à¦Ĩà¦°à¦¬":2738,"à¦¤à§İà¦ķ":2739,"à¦²à¦Ĺà¦²":2740,"à¦ĩà¦¨à¦¨":2741,"à¦¨à¦ıà¦ĩà¦¬":2742,"à¦¤à¦¨à¦¯":2743,"à¦¬à¦ĩà¦¬":2744,"à¦°à¦¸à¦ª":2745,"à¦¬à¦¨à¦¨":2746,"à¦°à¦«à¦°à¦®":2747,"à¦¸à¦ħà¦¨":2748,"à¦²à¦ķà¦¨":2749,"à¦°à¦ĩà¦ķ":2750,"à¦°à¦°à§Ł":2751,"à¦¶à¦¡":2752,"à¦°à¦Ĩà¦®à¦²":2753,"à¦ķà¦ķà¦®":2754,"à¦°à¦Ĩà¦ļ":2755,"à¦°à¦Ĭà¦°":2756,"à¦¨à¦ĵà¦¨":2757,"à¦®à¦¦à¦¨":2758,"à¦ĩà¦¸à¦¨":2759,"à¦ķà¦ĺ":2760,"à¦¸à¦¬à¦¶":2761,"à¦ªà¦ĸ":2762,"à§Łà¦Ĩà¦¬":2763,"à¦¶à¦ķà¦¦":2764,"à¦°à¦ħà¦¡":2765,"à¦ķà¦°à¦¹":2766,"à¦¶à¦ķà¦°à¦²":2767,"à¦·à¦¸à¦®":2768,"à¦¨à¦Ĺà¦¤":2769,"à§®à§«":2770,"à¦ĩà¦¨à¦ķà¦°":2771,"à¦Īà¦¸":2772,"à¦«à¦¸à¦²":2773,"à¦Ĩà¦ĩà§Ł":2774,"à¦¸à¦¬à¦¦":2775,"à¦¯à¦ķà¦²":2776,"à§Ĥà¦ģ":2777,"à¦Ĩà¦°à¦ľ":2778,"à¦¨à¦ıà¦°à¦ª":2779,"à¦§à¦ĺ":2780,"à¦®à¦¨à¦ª":2781,"à¦®à¦ħ":2782,"à¦¸à¦¨à¦ª":2783,"à¦¸à¦«à¦°":2784,"à¦°à¦ĵà¦¦":2785,"à¦°à¦ħà¦®":2786,"à¦¯à¦ĸà¦¨à¦¤":2787,"à¦¸à¦ı":2788,"à¦°à¦ªà¦ł":2789,"à¦¤à¦ĸà¦¨à¦¤":2790,"à¦¸à¦¬à¦²":2791,"à¦£à¦¬à¦Ļ":2792,"à¦¤à¦°à¦ľ":2793,"à¦£à¦¸à¦®":2794,"à¦ĩà¦¨à¦ľ":2795,"à¦°à¦ıà¦ĩà¦ļ":2796,"à¦ĩà¦¹à¦²":2797,"à¦¨à¦ħà¦¬":2798,"à¦¨à¦°à¦¬":2799,"à¦Ĩà¦°à¦ĵà¦ľ":2800,"à¦īà¦ĩà§Łà¦°":2801,"à¦°à¦ħà¦¨à¦²":2802,"à¦ıà¦°à¦«à¦²":2803,"à¦°à¦īà§İà¦¸":2804,"à¦ħà¦ªà¦¬":2805,"à¦²à¦¹à¦ĵà§Ł":2806,"à¦¨à¦īà¦²":2807,"à¦§à¦¹à¦¯":2808,"à¦°à¦®à¦ªà¦°":2809,"à§ľà¦ª":2810,"à¦ĩà¦¬à¦ķà¦°":2811,"à¦°à¦īà¦ªà¦¦":2812,"à¦·à§Łà¦Ĺ":2813,"à¦Ĩà¦ľà¦¸":2814,"à¦Łà¦ı":2815,"à¦¤à¦ķà¦¬":2816,"à¦¨à¦Ĺà¦°à¦¬":2817,"à¦ªà¦ħà¦¨":2818,"à¦łà¦¤":2819,"à¦ľà¦¨à¦ķà¦¨":2820,"à¦¸à¦¬à¦¸":2821,"à¦°à¦¯à¦¥":2822,"à¦¹à¦Ń":2823,"à¦ķà¦¨à¦¸":2824,"à§Łà¦Ĩà¦Ľ":2825,"à¦¸à§ľà¦ķà¦¦":2826,"à¦ĸà¦¬à¦°à¦¦":2827,"à¦Ĺà¦²à¦ª":2828,"à¦§à¦Ľ":2829,"à¦ĩà¦¨à¦°":2830,"à¦ĩà¦§":2831,"à§¨à§¦à§¦à§ª":2832,"à§¯à§«":2833,"à¦Ĺà¦ıà¦¬":2834,"à¦¨à¦¨à¦®":2835,"à¦ĩà¦¨à¦¶":2836,"à¦ĩà¦¸à¦ª":2837,"à¦ĩà¦¨à¦Ł":2838,"à¦ļà¦¹":2839,"à¦¨à¦¬à¦ķ":2840,"à¦²à¦¤à¦ķ":2841,"à¦łà¦¦":2842,"à¦²à¦¤à¦ª":2843,"à¦¡à¦¯":2844,"à¦¯à¦ªà¦¦":2845,"à¦¬à¦ŀ":2846,"à¦ķà¦ªà¦¦":2847,"à¦ľà¦Ĩà¦ªà¦¨":2848,"à¦°à¦¦à¦°à¦ľ":2849,"à¦ıà¦¸à¦ıà¦«":2850,"à¦ķà¦ĵà¦¸":2851,"à¦²à¦¨à¦¸":2852,"à¦ľà¦ıà¦¬":2853,"à¦·à§Łà¦¨":2854,"à¦ıà¦ķà¦¶":2855,"à¦ľà¦¨à¦¡":2856,"à¦ıà¦ĩà¦¶":2857,"à¦¹à§Łà¦¤à¦¬":2858,"à¦¸à¦¹à¦®":2859,"à¦¦à¦¨à¦ĵà¦¬":2860,"à¦ªà¦£à¦ķà¦°":2861,"à¦ħà¦¹":2862,"à¦ĩà¦®à¦¹":2863,"à¦¹à¦Ł":2864,"à¦¬à¦°à¦ľ":2865,"à§Łà¦ªà§ľ":2866,"à§¬à§¨":2867,"à¦¨à¦ıà¦¨":2868,"à¦°à¦ªà¦ŀ":2869,"à¦·à¦Ľ":2870,"à¦ĵà¦ħà¦Ń":2871,"à¦¹à¦¨à¦ķ":2872,"à¦°à¦®à¦ķ":2873,"à¦ķà¦¡à¦ĩà¦¨":2874,"à¦°à¦Ĩà§ľ":2875,"à§Łà¦Ĩà¦Ĺ":2876,"à¦Ĺà¦¸à¦Ń":2877,"à¦¡à¦ļ":2878,"à¦Ĺà¦£à¦ªà¦°":2879,"à¦°à¦Ĩà¦ĩà¦¨à¦ľ":2880,"à¦®à¦ĩà¦®":2881,"à¦§à¦¯":2882,"à¦ĩà¦¸à¦¹":2883,"à¦ıà¦ķà¦ľà¦¨à¦ķ":2884,"à¦¦à¦²à¦ķ":2885,"à¦¸à¦¹à¦Ĩà¦Łà¦ķ":2886,"à¦¨à¦¯à¦¥":2887,"à¦²à¦¸à¦¬":2888,"à¦Łà¦ıà¦ķà¦Ł":2889,"à¦¬à¦¨à¦¸":2890,"à¦ĺà¦®":2891,"à¦¦à¦¨à¦ĸ":2892,"à¦¯à¦Ľà¦¬":2893,"à¦ļà¦¨à¦ķ":2894,"à¦ıà¦ĩà¦¡":2895,"à¦ĩà¦Ĩà¦¸":2896,"à§İà¦ªà¦°":2897,"à§¯à§Ń":2898,"à¦ħà¦ªà¦®":2899,"à¦°à¦ĸà¦¬à¦°à¦ª":2900,"à¦°à¦Ĩà¦°à¦ķ":2901,"à¦ľà¦¸à¦¦":2902,"à¦¤à¦°à¦ĵ":2903,"à§Łà¦ķà¦°à¦²":2904,"à¦ķà¦ħà¦§":2905,"à¦¹à¦¤à¦¬":2906,"à¦¨à¦¸à¦¤":2907,"à¦¡à¦īà¦¤":2908,"à¦¨à¦ªà¦¶":2909,"à¦¯à¦Ĩà¦®à¦°":2910,"à¦ıà¦ĩà¦§à¦°à¦¨":2911,"à¦¤à¦Ĩà¦°":2912,"à¦°à¦¸à¦«":2913,"à¦ķà¦¬à¦°à¦¸":2914,"à¦ıà¦ĩà¦«":2915,"à¦¤à¦¸à¦°":2916,"à¦ħà¦ļ":2917,"à¦Ĺà¦ªà¦¤":2918,"à¦ĵà¦Ĩà¦Ľ":2919,"à¦¤à¦Ĩà¦¸":2920,"à¦°à¦ħà¦ľ":2921,"à¦¤à¦¹à§Łà¦¨":2922,"à¦°à¦®à¦£à¦ķ":2923,"à¦°à¦ıà¦ķà¦¨":2924,"à¦¯à¦ĵà¦¯":2925,"à¦¤à¦°à¦¥":2926,"à§Łà¦Ĩà¦®à¦°":2927,"à¦ĸà¦¡":2928,"à§Łà¦¹à§Ł":2929,"à¦¯à¦¤à¦¦":2930,"à§¨à§¦à§¦à§©":2931,"à¦ķà¦¹à¦¤":2932,"à¦Ĩà¦ĩà¦¨à¦®à¦¨":2933,"à¦¨à¦ķà¦¶":2934,"à§ĩà¦Ĥ":2935,"à¦¯à¦ĵà¦¬":2936,"à¦¯à¦Ĩà¦¨":2937,"à¦ļà¦¥":2938,"à¦¨à¦®à¦ľ":2939,"à¦¯à¦ķà¦®à¦ª":2940,"à¦ĸà¦¨à¦ķ":2941,"à¦¸à¦¨à¦¬":2942,"à§Łà¦¬à¦¸":2943,"à¦°à¦Ĩà¦¹à¦¬":2944,"à¦ħà¦ªà¦Ł":2945,"à¦ĸà¦¥":2946,"à¦²à§Łà¦¥":2947,"à¦°à¦£à¦Ń":2948,"à¦Ĩà¦ĩà¦ķ":2949,"à¦¬à¦°à¦¸à¦ķ":2950,"à¦ıà¦¸à¦ķ":2951,"à¦Ńà¦²":2952,"à¦¶à¦¨à¦®":2953,"à¦ĩà¦Ńà¦ķà¦°":2954,"à§Łà¦¶à¦°":2955,"à§¨à§©à§¦":2956,"à¦Łà¦ıà¦ķ":2957,"à¦£à¦®à¦¨":2958,"à¦¼à¦Ĥ":2959,"à¦¹à¦¤à¦¦":2960,"à¦ķà¦ı":2961,"à¦£à¦ľ":2962,"à¦¨à¦Ĩà¦¶":2963,"à¦¬à¦°à¦£à¦ķà¦°":2964,"à¦¸à¦¬à¦¸à¦®à¦¯":2965,"à¦¶à¦ķà¦¶":2966,"à¦¬à¦ĩà¦Ł":2967,"à¦¨à¦®à¦¤":2968,"à¦Ŀà¦²":2969,"à¦¦à¦°à¦¸":2970,"à¦¨à¦¸à¦Ļ":2971,"à¦ļà¦£":2972,"à¦®à¦°à¦¤":2973,"à¦¤à¦®à¦ľà¦¨":2974,"à¦¬à¦ĩà§Ł":2975,"à¦Ĩà¦ķà¦¬":2976,"à¦°à¦¸à¦®à§Łà¦®":2977,"à¦°à¦ªà¦°à¦¬à¦°":2978,"à¦¨à¦ļà¦Ł":2979,"à¦·à¦ĸà¦¬à¦°à¦¬":2980,"à¦¨à§ľ":2981,"à¦¹à¦¸à¦°à¦ķ":2982,"à§¬à§¯à§¯":2983,"à¦°à¦¬à¦Ľà¦°":2984,"à¦¬à¦ķà¦¦":2985,"à§Łà¦ķà¦¬":2986,"à¦°à¦ļà¦¤":2987,"à§ľà¦¨":2988,"à¦°à¦£à¦¹":2989,"à¦¦à¦¨à¦ķà¦°à¦¤":2990,"à¦ķà¦¸à¦¬":2991,"à¦®à¦®à¦¨":2992,"à¦°à¦Ĩà¦ª":2993,"à¦°à¦ıà¦Ĺ":2994,"à¦°à¦Ĺà¦Ń":2995,"à¦·à¦²":2996,"à¦īà¦·":2997,"à¦ªà¦¸à¦®":2998,"à¦¬à¦Ĩà¦®":2999,"à¦¦à¦ªà¦¤":3000,"à¦ļà¦®à§İà¦ķ":3001,"à¦ªà¦ķà¦®":3002,"à¦Ńà¦°à¦¶":3003,"à¦¨à¦¬à¦¬":3004,"à¦¤à¦ĵà¦¬":3005,"à¦¨à¦¤à¦¨":3006,"à¦ķà¦¸à¦°à¦ķ":3007,"à¦¹à¦ĸ":3008,"à¦¶à¦ķà¦°à¦¬":3009,"à¦ķà¦Ĩà¦¨":3010,"à§Łà¦Ĺà¦ŀ":3011,"à¦¬à¦¸à¦¹à¦ľ":3012,"à¦¸à¦§à¦°":3013,"à¦ªà¦¨à¦ķ":3014,"à¦¸à¦¨à¦¦":3015,"à¦īà¦ĩà¦²":3016,"à¦®à¦¨à¦¯":3017,"à§¬à§©":3018,"à¦¯à¦¸à¦ļ":3019,"à¦¸à¦®à§Łà¦¬":3020,"à¦ĩà¦Ńà¦Ł":3021,"à¦¤à¦¬à¦¨":3022,"à¦¤à¦®à¦¤":3023,"à¦¨à¦ķà¦²à¦ķ":3024,"à¦®à¦Ĩà¦°à¦Ľ":3025,"à¦¸à¦¹à¦Ĺ":3026,"à¦Ńà¦ķà¦®à¦¨":3027,"à¦ªà¦°à¦ķ":3028,"à¦¦à¦²à¦Ł":3029,"à¦ķà¦ķà¦°à¦¤":3030,"à¦°à¦®à¦¡":3031,"à¦²à¦¨à¦ª":3032,"à¦Ĺà¦Ĩà¦¨":3033,"à¦¸à¦ĵà¦¯":3034,"à¦Ĩà¦¹à¦¸":3035,"à§¨à§¦à§¨à§§à§¦":3036,"à¦§à¦°à¦²":3037,"à¦¶à¦¤à¦ķ":3038,"à§Łà¦¦à¦«":3039,"à¦°à¦ĵà¦ªà¦°à¦¨":3040,"à¦ıà¦«à¦¸":3041,"à¦ķà¦¤à¦¬":3042,"à¦Łà¦¨à¦®":3043,"à¦£à¦Ł":3044,"à¦ıà¦°à¦ĩà¦®à¦§":3045,"à§¦à§¦à§¦":3046,"à¦¯à¦ıà¦Ł":3047,"à¦Ŀà¦ĸ":3048,"à¦¨à¦°à¦ķ":3049,"à§Łà¦ħà¦¸":3050,"à¦¨à¦¹à¦ĵà§Ł":3051,"à¦®à¦¹à§Ł":3052,"à¦²à¦¢":3053,"à¦ªà¦°à¦®":3054,"à¦¯à¦¤à¦¬":3055,"à¦¥à¦ł":3056,"à¦¦à¦ķà¦¨":3057,"à¦ıà¦ĸà¦¨à¦ª":3058,"à¦¤à¦®à¦®":3059,"à¦®à¦ħà¦¬à¦¸":3060,"à¦¬à¦¨à¦®":3061,"à¦¨à¦Ĩà¦¹à¦®à¦¦":3062,"à¦ľà¦ĵà¦ķ":3063,"à¦īà¦¶à¦¨à¦¶":3064,"à¦°à¦ľà§Ł":3065,"à¦¬à¦ĵà¦ª":3066,"à¦¤à¦Ĩà¦¬":3067,"à¦¨à¦ĵà¦¤":3068,"à¦¸à¦Ĩà¦®":3069,"à¦°à¦ľà¦¨à¦Ĺà¦£":3070,"à¦¬à¦ĩà¦¸":3071,"à¦ħà¦¬à¦²à¦®":3072,"à¦²à¦ķà¦¦":3073,"à¦°à¦ĸà¦°à¦ļ":3074,"à¦¨à¦ĩà¦²":3075,"à¦°à¦ĩà§Ł":3076,"à¦ĩà¦ħà¦Ń":3077,"à¦°à¦ªà¦°à¦¶":3078,"à¦ĩà¦Łà¦Ł":3079,"à¦ľà¦¨à¦¯":3080,"à¦¶à¦¸à¦¦à¦¸":3081,"à¦¨à¦ľà¦°à¦¦":3082,"à¦¬à¦°à¦Ĺ":3083,"à¦ħà¦¯":3084,"à¦°à¦¯à¦¨":3085,"à¦Łà¦¦à¦²":3086,"à§Łà¦¨à¦¸":3087,"à¦¹à§Łà¦¦":3088,"à¦ıà¦ĩà¦¹":3089,"à¦ķà¦ĵà¦®":3090,"à¦ıà¦®à¦ıà¦®":3091,"à¦²à¦¨à¦¬":3092,"à¦ĸà¦¶":3093,"à¦ľà¦¨à¦ķà¦°à¦¤":3094,"à§§à§ªà§¨à§®":3095,"à¦īà¦ĩà¦¸":3096,"à¦Ĩà¦°à¦ĵà¦ħà¦¨":3097,"à¦¬à¦²à¦ķ":3098,"à¦Ĩà¦ĩà¦¨à¦ª":3099,"à¦°à¦ıà¦¦":3100,"à¦¸à¦¹à¦¤":3101,"à¦¤à¦¸à¦¨":3102,"à¦¸à¦ĩà¦®":3103,"à¦¶à¦ıà¦ķ":3104,"à¦Ĺà¦¤à¦°":3105,"à¦ĸà¦¬à¦°à¦¨":3106,"à¦ªà¦¦à¦¬":3107,"à¦ľà¦¨à¦Ľ":3108,"à¦īà¦¶":3109,"à¦ĩà¦Łà¦Ĺ":3110,"à§İà¦«":3111,"à¦°à¦ħà¦¬à¦¦":3112,"à¦°à¦ĵà¦Ń":3113,"à¦ķà¦ħà¦¸":3114,"à¦¯à¦īà§İà¦ª":3115,"à¦ķà¦īà¦ª":3116,"à¦¥à¦¹à¦²":3117,"à¦Łà¦ķà¦ª":3118,"à¦®à¦¨à¦®":3119,"à§ĩà§Ĺà¦ģ":3120,"à¦ķà¦ĵà¦¬":3121,"à¦°à¦Ĩà¦¦à¦°":3122,"à§Łà¦¤à¦ª":3123,"à¦ıà¦ķà¦ĩà¦¸":3124,"à¦¨à¦ıà¦ĩà¦¸à¦®à¦¯":3125,"à¦°à¦īà¦ªà¦¯":3126,"à¦¤à¦°à¦Ĩ":3127,"à¦ļà¦Ĺ":3128,"à¦¨à¦ĵà¦¦":3129,"à¦¶à¦®à¦¨":3130,"à¦īà¦¯":3131,"à¦°à¦¨à¦ľ":3132,"à¦·à¦£à¦®":3133,"à¦¯à¦īà¦¦":3134,"à¦¹à¦ķà¦°à¦¤":3135,"à¦°à¦¸à¦ŀ":3136,"à¦ĵà¦Ĩà¦¬":3137,"à¦°à¦īà¦ªà¦°à¦ķ":3138,"à¦·à¦ķà¦¸":3139,"à¦ľà¦¨à¦ľ":3140,"à¦¤à¦¸à¦Ń":3141,"à§Łà¦ı":3142,"à¦ĵà¦ĩà¦¨":3143,"à¦¦à¦ķà¦ª":3144,"à¦Ĺà¦®à¦ĸ":3145,"à¦§à¦¨à¦¬":3146,"à¦¤à¦ıà¦°à¦¸":3147,"à¦ıà¦ķà¦²":3148,"à¦ķà¦¨à¦Ń":3149,"à¦¡à¦ªà¦°":3150,"à¦ıà¦ķà¦ľà¦¨à¦¨":3151,"à¦¬à¦¨à¦°":3152,"à¦²à¦®à¦¹":3153,"à¦Ĩà¦ĩà¦ıà¦¸":3154,"à¦¹à¦¸à¦®":3155,"à¦°à¦ħà¦²":3156,"à¦°à¦¹à¦¨":3157,"à¦Ĩà¦¹à¦¤à¦¹à§Ł":3158,"à¦Ĺà¦¤à¦¬à¦Ľà¦°":3159,"à¦ļà¦Ĺà§ľ":3160,"à¦°à¦²à¦ķà¦¡":3161,"à¦²à¦ķà¦ªà¦²à¦ķà¦ª":3162,"à¦°à¦¸à¦¬à¦ķ":3163,"à¦°à¦Ĩà¦Ļ":3164,"à¦°à¦¶à¦¤":3165,"à¦·à§Łà¦Ń":3166,"à¦ķà¦Ĩà¦ª":3167,"à¦¨à¦¨à¦¸":3168,"à¦·à¦ķà¦®":3169,"à¦Īà¦¦à¦Ĺ":3170,"à¦ķà¦Ĩà¦¬":3171,"à¦²à¦Ĩà¦Ľ":3172,"à§®à§©":3173,"à¦·à¦ĸ":3174,"à¦īà¦ľà¦°":3175,"à¦²à¦¨à¦ķà¦°à¦Ľ":3176,"à¦Ĺà¦ķà¦°à¦²":3177,"à¦¯à¦¸à¦ķà¦²":3178,"à¦Ĩà¦¶à¦Ļ":3179,"à¦¡à¦ı":3180,"à¦®à§İà¦¸":3181,"à¦°à¦¶à¦¹à¦°":3182,"à¦Ĩà¦¸à¦°":3183,"à§®à§®à§¦à§§à§Ńà§¨à§¯":3184,"à¦¤à¦¸à¦°à¦ķ":3185,"à¦ıà¦¸à¦¬à¦ķà¦¥":3186,"à¦¦à¦ªà¦°":3187,"à¦ĩà¦²à¦Ĺ":3188,"à¦°à¦ªà¦°à¦ıà¦ķ":3189,"à¦£à¦Ĩà¦¦":3190,"à¦Ĩà¦²à¦¬":3191,"à¦°à¦īà¦ªà¦°à¦¹":3192,"à¦°à¦¸à¦®à§Łà¦ª":3193,"à¦°à¦®à¦¸à¦ľ":3194,"à¦°à¦īà¦ªà¦¨":3195,"à¦·à¦ıà¦¬":3196,"à¦¬à¦īà¦¦":3197,"à¦ĸà¦¬à¦°à¦¸":3198,"à§®à§®à§¦à§¨à§®à§ªà§©":3199,"à¦®à¦ĩ":3200,"à§Łà¦ľà¦¨":3201,"à§Łà¦ħà¦§":3202,"à¦ķà¦¸à¦¨":3203,"à¦¨à¦ħà¦Ł":3204,"à¦ļà¦ľ":3205,"à¦ĩà¦¬à¦Ľ":3206,"à§İà¦ľ":3207,"à¦¯à¦¬à¦¦":3208,"à¦¦à¦«à¦¤à¦°":3209,"à¦¦à¦Ĩà¦¬":3210,"à¦§à¦¨à¦¸":3211,"à§¦à§Ńà§¬à§¯à§¯":3212,"à§®à§®à§¦à§§à§Ńà§¨à§¯à§¦à§Ńà§¬à§¯à§¯":3213,"à¦·à¦ķà¦¥":3214,"à¦¸à¦¬à¦Ĺ":3215,"à¦«à¦²à¦¨":3216,"à¦¦à¦°à¦¦":3217,"à¦Ĩà¦ĩà¦¨à¦¸":3218,"à¦¨à¦§à¦¨":3219,"à§Łà¦¬à¦¨":3220,"à¦Łà¦¸à¦°":3221,"à¦¤à¦¬à¦¸":3222,"à¦¤à¦¸à¦²":3223,"à¦ªà¦ķà¦¥":3224,"à¦ķà¦¤à¦ķ":3225,"à¦¨à¦ıà¦®à¦ª":3226,"à¦Ĩà¦ļà¦°à¦£":3227,"à¦Łà¦¨à¦ľ":3228,"à§®à§ª":3229,"à¦¦à¦°à¦ª":3230,"à¦Ĺà¦ħà¦¨":3231,"à¦ĵà¦ĩà¦¦":3232,"à¦®à§Łà¦¦":3233,"à¦ªà¦°à¦¸":3234,"à¦¶à¦ļà¦¨":3235,"à¦ªà¦¨à¦¦":3236,"à¦·à¦ķà¦¤":3237,"à¦ĵà¦ķà¦®":3238,"à¦°à¦¬à¦Ľà¦°à¦¬à¦Ľà¦°à¦¬à¦Ľà¦°à¦¬à¦Ľ":3239,"à¦ķà¦Ĩà¦ªà¦¨":3240,"à¦£à¦ľà§Łà¦¨":3241,"à¦°à¦°à¦«":3242,"à¦²à¦¤à¦¶":3243,"à¦¬à¦ĩà¦®":3244,"à§Ģà¦ĥ":3245,"à¦Ĩà¦°à¦¹":3246,"à¦«à¦°à¦®":3247,"à¦°à¦ľà¦¨à¦¸":3248,"à¦®à¦¨à¦¤":3249,"à¦¨à¦Ŀ":3250,"à§¯à§¨à§¦à§¨à§§":3251,"à¦łà¦²":3252,"à¦ŀà¦°":3253,"à¦¨à¦ıà¦°à¦Ĩà¦Ĺ":3254,"à¦®à¦¨à¦ķà¦°":3255,"à¦²à¦¹à¦¯":3256,"à¦²à¦ŀ":3257,"à¦Ĺà¦ķà¦°à¦¬":3258,"à¦Ĩà¦ŀ":3259,"à§Łà¦¨à¦ķ":3260,"à¦¨à¦ıà¦ĩà¦¸":3261,"à¦ªà¦ıà¦¬":3262,"à¦Ĺà¦£à¦ª":3263,"à¦¶à¦¨à¦Ĺ":3264,"à¦Łà¦ĩà¦¤":3265,"à¦§à¦¨à¦ķ":3266,"à¦łà¦Ń":3267,"à¦¬à¦¸à¦²":3268,"à§¯à§®à§¨à§ªà§¦à§¬":3269,"à¦«à¦¬":3270,"à¦¯à¦¸à¦¬":3271,"à¦°à¦Ĩà¦ľà¦ķ":3272,"à¦®à§Łà¦¸à¦Ń":3273,"à¦¨à¦¤à¦®":3274,"à¦ĺà¦¸":3275,"à¦¤à¦ķà¦²":3276,"à¦¹à¦ħà¦¨":3277,"à¦°à¦ķà¦¯":3278,"à¦°à¦ªà¦°à¦ĩ":3279,"à¦ĩà¦ľà¦¡à¦ıà¦¬":3280,"à¦¨à§Łà¦ķà¦°":3281,"à¦¨à¦īà§İà¦ª":3282,"à¦ķà¦¤à¦¦":3283,"à¦ıà¦ķà¦ľà¦¨à¦ª":3284,"à¦°à¦®à¦£à¦ķà¦°":3285,"à¦ĵà¦®à¦¹":3286,"à¦¤à¦ķà¦¥":3287,"à¦¨à¦ĵà¦¹":3288,"à¦¡à¦ĵà§Ł":3289,"à¦Ĩà¦²à¦®à¦Ĺ":3290,"à¦ıà¦ķà¦ľà¦¨à¦¸":3291,"à¦ĩà¦Łà¦ħà¦ªà¦Ł":3292,"à¦°à¦®à¦¯":3293,"à¦¹à¦¤à¦¨":3294,"à¦ıà¦¡à¦ľà¦ĵà¦ķ":3295,"à¦¤à¦¶à¦°":3296,"à¦¨à¦ļà¦°":3297,"à¦°à¦¸à¦ķà¦²à¦ķ":3298,"à¦¤à¦¸à¦®à§Ł":3299,"à¦Łà¦¹à¦²":3300,"à¦īà¦ªà¦ķà¦°à¦£":3301,"à¦°à¦īà¦ªà¦°à¦Ń":3302,"à¦¹à¦ĩà¦¤":3303,"à¦Ĩà¦ĩà¦ıà¦¸à¦¬":3304,"à¦ĵà¦ıà¦°à¦Ĺ":3305,"à¦·à¦¦à¦¸":3306,"à¦ªà¦¨à¦®":3307,"à¦®à¦¤à¦¹à¦ļ":3308,"à¦°à¦ıà¦¤":3309,"à¦°à¦ħà¦ŀ":3310,"à¦Ĭà¦°":3311,"à¦Ńà¦ľà¦¨à¦ķà¦¸":3312,"à¦¡à¦ķà¦°à¦¤":3313,"à¦°à¦ķà¦·":3314,"à¦ķà¦¤à¦Ĩà¦²":3315,"à¦¸à¦¦à¦°à¦īà¦ªà¦ľ":3316,"à¦¨à¦¬à¦Ľ":3317,"à¦²à§Łà¦ķ":3318,"à¦Łà¦¹à¦¯":3319,"à¦ķà¦°à¦¸":3320,"à¦¨à¦Ĩà§Ł":3321,"à¦°à¦¥à¦®à¦Ł":3322,"à¦®à¦¤à¦¨":3323,"à¦«à¦ķà¦°":3324,"à¦¬à¦ķà¦²":3325,"à§Łà¦®à¦ķ":3326,"à¦¤à¦Ĩà¦°à¦¬à¦Ĩà¦®":3327,"à¦¯à¦Ĩà¦Ľ":3328,"à§Ńà§ª":3329,"à¦·à¦£à¦¸":3330,"à¦°à¦īà¦ªà¦°à¦¬":3331,"à¦°à¦«à¦ľ":3332,"à¦®à¦¦à¦ª":3333,"à¦²à¦¨à¦¨":3334,"à¦°à¦ķà¦ł":3335,"à¦ķà¦¶à¦ķ":3336,"à¦ļà¦ķà¦¨":3337,"à¦·à¦ķà¦¬":3338,"à¦¸à¦Ĩà¦Ĺ":3339,"à¦¨à¦ĵà¦°":3340,"à¦¯à¦ļà¦Ł":3341,"à¦¶à§Łà¦¤":3342,"à¦¹à¦¥":3343,"à¦ĩà¦Łà¦®":3344,"à¦Ľà¦®":3345,"à¦ıà¦ķà¦ľ":3346,"à¦ıà¦®à¦ı":3347,"à¦°à¦¥à¦®à¦¶":3348,"à¦¹à¦ĩà¦¬":3349,"à¦¬à¦¤à¦¨à¦ķà¦°":3350,"à¦ķà¦°à¦¨":3351,"à¦²à¦¬à¦ķ":3352,"à¦¦à¦Ĺà¦ŀ":3353,"à¦Ĩà¦°à¦°":3354,"à¦°à¦ªà¦°à¦¯":3355,"à¦°à¦īà§İà¦ªà¦¤":3356,"à¦¤à¦¤à¦¬":3357,"à¦ľà¦¬à¦¸":3358,"à¦¯à¦®à¦ķ":3359,"à¦¯à¦ĩà¦¬":3360,"à¦ıà¦¸à¦¡":3361,"à¦ĩà¦¹à¦¤":3362,"à¦Ńà¦¬à¦ķà¦°":3363,"à¦ĩà¦Ļ":3364,"à¦°à¦°à¦¹à¦¸":3365,"à§Ńà§¯":3366,"à¦ħà¦¤à¦ıà¦¬":3367,"à¦®à¦¨à¦ľ":3368,"à¦¬à¦¬à¦²":3369,"à§Łà¦°à§Ł":3370,"à§Łà¦ħà¦¬à¦¸":3371,"à¦²à¦ķà¦¹":3372,"à¦¬à¦ĺ":3373,"à¦Łà¦°à¦¬":3374,"à¦Ĩà¦ĩà¦Ń":3375,"à¦ªà¦°à¦®à¦¤":3376,"à¦²à§Łà¦¬":3377,"à¦ĸà¦ľ":3378,"à¦¦à¦¤à¦¥":3379,"à¦¨à¦¤à¦°":3380,"à¦¤à¦°à¦Ľ":3381,"à¦ªà¦ķà¦²":3382,"à¦°à¦°à¦®":3383,"à¦ĩà¦¨à¦Ĺ":3384,"à¦ĩà¦ĵà¦¯":3385,"à¦ĩà¦¯à¦¦":3386,"à¦°à¦°à¦Ļ":3387,"à¦®à¦Ĩà¦¦":3388,"à¦·à¦£à¦ļ":3389,"à¦²à¦¸à¦¨":3390,"à¦¦à¦²à¦¬":3391,"à§Łà¦¦à¦°":3392,"à¦Ĩà¦ľà¦®":3393,"à¦¬à¦ķà¦¬":3394,"à¦¤à¦ľà¦®":3395,"à¦Ńà¦Ĺ":3396,"à¦¨à¦Ĩà¦ľà¦ķ":3397,"à¦¨à¦²à¦ķ":3398,"à¦¨à¦¹à¦ļ":3399,"à¦Ĩà¦°à¦Ń":3400,"à¦¹à¦ıà¦¬":3401,"à¦¥à¦¨à¦ķà¦°":3402,"à§§à§§à§©":3403,"à¦°à¦²à§ľ":3404,"à¦ĵà¦ĩà¦¸":3405,"à¦¬à¦¨à¦Ĺ":3406,"à¦¤à¦®à¦¶":3407,"à¦°à¦£à¦Ľ":3408,"à¦°à§Łà¦¬":3409,"à¦¸à¦¸à¦°":3410,"à§Łà¦ıà¦Ł":3411,"à¦Ĺà¦¦à¦ķ":3412,"à¦°à¦¨à¦ķ":3413,"à¦¯à¦ħà¦ª":3414,"à¦¤à¦¬à¦Ľà¦°":3415,"à¦¶à¦ķà¦¯":3416,"à¦²à¦¬à¦°":3417,"à¦¤à¦®à¦ķ":3418,"à¦¯à¦¤à¦®à¦¸":3419,"à¦¤à¦Ĩà¦ķ":3420,"à¦®à¦ĵà¦®":3421,"à¦¨à¦®à¦°":3422,"à§Łà¦ıà¦ĩ":3423,"à¦°à¦£à¦¯":3424,"à¦ĵà¦¬à¦¨":3425,"à¦°à¦ĵà¦°":3426,"à¦ªà¦°à¦®à¦¤à¦¸à¦¹":3427,"à¦°à¦¸à¦¹à¦ľ":3428,"à¦°à¦¦à¦ĸà¦²":3429,"à¦¤à¦ı":3430,"à¦°à¦ķà¦¦":3431,"à¦¬à¦¨à¦¦":3432,"à¦°à¦ĩà¦ī":3433,"à¦²à¦¤à¦²":3434,"à¦°à¦ĵà¦ªà¦°à¦¹":3435,"à¦¤à¦ıà¦²":3436,"à¦®à¦Ĩà¦ªà¦¨":3437,"à¦Ńà¦¬à¦ķ":3438,"à¦¨à¦ľà¦¬":3439,"à¦ļà¦¨à¦¸":3440,"à¦ĵà¦ıà¦Ł":3441,"à¦¦à¦ķà¦°à¦¤":3442,"à¦¨à§Łà¦ķ":3443,"à¦¸à¦°à¦¬":3444,"à¦²à¦ªà¦®":3445,"à¦²à§Łà¦¸":3446,"à¦¯à¦Ŀ":3447,"à§Łà¦Ĩà¦ªà¦¨":3448,"à§İà¦ªà¦°à¦¤":3449,"à§Ńà§¯à§¬":3450,"à¦ıà¦¸à¦ľ":3451,"à¦ħà¦·":3452,"à¦®à¦¶à¦¤à¦¬":3453,"à¦¨à¦ªà¦°à¦¬à¦°":3454,"à¦¸à¦ļà¦²":3455,"à¦²à¦¨à¦®":3456,"à¦Łà¦Ĩà¦ķ":3457,"à¦ľà¦ĵ":3458,"à§¨à§§à§Ń":3459,"à¦Łà¦®à¦¨":3460,"à¦ļà§Łà¦¤":3461,"à§Łà¦¸à¦¨":3462,"à¦¨à¦ĩà¦¬":3463,"à¦¶à¦¢":3464,"à¦ĩà¦ħà¦ªà¦°":3465,"à¦²à¦Ĩà¦²à¦®":3466,"à¦¸à¦¦à¦¨":3467,"à¦·à¦·":3468,"à¦ķà¦ķà¦²":3469,"à¦¸à¦®à¦¬":3470,"à¦ĩà¦¬à¦¨à¦¸":3471,"à¦¬à¦¦à¦¨":3472,"à¦§à¦ķà¦¤":3473,"à¦¬à¦ĵ":3474,"à¦·à¦¸à¦°":3475,"à§§à§§à§«":3476,"à¦¹à§Łà¦ªà¦°":3477,"à¦²à¦ľà¦¬":3478,"à¦Ĺà¦®à¦°":3479,"à¦°à¦Ĩà¦Łà¦ķ":3480,"à¦¬à¦¹à¦¨à¦ķà¦°":3481,"à§§à§¯à§¯à§¬":3482,"à¦°à¦ĵà¦ľ":3483,"à¦ıà¦¸à¦¬à¦ķ":3484,"à¦īà¦ĩà¦®":3485,"à§§à§§à§ª":3486,"à¦¨à¦ıà¦¶":3487,"à¦Īà¦¦à¦ĩà¦¬à¦¨":3488,"à¦¶à¦Ĩà¦®":3489,"à¦¨à¦ĩà¦¸":3490,"à§Łà¦¨à¦¡à¦²":3491,"à¦īà¦Ńà§Ł":3492,"à¦¹à¦²à¦¸":3493,"à¦¨à¦ıà¦ĩà¦ª":3494,"à¦ĩà¦īà¦ıà¦¨à¦ĵ":3495,"à¦¹à§Łà¦ľ":3496,"à¦¹à§Łà¦¶":3497,"à¦Ĺà¦¨à¦¸":3498,"à¦ļà¦®à¦ķ":3499,"à¦ĵà¦§":3500,"à¦®à¦¤à¦Ĩà¦ªà¦¡":3501,"à¦Ŀà§ľà¦ľ":3502,"à¦ķà¦®à¦ªà¦ķ":3503,"à¦®à¦ĩà¦¨":3504,"à¦ĵà¦ħà¦¸":3505,"à¦£à¦ıà¦¬":3506,"à¦Ĩà¦²à¦«":3507,"à¦ķà¦¸à¦®à¦¯":3508,"à¦¨à¦¤à¦¦":3509,"à¦Ĩà¦ªà¦²":3510,"à¦Ŀà¦¬":3511,"à¦¯à¦°à¦ķ":3512,"à¦¸à¦ĺ":3513,"à¦¸à¦®à¦¤":3514,"à¦¨à¦¬à¦¦":3515,"à¦¥à¦ļ":3516,"à¦ļà§Łà¦ªà¦¤":3517,"à¦Ńà¦Ĺà¦¬":3518,"à¦ļà¦²à¦¬à¦¨":3519,"à¦ħà¦¬à¦§":3520,"à¦¹à¦ĩà§Ł":3521,"à¦¸à¦®à§Łà¦¸":3522,"à¦®à¦¦à¦ķ":3523,"à¦°à¦ķà¦¸":3524,"à¦ķà¦ĵà¦ª":3525,"à¦°à¦ľà¦Ĺà¦¤":3526,"à¦²à¦¨à¦¶":3527,"à¦ıà¦¸à¦ı":3528,"à¦°à¦ĺà¦¨":3529,"à¦ªà¦¦à¦ª":3530,"à¦Ĩà¦ľà¦¥":3531,"à¦ķà¦°à¦ĵà¦ª":3532,"à¦ķà¦ľà¦¨à¦ķ":3533,"à¦®à¦ķà¦¬":3534,"à¦¨à¦ĩà§Ł":3535,"à¦Ĺà¦°à¦ª":3536,"à¦ĵà¦īà¦¨":3537,"à§§à§§à§¯":3538,"à¦ıà¦®à¦¡":3539,"à¦°à¦£à¦¶":3540,"à¦£à¦ķà¦°à¦¤":3541,"à¦°à¦ıà¦°à¦¸à¦¦à¦¸":3542,"à¦¨à¦ıà¦ª":3543,"à¦Łà¦ħà¦ªà¦°":3544,"à¦°à¦Ĩà¦¸à¦¨":3545,"à¦²à¦Ĩà¦¨":3546,"à¦łà¦Ńà¦¬à¦¨":3547,"à¦¤à¦¨à¦Ń":3548,"à¦£à¦¹à§Ł":3549,"à¦ªà¦Łà¦ª":3550,"à¦¬à¦ľà¦¨à¦ķà¦¨":3551,"à¦¦à¦ķà¦ķà¦¤":3552,"à¦ĩà¦ľà¦¨à¦ķà¦¨":3553,"à¦¬à¦ĩà¦ª":3554,"à¦ľà¦ĵà§Ł":3555,"à¦¨à¦¨à¦Ń":3556,"à¦ķà¦Łà¦²":3557,"à¦Łà¦¬à¦°":3558,"à¦°à¦ªà¦¦à¦¤":3559,"à¦ľà¦¨à¦¹":3560,"à¦ĵà¦¬à¦°":3561,"à§©à§©à§®à§¦":3562,"à¦ļà¦ĸ":3563,"à¦£à¦¤à¦¹à§Ł":3564,"à¦ľà¦¨à¦¬à¦²":3565,"à¦°à¦ıà¦ĩà¦ķ":3566,"à¦¹à¦²à¦¬":3567,"à§İà¦¤":3568,"à¦ĵà¦ľà¦¨à¦ķà¦¨":3569,"à¦ķà¦¸à¦®à¦¸":3570,"à¦ĵà¦ĺ":3571,"à¦²à§Łà¦¨":3572,"à¦°à¦£à¦°":3573,"à¦ĩà¦²à¦ĩà¦ľà¦¨à¦ķà¦¨":3574,"à¦¨à¦¨à¦¸à¦¡":3575,"à¦Łà¦¬à¦¨":3576,"à¦ıà¦°à¦Ń":3577,"à¦¸à¦¬à¦§à¦°à¦¨":3578,"à¦²à¦Ĩà¦ªà¦¨":3579,"à¦¹à¦Ĩà¦®":3580,"à¦ĩà¦ħà¦°":3581,"à¦Ĺà¦¤à¦ª":3582,"à¦¤à¦¸à¦®à¦¸":3583,"à§Łà¦°à¦ķ":3584,"à¦Ĩà¦ľà¦¸à¦ķ":3585,"à¦²à¦Ĩà¦¸":3586,"à¦¯à¦§à¦¨":3587,"à¦°à¦Ĩà¦¸à¦²":3588,"à¦®à¦¤à¦¹à¦¬":3589,"à¦¦à¦ķà¦¹":3590,"à¦°à¦®à¦£à¦¬":3591,"à§Łà¦ıà¦²":3592,"à¦Ĺà¦²à¦®":3593,"à¦¨à¦Ĩà¦°à¦¬":3594,"à¦ķà¦ıà¦ķà¦Ł":3595,"à¦®à¦¨à¦ĸ":3596,"à§Łà¦§à¦°":3597,"à¦ľà¦¹à¦¬":3598,"à¦Ĺà¦īà¦ł":3599,"à¦²à¦ĩà¦¨":3600,"à¦ªà¦ķà¦Ń":3601,"à¦¯à¦ĸà¦¨à¦ķ":3602,"à¦ķà¦ĩà¦īà¦¨":3603,"à¦¯à¦ķà¦¬":3604,"à¦łà¦ķà¦¦":3605,"à¦ķà¦§à¦°":3606,"à¦Łà¦¨à¦ª":3607,"à¦¯à¦ķà¦¥":3608,"à¦ĺà¦Łà¦Ľ":3609,"à¦²à¦¸à¦ķ":3610,"à¦¸à¦®à§Łà¦¤":3611,"à¦¬à¦ĵà§Ł":3612,"à¦®à¦°à¦£à¦ķà¦°":3613,"à¦¶à¦¹à§Ł":3614,"à¦Ĺà¦ļà¦Ł":3615,"à¦ĸà¦Ń":3616,"à¦¸à¦ĩà§Ł":3617,"à¦īà¦ıà¦ĩà¦ļ":3618,"à¦Ľà¦ļ":3619,"à§®à§¦à§¦":3620,"à¦°à¦ĩà¦¨à¦ļ":3621,"à¦ªà¦ķà¦¬":3622,"à§¨à§¦à§¨à§§à§¨à§¨":3623,"à¦īà¦ľà¦¸":3624,"à§®à§¬":3625,"à¦Ĩà¦¹à¦¬":3626,"à¦ĵà¦ħà¦°":3627,"à¦ĸà¦¨à¦¬":3628,"à¦°à¦¶à¦¨":3629,"à§§à§¨à§©":3630,"à¦¦à¦¨à¦¨":3631,"à§Łà¦īà¦¦":3632,"à¦¬à¦¨à¦ª":3633,"à¦¤à¦°à¦¯":3634,"à§¨à§«à§¦":3635,"à¦Łà¦¬à¦²à¦ķ":3636,"à¦§à¦¨à¦ķà¦°à¦²":3637,"à¦¬à¦²à¦ª":3638,"à¦²à¦Ĩà¦ķ":3639,"à¦§à¦¬à¦¨":3640,"à¦«à¦¦":3641,"à¦¦à¦ķà¦¸à¦®":3642,"à¦¶à¦¨à¦°":3643,"à¦Ĺà¦£à¦¹à¦¤":3644,"à¦²à¦Ĩà¦¹à¦®":3645,"à¦°à¦¤à¦Ń":3646,"à¦¬à¦Ľà¦°à¦¬":3647,"à¦¯à¦ĩà¦¨":3648,"à¦¨à¦ıà¦ľà¦¨":3649,"à¦¸à¦®à§Łà¦ª":3650,"à¦ĩà¦²à¦ļ":3651,"à¦¬à¦Ľà¦°à¦¬à¦¯":3652,"à¦ķà¦ķà¦¥":3653,"à¦¨à¦ĵà¦Ń":3654,"à¦²à¦ĩà¦¤":3655,"à¦ıà¦¸à¦¬à¦¬":3656,"à¦®à¦ĩà¦¸à¦²":3657,"à¦ıà¦¤à¦¬":3658,"à¦Ĺà¦¢":3659,"à¦°à¦¨à¦ķà¦°":3660,"à¦¤à¦Ĩà¦ªà¦¨":3661,"à¦°à¦¤à¦¬à¦°":3662,"à¦ıà¦°à¦¦à¦¶à¦ķ":3663,"à¦£à¦ıà¦¶":3664,"à¦¹à¦¨à¦Ľà¦¬":3665,"à¦ĵà¦¢":3666,"à¦ıà¦®à¦¨à¦Ń":3667,"à¦Łà¦Ĺà¦²":3668,"à¦°à¦Ĺà§ľ":3669,"à¦²à¦ıà¦Ł":3670,"à¦ıà¦®à¦¨à¦ª":3671,"à¦¶à¦®à¦ļ":3672,"à¦ıà¦ĩà¦ĸ":3673,"à¦Ĺà¦¤à¦¬à¦Ľ":3674,"à§Łà¦Ĺà¦¤":3675,"à¦ıà¦¬à¦Ľ":3676,"à¦¸à¦¦à¦°":3677,"à¦¹à¦°à¦¦":3678,"à¦§à¦ķà¦°à¦Ľ":3679,"à¦ĩà¦¸à¦¤":3680,"à¦®à¦ıà¦ķà¦Ł":3681,"à¦°à¦ªà¦¤à¦¨":3682,"à§Łà¦°à¦Ĩà¦¬":3683,"à¦¡à¦ıà¦ķ":3684,"à¦ķà¦§à¦¨":3685,"à¦¬à¦ĩà¦ķ":3686,"à¦¦à¦¸à¦°":3687,"à¦ļà¦ªà¦°":3688,"à¦¦à¦ķà¦ĵà¦¬":3689,"à¦¤à¦°à¦¹":3690,"à¦¯à¦Ĩà¦°":3691,"à¦°à¦ĩà¦°":3692,"à¦°à¦īà¦ªà¦°à¦¦":3693,"à¦ľà¦°à¦ľ":3694,"à¦Ľà¦Ĺ":3695,"à§¨à§¦à§¨à§¦à§¨à§¦à§¨à§§":3696,"à¦łà¦®":3697,"à¦ĩà¦ıà¦ĸà¦¨":3698,"à¦·à¦¹à¦ĵà§Ł":3699,"à¦°à¦¹à¦²à¦¦":3700,"à¦ķà¦ĩà¦¨":3701,"à¦Łà¦ıà¦²":3702,"à¦Ĩà¦²à¦ľ":3703,"à¦°à¦Ĩà¦ĩà¦¨à¦Ĩà¦¦":3704,"à¦²à¦§à¦°":3705,"à¦ıà¦°à¦ľ":3706,"à¦§à¦¨à¦¨":3707,"à¦²à¦¤à¦¸":3708,"à¦ĩà¦ł":3709,"à§§à§§à§¬":3710,"à¦®à¦¨à¦Ń":3711,"à¦ĸà¦¨à¦¸":3712,"à§Łà¦°à¦²":3713,"à¦°à¦Ĺà¦ł":3714,"à¦¨à¦ıà¦¸à¦®à§Ł":3715,"à¦¨à¦ħà¦¬à¦¶":3716,"à§¬à§¦à§¦":3717,"à¦¨à¦®à¦§":3718,"à¦¤à¦īà¦ª":3719,"à§İà¦¸à¦ķà¦°":3720,"à¦ĩà¦²à¦ľ":3721,"à¦ħà¦ªà¦°à¦¦":3722,"à¦ĺà¦Łà¦¤":3723,"à¦°à¦ªà¦¡":3724,"à¦¯à¦īà¦¨":3725,"à¦®à¦¬à¦¨":3726,"à¦¯à¦¤à¦ķ":3727,"à¦ıà¦ķà¦¸à¦®à§Ł":3728,"à¦¨à¦ªà§ľ":3729,"à¦°à¦¨à§Ł":3730,"à¦°à¦ķà¦¬à¦²":3731,"à¦īà¦ĩà¦¯":3732,"à¦¨à¦ĵà¦¶":3733,"à¦¨à¦ĸà¦¬à¦°":3734,"à¦Ĺà¦°à§Ł":3735,"à¦ĸà¦ļ":3736,"à¦°à¦ķà¦¤":3737,"à¦¨à¦¤à¦ķà¦°":3738,"à¦ĩà¦¦à¦²":3739,"à¦·à¦ħà¦¨":3740,"à¦¼à¦¾à¦Ĥ":3741,"à¦ªà¦ķà¦¡":3742,"à¦¬à¦²à¦¹":3743,"à¦°à§Łà¦¨":3744,"à¦¤à¦ĺà¦Łà¦¨":3745,"à¦Łà¦ħà¦Ń":3746,"à¦·à¦£à¦¶":3747,"à¦°à¦®à¦¸à¦®":3748,"à¦ıà¦ķà¦ªà¦°":3749,"à¦¥à¦¸à¦®":3750,"à¦ķà¦¤à¦¤":3751,"à¦ªà¦ķà¦¸":3752,"à¦¹à¦Ĩà¦²à¦®":3753,"à¦§à¦ªà¦°":3754,"à¦ıà¦ķà¦Ĺ":3755,"à¦¨à¦ªà¦ŀ":3756,"à¦°à¦ĵà¦¶":3757,"à¦¹à¦¤à¦¥":3758,"à¦ķà¦Ĩà¦¯":3759,"à¦¯à¦¨à¦¤":3760,"à¦¹à¦ªà¦°":3761,"à¦®à¦¦à¦¹":3762,"à¦Ľà¦¯":3763,"à¦·à¦ķà¦ª":3764,"à¦¨à¦¦à¦ķ":3765,"à§Łà¦¦à¦®":3766,"à¦¦à¦¶à¦¶":3767,"à¦¨à¦¦à¦°":3768,"à¦¨à¦Ĺà¦£":3769,"à¦²à¦Ĩà¦¹à¦¸":3770,"à¦°à¦¨à¦ª":3771,"à¦¨à¦ħà¦«":3772,"à¦¤à¦°à¦¸à¦®":3773,"à¦¸à¦¬à¦°":3774,"à¦¨à¦¬à¦¹":3775,"à¦¤à¦ªà¦ķ":3776,"à¦ĺà¦ķ":3777,"à¦ªà¦¨à¦ª":3778,"à¦Ĺà¦ĵ":3779,"à¦Ĺà¦łà¦¨à¦¸":3780,"à¦Ĺà¦£à¦ķ":3781,"à¦¹à¦¨à¦ª":3782,"à¦ĩà¦¶à¦¤":3783,"à¦Łà¦¨à¦ķ":3784,"à¦°à¦Ľà§ľ":3785,"à¦ĩà¦¨à¦²":3786,"à§Łà¦¤à¦¨":3787,"à¦¶à§Ł":3788,"à¦°à¦¸à¦®à§Łà¦¦":3789,"à¦¸à¦¨à¦¸":3790,"à¦ĵà¦ıà¦ĩ":3791,"à¦°à¦¸à¦®à§Łà¦¤":3792,"à¦°à¦¦à¦ª":3793,"à¦²à¦¸à¦°à¦ķ":3794,"à¦Łà¦¬à¦²à¦Ł":3795,"à¦ıà¦ķà¦¦à¦®":3796,"à¦Ĩà¦¨à¦¹":3797,"à¦¯à¦ĸà¦¨à¦¬":3798,"à¦¶à¦§":3799,"à¦°à¦¹à¦¨à¦ķà¦°":3800,"à¦¤à¦ĸà¦¨à¦¸":3801,"à¦«à¦°à¦¹":3802,"à§Łà¦¤à¦²":3803,"à¦¤à¦ıà¦Ł":3804,"à¦īà§İà¦¸à¦°":3805,"à¦·à¦ķà¦°à¦¤":3806,"à¦¸à¦¹à§Ł":3807,"à¦¹à¦°à¦ª":3808,"à¦§à¦ļ":3809,"à¦¤à¦¢":3810,"à¦ħà¦¬à¦ķ":3811,"à¦¸à¦ķà¦°à¦Ľ":3812,"à¦¬à¦°à¦Ń":3813,"à¦¯à¦®à¦¹":3814,"à¦ķà¦²à¦¬":3815,"à¦ıà¦«à¦ª":3816,"à¦Łà¦°à¦ª":3817,"à¦§à¦ķà¦°à¦¬":3818,"à¦°à¦¨à¦¸":3819,"à¦®à¦¤à¦¸":3820,"à¦²à¦ħà¦°":3821,"à¦®à¦¨à¦¨":3822,"à¦¤à¦¸à¦¬":3823,"à¦ıà¦«à¦¬":3824,"à¦¤à¦¨à¦¹à¦¯":3825,"à¦¤à¦²à¦®":3826,"à¦«à¦ľà¦°":3827,"à¦°à¦ĵà¦·":3828,"à¦§à¦¨à¦ħà¦¨":3829,"à¦īà¦²à¦ķà¦°":3830,"à¦¶à¦ķà¦¸":3831,"à¦Ĺà¦¹à§Ł":3832,"à§¦à§¬à§¨à§¦à§§à§¯":3833,"à¦Ĩà¦¶à¦ª":3834,"à¦ŀà¦¦":3835,"à¦°à¦ĵà¦¶à¦¨":3836,"à¦ıà¦®à¦¨à¦¬":3837,"à¦ĩà¦ıà¦ĸ":3838,"à¦²à¦¨à¦¡":3839,"à¦ľà¦¤à¦¨":3840,"à¦¬à¦°à¦«":3841,"à¦ľà¦ªà§ľ":3842,"à¦Ĩà§Łà¦ķà¦°":3843,"à¦ĵà¦°à¦¬":3844,"à§§à§§à§®":3845,"à¦ıà¦ĩà¦ķà¦¥":3846,"à¦Ĩà¦ľà¦°":3847,"à¦°à¦īà¦°":3848,"à¦§à¦¨à¦Ľ":3849,"à¦¨à§Łà¦¨à¦ķà¦°":3850,"à¦¸à¦ķà¦°à¦¬":3851,"à¦¯à¦īà¦¤":3852,"à¦Łà¦°à¦ķ":3853,"à¦¶à¦¨à¦¥":3854,"à¦¨à¦ıà¦Ń":3855,"à¦Łà¦ķà¦²":3856,"à¦¨à¦¤à¦ª":3857,"à¦°à¦ĵà¦ħà¦¨":3858,"à¦ķà¦°à¦ķ":3859,"à¦·à¦¹à¦¤":3860,"à¦£à¦¥":3861,"à¦°à¦°à¦¸à¦ĸ":3862,"à¦¬à¦²à¦¦":3863,"à§¯à§ª":3864,"à¦°à¦¨à¦¸à¦®":3865,"à¦°à¦Ĩà¦¬à¦¦":3866,"à¦ıà¦¸à¦Ń":3867,"à¦ıà¦²à¦¬":3868,"à¦¸à¦®à§Łà¦¨":3869,"à¦·à¦ķà¦¶":3870,"à¦¤à¦®à¦¸à¦ľ":3871,"à¦®à§Łà¦¨":3872,"à¦ĩà¦²à¦¶":3873,"à¦¯à¦ĸà¦¨à¦¸":3874,"à¦²à¦¹à¦ķà¦¸":3875,"à¦ªà¦ĺ":3876,"à¦¯à¦ı":3877,"à¦Ĺà¦ķà¦®":3878,"à¦ļà¦¨à¦¨":3879,"à¦°à¦ªà¦°à¦ľ":3880,"à¦£à¦ĸ":3881,"à¦łà¦ķà¦°à¦¤":3882,"à¦¬à¦°à¦¯":3883,"à¦¹à¦°à¦£à¦¸":3884,"à¦ľà¦Ĩà¦¦":3885,"à¦°à¦¦à¦¶à¦ķ":3886,"à¦§à¦¨à¦ª":3887,"à¦°à¦īà¦ł":3888,"à¦ĩà¦ľà¦¬":3889,"à¦°à¦ĵà¦ªà¦°à¦¦":3890,"à¦ķà¦ĵà§Ł":3891,"à¦ľà¦¨à¦Ń":3892,"à§Ńà§¦à§¦":3893,"à¦¨à¦ľà¦Ł":3894,"à¦ĩà¦ħà¦¸":3895,"à§®à§¨":3896,"à¦°à¦ĸà¦¬à¦°à¦¬":3897,"à¦ľà¦¨à¦¸à¦®":3898,"à¦Ĩà¦°à¦ļ":3899,"à¦®à¦ł":3900,"à¦¶à¦²à¦¬":3901,"à¦Ĺà¦ľà¦ªà¦¤":3902,"à¦ķà¦ĩà¦¸à¦²":3903,"à¦®à¦ĵà¦ľ":3904,"à¦°à¦īà¦ªà¦°à¦ª":3905,"à¦ĩà¦¬à¦Ľà¦°":3906,"à¦Ĺà¦®à§Łà¦®à¦¨à¦¸":3907,"à¦¤à¦ĵà¦®":3908,"à¦¯à¦ħà¦Ń":3909,"à¦¤à¦Ĺà¦¤":3910,"à§Łà¦ıà¦ĩà¦¸":3911,"à§Łà¦¨à¦Ĩà¦ĵà§Ł":3912,"à¦Ĩà¦°à¦ıà¦ķà¦Ł":3913,"à¦®à¦ıà¦ķ":3914,"à¦¹à¦°à¦¬":3915,"à¦Ĩà¦°à¦²":3916,"à¦¶à¦¨à¦ıà¦¬":3917,"à¦¤à¦°à¦ĵà¦¦à¦ķ":3918,"à¦²à¦ĩà§Ł":3919,"à¦ĵà¦ķà¦¨à¦Ł":3920,"à¦ıà¦ĩà¦¸à¦®à¦¸":3921,"à¦¬à¦¨à¦¥":3922,"à¦°à¦¸à¦¤à¦°":3923,"à¦¤à¦¬à¦ķ":3924,"à¦¤à¦ķà¦ª":3925,"à¦ĩà¦Łà¦ª":3926,"à¦¨à¦Ĺà¦¦":3927,"à¦®à¦¦à¦ĩà¦¬à¦¨":3928,"à¦¬à¦ķà¦¨":3929,"à¦¯à¦¸à¦°":3930,"à¦īà¦ĩ":3931,"à¦¸à¦²à¦ķà¦°":3932,"à¦«à¦¨à¦ķà¦°":3933,"à¦¬à¦¸à¦īà¦¦à¦¯":3934,"à¦ĵà¦Ĩà¦®à¦°":3935,"à¦°à¦®à¦¦":3936,"à¦¨à¦¬à¦¬à¦°":3937,"à¦²à¦ķà¦¥":3938,"à§®à§Ń":3939,"à¦²à¦¤à¦¥":3940,"à¦¨à¦īà¦ļ":3941,"à¦ķà¦Ĩà¦°":3942,"à¦²à¦ħà¦Ń":3943,"à§ľà¦ķà¦¦":3944,"à¦ıà¦ķà¦ļ":3945,"à§¯à§§":3946,"à¦®à¦Ĩà¦°":3947,"à¦ľà¦ħà¦¨":3948,"à¦Ńà¦¶":3949,"à¦¨à¦Ĩà¦«à¦Ĺ":3950,"à¦°à¦¬à¦¹à¦°à¦®à¦ª":3951,"à¦¸à¦¹à¦ļ":3952,"à¦²à¦¤à¦Ĩà¦Ľ":3953,"à¦¦à¦°à¦¬à¦¨":3954,"à¦¤à¦¨à¦ķà¦°à¦¤":3955,"à¦¦à¦ķà¦¶":3956,"à¦ļà¦Ń":3957,"à¦¹à¦¯à¦°à¦¤à¦®":3958,"à¦¹à¦°à¦¸":3959,"à¦ıà¦ĩà¦¸à¦®":3960,"à¦¨à¦ľà¦®":3961,"à§§à§©à§§":3962,"à¦¯à¦ĩà¦¸":3963,"à§Łà¦ķà¦¸":3964,"à¦ĵà¦¨à¦¤":3965,"à¦²à¦ķà¦¶":3966,"à¦°à¦ıà¦ķà¦ķ":3967,"à¦ĩà¦Łà¦¥":3968,"à¦¨à¦Ĺà¦²":3969,"à¦ķà¦Łà¦ķ":3970,"à¦¬à¦Ľà¦°à¦ķ":3971,"à¦Ĺà¦¤à¦¬à¦ķ":3972,"à¦°à¦¤à¦¸":3973,"à¦¦à¦ĸà¦²à¦ķà¦°":3974,"à¦ĸà¦¬à¦°à¦Ł":3975,"à¦ĵà¦ķà¦²":3976,"à¦Ĩà¦°à¦Ĩ":3977,"à¦īà¦¯à¦¦":3978,"à¦¤à¦ĸà¦¨à¦ķ":3979,"à¦Ĺà¦£à¦¸":3980,"à¦¶à¦¬à¦¨":3981,"à¦°à¦¥à¦®à¦ľ":3982,"à¦ķà¦¹à¦ĵà§Ł":3983,"à¦¼à§Ĥ":3984,"à¦¦à¦²à¦Ĺ":3985,"à¦¤à¦ľà¦¨":3986,"à¦¹à¦¨à¦¬":3987,"à§İà¦¶":3988,"à¦°à¦ªà¦¬":3989,"à¦¤à¦®à¦¦":3990,"à¦¤à¦²à¦ķ":3991,"à¦°à¦®à¦£à¦¨":3992,"à¦ĩà¦ľà¦¤":3993,"à¦ĩà¦²à¦ł":3994,"à¦£à¦¨à¦Ĺà¦°à¦¬":3995,"à¦²à¦ķà¦ķà¦°":3996,"à¦¯à¦°à¦¬":3997,"à¦ıà¦¨à¦¬":3998,"à¦Īà¦¨":3999,"à§Łà¦īà¦¨":4000,"à¦°à¦ĩà¦ľ":4001,"à¦ķà¦¹à¦¯":4002,"à¦²à¦Łà¦¨":4003,"à¦¤à¦ªà¦¦":4004,"à¦®à¦Ĺà§ľ":4005,"à§Łà¦¨à¦®":4006,"à¦Ńà¦°à¦¯":4007,"à¦¶à¦¶à¦¤":4008,"à¦Łà¦ķà¦°à¦¬":4009,"à¦°à¦¸à¦°à¦¬à¦°":4010,"à¦ªà¦¨à¦ķà¦°à¦¤":4011,"à¦ªà¦¨à¦°":4012,"à¦°à¦£à¦ĸ":4013,"à¦·à¦¡":4014,"à¦¨à¦¤à¦¤":4015,"à¦ļà§Łà¦¦":4016,"à¦°à¦ħà¦ªà¦¬":4017,"à¦°à¦ĸà¦¨":4018,"à¦¬à¦ħà¦°":4019,"à¦¦à¦¹à§Ł":4020,"à¦īà¦¬à¦ļ":4021,"à¦®à¦ķà¦²":4022,"à¦ĩà¦°à§Ł":4023,"à¦¨à§Łà¦¨à¦¶":4024,"à¦°à¦ķà¦®à¦¬":4025,"à¦ķà¦ķà¦°à¦²":4026,"à¦¤à¦°à¦Ł":4027,"à¦¤à¦¤à¦¦":4028,"à¦¦à¦ªà§ľ":4029,"à¦ıà¦¤à¦ķ":4030,"à¦ķà¦°à¦°":4031,"à§Łà¦ķà¦¥":4032,"à¦°à¦¥à¦®à¦°":4033,"à¦¤à¦®à¦ľ":4034,"à¦¬à¦Ĩà¦²à¦¹":4035,"à¦¨à¦«à¦¯":4036,"à¦²à¦ıà¦¨":4037,"à§Łà¦Ĩà¦¦":4038,"à¦·à¦¹à¦¬":4039,"à¦¨à¦ıà¦®à¦¨à¦ķ":4040,"à¦ªà¦Ļ":4041,"à¦°à¦ªà¦°à¦Ĩà¦®":4042,"à¦¤à¦°à¦¤à¦ħà¦¬à¦¸":4043,"à¦ıà¦ĸà¦¨à¦Ĩà¦®":4044,"à¦²à¦ĩà¦īà¦¨":4045,"à¦ĵà¦Ĩà¦¨":4046,"à¦¨à¦ıà¦®":4047,"à¦§à¦¤à¦¦à¦¨":4048,"à¦¬à¦¦à¦°":4049,"à¦Łà¦īà¦¤":4050,"à¦¬à¦¨à¦¶":4051,"à¦ķà¦ªà¦¡":4052,"à¦¶à¦ķà¦¤":4053,"à¦°à¦ıà¦ĩà¦®":4054,"à¦°à¦¥à¦®à¦ªà¦°":4055,"à§Łà¦°à¦¸":4056,"à¦ļà¦ħà¦ªà¦°":4057,"à¦£à¦Ĺà¦ŀ":4058,"à¦°à¦¨à¦ĵà¦Ĺ":4059,"à¦§à¦§à¦°":4060,"à¦¡à¦¸à¦®":4061,"à¦¹à¦²à¦¤":4062,"à¦¬à¦¹à¦¤":4063,"à¦¹à¦ĩà¦²":4064,"à¦°à¦¡à¦²":4065,"à¦¹à¦ĩà¦¯":4066,"à¦¯à¦¹à¦¯":4067,"à¦£à¦²":4068,"à¦¹à¦²à¦¨":4069,"à¦°à¦ľà¦¯":4070,"à¦§à¦¬à¦ª":4071,"à¦¨à¦®à¦¸à¦ľ":4072,"à¦¸à¦°à¦®":4073,"à¦Ĩà¦°à¦ĵà¦ķ":4074,"à¦Łà¦Ĩà¦®":4075,"à¦¸à¦¶à¦¸":4076,"à¦ĩà¦Ĩà¦°":4077,"à¦ħà¦ªà¦¹à¦°à¦£":4078,"à¦®à¦¸à¦®à¦°":4079,"à¦Łà§Łà¦²":4080,"à¦ĸà¦«":4081,"à¦°à¦īà¦ĩà¦ķ":4082,"à¦¦à¦Ĩà¦ªà¦¨":4083,"à¦¹à¦¬à¦¨":4084,"à¦°à¦¬à¦¤":4085,"à¦°à¦Ĩà¦Ĺà¦®à¦¨":4086,"à¦¬à¦ĩà¦Ĺ":4087,"à¦°à¦®à¦ŀ":4088,"à§§à§§à§Ń":4089,"à¦Ļà¦²":4090,"à¦¦à¦īà¦¤":4091,"à¦°à¦¶à¦¸":4092,"à¦¨à¦ķà¦¨":4093,"à¦Ĳà¦¶":4094,"à¦¦à¦īà¦ªà¦¸":4095,"à¦¨à¦ħà¦ķ":4096,"à¦ķà¦ľà¦¨à¦ª":4097,"à¦§à¦¨à¦®":4098,"à¦°à¦¹à§Łà¦¨":4099,"à¦ķà¦¸à¦¹à¦¯":4100,"à¦ĩà¦¡à¦²":4101,"à¦²à§Łà¦ª":4102,"à§Łà¦¨à¦¨":4103,"à¦ĵà¦°à¦ķ":4104,"à¦£à¦ĵà¦ª":4105,"à§§à§©à§¦":4106,"à¦ĵà¦§à¦°":4107,"à¦¨à¦ªà¦°à¦°":4108,"à¦·à§Łà¦ħà¦¨":4109,"à§§à§®à§§à§¯":4110,"à¦ķà¦Ĩà¦¹à¦®":4111,"à¦ıà¦ķà¦§à¦°à¦¨":4112,"à¦¨à¦¬à¦ª":4113,"à¦Łà¦®à¦¹":4114,"à¦Ĩà¦°à¦«":4115,"à¦¤à¦°à¦£à¦ķ":4116,"à¦°à¦ĩà¦¯":4117,"à¦ĩà¦²à¦¸à¦®":4118,"à¦¬à¦ĩà¦ªà¦¤":4119,"à¦®à¦¹à¦¬":4120,"à¦ªà¦¶à¦¨":4121,"à¦·à¦®à¦¹":4122,"à¦®à¦īà¦²":4123,"à¦¬à¦¸à¦¹":4124,"à¦°à¦īà¦ªà¦ªà¦°":4125,"à¦¯à¦¬à¦¨":4126,"à¦Łà¦ĺ":4127,"à¦ļà¦²à¦²":4128,"à¦ĵà¦ķà¦ĸà¦¨":4129,"à¦¨à§Łà¦¨à¦ķ":4130,"à¦ľà¦ķà¦°à¦²":4131,"à¦ĵà¦¹à§Ł":4132,"à¦²à¦ķà¦°à¦²":4133,"à¦°à¦ªà¦°à¦Ĺ":4134,"à¦ĩà¦²à¦ħ":4135,"à¦²à¦ħà¦«":4136,"à¦²à¦¨à¦ķà¦°à¦¬":4137,"à¦¨à¦ĵà¦ľ":4138,"à¦°à¦ıà¦¸à¦ıà¦¸à¦¸":4139,"à¦ĵà¦Ĩà¦°":4140,"à¦°à¦ĵà¦Ĺ":4141,"à¦ħà¦¬à¦¤":4142,"à¦¤à¦¸à¦ļ":4143,"à¦·à§Łà¦ķà¦¸à¦®":4144,"à¦¬à¦®à¦¹":4145,"à¦¤à¦ĩà¦¤":4146,"à¦®à¦ļà¦¨":4147,"à¦ıà¦ķà¦ĩà¦Ń":4148,"à¦¨à¦®à¦Ļ":4149,"à¦§à¦ķà¦°à¦²":4150,"à¦¨à¦¶à¦¹":4151,"à¦¶à¦ªà¦¥":4152,"à¦Łà¦¨à¦¬":4153,"à¦«à¦²à¦¤":4154,"à¦ķà¦¸à¦¬à¦ľ":4155,"à¦ıà¦ĸà¦¨à¦¥":4156,"à¦¦à¦īà¦¦":4157,"à¦Ĺà¦Ĩà¦Ľ":4158,"à¦Ĩà¦ĸà¦¤":4159,"à¦°à¦ıà¦ľ":4160,"à¦°à¦¸à¦®à§Łà¦¨":4161,"à¦ĺà¦Łà¦²":4162,"à¦¬à¦°à¦ĵà§Ł":4163,"à¦²à¦ĩà¦¬à¦¨":4164,"à§Łà¦°à¦¬":4165,"à¦ķà¦ıà¦²":4166,"à¦²à¦ıà¦¸":4167,"à¦ĩà¦¹à¦ļ":4168,"à¦¸à¦ķà¦²à¦ª":4169,"à¦®à¦°à¦ķ":4170,"à§ľà¦¸":4171,"à¦¦à¦¨à¦Ĺ":4172,"à¦ªà¦°à¦¶":4173,"à¦¡à¦ķà¦²":4174,"à¦ıà¦ķà¦®à¦¹":4175,"à¦°à¦£à¦Ł":4176,"à¦¨à¦ªà¦²":4177,"à¦¨à¦ħà¦®":4178,"à¦®à§İà¦ķ":4179,"à§Łà¦ļà¦²":4180,"à¦°à¦ķà¦ĸà¦¨":4181,"à§¨à§¦à§¨à§¦à§¨à§§":4182,"à¦°à¦§à¦°à¦¨":4183,"à¦ªà¦¦à¦ľ":4184,"à¦¸à¦®à§Łà¦²":4185,"à¦Ķà¦·à¦§":4186,"à¦¥à¦ªà¦°":4187,"à¦Ńà¦¬à¦¹à¦¬":4188,"à¦¤à¦¸à¦ķà¦²":4189,"à¦ıà¦®à¦ıà¦¸":4190,"à¦ĩà¦īà¦¦":4191,"à¦ıà¦¸à¦ĩà¦¸":4192,"à¦¬à¦ĵà¦ªà¦¶":4193,"à¦ļà¦ıà¦ª":4194,"à¦£à¦ĺ":4195,"à¦¨à¦ħà¦²":4196,"à¦¬à§ľà¦¬":4197,"à¦ĵà¦¸à¦¨":4198,"à§Łà¦ıà¦¤":4199,"à¦ĵà¦¸à¦°à¦ķ":4200,"à¦¨à§Łà¦¨à¦¸":4201,"à§ľà¦¹":4202,"à¦°à¦ĩà¦¨à¦¸":4203,"à¦®à¦Ĩà¦¹à¦®":4204,"à¦¬à¦ĩà¦¨":4205,"à¦¶à¦¨à¦¤":4206,"à¦ĵà¦¸à¦°":4207,"à¦°à¦®à¦Ļ":4208,"à¦ĵà¦¸à¦®à¦®":4209,"à¦¹à¦¨à¦¤":4210,"à¦Ĩà¦°à¦Ĺ":4211,"à¦ļà¦Ĺà¦¡":4212,"à¦®à¦¦à¦ľ":4213,"à¦·à¦ĸà¦¬à¦°à¦¸":4214,"à¦²à¦¹à¦ľ":4215,"à¦ıà¦¡à¦Ń":4216,"à¦°à¦¤à¦ļ":4217,"à¦°à¦¥à¦®à¦¨":4218,"à¦¶à¦ķà¦°à¦Ľ":4219,"à¦¤à¦īà¦²":4220,"à¦°à¦®à¦¤à¦ķ":4221,"à¦®à¦ķà¦ķ":4222,"à¦īà¦ľà¦ķ":4223,"à¦ļà¦²à¦¨":4224,"à¦°à¦¨à¦¯":4225,"à¦¹à§Łà¦Ĩà¦®":4226,"à¦ķà¦¸à¦°":4227,"à¦¨à¦ıà¦ķà¦¬":4228,"à¦¤à¦¤à¦ķ":4229,"à¦ĸà¦¨à¦ª":4230,"à¦¸à¦®à§Łà¦¦":4231,"à¦°à¦ªà¦°à¦¹":4232,"à¦ĵà¦īà¦¤":4233,"à¦°à¦ıà¦®":4234,"à§¯à§©":4235,"à¦®à¦ĺà¦Ł":4236,"à¦¦à¦ħà¦Ń":4237,"à¦ĵà¦ĩà¦ª":4238,"à¦ķà¦ĺà¦Łà¦¨":4239,"à¦®à¦¤à¦®":4240,"à¦®à¦¸à¦°":4241,"à¦²à¦¬à¦£":4242,"à¦¯à¦ħà¦¤":4243,"à¦ĩà¦ªà§ľ":4244,"à¦ĩà¦Łà¦ķ":4245,"à§Łà¦¬à¦¹":4246,"à¦Ĩà¦°à¦¡":4247,"à¦·à¦¹à¦¯":4248,"à¦¹à¦²à¦¦":4249,"à¦¨à¦ĩà¦°":4250,"à¦®à¦ĵà¦¬":4251,"à¦¯à¦īà¦ª":4252,"à¦¤à¦ħà¦§":4253,"à¦¯à§Łà¦ķà¦°":4254,"à¦¬à¦°à¦ĸ":4255,"à¦®à¦ĵà¦²":4256,"à¦ĩà¦¨à¦¯":4257,"à¦°à¦®à¦£à¦ª":4258,"à¦¤à¦Ĩà¦°à¦ĵ":4259,"à¦¯à¦ĩà¦ª":4260,"à¦ĵà¦īà¦ªà¦ľ":4261,"à¦¨à¦Ĩà¦°à¦¸":4262,"à¦ľà¦Ĩà¦²":4263,"à¦¶à¦ħà¦ªà¦°":4264,"à¦¨à¦®à¦®à¦¤":4265,"à¦ıà¦¸à¦Ł":4266,"à¦Ĩà¦ľà¦¶":4267,"à¦¨à¦Ĩà¦¬à¦¦":4268,"à¦¤à¦°à¦Ļ":4269,"à¦ľà¦ķà¦²":4270,"à¦ĩà¦¶à¦°":4271,"à¦°à¦Ĩà¦ªà¦¤":4272,"à¦²à¦ķà¦¬à¦²":4273,"à¦¤à¦°à¦¤":4274,"à¦²à¦ł":4275,"à¦²à¦ĩà¦®":4276,"à¦¸à¦°à¦ŀ":4277,"à§Łà¦īà¦ª":4278,"à¦ĩà¦¸à¦ķ":4279,"à¦¸à¦¬à¦¹":4280,"à¦ªà¦ķà¦ķ":4281,"à¦¸à¦¬à¦ĸà¦¬":4282,"à¦ĩà¦¬à¦²à¦²":4283,"à¦Ńà¦¸à¦®":4284,"à¦ĩà¦¨à¦ªà¦Ľà¦¨":4285,"à¦¦à¦«à¦¤":4286,"à¦¯à¦°à§Ł":4287,"à¦¥à¦Ł":4288,"à¦¨à¦Ĺà¦¬":4289,"à¦¸à¦Ńà¦¬à¦¨":4290,"à¦ıà¦¨à¦¡":4291,"à¦¹à¦°à¦°":4292,"à¦Ńà§Łà¦ª":4293,"à¦ĺà¦¬":4294,"à§Łà¦°à¦ľ":4295,"à§Łà¦Ĩà¦¹à¦¤":4296,"à§§à§¨à§§à§©":4297,"à¦¨à§Łà¦¤":4298,"à¦¤à¦ĵà§Ł":4299,"à¦°à¦ķà¦²à¦ķ":4300,"à¦°à¦ļà¦²à¦ļ":4301,"à¦¶à¦Ĩà¦ĵà§Ł":4302,"à¦Ľà¦§à¦°":4303,"à¦ĵà¦°à¦¸":4304,"à¦ĵà¦°à¦ª":4305,"à¦¤à¦¨à¦¶":4306,"à¦¯à¦ıà¦ĩ":4307,"à¦ĵà¦ĩà¦®":4308,"à¦¤à¦¶à¦¬":4309,"à¦§à¦¨à¦¶":4310,"à¦ĸà¦¨à¦¨":4311,"à¦ķà¦°à¦¹à¦®":4312,"à¦Ĩà¦¸à¦¸":4313,"à¦¬à¦ħà¦Ń":4314,"à¦ıà¦®à¦®":4315,"à¦°à¦Ĩà¦°à¦¬":4316,"à¦ªà¦¨à¦ľ":4317,"à§Łà¦ıà¦ķà¦¦":4318,"à¦ıà¦°à¦ıà¦ķà¦Ł":4319,"à¦«à¦²à¦¬":4320,"à¦¸à¦®à¦Ŀ":4321,"à¦¨à¦Ĺà¦¤à¦ķ":4322,"à¦ıà¦ĸà¦¨à¦¨":4323,"à¦īà§İà¦ķà¦£":4324,"à¦°à¦£à¦Ĺ":4325,"à¦¤à¦°à¦£à¦¸":4326,"à¦·à¦Ĩà¦®":4327,"à§®à§§":4328,"à¦Ĺà¦¸à¦°à¦ķ":4329,"à¦°à¦Ĩà¦¨à¦®":4330,"à¦°à¦Ķ":4331,"à¦Łà¦¸à¦¹":4332,"à¦īà¦¶à¦¨":4333,"à¦ĩà¦ªà¦ķ":4334,"à¦¨à¦ľà¦¨à¦ª":4335,"à¦ĩà¦ħà¦ķ":4336,"à¦¨à¦ıà¦Ĺ":4337,"à§¨à§Ńà§¨à§¦à§¨à§§":4338,"à¦®à¦°à¦¦":4339,"à¦°à¦¤à¦¶":4340,"à¦ĩà¦¨à¦¹":4341,"à¦ĩà¦¨à¦¥":4342,"à¦®à¦¦à¦°":4343,"à¦¨à¦¶à¦¬":4344,"à¦¤à¦Ĺà¦²":4345,"à¦Ĩà¦«à¦°":4346,"à¦¦à¦¨à¦Ń":4347,"à¦ĩà¦¹à§Łà¦¤":4348,"à¦¬à§ľà¦ª":4349,"à¦®à¦Ĩà¦°à¦¨":4350,"à¦¹à§Łà¦Ĺ":4351,"à¦¬à¦Ĩà¦Ľ":4352,"à¦¤à¦°à¦Ĩà¦¹à¦¤":4353,"à¦¬à¦Ľà¦°à¦ªà¦°":4354,"à¦®à§Łà¦²":4355,"à¦¶à¦¦à¦²":4356,"à¦¹à¦²à¦ª":4357,"à¦¯à¦ĸà¦¨à¦ª":4358,"à¦°à¦£à¦ĵà¦ª":4359,"à¦¥à¦ħà¦¨":4360,"à¦ıà¦®à¦ľ":4361,"à§¨à§¨à§¦":4362,"à¦¹à§Łà¦ħà¦¨":4363,"à¦¥à¦²à¦¬à¦¨":4364,"à¦ķà¦ıà¦®à¦ª":4365,"à¦²à¦ıà¦²":4366,"à¦¨à¦Ĩà¦ľà¦¸":4367,"à¦°à¦ĩà¦¦":4368,"à¦ªà¦¬à¦²":4369,"à¦®à¦¨à¦ļ":4370,"à¦¬à¦°à¦Ĩ":4371,"à¦ľà¦¬à¦¨":4372,"à¦¶à¦¸à¦®à§Ł":4373,"à¦°à¦ļà¦²à¦®":4374,"à¦¨à¦ıà¦°à¦®à¦§":4375,"à¦Ĩà¦¨à¦²":4376,"à¦®à¦¸à¦¹":4377,"à¦ħà¦ªà¦¹":4378,"à§Łà¦ĩà¦īà¦¨":4379,"à¦°à¦īà§İà¦¸à¦¬":4380,"à¦°à¦²à¦¨":4381,"à¦¤à¦īà¦¤":4382,"à¦¯à¦ĩà¦¸à¦®":4383,"à¦¨à¦¸à¦¦à¦¸":4384,"à¦¯à¦ĺ":4385,"à§Łà¦Ĩà¦ĵà§Ł":4386,"à¦ľà¦ĵà¦¸":4387,"à¦°à¦īà¦ľ":4388,"à¦¯à¦®à¦°":4389,"à¦¤à¦Ĩà¦¨":4390,"à¦¥à¦ľ":4391,"à¦ĩà¦²à¦¦":4392,"à¦Ĩà¦Ń":4393,"à¦ıà¦ķà¦¬à¦Ľà¦°":4394,"à¦°à¦ıà¦ķà¦¤":4395,"à¦²à¦¨à¦¦":4396,"à¦¯à¦ªà¦£":4397,"à¦ħà¦¸à¦®à¦¤":4398,"à¦Ĳà¦¬":4399,"à§§à§¯à§¯à§¦":4400,"à¦¬à¦®à¦¨":4401,"à¦ĩà¦²à¦°":4402,"à¦¨à¦Ĺà¦ŀ":4403,"à§İà¦¸à¦ķà¦¦":4404,"à¦¤à¦ħà¦¤":4405,"à¦ıà¦ĩà¦ĵà¦¯":4406,"à¦ĩà¦Ĩà¦Ĺà¦·":4407,"à¦®à¦ħà¦°":4408,"à¦·à¦®à¦¨":4409,"à¦ĸà¦¬à¦¨":4410,"à¦¤à¦°à¦Ĺ":4411,"à¦¸à¦ªà¦¤":4412,"à¦¯à¦ħà¦¸":4413,"à¦ľà¦Ĺà¦¨":4414,"à¦²à¦¬à¦°à¦¹à¦®":4415,"à¦ķà¦ĸà¦¬":4416,"à¦ıà¦ĸà¦¨à¦¦":4417,"à¦ıà¦°à¦ªà¦ķ":4418,"à¦¬à¦°à¦Ĺà¦ŀ":4419,"à¦°à¦ıà¦ĩà¦¨":4420,"à¦²à¦¤à¦¦":4421,"à¦ªà¦Ĩà¦®":4422,"à¦¯à¦ĵà¦¸à¦®":4423,"à¦ĩà¦¬à¦¨à¦Ĩà¦¬":4424,"à¦Łà¦¹à¦¤":4425,"à¦°à¦Ńà¦ķ":4426,"à¦¯à¦¹à¦ļ":4427,"à¦ĩà¦¢":4428,"à¦°à¦Ĩà¦Ń":4429,"à¦²à¦¸à¦¤":4430,"à¦¦à¦°à¦Ń":4431,"à¦ĩà¦Ĩà¦¨":4432,"à¦¬à¦¨à¦Ł":4433,"à¦²à¦¤à¦ĸà¦¨":4434,"à¦ĵà¦¸à¦¦à¦¸":4435,"à¦°à¦¹à¦£à¦ķà¦°à¦¬":4436,"à¦°à¦§à¦¨":4437,"à¦²à¦¸à¦°":4438,"à¦ĵà¦°à§Ł":4439,"à§Łà¦¬à¦Ļ":4440,"à¦®à¦ķà¦°à¦¤":4441,"à¦²à¦Ŀ":4442,"à§§à§¦à§§à§§":4443,"à¦Łà¦ĵà¦®":4444,"à¦ªà¦ĵà¦¸":4445,"à¦ĩà¦¹à¦¯":4446,"à¦°à¦ħà¦¨à¦¨":4447,"à¦·à¦¦à¦°":4448,"à¦Ĩà¦ĩà¦²":4449,"à¦īà¦¸à¦¸":4450,"à¦¶à¦¤à¦¬à¦°":4451,"à¦®à¦Ĩà¦°à¦¦":4452,"à¦ıà¦¸à¦®à§Łà¦¤":4453,"à¦®à¦ĵà¦¸":4454,"à¦¨à¦¸à¦¦":4455,"à¦īà¦«":4456,"à¦¨à¦¸à¦ķà¦²":4457,"à¦·à¦£à¦ķà¦°à¦¤":4458,"à¦°à¦īà¦ªà¦°à¦¸":4459,"à¦ªà¦¸à¦®à§Ł":4460,"à¦ĵà¦ķà¦°à¦¤":4461,"à¦°à¦ĵà¦¹":4462,"à¦ķà¦Łà¦¥":4463,"à¦ıà¦²à¦¸":4464,"à¦ļà¦°à¦ķ":4465,"à¦ķà¦®à¦°":4466,"à¦·à¦£à¦ªà¦°":4467,"à¦¨à¦ıà¦ĩà¦®":4468,"à¦ĩà¦īà¦ıà¦¸à¦¬":4469,"à¦¸à¦«à¦²à¦¤":4470,"à§Łà¦ĩà¦¨":4471,"à¦¶à¦Ĩà¦¨":4472,"à¦¤à¦¨à¦¥":4473,"à¦¯à¦Ĩà¦Ĺ":4474,"à¦Ńà¦¬à¦¹à§Łà¦¨":4475,"à¦·à¦ĩà¦¸à¦²":4476,"à§¨à§§à§¯":4477,"à¦°à¦«à¦Ł":4478,"à¦®à¦¦à¦Ĩà¦²":4479,"à¦īà¦²à¦Ĩà¦²":4480,"à§Łà¦°à¦®":4481,"à¦°à¦¯à¦¶":4482,"à¦°à¦ĩà¦īà¦Ł":4483,"à¦ľà¦ħ":4484,"à¦²à¦¬à¦ª":4485,"à¦°à¦ĩà¦ŀ":4486,"à¦®à¦Ĩà¦°à¦ĸ":4487,"à¦ĩà¦ĩà¦¤":4488,"à¦§à¦¹à¦¤":4489,"à¦¡à¦ĵà¦¯":4490,"à¦°à¦ªà¦¨":4491,"à¦ĩà¦ľà¦°":4492,"à¦£à¦Ľ":4493,"à¦ķà¦ªà¦¥":4494,"à¦¹à¦¨à¦ħ":4495,"à¦Łà¦¹à¦ĵà§Ł":4496,"à¦łà¦ªà¦°":4497,"à¦¶à¦ĵà¦ª":4498,"à¦ıà¦°à¦ªà¦°à¦¤":4499,"à¦ıà¦²à¦ª":4500,"à¦°à¦īà¦®":4501,"à§İà¦¸à¦¬":4502,"à¦¨à¦°à¦ķà¦®":4503,"à¦¨à¦ľà¦¨à¦ķ":4504,"à¦¤à¦°à¦«":4505,"à¦¤à¦ľà¦°":4506,"à¦Ĩà¦Ĩà¦Ľ":4507,"à¦Ĩà¦Łà¦ķà¦¸":4508,"à¦°à¦£à¦Ĩà¦®":4509,"à¦¯à¦Łà¦ķà¦¦":4510,"à¦¯à¦°à¦ļà¦¨":4511,"à¦Łà¦Ĩà¦ª":4512,"à¦ıà¦ĩà¦ħà¦¨":4513,"à¦¯à¦ħà¦ªà¦°":4514,"à¦£à¦¤à¦ķà¦°":4515,"à¦¯à¦¥à¦¬":4516,"à¦Ĺà¦®à¦ľ":4517,"à¦ªà¦ļà¦°":4518,"à¦ªà¦°à¦¦":4519,"à¦¸à¦¬à¦ĸ":4520,"à¦Ĩà¦ľà¦¹":4521,"à¦¬à¦ħ":4522,"à¦¯à¦¤à¦®à¦ª":4523,"à¦°à¦£à¦ıà¦¬":4524,"à¦Ĳà¦Ĳ":4525,"à§¨à§¦à§§à§¬à§¨à§¦à§§à§Ń":4526,"à¦ļà¦²à¦ķ":4527,"à¦²à¦Ĺà¦¬":4528,"à¦Łà¦§à¦°":4529,"à¦¥à¦¹à¦¯":4530,"à§Łà¦ķà¦²":4531,"à¦ľà¦¨à¦ªà¦°":4532,"à¦¦à¦ı":4533,"à¦°à¦¶à¦Ļ":4534,"à¦¤à¦¸à¦¦à¦¸":4535,"à¦¸à¦ķà¦²à¦¬":4536,"à¦ĵà¦ħà¦ªà¦°":4537,"à¦«à¦¤à¦°":4538,"à¦¨à¦Ĩà¦°à¦ĵà¦ªà§ľ":4539,"à¦ıà¦ķà¦¸à¦ª":4540,"à¦ıà¦ĸà¦¨à¦®":4541,"à§Łà¦Ĩà¦ľ":4542,"à§ľà¦°":4543,"à§ľà¦Ń":4544,"à¦ªà¦¨à¦¸à¦®":4545,"à¦¨à¦ĸà¦¬à¦°à¦ķà¦°":4546,"à¦ľà¦ķà¦¥":4547,"à¦¯à¦Ŀà¦Ł":4548,"à¦²à¦Ĺà¦ĩà¦¨":4549,"à¦Łà¦¸à¦¬":4550,"à¦Ĺà¦īà¦¤":4551,"à¦ĩà¦¨à¦ļ":4552,"à¦¹à¦²à¦ķ":4553,"à¦Łà¦Ĩà¦¬":4554,"à¦¨à¦Ĩà¦ª":4555,"à¦¬à¦ıà¦¶":4556,"à§Łà¦¨à¦¶":4557,"à§³à§³":4558,"à¦ĵà¦ıà¦¸":4559,"à¦°à¦¤à¦«à¦¸":4560,"à¦Ĺà¦¤à¦ķà§Ł":4561,"à¦¤à¦ĵà¦¸":4562,"à¦¤à¦Ľà¦¬":4563,"à¦²à¦°à¦ķ":4564,"à¦²à¦ĵà¦®":4565,"à¦¦à¦°à¦ķà¦¥":4566,"à¦ļà¦ķà¦ª":4567,"à¦ĩà¦Ńà¦¸":4568,"à§Łà¦ħà¦¤":4569,"à¦¨à¦ķà§Ł":4570,"à¦¶à¦¤à¦Ń":4571,"à¦Łà¦¢":4572,"à¦¹à¦²à¦®":4573,"à¦¨à¦Ĩà¦¸à¦²":4574,"à¦²à§Łà¦®":4575,"à¦ĩà¦ıà¦Ĺ":4576,"à¦·à¦§":4577,"à¦®à¦ĵà§Ł":4578,"à¦¯à¦Ĺà¦¤":4579,"à¦ĸà¦Ĺ":4580,"à§ģà§ģ":4581,"à¦¨à¦ļà¦¨":4582,"à¦²à¦ıà¦ĩ":4583,"à¦ĩà¦Ĩà¦¶":4584,"à¦°à¦Ĩà¦¡":4585,"à¦°à§Łà¦ķ":4586,"à§Łà¦¨à¦¦":4587,"à¦¬à¦ľà¦¨à¦¦":4588,"à¦ĸà¦ķà¦Ń":4589,"à§ªà§¨à§¦à§¨à§§":4590,"à¦¬à¦Ľà¦°à¦°":4591,"à¦¸à¦ĩà¦¸à¦²":4592,"à¦ĺà¦²":4593,"à¦°à¦ıà¦ĩà¦ļà¦ıà¦¸à¦¸":4594,"à¦²à¦°à¦¬":4595,"à¦Łà¦®à¦¸":4596,"à¦ĩà¦ıà¦²":4597,"à¦ļà¦¨à¦ħà¦¨":4598,"à¦¯à¦¥à¦Ń":4599,"à¦°à¦°à¦¯":4600,"à¦¯à¦¨à¦¯":4601,"à¦¤à¦ªà¦£":4602,"à¦ıà¦®à¦¨à¦¸":4603,"à¦¨à§Łà¦¨à¦¦":4604,"à§Łà¦¹à¦¤":4605,"à¦ĵà¦īà¦¦":4606,"à¦ĩà¦Łà¦«":4607,"à¦¯à¦Ļ":4608,"à¦ĩà¦īà¦²":4609,"à¦ķà¦®à¦¦":4610,"à§§à§¨à§¦à§¨à§§":4611,"à¦ħà¦ªà¦ª":4612,"à¦¶à¦ı":4613,"à¦°à¦ħà¦¬à¦¨à¦¤":4614,"à§§à§¨à§«":4615,"à¦¸à¦ĵà¦¸":4616,"à¦Ĩà¦ĩà¦«":4617,"à¦°à¦īà¦ķ":4618,"à¦Ĺà¦ķà¦°à¦Ľ":4619,"à¦°à¦ıà¦¶":4620,"à¦ĩà¦¸à¦°à¦ķ":4621,"à¦¨à¦ªà¦¥":4622,"à¦ĺà¦°à¦¬":4623,"à¦Ĩà¦ľà¦¤":4624,"à¦¤à¦ħà¦¸":4625,"à¦¯à¦ĵà¦ªà¦°":4626,"à§Łà¦īà¦¤":4627,"à¦°à¦¸à§ľà¦ķ":4628,"à¦īà¦²à¦¹":4629,"à¦¤à¦ķà¦°à¦£à¦ķà¦°":4630,"à¦¨à¦Ĩà¦²à¦ķ":4631,"à¦¨à¦¨à¦¯":4632,"à¦®à¦¤à¦²à¦¬":4633,"à§§à§¬à§§à§Ń":4634,"à§Łà¦ľà§ľ":4635,"à¦ķà¦Ĩà¦¦":4636,"à¦°à¦ıà¦Ń":4637,"à¦ĩà¦¬à¦¨à¦®":4638,"à§¨à§®à§¨à§¦à§¨à§§":4639,"à¦¨à¦ıà¦ķà¦¦":4640,"à¦²à¦¤à¦®":4641,"à§Łà¦®à¦°":4642,"à¦īà¦¨à¦¸":4643,"à¦¤à¦¬à§Łà¦¸":4644,"à¦°à¦ĩà¦Ń":4645,"à¦¨à¦īà¦ªà¦¦":4646,"à¦¸à¦°à¦¤":4647,"à¦Łà¦¨à¦¦":4648,"à¦Łà¦¨à¦¡":4649,"à¦¨à¦°à¦®":4650,"à¦ªà¦®à¦¨":4651,"à¦¶à¦¹à¦²":4652,"à¦²à¦īà¦²":4653,"à¦¶à¦¤à¦ĸ":4654,"à§Łà¦¸à¦¹":4655,"à¦ľà¦¨à¦ļ":4656,"à¦¡à¦Ľ":4657,"à¦°à¦Ĩà¦ĩà¦¸":4658,"à¦°à¦Ĩà¦¬à¦¹":4659,"à¦Łà¦¸à¦®à§Ł":4660,"à¦ªà¦¦à¦¥":4661,"à¦°à¦·à§ľà¦¯à¦¨":4662,"à§Łà¦īà¦ªà¦ľ":4663,"à¦ķà¦¬à¦°à¦ĸ":4664,"à¦¦à¦ķà¦ķà¦°":4665,"à¦¦à¦¨à¦Ł":4666,"à¦Ĺà¦łà¦¨à¦Ł":4667,"à¦ķà¦Ĺà¦²":4668,"à¦¶à¦¬à¦°":4669,"à¦°à¦ĵà¦²":4670,"à¦ķà¦¦à¦®":4671,"à¦¤à¦ĸà¦¨à¦¬":4672,"à¦¹à¦ı":4673,"à¦Łà¦¹à¦ļ":4674,"à¦ķà¦°à¦®":4675,"à¦°à¦ĵà¦ļ":4676,"à¦ľà¦ªà¦¥":4677,"à¦¬à¦¤à¦¤":4678,"à¦ªà¦°à¦¬":4679,"à¦ĩà¦¸à¦®à¦¯":4680,"à§Łà¦ķà¦ķ":4681,"à§®à§®à§¦à§¯à§¬":4682,"à¦Ńà¦ķà¦°à¦¬":4683,"à¦¦à¦ķà¦Ĩà¦¬":4684,"à¦¸à¦ĩà¦¤":4685,"à¦¯à¦®à¦¸":4686,"à§Łà¦°à¦ª":4687,"à¦ĵà¦°à¦®":4688,"à¦¸à¦¹à¦²":4689,"à§§à§®à§®à§¦":4690,"à¦ıà¦¸à¦ĩ":4691,"à¦¨à¦Ĩà¦ľà¦ľà¦¨":4692,"à¦²à¦°à¦¸":4693,"à¦°à¦¸à¦«à¦°":4694,"à¦·à§Łà¦¬à¦¸":4695,"à¦ıà¦®à¦¶":4696,"à¦¯à¦°à¦ķà¦®":4697,"à¦¨à¦ıà¦ĩà¦¸à¦®à§Ł":4698,"à¦°à¦ķà¦ļ":4699,"à¦¹à¦¤à¦¸":4700,"à¦Łà¦ķà¦°à¦Ľ":4701,"à¦Ĩà¦°à¦ĵà¦¸":4702,"à¦¤à¦²à¦¬":4703,"à¦¸à¦¨à¦®":4704,"à¦¸à¦ĩà¦īà¦¨":4705,"à¦Ĺà¦¨à¦Ń":4706,"à¦°à¦Ĺà¦¡":4707,"à¦¶à¦¨à¦«":4708,"à¦²à¦Ĩà¦¯":4709,"à¦ķà¦Ľà§ľ":4710,"à¦ĵà¦¸à¦¹":4711,"à¦ĩà¦²à¦¹":4712,"à¦°à¦īà¦ªà¦°à¦®":4713,"à¦ĵà¦ĩà¦¤":4714,"à¦ªà¦¦à¦¦":4715,"à¦¹à¦ķà¦°à¦²":4716,"à¦ıà¦ĩà¦ħà¦Ń":4717,"à¦²à¦®à¦¡":4718,"à¦®à¦¹à¦¸":4719,"à¦ļà¦¨à¦¦":4720,"à¦§à¦¹à¦²":4721,"à¦ĺà¦¡":4722,"à§İà¦īà§İà¦ª":4723,"à¦¯à¦Ĩà¦¦":4724,"à¦«à¦Ĩà¦²":4725,"à¦°à¦īà¦ĩà¦¨":4726,"à¦ªà¦ħ":4727,"à¦¹à¦¸à¦ª":4728,"à¦Łà¦Ĩ":4729,"à¦°à¦ķà¦®à¦ª":4730,"à¦¨à¦ĺà¦°":4731,"à¦ıà¦ķà¦®à¦¤":4732,"à¦ªà¦¨à¦īà¦ªà¦²à¦ķ":4733,"à¦°à¦¸à¦¬à¦ľ":4734,"à§©à§«à§¯":4735,"à¦Łà¦²à¦ķ":4736,"à¦īà¦¨à¦¬":4737,"à¦¨à¦ıà¦°":4738,"à¦¨à¦ĵà¦ªà¦°":4739,"à¦²à¦¬à¦¸":4740,"à¦¸à¦ķà¦ķ":4741,"à¦Ĺà¦łà¦¨à¦Ĺ":4742,"à¦ķà¦īà¦¤":4743,"à¦ļà¦ľà¦¨":4744,"à¦¨à¦¯à¦ĸà¦¨":4745,"à¦°à¦¹à¦£à¦ķà¦°à¦²":4746,"à¦¤à¦°à¦Ń":4747,"à§Łà¦®à¦¸à¦ľ":4748,"à§¨à§¦à§¨à§©":4749,"à¦ķà¦Ļ":4750,"à¦ķà¦Ŀ":4751,"à¦ķà¦Ĩà¦ĩà¦¨":4752,"à§Łà¦ıà¦ķà¦ľà¦¨":4753,"à¦°à¦¬à¦¦":4754,"à¦°à¦ªà¦°à¦ļ":4755,"à¦¨à¦¨à¦¦":4756,"à¦Ĺà¦¤à¦¤":4757,"à¦¤à¦¸à¦¹":4758,"à¦°à¦¬à¦£":4759,"à¦¨à¦¸à¦¹à¦ķ":4760,"à¦¸à¦°à¦¡":4761,"à¦²à¦ħà¦ªà¦°":4762,"à¦ļà¦¨à¦ª":4763,"à¦·à¦ľà¦¨":4764,"à¦Ĩà¦¨à¦¬":4765,"à¦¦à¦¨à¦°":4766,"à¦§à¦ħà¦¨":4767,"à¦ĵà¦ıà¦ĸà¦¨":4768,"à¦¨à¦ªà¦£":4769,"à¦īà¦²à¦ĩà¦¸à¦²":4770,"à¦°à¦¹à¦¦":4771,"à¦Ńà¦°à¦¤":4772,"à¦ĸà¦ĺ":4773,"à¦°à¦ĵà¦ªà¦°à¦¬":4774,"à¦¦à¦°à¦ķà¦°":4775,"à¦¬à¦ķà¦¸":4776,"à¦¦à¦°à¦¥":4777,"à¦Ĺà¦°à¦¬":4778,"à¦«à§Łà¦¸":4779,"à¦°à¦¸à¦ķà¦²à¦ªà¦°":4780,"à¦ķà¦ħà¦ħ":4781,"à¦¬à¦ı":4782,"à¦¬à¦°à¦Ł":4783,"à¦ĩà¦ĩ":4784,"à¦ĩà¦®à¦¦":4785,"à¦°à¦Ĩà¦ĩà¦¡":4786,"à§¨à§¦à§¨à§ª":4787,"à¦®à¦ķà¦¥":4788,"à¦¶à¦ķà¦ķ":4789,"à¦«à¦°à¦¯à¦Ľ":4790,"à¦¤à¦Ĩà¦®à¦°":4791,"à¦ĺà¦Łà¦¬":4792,"à¦¡à¦ĸ":4793,"à¦¬à¦ķà¦Ĺ":4794,"à¦ļà¦¨à¦¬":4795,"à¦°à¦¨à¦Ĺà¦°":4796,"à§İà¦§":4797,"à¦Łà¦¬à¦²à¦¬":4798,"à¦¶à¦¨à¦ħ":4799,"à¦®à¦¸à¦¨":4800,"à¦°à¦²à¦ľ":4801,"à§¨à§¦à§¨à§«":4802,"à¦¶à¦ħ":4803,"à¦īà¦¬à¦¸":4804,"à¦ĸà¦ªà¦°":4805,"à¦ķà¦²à¦¸":4806,"à¦ĩà¦Łà¦¹":4807,"à¦ĭà¦£à¦¦":4808,"à¦°à¦£à¦ıà¦Ł":4809,"à¦ĩà¦²à¦Ľà¦¬":4810,"à¦¨à¦ıà¦ĺà¦Łà¦¨":4811,"à¦¤à¦ĩà¦¨":4812,"à¦¸à¦ıà¦ķà¦Ł":4813,"à¦¦à¦¨à¦ªà¦¤":4814,"à¦°à¦¤à¦¸à¦°à¦ķ":4815,"à¦¤à¦¬à¦¯":4816,"à¦®à¦Ĩà¦²à¦®à¦Ĺ":4817,"à¦¬à¦ĩà¦Ń":4818,"à¦¹à¦¨à¦¨":4819,"à¦¥à¦ĵà¦ªà¦°":4820,"à¦®à¦¸à¦²":4821,"à¦¦à¦¨à¦«":4822,"à¦ķà¦ķà¦¬":4823,"à¦ļà¦ªà¦ł":4824,"à¦Ĺà¦²à¦¸":4825,"à¦ĩà¦ıà¦ĩà¦¸":4826,"à¦īà¦Ľ":4827,"à¦°à¦ķà¦®à¦²":4828,"à¦°à¦¨à¦ľà¦°":4829,"à¦°à¦¹à¦ĵà¦¯":4830,"à¦°à¦ĵà¦¸à¦®":4831,"à¦ĩà¦ħà¦Ĺ":4832,"à¦ľà¦¨à¦ħà¦¨":4833,"à¦°à¦Ĩà¦®à¦¨":4834,"à¦·à¦ķà¦¸à¦®":4835,"à§§à§ªà§§à§«":4836,"à§¦à§¯à§¨à§¦à§¨à§§":4837,"à¦®à¦¨à¦Ĩà¦Ľ":4838,"à¦ķà¦²à¦¶":4839,"à¦ķà¦ĵà¦īà¦ļ":4840,"à¦¬à¦ĩà¦¤":4841,"à¦¯à¦ĩà¦®":4842,"à¦§à¦¡":4843,"à¦²à¦®à¦§":4844,"à¦ĸà¦¬à¦°à¦ľ":4845,"à¦°à¦¸à¦¹à¦ª":4846,"à¦°à¦¹à¦ª":4847,"à¦¨à¦ķà¦ĸà¦¨":4848,"à¦¨à¦§à¦°à¦£":4849,"à¦ĵà¦ľà¦¨à¦ķà¦®":4850,"à¦¨à¦Ĩà¦°à¦¤":4851,"à¦ĩà¦ĩà¦¸à¦²":4852,"à¦¤à¦ĩà¦®":4853,"à¦ªà¦ķà¦°à¦¤":4854,"à¦°à¦Ĩà¦¬à¦°":4855,"à§®à§§à§®":4856,"à¦²à¦¬à¦¦":4857,"à¦°à¦ĩà¦ķà¦¬":4858,"à¦¦à¦¨à¦ħà¦¨":4859,"à¦¹à¦¨à¦¸":4860,"à§§à§®à§ªà§«":4861,"à§©à§¦à§¨à§¦à§¨à§§":4862,"à¦¬à§ľà¦¦":4863,"à¦¹à§İ":4864,"à¦łà¦ķà¦°à¦²":4865,"à¦¨à¦¸à¦ª":4866,"à¦ıà¦ĩà¦ħ":4867,"à¦ľà¦Ĩà¦®":4868,"à¦īà¦§":4869,"à¦¨à¦¤à¦ĸà¦¨à¦¤":4870,"à§¨à§¦à§§à§®à§¨à§¦à§§à§¯":4871,"à¦¯à¦ķà¦°à¦²":4872,"à¦¨à¦¤à¦ļ":4873,"à¦¯à¦ĩà¦ķ":4874,"à¦£à¦ħà¦¨":4875,"à¦°à¦Ĩà¦ĩà¦Ł":4876,"à¦¤à¦ªà¦¡":4877,"à¦ĩà¦¶à¦ķ":4878,"à¦ĵà¦®à¦°à¦°":4879,"à¦ªà¦ĵ":4880,"à¦ıà¦ĩà¦§":4881,"à¦Ĩà¦°à¦ĵà¦ıà¦ķà¦Ł":4882,"à¦¯à¦Ĩ":4883,"à¦¶à¦¤à¦¬":4884,"à¦ĩà¦ıà¦®à¦¨":4885,"à¦ļà¦Ĩà¦¦":4886,"à¦ĩà¦ķà¦ķà¦°":4887,"à¦ıà¦¸à¦Ĩà¦ĩà¦¬":4888,"à¦ĩà¦Łà¦ķà¦°":4889,"à¦ħà¦«à¦¬":4890,"à¦ıà¦ĸà¦¨à¦¯":4891,"à¦ĩà¦¦à¦°":4892,"à¦·à¦ħ":4893,"à¦°à¦¸à¦¸":4894,"à¦¡à¦ħà¦¨":4895,"à§¨à§¨à§¦à§¨à§§":4896,"à¦¨à¦¬à¦¸à¦®":4897,"à¦°à¦ľà¦¨à¦¨":4898,"à¦¶à¦¨à¦ļ":4899,"à§¯à§¯à§¯":4900,"à¦Ĩà¦ĩà¦®":4901,"à¦ķà¦¸à¦ª":4902,"à¦°à¦¬à¦§":4903,"à¦ĵà¦¯à¦¦":4904,"à¦ĩà¦ľà¦®":4905,"à¦ıà¦¸à¦Ĩà¦ĩ":4906,"à¦Ĩà¦ľà¦¦":4907,"à¦ıà¦°à¦ªà¦°à¦¥":4908,"à§Łà¦¹à¦²":4909,"à¦ĩà¦ıà¦¦":4910,"à¦ļà¦®à¦§":4911,"à¦°à¦²à¦®":4912,"à¦·à¦£à¦Ń":4913,"à¦¬à¦ªà¦¨":4914,"à¦ļà¦Ľ":4915,"à¦²à¦¤à¦¤":4916,"à¦°à¦¸à¦¦à¦°à¦īà¦ªà¦ľ":4917,"à¦²à¦¨à¦ķà¦°à¦²":4918,"à¦°à¦«à¦²à¦ª":4919,"à¦ĩà¦Ńà¦ľ":4920,"à¦°à¦Ĩà¦¹à¦®à¦¦":4921,"à¦Łà¦¨à¦¸":4922,"à¦¤à¦ªà¦¶":4923,"à¦¸à¦ĩà¦¨":4924,"à§Łà¦¯à¦¦":4925,"à§Łà¦ľà¦°":4926,"à¦°à¦ĵà¦ªà¦°à¦Ń":4927,"à¦ľà¦¨à¦Ĺà¦£à¦ķ":4928,"à¦®à¦ķà¦¸":4929,"à¦Ĩà¦°à¦ĸ":4930,"à¦²à¦ķà¦Ĺ":4931,"à¦¬à¦°à¦¢":4932,"à¦¨à¦ķà¦ķ":4933,"à¦Ĩà¦²à¦¤":4934,"à¦°à¦Ńà¦¯":4935,"à¦ľà¦¨à¦¹à¦¬":4936,"à¦¬à¦¸à¦Ł":4937,"à§Łà¦¦à¦ĩà¦¬à¦¨":4938,"à¦¬à§ľà¦ķ":4939,"à¦®à¦¤à¦Ń":4940,"à¦ıà¦¸à¦ıà¦®à¦ıà¦¸":4941,"à¦¦à¦ĵà¦®":4942,"à¦ıà¦¨à¦Ł":4943,"à¦īà¦ªà¦®à¦¹":4944,"à§Łà¦¶à¦¨":4945,"à§Łà¦ĩà¦¤":4946,"à¦Ńà¦¬à¦¸":4947,"à¦¤à¦¹à§Łà¦¤":4948,"à¦°à¦Ĩà¦Ł":4949,"à¦·à§Łà¦ķà¦®à¦¨":4950,"à¦ĸà¦ķà¦¦":4951,"à¦«à¦²à¦¸":4952,"à¦¸à¦Ĩà¦Ľ":4953,"à¦Ľà¦¦à¦®":4954,"à¦°à¦ªà¦¦à¦ķ":4955,"à¦ıà¦ķà¦¨à¦ľà¦°":4956,"à¦·à¦ķà¦ķà¦°":4957,"à¦¨à§Łà¦¬":4958,"à¦ĩà¦ĩà¦¨":4959,"à¦°à¦¨à¦¬à¦¨":4960,"à§§à§¯à§Ńà§«":4961,"à¦¤à¦«à¦²":4962,"à§Łà¦¨à¦ª":4963,"à¦¹à¦¹à¦¬":4964,"à¦ĩà¦¬à¦²à¦¤":4965,"à¦ļà¦ķà¦¦":4966,"à¦°à¦ķà¦¬à¦°":4967,"à¦¨à¦ħà¦ŀ":4968,"à¦ªà¦°à¦Ĺà¦£":4969,"à¦°à¦¦à¦°à¦¬":4970,"à¦Ĩà¦°à¦ĵà¦Ń":4971,"à¦ľà¦²à¦ķ":4972,"à¦ıà¦°à¦ħà¦°":4973,"à¦īà¦¦à¦ķ":4974,"à¦ĩà¦®à¦¬":4975,"à¦²à¦ľà¦²":4976,"à¦®à¦¢":4977,"à§Łà¦ıà¦¦":4978,"à¦¹à¦°à¦®":4979,"à¦Ĺà¦°à¦£":4980,"à¦·à¦ľà¦¨à¦ª":4981,"à¦ĵà¦Ĩà¦Ĺ":4982,"à¦·à¦£à¦Ĺ":4983,"à§§à§¦à§®":4984,"à§Łà¦ıà¦®à¦¨":4985,"à¦Łà¦ĩà¦īà¦¨":4986,"à¦ĩà¦¸à¦®à¦¸":4987,"à¦°à¦ħà¦¦":4988,"à¦°à¦ıà¦¸à¦¬":4989,"à¦¤à¦ķà¦¦":4990,"à§§à§¦à§©":4991,"à¦·à¦ķà¦¹":4992,"à¦¤à¦¸à¦¤":4993,"à¦¨à¦ħà¦¶":4994,"à¦¨à¦¬à¦²à¦²":4995,"à¦¬à¦²à¦ķà¦°":4996,"à¦°à¦¹à§Łà¦¤":4997,"à¦®à¦¨à¦Ĺà¦°":4998,"à¦ħà¦ªà¦°à¦ķ":4999,"à¦¨à¦Ĩà¦«":5000,"à¦Īà¦¦à¦°à¦¹":5001,"à¦ķà¦Ľà¦¬":5002,"à¦¸à¦ıà¦¸":5003,"à¦īà¦Łà¦¨":5004,"à§İà¦ļ":5005,"à¦®à¦¤à¦¤":5006,"à¦·à¦®à¦¹à¦¬":5007,"à¦°à¦Īà¦¶":5008,"à¦·à¦¬à¦²":5009,"à¦ĸà¦¨à¦®":5010,"à¦«à¦²à¦¹à¦ĵà§Ł":5011,"à¦ıà¦ķà¦Ń":5012,"à¦¨à¦ıà¦ĩà¦ķ":5013,"à§¨à§§à§®à§¨":5014,"à¦²à¦ķà¦ªà¦²à¦ķà¦ªà¦²à¦ķà¦ªà¦²à¦ķà¦ª":5015,"à§Łà¦Ĩà¦¤":5016,"à¦ıà¦ķà¦ĩà¦ªà¦°":5017,"à¦®à¦¤à¦ľ":5018,"à¦Ĩà¦¸à¦ķ":5019,"à¦¯à¦¦à¦°à¦ķ":5020,"à¦®à¦ªà¦¨":5021,"à¦ªà¦¹à§Ł":5022,"à§Łà¦¬à¦ķ":5023,"à¦ĵà¦Ĩà¦¦":5024,"à§ľà¦Ĺ":5025,"à¦ĺà§ľ":5026,"à§İà¦¸à¦ķà¦¨":5027,"à¦°à¦¹à¦£à¦¶":5028,"à¦Ľà¦¸":5029,"à¦®à¦¨à¦²":5030,"à¦Ńà¦¬à¦ķà¦°à¦¤":5031,"à§¨à§©à§ªà§¬":5032,"à¦¨à§Łà¦¸":5033,"à¦¦à¦°à¦Ĺà¦ŀ":5034,"à¦ĩà¦īà¦ªà¦ľ":5035,"à¦ıà¦ĩà¦¤à¦¥":5036,"à§Łà¦®à¦®":5037,"à¦¸à¦¸à¦¹":5038,"à¦ĩà¦Ľà¦¬":5039,"à¦°à¦¬à¦Ĺ":5040,"à¦¤à¦¨à¦Ĺ":5041,"à¦·à¦£à¦¡":5042,"à§§à§ªà§ªà§©":5043,"à¦Ĩà¦¯à¦¹":5044,"à¦°à¦Ĩà¦¶à¦ª":5045,"à§¯à§¨":5046,"à¦ĩà¦¬à¦¨à¦¹":5047,"à¦ĭà¦£à¦¨":5048,"à¦¨à¦ĺà¦Ł":5049,"à¦ĩà¦Ŀ":5050,"à¦ĩà¦Łà¦¨":5051,"à¦®à¦¦à¦¶":5052,"à¦¸à¦®à§Łà¦Ĩà¦ªà¦¨":5053,"à¦¤à¦«à¦¸":5054,"à§§à§¨à§§à§¨à§©":5055,"à¦ĩà¦ħà¦¤":5056,"à¦ıà¦ħà¦¬à¦¸":5057,"à¦®à¦¨à¦ıà¦ķà¦Ł":5058,"à¦ļà¦¨à¦ªà¦°":5059,"à¦Ĩà¦ľà¦ĩà¦ª":5060,"à¦ĸà¦²à¦ķà¦°":5061,"à¦²à¦Ĩà¦¦":5062,"à¦·à¦ķà¦²":5063,"à¦²à¦¬à¦Ļ":5064,"à¦Ĩà¦«à¦¸":5065,"à¦¬à¦«à¦ľà¦²":5066,"à¦ĩà¦¤à¦°":5067,"à¦°à¦¬à¦²à¦²":5068,"à¦¯à§Łà¦¨":5069,"à¦¶à¦°à¦£":5070,"à¦¶à¦ĵà¦¬":5071,"à§¦à§§à§¯":5072,"à¦¹à§Łà¦¹":5073,"à¦ıà¦ĩà¦ħà¦¬à¦¸":5074,"à¦ıà¦ĩà¦Ľà¦¬":5075,"à¦Łà¦®à¦¶":5076,"à¦¸à§ľà¦ķà¦ħà¦¬à¦°":5077,"à¦²à¦²à¦ķ":5078,"à¦¹à¦°à¦Ľ":5079,"à¦°à¦®à¦Ĩà¦¨":5080,"à¦¹à¦¤à¦ķ":5081,"à§¬à§®à§®à§¦à§§à§Ńà§¨à§¯à§¦à§Ńà§¬à§¯à§¯":5082,"à¦¨à¦Ĩà¦Łà¦ķ":5083,"à¦ªà¦ķà¦°à¦«":5084,"à§¨à§§à§®à§§à§®à§®à§¦":5085,"à§¨à§®à§ªà§©à§¨à§§à§®à§¨":5086,"à§®à§®à§¦à§¨à§®à§ªà§©à§¨à§©à§ªà§¬":5087,"à§®à§®à§¦à§¨à§®à§ªà§©à§¨à§§à§®à§§à§®à§®à§¦":5088,"à§®à§®à§¦à§§à§Ńà§¨à§¯à§¦à§Ńà§¬à§¯à§¯à§¬à§®à§®à§¦à§§à§Ńà§¨à§¯à§¦à§Ńà§¬à§¯à§¯":5089,"à§®à§®à§¦à§¯à§¬à§§à§¨à§§à§¨à§©":5090,"à§®à§®à§¦à§¨à§®à§ªà§©à§¨à§§à§®à§§à§®à§®à§¦à§¨à§®à§ªà§©à§¨à§§à§®à§¨":5091,"à§®à§®à§¦à§§à§Ńà§¨à§¯à§¦à§Ńà§¬à§¯à§¯à§¬à§®à§®à§¦à§§à§Ńà§¨à§¯à§¦à§Ńà§¬à§¯à§¯à§¯":5092,"à§®à§®à§¦à§¯à§¬à§§à§¨à§§à§¨à§©à§§à§©à§§":5093,"à¦ĩà¦ķà¦°à¦¬":5094,"à¦ıà¦°à¦®à¦¤":5095,"à¦·à¦Ĩà¦ªà¦¡":5096,"à¦°à¦ıà¦®à¦¨à¦ķ":5097,"à§§à§¯à§¯à§®":5098,"à¦°à¦°à¦ļà¦¨":5099,"à¦łà¦ķà¦ķà¦°":5100,"à¦°à¦£à¦ħà¦¨":5101,"à¦¤à¦¨à¦ļ":5102,"à¦Ńà¦°à¦ª":5103,"à¦²à¦¶à¦¨":5104,"à¦Łà¦¸à¦°à¦ķ":5105,"à¦²à¦ªà¦¦":5106,"à¦®à¦ĩà¦°à¦¹":5107,"à§§à§¦à§¬":5108,"à¦¨à¦ĸà¦¬":5109,"à¦²à§Łà¦Ĺ":5110,"à¦®à¦Ĩà¦®à¦°":5111,"à¦®à¦ļà¦Ł":5112,"à¦²à¦Ĩà¦®à¦°":5113,"à¦¯à¦īà¦ªà¦¯":5114,"à§§à§¦à§§":5115,"à¦ıà¦¸à¦¬à¦ª":5116,"à¦ĩà¦®à¦¤":5117,"à¦°à¦ªà¦°à¦Ń":5118,"à¦®à¦°à¦¬":5119,"à§Łà¦ĩà¦īà¦ª":5120,"à¦ķà¦°à¦ķà¦®":5121,"à¦°à¦ıà¦°":5122,"à§Łà¦ªà¦¡":5123,"à¦°à¦®à¦£à¦°":5124,"à§Łà¦ĺà¦Łà¦¨":5125,"à¦°à¦ĩà¦¶":5126,"à¦°à¦ıà¦ķà¦¶":5127,"à¦¤à¦ħà¦ŀ":5128,"à¦®à¦īà¦ª":5129,"à¦¡à¦²à¦¸":5130,"à¦¨à¦®à¦ŀ":5131,"à¦²à¦®à¦Ļ":5132,"à¦¦à¦ĺ":5133,"à¦¥à¦¨à¦¦":5134,"à¦ĵà¦ĩà¦ķ":5135,"à¦°à¦¤à¦¯":5136,"à¦®à§Łà¦ķ":5137,"à¦¦à¦°à¦īà¦ªà¦ľ":5138,"à¦¯à¦¡à¦¸":5139,"à¦¡à¦¢":5140,"à§¨à§§à§«":5141,"à§§à§¨à§¦à§¦":5142,"à¦®à¦ľà¦¨":5143,"à¦®à¦Ĺà¦£":5144,"à¦ĩà¦ļà¦²à¦Ľ":5145,"à¦ıà¦ļ":5146,"à¦£à¦ªà¦¶":5147,"à¦®à¦¤à¦¥":5148,"à¦ķà¦¨à¦¤":5149,"à¦®à¦ĵà¦ķ":5150,"à¦Łà¦īà¦ªà¦ľ":5151,"à¦łà¦¥":5152,"à¦¸à¦¹à¦ķà¦°":5153,"à¦¬à¦ķà¦ľà¦¨":5154,"à¦£à¦¬à¦¨":5155,"à§¨à§ªà§ª":5156,"à¦¨à¦Ĩà¦°à¦ĵà¦¬à¦ķ":5157,"à¦¹à¦°à¦¤":5158,"à¦Ĺà¦°à¦ķ":5159,"à¦ĩà¦¹à¦°":5160,"à¦¥à¦§":5161,"à¦¸à¦®à¦¹":5162,"à¦¶à¦ķà¦ķà¦°":5163,"à¦¤à¦ĸà¦¨à¦Ĩà¦®":5164,"à§¦à§§à§§à§®à§ªà§«":5165,"à¦°à¦¥à¦®à¦¤à¦Ł":5166,"à¦¦à¦®à¦¤":5167,"à¦¶à¦¨à¦ķà¦°à¦¤":5168,"à¦®à¦¸à¦ª":5169,"à¦Łà¦Ĩà¦²":5170,"à¦ĸà¦¨à¦¦":5171,"à¦Łà¦¨à¦ķà¦°":5172,"à¦¦à¦°à¦¤":5173,"à¦¦à¦Ĩà¦¹à¦®à¦¦":5174,"à¦°à¦¨à¦¶à¦¨":5175,"à¦ķà¦¸à¦ķ":5176,"à§§à§¨à§§à§«":5177,"à¦ķà¦Ĺà¦¬":5178,"à¦¸à¦¶à¦°":5179,"à¦ĩà¦¡à¦¬":5180,"à¦¹à¦¬à¦°":5181,"à¦¶à¦ĺ":5182,"à¦Īà¦¦à¦®":5183,"à§§à§¯à§¯à§Ń":5184,"à¦¸à¦ıà¦¨":5185,"à¦²à¦Ĩà¦Ĺ":5186,"à¦¶à¦ķà¦¬":5187,"à¦ĩà¦¬à¦¸":5188,"à¦°à¦®à¦¬à¦°":5189,"à¦ĩà¦Łà¦Ń":5190,"à¦¨à¦ıà¦ľ":5191,"à¦¯à¦°à¦¹":5192,"à¦¬à¦¨à¦Ĩà¦¨à¦¨":5193,"à§¨à§§à§¨":5194,"à¦¯à¦¢":5195,"à¦ĩà¦ħà¦¬":5196,"à¦®à¦¨à¦¶":5197,"à¦°à¦ħà¦¥à¦¬":5198,"à¦ķà¦¤à¦¹":5199,"à¦¬à¦ķà¦ħà¦§":5200,"à¦ıà¦ķà¦ľà¦¨à¦¶":5201,"à¦¸à¦°à¦ĵà¦ªà¦°":5202,"à¦ªà¦¦à¦°":5203,"à¦°à¦ıà¦¡":5204,"à¦°à¦ĩà¦īà¦°":5205,"à¦°à¦§à¦°à¦ķà¦°":5206,"à¦¯à¦ĸà¦¨à¦®":5207,"à¦¤à¦ķà¦°à¦£à¦ħà¦¦":5208,"à¦¨à¦Ĩà¦ľà¦¸à¦«à¦²à¦¹à¦ĵà§Ł":5209,"à¦¸à¦°à¦²":5210,"à¦ıà¦¨à¦Ĩ":5211,"à¦²à¦®à¦¤":5212,"à¦¬à¦¨à¦Ń":5213,"à¦¶à¦¨à¦¯":5214,"à¦īà§İà¦ķ":5215,"à¦¦à¦¹à¦¤":5216,"à¦°à¦«à¦¸à¦²":5217,"à¦®à¦ķà¦ª":5218,"à¦ıà¦«à¦¡":5219,"à§§à§¨à§©à§ªà§«":5220,"à¦®à¦¸à¦¬":5221,"à¦²à¦ħà¦¬":5222,"à¦¶à¦¹à¦¤":5223,"à¦¨à¦¶à¦¹à¦°":5224,"à¦²à¦¸à¦¹à¦¨":5225,"à¦°à¦Ĩà¦ĩà¦ª":5226,"à¦²à¦ķà¦¤":5227,"à¦°à¦²à¦¡":5228,"à¦²à¦ĵà¦¸":5229,"à¦Łà¦Ĩà¦ªà¦¨":5230,"à§¨à§§à§¬":5231,"à¦¦à¦ķà¦¤":5232,"à¦¾à§į":5233,"à¦¬à¦ĩà¦¦":5234,"à¦®à¦Ĩà¦¸":5235,"à¦¯à¦Łà¦ķ":5236,"à§Łà¦ł":5237,"à§Łà¦Ĺà¦²":5238,"à¦°à¦¬à¦Ľà¦°à¦¬à¦Ľà¦°à¦¬à¦Ľà¦°à¦¬à¦Ľà¦°à¦¬à¦Ľà¦°à¦¬à¦Ľà¦°à¦¬à¦Ľà¦°à¦¬à¦Ľ":5239,"à¦ķà¦¢":5240,"à¦¸à¦¨à¦¨":5241,"à¦Łà¦°à¦¦":5242,"à¦¶à¦ħà¦Ń":5243,"à¦ĩà¦ĺà¦Łà¦¨":5244,"à¦°à¦īà¦ªà¦¸à¦°":5245,"à¦¸à¦Ĳà¦¤":5246,"à¦ĩà¦ħà¦¬à¦¸":5247,"à¦¥à¦¡":5248,"à¦°à¦ĩà¦¹":5249,"à¦®à¦Ĩà¦¨":5250,"à¦²à¦ĵà¦¬":5251,"à¦°à¦£à¦¹à§Ł":5252,"à¦ĺà¦ª":5253,"à¦°à¦ıà¦Ľ":5254,"à¦Ĺà¦¤à¦¯":5255,"à¦Ĩà¦ľà¦ª":5256,"à¦¨à¦¸à¦¹à¦ľ":5257,"à¦®à¦¦à¦¤":5258,"à¦ķà¦°à¦Ĺ":5259,"à¦¸à¦ħà¦«":5260,"à¦ªà¦ł":5261,"à¦Ĩà¦°à¦ıà¦ķ":5262,"à¦°à¦¬à¦²à¦¬":5263,"à¦°à¦ħà¦¬à¦°":5264,"à¦¦à¦²à¦¨":5265,"à¦²à¦¨à¦ħà¦¨":5266,"à¦¸à¦¤à¦¤":5267,"à¦¶à¦ħà¦°":5268,"à¦¶à¦¨à¦Ń":5269,"à§§à§ªà§ª":5270,"à¦ķà¦ªà¦¤":5271,"à¦«à¦¨à¦ķ":5272,"à¦¹à¦²à¦¯":5273,"à§±":5274,"à¦°à¦¬à¦²à¦¤":5275,"à¦ªà¦¨à¦¶":5276,"à¦¯à¦ĸà¦¨à¦¦":5277,"à¦ıà¦ĩà¦®à¦¹":5278,"à¦·à¦ĸà¦¬à¦°à¦®":5279,"à¦¦à¦¨à¦¤":5280,"à¦ıà¦°à¦¸à¦®":5281,"à¦ķà¦°à¦£à¦¬":5282,"à¦°à¦£à¦«":5283,"à¦¨à¦¶à¦ķ":5284,"à¦ªà¦¦à¦¨":5285,"à¦¦à¦Ĩà¦¨":5286,"à§Łà¦¶à¦¹":5287,"à¦łà¦ķà¦¶":5288,"à¦¯à¦ķà¦°à¦ķà¦°":5289,"à¦¶à¦¶à¦¤à¦ķ":5290,"à¦¬à¦ĩà¦¯":5291,"à¦Łà¦¸à¦ķ":5292,"à¦Ńà¦ķà¦°à¦¤":5293,"à§¬à§¨à§¦à§§à§¯":5294,"à§Łà¦ķà¦ķà¦®":5295,"à¦°à¦ªà¦°à¦Ĩà¦¬":5296,"à¦ıà¦ķà¦ĩà¦¬":5297,"à¦ªà¦¦à¦ķà¦ª":5298,"à¦ķà¦ıà¦¸":5299,"à¦ķà¦ıà¦Ł":5300,"à¦®à¦ħà¦Ń":5301,"à¦°à¦¤à¦ķà¦°":5302,"à¦²à¦®à¦ľ":5303,"à¦ľà¦¹à§Ł":5304,"à§İà¦¯":5305,"à§Łà¦ķà¦¤":5306,"à¦¨à¦ļà¦ķ":5307,"à¦·à¦¦à¦ļ":5308,"à¦°à¦ĵà¦ªà¦°à¦ª":5309,"à¦ıà¦¸à¦¬à¦¤à¦¥":5310,"à¦Łà¦ķà¦¨":5311,"à¦ĩà¦Ĩà¦¦":5312,"à¦°à¦ľà¦Ļ":5313,"à¦ĩà¦¸à¦¦":5314,"à¦ļà¦²à¦ª":5315,"à¦ªà¦¦à¦®à¦¨":5316,"à¦ĸà¦°à¦ļà¦ķà¦°":5317,"à¦²à¦ªà¦¥":5318,"à¦°à¦īà¦ªà¦°à¦¤":5319,"à¦¸à¦ķà¦¦":5320,"à¦²à¦ªà¦¤":5321,"à¦Łà¦§":5322,"à¦ľà¦¬à¦²":5323,"à¦ıà¦¸à¦®à¦¯":5324,"à¦°à¦£à¦ħà¦§":5325,"à¦ĩà¦¯à¦¥":5326,"à¦¤à¦°à¦£à¦ķà¦°à¦²":5327,"à¦ľà¦ļà¦²à¦Ľ":5328,"à¦ķà¦¸à¦Ļ":5329,"à¦²à¦®à¦°":5330,"à¦¨à¦īà¦ªà¦²à¦ķ":5331,"à¦¸à¦Ĩà¦¬":5332,"à¦²à¦ĩà¦¸":5333,"à¦¯à¦¸à¦®à¦¸":5334,"à¦Łà¦ħà¦°":5335,"à¦ĩà¦ħà¦§":5336,"à¦Ľà§Łà¦®":5337,"à¦·à¦ħà¦Ń":5338,"à¦ĵà¦Ĺà¦¬":5339,"à¦°à¦®à¦¤à¦ª":5340,"à¦ķà¦®à¦Ľ":5341,"à§§à§¯à§¯à§¯":5342,"à¦¤à¦Ĩà¦Ĺ":5343,"à¦²à¦ĵà¦ķ":5344,"à§¦à§§à§®":5345,"à¦ķà¦ĵà¦¦":5346,"à¦¤à¦°à¦ªà¦°":5347,"à§Łà¦ħà¦¬":5348,"à¦ĺà¦¶":5349,"à¦ķà¦²à¦ª":5350,"à¦Ĺà¦łà¦¨à¦¬":5351,"à¦¸à¦°à¦¦":5352,"à¦ĩà¦¬à¦²à¦Ľ":5353,"à¦¹à§Łà¦ıà¦¤":5354,"à¦ķà¦¬à¦Ľà¦°":5355,"à¦¸à¦ķà¦·":5356,"à¦Ĺà¦¤à¦ļ":5357,"à¦°à¦ķà¦®à¦°à¦ª":5358,"à¦ĭà¦£à¦Ĺ":5359,"à§¨à§¦à§§à§®à§¨à§¦à§§à§¯à§¨à§¦à§¨à§¦à§¨à§¦à§¨à§§":5360,"à¦Ĩà¦°à¦ħà¦¨":5361,"à¦¶à¦¨à¦¡":5362,"à§¨à§©à§¨à§ª":5363,"à¦¸à¦Ĩà¦¦":5364,"à¦¬à¦ªà¦¦":5365,"à¦¸à¦®à§Łà¦Ł":5366,"à¦£à¦ıà¦ķà¦Ł":5367,"à¦¹à§Łà¦¬à¦²":5368,"à§¦à§Ńà§¨à§§à§Ń":5369,"à¦°à¦ħà¦¬à¦ķ":5370,"à¦°à¦¶à¦ªà¦¥":5371,"à¦²à¦Ĺà¦ĩà¦¨à¦ķà¦°":5372,"à¦¸à¦ĵà¦¬":5373,"à¦ıà¦®à¦¦":5374,"à¦ıà¦°à¦ħà¦¨":5375,"à¦ĵà¦ħà¦¬":5376,"à¦ıà¦ĩà¦Ľ":5377,"à¦īà¦ªà¦¬":5378,"à¦®à¦ĵà¦¦":5379,"à¦ļà¦ļ":5380,"à¦§à¦¨à¦¦":5381,"à§ľà¦«":5382,"à¦ķà¦²à¦¨":5383,"à¦²à¦¨à¦Ĺ":5384,"à¦ĩà¦ķà¦¨":5385,"à§¨à§¦à§¨à§§à§§à§¬":5386,"à¦²à¦¹à¦ķà¦ļ":5387,"à§©à§©à§©":5388,"à§¨à§¦à§§à§¬à§¨à§¦à§§à§Ńà§¨à§¦à§§à§®à§¨à§¦à§§à§¯à§¨à§¦à§¨à§¦à§¨à§¦à§¨à§§":5389,"à§Łà¦«à¦²":5390,"à¦Ĺà¦¤à¦¨":5391,"à¦ĵà¦°à¦«":5392,"à¦°à¦Ĩà¦¨à¦¹":5393,"à¦ªà¦¦à¦®":5394,"à¦ıà¦²à¦ľ":5395,"à¦·à¦®à¦¹à§Ł":5396,"à¦ĵà¦ĵ":5397,"à¦¨à¦ĵà¦ļ":5398,"à¦¹à¦Łà¦¸":5399,"à¦ıà¦ķà¦¸à¦®à¦¯":5400,"à¦¸à¦¨à¦ķà¦°":5401,"à¦Ĩà¦ĩà¦°":5402,"à¦¤à¦¹à§Łà¦¸":5403,"à¦¯à¦®à¦¸à¦ľ":5404,"à¦¹à§Łà¦Ń":5405,"à¦°à¦£à¦ªà¦°":5406,"à¦¶à¦¨à¦¹":5407,"à§¨à§«à§¨à§¬":5408,"à§¨à§Ńà§¨à§®":5409,"à¦ľà¦ķà¦®":5410,"à¦·à¦«":5411,"à¦ıà¦ĸà¦¨à¦ĵà¦ªà¦°":5412,"à¦ķà§Łà¦Ł":5413,"à¦ľà§Łà¦¬":5414,"à¦īà¦¸à¦ķ":5415,"à¦¶à¦¬à¦Ľà¦°":5416,"à¦ļà¦¤à¦²":5417,"à¦£à¦Ĩà¦®":5418,"à¦°à¦Ĳà¦ķ":5419,"à¦²à¦ħà¦¸":5420,"à¦¯à¦¶à¦°":5421,"à§Łà¦¹à¦¬":5422,"à¦Łà¦°à¦®":5423,"à¦°à¦®à¦®":5424,"à§Łà¦¨à¦°":5425,"à¦ĩà¦²à¦¡":5426,"à¦¤à¦ķà¦ķ":5427,"à§§à§¨à§©à§ªà§«à§¬à§Ń":5428,"à¦Łà¦ķà¦°à¦²":5429,"à¦ĸà¦ķà¦¬":5430,"à¦°à¦°à¦«à¦¹":5431,"à¦¿à¦¾":5432,"à¦¶à¦®à¦¸":5433,"à¦ķà¦²à¦ķà¦°":5434,"à¦°à¦²à¦Ĺ":5435,"à¦¸à¦®à§Łà¦§à¦°":5436,"à¦Ĺà§ľà¦¤":5437,"à¦īà¦ķà¦°":5438,"à¦¤à¦¹à§Łà¦ķ":5439,"à¦ķà¦ĵà¦¯":5440,"à¦²à¦ħà¦ķ":5441,"à§Łà¦°à¦¤":5442,"à¦§à¦«":5443,"à¦ªà¦¨à¦¨":5444,"à¦ıà¦ĩà¦ļà¦ª":5445,"à¦¸à§Ł":5446,"à¦°à¦£à¦¸à¦Ń":5447,"à§İà¦¹":5448,"à¦°à¦¹à¦®à¦¤":5449,"à¦ĵà¦¸à¦¤":5450,"à¦«à¦Łà¦ĵà§Ł":5451,"à¦²à¦ĵà¦ª":5452,"à¦ıà¦¥":5453,"à¦§à¦¹à¦ĵà§Ł":5454,"à¦¬à¦Ĩà¦¬":5455,"à¦°à¦¬à¦²à¦Ľ":5456,"à§§à§¨à§¨à§¯":5457,"à¦ķà¦ĵà¦ķ":5458,"à¦¬à¦¨à¦ľ":5459,"à¦¨à¦Ĩà¦°à¦¨":5460,"à§¨à§ªà§Ń":5461,"à¦Ĩà¦Łà¦ķà¦¬":5462,"à¦¶à¦¸à¦¹":5463,"à¦®à¦¨à¦°":5464,"à¦°à¦Ńà¦Ĺ":5465,"à¦ļà¦°à¦£":5466,"à¦¨à¦¤à¦ľ":5467,"à¦Ĩà¦°à¦ĵà¦ª":5468,"à¦°à¦ĵà¦ªà¦°à¦ķ":5469,"à¦¨à¦¬à¦²à¦¤":5470,"à¦¥à¦¯":5471,"à¦¨à¦Ĺà¦°à¦ª":5472,"à¦¬à¦¹à¦¬":5473,"à¦¯à¦ĩà¦¬à¦¨":5474,"à¦Ĩà¦°à¦¯à¦¦":5475,"à¦°à¦¸à¦¹à¦¬":5476,"à¦°à¦Ĩà¦¨à¦¸":5477,"à¦°à¦ĵà¦ľà¦¨":5478,"à¦¸à¦¬à¦¥":5479,"à§¨à§¯à§©à§¦":5480,"à¦£à¦¹à¦¬":5481,"à¦¸à¦¬à¦Ł":5482,"à¦²à¦®à¦¸à¦ľ":5483,"à¦Ĩà¦Ĩ":5484,"à¦«à¦²à¦ķ":5485,"à¦£à¦§":5486,"à¦ıà¦ĩà¦ªà¦¦":5487,"à¦¦à¦¶à¦°":5488,"à¦Łà¦°à¦¯":5489,"à¦ĩà¦ıà¦ĩà¦¬":5490,"à¦·à¦ĵ":5491,"à¦ıà¦ķà¦ĩà¦ª":5492,"à¦¨à¦ıà¦ĩà¦¦":5493,"à¦ķà¦īà¦²":5494,"à¦ľà¦ı":5495,"à§§à§ªà§¦":5496,"à¦¬à¦ªà¦¤":5497,"à¦®à¦īà¦¨":5498,"à¦ĩà¦¤à¦¥":5499,"à¦°à¦¸à¦¬à¦ĸà¦¬à¦°à¦ª":5500,"à¦°à¦ªà¦°à¦ħà¦¨":5501,"à¦°à¦ħà¦¸à¦¹":5502,"à§¨à§¦à§©à§¦":5503,"à¦ķà¦¤à¦¸":5504,"à¦¨à¦ĵà¦¸à¦®":5505,"à¦¤à¦ļà¦ķ":5506,"à¦²à¦¤à¦¨":5507,"à§Łà¦Ŀ":5508,"à¦ıà¦²à¦ķ":5509,"à¦²à¦¨à¦Ń":5510,"à¦¶à¦ķà¦ĵà¦¸à¦®":5511,"à¦¸à¦ķà¦²à¦¸":5512,"à¦·à¦¬à¦°":5513,"à¦Ĺà¦łà¦¨à¦ķ":5514,"à¦·à¦ĸà¦¬à¦°à¦ª":5515,"à¦¨à¦§à¦°à¦¨à¦ĵà¦®":5516,"à§§à§¨à§©à§ªà§«à§¬à§Ńà§®à§¯":5517,"à¦ĩà¦ĵà¦Ń":5518,"à§§à§¦à§§à§§à§§à§¨à§§à§©":5519,"à¦«à¦¡":5520,"à¦¹à¦¯à¦°à¦¤à¦°à¦¹":5521,"à§Ģà¦Ĥ":5522,"à¦°à§Łà¦¦":5523,"à¦¨à§Łà¦¬à¦°":5524,"à¦¤à¦¸à¦®à¦¯":5525,"à§İà¦¸à¦°":5526,"à¦²à§Łà¦ľ":5527,"à¦¯à¦ĵà§Ł":5528,"à¦ľà¦ĺ":5529,"à¦°à¦ķà¦Ł":5530,"à¦°à¦ĵà¦ĸ":5531,"à¦ķà¦®à¦ľ":5532,"à¦¤à¦ķà¦¨":5533,"à¦¬à¦¹à¦¨à¦®":5534,"à¦°à¦®à¦¤à¦¸":5535,"à¦¨à¦¬à§ľ":5536,"à¦²à¦ķà¦°à¦¬":5537,"à¦²à¦¹à§Łà¦¨":5538,"à¦Ĩà¦¨à¦Ľ":5539,"à¦¸à¦«à¦Łà¦ĵà§Ł":5540,"à¦·à¦ĸà¦¬à¦°à¦°":5541,"à¦ĵà¦ħà¦¤":5542,"à¦Ĺà¦¤à¦¶":5543,"à¦¥à¦°à¦ĺ":5544,"à¦®à¦¨à¦Ľ":5545,"à¦°à¦ĩà¦Ļ":5546,"à¦¬à¦Ľà¦°à¦ķà¦°":5547,"à¦¶à¦Ĺà§ľ":5548,"à§Łà¦ĵà§Ł":5549,"à¦°à¦Ĩà¦¸à¦°":5550,"à¦¤à¦®à¦§":5551,"à¦¶à¦ķà¦ª":5552,"à¦Ĺà¦£à¦Ńà¦¬à¦¨":5553,"à¦ªà¦¨à¦¤à¦¥":5554,"à¦ıà¦°à¦¸à¦Ļ":5555,"à¦Łà¦ķà¦ıà¦ķ":5556,"à¦¤à¦°à¦ĸ":5557,"à¦Ĺà¦¹à¦²":5558,"à¦«à¦¨à¦¦":5559,"à¦ıà¦ķà¦ĩà¦¦":5560,"à¦Ĩà¦ľà¦ľ":5561,"à¦°à¦ľà¦¨à¦ķà¦¬à¦Ļ":5562,"à¦¨à¦°à¦¯":5563,"à¦ķà¦ĵà¦°":5564,"à¦Łà¦Ĩà¦Ĺ":5565,"à¦ļà¦ĵà§Ł":5566,"à¦°à¦¸à¦¬à¦¬":5567,"à¦¨à¦¦à¦ª":5568,"à¦Ľà¦¨à¦¥":5569,"à¦Łà¦°à¦¡":5570,"à¦Ĺà¦§à¦°":5571,"à¦Ľà¦¦à¦ª":5572,"à¦°à¦¹à¦ķà¦°à¦¤":5573,"à¦°à¦¯à¦ĸà¦¨":5574,"à¦¯à¦®à¦¯":5575,"à§Łà¦ªà¦ķ":5576,"à§¨à§¦à§¨à§§à§§à§¦":5577,"à¦ªà¦§":5578,"à§Łà¦ĵà¦¬":5579,"à¦Ľà¦¶":5580,"à§«à§«à§¦":5581,"à¦®à¦Ĺà¦¤":5582,"à¦¶à¦¬à¦²":5583,"à¦²à¦°à¦ª":5584,"à¦ļà¦ķà¦¬":5585,"à¦¥à¦¸à¦¹":5586,"à¦°à¦ķà¦ļà¦ķ":5587,"à¦¨à¦Ĺà¦°à¦Ĩà¦ĵà§Ł":5588,"à¦¨à§Łà¦¶":5589,"à§§à§¯à§Ńà§¨":5590,"à¦Ĩà¦ķà¦¸":5591,"à¦·à¦Ļ":5592,"à¦§à¦¨à¦°":5593,"à¦ĵà¦ĩà¦īà¦¨":5594,"à¦łà¦Ľ":5595,"à¦°à¦Ĩà¦¨à¦¬":5596,"à¦ıà¦°à¦²":5597,"à¦¨à¦¤à¦ķ":5598,"à¦¨à¦ľà¦°à¦°":5599,"à¦Ĩà¦Ĺà¦®à¦¨":5600,"à¦ıà¦ķà¦¦à¦²":5601,"à¦ľà¦¨à¦¹à¦¯":5602,"à¦°à¦ıà¦ķà¦Ń":5603,"à¦²à§Łà¦¶":5604,"à¦ķà¦Ĩà¦¶":5605,"à¦¤à¦ĩà¦¸à¦²":5606,"à¦¤à¦ĩà¦īà¦¨":5607,"à¦®à¦ħà¦¬":5608,"à¦ĩà¦Ĩà¦ķ":5609,"à¦Ľà¦¦à¦¸":5610,"à¦Ĩà¦¹à¦®à¦¦à¦®":5611,"à¦¤à¦®à¦¸à¦ª":5612,"à¦¯à¦¯à¦¥":5613,"à¦ĩà¦°à¦ķ":5614,"à¦ĩà¦ªà¦¤":5615,"à¦Ńà¦ľ":5616,"à¦§à¦®à¦¨":5617,"à¦ĵà¦ķà¦¨à¦«":5618,"à¦¤à¦ķà¦¤":5619,"à¦ĩà¦®à¦ļ":5620,"à¦Ĩà¦ĩà¦¨à¦ķ":5621,"à¦ĭà¦£à¦ªà¦°":5622,"à¦ªà¦²à¦ķ":5623,"à¦¶à¦¨à¦²":5624,"à¦¯à¦ķà¦°à¦¹à¦¬":5625,"à¦¬à¦ķà¦¶":5626,"à§§à§®à§¦":5627,"à¦°à¦¥à¦®à¦¡":5628,"à¦°à¦¸à¦¬à¦Ĺ":5629,"à¦¸à§ľà¦ķà¦ªà¦°":5630,"à¦¬à¦°à¦£à¦ķà¦°à¦²":5631,"à§§à§¦à§§à§§à§§à§¨à§§à§©à§§à§ªà§§à§«":5632,"à¦¯à§İ":5633,"à¦Ĩà¦īà§Ł":5634,"à¦°à¦ļà¦°à¦®":5635,"à§©à§¨à§¦à§¨à§§":5636,"à¦¬à¦Ľà¦°à¦¤":5637,"à¦ĭà¦£à¦ª":5638,"à¦¨à¦ĩà¦¨à¦¸":5639,"à¦®à§Łà¦ķà¦°":5640,"à¦ķà¦®à¦¸":5641,"à¦ķà¦ķà¦·":5642,"à¦Ĩà¦ĩà¦¨à¦Ĺà¦¤à¦¬":5643,"à¦¯à¦ıà¦¶":5644,"à§Łà¦°à¦°":5645,"à¦Ĩà§Łà¦¬":5646,"à¦Ľà¦¦à¦¬":5647,"à¦§à¦¶à¦¤":5648,"à¦®à¦¦à¦¬":5649,"à¦¨à¦ıà¦ĩà¦¨":5650,"à¦²à¦¨à¦¤":5651,"à¦¯à¦ªà§ľ":5652,"à¦¤à¦¶à¦ķ":5653,"à¦Łà¦ķà¦Ł":5654,"à¦Łà¦ªà§ľ":5655,"à¦°à¦ıà¦ķà¦°":5656,"à¦°à¦ļà¦²à¦¨":5657,"à¦¨à¦ĵà¦«":5658,"à¦°à¦¥à¦®à¦¬à¦°":5659,"à¦¸à¦¨à¦¤":5660,"à¦®à¦ĩà¦¤":5661,"à¦·à¦£à¦¤":5662,"à¦ĵà¦ħà¦§":5663,"à§ľà¦ªà¦¤":5664,"à¦®à¦¤à¦ĸà¦¨":5665,"à¦ķà¦Łà¦ª":5666,"à¦ıà¦ĸà¦¨à¦ħà¦¨":5667,"à§§à§¯à§¯à§¨":5668,"à¦ĸà¦ľà¦¨à¦ķ":5669,"à¦¤à¦¨à¦ĩà¦¤":5670,"à¦ķà¦¦à¦°":5671,"à¦Ĩà¦ľà¦Ĩà¦®":5672,"à¦ĸà¦¬à¦°à¦®":5673,"à¦Ĩà¦¤à¦¤":5674,"à¦·à¦ĸà¦¬à¦°à¦¶":5675,"à§§à§¯à§¯à§§":5676,"à¦ķà¦ħà¦ªà¦°":5677,"à¦²à¦¤à¦ĸ":5678,"à¦Łà¦ķà¦¬":5679,"à¦ıà¦ıà¦®":5680,"à¦°à¦¸à¦¬à¦¸":5681,"à¦ĩà¦Ńà¦Ĩà¦°":5682,"à§§à§Ńà§Ń":5683,"à¦¨à¦Ĩà¦²à¦¹":5684,"à¦¯à¦¯à¦¨":5685,"à¦Łà¦Ļ":5686,"à¦°à¦£à¦¹à¦²":5687,"à¦¤à¦¹à§Łà¦¬":5688,"à¦Ńà¦¬à¦¹à§Ł":5689,"à¦¨à¦ıà¦ķà¦®":5690,"à¦°à¦¤à¦°à¦«à¦¥":5691,"à¦¯à¦Ĩà§Ł":5692,"à¦ıà¦®à¦¤":5693,"à¦¡à¦ĩà¦¨":5694,"à¦Ĩà¦Ĺà¦·":5695,"à¦ĩà¦Ńà¦¬":5696,"à¦¤à¦ĸà¦¨à¦ª":5697,"à¦Ńà§Łà¦Ļ":5698,"à¦¬à¦°à¦ı":5699,"à§§à§ªà§¦à§§à§§à§®à§ªà§«":5700,"à¦ķà¦ħà¦ŀ":5701,"à¦¸à¦°à¦°":5702,"à¦¦à¦°à¦¨":5703,"à¦¤à¦¹à§Łà¦ª":5704,"à¦°à¦®à¦²":5705,"à§§à§¨à§¦à§§à§©":5706,"à¦°à¦¹à¦£à¦ļà¦²à¦Ľ":5707,"à¦·à¦¦à¦¬":5708,"à¦ĸà¦²à¦¨":5709,"à¦°à¦ªà¦°à¦ıà¦¬":5710,"à¦²à¦īà¦ªà¦ľ":5711,"à§Łà¦ĵà¦¸":5712,"à¦Łà¦ıà¦¸":5713,"à¦ĩà¦°à¦¬":5714,"à¦¬à¦Ľà¦°à¦¦":5715,"à¦¬à¦¤à¦²":5716,"à¦¶à¦ĺà¦Ł":5717,"à¦°à¦Ĩà¦ĸ":5718,"à¦¯à¦ķà¦°à¦Ľ":5719,"à¦Ĺà¦£à¦¶":5720,"à¦¨à¦°à¦«":5721,"à¦¤à¦°à¦¶":5722,"à¦¤à¦ļà¦²":5723,"à¦²à¦ļà¦¨":5724,"à§Łà¦ıà¦¨":5725,"à¦ľà¦²à¦®":5726,"à¦°à¦²à¦¤":5727,"à¦°à§Łà¦Ł":5728,"à¦ªà¦¹à¦²":5729,"à¦¯à¦¯à¦¦":5730,"à¦¥à¦īà¦ª":5731,"à¦ĸà¦ķà¦ª":5732,"à¦īà¦¬à¦²":5733,"à¦¤à¦®à¦°":5734,"à¦ıà¦®à¦¨à¦ħà¦¨":5735,"à¦¬à¦¹à§Ł":5736,"à¦¬à¦¶à¦ķ":5737,"à¦®à¦ıà¦Ł":5738,"à¦®à¦ķà¦®à¦²":5739,"à§«à§¨à§¦à§¨à§§":5740,"à¦¬à§ľà¦¸":5741,"à§®à§¨à§¦à§¨à§§":5742,"à§§à§¬à§§à§Ńà§§à§®à§§à§¯":5743,"à¦¬à¦²à¦ľ":5744,"à¦¹à¦¤à¦ķà¦°":5745,"à¦ªà¦ķà¦¹":5746,"à¦Ĺà¦£à¦¬":5747,"à¦°à¦ıà¦ĩà¦ªà¦°":5748,"à¦¸à¦Ĩà¦ªà¦¨":5749,"à¦ľà¦ĺà¦°":5750,"à¦®à¦ľà¦¬":5751,"à¦ļà¦ķà¦®":5752,"à¦«à¦²à¦¦":5753,"à¦¨à¦¨à¦ķ":5754,"à§Łà¦ļà¦Ł":5755,"à¦¬à¦°à¦²":5756,"à¦¤à¦°à¦°":5757,"à¦ļà¦²à¦¸":5758,"à¦Ĺà¦®à¦Ĺà¦ŀ":5759,"à¦°à¦²à¦¬":5760,"à¦¤à§İà¦ª":5761,"à¦¸à¦°à¦¸":5762,"à¦¸à¦ķà¦¬":5763,"à¦ķà¦°à¦®à¦¨":5764,"à¦īà¦ľà¦¨":5765,"à¦£à¦¹à¦²":5766,"à¦¬à¦Ľà¦°à¦®":5767,"à¦°à¦¸à¦®à§Łà¦¹":5768,"à¦Łà¦°à¦¨":5769,"à¦ıà¦°à¦Ĺ":5770,"à¦ļà¦¬à¦Ľà¦°":5771,"à¦ĵà¦Ĩà¦¶":5772,"à¦®à¦¸à¦°à¦ķ":5773,"à¦Ĺà¦²à¦Ĺ":5774,"à¦ķà¦Ĩà¦ķ":5775,"à¦°à¦¹à¦¶":5776,"à¦°à¦£à§Łà¦¨":5777,"à¦ĩà¦¨à¦Ĩà¦ª":5778,"à¦¨à¦®à¦¡":5779,"à¦ĩà¦ªà¦¥":5780,"à¦¯à¦¤à¦®à¦ķ":5781,"à§§à§¬à§§à§Ńà§§à§®à§§à§¯à§¨à§¦à§¨à§§à§¨à§¨":5782,"à¦¤à¦ªà¦¨":5783,"à¦Łà¦īà¦¦":5784,"à¦Ĩà§Łà¦¨":5785,"à¦°à¦¬à¦®":5786,"à¦°à¦Ĩà¦¨à¦ĵà¦¹":5787,"à¦¤à¦¨à¦°":5788,"à¦ıà¦¸à¦ıà¦¸":5789,"à¦¨à¦ıà¦¸à¦¬":5790,"à¦²à¦¹à¦ķà¦ķ":5791,"à§¨à§©à§¨à§ªà§¨à§«à§¨à§¬":5792,"à¦¬à¦¶à¦°":5793,"à¦ıà¦°à¦¹":5794,"à¦ĵà¦¸à¦¬":5795,"à¦«à¦°à¦ĩà¦ķà¦¬":5796,"à¦°à¦Ĩà¦«à¦Ĺ":5797,"à¦Ķà¦ªà¦¨":5798,"à¦°à¦ķà¦²à¦®":5799,"à¦°à¦¨à¦ķà¦¶":5800,"à¦°à¦Ĩà¦ŀ":5801,"à¦¹à§Łà¦ļ":5802,"à¦ıà¦®à¦¨à¦¦":5803,"à§§à§¬à§¦":5804,"à§¨à§Ńà§¨à§®à§¨à§¯à§©à§¦":5805,"à¦ıà¦°à¦¯":5806,"à§Łà¦¸à¦ķ":5807,"à¦ķà¦Ĩà¦ĩà¦¡":5808,"à§§à§¬à§§à§Ńà§§à§®à§§à§¯à§¨à§¦à§¨à§§à§¨à§¨à§¨à§©à§¨à§ªà§¨à§«à§¨à§¬":5809,"à¦¯à¦ĩà¦¸à¦²":5810,"à§Łà¦ıà¦Ĺ":5811,"à¦°à¦®à¦ļ":5812,"à¦°à¦¸à¦¬à¦¥":5813,"à¦¨à¦Ĩà¦°à¦ĵà¦ªà¦¡":5814,"à¦¨à¦Ĳ":5815,"à¦²à¦Ľà¦¬":5816,"à§§à§¯à§ªà§Ń":5817,"à§§à§¦à§§à§§à§§à§¨à§§à§©à§§à§ªà§§à§«à§§à§¬à§§à§Ńà§§à§®à§§à§¯à§¨à§¦à§¨à§§à§¨à§¨à§¨à§©à§¨à§ªà§¨à§«à§¨à§¬":5818,"à¦¤à¦°à¦ļ":5819,"à¦¤à¦Ĺà¦°":5820,"à¦ªà¦ķà¦ª":5821,"à¦ĩà¦Ĩà¦¤":5822,"à§§à§¨à§¦à§§à§ª":5823,"à¦ªà¦¨à¦ķà¦°à¦Ľ":5824,"à¦¨à¦¸à§ľ":5825,"à¦¹à¦¤à¦®":5826,"à¦¬à¦ķà¦ª":5827,"à¦īà¦ľà¦«":5828,"à¦Īà¦°":5829,"à¦²à¦Ĩà¦¹à¦®à¦¦":5830,"à¦Łà¦¸à¦¨":5831,"à¦¶à¦īà¦¨":5832,"à¦°à¦ªà¦Ł":5833,"à¦°à¦ªà¦°à¦«":5834,"à¦ªà¦°à¦²":5835,"à¦°à¦¦à¦¸":5836,"à¦°à¦Ĺà¦£à¦®":5837,"à¦ıà¦ķà¦ĩà¦¸à¦®à§Ł":5838,"à¦Łà¦Ŀ":5839,"à¦Ĺà¦Ńà¦°":5840,"à¦Ĩà¦ĩà¦¯":5841,"à¦·à¦²à¦ķ":5842,"à¦°à¦¸à¦°à¦ŀ":5843,"à¦¹à§Łà¦ıà¦Ľ":5844,"à¦ĩà¦¸à¦¬à¦ļ":5845,"à¦ĸà¦¬à¦°à¦ķ":5846,"à¦ľà¦Ĩà¦¹à¦®":5847,"à¦·à§Łà¦¬":5848,"à¦¡à¦ķà¦®":5849,"à¦£à¦¤à¦¹à¦¬":5850,"à¦§à¦¨à¦ķà¦°à¦¤":5851,"à¦¶à¦ıà¦¸":5852,"à¦¬à§ľà¦Ń":5853,"à¦¤à¦°à¦£à¦¨":5854,"à§§à§¦à§§à§§à§§à§¨à§§à§©à§§à§ªà§§à§«à§§à§¬à§§à§Ńà§§à§®à§§à§¯à§¨à§¦à§¨à§§à§¨à§¨à§¨à§©à§¨à§ªà§¨à§«à§¨à§¬à§¨à§Ńà§¨à§®à§¨à§¯à§©à§¦":5855,"à¦¬à§Łà¦ķ":5856,"à¦Łà¦Ĩà¦Ľ":5857,"à¦«à¦²à¦®":5858,"à¦°à¦®à¦¤à¦®":5859,"à¦Ŀà¦Ĺà§ľ":5860,"à§§à§¦à§«":5861,"à¦īà§İà¦¸à¦¬à¦®":5862,"à¦²à¦īà¦¤":5863,"à¦ĸà¦²à¦®":5864,"à¦«à¦ĵà§Ł":5865,"à¦°à¦ªà¦°à¦ıà¦ķà¦Ł":5866,"à¦¯à¦¸à¦Ń":5867,"à¦®à¦Ĩà¦¸à¦²":5868,"à¦Ĩà¦īà¦²":5869,"à¦«à¦ļ":5870,"à¦°à¦¨à¦ł":5871,"à¦ıà¦ĩà¦ľà¦¨":5872,"à¦¶à¦¨à¦Ľ":5873,"à¦²à¦¦à¦¹à¦¹":5874,"à¦¤à¦¦à¦²":5875,"à¦¤à¦ħà¦ª":5876,"à¦¦à¦¬à¦Ľà¦°à¦°":5877,"à¦¯à¦Ĩà¦¸":5878,"à¦°à¦ıà¦ĩà¦Ń":5879,"à¦¹à¦ĩà¦¸à¦²":5880,"à¦¥à¦²à¦¥":5881,"à¦¨à¦ĵà¦Ł":5882,"à§¨à§¯à§¨à§¦à§¨à§§":5883,"à¦ķà¦Ĩà§Ł":5884,"à¦ħà¦²à¦°":5885,"à¦¬à¦²à¦²à¦¤":5886,"à¦°à¦¹à¦ľ":5887,"à¦¶à¦¨à¦ıà¦ķ":5888,"à¦Ĩà¦ľà¦¶à¦¨":5889,"à¦·à¦ĸà¦¬à¦°à¦ķà¦°":5890,"à¦²à¦ĩ":5891,"à¦²à¦ªà§ľ":5892,"à¦ªà¦ıà¦²":5893,"à¦¦à¦¶à¦Ł":5894,"à¦°à¦ĸà¦¬à¦°à¦¸":5895,"à¦Ĩà¦°à¦Ĩà¦ªà¦¨":5896,"à¦°à¦Ĩà¦¨à¦ª":5897,"à¦®à¦ķà¦°à¦£à¦ķà¦°":5898,"à¦¤à¦ĵà¦ľ":5899,"à¦¶à¦ªà¦¤":5900,"à¦¡à¦¸à¦¨":5901,"à¦ľà¦¨à¦«":5902,"à¦¶à¦ıà¦Ĺ":5903,"à¦ıà¦°à¦¤":5904,"à¦£à¦¤à¦¹à¦¯":5905,"à¦¬à¦²à¦°":5906,"à¦°à¦ĵà¦Ł":5907,"à§¨à§¦à§¨à§§à§§à§®":5908,"à¦°à¦¥à¦®à¦ļ":5909,"à¦ıà¦ĩà¦¸à¦¬":5910,"à¦¬à§ľà¦®":5911,"à¦²à¦īà¦ª":5912,"à§Łà¦ĩà¦¸à¦²":5913,"à¦ĵà¦ħà¦¨à¦²":5914,"à§¨à§§à§ª":5915,"à¦ĩà¦ķà¦Ĺ":5916,"à¦¤à¦īà¦¨":5917,"à¦¸à¦ĵà¦¦":5918,"à§¨à§¨à§¦à§§à§©":5919,"à¦¸à¦®à§Łà¦®":5920,"à¦¦à¦ķà¦¡":5921,"à¦°à¦ıà¦ķà¦ªà¦°":5922,"à¦ıà¦°à¦ªà¦°à¦¸":5923,"à¦²à¦Ĺà¦£":5924,"à¦®à¦¬à¦²à¦²":5925,"à¦¯à¦ĵà¦ļ":5926,"à¦Łà¦ĵà¦ª":5927,"à¦ĩà¦ħà¦ª":5928,"à¦Ńà¦ļ":5929,"à¦¥à¦ĵà¦¬":5930,"à¦°à¦¸à¦¨à¦¦":5931,"à¦ķà¦Łà¦¸":5932,"à§Łà¦¤à¦ĸà¦¨":5933,"à¦°à¦Ĺà¦£à¦¤à¦¨":5934,"à¦¸à¦ľà¦¨":5935,"à¦¸à¦ħà¦°":5936,"à¦¦à¦ķà¦°à¦¬":5937,"à¦¯à¦ħà¦«":5938,"à¦īà¦°à¦ĵà§Ł":5939,"à¦°à¦ªà¦°à¦ĸ":5940,"à¦ľà¦¨à¦®à¦¨":5941,"à¦¯à¦¦à¦²":5942,"à¦¬à¦¶à¦¤":5943,"à¦¶à¦¬à¦ª":5944,"à¦Ĩà¦ľà¦¨":5945,"à¦ªà¦°à¦¨":5946,"à¦ķà¦Łà¦¬à¦°":5947,"à¦ĩà¦Łà¦¤":5948,"à¦¬à¦¬à¦ľ":5949,"à§¨à§¦à§¨à§§à§§à§¨":5950,"à¦²à¦«à¦²":5951,"à¦¶à¦ıà¦ĸà¦¨":5952,"à¦ĸà¦ħà¦¨":5953,"à¦°à¦Ńà¦Ł":5954,"à¦ªà¦²à¦¸":5955,"à¦ħà¦£":5956,"à§ľà¦¥":5957,"à¦ĩà¦Łà¦°":5958,"à¦°à¦Ĩà¦°à¦ĵà¦ªà§ľ":5959,"à¦Ńà¦§":5960,"à¦°à¦¸à¦¬à¦ª":5961,"à¦¯à¦ķà¦¨":5962,"à¦¯à¦ķà¦°à¦£":5963,"à¦¯à¦®à¦¬":5964,"à¦Ĩà¦Łà¦ķà¦ķ":5965,"à¦¨à¦¹à§Łà¦°":5966,"à§Łà¦¦à¦ķ":5967,"à¦¹à¦ľà¦®":5968,"à¦°à¦¥à¦®à¦Ń":5969,"à¦¶à¦¹à¦°à¦Ł":5970,"à¦¤à¦ıà¦Ĺ":5971,"à¦ªà¦®à¦§":5972,"à¦Ĩà¦¤à¦¬":5973,"à§Łà¦¸à¦Ļ":5974,"à§ªà§¬à§§":5975,"à¦¤à¦ıà¦ĩà¦ĵà¦¯":5976,"à¦¨à¦¬à¦¡":5977,"à§Łà¦¨à¦¯":5978,"à¦ķà¦¸à¦¤":5979,"à¦Ĩà¦°à¦¬à¦¦":5980,"à¦ķà¦¬à¦Ľà¦°à¦§à¦°":5981,"à¦¤à¦¤à¦®":5982,"à¦ľà¦¸à¦°à¦ķ":5983,"à¦·à¦¤à¦¬":5984,"à¦¥à¦¬à¦°":5985,"à¦ķà¦Łà¦¨":5986,"à¦Ĺà¦ªà¦Ľà¦¨":5987,"à¦®à¦¤à¦²à¦¬à¦īà¦¤":5988,"à¦ľà¦¨à¦²":5989,"à¦¹à§Łà¦ĸ":5990,"à¦·à§Łà¦¸à¦®":5991,"à¦ĩà¦¦à¦ĩà¦¬à¦¨":5992,"à¦¯à¦¤à¦®à¦¬":5993,"à¦²à¦¯à¦¦":5994,"à¦·à¦ıà¦ķà¦Ł":5995,"à¦°à¦ķà¦®à¦ķ":5996,"à¦®à¦¨à¦¹à¦¬":5997,"à¦¬à¦²à¦Ł":5998,"à¦ĺà¦°à¦¥":5999,"à¦¨à§Łà¦¯":6000,"à¦°à¦®à¦£à¦¸":6001,"à¦Łà¦²à¦ķà¦°":6002,"à¦Ńà¦°à¦¸":6003,"à¦ıà¦¸à¦¬à¦¨":6004,"à¦®à¦¦à¦ĸ":6005,"à¦¨à¦ĩà¦īà¦ª":6006,"à¦Łà¦Ĩà¦¦":6007,"à¦Ĺà¦ĵà¦¸":6008,"à¦£à¦ħ":6009,"à§¨à§§à§©":6010,"à¦¨à¦¬à¦Ĺ":6011,"à¦Īà¦«":6012,"à¦ĵà¦ıà¦²":6013,"à¦°à¦Ĩà¦¨à¦ĸ":6014,"à¦¤à¦ķà§Ł":6015,"à¦°à¦ĺà¦Ł":6016,"à¦®à¦¹à¦¯":6017,"à¦®à¦ĵà¦°":6018,"à¦ĩà¦Ĩà¦¸à¦²":6019,"à¦ĵà¦īà¦ªà¦¸à¦°":6020,"à¦Ĩà¦²à¦Ĩà¦®":6021,"à¦°à¦¥à¦®à¦¥":6022,"à¦¸à¦Ĩà¦¨":6023,"à¦²à¦ļà¦ķ":6024,"à§Łà¦Ĩà¦¶":6025,"à¦Łà¦¨à¦°":6026,"à¦°à¦īà¦ªà¦°à¦ļ":6027,"à¦¸à¦ĵà¦®":6028,"à¦¦à¦¶à¦ķ":6029,"à¦ľà¦ıà¦²":6030,"à¦¶à¦Ĺà¦¤":6031,"à¦ķà¦°à¦¬à¦¨":6032,"à¦īà¦¨à¦ķ":6033,"à¦°à¦Ĩà¦®à¦¦":6034,"à¦°à¦Ĩà¦¨à¦¶à¦°":6035,"à¦ıà¦ķà¦ľà¦¨à¦Ń":6036,"à¦Ĩà¦Łà¦ķà¦¨":6037,"à¦ķà¦¤à¦¨":6038,"à¦ĩà¦ıà¦°à¦ķ":6039,"à¦°à¦Ĩà¦ĵà¦¯":6040,"à¦²à¦¨à¦ļ":6041,"à¦¨à¦Ĺà§ľ":6042,"à¦¤à¦°à¦ªà¦¶":6043,"à¦®à¦¬à¦¸":6044,"à¦¶à¦ıà¦ķà¦Ł":6045,"à¦¨à¦¸à¦ļ":6046,"à¦Ĩà¦ľà¦®à¦Ļ":6047,"à¦¦à¦¶à¦ľ":6048,"à¦¯à¦¸à¦¨":6049,"à¦¶à¦ķà¦¨":6050,"à¦£à¦¡":6051,"à¦ĩà¦¨à¦ĺ":6052,"à¦¯à¦®à¦ľ":6053,"à¦°à¦¥à¦®à¦¯":6054,"à¦¹à¦Ĩà¦¬":6055,"à¦ľà¦²à¦¢":6056,"à¦°à¦ĸà¦¬à¦°à¦ľ":6057,"à§¨à§©à§¦à§¬à§¨à§¦à§§à§¯":6058,"à¦¤à¦ł":6059,"à¦Łà¦¸à¦²":6060,"à¦Ńà¦¤":6061,"à¦¬à¦¹à¦¨à¦ĵà¦¸":6062,"à¦°à¦¨à¦Ĺà¦°à¦¬":6063,"à¦¦à¦°à¦²":6064,"à¦Łà¦Ĩà¦°":6065,"à¦ĵà¦ĵà§Ł":6066,"à¦¶à¦¨à¦ªà¦°":6067,"à§§à§¯à§Ńà§¦":6068,"à§§à§¦à§ª":6069,"à¦·à§Łà¦ķà¦¬":6070,"à¦¦à¦ķà¦°à¦²":6071,"à¦¯à¦¹à¦ĵà§Ł":6072,"à¦¹à¦¤à¦ª":6073,"à¦¤à¦¨à§Ł":6074,"à¦¨à¦īà¦ł":6075,"à¦¤à¦°à¦Ĩà¦®":6076,"à¦¦à¦°à¦Ĺ":6077,"à¦¯à¦Ĩà¦ĩà¦¨":6078,"à¦Ĺà¦ľà¦¨":6079,"à¦ªà¦¨à¦¡":6080,"à¦Łà¦ķà¦¥":6081,"à¦ĩà¦Ńà¦ķ":6082,"à§¨à§ªà§¦":6083,"à¦ıà¦°à¦ªà¦°à¦¬":6084,"à¦®à¦§à¦¨":6085,"à¦¥à¦ķà¦ª":6086,"à¦ĵà¦Ĩà¦ĵà§Ł":6087,"à¦¨à¦¤à¦¦à¦¨":6088,"à¦°à¦ıà¦ĩà¦²":6089,"à¦¨à¦Ĩà¦°à¦ķ":6090,"à§¨à§¦à§¨à§§à§§à§Ń":6091,"à¦¨à¦ıà¦ĩà¦ļ":6092,"à¦¯à¦ĸà¦¨à¦Ĩà¦®":6093,"à¦²à¦Ĩà¦²à¦®à¦ª":6094,"à¦®à¦ļà¦ķ":6095,"à¦¬à¦¨à¦¸à¦®":6096,"à¦Ĩà¦²à¦Ĺ":6097,"à¦¨à¦¶à¦¤":6098,"à§İà¦Ń":6099,"à¦¹à¦¤à¦¹":6100,"à¦ĩà¦°à¦°à¦¹":6101,"à¦ıà¦ĸà¦¨à¦ĵà¦¬":6102,"à¦¤à¦ªà§ľà¦¤":6103,"à¦¦à¦¬à¦¨":6104,"à¦«à¦¯":6105,"à§ĥà¦Ĥ":6106,"à¦¨à¦ĵà¦²":6107,"à§§à§¨à§®":6108,"à¦łà¦ķà¦ª":6109,"à¦°à¦Ńà¦¬à¦¨":6110,"à¦ĩà¦ķà¦°à¦Ľ":6111,"à¦ķà¦Ĩà¦¸":6112,"à¦²à¦ħà¦¤":6113,"à¦¦à¦²à¦¸":6114,"à¦ľà§Łà¦ķ":6115,"à¦ĩà¦²à¦¨à¦®":6116,"à¦ķà¦¸à¦ĩà¦īà¦¨":6117,"à¦ĩà¦ıà¦ª":6118,"à¦Ĺà¦¤à¦¸à¦ª":6119,"à¦·à§Łà¦ķà¦¸":6120,"à¦®à¦ĵà¦ª":6121,"à¦Łà¦°à¦¹":6122,"à¦ĩà¦Ĺà¦²":6123,"à¦ĵà¦Ĩà¦ķ":6124,"à¦¹à§Łà¦ıà¦Ł":6125,"à¦°à¦£à¦ķà¦°à¦¬":6126,"à¦°à¦ħà¦·":6127,"à¦¦à¦ķà¦ıà¦¬":6128,"à¦¤à¦¯à¦¦":6129,"à¦²à¦ħà¦¬à¦¸":6130,"à¦Łà¦ªà¦¦":6131,"à¦·à¦ķà¦°à¦²":6132,"à¦§à¦¹à¦ļ":6133,"à¦ĵà¦ĩà¦¶":6134,"à¦¬à¦²à¦¶":6135,"à¦·à¦£à¦ıà¦¬":6136,"à§Łà¦Ĩà¦Łà¦ķ":6137,"à¦¨à¦²à¦ķà¦¡":6138,"à¦¬à¦ķà¦¤":6139,"à¦Ĺà¦ıà¦¨":6140,"à¦¥à¦¦à¦£":6141,"à¦ıà¦®à¦¨à¦ªà¦°":6142,"à¦ªà¦£à¦¨":6143,"à¦²à¦²à¦¤":6144,"à¦ıà¦¨à¦ķ":6145,"à¦ıà¦®à¦¹":6146,"à§ľà¦Ł":6147,"à¦®à¦¹à¦®":6148,"à¦¸à¦¦à¦°à¦¹":6149,"à¦¬à§ľà¦²":6150,"à¦Ĩà¦¹à¦¤à¦¦":6151,"à¦Ĩà¦ł":6152,"à¦ķà¦®à¦ķ":6153,"à¦¬à¦ķà¦¦à¦²":6154,"à¦°à¦ĵà¦ķà¦°":6155,"à¦ĩà¦ķà¦¦":6156,"à¦®à¦ķà¦Ń":6157,"à§Łà¦Ńà¦°":6158,"à¦¥à¦ªà¦¤":6159,"à§Łà¦¨à¦ķà¦°à¦¤":6160,"à¦°à¦²à¦Ń":6161,"à¦Łà¦¸à¦ľ":6162,"à¦ķà¦Ńà¦¬à¦¨":6163,"à¦®à¦ĵà¦¯":6164,"à¦ķà¦°à¦¯":6165,"à¦°à¦¦à¦²à¦¨":6166,"à¦°à¦ħà¦ªà¦¸":6167,"à¦°à¦Ńà¦Ļ":6168,"à§¨à§§à§¦":6169,"à¦·à¦ĸà¦¬à¦°à¦¨":6170,"à¦°à¦ªà¦°à¦Ľ":6171,"à¦¦à¦¨à¦¯":6172,"à¦¤à¦¤à¦¤":6173,"à§Łà¦°à¦¨":6174,"à¦Łà¦ıà¦¨":6175,"à¦¶à¦¹à¦¯":6176,"à¦ļà¦¨à¦ķà¦°à¦¤":6177,"à¦«à¦²à¦Ń":6178,"à¦ĭà¦·":6179,"à¦¯à¦ıà¦ĸ":6180,"à¦ľà¦²à¦¦":6181,"à¦ıà¦°à¦īà¦¦":6182,"à¦¡à¦Ĩà¦®":6183,"à¦¤à¦ĩà¦¸":6184,"à¦¤à¦ıà¦¸":6185,"à¦²à¦°à¦Ļ":6186,"à¦¯à¦ļà¦°":6187,"à¦Ĩà¦Łà¦Ł":6188,"à¦®à¦¤à¦¶":6189,"à¦īà¦ľà¦²":6190,"à¦¬à¦°à¦ħà¦¨":6191,"à¦¯à¦¸à¦¬à¦ļ":6192,"à§Łà¦®à¦¦":6193,"à¦Ľà§Łà¦Ł":6194,"à§Łà¦¸à¦ª":6195,"à¦ķà¦ªà¦£":6196,"à¦²à¦¹à¦ķà¦¬":6197,"à¦Ĩà¦°à¦ĵà¦¤":6198,"à¦ªà¦Łà¦²":6199,"à¦¯à¦ĸà¦¨à¦Ĩà¦ªà¦¨":6200,"à¦¨à¦°à¦¹à¦®":6201,"à¦¦à¦ĵà¦¬":6202,"à§Łà¦ķà¦°à¦¬":6203,"à¦Łà¦²à¦®":6204,"à¦ıà¦ķà¦ķà¦¥":6205,"à¦°à¦£à¦ļ":6206,"à¦¬à¦ľà¦¨à¦°":6207,"à¦ĸà¦ķà¦ķ":6208,"à¦°à¦Ĩà¦ķà¦°":6209,"à¦°à¦ıà¦°à¦ª":6210,"à¦¦à¦ķà¦®à¦¨":6211,"à¦²à¦Ńà¦°":6212,"à¦ĩà¦ļà¦²à¦¬":6213,"à¦ªà¦ķà¦¨":6214,"à¦°à¦®à§Łà¦²":6215,"à¦īà¦ªà¦°à¦¨":6216,"à¦¾à¦¾":6217,"à¦·à¦¹à¦ļ":6218,"à¦Ńà¦īà¦¦":6219,"à¦ıà¦¬à¦Ľà¦°":6220,"à¦ķà¦ĩà¦ķ":6221,"à¦Ĺà¦¹à¦¬":6222,"à¦ĺà¦°à¦¦":6223,"à¦¸à¦¬à¦Ń":6224,"à¦¶à¦¨à¦ľ":6225,"à¦ķà¦Ĩà¦¤à¦¸":6226,"à¦¨à¦ıà¦ĩà¦¸à¦®à§Łà¦ħ":6227,"à¦ľà¦²à¦¸":6228,"à¦ıà¦°à¦¸à¦°":6229,"à¦¥à¦«":6230,"à¦°à¦Ĺà¦łà¦¨":6231,"à¦¦à¦¨à¦ļ":6232,"à¦¨à¦Ĩà¦¹":6233,"à§§à§Ńà§¬":6234,"à¦°à¦Ĩà¦ļà¦°à¦£":6235,"à¦·à¦°à¦ķà¦°":6236,"à¦¡à¦¹à§Ł":6237,"à¦°à¦¨à¦¥":6238,"à¦·à¦£à¦¸à¦®":6239,"à¦¨à¦Ĩà¦§":6240,"à¦¯à¦®à¦Ĺ":6241,"à¦¨à¦Ĺà¦°à¦¸":6242,"à¦¬à¦ľà¦¨à¦¸à¦®":6243,"à¦¨à¦ªà¦¨":6244,"à¦¨à¦Īà¦¶":6245,"à¦°à¦ħà¦¬à¦¹":6246,"à¦ķà¦°à¦£à¦ª":6247,"à¦°à¦¸à¦«à¦²à¦¤":6248,"à¦ĩà¦Ĩà¦ľ":6249,"à¦ıà¦ĩà¦ħà¦ŀ":6250,"à§İà¦²":6251,"à¦¨à¦īà¦®":6252,"à¦¤à¦Ĩà¦ĩà¦¨":6253,"à¦²à¦¤à¦°":6254,"à¦ĵà¦Ĩà¦¸":6255,"à¦īà¦¡à¦¸":6256,"à¦¨à¦¦à¦£":6257,"à¦¸à¦¹à¦ľà¦ķà¦°":6258,"à¦¨à¦²à¦Ĺà¦ĩà¦¨":6259,"à¦ĵà¦¦à¦ķ":6260,"à¦ªà¦¨à¦«":6261,"à¦¤à¦¬à¦Ļ":6262,"à§Ńà§¦à§Ń":6263,"à¦ķà¦īà¦ªà¦¸":6264,"à¦¶à¦ĵà¦¸":6265,"à¦°à¦ĭà¦£":6266,"à¦®à¦£à¦ª":6267,"à§Łà¦īà¦ł":6268,"à¦ľà¦²à¦¹":6269,"à¦¶à¦Ĩà¦Ĺ":6270,"à¦£à¦¹à¦¯":6271,"à¦£à¦ĸà¦¬à¦°à¦¬":6272,"à¦ļà¦²à¦ķà¦°":6273,"à¦ļà¦²à¦¥":6274,"à¦Ĩà¦°à¦ıà¦Ł":6275,"à¦·à§Łà¦ķà¦ª":6276,"à¦£à¦¹à¦¤":6277,"à§¨à§¨à§¦à§§à§ª":6278,"à§¨à§¨à§¦à§¦à§¦":6279,"à¦°à¦ħà¦¸à¦®":6280,"à§Łà¦ķà§Ł":6281,"à¦¯à¦¸à¦Ļ":6282,"à¦Ńà¦¬à¦ĺ":6283,"à¦ķà¦ĸà¦¨à¦ĵà¦ķà¦ĸà¦¨":6284,"à¦¦à¦ıà¦ķà¦Ł":6285,"à¦ĩà¦ıà¦ķà¦®":6286,"à¦ĵà¦ĩà¦¸à¦²":6287,"à¦¨à¦¸à¦«":6288,"à¦®à¦®à¦Ļ":6289,"à¦°à¦ĩà¦īà¦ı":6290,"à¦ķà¦ļà¦ķ":6291,"à¦¤à¦°à¦ıà¦¬":6292,"à¦ªà¦Ĩà¦²":6293,"à§Łà¦ıà¦ĸà¦¨":6294,"à§Łà¦ħà¦ŀ":6295,"à¦·à¦ħà¦°":6296,"à¦ıà¦ĩà¦ķà¦°":6297,"à¦°à¦«à¦ķ":6298,"à¦ĩà¦Łà¦ļ":6299,"à§¨à§¦à§¨à§§à§©":6300,"à¦ķà¦ķà¦°à¦¬":6301,"à¦²à¦¦à¦²":6302,"à¦¹à¦ĵà¦¤":6303,"à¦Łà¦°à¦ľà¦®":6304,"à¦ıà¦®à¦°":6305,"à¦Ļà¦¨":6306,"à¦·à¦£à¦«":6307,"à§¯à§®à§¨à§ªà§¦à§Ń":6308,"à§¨à§¦à§¨à§§à§§à§«":6309,"à¦¨à¦ĩà¦Ń":6310,"à¦ķà¦¬à¦¸":6311,"à¦ľà¦¹à¦²":6312,"à¦¥à¦°à¦¬":6313,"à¦¨à¦ķà¦ĵà¦¯":6314,"à§¯à§¦à§¦":6315,"à¦°à¦¡à¦¨":6316,"à¦²à§Łà¦¸à¦®":6317,"à¦¬à¦Ĩà¦°":6318,"à¦¤à¦ħà¦ªà¦°":6319,"à¦¦à¦¹à¦²":6320,"à¦¶à¦°à¦ķ":6321,"à¦¶à¦¹à¦¬":6322,"à¦¯à¦¤à¦¤":6323,"à¦¨à§Łà¦¨à¦¨":6324,"à¦ıà¦«à¦Ĩà¦ĩ":6325,"à¦īà¦¡à¦ħà¦Ń":6326,"à¦ľà¦ĩà¦īà¦¨":6327,"à¦Ĺà¦°à¦¦":6328,"à¦¡à¦Ĩà¦¬":6329,"à¦°à¦¤à¦ĸà¦¨":6330,"à¦°à¦Ĩà¦°à¦¸":6331,"à¦°à¦£à¦¹à¦¤":6332,"à¦¬à¦¸à¦ķ":6333,"à§§à§¦à§Ń":6334,"à¦®à¦²à¦ķ":6335,"à¦¥à¦Ľ":6336,"à¦°à¦ľà¦Ł":6337,"à¦ķà¦®à¦®":6338,"à¦¤à¦ıà¦ķà¦¸":6339,"à¦ªà¦ıà¦Ĺ":6340,"à§Łà¦ıà¦°à¦ª":6341,"à¦īà¦ķà¦¬":6342,"à¦ĺà¦¨à¦ķà¦°":6343,"à¦¨à¦ķà¦²à¦ķà¦°":6344,"à¦°à¦ĩà¦®à¦§":6345,"à¦Ĺà¦£à¦§à¦°":6346,"à¦¶à¦ĵà¦®":6347,"à¦ĩà¦ĺà¦Ł":6348,"à¦·à¦Ĩà¦²":6349,"à¦§à¦°à¦¬":6350,"à¦¨à¦Ĩà¦¯":6351,"à§Łà¦ķà¦¹":6352,"à§¨à§¨à§Ń":6353,"à¦ıà¦¸à¦¬à¦¦":6354,"à¦¬à¦¬à¦¨":6355,"à§Łà¦¸à¦®à§Ł":6356,"à¦ľà¦ıà¦ķ":6357,"à§ĥà§ĥ":6358,"à¦°à¦ĩà¦²à¦¬":6359,"à¦§à¦°à§Ł":6360,"à¦¨à¦Ĩà¦¨à¦¨":6361,"à¦¹à¦¸à¦¦":6362,"à¦°à¦Īà¦®":6363,"à¦¯à¦ıà¦¸":6364,"à§Łà¦ħà¦Ĺ":6365,"à¦°à¦ķà¦¨à¦¸":6366,"à¦°à¦¬à¦¸à¦¬":6367,"à¦ħà¦¬à¦ľ":6368,"à¦¬à¦Ľà¦°à¦¸":6369,"à¦°à¦ªà¦°à¦¬à¦Ľ":6370,"à¦ıà¦ķà¦§":6371,"à§Łà¦ķà¦¨":6372,"à¦ħà¦ªà¦¶à¦¨":6373,"à¦°à¦ıà¦ķà¦Ĺ":6374,"à¦¯à¦°à¦¯":6375,"à¦¶à¦®à¦¹":6376,"à§¨à§¦à§¨à§¬":6377,"à¦°à¦¸à¦®à§Łà¦ľ":6378,"à¦¤à¦ļà¦°":6379,"à¦Ĺà¦Ĩà¦®":6380,"à¦£à¦ħà¦°":6381,"à§ľà¦¶":6382,"à¦¬à¦¹à¦¨à¦¶":6383,"à¦ĩà¦īà¦ıà¦¸":6384,"à¦ķà¦ľà¦¨à¦¤":6385,"à¦Łà¦¶à¦¨":6386,"à¦ĵà¦¶à¦°":6387,"à¦¬à¦²à¦¹à§Ł":6388,"à¦°à¦ħà¦ªà¦ļ":6389,"à¦ķà¦¤à¦°":6390,"à¦¯à§Łà¦¬":6391,"à¦¤à¦¬à¦¹":6392,"à§§à§¦à§¨à§¦à§¨à§§":6393,"à¦¬à¦Ĺà¦¤":6394,"à¦¤à¦Ĩà§Ł":6395,"à¦īà¦«à¦²":6396,"à¦¹à¦²à¦°":6397,"à¦¨à¦ĵà¦īà¦¤":6398,"à¦°à¦¸à¦¦à¦°à¦¶":6399,"à¦¤à¦¦à¦ķ":6400,"à¦¦à¦ĵà¦¸":6401,"à¦¶à¦ĺà¦Łà¦¨":6402,"à¦ĩà¦°à¦«":6403,"à¦¥à¦ķà¦¸":6404,"à¦¥à¦īà¦¦":6405,"à¦ĵà¦¦à¦°":6406,"à¦¡à¦ĩà¦īà¦¨":6407,"à¦°à¦¨à¦¡":6408,"à¦¨à¦ıà¦°à¦ªà¦°":6409,"à¦®à¦Ĩà¦¹":6410,"à¦ķà¦ľà¦¨à¦¬":6411,"à¦²à¦¸à¦Ļ":6412,"à¦¨à¦¹à¦ĵà¦¯":6413,"à¦Ĩà¦Łà¦ķà¦¦":6414,"à¦¨à¦ī":6415,"à¦¨à§Łà¦®":6416,"à¦¬à¦°à¦ļ":6417,"à¦Ĩà¦Łà¦ķà¦°":6418,"à§¨à§¬à§¨à§¦à§¨à§§":6419,"à¦²à¦ĵà¦¹":6420,"à¦¯à¦ĵà¦¨":6421,"à¦°à¦ıà¦°à¦¬":6422,"à¦īà¦¨à¦¶":6423,"à§§à§«à§«":6424,"à¦°à¦¥à¦®à¦ĩà¦¨":6425,"à¦īà§İà¦ªà¦¨":6426,"à¦²à¦°à¦¹à¦¤":6427,"à¦ĩà¦īà¦ļ":6428,"à¦¡à¦¬à¦²":6429,"à¦¡à¦Ĺà§ľ":6430,"à¦ıà¦¸à¦¬à¦®":6431,"à¦Łà¦Ĩà¦¨":6432,"à¦ıà¦°à¦°":6433,"à¦ľà¦¨à¦¹à¦²":6434,"à¦īà¦ľà¦ľ":6435,"à¦¤à¦ĸà¦¨à¦®":6436,"à¦®à¦¹à¦¯à¦°à¦¤":6437,"à¦¶à¦Ĩà¦²":6438,"à¦°à¦¸à¦®à¦¤":6439,"à¦ļà¦²à¦Ł":6440,"à¦ķà¦Łà¦®":6441,"à¦¬à¦²à¦²à¦Ĩà¦®":6442,"à¦Ĺà¦ĺ":6443,"à¦§à¦¨à¦¯":6444,"à¦ľà¦¨à¦ĸ":6445,"à¦°à¦¨à¦°":6446,"à§Łà¦¨à¦Ĺ":6447,"à¦¨à¦¦à¦¯":6448,"à¦°à¦¸à¦ķà¦²à¦¸":6449,"à¦ķà¦Ĩà¦¤à¦Ľ":6450,"à¦¨à¦ĩà¦īà¦°":6451,"à¦¬à¦§à¦°":6452,"à¦Ĺà¦¸à¦¹":6453,"à¦ĩà¦°à¦¹":6454,"à¦²à¦¨à¦Ĺà¦°":6455,"à¦ĩà¦Łà¦¡":6456,"à¦ĸà¦¬à¦°à¦¶":6457,"à¦¨à¦Ĩà¦ĩà¦¨à¦ľ":6458,"à¦°à¦¸à¦¹à¦¸":6459,"à¦°à¦¸à¦¨à¦ĸ":6460,"à¦°à¦£à¦Ĩà¦ªà¦¨":6461,"à§Łà¦¸à¦¤":6462,"à¦Łà¦¸à¦¸":6463,"à¦¸à¦¦à¦°à¦¬":6464,"à¦¤à¦ļà¦Ł":6465,"à¦ĵà¦ĩà¦°":6466,"à¦°à¦ıà¦°à¦¸":6467,"à§§à§¯à§®à§¦":6468,"à¦Ĺà¦²à¦¦":6469,"à¦°à¦ĵà¦ªà¦°à¦ļ":6470,"à¦¨à¦īà¦ķ":6471,"à¦²à¦ľà¦¨":6472,"à§Łà¦īà¦ªà¦¸":6473,"à§Łà¦Ĩà¦¸à¦Ľ":6474,"à¦ķà¦¨à¦¯":6475,"à¦ĩà¦ľà¦²":6476,"à¦¬à§ľà¦¹à§Ł":6477,"à¦Ĩà¦°à¦¬à¦¸":6478,"à¦°à¦°à¦ŀ":6479,"à¦ķà¦¶à¦°":6480,"à¦ķà¦°à§Ł":6481,"à¦²à¦ķà¦°à¦Ľ":6482,"à¦ĩà¦²à¦ĵà¦¯":6483,"à¦¨à¦ıà¦°à¦®":6484,"à¦ķà¦¨à¦ķ":6485,"à¦ĵà¦ĩà¦Ĺ":6486,"à¦ĩà¦Łà¦²":6487,"à¦®à¦ķà¦ıà¦ķà¦Ł":6488,"à¦¦à¦²à¦¥":6489,"à¦¨à¦«à¦²à¦Ľ":6490,"à¦¬à¦¨à¦ķà¦°à¦¤":6491,"à¦ªà¦¨à¦Ĺ":6492,"à¦ķà¦®à¦¹à¦²":6493,"à¦°à¦ĩà¦ĸ":6494,"à¦Ĩà¦ľà¦ªà¦°":6495,"à¦ĵà¦ĩà¦ıà¦²":6496,"à¦¤à¦ħà¦¬":6497,"à¦²à¦ıà¦ĸà¦¨":6498,"à¦Łà¦ªà¦ķ":6499,"à¦ħà¦¸à¦¨":6500,"à¦¦à¦¨à¦¡":6501,"à¦°à¦²à¦Ļ":6502,"à¦Ĩà¦¦à¦®":6503,"à¦Ĳà¦¦":6504,"à¦¬à¦¬à¦¸":6505,"à¦¤à¦ıà¦ķà¦¬":6506,"à¦°à¦¶à¦ª":6507,"à§¦à§¬à§¨à§¦à§§à§¯à§¨à§Ń":6508,"à¦ķà¦Ĺà¦£":6509,"à¦¤à¦Ĩà¦¶":6510,"à¦®à¦īà¦®":6511,"à¦ªà¦ķà¦¤":6512,"à¦¦à¦ĵà§Ł":6513,"à¦¦à¦¨à¦ħà¦°":6514,"à¦ħà¦«à¦¸":6515,"à¦®à¦®à¦§":6516,"à¦°à¦Ŀà§ľ":6517,"à§§à§¯à§¯à§«":6518,"à¦ķà¦ĩà¦®":6519,"à¦ķà¦ħà¦ª":6520,"à§Łà¦¤à¦ķà¦°":6521,"à¦ľà¦¨à¦®à¦¤":6522,"à¦ıà¦ĩà¦°à¦ķà¦®":6523,"à¦Ĩà¦ĩà¦ıà¦®":6524,"à¦°à¦ĸà¦¬à¦°à¦ĵà¦¬":6525,"à¦Ĩà¦ļà¦°à¦£à¦ķà¦°":6526,"à¦°à¦¸à¦ķà¦²à¦ª":6527,"à¦¬à¦ĩà¦²":6528,"à¦¸à¦°à¦£à¦ķà¦°à¦¤":6529,"à¦¦à¦ķà¦²":6530,"à¦§à¦ħà¦°":6531,"à¦§à¦¨à¦Ĺ":6532,"à¦¬à¦¸à¦Ń":6533,"à¦Ĩà¦ªà¦¨à¦ľà¦¨à¦¡":6534,"à¦¬à¦Ľà¦°à¦ľ":6535,"à¦ĩà¦ĺà¦°":6536,"à¦Ĩà¦ķà¦¤":6537,"à¦·à¦Ĩà¦¬":6538,"à¦ĵà¦ħà¦²":6539,"à¦°à¦Ĺà¦°à¦®":6540,"à¦¯à¦ķà¦²à¦ķ":6541,"à¦¤à¦¨à¦§à¦°":6542,"à¦°à¦ĵà¦ªà¦°à¦¸":6543,"à¦®à¦īà¦ªà¦ľ":6544,"à¦Ĺà¦ĵà¦ª":6545,"à¦·à¦°à¦£":6546,"à¦¯à¦¸à¦¦à¦¸":6547,"à¦ªà¦ķà¦¥à¦¨":6548,"à¦¨à¦ħà¦Ļ":6549,"à¦¨à¦ļà¦²à¦ļ":6550,"à¦®à¦Ĩà¦Ľ":6551,"à¦¶à¦ħà¦§":6552,"à¦ĩà¦¹à§Łà¦¨":6553,"à¦ĸà¦«à¦ľà¦²":6554,"à¦ĩà¦¨à¦ıà¦¬":6555,"à§Łà¦ªà¦¦":6556,"à¦°à¦¡à¦Łà¦ķà¦®":6557,"à¦²à¦Ĩà¦ľà¦¹":6558,"à¦ķà¦Łà¦ķà¦¬":6559,"à¦ķà¦¤à¦ļ":6560,"à¦¬à¦Ľà¦°à¦Ľ":6561,"à¦ıà¦®à¦¨à¦®":6562,"à§§à§§à§¨à§¦à§¨à§§":6563,"à¦°à¦ĵà¦ªà¦°à¦Ĺ":6564,"à¦¯à¦ĵà¦ķ":6565,"à§Łà¦°à¦ªà¦¦":6566,"à¦ĸà¦ķà¦¸":6567,"à¦°à¦¸à¦¦à¦°à¦¬":6568,"à¦¹à§Łà¦ıà¦°à¦ª":6569,"à¦²à¦¦à¦¶":6570,"à¦¨à¦ıà¦ĩà¦Ń":6571,"à¦°à¦ĩà¦¬à¦¨à¦®":6572,"à¦ªà¦ļà¦ķ":6573,"à¦ĩà¦ıà¦¤":6574,"à¦·à¦¸à¦®à¦ķ":6575,"à¦¥à¦°à¦ķ":6576,"à¦ĩà¦²à¦Ĩà¦ĩà¦Ł":6577,"à¦ªà¦ķà¦¡à¦®":6578,"à¦ķà¦ļà¦°":6579,"à¦®à¦ıà¦²":6580,"à¦²à¦Ĺà¦°":6581,"à¦Ľà¦Ń":6582,"à¦¬à¦¸à¦°":6583,"à¦Ĩà¦¸à¦ĵà§Ł":6584,"à¦°à¦®à¦¤à¦²à¦¬":6585,"à¦¤à¦¬à¦Ľà¦°à¦¬à§Łà¦¸":6586,"à¦²à¦Ĺà¦¤":6587,"à¦®à¦¸à¦ļ":6588,"à¦²à¦Ĺà¦ª":6589,"à¦¨à¦¬à§Łà¦¸":6590,"à¦ıà¦ĸà¦¨à¦¶":6591,"à¦¹à¦¯à¦°à¦¤à¦Ĩà¦¬":6592,"à¦ķà§Łà¦²":6593,"à¦ªà¦ıà¦ķà¦Ł":6594,"à§Łà¦Ĳà¦ķ":6595,"à¦ĩà¦°à¦¶":6596,"à¦°à¦£à¦²":6597,"à¦¨à¦ĩà¦ª":6598,"à¦ķà¦ĵà¦¨":6599,"à¦¬à¦ł":6600,"à¦¬à¦īà¦¨":6601,"à¦łà¦°":6602,"à¦ĩà¦¬à¦¹":6603,"à¦ħà¦¬à¦¤à¦°à¦£":6604,"à¦²à¦Ľà§ľ":6605,"à¦ªà¦¥à¦¦":6606,"à¦ĭà¦£à¦¬":6607,"à¦ĩà¦¨à¦«à¦°à¦®":6608,"à¦°à¦¬à§ľà¦Ń":6609,"à¦ķà¦°à¦ĸ":6610,"à¦¬à¦ĵà¦ķ":6611,"à¦¯à¦Ĺà¦²":6612,"à¦ľà¦ĸà¦¬à¦°à¦¨":6613,"à¦Ľà¦ĸ":6614,"à¦Ļà¦¤":6615,"à¦ıà¦ĩà¦®à¦¨":6616,"à§§à§Ńà§¦":6617,"à¦®à§Łà¦ª":6618,"à¦²à¦Ĩà¦¯à¦¹":6619,"à¦ķà¦ĩà¦¸":6620,"à¦¸à¦Ĺà§ľ":6621,"à¦Ĺà¦®à¦ķ":6622,"à¦ıà¦§à¦°à¦£":6623,"à¦¥à¦¤à¦²":6624,"à¦¨à¦ªà¦¬":6625,"à¦ķà¦ķà¦°à¦Ľ":6626,"à¦ľà¦ľà¦Ĩà¦¦":6627,"à¦Łà¦°à¦°":6628,"à¦ĩà¦ıà¦°à¦ª":6629,"à¦ıà¦¡à¦®":6630,"à¦®à¦¸à¦¦à¦¸":6631,"à¦ĩà¦īà¦Ĩà¦°à¦ı":6632,"à¦²à¦ľà§Ł":6633,"à¦¤à¦ĵà¦¨":6634,"à¦ĩà¦ĵà¦ª":6635,"à¦ĵà¦ķà¦¥":6636,"à¦°à¦ªà¦°à¦²":6637,"à¦ķà¦¬à§ľ":6638,"à¦ıà¦¸à¦¬à¦¸":6639,"à¦²à¦¸à¦Ń":6640,"à¦ħà¦¬à¦¸à¦°":6641,"à¦¸à¦ķà¦²à¦®":6642,"à¦ªà¦¦à¦¸à§ľà¦ķ":6643,"à¦ķà¦ķà¦Ł":6644,"à¦¦à¦ĩà§Ł":6645,"à¦ļà§Łà¦ķà¦°":6646,"à¦°à¦ħà¦Ł":6647,"à¦Ĩà¦ĩà¦¨à¦ħà¦¨":6648,"à§§à§¯à§¯à§©":6649,"à§§à§¨à§©à§ªà§«à§¬à§Ńà§®à§¯à§§à§¦à§§à§§à§§à§¨à§§à§©à§§à§ªà§§à§«à§§à§¬à§§à§Ńà§§à§®à§§à§¯à§¨à§¦à§¨à§§à§¨à§¨à§¨à§©à§¨à§ªà§¨à§«à§¨à§¬à§¨à§Ńà§¨à§®à§¨à§¯à§©à§¦":6650,"à¦²à¦ĵà¦°":6651,"à¦¹à¦¹à¦²":6652,"à¦ĵà¦°à¦¦":6653,"à¦°à¦¸à¦¬à¦®":6654,"à¦°à¦ªà¦°à¦Ĩ":6655,"à¦Ĩà¦®à¦¬":6656,"à¦ĩà¦īà¦ıà¦¨":6657,"à¦ªà¦¨à¦¤":6658,"à¦ľà¦ļà¦²":6659,"à¦ľà¦ķà¦¨":6660,"à¦Ĩà¦°à¦ªà¦°":6661,"à¦ĵà¦¹à¦¬":6662,"à¦°à¦ķà¦¹":6663,"à¦°à¦Ńà¦¦":6664,"à¦ħà¦«à¦²":6665,"à¦ħà¦¥à¦ļà¦¤":6666,"à¦ķà¦°à¦¶":6667,"à¦¬à¦ĩà¦¸à¦²":6668,"à¦¤à¦īà¦ł":6669,"à¦ıà¦°à¦¥":6670,"à¦ļà¦ķà¦¸":6671,"à¦°à¦Ĩà¦¨à¦ªà§ľ":6672,"à¦²à¦ķà¦²à¦ķ":6673,"à¦°à¦ıà¦ĩà¦°":6674,"à¦¨à¦Ĩà¦ĸà¦¤":6675,"à¦ħà¦¬à¦¸à¦°à¦ª":6676,"à¦¤à¦¹à¦¨à¦¤":6677,"à¦ķà¦¶à¦¬":6678,"à¦¬à¦¹à¦²":6679,"à¦²à¦¹à¦ļ":6680,"à§§à§©à§©":6681,"à¦°à¦®à¦£à¦®":6682,"à¦²à¦¹à¦²à¦Ń":6683,"à¦¶à¦§à¦°":6684,"à¦¯à¦ķà¦ķ":6685,"à¦°à¦¸à¦®à§Łà¦¯":6686,"à¦Ĺà¦£à¦ľ":6687,"à¦Ĺà¦¨à¦²":6688,"à¦·à¦ļà¦¨":6689,"à¦·à¦¤à¦¥":6690,"à¦ĵà¦ĩà¦¯":6691,"à¦Īà¦¨à¦īà¦¦":6692,"à¦¦à¦ĸà¦²à¦®":6693,"à¦¨à¦ĩà¦®à¦°":6694,"à¦¬à¦°à¦¸à¦°":6695,"à§Łà¦ħà¦ªà¦°":6696,"à¦Ĺà¦ĵà¦¬":6697,"à¦§à¦ĵà¦®":6698,"à¦°à¦ķà¦¤à¦Ł":6699,"à¦·à¦£à¦ľ":6700,"à¦¨à¦²à¦¡":6701,"à¦Ĺà¦łà¦¨à¦¨":6702,"à¦ķà¦¬à¦Ľà¦°à¦Ĩà¦Ĺ":6703,"à¦ķà¦ĺà¦£":6704,"à¦¤à¦²à¦Ń":6705,"à¦Ĩà¦°à¦Ľ":6706,"à¦ħà¦¬à¦¨":6707,"à¦īà¦Ĩà¦®":6708,"à¦°à¦ıà¦°à¦®à¦§":6709,"à¦²à¦¸à¦«":6710,"à§§à§«à§¦à§¦":6711,"à¦°à¦ıà¦ķà¦¹":6712,"à¦Łà¦¬à¦²à¦ĸ":6713,"à¦£à¦Ĺà¦¤à¦®":6714,"à¦®à¦Ŀ":6715,"à¦²à¦ľà¦°":6716,"à¦Ĺà¦®à¦¸":6717,"à¦°à¦¬à¦¶":6718,"à¦®à¦¨à¦Ĩà¦®":6719,"à¦°à¦¹à¦Ł":6720,"à¦ıà¦®à¦¨à¦¨":6721,"à¦ıà¦ĩà¦¸à¦ª":6722,"à§¦à§«à§ªà§¬à§§":6723,"à§¯à§®à§¨à§ªà§¦à§«à§ªà§¬à§§":6724,"à§¯à§®à§¨à§ªà§¦à§¬à§¨":6725,"à§¯à§®à§¨à§ªà§¦à§¬à§©":6726,"à§¯à§®à§¨à§ªà§¦à§¬à§¬":6727,"à§¯à§®à§¨à§ªà§¦à§Ńà§¨":6728,"à¦¨à¦ĩà¦ķ":6729,"à¦¬à¦®à¦¤":6730,"à¦¶à¦®à¦¤":6731,"à¦Ĺà¦¹à¦¤":6732,"à¦ĵà¦Ľà¦¬":6733,"à¦°à¦ĩà¦ıà¦ķà¦Ł":6734,"à¦ĩà¦ķà¦ª":6735,"à¦°à¦¡à¦¬":6736,"à¦¸à¦¦à¦°à¦¥":6737,"à¦¬à¦¤à¦¸":6738,"à¦ĺà¦°à¦ª":6739,"à¦°à¦ıà¦®à¦¡":6740,"à¦°à¦ļà¦²à¦Ľ":6741,"à¦°à¦ĵà¦«":6742,"à§ªà§«à§¦":6743,"à¦ķà¦¬à¦¹":6744,"à¦ķà¦¬à¦°à¦¦":6745,"à¦ĩà¦²à¦¤":6746,"à¦¨à¦ıà¦°à¦¬":6747,"à¦²à§Łà¦°":6748,"à¦ĩà¦¡à¦®":6749,"à¦¹à¦¯à¦°à¦¤à¦Ĩà¦²":6750,"à¦°à¦Ĩà¦²à¦®à¦Ĺ":6751,"à¦¨à¦ļà¦²à¦Ľ":6752,"à¦®à¦ĩà¦īà¦¨":6753,"à¦ĩà¦ĩà¦īà¦¨":6754,"à¦ĵà¦īà¦²":6755,"à¦°à¦®à¦¤à¦ķà¦°":6756,"à§§à§¨à§¦à§§à§«":6757,"à¦ıà¦ĩà¦ļà¦Ł":6758,"à¦®à¦ªà¦ķ":6759,"à¦®à¦¤à¦°":6760,"à¦¦à¦ľà¦¬":6761,"à¦ĵà¦ĩà§Ł":6762,"à¦¨à¦¤à¦ķà¦°à¦¤":6763,"à¦ĩà¦¸à¦¬à¦ķ":6764,"à¦¤à¦¨à¦¹à§Ł":6765,"à¦ªà¦¦à¦Ĺ":6766,"à¦ķà¦ĩà¦°":6767,"à¦°à¦ªà¦°à¦ı":6768,"à¦ķà¦¦à¦²à¦Ĺ":6769,"à¦¤à¦°à¦£à¦¶":6770,"à¦¨à§Łà¦ª":6771,"à¦°à¦ªà¦°à¦ĺ":6772,"à¦«à¦²à¦ľ":6773,"à¦®à¦¨à¦¹":6774,"à¦ĺà¦°à¦Ń":6775,"à¦ĩà¦ªà¦²":6776,"à¦¤à¦¤à¦Ł":6777,"à¦¨à¦¡à¦®":6778,"à§§à§¯à§¯à§ª":6779,"à¦ĩà¦ıà¦ķà¦¦":6780,"à¦·à¦Ĩà§Ł":6781,"à¦¨à¦Ńà¦Ł":6782,"à¦Łà¦¸à¦ķà¦²à¦¶":6783,"à§§à§®à§Ń":6784,"à§§à§§à§§":6785,"à¦¯à¦°à¦ª":6786,"à¦ĸà¦Ĩà¦¬":6787,"à¦°à¦®à¦¬à¦¨":6788,"à¦°à¦ľà¦Ĺ":6789,"à¦¦à¦¨à¦ıà¦¬":6790,"à¦¨à¦¬à¦²à¦Ľ":6791,"à¦®à¦Ĩà¦¹à¦®à¦¦":6792,"à§§à§¨à§¦à§¦à§¦":6793,"à¦īà¦Ńà§Łà¦ªà¦ķ":6794,"à¦¨à¦¹à§Łà¦¨":6795,"à¦¤à¦Ŀ":6796,"à¦¦à¦Ĩà¦Ľ":6797,"à§Łà¦ıà¦ĩà¦¬":6798,"à¦ľà¦®à¦¨":6799,"à¦ľà¦ķà¦¬":6800,"à¦Ńà¦¬à¦ª":6801,"à§İà¦ļà¦¨":6802,"à¦ªà¦¦à¦ĸ":6803,"à¦ıà¦¸à¦®à§Łà¦īà¦ªà¦¸":6804,"à¦¬à¦Ĩ":6805,"à¦ľà¦®à¦¹":6806,"à¦°à¦Ĩà¦¨à¦ĵ":6807,"à¦ķà¦ħà¦¬":6808,"à¦¹à¦Ĩà¦Ĺ":6809,"à¦¶à¦ĵà¦ľ":6810,"à¦ĩà¦ıà¦ĩà¦ª":6811,"à¦°à¦¬à¦¬":6812,"à¦ıà¦ķà¦ĸ":6813,"à¦®à¦®à¦Ń":6814,"à¦ľà§Łà¦ħà¦¨":6815,"à¦ķà¦Ĩà¦ľ":6816,"à¦²à¦ĵà¦¤":6817,"à¦ľà¦Ĺà¦¦":6818,"à¦·à¦¸à¦®à§Ł":6819,"à¦°à¦®à¦Ĺ":6820,"à¦°à¦®à¦¨à¦ľ":6821,"à¦ľà¦¨à¦Ĩà¦Ľ":6822,"à¦°à¦²à¦ª":6823,"à¦¦à¦®à¦¨à¦ķà¦®":6824,"à¦¬à¦Ĩà¦¦":6825,"à¦®à¦Ĩà¦Ĺ":6826,"à¦ªà¦¸à¦¨":6827,"à¦¶à¦°à¦¹":6828,"à§¨à§¨à§¦à§§à§«":6829,"à¦°à¦ľà¦²à¦¬":6830,"à¦°à¦Ĺà¦Ńà¦°":6831,"à¦Ĩà¦Ľà¦°":6832,"à¦®à¦²à¦¦":6833,"à¦Ĺà¦£à¦Ł":6834,"à¦ĵà¦®à¦§":6835,"à¦°à¦īà¦ªà¦°à¦¯":6836,"à¦¤à¦Ĩà¦ľ":6837,"à¦®à¦ĩà¦ķà¦¬":6838,"à¦ªà¦ĵà¦¬":6839,"à¦°à¦¥à¦®à¦ķà¦°":6840,"à¦ķà¦Łà¦¬":6841,"à§§à§¯à§«":6842,"à¦ĩà¦ªà¦¡":6843,"à¦²à¦Ńà¦Ł":6844,"à¦¬à¦ķà¦°à¦¤":6845,"à¦Ľà§Ł":6846,"à¦°à¦Ĩà¦ĩ":6847,"à¦¨à¦®à¦£":6848,"à¦¦à¦¸à¦Ń":6849,"à¦Ĩà¦ĩà¦¨à¦®":6850,"à¦Łà¦¬à¦²à¦¦à¦²":6851,"à¦ķà¦°à¦£à¦ķà¦°":6852,"à¦¬à¦°à¦¸à¦¨":6853,"à¦ªà¦ļà¦²à¦ļ":6854,"à¦¦à¦ıà¦ķ":6855,"à¦¦à¦ĵà¦ª":6856,"à¦°à¦ªà¦°à¦Ĩà¦ªà¦¨":6857,"à¦¹à¦¤à¦Ń":6858,"à¦²à¦Ĺà¦ķà¦°":6859,"à¦ĩà¦¡à¦¸":6860,"à¦ĩà¦īà¦¬":6861,"à¦Ĩà¦ļà¦®à¦ķ":6862,"à¦ķà¦ħà¦¤":6863,"à¦ĵà¦ľà¦²":6864,"à¦¡à¦ħà¦«":6865,"à¦¹à¦ķà¦¹":6866,"à§Łà¦®à¦¬":6867,"à¦·à¦Ĩà¦Ľ":6868,"à¦ıà¦ķà¦ķà¦°":6869,"à¦¨à¦¸à¦¬à¦ķ":6870,"à¦ıà¦ĩà¦¬à¦²":6871,"à¦ĩà¦Łà¦ĵà§Ł":6872,"à¦¨à¦¯à¦¶":6873,"à¦ĺà¦¨à¦ĺ":6874,"à¦¨à¦īà¦ªà¦ķ":6875,"à¦¦à¦¸à¦¹":6876,"à¦¶à¦¤à¦ķà¦°":6877,"à¦Ĩà¦¤à¦ķà¦°":6878,"à¦¥à¦ķà¦¬":6879,"à¦¬à¦¨à¦¹":6880,"à¦®à¦¤à¦¸à¦®":6881,"à¦ªà§ľà¦ªà¦°":6882,"à¦¹à¦ľà¦°à¦¤":6883,"à¦¨à¦¹à§Łà¦¤":6884,"à¦ıà¦ħà¦Ń":6885,"à¦ĵà¦Ŀ":6886,"à¦¨à¦¸à¦¹à¦¯":6887,"à¦¨à¦ĵà¦ĸ":6888,"à§¨à§Ńà§¦":6889,"à¦¤à¦Ĩà¦¤":6890,"à¦ľà§Łà¦¸":6891,"à¦ľà¦¨à¦¥":6892,"à¦¹à§Łà¦ıà¦¦":6893,"à¦¨à¦¸à§ľà¦ķ":6894,"à¦ıà¦ĩà¦ĵà§Ł":6895,"à§İà¦¥":6896,"à¦īà¦ľà¦¶":6897,"à¦¤à¦¹à¦¨":6898,"à¦¤à¦¹à¦¨à¦¨":6899,"à¦īà¦¥à¦Ĩà¦«":6900,"à¦¨à¦°à¦¨":6901,"à¦ķà¦ľà¦¨à¦¸":6902,"à¦²à¦ļà¦Ł":6903,"à¦ªà¦¹à¦¤":6904,"à¦ĸà¦§":6905,"à¦¨à¦¸à¦¹à¦¬":6906,"à¦¤à¦®à¦²":6907,"à¦¨à¦Ĺà¦°à¦īà¦ªà¦ľ":6908,"à§Łà¦¬à¦¦":6909,"à¦¸à¦ķà¦²à¦¶":6910,"à¦¸à¦īà¦¦à¦¯":6911,"à¦®à¦¶à¦¹":6912,"à¦²à¦ıà¦¤":6913,"à¦ľà¦¢":6914,"à¦ļà¦®à¦¤":6915,"à¦°à¦¹à§Łà¦ķ":6916,"à¦ĺà¦·":6917,"à¦ĩà¦Łà¦¯":6918,"à¦¨à¦Ĺà¦°à¦¦":6919,"à¦°à¦¹à¦£à¦¨":6920,"à¦ªà¦¥à¦ļ":6921,"à¦¤à¦ĺà¦Ł":6922,"à¦¤à¦Ĩà¦ªà¦¡":6923,"à¦Łà¦ħà¦¬":6924,"à¦ĸà¦¢":6925,"à¦¤à¦®à¦ĵà¦Ń":6926,"à¦ĩà¦ľà¦ķà¦°":6927,"à¦ķà¦ĵà¦¶":6928,"à¦®à¦Ĩà¦ķ":6929,"à¦·à¦īà¦¦":6930,"à¦·à¦īà¦ªà¦²à¦ķ":6931,"à¦īà¦ľà¦®":6932,"à¦Ńà¦¬à¦¨à¦¯":6933,"à¦¬à¦°à¦ĵ":6934,"à¦¯à¦ľà¦¨à¦ķ":6935,"à¦Łà¦ħà¦§":6936,"à¦·à¦¨à¦¬":6937,"à¦ıà¦ķà¦Ľ":6938,"à¦²à¦ķà¦ļ":6939,"à¦ĩà¦²à¦ĸ":6940,"à¦¨à¦Ĺà¦£à¦®":6941,"à¦ıà¦ĸà¦¨à¦Ĩà¦ªà¦¨":6942,"à¦ıà¦ĸà¦¨à¦ĵà¦ķ":6943,"à¦ħà¦ªà¦Ľà¦¨":6944,"à¦°à¦ıà¦ķà¦¯":6945,"à¦ĸà¦¬à¦°à¦°":6946,"à¦ĩà¦ıà¦®à¦¨à¦ķ":6947,"à¦°à¦ķà§ľ":6948,"à¦¬à¦¸à¦ĵà§Ł":6949,"à¦°à¦ļà¦²à¦¤":6950,"à§§à§ªà§¬":6951,"à¦°à¦¸à¦®à§Łà¦Ĺ":6952,"à¦ķà¦¤à¦Ĺ":6953,"à§¨à§ªà§©":6954,"à¦°à¦ĸà¦¬à¦°à¦¨":6955,"à¦ķà¦ľà¦¨à¦¨":6956,"à¦ıà¦ĩà¦¸à¦®à§Łà¦¡":6957,"à¦¨à¦ĩà¦īà¦¸":6958,"à¦¤à¦¦à¦°":6959,"à¦¯à¦¤à¦¨":6960,"à¦¯à¦ĩà¦Ĩà¦®":6961,"à§Łà¦Ļ":6962,"à§Łà¦¹à¦ļ":6963,"à§Łà¦ıà¦ķà¦¬":6964,"à¦ľà¦¸à¦¹":6965,"à¦ĵà¦ķà¦¬":6966,"à¦°à¦Ĩà¦¨à¦ķ":6967,"à¦°à¦£à¦¡":6968,"à¦ĩà¦Ľà§ľ":6969,"à¦¯à¦ıà¦ĩà¦¬":6970,"à¦ıà¦ķà¦ĩà¦ķ":6971,"à¦°à¦ıà¦ĩà¦Ĺ":6972,"à¦°à¦īà¦ĩà¦¨à¦¦":6973,"à¦¦à¦¸à¦°à¦ķ":6974,"à¦°à¦Ĩà¦Ĺà¦ªà¦°":6975,"à§¨à§«à§¨à§¦à§¨à§§":6976,"à¦¦à¦§":6977,"à¦°à¦¸à¦¬à¦¶":6978,"à§İà¦Ĺ":6979,"à¦·à¦£à¦ķà¦°à¦²":6980,"à¦Ĩà¦ĩà¦¨à¦¨":6981,"à¦ļà§Łà¦ª":6982,"à¦¬à¦²à¦²à¦¹":6983,"à¦®à¦¦à¦¶à¦¹":6984,"à¦¨à¦Ľà§ľ":6985,"à¦¸à¦Ĩà¦ķ":6986,"à¦¦à¦°à¦¹à¦®":6987,"à¦¯à¦¸à¦®à§Ł":6988,"à¦°à¦®à§Łà¦®à¦¨à¦¸":6989,"à¦®à¦¹à¦ĵà§Ł":6990,"à§§à§¯à§¦":6991,"à§§à§¯à§¬à§ª":6992,"à§§à§¦à§¯":6993,"à¦¬à¦Ľà¦°à¦¥":6994,"à¦¨à¦°à¦¤":6995,"à¦¸à¦Ĩà¦¹à¦®":6996,"à¦®à¦ħà¦¸":6997,"à¦¦à¦§à¦°":6998,"à§Łà¦ĩà§Ł":6999,"à¦Ĺà¦Ĩà¦Ĺ":7000,"à¦ıà¦ħà¦¨":7001,"à¦ĵà¦ħà¦ª":7002,"à¦¹à¦¤à¦¤":7003,"à¦®à¦¦à¦Ĩà¦¬à¦¦":7004,"à¦ħà¦¬à¦¸à¦°à¦ķ":7005,"à¦¨à¦ĩà¦ŀ":7006,"à¦¸à¦§":7007,"à§Łà¦ıà¦ĺà¦Łà¦¨":7008,"à¦Ńà¦¬à¦¬":7009,"à¦ħà¦¬à¦²":7010,"à¦°à¦£à¦ıà¦ķà¦Ł":7011,"à¦¤à¦°à¦²":7012,"à¦¸à¦¨à¦®à¦¨":7013,"à§§à§©à§ª":7014,"à¦£à¦Ńà¦Ł":7015,"à¦¨à¦ļà¦²à¦¤":7016,"à¦¬à¦ľà¦°":7017,"à¦®à§Łà¦¹":7018,"à¦ľà¦ĵà¦¯":7019,"à¦·à¦ªà¦¥":7020,"à¦Ńà¦¨à¦¥":7021,"à¦ĸà§ľ":7022,"à¦¤à¦¬à¦¡":7023,"à¦¤à¦¸à¦Ļ":7024,"à¦°à¦®à¦£à¦¶":7025,"à¦ľà§Łà¦²":7026,"à¦°à¦ªà¦°à¦ªà¦°à¦ĩ":7027,"à¦¬à¦ĵà¦¤":7028,"à¦°à¦®à¦¨à¦ķ":7029,"à¦¬à¦¸à¦Ĩà¦ľ":7030,"à¦¯à¦Łà¦¨à¦¶":7031,"à¦ķà¦ıà¦ĩ":7032,"à¦ķà¦ķà¦¨":7033,"à¦ıà¦°à¦«":7034,"à¦ıà¦ķà¦Ŀ":7035,"à¦°à¦Ĩà¦«":7036,"à¦¶à¦¨à¦ħà¦¨":7037,"à¦ķà¦²à¦¦":7038,"à¦ķà¦¸à¦¦à¦¸":7039,"à§§à§¦à§¨":7040,"à¦¤à¦¹à§Łà¦¯":7041,"à¦¶à¦®à¦ľ":7042,"à¦ķà¦ĩ":7043,"à¦¥à¦ıà¦¬":7044,"à¦ĵà¦¤à¦¬":7045,"à¦²à¦¸à¦¸":7046,"à¦°à¦¥à¦®à¦§":7047,"à¦ıà¦¤à¦¸":7048,"à¦¥à¦¹à¦ļ":7049,"à¦ľà¦¨à¦Ĩà¦ķ":7050,"à¦¸à¦¨à¦Ń":7051,"à¦īà¦²à¦ĩà§Ł":7052,"à§¨à§ªà§¨à§¦à§¨à§§":7053,"à§¨à§¦à§§à§¯à§¨à§¦":7054,"à¦Łà¦ĵà¦¬":7055,"à¦§à¦°à¦Ľ":7056,"à¦īà¦¨à¦¨":7057,"à¦¤à¦ĵà¦¯":7058,"à¦ľà§Łà¦®":7059,"à¦ļà¦°à¦«":7060,"à¦°à¦ªà§ľà¦²":7061,"à¦£à¦Ĩà¦Ľ":7062,"à¦°à¦«à¦²à¦¨":7063,"à¦¬à¦¹à¦¨à¦ķ":7064,"à¦§à¦¨à¦«":7065,"à¦²à¦¶à¦°":7066,"à¦Łà¦ªà¦¤":7067,"à¦¶à¦²à¦ķ":7068,"à¦ıà¦ķà¦ħà¦¨":7069,"à¦°à¦Ĩà¦¨à¦¶":7070,"à¦ŀà¦¬":7071,"à¦°à¦Ĺà¦Ļ":7072,"à¦ļà¦²à¦Ń":7073,"à¦¨à¦¸à¦®à¦°":7074,"à¦¸à¦¦à¦ķ":7075,"à¦®à¦¯à¦¦":7076,"à¦²à¦°à¦®":7077,"à¦ľà¦¬à¦Ľ":7078,"à¦«à¦¥":7079,"à¦°à¦ķà¦®à¦¨":7080,"à¦ĺà¦°à¦Ł":7081,"à¦¤à¦¨à¦¹à¦¤":7082,"à¦¬à¦ªà§ľ":7083,"à¦ľà¦°à¦¹":7084,"à¦ľà¦¹à¦ļ":7085,"à¦ħà¦°à¦£":7086,"à¦¨à¦ķà¦²à¦®":7087,"à¦²à¦®à¦²":7088,"à¦ĩà¦¤à¦ĸà¦¨":7089,"à¦ĵà¦ªà¦¦":7090,"à¦Ńà¦¬à¦¹à¦¯":7091,"à¦²à¦Ĩà¦²à¦®à¦®":7092,"à§¨à§©à§¦à§¬à§¨à§¦à§§à§¯à§¨à§¬":7093,"à¦Łà¦ķà¦¸":7094,"à¦¶à¦ĵà¦¦":7095,"à¦ıà¦ıà¦¸":7096,"à¦ĸà¦°à¦ªà¦°":7097,"à¦¦à¦¨à¦ķà¦°à¦¬":7098,"à¦®à¦¦à¦Ĩà¦¬":7099,"à¦¨à¦Ĺà¦¨":7100,"à¦²à§Łà¦Ł":7101,"à¦¸à¦Ĩà¦°":7102,"à¦¯à¦Ĩà¦ķ":7103,"à§Łà¦ıà¦Ľ":7104,"à¦Ĺà¦¬à¦¸":7105,"à¦łà¦ķà¦°à¦¬":7106,"à¦¤à¦¬à¦¬":7107,"à¦ķà¦¸à¦ļ":7108,"à¦²à¦¤à¦ľ":7109,"à¦ĵà¦¬à¦¹":7110,"à¦°à¦®à¦¤à¦¦":7111,"à¦ĩà¦¦à¦°à¦¹":7112,"à§§à§¨à§¯":7113,"à¦ķà¦¹à¦ļ":7114,"à¦¤à¦īà¦ļ":7115,"à¦ĩà¦Ĩà¦ľà¦ķ":7116,"à¦ļà¦¨à¦®":7117,"à¦«à¦ĸ":7118,"à¦°à¦«à¦°à¦¯":7119,"à¦¯à¦®à¦«":7120,"à¦¨à¦®à¦¨à¦¸":7121,"à¦¨à¦Łà¦°à¦¡":7122,"à¦¬à¦¹à¦¨à¦¬":7123,"à¦ĵà¦ĩà¦¸à¦®à§Ł":7124,"à¦®à¦ıà¦¤":7125,"à¦²à¦ĵà¦¦":7126,"à¦¦à¦¤à¦ª":7127,"à§Łà¦ħà¦ľ":7128,"à¦¡à¦ĺ":7129,"à¦°à¦£à¦¤à¦¬":7130,"à¦ķà¦®à¦²à¦Ĺà¦ŀ":7131,"à¦¯à¦ķà¦°à¦Ń":7132,"à¦°à¦ĸà¦¬à¦°à¦¦":7133,"à¦¯à¦ĩà¦¬à¦ĩà¦Ĩà¦®":7134,"à¦¨à¦°à¦¶":7135,"à¦²à¦ıà¦°à¦ª":7136,"à§Łà¦ľà¦®":7137,"à¦Ńà¦¹":7138,"à¦ªà¦¨à¦ķà¦°à¦¬":7139,"à¦¨à¦Ĩà¦²à¦¬":7140,"à¦ķà§Łà¦ĩà¦¤":7141,"à¦ıà¦°à¦ķà¦®à¦ķ":7142,"à¦¬à¦ĩà¦ªà§ľ":7143,"à¦ķà¦ħà¦Ļ":7144,"à¦¬à¦ľà¦¨à¦ª":7145,"à¦¤à¦ħà¦®":7146,"à¦ĩà¦ĵà¦¬":7147,"à¦§à¦Ĩà¦Ľ":7148,"à¦°à¦ĵà¦Ľ":7149,"à§Īà¦ĥ":7150,"à¦°à¦ĺà¦°à¦¬":7151,"à¦ħà¦¬à¦¸à¦°à¦¸":7152,"à¦¸à¦¦à¦°à¦¦":7153,"à¦¹à¦°à¦£à¦¦":7154,"à¦Łà¦ĩà¦ªà¦¤":7155,"à¦¬à¦°à¦ĩ":7156,"à¦¯à¦¨à¦¬":7157,"à¦ĸà¦ķà¦¤":7158,"à¦«à¦¶":7159,"à¦ªà¦¨à¦ªà¦°":7160,"à§¬à§¨à§¦à§¨à§§":7161,"à¦¤à¦ĵà¦¤":7162,"à¦°à¦¬à§Ł":7163,"à¦°à¦ıà¦ķà¦Ľ":7164,"à¦ıà¦ĩà¦ļà¦ıà¦®":7165,"à¦ĵà¦²à¦ľ":7166,"à¦¨à¦¸à¦°à¦¬à¦°":7167,"à¦°à¦¸à¦®à§Łà¦¶":7168,"à¦¸à¦¨à¦°":7169,"à¦¨à¦ľà§Ł":7170,"à¦¯à¦Łà¦¨à¦ķ":7171,"à¦¯à¦¶à¦ķ":7172,"à¦¯à¦ĩà¦¦":7173,"à¦ľà¦ĺà¦¨":7174,"à¦¶à¦ķà¦²":7175,"à¦°à¦¸à¦ĸ":7176,"à¦Łà¦¨à¦Ł":7177,"à¦®à¦Ĩà¦¯":7178,"à¦ķà¦ī":7179,"à¦¦à¦®à¦¹":7180,"à¦¬à¦²à¦Ń":7181,"à¦¨à¦¨à¦²":7182,"à§§à§¨à§ª":7183,"à¦¨à¦ĩà¦¯":7184,"à¦Ľà¦ĵà§Ł":7185,"à¦°à¦¸à¦²":7186,"à¦¨à¦¸à¦¬à¦ļ":7187,"à¦ıà¦ķà¦ľà¦¨à¦²":7188,"à¦¬à¦Ĩà¦ªà¦¨":7189,"à¦¬à¦°à¦ļà¦¨":7190,"à¦®à¦¶à¦°":7191,"à¦²à¦ķà¦ľ":7192,"à¦¤à¦¨à¦Ĩà¦¨":7193,"à¦Ĺà¦¤à¦ªà¦°":7194,"à¦¤à¦°à¦£à¦¬":7195,"à¦¤à¦°à¦£à¦ª":7196,"à¦°à¦Ĩà¦¤à¦Ļ":7197,"à¦¸à¦²à¦¨":7198,"à¦¦à¦°à¦ļ":7199,"à¦¯à¦ıà¦²":7200,"à¦Łà¦¤à¦¥":7201,"à¦§à¦¬à¦¦":7202,"à¦¤à¦¬à¦ķà¦ħà¦°":7203,"à¦Ĩà¦²à¦®à¦®":7204,"à¦¸à¦¹à¦¸à¦Ń":7205,"à¦ķà¦¦à¦«":7206,"à¦¨à¦ħà¦ľ":7207,"à¦Ńà¦Ń":7208,"à¦Ńà¦¡":7209,"à¦°à¦ĵà¦¡":7210,"à¦²à¦¸à¦ª":7211,"à¦«à¦²à¦Ľ":7212,"à¦°à¦¸à¦®à§Łà¦Ĩà¦®":7213,"à¦¬à¦¤à¦®":7214,"à¦¤à§ľ":7215,"à¦®à¦²à¦®":7216,"à¦ªà¦ķà¦°à¦¬":7217,"à¦ĩà¦ĸà¦²":7218,"à¦°à¦¬à¦ľ":7219,"à¦ĺà¦¸à¦®à¦¯":7220,"à§Łà¦¨à¦Ń":7221,"à¦¦à¦¨à¦Ĺà¦°":7222,"à¦ķà¦ªà¦ķ":7223,"à¦¤à¦ªà¦²":7224,"à§¨à§¦à§¨à§§à§¦à§¯":7225,"à¦¹à§Łà¦¤à¦ĸà¦¨":7226,"à¦¤à¦ĩ":7227,"à¦²à¦ĩà¦ŀ":7228,"à¦¦à¦ħ":7229,"à§Łà¦Ľà¦¬":7230,"à¦·à¦¨à¦ķà¦°":7231,"à¦īà¦¤à¦¬":7232,"à¦°à¦ħà¦ªà¦®":7233,"à¦°à¦īà¦ªà¦°à¦Ĺ":7234,"à¦Ĩà¦¶à¦Ĩà¦°":7235,"à¦°à¦ķà¦®à¦Ń":7236,"à¦¯à¦ĸà¦¨à¦¨":7237,"à¦ĩà¦ĸà¦Ĩà¦¬":7238,"à§¯à§®à§¨à§©à§¦":7239,"à§¯à§®à§¨à§©à§¦à§Ńà§©":7240,"à¦²à¦ĩà¦¯":7241,"à¦ĸà¦¡à¦²":7242,"à¦¡à¦ĵ":7243,"à¦¨à¦ķà¦ª":7244,"à¦®à¦¤à¦ķà¦°":7245,"à¦¶à¦Ĩà¦ĵà¦¯":7246,"à¦°à¦¤à§İà¦ķ":7247,"à§§à§Ńà§®":7248,"à¦ĵà¦Ĩà¦®à¦²":7249,"à¦°à¦ĵà¦¶à¦¨à¦ıà¦°à¦¶":7250,"à¦ķà¦Ĩà¦®à¦°":7251,"à¦¤à¦ľà¦¨à¦ª":7252,"à¦Ľà¦Ĩà¦²":7253,"à¦°à¦¤à¦ľ":7254,"à¦ľà¦¨à¦¸à¦ļ":7255,"à¦ªà¦¨à¦Ĺà¦°":7256,"à¦ķà¦®à¦¸à¦ľ":7257,"à¦°à§Łà¦ª":7258,"à¦Ĺà¦²à¦¥":7259,"à¦¶à¦ªà¦¥à¦¨":7260,"à¦¬à§ľà¦¬à§ľ":7261,"à¦°à¦ĸà¦¬à¦°à¦ķ":7262,"à¦¨à¦²à¦Ĺà¦ĩà¦¨à¦¨à¦¤":7263,"à§Łà¦Ĩà¦ĩà¦¨":7264,"à¦ľà¦¤à¦¬":7265,"à¦ĵà¦ļà¦²":7266,"à¦°à¦¤à¦Ĺ":7267,"à¦¹à§Łà¦²":7268,"à¦°à¦ıà¦ĩà¦¯":7269,"à¦ķà¦Łà¦¦":7270,"à¦¨à¦ıà¦°à¦ªà¦°à¦¤":7271,"à¦¬à¦ķà¦Ĩà¦Łà¦ķ":7272,"à¦ķà¦Ńà¦Ł":7273,"à§§à§¬à§¯":7274,"à¦Ńà¦¬à¦¹à¦²":7275,"à¦¯à§Łà¦¬à¦¹":7276,"à¦Łà¦ķà¦ķ":7277,"à¦Łà¦Ńà¦°":7278,"à¦ĩà¦ıà¦¨":7279,"à¦ĩà¦ĩà¦īà¦ª":7280,"à¦·à§Łà¦¸":7281,"à¦°à¦ªà§Ł":7282,"à¦°à¦ľà¦²à¦¸":7283,"à¦¹à§Łà¦«":7284,"à¦īà¦ªà¦ªà¦°":7285,"à¦¬à¦Ľà¦°à¦¯":7286,"à¦·à¦ķà¦Ĩà¦¨":7287,"à§§à§¯à§®à§«":7288,"à¦¦à¦Ĩà¦¸":7289,"à¦¯à¦¤à¦°":7290,"à¦ıà¦°à¦ħà¦§":7291,"à¦°à¦ªà¦°à¦Ł":7292,"à¦īà¦²à¦Ł":7293,"à¦¶à¦¤à¦¶":7294,"à§§à§¯à§Ńà§©":7295,"à¦·à¦¦à¦¸à¦ļ":7296,"à¦¤à¦ħà¦¨à¦²":7297,"à¦ªà¦īà¦¦":7298,"à¦¦à¦Ĩà¦°":7299,"à¦¯à§İà¦ķ":7300,"à§Łà¦®à¦¤":7301,"à¦¶à¦¬à¦¸":7302,"à¦ĩà¦«à¦°":7303,"à¦ĩà¦«à¦²":7304,"à¦·à¦Ĩà¦¹à¦¤":7305,"à¦¨à¦Ńà¦¬":7306,"à¦°à¦¡à¦ķ":7307,"à¦®à¦ıà¦ĸà¦¨":7308,"à¦¯à¦ł":7309,"à¦°à¦¸à¦¦à¦°à¦¹":7310,"à§ĥà¦ĥ":7311,"à¦ªà¦¨à¦Ń":7312,"à¦ªà¦¨à¦ħà¦¨":7313,"à¦ıà¦ĩà¦§à¦°à¦£":7314,"à§Ńà§¨à§¦à§¨à§§":7315,"à¦¤à¦¨à¦Ľ":7316,"à¦¤à¦¨à¦ªà¦°":7317,"à¦ĩà¦ľà¦ª":7318,"à¦¬à¦¹à¦°":7319,"à¦ıà¦®à¦Ń":7320,"à¦¤à¦ıà¦ĩà¦¸":7321,"à¦²à¦§à¦¨":7322,"à¦¹à¦Ĩ":7323,"à¦°à¦ķà¦®à¦¸":7324,"à¦°à¦£à§Łà¦¨à¦ķà¦°":7325,"à¦°à¦ľà¦¨à¦Ĺ":7326,"à¦¬à¦ªà¦°à¦¬":7327,"à¦¸à¦«à¦Łà¦ĵà¦¯":7328,"à¦®à¦ĵà¦¤":7329,"à¦¦à¦¶à¦¹":7330,"à¦¹à¦ķà¦°à¦¬":7331,"à¦Łà¦ľà¦®":7332,"à¦ľà¦ļà¦Ł":7333,"à¦ĩà¦ĩà¦¬à¦¨":7334,"à¦ĩà¦ıà¦ķà¦¬":7335,"à¦£à¦ķà¦°à¦¬":7336,"à¦ķà¦¤à¦ĸà¦¨":7337,"à¦īà¦ľà¦¹":7338,"à§§à§¨à§¦à§§à§§":7339,"à¦ªà¦¬à¦¨":7340,"à¦ĵà¦Ĩà¦¤":7341,"à¦ĵà¦Ĩà¦°à¦¬":7342,"à¦°à¦ķà¦¸à¦®":7343,"à¦°à¦ĵà¦ķà¦®":7344,"à¦¤à¦ķà¦£":7345,"à¦Ĩà¦ľà¦Ń":7346,"à¦Ĺà¦łà¦¨à¦ª":7347,"à§§à§¬à§Ń":7348,"à¦ıà¦«à¦ıà¦«":7349,"à¦ķà¦ļà¦Ł":7350,"à¦¬à¦ĩà¦ļ":7351,"à¦¸à§İ":7352,"à¦¯à¦ľà¦®":7353,"à¦ĩà¦ħà¦¬à¦¶":7354,"à¦£à¦īà¦ĩà¦®":7355,"à¦łà¦ķà¦ķ":7356,"à¦²à¦¨à¦¯":7357,"à¦ļà¦¨à¦¶":7358,"à¦ıà¦®à¦ıà¦²":7359,"à¦¦à¦¤à¦ķà¦¬":7360,"à¦ıà¦¸à¦®à§Łà¦ª":7361,"à¦¬à¦ĵà¦®":7362,"à¦¸à¦ĵà¦ª":7363,"à§Łà¦ıà¦ĸ":7364,"à¦Ĺà¦¹à¦¯":7365,"à¦Ĺà¦°à¦®à¦ª":7366,"à¦Ľà¦«":7367,"à¦¡à¦²à¦ķ":7368,"à§ľà¦ľ":7369,"à¦°à¦Ĩà¦¸à¦¬":7370,"à¦¹à¦¤à¦¶":7371,"à¦ĵà¦ķà¦²à¦ķ":7372,"à§§à§«à§©":7373,"à¦īà¦®à¦°à¦°":7374,"à¦°à¦¸à¦ķà¦²à¦¬":7375,"à¦¸à¦¶à¦¨":7376,"à¦®à¦ķà¦¨":7377,"à¦īà¦®à¦°":7378,"à¦°à¦ħà¦¯":7379,"à¦²à¦¨à¦¸à¦®":7380,"à¦¤à¦®à¦°à¦¦":7381,"à§Łà¦®à¦ħà¦¨":7382,"à¦°à¦¸à¦®à§Łà¦Ł":7383,"à¦¨à¦īà¦ªà¦¸":7384,"à¦ķà¦Ĩà¦¹à¦®à¦¦":7385,"à¦²à¦ıà¦¦":7386,"à¦²à¦ĵà¦¶":7387,"à¦¦à¦²à¦ª":7388,"à§Łà¦ħà¦¨à¦²":7389,"à¦ľà¦ķà¦¤à¦¤":7390,"à¦ĩà¦§à¦°à¦¨":7391,"à¦Ĩà¦«à¦¤":7392,"à¦ĵà¦ıà¦ĩà¦ļà¦¡":7393,"à¦īà¦Łà¦ª":7394,"à¦°à¦ľà§Łà¦ª":7395,"à§§à§¦à§§à§¨":7396,"à¦°à¦ªà¦¦à¦¥":7397,"à¦¦à¦¹à¦¯":7398,"à¦¶à¦ĩà¦¨":7399,"à¦°à¦¸à¦¬à¦¦":7400,"à¦ľà¦¨à¦ķà¦°à¦¬":7401,"à¦¤à¦¨à¦ĺà¦Ł":7402,"à§Łà¦¬à¦Ľ":7403,"à¦ıà¦²à¦¡":7404,"à¦ıà¦¸à¦®à§Łà¦¸":7405,"à¦®à¦¨à¦Ĺà¦°à¦¸":7406,"à¦ķà¦¯à¦¦":7407,"à¦²à¦ĵà¦¨":7408,"à§Łà¦īà¦²":7409,"à¦¹à¦ķà¦¬":7410,"à¦«à¦ĵà¦¯":7411,"à¦°à¦Ĩà¦°à¦¤":7412,"à¦¨à¦Ĩà¦ļ":7413,"à¦®à¦¹à¦ļ":7414,"à¦¨à¦¹à¦ł":7415,"à§§à§¨à§Ń":7416,"à¦¨à¦ħà¦¨à¦¨":7417,"à¦¦à¦ĸà¦²à¦¦":7418,"à¦¸à¦ħà¦Ń":7419,"à¦®à¦ıà¦ĸ":7420,"à¦¹à¦ķà¦¸":7421,"à¦Ľà¦ķà¦°":7422,"à¦Ńà¦¹à¦¬":7423,"à¦§à¦Ĩà¦®":7424,"à¦¨à¦¸à¦ŀ":7425,"à¦ĵà¦ªà¦Ľà¦¨":7426,"à§§à§¬à§ª":7427,"à§®à§®à§¦à§§à§¯":7428,"à¦ķà¦¤à¦®":7429,"à¦ķà¦ĵà¦Ł":7430,"à¦¦à¦Ĩà¦«":7431,"à§Łà¦ĵà¦®":7432,"à¦¸à¦®à¦®":7433,"à¦¹à§Łà¦Ĺà¦¤":7434,"à¦ıà¦ķà¦ľà¦¨à¦Ĺ":7435,"à¦¨à¦ıà¦ĩà¦Ł":7436,"à¦¨à¦ħà¦Ĺ":7437,"à¦¤à¦ĸà¦¨à¦¦":7438,"à¦¤à¦°à¦£à¦¦":7439,"à§ľà¦ķà¦īà¦¨":7440,"à§İà¦«à¦°à¦°à¦¹à¦®":7441,"à¦¤à¦²à¦ª":7442,"à¦®à¦ĵà¦¨":7443,"à¦¶à¦īà¦¤":7444,"à¦·à¦ªà¦¦":7445,"à¦ĸà¦Ĩà¦Ľ":7446,"à¦¡à¦Ĩà¦°":7447,"à¦°à¦¨à¦ĸ":7448,"à¦¬à¦°à¦°à¦¹à¦®":7449,"à§©à§©à§¦":7450,"à¦ĩà¦²à¦ıà¦¬":7451,"à¦Łà¦ķà§Ł":7452,"à§§à§«à§Ń":7453,"à¦°à¦ıà¦ķà¦ķà¦°":7454,"à§§à§¬à§«":7455,"à¦¨à¦Īà¦¦":7456,"à¦¬à¦ħà¦²":7457,"à¦¶à¦ĵà¦ķ":7458,"à¦°à¦ªà¦°à¦ªà¦°":7459,"à¦ľà¦¨à¦Ĩà¦¹à¦¤à¦¹à§Ł":7460,"à¦ªà¦¨à¦¥":7461,"à¦¯à¦¸à¦¤":7462,"à§¨à§¨à§¨à§©":7463,"à¦²à¦Ĩà¦°à¦ĵ":7464,"à¦Ĺà¦°à¦¯":7465,"à¦«à¦ĩà¦¬à¦¨":7466,"à§ľà¦¹à§Ł":7467,"à¦¦à¦¨à¦ķà¦°à¦²":7468,"à¦ĩà¦īà¦Ń":7469,"à¦·à¦ĸà¦¬à¦°à¦ķ":7470,"à¦²à¦Ĩà¦²à¦®à¦¸":7471,"à§§à§¨à§¦à§§à§¦":7472,"à¦¨à¦Ĩà¦¤à¦Ļ":7473,"à¦¤à¦ªà¦¤":7474,"à¦¸à¦°à¦¯":7475,"à¦ªà¦īà¦ªà¦¨":7476,"à¦¦à¦®à¦ķ":7477,"à§Łà¦ħà¦¶":7478,"à¦¥à¦ķà¦Ń":7479,"à¦¡à¦ĵà¦®":7480,"à¦°à¦¦à¦®":7481,"à¦¹à§Łà¦Ł":7482,"à¦°à¦ħà¦¹":7483,"à¦Łà¦¨à¦¯":7484,"à¦¸à¦¹à¦¶":7485,"à¦²à§Łà¦ªà¦°":7486,"à§§à§¨à§¨":7487,"à¦ĸà¦ķà¦²à¦ķ":7488,"à¦²à¦Ĩà¦ĩà¦¨":7489,"à¦ªà¦Ĩà¦ªà¦¨":7490,"à¦Łà¦ī":7491,"à¦ĵà¦¦à¦²":7492,"à¦°à¦ıà¦¯":7493,"à¦¹à¦²à¦Ń":7494,"à¦°à¦ĩà¦Ľ":7495,"à¦¸à¦¨à¦¥":7496,"à¦®à¦°à§Ł":7497,"à¦Ĩà¦ľà¦Ĩà¦ªà¦¨":7498,"à¦¡à¦®à¦ŀ":7499,"à¦ıà¦¸à¦®à§Łà¦¬":7500,"à¦ķà¦ļà¦²à¦ļ":7501,"à¦¦à¦¢":7502,"à¦ĵà¦¶à¦¨":7503,"à¦ĵà¦¹à¦¯":7504,"à¦°à¦¬à§ľà¦¬":7505,"à¦²à¦ķà¦¸à¦Ń":7506,"à¦ķà¦¶à¦¨à¦¬":7507,"à¦ķà¦Ĩà¦ĵà§Ł":7508,"à¦¦à¦ĵà¦¯":7509,"à¦¯à¦īà¦ļ":7510,"à¦¡à¦ħà¦¬":7511,"à¦¡à¦Ĩà¦ĵà§Ł":7512,"à¦£à¦Ĩà¦²":7513,"à¦°à¦ĩà¦¸à¦°":7514,"à¦°à¦¹à¦£à¦¬":7515,"à¦¨à¦ĩà¦¹":7516,"à¦ķà¦ĩà§Ł":7517,"à¦īà¦¨à¦®":7518,"à¦°à¦®à¦ķà¦°à¦¤":7519,"à§¨à§©à§®":7520,"à§§à§¨à§¦à§©":7521,"à¦¦à¦ħà¦°":7522,"à¦°à¦Ĩà¦²à¦¬":7523,"à¦¨à¦¨à¦Ĺ":7524,"à¦ķà¦¬à¦°à¦¥":7525,"à¦®à¦¸à¦¤":7526,"à¦ļà¦¨à¦¸à¦®":7527,"à§§à§¨à§¦à§®":7528,"à¦°à¦°à¦®à¦®":7529,"à¦¯à¦ħà¦ŀ":7530,"à§Łà¦°à¦Ĩ":7531,"à§§à§¨à§¦à§¦à§¯":7532,"à¦ªà¦¨à¦ķà¦°à¦²":7533,"à§Łà¦ķà¦°à¦Ľ":7534,"à¦¨à¦ıà¦°à¦¸":7535,"à¦ıà¦ĸà¦¨à¦ĵà¦¸":7536,"à¦°à¦¥à¦®à¦Ĺ":7537,"à¦¸à¦ĵà¦Ĳà¦¤":7538,"à¦®à¦ıà¦¸":7539,"à§Łà¦ĩ":7540,"à¦ļà¦®à¦¶":7541,"à¦ħà¦°à¦ľ":7542,"à¦¬à¦²à¦Ĺ":7543,"à¦°à¦Ĺà¦£à¦¤":7544,"à¦ĩà¦ªà¦¬":7545,"à¦¬à¦Ľà¦°à¦¶":7546,"à¦«à¦Łà¦ĵà¦¯":7547,"à¦¬à¦°à¦¸à¦¤à¦°":7548,"à§¨à§¦à§¨à§¨à§¨à§¦à§¨à§©":7549,"à¦¬à¦°à¦ĩà¦¤":7550,"à¦Łà¦ĵà¦¸":7551,"à¦Ĺà¦®à¦®":7552,"à§ľà¦ķà¦ªà¦°":7553,"à¦ľà¦¨à¦Ł":7554,"à¦°à¦ĩà¦«à¦¤":7555,"à¦·à¦£à¦ĸ":7556,"à¦īà¦²à¦Ļ":7557,"à¦Ĩà¦ĩà¦ı":7558,"à¦ĸà¦ıà¦¬":7559,"à§ľà¦ªà¦°":7560,"à¦ªà¦¨à¦ļ":7561,"à¦īà¦ªà¦ļ":7562,"à¦¸à¦¹à¦ĵà§Ł":7563,"à§Łà¦®à¦Ļ":7564,"à¦ªà¦¥à¦ª":7565,"à¦ķà¦ľà¦¨à¦®":7566,"à¦¸à¦°à¦¶":7567,"à¦¦à¦ĵà¦ķ":7568,"à¦ľà¦Ĩà¦Ľ":7569,"à¦ĵà¦ľà¦°":7570,"à¦ĵà¦ıà¦¤":7571,"à¦¬à¦¸à¦¸":7572,"à¦²à¦¨à¦°":7573,"à¦ĩà¦¬à¦¡":7574,"à¦¶à¦ķà¦¨à¦¸":7575,"à¦²à¦Ĺà¦¨":7576,"à¦ķà¦¶à¦¨à¦¸":7577,"à§§à§¯à§®à§¬":7578,"à¦°à¦°à¦¨":7579,"à¦¬à¦°à¦ıà¦¬":7580,"à¦¸à¦ĵà¦ľ":7581,"à¦®à¦ıà¦¨":7582,"à¦ĸà¦®à¦¨":7583,"à¦ıà¦ķà¦°à¦ľà¦®":7584,"à§Łà¦ķà¦¶":7585,"à¦¤à¦°à¦£à¦°":7586,"à§Łà¦°à¦Ĩà¦¤":7587,"à§®à§§à§¦":7588,"à¦ªà§ľà¦¦":7589,"à¦²à¦¹à¦ĵà¦¯":7590,"à¦·à¦ķà¦Ĺ":7591,"à¦ĩà¦¯à¦ĸà¦¨":7592,"à¦²à¦¹à¦ķà¦¬à¦²":7593,"à¦ķà¦ľà¦¬":7594,"à¦ªà¦°à¦ª":7595,"à¦ĸà¦¸à¦®":7596,"à¦«à¦¹à§Łà¦ķ":7597,"à¦°à¦¬à¦ĩà§Ł":7598,"à¦°à¦®à§Łà¦¦":7599,"à§§à§«à§¯":7600,"à¦ķà¦¬à¦°à¦¯":7601,"à¦¸à¦¢":7602,"à¦¯à¦ľà¦°":7603,"à¦Łà¦ľà¦¨":7604,"à¦¥à¦¬à¦²":7605,"à¦§à¦Ĺà¦®":7606,"à§¨à§¨à§¦à§§à§¦":7607,"à§¨à§¨à§¦à§§à§§":7608,"à¦°à¦Ĩà¦°à¦®":7609,"à¦¨à¦Ĩà¦ĩà¦¡":7610,"à¦°à¦īà¦ªà¦°à¦¥":7611,"à¦·à¦ķà¦Ľ":7612,"à¦¯à¦ķà¦°à¦¸":7613,"à¦¯à¦Ĩà¦®à¦¦":7614,"à§¨à§¦à§§à§¬à§¨à§¦à§§à§Ńà§¨à§¦à§§à§®à§¨à§¦à§§à§¯à§¨à§¦à§¨à§¦à§¨à§¦à§¨à§§à§¨à§¦à§¨à§¨à§¨à§¦à§¨à§©":7615,"à¦¤à¦ĵà¦ķ":7616,"à¦¸à¦¸à¦¬":7617,"à¦®à¦ķà¦¤":7618,"à¦²à¦°à§Ł":7619,"à¦¯à¦Ĩà¦«":7620,"à¦¹à¦°à¦Ĺ":7621,"à¦·à¦¹à§Łà¦¨":7622,"à¦¬à¦¨à¦īà§İà¦¸à¦°":7623,"à¦¬à¦¸à¦°à¦ķ":7624,"à¦¤à¦ķà¦Ĩà¦¸":7625,"à¦ĩà¦Łà¦ªà¦°":7626,"à§Łà¦¬à¦Ľà¦°":7627,"à¦ªà¦¸à¦¬":7628,"à¦ªà¦ªà¦¤":7629,"à¦·à¦°à¦¤":7630,"à¦ĵà¦¤à¦¥":7631,"à¦īà¦Łà¦¸":7632,"à§¨à§¨à§¦à§¦à§¯":7633,"à¦·à¦£à¦¯":7634,"à¦°à§Łà¦£à¦ª":7635,"à¦²à§Łà¦ķà¦°":7636,"à¦Ĩà¦ļà¦°à¦£à¦¬":7637,"à¦§à¦¨à¦ķà¦°à¦¬":7638,"à¦¶à¦ħà¦«":7639,"à¦Ĺà¦¨à¦¤":7640,"à¦°à¦ķà¦¶":7641,"à¦°à¦ķà¦Ń":7642,"à¦°à¦ĵà¦ıà¦ķà¦Ł":7643,"à¦®à¦ķà¦°à¦£":7644,"à¦¤à¦²à¦«":7645,"à§¨à§¦à§§à§¬à§¨à§¦à§§à§Ńà§¨à§¦à§§à§®à§¨à§¦à§§à§¯à§¨à§¦à§¨à§¦à§¨à§¦à§¨à§§à§¨à§¦à§¨à§¨à§¨à§¦à§¨à§©à§¨à§¦à§¨à§ª":7646,"à¦Ĺà¦ħ":7647,"à¦Ĩà¦°à¦ķà¦°":7648,"à¦ıà¦ķà¦«":7649,"à¦°à¦¹à¦ł":7650,"à¦²à¦ķà¦¸à¦®":7651,"à¦¨à¦ªà¦ķ":7652,"à¦¨à¦Ĩà¦ľà¦¬":7653,"à¦Īà¦°à¦¹":7654,"à¦Ĩà¦īà¦Łà¦¸":7655,"à¦ķà¦īà¦ªà¦¨":7656,"à¦¤à¦ıà¦ĩà¦¬":7657,"à¦¹à¦ķà¦ķ":7658,"à¦Łà¦ħà¦ª":7659,"à¦ħà¦Ľ":7660,"à¦°à¦¦à¦¶":7661,"à¦®à¦¸à¦ķ":7662,"à¦Ńà¦¬à¦¹à¦ļ":7663,"à¦ķà¦°à¦£à¦¸":7664,"à§¨à§¬à§§":7665,"à¦ķà¦ĩà¦īà¦ª":7666,"à¦®à¦īà¦¤":7667,"à¦Łà¦¨à¦¤":7668,"à¦Łà¦°à¦Ĺ":7669,"à¦ĩà¦ĵà¦®":7670,"à¦ĵà¦ĩà¦Ń":7671,"à¦ĵà¦ıà¦ķà¦ĩ":7672,"à¦ļà¦¨à¦īà¦ªà¦²à¦ķ":7673,"à¦¨à¦ıà¦¸à¦®à§Łà¦¤":7674,"à¦¨à¦Ĺà¦°à¦®":7675,"à§Łà¦ªà¦ŀ":7676,"à¦ıà¦ĸà¦¨à¦Ń":7677,"à§§à§Ńà§«":7678,"à¦ĭà¦¦":7679,"à¦ĩà¦¨à¦Ĩà¦ªà¦ķà¦°":7680,"à§¨à§¦à§§à§¬à§¨à§¦à§§à§Ńà§¨à§¦à§§à§®à§¨à§¦à§§à§¯à§¨à§¦à§¨à§¦à§¨à§¦à§¨à§§à§¨à§¦à§¨à§¨à§¨à§¦à§¨à§©à§¨à§¦à§¨à§ªà§¨à§¦à§¨à§«":7681,"à¦°à¦°à¦ª":7682,"à¦¨à¦ĸà¦¨":7683,"à¦¬à¦ıà¦ķ":7684,"à¦¤à¦Ĺà¦¬":7685,"à¦²à¦¶à¦¬":7686,"à¦¯à¦ĺà¦Łà¦¨":7687,"à§Łà¦²à¦ķà¦¡":7688,"à§Łà¦°à¦¸à¦ļ":7689,"à¦Ĺà¦ĺà¦°":7690,"à¦¥à¦¹à¦ĵà§Ł":7691,"à¦«à¦¨à¦¸à¦®":7692,"à¦ľà¦¨à¦¹à¦¤":7693,"à¦¨à¦¤à¦¸":7694,"à¦ĩà¦²à¦¯":7695,"à¦ĩà¦ķà¦ļ":7696,"à¦ĩà¦ªà¦Ľà¦¨":7697,"à¦¬à¦ķà¦°à¦°":7698,"à¦°à¦ªà¦°à¦ĵà¦¤":7699,"à¦ļà¦°à¦®à¦¬":7700,"à¦¬à¦ĵà¦¸":7701,"à¦¬à¦¤à¦¥":7702,"à¦¤à¦°à¦ŀ":7703,"à§Łà¦°à¦°à¦¹":7704,"à¦¥à¦¨à¦ª":7705,"à¦ĵà¦ıà¦®":7706,"à¦ĵà¦ľà¦¨à¦ª":7707,"à¦ĵà¦ħà¦¶":7708,"à¦ĸà¦ķà¦®":7709,"à¦°à¦īà¦¦à¦¯":7710,"à§§à§¬à§¬":7711,"à¦¨à¦ıà¦ĩà¦²":7712,"à§§à§¯à§®à§ª":7713,"à¦ķà¦ļà¦²":7714,"à¦¶à¦Ĩà¦°":7715,"à¦ĩà¦²à¦²":7716,"à¦°à¦ıà¦ķà¦ļ":7717,"à¦¸à¦ķà¦¸":7718,"à¦¦à¦¤à¦¬":7719,"à¦¦à¦¨à¦¤à¦¥":7720,"à¦¯à¦°à¦¤à¦ļ":7721,"à¦Ĩà¦°à¦¥":7722,"à¦ĺà¦¬à¦¦":7723,"à¦°à¦ħà¦¬à¦¤":7724,"à¦°à¦ıà¦ĩà¦ľ":7725,"à¦°à¦ıà¦ĩà¦¶":7726,"à¦¯à¦ķà¦¤":7727,"à¦¨à¦Ĺà¦°à¦°":7728,"à¦²à¦¹à¦°":7729,"à¦°à¦®à¦£à¦¥":7730,"à¦¨à¦ıà¦ķà¦ª":7731,"à¦ķà¦ĺà¦¨":7732,"à¦®à¦ªà§ľ":7733,"à¦®à¦Īà¦¨":7734,"à¦¯à¦ħà¦¬à¦¦":7735,"à¦¹à¦¸à¦¨":7736,"à¦Ĺà¦¤à¦ķà¦°":7737,"à¦°à¦¸à¦ľ":7738,"à¦«à¦ħà¦¬à¦¸":7739,"à¦¤à¦®à¦Ļ":7740,"à¦ĩà¦¡à¦ķ":7741,"à¦Ĩà¦°à¦ķà¦ĸà¦¨":7742,"à¦¹à¦¨à¦¦":7743,"à¦¬à¦¸à¦Ľ":7744,"à§Łà¦¤à¦¤":7745,"à¦¤à¦ªà¦¥":7746,"à¦Ĩà¦¦à¦®à¦Ĩ":7747,"à¦¨à§Łà¦¨à¦®":7748,"à¦ªà¦¬à§Łà¦¸":7749,"à¦¨à¦ĩà¦¦":7750,"à¦¦à¦¬à¦°":7751,"à¦¹à¦ĵà¦®":7752,"à¦¹à¦Ĺà¦£à¦¨":7753,"à¦Ĺà¦¨à¦¶":7754,"à¦ļà¦ıà¦¬":7755,"à¦¬à¦²à¦ĸ":7756,"à§¨à§¦à§«":7757,"à¦ĩà¦¸à¦Ń":7758,"à¦¨à¦¨à¦Ĺà¦°":7759,"à¦¨à¦Ĺà¦°à¦ķ":7760,"à¦¯à¦¸à¦°à¦¬à¦°":7761,"à¦ªà¦ķà¦ļ":7762,"à¦ªà¦ķà¦°à¦Ľ":7763,"à§§à§©à§Ń":7764,"à¦¤à¦¸à¦ķ":7765,"à¦¤à¦ħà¦ķ":7766,"à¦¹à¦ªà§ľ":7767,"à§Łà¦¨à¦ľ":7768,"à¦²à¦¨à¦¥":7769,"à¦¤à¦°à¦¡":7770,"à¦¸à¦ľà¦®":7771,"à¦·à¦ĵà¦¨":7772,"à¦¥à¦Ĩà¦¤":7773,"à¦ĵà¦¨à¦¬":7774,"à¦£à¦¤à¦¥":7775,"à¦°à¦ħà¦Ľ":7776,"à¦¨à¦ķà¦¤":7777,"à¦°à¦¥à¦®à¦²":7778,"à¦¤à¦®à¦¬à¦°":7779,"à¦ħà¦«à¦ĩà¦¨":7780,"à¦¹à¦¸à¦¸":7781,"à¦ħà¦ªà¦ķà¦°":7782,"à¦¨à¦°à¦ļà¦¨":7783,"à¦¬à¦ļà¦¤":7784,"à¦¹à¦¨à¦ķà¦°":7785,"à¦ıà¦°à¦Ł":7786,"à¦°à¦¤à¦ĵà¦¬":7787,"à¦°à¦²à¦°":7788,"à¦¯à¦®à¦ķà¦°":7789,"à§¨à§¦à§¨à§§à§§à§¯":7790,"à¦Ĩà¦°à¦ĵà¦¨":7791,"à¦«à¦²à¦¶":7792,"à¦°à¦ªà¦¥à¦ļà¦²":7793,"à¦Łà¦¬à¦²à¦«":7794,"à¦¸à¦«à¦²à¦Ń":7795,"à¦¦à¦¬à¦ª":7796,"à¦¦à¦ľà¦¨à¦ª":7797,"à¦¯à¦Ĩà¦ľ":7798,"à¦·à¦ıà¦ķ":7799,"à¦§à¦¸à¦®à§Ł":7800,"à¦¹à§Łà¦¡":7801,"à¦®à¦¤à¦¹":7802,"à¦¤à¦Ńà¦Ł":7803,"à¦ķà¦Ĺà§ľ":7804,"à¦®à¦°à¦£à¦¸à¦Ń":7805,"à§¨à§¦à§§à§¬à§¨à§¦à§§à§Ńà§¨à§¦à§§à§®à§¨à§¦à§§à§¯à§¨à§¦à§¨à§¦à§¨à§¦à§¨à§§à§¨à§¦à§¨à§¨à§¨à§¦à§¨à§©à§¨à§¦à§¨à§ªà§¨à§¦à§¨à§«à§¨à§¦à§¨à§¬":7806,"à¦ķà¦ĩà¦¬":7807,"à¦®à¦Ĩà¦¤":7808,"à¦²à¦¸à¦®à¦¸":7809,"à¦¯à¦ĩà¦°":7810,"à§Łà¦¦à¦¨":7811,"à¦ľà¦ıà¦ķà¦Ł":7812,"à¦¶à¦Ŀ":7813,"à¦ĩà§ľ":7814,"à¦ļà¦¶à¦®":7815,"à¦ĵà¦ĩà¦ļ":7816,"à¦¨à¦¤à¦¹":7817,"à¦ĩà¦²à¦Ń":7818,"à¦¶à¦ķà¦Ĩà¦¬":7819,"à¦¨à¦Ĺà¦¦à¦Ł":7820,"à§Łà¦¦à¦°à¦¹":7821,"à¦²à¦Ĩà¦¹":7822,"à¦°à¦īà¦ªà¦°à¦°":7823,"à¦¸à¦ķà¦¨":7824,"à¦Ĺà¦®à¦¹":7825,"à¦Ĺà¦®à¦¬":7826,"à¦·à¦§à¦°":7827,"à¦·à¦¸à¦¹":7828,"à¦°à¦ķà¦¡":7829,"à¦łà¦Ĺ":7830,"à¦¦à¦ķà¦°à¦Ľ":7831,"à¦²à¦ªà¦²":7832,"à¦°à¦ıà¦ķà¦ľà¦¨à¦ª":7833,"à§§à§©à§«":7834,"à§Ńà§¨à§§à§Ńà§Ń":7835,"à¦®à¦ħà¦§":7836,"à¦®à¦łà¦¬":7837,"à§Łà¦Ĺà¦°":7838,"à¦Ĺà¦¨à¦ª":7839,"à¦ĩà¦ıà¦ķà¦ľà¦¨":7840,"à¦ħà¦°à¦¬":7841,"à¦¸à¦®à¦§":7842,"à¦ľà¦¨à¦ªà¦¦":7843,"à¦ľà¦¨à¦Ĺà¦¨":7844,"à¦¹à§Łà¦ķà¦°":7845,"à¦ıà¦ĩà¦īà¦¦":7846,"à§İà¦Ĩà¦®":7847,"à¦ĩà¦¬à¦¨à¦¯":7848,"à¦ıà¦¡à¦®à¦¨":7849,"à¦¤à¦Ĩà¦°à¦ĵà¦ªà§ľ":7850,"à¦ľà¦¡à¦²":7851,"à¦ĩà¦Ĩà¦Ĺà¦¸":7852,"à¦§à¦ĵà¦¸":7853,"à§§à§¨à§¦à§§à§Ń":7854,"à¦łà¦Ł":7855,"à¦°à¦£à¦¥":7856,"à¦Ĳà¦¨":7857,"à§¨à§«à§¦à§¬à§¨à§¦à§§à§¯à§¨à§Ń":7858,"à¦ķà¦°à¦£à¦ķ":7859,"à¦²à¦Łà¦¨à¦¬":7860,"à¦¹à¦¯à¦°à¦¤à¦¶":7861,"à¦¤à§Ł":7862,"à§Łà¦ĵà¦ª":7863,"à¦¶à¦ĵà§Ł":7864,"à¦Ľà¦Ńà¦°":7865,"à¦ĵà¦°à¦¯":7866,"à¦¡à¦ıà¦²":7867,"à¦°à¦Ĩà¦¨à¦¥":7868,"à¦¨à¦¬à¦°à¦Ĺ":7869,"à¦°à¦ĵà¦®à¦°":7870,"à¦¸à¦¬à¦ıà¦²":7871,"à¦Łà¦ķà¦ļ":7872,"à¦¶à¦¹à¦°à¦Ĺ":7873,"à¦²à¦ħà¦¶":7874,"à¦ªà¦Ĩà¦Ľ":7875,"à¦¦à¦¶à¦¬":7876,"à¦¦à¦ĩà¦īà¦¨":7877,"à¦¦à¦Ĩà¦²à¦®":7878,"à¦¯à¦īà¦ªà¦ķ":7879,"à¦ľà¦Ĩà¦¬":7880,"à¦·à¦Ĩà¦ªà¦¨":7881,"à¦·à¦¦à¦ķ":7882,"à¦Ńà¦«":7883,"à¦īà¦°à¦ĵà¦¯":7884,"à¦Ĩà¦²à¦®à¦¡":7885,"à§«à§§à§¦":7886,"à¦¨à¦ıà¦ķà¦¥":7887,"à¦Ĩà¦ĩà¦¡à¦¬":7888,"à¦ķà¦¦à¦ķ":7889,"à¦¤à¦īà¦ªà¦ķ":7890,"à¦®à¦ıà¦°à¦ª":7891,"à¦Łà¦¬à¦ķ":7892,"à¦ħà¦®à¦¸":7893,"à¦¬à¦²à¦¡":7894,"à¦°à¦¨à¦Ĺà¦¦":7895,"à¦°à¦Ĩà¦°à¦ª":7896,"à¦°à¦ıà¦ķà¦¥":7897,"à¦¤à¦¬à¦ľ":7898,"à¦¦à¦¨à¦¹":7899,"à¦Łà¦ķà¦¶":7900,"à¦¬à¦¹à¦£":7901,"à§§à§«à§ª":7902,"à§¨à§¦à§¨à§§à§¬":7903,"à¦ķà¦ħà¦Ĺ":7904,"à¦ªà¦ķà¦¦":7905,"à¦¦à¦°à¦ıà¦ķà¦Ł":7906,"à§Łà¦ħà¦ķ":7907,"à¦¹à¦°à¦Ĺà¦ŀ":7908,"à¦·à¦£à¦°":7909,"à¦°à¦Ĩà¦¸à¦Ľ":7910,"à¦¨à¦ħà¦°à¦°à¦¶":7911,"à¦Ĺà¦¨à¦®":7912,"à¦ĩà¦īà¦ł":7913,"à¦ĺà¦°à¦ķ":7914,"à¦ĩà¦²à¦¥":7915,"à¦¬à¦ķà¦¯":7916,"à¦·à¦¦à¦ĩà¦īà¦ª":7917,"à¦ıà¦¤à¦Ĺ":7918,"à¦¤à¦°à¦£à¦«":7919,"à¦·à¦ĸà¦¬à¦°à¦ĵà¦®":7920,"à§§à§¯à§Ńà§ª":7921,"à§§à§¯à§®à§¯":7922,"à¦¸à¦ªà¦¨":7923,"à¦®à¦ıà¦°à¦ķ":7924,"à¦Łà¦ľà¦¨à¦ª":7925,"à¦¶à¦ĩà¦¤":7926,"à¦ĺà¦°à¦¸":7927,"à¦²à¦ķà¦¯":7928,"à¦°à¦ıà¦ĩà¦¤":7929,"à¦ĩà¦¨à§Ł":7930,"à¦¸à¦¬à¦ķà¦¥":7931,"à¦¨à¦ľà¦²":7932,"à¦¨à¦Ńà¦°":7933,"à¦Ĩà¦Ĺà¦°à¦¤à¦²":7934,"à§§à§«à§¨à§¦":7935,"à§§à§ªà§®":7936,"à¦·à¦®à¦¹à¦¯":7937,"à§©à§¬à§«":7938,"à¦¬à¦°à¦¸à¦®":7939,"à¦Łà¦¸à¦ª":7940,"à¦°à¦¤à¦®à¦¹":7941,"à¦ĩà¦¸à¦¸":7942,"à¦¦à¦ķà¦Ĺ":7943,"à¦¨à¦Ĺà¦°à¦īà¦¤":7944,"à¦¨à¦ĵà¦ħà¦¨":7945,"à¦Ĩà¦Łà¦ķà¦ª":7946,"à¦²à¦ıà¦ĸ":7947,"à¦ľà¦ĵà¦¬":7948,"à¦ľà¦ĩà¦¸à¦²":7949,"à¦°à¦ľà¦Ĺà¦¨":7950,"à¦¤à¦ķà¦¸à¦®":7951,"à¦¬à¦ķà¦ł":7952,"à¦¤à¦ĸà¦¨à¦¨":7953,"à¦°à¦ĩà¦¬à¦¨à¦¸":7954,"à¦ķà¦ĵà¦ħà¦°":7955,"à¦°à¦®à¦¤à¦²à¦¬à¦¦à¦ķ":7956,"à¦¬à¦Ĺà¦²":7957,"à§Łà¦°à¦¸à¦¹à¦¸à¦Ń":7958,"à§Łà¦ķà¦¸à¦°à¦ķ":7959,"à¦ľà¦ĩà¦¤":7960,"à¦ĩà¦ķà¦°à¦²":7961,"à¦ĩà¦ĵà¦ķ":7962,"à¦ıà¦ı":7963,"à¦¥à¦ļà¦Ł":7964,"à¦¥à¦¦à¦¤":7965,"à¦ĵà¦ªà§ľ":7966,"à¦°à¦«à¦ľà¦²":7967,"à¦Ĩà¦ĩà¦ĩà¦¡":7968,"à¦Ĩà¦īà¦Łà¦ª":7969,"à¦¯à¦īà¦¦à¦ĺ":7970,"à¦¸à¦²à¦ķ":7971,"à¦Ĺà¦®à¦ª":7972,"à¦°à¦¸à¦°à¦¦":7973,"à¦ıà¦ķà¦¡":7974,"à¦°à¦£à¦ķà¦°à¦Ľ":7975,"à¦¨à¦¤à¦°à¦ª":7976,"à¦¬à¦°à§Ł":7977,"à¦°à¦ıà¦°à¦ķ":7978,"à§©à§«à§¦":7979,"à¦¤à¦¨à¦¸à¦®":7980,"à¦ĩà¦²à¦ĵà§Ł":7981,"à¦¨à¦Ńà¦¬à¦ĺ":7982,"à¦¨à¦Ĺà¦°à¦¨":7983,"à¦¬à¦Ľà¦°à¦¨":7984,"à¦ĵà¦®à¦°à¦«":7985,"à¦Łà¦¬à¦Ĺ":7986,"à§§à§ªà§¯":7987,"à§¨à§®à§¦":7988,"à¦¨à¦Ĺà¦¦à¦ħà¦°":7989,"à¦²à¦ķà¦ªà¦²à¦ķà¦ªà¦²à¦ķà¦ªà¦²à¦ķà¦ªà¦²à¦ķà¦ªà¦²à¦ķà¦ªà¦²à¦ķà¦ªà¦²à¦ķà¦ª":7990,"à¦ķà¦°à¦Ń":7991,"à§Łà¦¤à¦®":7992,"à§Łà¦Ĩà¦°à¦ĵà¦ªà§ľ":7993,"à¦Ĺà¦¨à¦¬":7994,"à¦ıà¦ħà¦ŀ":7995,"à¦ĸà¦ķà¦°à¦¤":7996,"à¦ħà¦¯à¦¥":7997,"à¦°à¦Ńà¦°à¦¸":7998,"à¦¤à¦¨à¦ıà¦¬":7999,"à¦¦à¦¨à¦ªà¦°":8000,"à¦¸à¦¹à¦°":8001,"à¦ªà¦¥à¦Ń":8002,"à¦¤à¦°à¦£à¦®":8003,"à¦¨à¦ĩà¦ļ":8004,"à¦Ĺà¦ħà¦¸":8005,"à¦Ĩà¦ĩà¦¸à¦²":8006,"à¦§à¦ħà¦®":8007,"à¦ĵà¦ıà¦¦":8008,"à¦ıà¦ķà¦ĺ":8009,"à§Łà¦ªà¦£":8010,"à¦¨à¦²à¦¨":8011,"à¦¨à¦Ĳà¦¤":8012,"à¦¸à¦ĵà¦ķ":8013,"à¦¸à¦Ĭ":8014,"à¦ľà¦°à¦¤":8015,"à¦ľà¦ĵà¦°":8016,"à¦ĩà¦ĵà¦°":8017,"à¦£à¦®à¦¤":8018,"à¦ĩà¦¬à¦Ļ":8019,"à¦¨à¦Ĩà¦ªà¦¡":8020,"à¦¨à¦ıà¦¡":8021,"à¦¤à¦¹à§Łà¦ıà¦¬":8022,"à¦²à¦Ĺà¦Ļ":8023,"à¦ıà¦ĸà¦¨à¦ĵà¦ª":8024,"à¦¸à¦¦à¦®":8025,"à¦Ĺà¦łà¦¨à¦®":8026,"à¦¨à¦ıà¦ķà¦ķ":8027,"à¦Łà¦Ĩà¦Ĺà¦¸":8028,"à¦ĵà¦Ĩ":8029,"à¦īà¦Łà¦ķà¦°":8030,"à¦°à¦®à¦¨à¦¸":8031,"à¦£à¦¤à¦°":8032,"à¦ľà¦¨à¦ıà¦°à¦®à¦§":8033,"à¦°à¦¦à¦£":8034,"à¦ĩà¦¸à¦Ł":8035,"à¦ĩà¦¸à¦ķà¦²":8036,"à¦¨à¦®à¦¸":8037,"à¦°à¦Ľà§Łà¦Ł":8038,"à¦ĵà¦¬à¦Ļ":8039,"à¦¬à¦ķà¦¹":8040,"à¦ľà¦¸à¦¦à¦°à¦®":8041,"à¦¤à¦°à¦ħà¦¸":8042,"à¦ªà¦ħà¦°":8043,"à¦ļà¦ŀ":8044,"à¦ĵà¦ıà¦ĸ":8045,"à¦ĸà¦¤à¦®":8046,"à§¨à§¨à§§":8047,"à¦ĩà¦®à¦®":8048,"à¦®à¦ĩà§Ł":8049,"à¦¦à¦Ĩà¦¦":8050,"à¦ľà¦Ĩà¦¨":8051,"à¦¶à¦ĵà¦Ń":8052,"à¦ªà¦¨à¦¯":8053,"à¦·à¦£à¦ķà¦°à¦Ľ":8054,"à¦¨à¦Ĩà¦ĵà¦¯":8055,"à¦®à¦ªà¦ŀ":8056,"à¦¬à§ľà¦§à¦°à¦¨":8057,"à¦°à¦¸à¦¹à¦ķà¦°":8058,"à§§à§¯à§®à§®":8059,"à¦ļà¦ĩà¦ŀ":8060,"à¦·à¦¸à¦°à¦ķ":8061,"à¦¥à¦¹à¦¤":8062,"à¦¨à¦¤à¦²":8063,"à¦¨à¦ıà¦«":8064,"à¦¶à¦ķà¦²à¦ķ":8065,"à¦¬à¦ķà¦¥":8066,"à¦Ĺà¦¤à¦¥":8067,"à¦¤à¦ªà¦Ľà¦¨":8068,"à¦²à¦¹à¦ķà¦ª":8069,"à¦ıà¦®à¦ıà¦ĩà¦ļ":8070,"à§§à§ªà§«":8071,"à¦°à¦ĵà¦ªà¦°à¦®":8072,"à¦ĩà¦īà¦ªà¦ķ":8073,"à§®à§§à§®à§¯à§¯":8074,"à¦¬à¦ī":8075,"à§Łà¦Ĺà¦£à¦®":8076,"à¦¨à¦¨à¦ľà¦°":8077,"à¦¦à¦ķà¦ªà¦¦":8078,"à¦¦à¦¨à¦ľà¦®":8079,"à¦¸à¦¹à¦¨à¦¶":8080,"à¦¨à¦Ĩà¦°à¦®":8081,"à§Łà¦ķà¦°à¦£":8082,"à§§à§¯à§«à§¦":8083,"à¦°à¦ıà¦ķà¦ľà¦¨à¦¬":8084,"à¦Ĩà¦°à¦ıà¦®à¦ª":8085,"à§®à§®à§¦à§¨à§®":8086,"à¦ħà¦¥à¦ļà¦¸":8087,"à¦¬à¦ĩà¦ĸ":8088,"à¦ªà¦Ĩà¦ĩà¦ª":8089,"à¦ľà¦¨à¦¸à¦¨":8090,"à¦¤à¦¨à¦¹":8091,"à¦ļà¦²à¦Ĺ":8092,"à¦¨à¦ıà¦°à¦ķ":8093,"à§§à§¯à§ªà§®":8094,"à¦Ĺà¦¤à¦Ĺ":8095,"à§§à§¨à§¬":8096,"à§§à§®à§«":8097,"à§§à§ªà§©":8098,"à¦¡à¦¸à¦«à¦°":8099,"à¦ıà¦ķà¦ĩà¦¸à¦®à¦¯":8100,"à¦¨à¦°à¦Ļ":8101,"à¦ªà¦īà¦¤":8102,"à¦¯à¦²à¦ķ":8103,"à§Łà¦ıà¦ķà¦®":8104,"à¦ĩà¦Ĺà¦°":8105,"à¦Ľà¦²à¦¤":8106,"à¦Ńà¦¥":8107,"à¦°à¦¸à¦¨à¦¬":8108,"à¦¹à§Łà¦¸à¦®":8109,"à¦¦à¦¨à¦¸à¦®":8110,"à¦°à¦¸à¦®à§Łà¦°":8111,"à¦¸à¦ķà¦²à¦¨":8112,"à§§à§¯à§Ńà§¯":8113,"à¦¬à¦ĵà¦ľ":8114,"à¦¹à¦¨à¦°":8115,"à¦ıà¦§":8116,"à¦§à¦¨à¦ļ":8117,"à¦°à¦®à¦ļà¦²à¦®":8118,"à¦®à¦¨à¦·":8119,"à¦¨à¦ľà¦²à¦¬":8120,"à¦¬à¦¹à¦¨à¦ļ":8121,"à¦Ńà¦¬à¦¨à¦¨":8122,"à§§à§¯à§Ńà§¬":8123,"à¦®à¦°à¦¸":8124,"à¦¯à¦Ĩà¦¶":8125,"à¦¶à¦°à¦¬":8126,"à¦¯à¦¬à¦ľ":8127,"à¦¤à¦ķà¦¸":8128,"à¦²à¦¹à¦ķà¦¨":8129,"à¦ıà¦ķà¦ľà¦¨à¦ķà¦°":8130,"à§¨à§Ńà§Ń":8131,"à¦¤à¦¤à¦°":8132,"à¦¤à¦ĩà¦īà¦ª":8133,"à¦¯à¦¸à¦ª":8134,"à¦ļà§Łà¦¨":8135,"à¦·à¦°à¦ķ":8136,"à¦¨à¦ķà¦ł":8137,"à¦¨à¦ªà¦¡":8138,"à¦¤à¦¨à¦Ł":8139,"à¦ĩà¦Ńà¦ª":8140,"à¦°à¦¹à¦£à¦ķà¦°à¦Ľ":8141,"à¦Ĩà¦®à¦¨à¦§":8142,"à¦ľà¦¬à¦Ľà§ľ":8143,"à¦¬à¦ļà¦°":8144,"à¦¦à¦¤à¦ķà¦°":8145,"à¦¯à¦ŀ":8146,"à¦¯à¦ļà¦²à¦ļ":8147,"à¦ľà¦°à¦¸":8148,"à¦ĩà¦ľà¦¨à¦ķ":8149,"à¦Ľà¦¨à¦¦":8150,"à¦°à¦£à¦Ĩà¦®à¦°":8151,"à¦²à¦ķà¦Ľ":8152,"à¦ķà¦¬à¦ľ":8153,"à¦ıà¦¸à¦ĩà¦¤":8154,"à§Łà¦¸à¦ķà¦²":8155,"à§§à§¯à§¬à§¦":8156,"à¦¨à¦¹à¦°":8157,"à¦Īà¦²":8158,"à§§à§©à§¨":8159,"à¦°à¦Ķà¦·":8160,"à¦¨à¦īà¦ľ":8161,"à¦¸à¦Ĺà¦¬":8162,"à§¨à§¦à§¨à§§à§¦à§®":8163,"à¦°à¦®à¦¤à¦¤":8164,"à¦¶à¦¸à¦«":8165,"à¦¨à§Łà¦ıà¦Ł":8166,"à¦Ĩà¦«à¦ľ":8167,"à¦¯à¦ĸà¦¨à¦Ĩà¦®à¦°":8168,"à¦°à¦¬à¦Ľà¦°à¦Ĩà¦Ĺ":8169,"à¦ķà¦Ĩà¦īà¦Ł":8170,"à¦¨à¦Ĳà¦ķ":8171,"à¦ªà¦¸à¦°":8172,"à¦Łà¦°à¦«":8173,"à¦ľà¦®à¦¬":8174,"à¦ıà¦īà¦ªà¦²à¦ķ":8175,"à¦ıà¦ıà¦¸à¦ª":8176,"à¦Ńà¦¨à¦¦":8177,"à¦ħà¦¬à¦¬":8178,"à§¦à§¨à§¦":8179,"à¦¹à§Łà¦ıà¦ķ":8180,"à¦°à¦¶à¦°à¦£":8181,"à¦ıà¦ĩà¦Ĩà¦ĩà¦¨":8182,"à¦ĩà¦²à¦¸à¦¦":8183,"à¦ĩà¦®à¦²":8184,"à¦¶à¦ķà¦ķà¦®":8185,"à¦°à¦īà¦ªà¦ª":8186,"à¦°à¦īà¦ªà¦°à¦ľ":8187,"à¦°à¦īà¦ªà¦°à¦Ľ":8188,"à¦ķà¦ıà¦¨":8189,"à¦¤à¦ĵà¦Ń":8190,"à¦¹à¦¬à¦²à¦¤":8191,"à¦ľà¦ĩà¦¬à¦¨":8192,"à¦ĩà¦ıà¦°à¦¸":8193,"à¦ĩà¦Ĩà¦°à¦¸":8194,"à¦ıà¦ıà¦«à¦ª":8195,"à¦°à¦£à¦ķà¦°à¦²":8196,"à¦ŀà¦ļ":8197,"à¦®à¦ªà¦¦":8198,"à¦īà¦ľà¦¦à¦°":8199,"à¦Łà¦¬à¦²à¦ħà¦¨":8200,"à¦¨à¦ľà¦¨à¦¨":8201,"à¦Ķà¦·à¦§à¦ĸ":8202,"à¦¸à¦¬à¦ĸà¦¬à¦°à¦ľà¦¨à¦ª":8203,"à¦®à¦ªà¦¤":8204,"à¦ĵà¦ľà¦®":8205,"à¦ĵà¦Ĩà¦ĩà¦¸":8206,"à¦ĸà¦ĺà¦°":8207,"à¦¬à¦²à¦«":8208,"à§©à§Ńà§¦":8209,"à¦ıà¦ĩà¦ĺ":8210,"à¦ķà¦¬à¦ķ":8211,"à¦·à¦£à¦§à¦°":8212,"à¦¨à¦ĵà¦¡":8213,"à§§à§©à§¯":8214,"à¦¹à¦¨à¦ļà¦²":8215,"à¦¤à¦ĸà¦¨à¦¥":8216,"à¦²à¦¨à¦ķà¦ķ":8217,"à¦ķà¦Ĩà¦¤à¦ªà§ľ":8218,"à¦¤à¦ħà¦«":8219,"à¦²à¦¹à§Łà¦ķ":8220,"à¦¦à¦ļà¦Ł":8221,"à¦¯à¦Ĺà¦°":8222,"à§Łà¦ĩà¦®":8223,"à¦Łà¦°à¦¶":8224,"à¦Łà¦ıà¦Ł":8225,"à¦ĩà¦ıà¦ĩà¦ķ":8226,"à¦ıà¦¸à¦®à¦¸":8227,"à¦¬à¦²à¦ļ":8228,"à¦¹à§Łà¦Ĩà¦ªà¦¨":8229,"à¦¨à¦¬à¦¯":8230,"à§Łà¦¨à¦Ľ":8231,"à¦ıà¦ķà¦ľà¦¨à¦°":8232,"à¦ķà¦°à¦ľ":8233,"à¦¤à¦ĵà¦¦":8234,"à¦¤à¦Ĳà¦¤":8235,"à¦®à¦ħà¦¤":8236,"à¦¯à¦īà¦²":8237,"à¦¹à¦Ĩà¦ªà¦¨":8238,"à¦£à¦¹à¦ĵà§Ł":8239,"à¦łà¦ķà¦¬":8240,"à¦¸à¦¬à¦§à¦°":8241,"à¦ķà¦¸à¦ľ":8242,"à¦®à¦¹à¦°":8243,"à¦¸à¦¨à¦ļ":8244,"à¦¤à¦¸à¦®à§Łà¦ª":8245,"à¦¬à¦ķà¦°à¦¸":8246,"à¦°à¦·à¦·":8247,"à¦ķà¦īà¦ļ":8248,"à¦¸à¦Ľà¦¬":8249,"à¦ªà¦īà¦¨":8250,"à¦°à¦¸à¦«à¦²":8251,"à¦Ĩà¦®à¦°à¦°":8252,"à¦ľà¦¨à¦¶à¦¨":8253,"à¦¹à§Łà¦Ĩà¦¬":8254,"à¦¨à¦ªà¦¦à¦ķ":8255,"à¦¨à¦¦à¦°à¦ķ":8256,"à¦¬à¦Ĩà¦¨":8257,"à¦¤à¦Ńà¦°":8258,"à¦®à¦Ĩà¦¶":8259,"à¦²à¦ĵà¦Ĺ":8260,"à¦ªà¦¹à¦¬":8261,"à¦ıà¦°à¦Ľ":8262,"à¦ĸà¦Ĩà¦®":8263,"à¦£à¦ıà¦²":8264,"à§¦à§«à§¦":8265,"à¦°à¦ıà¦°à¦®":8266,"à¦°à¦¸à¦®à¦ķ":8267,"à§Łà¦ķà¦¦":8268,"à§§à§ªà§§":8269,"à¦°à¦¸à¦¬à¦§à¦°à¦¨":8270,"à¦°à¦Ĩà¦Łà¦ķà¦ķà¦°":8271,"à¦¨à¦īà¦ªà¦¨":8272,"à¦®à¦ķà¦°à¦²":8273,"à¦ªà¦¸à¦®à¦¯":8274,"à¦ħà¦®à¦²":8275,"à§¨à§¨à§ª":8276,"à¦°à¦Ĩà¦¬à¦¶":8277,"à§§à§¯à§«à§¨":8278,"à¦·à§Łà¦¹à¦²":8279,"à¦·à¦ķà¦ľ":8280,"à¦ķà¦¶à¦¨à¦ª":8281,"à¦¬à¦ħà¦¸":8282,"à§Łà¦ĵà¦¦":8283,"à¦¶à¦ĩà¦®":8284,"à¦ļà¦Ĩà¦¨":8285,"à¦«à§Ł":8286,"à¦£à¦ķà¦®":8287,"à¦®à¦¨à¦«":8288,"à¦°à¦£à¦ĺà¦Ł":8289,"à¦¸à¦¹à¦ľà¦Ń":8290,"à¦°à¦ĵà¦ªà¦°à¦¤":8291,"à¦¬à¦īà¦¤":8292,"à¦¬à¦°à¦Ĩà¦¦":8293,"à¦¤à¦¤à¦ª":8294,"à¦¦à¦ĵà¦¦":8295,"à¦¦à¦ħà¦¨à¦²":8296,"à¦ĩà¦ıà¦¸à¦¬":8297,"à¦¼à¦¿à¦Ĥ":8298,"à¦°à¦īà¦ªà¦²à¦¬":8299,"à¦°à¦¸à¦¬à¦Ł":8300,"à§§à§¯à§®à§Ń":8301,"à¦¯à¦ıà¦ĸà¦¨":8302,"à¦¯à¦ħà¦ªà¦¸":8303,"à¦Łà¦Ĩà¦¸":8304,"à¦Ĺà¦¨à¦ķ":8305,"à¦¥à¦ķà¦ķ":8306,"à¦ĵà¦ļà¦Ł":8307,"à¦°à¦®à¦¥":8308,"à§ľà¦ļ":8309,"à¦łà¦ľ":8310,"à¦°à¦ĵà¦®à¦¨":8311,"à¦¦à¦ķà¦Ľ":8312,"à¦·à¦£à¦¥":8313,"à¦ªà¦¦à¦¯":8314,"à¦²à¦¯à¦ĸà¦¨":8315,"à¦°à¦īà§İà¦¸à¦®":8316,"à§Łà¦¶à¦¤":8317,"à¦¹à¦¹à§Ł":8318,"à¦ĩà¦°à¦¯":8319,"à¦ĸà¦ķà¦¨":8320,"à¦¹à¦²à¦ľ":8321,"à¦¬à¦ªà¦¡":8322,"à¦īà¦ľà¦Ĺ":8323,"à¦ĩà¦Ńà¦¸à¦°":8324,"à¦Ĩà¦ĩà¦¨à¦¤":8325,"à§¨à§Ńà§©":8326,"à¦¹à¦¸à¦°":8327,"à¦ļà¦ķà¦ķ":8328,"à¦·à¦¬à¦¨":8329,"à¦§à¦¬à¦²":8330,"à¦īà¦²à¦¬":8331,"à¦ĺà¦¸à¦®à§Ł":8332,"à¦¨à¦Ĩà¦Ĺà¦¸":8333,"à¦¯à¦®à¦¡":8334,"à¦²à¦¹à¦ķà¦ľ":8335,"à¦¬à¦¦à¦²à¦¨":8336,"à¦°à¦ıà¦ķà¦ľà¦¨à¦¸":8337,"à§¨à§¬à§©":8338,"à§Łà¦ĸà¦Ĩà¦¬":8339,"à¦®à¦ĸà¦¨":8340,"à¦¯à¦ĵà¦¤":8341,"à¦¯à¦ĩà¦Ĩà¦ªà¦¨":8342,"à¦Ĺà¦°à¦¸":8343,"à¦ĩà¦°à¦ķà¦®":8344,"à¦ıà¦ķà¦ĺà¦£":8345,"à¦°à¦ľà§Łà¦¨":8346,"à¦°à¦£à¦Ĩà¦ĩà¦¨":8347,"à§§à§®à§¯":8348,"à¦ĵà¦ĩà¦ĺà¦Łà¦¨":8349,"à¦īà¦Ńà§Łà¦¦":8350,"à¦¤à¦ıà¦ĸ":8351,"à¦¤à¦°à¦®à¦¤à¦²à¦¬à¦¦à¦ķ":8352,"à¦¦à¦²à¦®":8353,"à¦¯à¦ĵà¦¦":8354,"à¦Łà¦ĵà¦ķ":8355,"à¦ĩà¦¨à¦ªà¦°":8356,"à¦ĩà¦®à¦¡":8357,"à§Łà¦ķà¦ª":8358,"à¦ĩà¦ªà¦¦":8359,"à¦ªà¦¦à¦¶":8360,"à¦Ĩà¦°à¦ĵà¦ıà¦ķà¦¬":8361,"à¦¨à¦ĵà¦ĩà¦ķ":8362,"à¦ľà¦®à¦§":8363,"à§§à§«à§§":8364,"à§§à§Ńà§©":8365,"à¦¶à¦¹à¦°à¦¥":8366,"à§İà¦¸à¦ķà¦ķ":8367,"à§§à§¯à§®à§§":8368,"à¦ħà¦ªà¦¹à¦°à¦£à¦ķà¦°":8369,"à§Ńà§¨à§§à§Ńà§Ńà§©à§«à§¯":8370,"à¦¸à¦ķà¦ª":8371,"à¦¦à¦ĩà¦¸à¦²":8372,"à¦¯à¦Ĺà¦¬":8373,"à¦¹à¦¡":8374,"à¦ľà¦®à¦ķ":8375,"à¦°à¦Ĺà¦¦":8376,"à¦¹à¦²à¦Ĩà¦®":8377,"à¦¦à¦¨à¦¬à¦²":8378,"à§§à§¯à§ªà§¬":8379,"à¦²à¦ªà¦°à¦¬à¦°":8380,"à¦ªà¦¦à¦ķà¦°":8381,"à¦¸à¦¦à¦°à¦¸":8382,"à¦®à¦¶à¦²":8383,"à¦«à¦«à¦°à¦¹":8384,"à¦¦à¦²à¦¬à¦¦":8385,"à¦ķà¦ªà§ľ":8386,"à¦ķà¦Ĺà¦°":8387,"à¦²à¦ļà¦°":8388,"à¦ªà¦¸à¦ķ":8389,"à¦ıà¦°à¦ħà¦Ń":8390,"à¦·à¦ķà¦°à¦¬":8391,"à¦°à¦ķà¦Ĺ":8392,"à§©à§¬à§¦":8393,"à¦·à¦£à¦¹":8394,"à¦·à¦£à¦ħà¦¨":8395,"à¦°à¦ĸà¦£":8396,"à§Łà¦¤à¦¦à¦¨":8397,"à§§à§ªà§¦à§¦":8398,"à¦¨à§Łà¦¤à¦¬":8399,"à¦ªà¦¬à¦¯":8400,"à¦¤à¦°à¦£à¦ļ":8401,"à¦ıà¦°à¦ķà¦®à¦ıà¦ķà¦Ł":8402,"à¦®à¦®à¦°":8403,"à¦¯à¦ĩà¦ľ":8404,"à¦īà¦Ĩà¦¬":8405,"à¦ıà¦ĩà¦ıà¦²":8406,"à¦¶à¦¨à¦Ĺà¦łà¦¨":8407,"à¦ªà¦¦à¦ļ":8408,"à§İà¦¸à¦ķà¦¤":8409,"à¦°à¦ĸà¦¬à¦°à¦¶":8410,"à¦Łà¦«à¦Ł":8411,"à¦ķà¦ľà¦¨à¦Ĺ":8412,"à¦°à¦Ĩà¦ĩà¦¨à¦¶":8413,"à¦¨à¦ľà¦¨à¦¸":8414,"à¦¤à¦ıà¦ª":8415,"à¦²à¦¦à¦ķ":8416,"à¦¶à¦ıà¦Ł":8417,"à¦¶à¦ħà¦¸":8418,"à¦¶à¦²à¦Ĺ":8419,"à¦¶à¦¹à¦ĵà§Ł":8420,"à¦Ĺà¦§":8421,"à¦ļà¦ľà¦¨à¦ķ":8422,"à¦¨à¦¬à¦¦à¦²":8423,"à¦¨à¦®à¦ķ":8424,"à¦Ŀà¦ªà¦¥":8425,"à¦¨à¦ıà§Ł":8426,"à¦°à¦ıà¦ķà¦ľà¦¨à¦ķ":8427,"à§§à§©à§®":8428,"à¦¨à¦°à¦ĵà¦¯":8429,"à¦¨à¦īà§İà¦¸":8430,"à¦¤à¦ħà¦ªà¦¸":8431,"à§Łà¦¤à¦°":8432,"à¦ľà¦ĵà¦¹":8433,"à¦¶à¦¸à¦°":8434,"à¦Ĩà§Łà¦¤":8435,"à¦¥à¦²à¦ªà¦°":8436,"à¦ĸà¦ľà¦¨":8437,"à¦£à¦ĵà¦¬":8438,"à¦°à¦Ĩà¦¦à¦²":8439,"à¦¨à¦¸à¦¬à¦ľ":8440,"à¦ĩà¦¬à¦¦à¦²":8441,"à¦¸à¦ķà¦Ĺ":8442,"à¦ıà¦®à¦¨à¦ķà¦¥":8443,"à¦·à¦¦à¦¤":8444,"à¦ķà¦¨à¦¬":8445,"à¦²à¦ī":8446,"à¦Ĺà¦®à¦¤":8447,"à¦ĩà¦ıà¦®":8448,"à¦ĩà¦Ĩà¦ĵà§Ł":8449,"à¦ĵà¦Ĩà¦§":8450,"à¦°à¦£à¦¹à¦¬":8451,"à¦ķà¦¬à¦¡":8452,"à¦¸à¦°à§Ł":8453,"à¦ķà¦¨à¦Ĺ":8454,"à¦°à¦ıà¦ķà¦ľà¦¨à¦®":8455,"à¦°à¦ĸà¦¬à¦°à¦®":8456,"à¦¥à¦ķà¦¤":8457,"à¦¥à¦ķà¦ķà¦°":8458,"à¦ħà§Ł":8459,"à§§à§¨à§¦à§¦à§§":8460,"à¦¨à¦¸à¦ł":8461,"à¦¤à¦®à¦ŀ":8462,"à¦°à¦°à¦ī":8463,"à¦¨à¦īà¦ªà¦°":8464,"à¦¬à¦Ĩà¦®à¦°":8465,"à¦¯à¦ĩà¦īà¦°":8466,"à¦¹à¦ľà¦¨":8467,"à¦ľà¦ķà¦¦":8468,"à¦ľà§Łà¦ķà¦°":8469,"à¦ħà¦®à¦¨":8470,"à¦ľà¦¨à¦Ĩà¦®":8471,"à¦īà¦ªà¦¤":8472,"à¦°à¦ĵà¦ªà¦°à¦¥":8473,"à¦°à¦¸à¦ķà¦²à¦®":8474,"à¦ķà¦Ĩà¦§":8475,"à¦¸à¦ıà¦Ł":8476,"à¦¸à¦ħà¦¬":8477,"à¦²à¦ħà¦²":8478,"à¦ªà¦¸à¦¹":8479,"à¦ıà¦°à¦¡":8480,"à§¨à§¨à§¦à§¦à§§":8481,"à¦°à¦£à¦¸à¦¦à¦¸":8482,"à¦ĩà¦®à¦Ł":8483,"à¦¨à¦Ĩà¦¶à¦°":8484,"à¦Īà¦¦à¦¸":8485,"à¦¨à¦ıà¦ķà¦¸":8486,"à¦ıà¦ķà¦°à¦ķà¦®":8487,"à¦¬à¦°à¦Ĩà¦ľà¦®":8488,"à¦²à¦°à¦ªà¦¦":8489,"à¦ĸà¦Ĩà¦¬à¦¦":8490,"à¦¼à¦¾à§ĩ":8491,"à¦®à¦¤à¦ļ":8492,"à¦§à¦¨à¦¸à¦®":8493,"à§§à§¨à§§à§Ń":8494,"à¦®à¦®à¦ľ":8495,"à¦ıà¦ķà¦ľà¦¨à¦®à¦¹":8496,"à¦®à¦Ĩà§Ł":8497,"à¦·à¦ĵà¦Ń":8498,"à¦ĸà¦ķà¦¸à¦®":8499,"à¦¡à¦ī":8500,"à¦°à¦¨à§ľ":8501,"à¦īà¦ªà¦ª":8502,"à¦¨à¦Ĺà¦¡":8503,"à§§à§¯à§¬à§¯":8504,"à¦¨à¦ļà¦¤":8505,"à¦«à¦²à¦Ł":8506,"à¦ªà¦£à¦ķ":8507,"à§Łà¦Ĩà¦¨à¦¤":8508,"à¦¨à§Łà¦¦":8509,"à¦ķà¦ıà¦¶":8510,"à¦¬à¦ĵà¦¨":8511,"à¦¤à¦ħà¦²":8512,"à¦²à¦Ĩà¦¤":8513,"à¦¯à¦ªà¦¤":8514,"à¦¯à¦ĵà¦®":8515,"à§Łà¦Ĩà¦¸à¦²":8516,"à¦¶à¦Ĩà¦¬":8517,"à¦¡à¦ıà¦ķà¦Ł":8518,"à¦¡à¦¸à¦°":8519,"à¦°à¦¥à¦®à¦¹":8520,"à¦²à¦¤à¦ªà¦°":8521,"à¦ĩà¦ªà¦ķà¦°":8522,"à¦°à¦®à¦¤à¦Ń":8523,"à¦ĩà¦«à¦īà¦¦":8524,"à¦Ĩà¦°à¦¬à¦²":8525,"à¦¤à¦°à¦ľà¦¨":8526,"à¦¤à¦ĩà¦¬":8527,"à¦¹à¦ĩà¦Ľ":8528,"à¦ľà¦¤à¦¥":8529,"à¦¡à¦¹à¦¤":8530,"à¦°à¦¤à§İà¦ªà¦°à¦¤":8531,"à¦ıà¦ķà¦ĩà¦Ĺ":8532,"à¦°à¦Ĩà¦ľà¦®":8533,"à¦īà¦ªà¦Ĺ":8534,"à¦²à¦¨à¦ıà¦¬":8535,"à¦ķà¦¤à¦Ń":8536,"à¦¬à¦ķà¦·":8537,"à¦Ĺà¦¤à¦¶à¦¨":8538,"à¦Ĺà¦¤à¦¹à¦²":8539,"à¦Ĩà¦°à¦ĵà¦²":8540,"à¦¬à§ľà¦ħ":8541,"à¦ĩà¦¦à¦¹à¦Ŀ":8542,"à¦²à¦ļà¦²":8543,"à§Łà¦¹à¦¸":8544,"à¦§à¦ļà¦²":8545,"à¦ŀà¦¸":8546,"à¦²à¦ķà¦ıà¦¬":8547,"à§¨à§¦à§ªà§§":8548,"à¦¯à¦®à¦¦":8549,"à¦²à¦¹à¦ķà¦¶":8550,"à¦Ĺà¦²à¦Ł":8551,"à§§à§«à§®":8552,"à¦ķà¦¯à¦¨":8553,"à¦¯à¦ħà¦¬à¦¶":8554,"à¦¯à¦ħà¦¥à¦¬":8555,"à§Łà¦ıà¦®à¦¨à¦ķ":8556,"à¦Ľà¦Ľ":8557,"à¦ķà¦°à¦ķà¦°":8558,"à¦¹à§Łà¦ıà¦°à¦Ĩà¦Ĺ":8559,"à¦¨à¦¨à¦ĵà¦Ĺ":8560,"à¦¶à¦¨à¦ķà¦°à¦¬":8561,"à§İà¦¸à¦®":8562,"à¦¤à¦¨à¦¬à¦¨":8563,"à¦²à¦¹à¦ķà¦°":8564,"à¦Ĳà¦ª":8565,"à§¨à§©à§¯":8566,"à¦ķà¦ĵà¦¤":8567,"à¦ķà¦Ĩà¦ªà¦¡":8568,"à¦¤à§İà¦ªà¦°à¦¤":8569,"à¦ĵà¦¬à¦¸":8570,"à¦īà¦Ĩà¦ªà¦¨":8571,"à¦«à¦¹à¦¬":8572,"à¦°à¦īà¦ªà¦°à¦ıà¦ķà¦Ł":8573,"à¦ıà¦®à¦¨à¦ıà¦ķ":8574,"à¦°à¦Ĺà¦£à¦¹à¦¤":8575,"à¦¨à¦ĩà¦ķà¦¬":8576,"à¦¤à¦¤à¦¸":8577,"à¦¤à¦ĸà¦¬":8578,"à¦ļà¦ĺ":8579,"à¦ļà§Łà¦¬":8580,"à¦°à¦ķà¦«":8581,"à¦°à¦¬à¦ĩà¦Ł":8582,"à¦°à¦£à¦¹à¦ļ":8583,"à¦ªà¦¨à¦ıà¦¬":8584,"à¦¨à¦ªà¦Ł":8585,"à¦ļà¦²à¦°":8586,"à§Łà¦ķà¦Ń":8587,"à¦²à§Łà¦ıà¦¬":8588,"à¦¦à¦¹à¦¬":8589,"à§Łà¦¸à¦®à¦¸":8590,"à¦Łà¦¸à¦®à¦¯":8591,"à¦ĩà¦ļà¦Ł":8592,"à¦Ĩà¦ĵà¦«":8593,"à¦Ńà¦ľà¦¨à¦ķ":8594,"à¦ĵà¦ĩà¦Ł":8595,"à¦ĸà¦ķà¦²":8596,"à¦£à¦¸à¦¹":8597,"à¦ĺà¦ľ":8598,"à¦¨à¦¸à¦¹à¦¸":8599,"à¦²à¦ķà¦Ł":8600,"à¦ķà¦®à¦¡":8601,"à§Łà¦¨à¦¹à§Ł":8602,"à§Ńà§«à§¦":8603,"à¦ĵà¦¬à¦¡":8604,"à¦¨à¦ĵà¦ķà¦°":8605,"à¦¨à¦¡à¦ķ":8606,"à¦¨à¦ħà¦¥":8607,"à§§à§¯à§®à§©":8608,"à¦ªà¦¹à¦¯":8609,"à§Łà¦¬à¦²à¦²":8610,"à¦Ĩà¦°à¦Ĩà¦²":8611,"à¦ĵà¦ĩà¦¹":8612,"à¦¨à¦¦à¦¨":8613,"à¦¨à¦Ĺà¦°à¦Ĺ":8614,"à¦ĵà¦ªà¦°à¦¬à¦°":8615,"à¦ıà¦°à¦ªà¦°à¦ª":8616,"à¦¨à¦¸à¦¹à¦ħà¦¨":8617,"à¦¨à¦īà§İà¦¸à¦¬":8618,"à¦²à¦Ĩà¦¶":8619,"à¦Łà¦¬à¦¸":8620,"à¦ĩà¦Ĩà¦ª":8621,"à¦¥à¦Ĩà¦®":8622,"à¦§à¦Ĩà¦°":8623,"à¦ĵà¦°à¦¹":8624,"à¦īà¦Łà¦¬":8625,"à¦£à¦¬à¦²":8626,"à§§à§¯à§¨à§Ń":8627,"à¦¸à¦¦à¦°à¦¦à¦ª":8628,"à¦°à¦®à¦£à¦ĵà¦®":8629,"à§§à§¯à§Ńà§Ń":8630,"à¦°à¦¬à¦Ľà¦°à¦¬à¦Ľà¦°à¦¬à¦Ľà¦°à¦¬à¦Ľà¦°à¦¬à¦Ľà¦°à¦¬à¦Ľà¦°à¦¬à¦Ľà¦°à¦¬à¦Ľà¦°à¦¬à¦Ľà¦°à¦¬à¦Ľà¦°à¦¬à¦Ľà¦°à¦¬à¦Ľà¦°à¦¬à¦Ľà¦°à¦¬à¦Ľà¦°à¦¬à¦Ľà¦°à¦¬à¦Ľ":8631,"à§ĩà§ĩ":8632,"à¦ľà¦²à¦¨":8633,"à¦°à¦¨à¦Ĩà¦¤à¦Ļ":8634,"à¦°à¦ıà¦ĩà¦Ł":8635,"à¦ķà¦²à¦°":8636,"à§¨à§¦à§¨à§§à§§à§©":8637,"à¦ľà¦®à¦ľà¦®":8638,"à¦ĵà¦ļà¦²à¦¬":8639,"à¦Ĩà¦°à¦ıà¦¸":8640,"à¦¤à¦°à¦ħà¦¨":8641,"à¦®à¦°à¦¨":8642,"à¦¯à¦¤à¦ª":8643,"à¦¯à¦ĸà¦¬":8644,"à¦Łà¦ĩà¦®":8645,"à¦Ĺà¦²à¦¤":8646,"à¦«à¦®à¦¹":8647,"à¦°à¦®à¦¨à¦ª":8648,"à¦¬à¦¨à¦ıà¦¬":8649,"à§¨à§¦à§§":8650,"à¦¹à¦¤à¦¹à¦¯":8651,"à¦ķà¦Łà¦¤":8652,"à¦Ĺà¦¤à¦¸à¦®":8653,"à¦²à¦¹à¦ķà¦Ĩ":8654,"à¦Ĩà¦°à¦ĵà¦ĸ":8655,"à§§à§ªà§Ń":8656,"à¦°à¦¦à¦²à¦ĺ":8657,"à¦°à¦°à¦ļ":8658,"à¦¤à¦¶à¦¨":8659,"à¦¯à¦ħà¦¬à¦¸":8660,"à¦¹à¦°à¦Ĩà¦ķ":8661,"à¦Ĺà¦ķà¦²":8662,"à¦ĵà¦ıà¦¡":8663,"à¦°à¦¸à¦®à¦ªà¦°":8664,"à¦ľà¦²à¦ĸ":8665,"à¦Ĩà¦ĩà¦ıà¦«":8666,"à¦·à¦ĸà¦¬à¦°à¦¦":8667,"à¦°à¦¨à¦ľà¦°à¦¦":8668,"à¦ĩà¦ĩà¦¬":8669,"à¦ĩà¦°à¦ĩà¦¬à¦¨":8670,"à¦ļà¦¨à¦¤":8671,"à¦Ńà¦°à¦ķà¦°à¦Ľ":8672,"à¦§à¦ķà¦®":8673,"à¦§à¦¨à¦Ń":8674,"à¦ĵà¦«à¦²":8675,"à¦ĸà¦ķà¦¹":8676,"à¦°à¦®à¦®à¦¤":8677,"à¦°à¦¹à¦¨à¦¯":8678,"à¦¨à¦¨à¦°à¦¸":8679,"à¦ĩà¦ķà¦ł":8680,"à¦ªà¦ķà¦¶":8681,"à¦°à¦īà¦ªà¦¬":8682,"à¦¨à¦ıà¦ĩà¦¤":8683,"à¦Ĺà¦ķà¦²à¦ķ":8684,"à¦°à¦¸à¦¹à¦Ĺ":8685,"à¦°à¦¸à¦¹à¦Ĩà¦Łà¦ķ":8686,"à¦¯à¦ĸà¦¨à¦ľ":8687,"à¦ıà¦¸à¦ıà¦®à¦ıà¦®":8688,"à¦¬à¦ĵà¦¬":8689,"à¦¤à¦°à¦ı":8690,"à¦®à¦ħà¦«":8691,"à¦¶à¦®à¦ª":8692,"à¦ĩà¦ĵà¦¦":8693,"à¦ħà¦ľà¦¸":8694,"à§¦à§©à§¦":8695,"à¦¬à¦²à¦ıà¦ķà¦Ł":8696,"à¦¯à¦ķà¦¸":8697,"à¦¯à¦ķà¦ª":8698,"à¦²à¦Ĺà¦ł":8699,"à¦ıà¦ĸà¦¨à¦ľ":8700,"à¦Ĩà¦ĩà¦¨à¦ĵà¦ħà¦ªà¦°":8701,"à¦ĩà¦¡à¦ª":8702,"à§§à§®à§¦à§¦":8703,"à¦·à¦ĸà¦¬à¦°à¦¡":8704,"à¦·à¦ĸà¦¬à¦°à¦Ĩà¦°à¦ĵ":8705,"à¦Ĩà¦Łà¦ķà¦®":8706,"à¦ķà¦ĵà¦Ĺà¦£à¦¶":8707,"à§©à§Ńà§¯":8708,"à¦°à¦¯à¦¬":8709,"à¦¨à¦īà¦ĩà¦¨":8710,"à¦ľà¦ĵà¦ª":8711,"à§¦à§®à§¦":8712,"à¦¶à¦¨à¦ķà¦°à¦²":8713,"à¦°à¦īà¦·":8714,"à¦¸à¦¨à¦¶":8715,"à¦²à¦Ĺà§ľ":8716,"à¦¨à§Łà¦¨à¦«":8717,"à¦¬à¦¢":8718,"à¦¤à¦Ĩà¦ĵà§Ł":8719,"à¦¤à¦Ĩà¦¨à¦¨":8720,"à¦¸à¦ĩ":8721,"à¦®à¦ĩà¦¨à¦¸":8722,"à¦²à¦ıà¦Ľ":8723,"à¦¹à¦ķà¦¤":8724,"à¦Łà¦°à§Ł":8725,"à¦ľà¦ĸà¦®":8726,"à¦¶à¦Ĩà¦ľ":8727,"à¦ļà¦ħà¦¨":8728,"à¦ªà¦°à¦¯":8729,"à¦¹à§Łà¦ıà¦ķà¦Ł":8730,"à¦¨à¦¬à¦®":8731,"à¦¨à¦¨à¦°":8732,"à¦īà¦ªà¦¸à¦®":8733,"à¦²à¦¬à¦¹":8734,"à¦¤à¦ķà¦ĸà¦¨":8735,"à¦¨à¦ľà¦°à¦ķ":8736,"à¦¬à¦Ľà¦°à¦ĩ":8737,"à§Łà¦ªà¦¦à¦ķ":8738,"à¦Ĺà¦²à¦ķà¦°":8739,"à¦¨à¦Ĩà¦²à¦®":8740,"à§§à§¯à§®à§¨":8741,"à¦ķà¦ħà¦ķ":8742,"à¦ķà¦¶à¦ª":8743,"à¦¬à¦ķà¦°à¦¬":8744,"à¦¤à¦¶à¦¹":8745,"à¦®à¦ľà¦®":8746,"à¦®à¦ĸà¦²":8747,"à¦®à¦ĵà¦¸à¦®":8748,"à¦²à¦Ĩà¦¸à¦²":8749,"à¦¯à¦ľà¦¬":8750,"à¦¯à¦ĩà¦¯":8751,"à¦¹à¦°à¦ľ":8752,"à¦ľà¦ħà¦°":8753,"à¦ĸà¦ķà¦¶":8754,"à¦ħà¦ļà¦²":8755,"à¦¹à¦²à¦ĩà¦¬à¦¨":8756,"à¦·à¦£à¦¬à¦¨":8757,"à§Łà¦¤à¦ĸà¦¨à¦¤":8758,"à¦Ĳà¦¸":8759,"à¦¨à¦ıà¦ĩà¦°":8760,"à¦°à¦¹à¦¯à¦°à¦¤":8761,"à§«à§¦à§¦à§¦":8762,"à¦®à¦ıà¦ĩ":8763,"à¦ªà¦ĩà¦¤":8764,"à§Łà¦®à¦¸":8765,"à§Łà¦ªà§ľà¦¤":8766,"à¦ľà¦¸à¦¨":8767,"à¦Ĺà¦Ĩà¦°":8768,"à¦ĵà¦¶à¦ķ":8769,"à¦¡à¦¦à¦ķ":8770,"à¦īà¦¡à¦¬":8771,"à¦°à¦¬à¦¸à¦¤":8772,"à¦°à¦ĵà¦ĩà¦¬":8773,"à¦¸à¦¹à¦Ĩà¦°":8774,"à¦°à¦°à¦¹à¦®à¦¤":8775,"à¦²à¦Ĩà¦īà¦Ł":8776,"à§§à§¯à§Ńà§®":8777,"à¦¨à¦ĸà¦¬à¦°à¦ª":8778,"à¦ķà¦°à¦ĩà¦¬à¦¨":8779,"à¦²à¦īà¦¨":8780,"à¦¯à¦Łà¦ķà¦°":8781,"à¦ĵà¦ĵà¦®":8782,"à¦ĵà¦ħà¦Ĺ":8783,"à§¦à§Ńà§¦":8784,"à¦²à¦ķà¦ªà¦°":8785,"à¦ĩà¦¸à¦Ĺ":8786,"à¦ļà¦²à¦¶":8787,"à¦ĵà¦¸à¦¹à¦¯":8788,"à¦°à¦ĺà¦£":8789,"à¦ĵà¦ķà¦ł":8790,"à¦ıà¦°à¦ªà¦°à¦ķ":8791,"à¦ıà¦ĩà¦¬à¦ĩà¦Ł":8792,"à¦¯à¦Łà¦¨à¦¸":8793,"à¦ķà¦ľà¦°":8794,"à¦¸à¦ļà¦°":8795,"à¦Łà¦ıà¦¯":8796,"à¦¥à¦Ĩà¦Ľ":8797,"à¦ĺà¦¤":8798,"à¦ķà¦®à¦¤à¦¬":8799,"à¦¯à¦®à¦ª":8800,"à¦®à¦¬à¦¦à¦²":8801,"à¦ħà¦¬à¦¸à¦°à¦¨":8802,"à§¨à§¦à§§à§ªà§¨à§¦à§§à§«":8803,"à§©à§¦à§¦à§¦":8804,"à¦ļà¦ķà¦²":8805,"à¦ħà¦¬à¦¨à¦¤":8806,"à¦¬à¦²à¦²à¦ķ":8807,"à¦°à¦²à¦¸":8808,"à¦®à¦ķà¦°à¦Ľ":8809,"à¦¬à¦Ľà¦°à¦Ĺ":8810,"à§¨à§¦à§¨à§§à§§à§ª":8811,"à¦Ĺà¦²à¦°":8812,"à¦°à¦®à¦£à¦ķà¦°à¦¤":8813,"à¦·à¦ĸà¦¬à¦°à¦ĸ":8814,"à§¨à§¦à§¦à§¬à§¨à§¦à§§à§¯":8815,"à¦ªà¦ķà¦°à¦²":8816,"à¦¦à¦°à¦ıà¦¬":8817,"à§Łà¦Ĩà§Ł":8818,"à¦ļà§Łà¦ľ":8819,"à¦¹à§Łà¦ıà¦¸à¦®à§Ł":8820,"à¦¹à¦²à¦ĩà¦ľ":8821,"à§İà¦®à¦¨":8822,"à¦¹à¦¤à¦¦à¦°":8823,"à¦ķà¦²à¦Ļ":8824,"à§Łà¦¸à§ľà¦ķ":8825,"à¦¶à¦¤à¦¶à¦¤":8826,"à¦¦à¦ªà¦°à¦¬à¦°":8827,"à§¨à§©à§¨à§¦à§¨à§§":8828,"à¦¨à¦ĩà¦¸à¦°":8829,"à¦¬à¦¤à¦¬":8830,"à¦¸à¦ıà¦²":8831,"à¦²à¦Ĩà§Ł":8832,"à¦¯à¦ĩà¦Ń":8833,"à¦¶à¦ıà¦²":8834,"à¦ıà¦°à¦ħ":8835,"à¦¥à¦¹à¦¬":8836,"à¦īà¦¨à¦ª":8837,"à¦°à¦§à¦°à¦£":8838,"à¦¯à¦¸à¦ł":8839,"à¦ıà¦ĸà¦¨à¦ıà¦ķà¦Ł":8840,"à§¨à§¨à§«":8841,"à§¨à§¨à§®":8842,"à§¨à§Ńà§«":8843,"à¦¸à¦®à¦¤à¦²à¦ª":8844,"à¦¬à¦Ĩà¦¹à¦®":8845,"à¦²à¦®à¦¨à¦¸":8846,"à¦Łà¦ªà¦¡":8847,"à¦¶à¦ľà¦¨à¦ª":8848,"à¦·à¦®à¦°":8849,"à¦¥à¦ĸ":8850,"à¦°à¦ķà¦Ļ":8851,"à¦°à¦¤à¦¸à¦®":8852,"à¦¹à§Łà¦ıà¦ĩ":8853,"à¦¨à¦ªà¦°à¦®":8854,"à¦ĩà¦ªà¦®":8855,"à¦ªà¦¦à¦²":8856,"à¦Ĩà¦°à¦ĵà¦ķà§Ł":8857,"à¦²à¦Ĺà¦Ł":8858,"à¦¬à§ľà¦ªà¦°":8859,"à¦¹à¦¤à¦°à§Ł":8860,"à¦¹à¦§à¦°":8861,"à¦ľà¦¶à¦¨":8862,"à¦ĩà¦ıà¦°":8863,"à¦·à¦ĵà¦°":8864,"à¦¨à¦¬à¦®à¦¶":8865,"à¦ĺà¦¨à¦ķ":8866,"à§¨à§¦à§¨à§¦à§¦":8867,"à§İà¦ĸ":8868,"à§§à§Ńà§§à§¨":8869,"à¦°à¦®à¦£à¦Ń":8870,"à¦ķà¦¹à¦ĵà¦¯":8871,"à¦¬à§ľà¦ķà¦°":8872,"à¦ķà¦§à¦°à¦¨":8873,"à¦¤à¦ľà¦¬":8874,"à¦ªà¦¸à¦¸":8875,"à¦¯à¦ĵà¦¶":8876,"à¦Łà¦ļà¦Ł":8877,"à¦ľà¦¹à¦¤":8878,"à¦·à¦īà¦¦à¦¯":8879,"à¦ĵà¦ıà¦ĩà¦ļà¦ıà¦¸à¦¸":8880,"à¦£à¦¬à¦¸":8881,"à¦·à¦£à¦īà¦ªà¦ķ":8882,"à¦°à¦ĸà¦¬à¦°à¦°":8883,"à¦Ĩà¦®à¦°à¦°à¦¹":8884,"à¦Ĩà¦ľà¦Ĺ":8885,"à¦¨à¦«à¦ĸà¦°":8886,"à¦°à¦ıà¦ĩà¦¸à¦®à§Ł":8887,"à¦ªà¦Ĺà¦²":8888,"à¦¦à¦ıà¦Ł":8889,"à§Łà¦Ĩà¦¸à¦¤":8890,"à¦Łà¦ľà¦¨à¦¸":8891,"à¦ľà¦ķà¦¤":8892,"à¦ħà¦®à¦°":8893,"à¦īà¦¸à¦ª":8894,"à¦£à¦ķà¦°à¦Ľ":8895,"à¦¹à§Łà¦ħà¦Ń":8896,"à¦°à¦£à¦¤à¦ķ":8897,"à¦²à¦ªà¦¡":8898,"à¦°à¦ªà¦°à¦ĵà¦ķ":8899,"à¦ıà¦¨à¦Ĩà¦ĩà¦¡":8900,"à¦¦à¦¸à¦¨":8901,"à§Łà¦ħà¦¬à¦¶":8902,"à¦Ĩà¦ĩà¦¤":8903,"à¦ıà¦°à¦§":8904,"à¦§à¦Ĩà¦¨":8905,"à¦§à¦¹à§Łà¦¨":8906,"à¦°à¦®à¦¨à¦®":8907,"à¦¹à¦¤à¦Ĺ":8908,"à¦¨à¦Ĩà¦ĩà¦¸":8909,"à¦¤à¦ľà¦²":8910,"à¦°à¦Ŀà¦¡":8911,"à¦°à¦Ĺà¦£à¦ªà¦°":8912,"à§Łà¦Ĩà§ľ":8913,"à§Ŀà¦¤":8914,"à§Łà¦ħà¦ª":8915,"à¦¶à¦ľà¦®":8916,"à¦°à¦ªà¦°à¦Ĩà¦®à¦°":8917,"à¦¸à¦¬à¦¤":8918,"à¦ķà¦®à¦¥":8919,"à¦·à¦£à¦ķà¦°à¦¬":8920,"à¦¯à¦¦à¦°":8921,"à¦ĸà¦¬à¦°à¦«":8922,"à¦°à¦¡à¦Ĺ":8923,"à¦²à¦ıà¦ª":8924,"à¦Łà¦ıà¦®":8925,"à¦ľà¦ªà¦¡":8926,"à¦Ĺà¦ľà¦¨à¦ķ":8927,"à¦ĩà¦ĩà¦ī":8928,"à¦ŀà¦¡":8929,"à¦Łà¦¨à¦ļ":8930,"à¦ļà¦¨à¦²":8931,"à¦ıà¦®à¦¨à¦ħà¦¬à¦¸":8932,"à§§à§¬à§©":8933,"à§¨à§«à§Ń":8934,"à¦¯à¦ĸà¦¨à¦¶":8935,"à¦Ĺà¦¤à¦®à¦Ļ":8936,"à¦°à¦ľà¦¨à¦Ĺà¦£à¦ķ":8937,"à¦·à¦¦à¦¸à¦¦à¦¸":8938,"à¦¬à¦¹à¦¯":8939,"à¦²à¦ľà¦®":8940,"à¦¦à¦°à¦Ľ":8941,"à§Łà¦ĵà¦ķ":8942,"à¦¹à¦¨à¦Ĺà¦ŀ":8943,"à¦¶à¦Ĩà¦Ľ":8944,"à¦Ĺà¦ıà¦²":8945,"à¦īà¦²à¦ķ":8946,"à¦°à¦¹à§Łà¦°":8947,"à¦¤à¦°à¦ķà¦°à¦¤":8948,"à¦²à¦¬à¦¡":8949,"à¦ıà¦¸à¦¹":8950,"à¦¨à¦Ńà§Ł":8951,"à¦ĵà¦¸à¦ļ":8952,"à§Łà¦¦à¦¹":8953,"à¦¬à¦¹à¦ħà¦Ĺ":8954,"à¦ľà¦¸à¦ľ":8955,"à¦Łà¦¸à¦¡":8956,"à¦¥à¦ķà¦ħà¦Ń":8957,"à¦Ĺà¦®à¦¨à¦ķà¦°":8958,"à¦¬à¦ħà¦§":8959,"à¦¤à¦ĵà¦¶":8960,"à¦¸à¦¶à¦¬":8961,"à¦¶à¦Ĩà¦¸":8962,"à§¦à§¨à§¨à§¨à§©":8963,"à¦ıà¦ķà¦Ĩà¦²":8964,"à¦¬à¦²à¦¯":8965,"à¦°à¦Ĩà¦°à¦¶":8966,"à¦Ĩà¦ĩà¦¨à¦ĵà¦¬":8967,"à§§à§©à§¬":8968,"à¦Ĳà¦®":8969,"à¦²à¦Ĩà¦°à¦ķ":8970,"à§¨à§¦à§¦à§«à§¨à§¦à§¨à§§":8971,"à¦¤à¦ħà¦Ł":8972,"à¦¦à¦ıà¦²":8973,"à¦¹à¦°à¦ľà¦¨":8974,"à¦¶à¦¬à¦ķ":8975,"à¦ļà¦°à¦¬":8976,"à¦¥à¦°à¦¨":8977,"à¦¤à¦¬à§ľ":8978,"à¦ıà¦ĩà¦ħà¦°":8979,"à¦¨à¦®à¦¹à¦²":8980,"à¦¨à¦Ĩà¦°à¦¯":8981,"à§Łà¦ķà¦ĸà¦¨":8982,"à¦²à¦¸à¦¦":8983,"à¦°à§Łà¦ķà¦°à¦¤":8984,"à¦ıà¦ķà¦ľà¦¨à¦¦":8985,"à¦¸à¦«à¦Ł":8986,"à¦¤à¦°à¦£à¦ľ":8987,"à§§à§ªà§¦à§§à§§à§®à§ªà§«à§«":8988,"à¦¬à¦°à¦®à¦¨":8989,"à¦¯à¦ĩà¦ļ":8990,"à¦ļà¦Ŀ":8991,"à¦ĵà¦īà¦ªà¦¸":8992,"à¦¡à¦¬à¦¨":8993,"à¦«à¦°à¦ķ":8994,"à¦¤à¦®à¦ļà¦°":8995,"à¦¤à¦ªà¦¬":8996,"à¦ĩà¦¦à¦¶à¦ķ":8997,"à¦ıà¦ĸà¦¨à¦ļ":8998,"à¦¸à¦ķà¦²à¦§à¦°":8999,"à¦®à¦Ĩà¦¹à¦¬":9000,"à§ªà§¦à§ª":9001,"à¦°à¦¸à¦®à§Łà¦ļ":9002,"à¦¯à¦¸à¦®à¦¨":9003,"à¦¬à¦°à¦£à¦ª":9004,"à¦¬à¦ħà¦¬":9005,"à¦¤à¦ıà¦¦":9006,"à¦ĩà¦ĩà¦®":9007,"à¦Ńà¦¹à§Ł":9008,"à¦¥à¦®à¦ķ":9009,"à¦°à¦¬à¦ĩà¦ª":9010,"à¦°à¦ªà§ľà¦¤":9011,"à¦®à¦¨à¦Ĩà¦ĩà¦¨":9012,"à¦ľà¦¨à¦ĺ":9013,"à¦°à¦ĵà¦ĩà¦®":9014,"à¦°à¦Ńà¦°à¦£à¦ª":9015,"à§Łà¦¨à¦¬à¦¨":9016,"à¦°à¦ĩà¦§":9017,"à¦¨à¦Ĩà¦īà¦Ł":9018,"à¦¸à§ľà¦ķà¦¨":9019,"à¦ķà¦ķà¦ª":9020,"à¦¤à¦¶à¦¤":9021,"à¦¸à¦ħà¦ª":9022,"à¦²à¦Ĩà¦¬à¦¦":9023,"à¦²à¦ıà¦ĩà¦¬":9024,"à§Łà¦ıà¦ĩà¦ª":9025,"à¦¹à¦¨à¦Ń":9026,"à¦§à¦ĵà¦¬":9027,"à¦ľà¦¨à¦ķà¦°à¦²":9028,"à¦ľà¦¨à¦Ĩà¦¹à¦¤":9029,"à¦¨à¦¸à¦²":9030,"à¦ĩà¦¨à¦ıà¦ķà¦Ł":9031,"à¦¨à¦Ĺà¦°à¦¹":9032,"à¦Ĩà¦°à¦ĵà¦¶à¦ķ":9033,"à¦ıà¦®à¦¨à¦ĺà¦Łà¦¨":9034,"à¦Ńà¦¬à¦ļ":9035,"à¦¶à¦¨à¦ħà¦¬à¦¬":9036,"à¦ķà¦ĵà¦Ĺ":9037,"à¦®à¦²à¦¤":9038,"à§Łà¦°à¦¶":9039,"à¦¹à¦¹à¦¤":9040,"à¦¡à¦¨à¦¬":9041,"à¦£à¦ĵ":9042,"à¦łà¦ķà¦¸":9043,"à¦°à¦Ĩà¦°à¦ĵà¦¬":9044,"à¦ıà¦ĩà¦Ĩà¦¨":9045,"à¦°à¦¡à¦°":9046,"à¦¤à¦¹à§Łà¦®":9047,"à¦¹à¦°à¦°à¦¸":9048,"à¦Ĩà¦ĩà¦¨à¦¦":9049,"à§Łà¦ıà¦ķà¦ķ":9050,"à¦°à¦¸à¦¦à¦°à¦°":9051,"à§§à§¨à§©à§ªà§«à§¬à§Ńà§®à§¯à§§à§¦à§§à§§à§§à§¨à§§à§©à§§à§ªà§§à§«à§§à§¬à§§à§Ńà§§à§®à§§à§¯à§¨à§¦à§¨à§§à§¨à§¨à§¨à§©à§¨à§ªà§¨à§«à§¨à§¬à§¨à§Ńà§¨à§®à§¨à§¯à§©à§¦à§©à§§":9052,"à¦¨à¦īà¦°":9053,"à¦ķà¦Ĺà¦¤":9054,"à§Łà¦ĵà¦¤":9055,"à¦Ĺà¦ıà¦ķà¦Ł":9056,"à¦Ĩà§Łà¦®":9057,"à¦°à¦¬à¦ī":9058,"à¦£à¦¬à¦°":9059,"à¦°à¦Ĩà¦°à¦ĵà¦¸":9060,"à¦°à¦īà¦ĸ":9061,"à¦·à¦£à¦Ł":9062,"à¦¨à¦ıà¦°à¦¦":9063,"à¦Ĩà¦¶à¦«":9064,"à¦Ĩà¦°à¦¬à¦Ĩà¦®":9065,"à¦ķà¦ľà¦¨à¦¦":9066,"à¦°à¦ĩà¦īà¦ıà¦¨à¦ĵ":9067,"à¦ķà¦°à¦¬à¦ķ":9068,"à¦ĵà¦¸à¦®à¦¸":9069,"à¦°à¦®à¦¥à¦¨":9070,"à¦°à¦ªà¦°à¦Ĩà¦²":9071,"à¦¹à§Łà¦Ľ":9072,"à¦°à¦ıà¦¸à¦ª":9073,"à¦°à¦Ĺà¦£à¦¨":9074,"à¦¶à¦¨à¦ĵà¦¸":9075,"à¦¨à¦Ńà¦ķ":9076,"à¦¬à¦ªà¦Ľà¦¨":9077,"à¦ıà¦®à¦¨à¦¯":9078,"à¦¸à¦ħà¦§":9079,"à¦¯à¦¸à¦®à¦¯":9080,"à¦Łà¦¶à¦¬":9081,"à¦ľà¦īà¦²":9082,"à¦Ĩà¦°à¦ıà¦¬":9083,"à¦°à¦Ĩà¦ĩà¦¨à¦¬":9084,"à¦°à¦ıà§ľ":9085,"à§§à§¯à§¬":9086,"à§§à§¯à§«à§¬":9087,"à¦ĩà¦īà¦ĩà¦ķ":9088,"à¦ıà¦°à¦ªà¦°à¦¦":9089,"à¦ĵà¦¸à¦®à¦¬":9090,"à¦¯à¦¤à¦®à¦ıà¦ķà¦Ł":9091,"à¦Ĺà¦£à¦Ńà¦¬à¦¨à¦¥":9092,"à¦¨à¦Łà¦¨":9093,"à¦ķà¦ĩà¦²":9094,"à¦ķà¦ĩà¦¨à¦¸":9095,"à¦¬à¦ıà¦¨":9096,"à¦¯à¦ĩà¦īà¦¨":9097,"à§Łà¦¬à¦¸à¦¬":9098,"à¦¹à¦¨à¦®":9099,"à¦£à§Łà¦ķà¦°":9100,"à¦°à¦Ĩà¦°à¦¨":9101,"à¦¦à¦ķà¦¸à¦¹":9102,"à¦¤à¦®à¦Ĺ":9103,"à¦¤à¦ķà¦ł":9104,"à¦ĵà¦¸à¦²":9105,"à§§à§¦à§§à§«":9106,"à¦°à¦ıà¦ķà¦ľ":9107,"à¦¤à¦¹à¦ĩà¦¬":9108,"à¦°à¦®à¦£à¦ł":9109,"à§¨à§«à§«à§¦":9110,"à¦®à¦Īà¦¦":9111,"à¦Ĺà¦¹à¦ļ":9112,"à¦Ĩà¦ĩà¦¹":9113,"à¦Ĩà¦°à¦ĩà¦ī":9114,"à¦®à¦¨à¦§à¦°":9115,"à¦¨à¦¨à¦·":9116,"à¦ıà¦ĩà¦¨à¦¤":9117,"à¦ĩà¦®à¦§":9118,"à¦¨à¦ıà¦¸à¦®à¦¯":9119,"à§§à§¯à§¬à§¬":9120,"à¦¬à¦ªà¦ķ":9121,"à¦ıà¦®à¦¨à¦²":9122,"à¦¶à¦¸à¦«à¦°":9123,"à¦¨à§Łà¦Ĩà¦®":9124,"à¦¶à¦¦à¦¤":9125,"à¦¸à¦°à¦£à¦ķà¦°à¦¬":9126,"à¦¬à¦ĩà¦ľà¦¤":9127,"à¦¦à¦ĵà¦Ł":9128,"à¦Łà¦ĵà¦Ń":9129,"à¦Ľà¦Ĩà¦®":9130,"à¦«à¦Ľ":9131,"à¦°à¦¨à¦ķà¦°à¦¤":9132,"à¦¸à¦¬à¦¯":9133,"à¦¯à¦ķà¦ł":9134,"à¦¤à¦¨à¦ľ":9135,"à¦¤à¦¨à¦¹à¦²":9136,"à¦®à¦ªà¦²":9137,"à¦Ĩà¦ľà¦ĵ":9138,"à¦·à¦ķà¦ıà¦¬":9139,"à¦¶à¦®à¦Ĺà¦¬":9140,"à¦ıà¦°à¦ķà¦¬":9141,"à§®à§®à§¦à§¨à§¯":9142,"à¦¬à¦°à¦¶à¦¨":9143,"à¦¬à¦ĩà¦Ľ":9144,"à¦®à¦Ĩà¦ľà¦ķ":9145,"à¦ªà¦£à¦¬":9146,"à¦¦à¦¤à¦ķ":9147,"à¦¦à§Łà¦¬":9148,"à¦Ĩà¦¹à¦ķ":9149,"à¦·à¦¸à¦¨":9150,"à¦ĵà¦¬à¦²à¦¤":9151,"à¦¡à¦¡à¦ķ":9152,"à¦°à¦¸à¦¦à¦°":9153,"à¦°à¦ķà¦®à¦¤":9154,"à¦°à¦ķà¦®à¦¦":9155,"à§ĥà¦¼":9156,"à¦Ĩà¦®à¦ľ":9157,"à¦Ĩà¦®à¦²à¦ķà¦°":9158,"à¦ľà¦¨à¦¨à¦¤":9159,"à¦ľà¦¨à¦¬à¦°":9160,"à¦°à¦¦à¦ĸ":9161,"à¦°à¦ıà¦¹":9162,"à¦ĩà¦¨à¦¸à¦®":9163,"à¦ıà¦ĩà¦Ĩà§Ł":9164,"à¦ķà¦Łà¦°":9165,"à¦¦à¦ķà¦ļ":9166,"à¦¸à¦¹à¦ľà¦¨":9167,"à¦ªà§ľà¦ķ":9168,"à§Łà¦ķà¦¡":9169,"à¦²à§Łà¦ĸ":9170,"à¦¸à¦«à¦°à¦ķ":9171,"à¦°à¦ªà¦¥à¦¸":9172,"à¦¬à¦§à¦²":9173,"à¦¨à§Łà¦ķà¦°à¦Ľ":9174,"à¦¹à¦ĩà¦ļ":9175,"à¦Łà¦¨à¦¨":9176,"à¦Ĺà¦ĵà¦ł":9177,"à¦Ĩà¦°à¦¸à¦®":9178,"à¦«à¦Ĭ":9179,"à¦®à¦¨à¦¥":9180,"à¦¨à¦ķà¦¯":9181,"à¦°à¦ıà¦²à¦¸":9182,"à¦°à¦ıà¦°à¦Ĩà¦Ĺ":9183,"à¦ļà¦¨à¦Ń":9184,"à¦¨à¦Ĩà¦°à¦ª":9185,"à§Łà¦ªà¦¶":9186,"à¦ħà¦¸à¦¤":9187,"à¦Ĩà¦ĩà¦¨à¦ķà¦°":9188,"à§§à§®à§®":9189,"à¦īà¦¬à¦ĵà§Ł":9190,"à¦¸à¦¹à¦ľà¦¹à¦¬":9191,"à¦Ĺà¦Ńà¦Ļ":9192,"à¦«à¦Ĭà¦²à¦ĩà§Ł":9193,"à¦¬à¦°à¦Ľ":9194,"à¦¬à¦£à¦Ń":9195,"à¦¤à¦ıà¦Ľ":9196,"à¦Ĺà¦¬à¦²":9197,"à¦Ĺà¦°à¦¹":9198,"à¦Ĺà¦Ŀ":9199,"à¦ĩà¦ĵà¦¨":9200,"à¦ĩà¦Ĩà¦¨à¦¨":9201,"à¦§à¦¸à¦°à¦ķ":9202,"à¦«à¦īà¦¦":9203,"à¦°à¦¬à§ľà¦²":9204,"à¦ľà¦¨à¦ıà¦Ľ":9205,"à§İà¦ªà¦¤":9206,"à¦°à¦«à¦°à¦®à¦ª":9207,"à¦¬à¦¬à¦Ļ":9208,"à§¨à§¨à§¯":9209,"à¦¬à¦°à¦£à¦ķà¦°à¦¬":9210,"à¦¶à¦ªà¦¥à¦ªà§ľ":9211,"à¦¨à¦¹à¦¯à¦°à¦¤":9212,"à¦ķà¦¹à§Łà¦¨":9213,"à¦¤à¦Ĩà¦¬à¦¦":9214,"à¦¥à¦¬à¦¨":9215,"à¦ĵà¦Ĩà¦ª":9216,"à¦ıà¦ķà¦§à¦°à¦£":9217,"à¦ĩà¦¨à¦ķà¦°à¦¤":9218,"à¦Ĺà¦²à¦Ľ":9219,"à¦Łà¦¬à§ľ":9220,"à¦¶à¦®à¦Ĺ":9221,"à¦ıà¦ķà¦ľà¦¨à¦Ľ":9222,"à¦¯à¦¤à¦®à¦ľà¦¨à¦ª":9223,"à¦ķà¦ıà¦¤":9224,"à¦¬à¦ħà¦¸à¦¹":9225,"à¦¤à¦°à¦ªà¦¤":9226,"à¦¯à¦Ĩà¦¤":9227,"à¦¯à¦Ĩà¦§":9228,"à¦§à¦ķà¦°à¦£":9229,"à¦°à¦®à¦¹à¦²":9230,"à¦ľà¦¨à¦¬à¦¨":9231,"à¦¬à¦¨à¦ªà¦°":9232,"à¦¨à¦¬à¦¸à¦Ń":9233,"à¦¸à¦¬à¦ªà¦°":9234,"à¦²à¦¤à¦¸à¦®":9235,"à¦²à¦¤à¦Ĩà¦¨":9236,"à¦ĩà¦®à¦ľ":9237,"à§§à§¯à§©à§Ń":9238,"à¦¬à¦¹à¦¦":9239,"à§§à§¨à§©à§¦":9240,"à¦¯à¦ľà¦¨à¦ķà¦®":9241,"à¦ķà¦ħà¦¶":9242,"à¦®à¦ķà¦¦":9243,"à¦ĩà¦ĺà¦£":9244,"à¦ĵà¦ıà¦¨":9245,"à¦¹à¦¤à¦¹à¦ĵà§Ł":9246,"à¦īà¦ªà¦®":9247,"à¦²à¦¬à¦¦à¦²":9248,"à¦¤à¦ķà¦¡":9249,"à§Łà¦¸à¦¦à¦¸":9250,"à¦¸à¦ªà¦¡":9251,"à¦°à¦¥à¦®à¦¸à¦ª":9252,"à¦ļà¦°à¦®à¦¦":9253,"à¦ķà¦¨à¦ľ":9254,"à¦ķà¦ıà¦ª":9255,"à¦²à¦ħà¦§":9256,"à§Łà¦ħà¦¥à¦¬":9257,"à¦ľà¦ħà¦«":9258,"à¦«à¦°à¦¸":9259,"à¦°à¦¤à¦¹":9260,"à¦¸à¦®à¦ľ":9261,"à¦ľà¦¨à¦®à¦¹":9262,"à¦°à¦Ĩà¦¦à¦¬":9263,"à¦ļà¦²à¦¨à¦¬":9264,"à¦¨à¦Ńà¦¬à¦¨":9265,"à¦¨à¦ıà¦¯":9266,"à¦°à¦¹à¦£à¦ıà¦¬":9267,"à¦ªà¦¸à¦Ł":9268,"à¦¤à¦ĸà¦¬à¦°":9269,"à¦ħà¦¥à¦ļà¦¬":9270,"à¦°à¦°à¦®à¦ľ":9271,"à¦¸à¦ıà¦°à¦ª":9272,"à¦ļà¦ķà¦Ń":9273,"à¦¥à¦¨à¦ľ":9274,"à¦ĵà¦īà¦ļ":9275,"à¦¼à¦ĥ":9276,"à¦£à¦īà¦¦":9277,"à¦¨à¦ķà¦¨à¦¸":9278,"à¦°à¦¸à¦®à¦Ĺ":9279,"à¦²à¦¹à¦ķà¦¦":9280,"à¦¨à¦ĵà¦¸à¦®à¦¸":9281,"à¦¸à¦²à¦¦":9282,"à§©à§®à§Ń":9283,"à¦ķà¦īà¦ªà¦ľ":9284,"à¦ªà¦®à¦¹":9285,"à¦¯à¦Ĩà¦ľà¦ķ":9286,"à§Łà¦°à¦¦":9287,"à§Łà¦ĸà¦¨":9288,"à¦¹à¦¸à¦¬":9289,"à¦ľà¦īà¦¨":9290,"à¦ıà¦°à¦ĸ":9291,"à¦¥à¦¸à¦°à¦ķ":9292,"à¦ĵà¦ĸà¦¨":9293,"à¦£à¦ħà¦¬à¦¸":9294,"à§¦à§¯à§¦":9295,"à¦łà¦¬à¦¨":9296,"à¦²à¦ķà¦ħà¦§":9297,"à§ªà§Ńà§¦":9298,"à¦¹à¦²à¦Ĩà¦ªà¦¨":9299,"à¦Ĩà¦¬à¦¬":9300,"à¦Īà¦®à¦¹":9301,"à¦ıà¦ĸà¦¨à¦°":9302,"à¦Łà¦¸à¦¶":9303,"à¦¨à§Łà¦¹":9304,"à¦¬à¦ªà¦¨à¦ķ":9305,"à¦¬à¦ªà¦¨à¦®":9306,"à¦¯à¦īà¦ªà¦¸":9307,"à¦¶à¦°à¦¤":9308,"à¦·à¦ĵà¦¬":9309,"à¦§à¦ķà¦¬":9310,"à¦īà¦¨à¦ķà¦°":9311,"à¦ĩà¦ķà¦ķ":9312,"à¦¨à¦Ĩà¦ĩà¦ª":9313,"à¦¨à¦ľà¦Ļ":9314,"à¦ıà¦®à¦¨à¦ľ":9315,"à¦ķà¦¶à¦¨à¦¨":9316,"à§¨à§«à§«":9317,"à¦°à¦ĵà¦ªà¦°à¦ľ":9318,"à¦ªà¦¥à¦ļà¦²":9319,"à¦ķà¦ħà¦¬à¦ķ":9320,"à¦¬à¦°à¦ķà¦¨":9321,"à¦¯à¦¬à¦²à¦¤":9322,"à§Łà¦Ĺà¦£":9323,"à¦Łà¦Ĺà¦£à¦¨":9324,"à¦Ĺà¦Ĩà¦¸":9325,"à¦ĩà¦ıà¦ĩà¦¦":9326,"à¦ļà§Łà¦ķ":9327,"à¦·à¦ĵà¦®":9328,"à¦ĵà¦ıà¦Ĺ":9329,"à¦ĵà¦ĩà¦Ľ":9330,"à¦ĸà¦ķà¦«":9331,"à¦°à¦¬à¦ĩà¦®":9332,"à¦°à¦¹à¦¨à¦ķ":9333,"à¦ĺà¦°à¦¨":9334,"à¦¨à¦ªà¦°à¦¬":9335,"à¦¹à¦¤à¦ľ":9336,"à¦¨à¦Ĺà¦°à¦¶":9337,"à¦ħà¦¬à¦Ĺà¦¤":9338,"à¦Ĩà¦°à¦ĵà¦¤à¦¥":9339,"à¦¬à¦¹à¦¨à¦§à¦°":9340,"à¦¶à¦¹à¦°à¦¬":9341,"à¦®à¦°à¦«":9342,"à¦®à¦°à¦¤à¦ħà¦¬à¦¸":9343,"à§Łà¦Ĩà¦°à¦ķ":9344,"à¦¹à¦¨à¦¤à¦¬":9345,"à¦ľà¦¤à¦®à¦¹":9346,"à¦ĩà¦¬à¦²à¦¬":9347,"à¦ıà¦¡à¦¸":9348,"à¦·à§Łà¦¤":9349,"à¦·à¦Ĩà¦¦":9350,"à¦ĵà¦°à¦¨":9351,"à¦°à¦ķà¦¤à¦¦":9352,"à¦°à¦¶à¦¤à¦ķà¦°":9353,"à¦·à¦£à¦²":9354,"à¦Ńà¦¬à¦¤à¦¤":9355,"à§¨à§«à§©":9356,"à¦°à¦ĸà¦¬à¦°à¦¸à¦¬":9357,"à¦ķà¦ĸà¦¨à¦ķ":9358,"à¦²à¦¹à¦ķà¦®à¦¨":9359,"à¦ıà¦ķà¦ĩà¦°à¦ķà¦®":9360,"à¦ĩà¦®à¦¸à¦ħà¦«à¦ĩà¦¨":9361,"à¦īà¦¥à¦ĩà¦¸":9362,"à¦¯à¦¤à¦®à¦¸à¦¦à¦¸":9363,"à¦°à¦¸à¦¹à¦ľà¦īà¦ª":9364,"à¦¬à§İ":9365,"à¦®à¦²à¦¸":9366,"à¦²à¦ĩà¦°":9367,"à¦²à¦ħà¦¬à¦¶":9368,"à§Łà¦ļà¦²à¦ļ":9369,"à¦Ĩà¦°à¦Ĩà¦®à¦°":9370,"à¦·à¦®à¦¬":9371,"à¦°à¦¬à¦ļ":9372,"à¦«à¦²à¦ĺ":9373,"à§¨à§©à§Ń":9374,"à¦Ńà¦¬à¦ķà¦°à¦Ľ":9375,"à¦¨à¦ĩà¦ī":9376,"à¦®à¦Ľà¦¬":9377,"à¦²à¦ħà¦ª":9378,"à§Łà¦Ĩà¦§":9379,"à¦Ĺà¦Ńà¦¬à¦¨":9380,"à¦ĵà¦§à¦¨":9381,"à¦¡à¦°à¦®":9382,"à¦°à¦¸à§ľ":9383,"à¦¬à¦²à¦ıà¦¬":9384,"à¦ĩà¦¸à¦«":9385,"à§ªà§ªà§®":9386,"à¦ıà¦ĸà¦¨à¦¹":9387,"à¦ıà¦ĸà¦¨à¦ĵà¦¤":9388,"à¦¨à¦ıà¦ĩà¦¯":9389,"à¦ıà¦ĩà¦¸à¦°à¦ķ":9390,"à¦ıà¦ĩà¦ļà¦Ĩà¦ĩà¦Ń":9391,"à¦®à¦Ĩà¦°à¦¸":9392,"à¦°à¦ıà¦ĩà¦®à¦¨":9393,"à¦¨à¦ľà¦¨à¦Ĺà¦£":9394,"à¦¨à¦īà¦ĩà¦²":9395,"à¦ķà¦īà¦ªà¦ķ":9396,"à¦®à¦ıà¦Ń":9397,"à¦ªà¦Ĩà¦¨":9398,"à¦¦à¦«à¦°":9399,"à§Łà¦ıà¦¸à¦®à§Ł":9400,"à¦ľà¦ĵà¦¸à¦®":9401,"à¦·à¦ĺ":9402,"à¦§à¦Ĺà¦²":9403,"à¦°à¦ªà¦°à¦¢":9404,"à¦ľà¦¨à¦Ĺà¦°":9405,"à¦°à¦¨à§Łà¦¤":9406,"à¦¨à¦¤à¦¸à¦®":9407,"à¦®à¦¸à¦Ń":9408,"à¦°à¦ĩà¦ķà¦°":9409,"à¦ıà¦ĸà¦¨à¦«":9410,"à¦°à¦¸à¦®à§Łà¦¡":9411,"à¦ĩà¦¨à¦¸à¦¹":9412,"à¦°à¦ıà¦ķà¦®à¦¹":9413,"à¦¨à¦°à¦ª":9414,"à¦¤à¦ĩà¦¬à¦¨":9415,"à¦¤à¦«à¦°":9416,"à¦®à¦¶à¦¬":9417,"à¦²à§Łà¦¦":9418,"à¦²à¦īà§İà¦ª":9419,"à¦ĵà¦ĵà¦¯":9420,"à¦ĵà¦ħà¦¬à¦¶":9421,"à¦¡à¦§":9422,"à¦«à¦°à¦ľ":9423,"à¦ıà¦ķà¦ıà¦ķà¦Ł":9424,"à¦ľà¦¨à¦¸à¦¦à¦¸":9425,"à¦ĩà¦¨à¦ħà¦¨":9426,"à¦¨à¦ªà§Ł":9427,"à¦īà¦¨à¦¦":9428,"à¦®à¦¦à¦«":9429,"à¦Ĺà¦¤à¦¤à¦¥":9430,"à¦¨à¦ĵà¦ıà¦ķà¦Ł":9431,"à¦ľà¦²à¦¦à¦¸":9432,"à¦¯à¦Łà¦¨à¦¬":9433,"à§©à§©à§«":9434,"à¦°à¦ıà¦ķà¦¬à¦Ľ":9435,"à¦¬à§Łà¦ķà¦°":9436,"à§Łà¦¸à¦¬à¦ļ":9437,"à¦Łà¦¸à¦Ń":9438,"à¦ĵà¦Ĩà¦ľ":9439,"à¦°à¦ķà¦ĵà¦¬":9440,"à¦°à¦¨à¦²":9441,"à¦¨à¦¸à¦¤à¦°":9442,"à¦Ĩà¦²à¦¸":9443,"à¦°à¦Ĺà¦¤à¦ķ":9444,"à¦°à¦ĩà¦īà¦ľ":9445,"à¦°à¦ĸà¦²":9446,"à§Łà¦ķà¦«":9447,"à¦®à¦²à¦Ĺ":9448,"à¦¸à¦ĵà¦¤":9449,"à¦¯à¦ĩà¦²":9450,"à¦¹à¦ķà¦®":9451,"à¦ľà¦«à¦°":9452,"à¦ĵà¦ıà¦°à¦¬":9453,"à¦¹à¦²à¦ıà¦ķà¦Ł":9454,"à¦ļà¦²à¦ķà¦°à¦¤":9455,"à¦¨à¦Ĩà¦Ļ":9456,"à¦¨à¦ĵà¦°à¦«":9457,"à¦¸à¦®à§Łà¦®à¦¤":9458,"à¦²à§Łà¦¹":9459,"à¦²à¦¥à¦ķ":9460,"à¦²à¦ļà¦¤":9461,"à¦°à¦¬à¦Ľà¦°à¦§à¦°":9462,"à¦°à¦Ĺà¦łà¦¨à¦ķà¦°":9463,"à¦¦à¦¶à¦¨":9464,"à¦¯à¦Ĩà¦ĩà¦¨à¦Ĩà¦¦":9465,"à§Łà¦Ĩà¦¸à¦¬":9466,"à¦ľà¦¤à¦²":9467,"à¦¶à¦®à¦¬":9468,"à¦¶à¦ıà§Ł":9469,"à¦·à¦°à¦¬":9470,"à¦·à¦ħà¦®":9471,"à¦ĵà¦²à¦ķ":9472,"à¦ĵà¦ĺà¦Ł":9473,"à¦ľà¦¨à¦¹à§Ł":9474,"à¦°à¦ľà¦Ń":9475,"à¦¬à¦¨à¦®à¦¨":9476,"à¦°à¦īà§ľ":9477,"à§Łà¦¨à¦Ĺà¦°":9478,"à¦ķà¦Łà¦¤à¦®à¦ª":9479,"à¦ıà¦¸à¦ªà¦°":9480,"à¦ĵà¦¯à¦¥":9481,"à¦²à¦¸à¦¡":9482,"à¦¬à¦ķà¦ļ":9483,"à¦°à¦®à¦¤à¦ıà¦ķà¦Ł":9484,"à¦¨à¦¹à¦ķ":9485,"à¦°à¦¥à¦®à¦®à¦¹":9486,"à¦¨à¦ıà¦ĩà¦Ĺ":9487,"à¦¯à¦Łà¦ķà¦¬":9488,"à§§à§¦à§¦à§¦à§¦":9489,"à¦¸à¦īà¦¤":9490,"à¦ªà¦ľà§Ł":9491,"à§Łà¦ıà¦ªà¦°":9492,"à¦¶à¦ľà¦¨":9493,"à¦§à¦ĵ":9494,"à¦ĵà¦«à¦°":9495,"à¦°à¦ªà¦°à¦Ĩà¦°":9496,"à¦¬à¦²à¦Ĩà¦²":9497,"à¦°à¦ľà¦¨à¦¤":9498,"à¦°à¦ļà¦ķà¦°":9499,"à§ªà§§à§©":9500,"à¦Łà¦¨à¦Ń":9501,"à¦¨à¦Ĩà¦¬à¦°":9502,"à¦ķà¦¦à¦¶à¦ķ":9503,"à§§à§¯à§¬à§Ń":9504,"à§§à§®à§¨à§¦à§¨à§§":9505,"à¦ıà¦ķà¦ľà¦¨à¦ľ":9506,"à¦Ńà¦¬à¦¯":9507,"à§¨à§«à§®":9508,"à¦Ĩà§Łà¦ķà¦°à¦¤":9509,"à¦°à¦Ķà¦·à¦§":9510,"à¦ķà¦Ĳà¦¤":9511,"à¦¬à¦ķà¦°à¦²":9512,"à¦¬à¦ľà¦¨à¦¸":9513,"à¦¤à¦°à¦ĩà¦īà¦¨":9514,"à¦¯à¦Ĩà¦°à¦ĵ":9515,"à¦ľà¦Ĩà¦°":9516,"à¦ľà§Łà¦¤":9517,"à¦Ĺà¦¸à¦°":9518,"à¦·à¦Ĺà¦¤":9519,"à¦ľà¦¨à¦¸à¦Ń":9520,"à¦¹à§Łà¦Ĩà¦®à¦°":9521,"à¦°à¦Ĺà¦ľ":9522,"à¦°à¦Ĺà¦£à¦¸":9523,"à¦¤à¦ķà¦¶":9524,"à¦°à¦īà¦ªà¦²à¦ķ":9525,"à¦¬à¦¦à¦®":9526,"à¦Īà¦«à¦¹":9527,"à¦¨à¦«à¦ķ":9528,"à¦¨à¦ªà¦°à¦¦":9529,"à¦¤à¦Ĩà¦°à¦®":9530,"à¦²à¦¹à§Łà¦¤":9531,"à¦¦à¦ľà§Ł":9532,"à¦ĩà¦Ĺà¦¤":9533,"à¦·à§Łà¦ª":9534,"à¦§à¦¨à¦ľ":9535,"à§ľà¦ķà¦®":9536,"à¦°à¦ħà¦¬à¦®":9537,"à¦²à¦ķà¦®à¦¨":9538,"à¦²à¦ķà¦ĸà¦¨":9539,"à§¨à§¦à§¬":9540,"à¦ļà¦¨à¦ĺà¦¡":9541,"à¦¨à¦Ĩà¦«à¦°":9542,"à¦ĩà¦ªà¦¸":9543,"à§Łà¦®à¦ķà¦°":9544,"à¦¨à¦ĵà¦¤à¦¥":9545,"à¦ķà¦ļà¦ķà¦°":9546,"à¦łà¦ķà¦ħà¦¨":9547,"à§Łà¦°à¦Ĩà¦ĩà¦Ń":9548,"à¦ķà¦ıà¦Ĺ":9549,"à¦ķà¦ħà¦¥à¦¬":9550,"à¦®à¦ļà¦²":9551,"à¦®à¦ĵà¦Ĺ":9552,"à¦ªà¦ı":9553,"à¦ªà¦ıà¦ķ":9554,"à¦ľà¦®à¦°":9555,"à¦·à¦®à¦ķà¦°":9556,"à¦ıà¦ĩà¦ķà¦®":9557,"à¦¹à¦¤à¦ķà¦°à¦¤":9558,"à¦°à¦¸à¦®à¦¬":9559,"à¦¸à¦¨à¦ıà¦¬":9560,"à¦Ĺà¦²à¦ħ":9561,"à¦ľà¦®à¦¡":9562,"à¦ıà¦ĸà¦¨à¦Ĩà¦®à¦°":9563,"à¦¸à¦¦à¦¬":9564,"à¦Ĩà¦¹à¦¤à¦¬":9565,"à¦¯à¦ĸà¦¨à¦¯":9566,"à§§à§¨à§¦à§«":9567,"à¦¬à¦°à¦Ĩà¦ľ":9568,"à¦¤à¦ıà¦ķà¦ª":9569,"à¦®à¦¬à¦²à¦¤":9570,"à§Łà¦ļà¦²à¦Ľ":9571,"à¦Łà¦īà¦ļ":9572,"à¦ĵà¦ĩà¦¸à¦®":9573,"à¦°à¦¬à¦ª":9574,"à¦°à¦īà¦¹":9575,"à§§à§¯à§ª":9576,"à¦ıà¦ĸà¦¨à¦ĵà¦ľ":9577,"à¦ıà¦ķà¦ľà¦¨à¦ļ":9578,"à¦¯à¦¤à¦®à¦¹":9579,"à¦ķà¦°à¦«":9580,"à¦¸à¦¸à¦¨":9581,"à¦Łà¦°à¦Ł":9582,"à¦Ľà¦¦à¦¹":9583,"à¦§à¦°à¦ĩà¦²":9584,"à¦¬à¦²à¦²à¦¸":9585,"à¦°à¦ļà¦¬":9586,"à¦°à¦ĵà¦Ĩà¦®":9587,"à¦¹à¦¤à¦¯":9588,"à¦²à¦¤à¦ħà¦¬à¦®":9589,"à¦ĵà¦¸à¦¦à¦°à¦ª":9590,"à¦ĵà¦ªà¦¶":9591,"à¦īà¦ľà¦¡à¦Łà¦ķà¦®":9592,"à§Łà¦Ĺà¦¤à¦ķ":9593,"à¦¤à¦²à¦ĵà¦ľà¦²":9594,"à¦¶à¦Ĺà¦¡":9595,"à¦Īà¦¦à¦ĸ":9596,"à¦¨à¦ıà¦ķà¦ªà¦°":9597,"à¦¸à§ľà¦ķà¦¬":9598,"à¦īà¦Ńà§Łà¦ķ":9599,"à¦¯à¦Łà¦¨à¦®à¦¨":9600,"à¦°à¦¶à¦ªà¦¥à¦Ĺ":9601,"à¦¬à¦Ĩà¦ķ":9602,"à¦¤à¦Ĺà¦£":9603,"à§Łà¦ĵà¦Ń":9604,"à¦Łà¦ł":9605,"à¦Ĺà¦ĩà¦¨":9606,"à¦ĩà¦ķà¦Ł":9607,"à¦Ĩà¦¤à¦¸":9608,"à¦ıà¦°à¦īà¦ª":9609,"à¦£à¦ļà¦°":9610,"à¦°à¦¦à¦«":9611,"à¦°à¦ħà¦ªà¦ķà¦°":9612,"à¦°à¦¯à¦Ľ":9613,"à¦Łà¦¨à¦ĵà¦Ĺ":9614,"à¦¶à¦ķà¦ıà¦¸":9615,"à¦ħà¦¬à¦ĩà¦¨":9616,"à¦²à¦ªà¦¶":9617,"à¦ıà¦®à¦¨à¦¸à¦®à§Ł":9618,"à¦¸à¦¦à¦°à¦¨":9619,"à¦īà¦®à¦°à¦ĩà¦¬à¦¨":9620,"à¦īà¦¡à¦¬à¦²":9621,"à¦ļà¦°à¦®à¦Ń":9622,"à¦¸à¦ªà§ľ":9623,"à¦®à§Łà¦¬":9624,"à¦®à¦«à¦¸":9625,"à¦¯à¦ıà¦¨":9626,"à¦¶à¦¤à¦°":9627,"à¦·à¦¹à¦ĵà¦¯":9628,"à¦§à¦ħà¦Ń":9629,"à¦ĵà¦¹à¦²":9630,"à¦łà¦¸à¦°à¦ķ":9631,"à¦°à¦Ĩà¦īà¦Ł":9632,"à¦¹à§Łà¦Ĩà¦²":9633,"à¦¨à¦ªà¦¦à¦ª":9634,"à§©à§§à§«":9635,"à¦¦à¦ķà¦«":9636,"à¦¤à¦®à¦¤à¦¬":9637,"à§Łà¦Ńà§Ł":9638,"à¦°à¦ıà¦ĸà¦¨à¦ķ":9639,"à§Łà¦īà¦ªà¦¸à¦®":9640,"à¦¨à¦Ī":9641,"à¦¬à¦¹à¦ļ":9642,"à¦¯à¦Īà¦«":9643,"à§Łà¦²à¦ķ":9644,"à¦ıà¦¹à¦¤":9645,"à¦ıà¦¨à¦Ĩà¦°à¦¬":9646,"à¦§à¦¨à¦Ł":9647,"à¦¡à¦ıà¦¨":9648,"à¦īà¦ī":9649,"à¦ľà¦¨à¦¬à¦²à¦¨":9650,"à¦°à¦ĵà¦¬à¦¨":9651,"à¦°à¦Ľà¦¨":9652,"à§¬à§«à§¦":9653,"à¦¨à¦¦à¦²à¦Ł":9654,"à¦ķà¦¤à¦ª":9655,"à¦¢à¦²":9656,"à¦ĵà¦ķà§Ł":9657,"à§Łà¦ĵà¦Ĳà¦¤":9658,"à¦¯à¦ħà¦¬":9659,"à¦¯à¦¶à¦¸":9660,"à¦¯à§İà¦¨":9661,"à§Łà¦°à¦¯":9662,"à¦ĩà¦¦à¦ķ":9663,"à¦ĩà¦ĵà¦¸":9664,"à¦§à¦ĵà¦¦":9665,"à¦ĵà¦ľà¦¬":9666,"à¦°à¦®à¦ħà¦¨":9667,"à§¦à§¬à§¦":9668,"à¦ıà¦ķà¦¨à¦¤":9669,"à¦®à¦¨à¦Ĩà¦ªà¦¨":9670,"à¦¹à§Łà¦¬à¦°":9671,"à¦°à¦ĵà¦ħà¦Ń":9672,"à¦¶à¦¨à¦ħà¦«":9673,"à¦ķà¦®à¦§":9674,"à§Ńà§©à§Ń":9675,"à¦°à¦ĩà¦¡":9676,"à¦¸à¦¨à¦Ĺ":9677,"à¦¶à¦ķà¦¥":9678,"à¦ĸà¦¬à¦°à¦¤":9679,"à§¨à§ªà§®":9680,"à¦°à¦ĵà¦ªà¦°à¦°":9681,"à¦²à¦Ĩà¦®à¦²":9682,"à¦Ķà¦·à¦§à¦¬":9683,"à¦¨à¦¯à¦¨":9684,"à¦ķà¦°à¦ħà¦¬à¦¸":9685,"à¦¸à¦ıà¦ª":9686,"à§Łà¦ľà¦¨à¦ª":9687,"à¦ľà¦°à§Ł":9688,"à¦Ĺà¦Ĩ":9689,"à¦ļà¦®à¦¸":9690,"à¦ĵà¦ıà¦ĩà¦¸":9691,"à¦łà¦¸à¦®":9692,"à¦¬à¦¸à¦¹à¦ķ":9693,"à¦ĩà¦¸à¦ł":9694,"à¦ıà¦ĩà¦ħà¦¸":9695,"à¦¶à¦¨à¦§":9696,"à¦¤à¦¨à¦®à¦¨":9697,"à¦°à¦ĩà¦®à¦°":9698,"à¦¦à¦¨à¦¥":9699,"à¦Ĩà¦Ĺà¦®à¦¨à¦ķà¦°":9700,"à¦ĩà¦ľà¦¡":9701,"à¦¸à¦¦à¦Ńà¦¬à¦¨":9702,"à¦²à¦ľà¦¬à¦¸":9703,"à¦ķà¦ľà¦Ł":9704,"à¦¨à¦ıà¦ķà¦ĩà¦¸à¦Ļ":9705,"à¦°à¦ĸà¦¬à¦°à¦ļ":9706,"à¦·à§Łà¦ķà¦ķà¦°":9707,"à§Łà¦ıà¦ķà¦¹":9708,"à¦°à¦ıà¦ĩà¦ļà¦¡":9709,"à¦ľà¦¸à¦¦à¦°à¦īà¦ªà¦ľ":9710,"à¦¬à¦¶à¦¤à¦¬à¦°":9711,"à¦¤à¦īà¦ķ":9712,"à§Łà¦ħà¦«":9713,"à¦ĩà¦²à¦«à¦Ł":9714,"à¦¦à¦ķà¦ħ":9715,"à¦®à¦¦à¦Ĩà¦®":9716,"à§§à§«à§¬":9717,"à¦¨à¦ıà¦ĩà¦ħà¦Ń":9718,"à¦°à¦Ŀà¦°":9719,"à¦¯à¦ľà¦¨à¦ķà¦Ń":9720,"à¦·à¦£à¦ļà¦®à¦¤":9721,"à¦ķà¦ĩà¦īà¦°":9722,"à¦¦à¦²à¦¤":9723,"à¦¯à¦ħà¦¶":9724,"à¦Łà¦īà¦²":9725,"à¦¶à¦²à¦¨":9726,"à¦ĩà¦ıà¦°à¦¬":9727,"à¦Ńà¦¬à¦Ľ":9728,"à¦§à¦ķà¦¦":9729,"à¦£à¦ł":9730,"à¦°à¦ıà¦ķà¦²":9731,"à¦°à¦ĩà¦¨à¦ľ":9732,"à¦°à¦«à¦¸":9733,"à¦Łà¦¨à¦¥":9734,"à¦®à¦¹à¦ķ":9735,"à¦®à¦¦à¦ĩà¦īà¦¨":9736,"à¦ĩà¦Łà¦ľ":9737,"à§§à§¯à§¬à§¨":9738,"à§¨à§¦à§¨à§§à§§à§§à§¨":9739,"à¦°à¦īà¦ªà¦°à¦Ĩà¦²":9740,"à¦ªà¦¸à¦¡":9741,"à§¨à§¦à§§à§©à§¨à§¦à§§à§ªà§¨à§¦à§§à§«":9742,"à¦ªà¦Ńà¦Ł":9743,"à¦¤à¦īà¦ĩà¦ķ":9744,"à¦¤à¦ļà¦²à¦Ľ":9745,"à¦¦à¦¶à¦¸":9746,"à¦¹à¦ħà¦°":9747,"à¦Ĩà¦ĩà¦¦":9748,"à¦Ĩà¦¯à¦°":9749,"à¦¸à¦®à¦¶":9750,"à¦¬à¦²à¦²à¦¨":9751,"à¦°à¦¦à¦²à¦ķ":9752,"à¦ķà¦²à¦ķà¦°à¦¤":9753,"à¦¤à¦¨à¦¹à¦¬":9754,"à¦Ĩà¦°à¦ĵà¦¯":9755,"à¦ĵà¦¸à¦®à¦°":9756,"à¦°à¦ħà¦¬à¦ķà¦®":9757,"à¦¬à¦°à¦Ĩà¦²":9758,"à¦ªà§İà¦¸":9759,"à¦¦à¦°à¦¯":9760,"à¦¦à¦°à¦Ł":9761,"à§Łà¦®à¦ª":9762,"à§Łà¦īà¦ļ":9763,"à¦Łà¦ħà¦¸":9764,"à¦Łà¦¬à¦²à¦²":9765,"à¦Ĺà¦Ĩà¦²":9766,"à¦ĸà¦ªà¦¤":9767,"à¦°à¦ķà¦¬à¦°à¦¸":9768,"à¦°à¦ªà¦°à¦ĵà¦¯":9769,"à¦ĺà¦°à¦Ĺ":9770,"à¦°à¦ĩà¦Ł":9771,"à¦¦à¦¨à¦ĩà¦¸à¦²":9772,"à¦¸à¦¹à¦Ĩà¦¹à¦¤":9773,"à¦°à¦Łà¦Ļ":9774,"à¦ıà¦ķà¦ľà¦¨à¦¯":9775,"à¦Ńà¦¬à¦¤à¦¬":9776,"à§¨à§©à§«":9777,"à¦°à¦ªà¦¦à¦ļ":9778,"à§¦à§¨à§¨à§¨à§©à§©à§«à§¯":9779,"à¦ķà¦¨à¦®":9780,"à¦¤à¦ıà¦ĩà¦ª":9781,"à¦¤à¦īà§İà¦ª":9782,"à¦®à§Łà¦¸":9783,"à¦ªà¦¬à¦¸":9784,"à¦¦à¦ĵà¦¤":9785,"à¦ķà¦°à¦¬à¦²":9786,"à¦«à¦²à¦¹":9787,"à¦¬à¦¨à¦²":9788,"à¦ĺà¦¤à¦®":9789,"à¦°à¦Ĺà¦ķ":9790,"à¦¹à¦²à¦Ĺ":9791,"à§İà¦ĵà§Ł":9792,"à¦īà¦²à¦Ĩà¦īà§Ł":9793,"à¦Īà¦¦à¦ª":9794,"à¦·à¦ķà¦Ń":9795,"à¦·à¦ķà¦°à¦Ľ":9796,"à¦ıà¦®à¦Ł":9797,"à§§à§«à§¨":9798,"à¦ıà¦ķà¦¦à¦¶à¦ķ":9799,"à¦¤à¦ĸà¦¨à¦°":9800,"à§¨à§¦à§§à§®à§§à§¯":9801,"à¦¹à¦¯à¦°à¦¤à¦°à¦¹à¦ķ":9802,"à¦²à¦Łà¦ª":9803,"à¦¯à¦¹à§Łà¦¤":9804,"à¦ľà¦¹à¦¯":9805,"à¦·à¦¯à¦¦":9806,"à¦¥à¦ħà¦¬à¦¸":9807,"à¦°à¦¸à¦¬à¦°":9808,"à¦«à¦Łà¦Ĺ":9809,"à¦ĩà¦¸à¦¹à¦ľ":9810,"à¦®à¦¸à¦²à¦ķ":9811,"à¦ĩà¦²à¦ªà¦Ł":9812,"à¦°à¦ĩà¦¸à¦®":9813,"à¦²à¦¤à¦ĵà¦Ĩà¦®à¦²":9814,"à¦®à¦²à¦¹":9815,"à¦Ĩà¦ľà¦°à¦¬":9816,"à¦īà¦ľà¦¦":9817,"à¦ĩà¦«à¦ķ":9818,"à¦ĩà¦¡à¦¶":9819,"à¦¨à¦ıà¦ĩà¦ļà¦¡":9820,"à¦ªà¦¥à¦¹":9821,"à¦°à¦¸à¦®à§Łà¦Ľ":9822,"à¦°à¦¸à¦¹à¦ħà¦¨":9823,"à¦°à¦ľà¦¨à¦ķà¦ķ":9824,"à¦®à¦²à¦¬":9825,"à¦Ĩà¦ĸà¦²":9826,"à¦ıà¦°à¦īà¦¤":9827,"à¦ĵà¦ĩà¦²":9828,"à¦īà¦®à¦¨":9829,"à¦¤à¦¬à¦¦à¦²":9830,"à¦°à¦«à¦¹":9831,"à¦¨à¦ıà¦¸à¦®":9832,"à¦Ĺà¦¤à¦ħà¦°":9833,"à¦¤à¦ªà¦°à¦¬à¦°":9834,"à¦¬à¦¹à¦¨à¦¸":9835,"à¦ķà¦Ńà¦°":9836,"à¦·à¦ĸà¦¬à¦°à¦Ń":9837,"à¦Ĩà¦ĩà¦¸à¦ķ":9838,"à¦¬à¦°à¦®à¦Ļ":9839,"à¦°à¦¬à¦¦à¦²à¦Ĺ":9840,"à¦ķà¦Ĺà¦¨":9841,"à¦¤à¦§à¦¨":9842,"à¦¤à¦ħà¦¶":9843,"à¦²à¦¬à¦²à¦²":9844,"à¦²à¦ıà¦ĩà¦¸":9845,"à¦¦à¦°à¦ĸ":9846,"à§Łà¦°à¦¹":9847,"à¦ıà¦ıà¦ĩà¦ļ":9848,"à¦ĵà¦ıà¦ĩà¦¬":9849,"à¦°à¦¤à¦Ľ":9850,"à¦¬à¦²à¦¥":9851,"à§¨à§¦à§ª":9852,"à¦¨à¦¦à¦¶à¦ķ":9853,"à¦°à¦²à¦¸à¦Ń":9854,"à¦ļà¦¨à¦¹à¦¬":9855,"à¦¨à¦Ĩà¦°à¦¦":9856,"à¦¨à¦Ĩà¦°à¦ľ":9857,"à¦īà¦ľà¦ķà¦°":9858,"à§§à§¬à§®":9859,"à¦ªà¦¥à¦Ĺ":9860,"à¦¿à§į":9861,"à¦²à¦ĩà¦¨à¦¸":9862,"à¦¦à¦Ĺà¦²":9863,"à¦Łà¦¤à¦¬":9864,"à¦Łà¦Ĺà¦¤":9865,"à¦¶à¦ħà¦¬":9866,"à¦ĩà¦®à¦¸à¦ľ":9867,"à¦Ĩà¦°à¦ħ":9868,"à¦ıà¦Ļ":9869,"à¦·à¦¤à¦¨":9870,"à¦°à¦īà¦Ńà¦¯":9871,"à¦°à¦Ľà¦ĵà§Ł":9872,"à¦Łà¦¨à¦Ĺà¦°":9873,"à¦²à¦¸à¦ħ":9874,"à¦Ĩà¦ľà¦Ĩà¦®à¦°":9875,"à¦ªà¦ķà¦ªà¦°":9876,"à¦ľà¦¶à¦¹à¦°":9877,"à¦¯à¦ķà¦°à¦ķ":9878,"à¦ıà¦¨à¦ıà¦¸":9879,"à¦ĸà¦¸à§ľ":9880,"à¦²à¦¸à¦¹à¦Ĺ":9881,"à§¨à§¦à§§à§©à§¨à§¦à§§à§ªà§¨à§¦à§§à§«à§¨à§¦à§§à§¬à§¨à§¦à§§à§Ńà§¨à§¦à§§à§®à§¨à§¦à§§à§¯à§¨à§¦à§¨à§¦à§¨à§¦à§¨à§§":9882,"à¦¬à¦ĵà¦¯":9883,"à¦¬à¦ħà¦¬à¦¸":9884,"à¦¬à§İà¦¸":9885,"à¦ªà¦¬à¦°":9886,"à¦¯à¦ıà¦Ĺ":9887,"à¦Ĩà¦¹à¦¯":9888,"à¦Ĩà¦ªà¦¸":9889,"à¦ıà¦°à¦īà¦ªà¦°":9890,"à¦°à¦ªà¦°à¦¯à¦¦":9891,"à¦°à¦ľà¦¬à¦®":9892,"à¦¬à¦¨à¦¸à¦Ļ":9893,"à¦¨à¦¬à¦ĩà§Ł":9894,"à¦²à¦ķà¦ľà¦¬":9895,"à¦¨à¦¨à¦ķà¦°":9896,"à¦¨à¦®à¦¦":9897,"à¦Ĺà¦¤à¦ħà¦¨":9898,"à§§à§Ńà§¨à§¦à§¨à§§":9899,"à¦ļà¦ķà¦ļà¦ķ":9900,"à¦ıà¦«à¦ļ":9901,"à¦ĩà¦Ľà¦²":9902,"à¦°à¦ªà¦¥à¦ª":9903,"à¦Łà¦¬à¦²à¦®":9904,"à¦¯à¦ĸà¦¨à¦°":9905,"à¦ķà¦ľà¦¨à¦¯":9906,"à¦¯à¦¤à¦®à¦¶":9907,"à¦¶à¦ĵà¦ķà¦¤":9908,"à¦®à¦ıà¦°à¦¸":9909,"à¦²à¦ħà¦¨à¦²":9910,"à¦ªà¦Łà¦¦":9911,"à¦¯à¦ıà¦ĩà¦¸":9912,"à¦ľà¦ł":9913,"à¦£à¦ķà¦°à¦²":9914,"à¦Ĩà¦®à¦²à¦ķ":9915,"à¦Ļà¦Ľ":9916,"à¦°à¦ıà¦«":9917,"à¦ıà¦ĩà¦¶à¦¬":9918,"à§İà¦īà¦¦":9919,"à¦²à¦¨à¦¹":9920,"à¦°à¦Ľà¦¤":9921,"à¦ªà§ľà¦Ĺ":9922,"à¦ĸà¦¬à¦°à¦ļ":9923,"à¦²à¦¹à¦ķà¦¹":9924,"à¦°à¦¸à¦¬à¦ķà¦°":9925,"à¦¸à¦ķà¦²à¦¦":9926,"à¦ĵà¦«à¦¯":9927,"à¦ķà¦īà§İà¦ª":9928,"à¦²à¦ĺà¦°":9929,"à§Łà¦ķà¦Ł":9930,"à§Łà¦ıà¦ĩà¦¦":9931,"à¦¹à¦®à¦¨":9932,"à¦Ĺà¦ħà¦Ń":9933,"à¦Ľà§Łà¦ľà¦¨":9934,"à¦¡à¦Ĩà¦ķ":9935,"à¦£à¦ħà¦¬à¦¦":9936,"à¦ıà¦¸à¦ıà¦®à¦¸":9937,"à¦ķà¦¸à¦²":9938,"à¦¨à¦ħà¦¥à¦ļ":9939,"à¦ıà¦¸à¦®à§Łà¦®":9940,"à¦Łà¦ħà¦«à¦«":9941,"à¦®à¦°à¦¤à¦Ľ":9942,"à¦°à¦°à¦¥":9943,"à¦²à¦Ĩà¦ĩ":9944,"à¦¯à¦ıà¦¤":9945,"à§Łà¦ľà§Ł":9946,"à¦Łà¦ķà¦¦":9947,"à¦ľà¦Ŀ":9948,"à¦¶à¦Ĩà¦ªà¦¨":9949,"à¦Ńà§Łà¦¦":9950,"à¦°à¦¸à¦¦à¦°à¦ķ":9951,"à¦°à¦ªà¦¥à¦¨":9952,"à§¨à§¨à§¦à§§à§Ń":9953,"à¦°à¦¤à¦ıà¦¬":9954,"à¦ĺà¦°à¦Ľ":9955,"à¦²à¦¨à¦ĸ":9956,"à¦¯à¦ķà§Ł":9957,"à¦²à¦®à§Łà¦®à¦¨à¦¸":9958,"à¦¨à¦Ĩà¦ķà¦°":9959,"à§Łà¦ķà¦²à¦ķ":9960,"à¦ķà¦¤à¦²":9961,"à§§à§¯à§¨":9962,"à§§à§Ńà§¨":9963,"à¦°à¦¸à¦¬à¦ķà¦Ł":9964,"à¦¶à¦Ĺà§ľà¦¤":9965,"à¦¨à§Łà¦¨à¦¸à¦®":9966,"à¦°à¦¸à¦®à§Łà¦®à¦¹":9967,"à¦Ĩà¦¹à¦¤à¦ķà¦°":9968,"à§Ŀà¦ķà¦°":9969,"à¦ªà¦¦à¦¸à§ľ":9970,"à¦¬à¦ļà¦Ł":9971,"à¦²à¦ıà¦ľ":9972,"à¦ľà§Łà¦Ĺ":9973,"à¦¶à¦ĩà¦¸à¦²":9974,"à¦¶à¦¨à¦ķà¦°à¦Ľ":9975,"à¦§à¦Ĩà¦ĩà¦¨":9976,"à¦ĵà¦¤à¦°":9977,"à¦¸à¦¹à¦ľà¦¬":9978,"à¦ķà¦¨à¦¡":9979,"à¦¨à¦ıà¦°à¦¶":9980,"à¦°à¦®à¦¤à¦²":9981,"à¦¦à¦²à¦Ń":9982,"à¦ĩà¦Ńà¦¦":9983,"à¦¤à¦¹à§Łà¦ľ":9984,"à¦²à¦¦à¦¤":9985,"à¦°à¦¥à¦®à¦ħ":9986,"à¦°à¦ıà¦ķà¦ĩà¦¸à¦®à§Ł":9987,"à¦¤à¦°à¦£à¦ħà¦¨":9988,"à¦°à¦Ĩà¦°à¦ĵà¦ķ":9989,"à¦¸à¦īà¦ª":9990,"à¦¦à¦°à¦¶":9991,"à¦¦à¦°à¦°":9992,"à¦¦à¦¹à¦ļ":9993,"à§Łà¦ĵà¦¯":9994,"à¦Łà¦²à¦¨":9995,"à¦Ĺà¦ľà¦¬":9996,"à¦°à¦¹à¦¥":9997,"à¦¹à§Łà¦¯à¦¦":9998,"à¦ŀà¦ķ":9999,"à¦²à¦ķà¦«":10000,"à¦®à¦¸à¦Ļ":10001,"à¦°à¦«à¦¨":10002,"à¦¨à¦Ĩà¦¸à¦¬":10003,"à§Łà¦ķà¦ł":10004,"à¦¨à¦²à¦ľ":10005,"à§¨à§¨à§¨":10006,"à¦ıà¦¸à¦¬à¦ľ":10007,"à¦°à¦¬à§Łà¦¸à¦¸":10008,"à§Łà¦Ĩà¦ĺ":10009,"à¦ľà¦¸à¦¦à¦°à¦¶":10010,"à¦¨à¦ĺà¦£":10011,"à¦¬à¦ĩà¦¡":10012,"à¦¤à¦²à¦ķà¦¡":10013,"à¦®à¦ıà¦ķà¦¦":10014,"à¦¯à¦ıà¦ĩà¦ª":10015,"à¦ľà¦ĵà¦®":10016,"à¦¶à¦¤à¦¦":10017,"à¦ĩà¦ħà¦ľ":10018,"à¦ĸà¦°à¦¬":10019,"à¦ľà¦¨à¦°à§Ł":10020,"à¦¨à¦¬à¦¶":10021,"à¦°à¦ıà¦ĩà¦¹":10022,"à¦¯à¦ķà¦¤à¦Ł":10023,"à¦¤à¦¨à¦·":10024,"à¦¦à¦¨à¦Ĩà¦¨":10025,"à¦Ĩà¦ľà¦«":10026,"à¦¦à¦²à¦¦":10027,"à¦ıà¦®à¦¨à¦ħà¦Ń":10028,"à¦¬à§ľà¦ķà¦¥":10029,"à¦°à¦®à¦¹à§ľ":10030,"à¦¶à¦²à¦ĵà¦ª":10031,"à¦ĸà¦®à¦£":10032,"à¦¯à¦ĸà¦¨à¦Ń":10033,"à¦ķà¦ĸà¦¨à¦¬":10034,"à¦ħà¦¥à¦°":10035,"à§Ŀà¦Ń":10036,"à¦²à¦ıà¦®à¦¨à¦ķ":10037,"à¦ľà¦¹à¦ĵà§Ł":10038,"à¦ıà¦¹à¦¸":10039,"à¦ĵà¦ĩà¦ľ":10040,"à¦¡à¦²à¦«":10041,"à¦ħà¦ĸ":10042,"à¦«à¦īà¦²à¦ĩà§Ł":10043,"à¦°à¦£à¦¬à¦®":10044,"à¦¨à¦ķà¦ļ":10045,"à¦¸à¦¬à¦Ľ":10046,"à¦°à¦Ńà§Łà¦¦":10047,"à¦ķà¦Łà¦¯":10048,"à¦¸à¦¹à¦ľà¦¸":10049,"à§¨à§ªà§¨":10050,"à¦®à¦ľà¦²":10051,"à¦¸à¦«à¦°à¦ħà¦¬à¦¸":10052,"à¦¯à¦Łà¦¨à¦ª":10053,"à¦¦à¦ĩà¦¬à¦¨à¦¹":10054,"à¦¸à¦ħà¦¤":10055,"à¦¹à¦Ĩà¦Ľ":10056,"à¦ĩà¦ıà¦ĩà¦®":10057,"à¦ĵà¦¸à¦®à§Ł":10058,"à¦°à¦®à¦ıà¦¬":10059,"à¦łà¦Ĺà§ľ":10060,"à¦°à¦ıà§Ł":10061,"à¦°à¦ıà¦ĩà¦«":10062,"à§Łà¦¨à¦ķà¦°à¦¬":10063,"à¦īà¦ªà¦ķà¦®":10064,"à¦²à¦¬à¦¬":10065,"à¦°à¦«à¦ĸà¦°":10066,"à¦ķà¦¤à¦ĸ":10067,"à¦¬à¦ķà¦¸à¦®":10068,"à§§à§¯à§«à§®":10069,"à¦ħà¦¬à¦¤à¦°à¦£à¦ķà¦°":10070,"à¦Ĺà¦¤à¦ıà¦¬":10071,"à¦ªà¦¦à¦ħà¦°":10072,"à¦Ĺà¦łà¦¨à¦¸à¦Ń":10073,"à¦ıà¦ĩà¦ļà¦¸":10074,"à¦Łà¦¬à¦²à¦ª":10075,"à¦¨à¦Ĺà¦£à¦¤à¦¨":10076,"à¦¤à¦ĩà¦²":10077,"à¦¤à¦¯à¦¶":10078,"à¦¸à¦ķà¦¦à¦²":10079,"à¦²à¦Łà¦ķ":10080,"à¦²à¦ıà¦ķà¦¦":10081,"à¦²à¦ıà¦°":10082,"à¦¯à¦°à¦¸":10083,"à§Łà¦°à¦ĩà¦¬à¦¨":10084,"à§Łà¦ļà¦²à¦¤":10085,"à¦Łà¦°à¦¤":10086,"à¦¶à¦ħà¦®":10087,"à¦ħà¦¹à¦¨":10088,"à¦°à¦¬à§Łà¦¸à¦¬":10089,"à¦°à¦ªà¦°à¦ĵà¦¸":10090,"à¦°à¦¤à¦°à¦Ļ":10091,"à¦ıà¦ķà¦ĩà¦ľ":10092,"à¦¨à¦¤à¦Ĩà¦¬":10093,"à¦°à¦¶à¦®":10094,"à¦¨à¦¨à¦¨":10095,"à§Łà¦¨à¦ļ":10096,"à¦ĩà¦®à¦ķ":10097,"à¦¸à¦¹à¦ľà¦ª":10098,"à§§à§¯à§¬à§«":10099,"à¦Ĩà¦ľà¦¯":10100,"à¦ĩà¦ľà¦Ń":10101,"à¦ĩà¦Ńà¦¨":10102,"à¦¤à¦¹à¦ĩà¦¯":10103,"à¦Ĳà¦ĸ":10104,"à¦ľà¦¨à¦ķà¦ħà¦¬à¦¸":10105,"à¦ķà¦ĸà¦¨à¦ĵà¦¬":10106,"à¦«à¦°à¦¯à¦ķ":10107,"à¦ıà¦¸à¦ıà¦®à¦®":10108,"à¦°à¦Ĩà¦¨à¦ĸà¦¤à¦®":10109,"à¦ķà¦°à¦ĺà¦Łà¦¨":10110,"à¦ķà¦Ĩà¦¨à¦¨":10111,"à¦¤à¦īà¦ªà¦ľ":10112,"à¦ªà¦ħà¦¤":10113,"à§Łà¦ľà¦²":10114,"à¦Ĺà¦ĵà¦¯":10115,"à¦ĩà¦®à¦¨à¦ķ":10116,"à¦¡à¦Ĩà¦ĩà¦²":10117,"à¦°à¦¹à¦¨à¦ķà¦°à¦¤":10118,"à¦ıà¦ĩà¦¬à¦Ľà¦°":10119,"à§«à§§à§ª":10120,"à¦¸à¦¹à¦¹":10121,"à¦¨à¦Ĩà¦¦à¦°":10122,"à¦ķà¦¤à¦¦à¦¨":10123,"à¦¬à¦ķà¦°à¦Ľ":10124,"à¦ĩà¦ªà¦Ł":10125,"à¦¤à¦¹à¦ĩà§Ł":10126,"à¦¨à¦¸à¦®à¦¨":10127,"à¦ıà¦¸à¦¬à¦ĺà¦Łà¦¨":10128,"à§¨à§¬à§¬":10129,"à§¨à§¯à§«":10130,"à¦®à¦Ĩà¦ª":10131,"à¦¨à¦Ĩà¦²à¦®à¦Ĺ":10132,"à¦¦à¦ĩà¦¬à¦¨à¦¸":10133,"à¦īà§İà¦¸à¦¥":10134,"à¦¬à¦ļà¦¨":10135,"à¦¬à¦īà¦²":10136,"à¦²à¦ıà¦®":10137,"à¦¯à¦īà¦ł":10138,"à¦Ńà¦°à¦¦":10139,"à¦ħà¦¤à¦¨":10140,"à¦£à¦Ĩà¦ªà¦¨":10141,"à§¦à§ªà§¦":10142,"à¦łà¦¹à§Ł":10143,"à¦°à¦Ĩà¦ķà¦¸":10144,"à¦°à¦£à¦Ĩà¦²":10145,"à¦¨à¦¸à¦°à¦¦":10146,"à¦®à¦¤à¦ªà¦°":10147,"à¦ĩà¦²à¦ĩà¦īà¦¨":10148,"à¦¯à¦®à¦Ł":10149,"à¦ĩà¦Łà¦¶":10150,"à§¨à§§à§§":10151,"à¦°à¦īà¦ªà¦ķà¦®":10152,"à¦¯à¦¥à¦¸":10153,"à¦ªà¦¸à¦ıà¦¨":10154,"à¦°à¦¥à¦®à¦¦à¦«":10155,"à¦²à¦īà¦ļ":10156,"à¦ªà¦ªà§ľ":10157,"à¦ªà¦¸à¦¦":10158,"à§Łà¦¦à¦¸":10159,"à¦Łà¦Ĩà§Ł":10160,"à¦ĩà¦¶à¦¬":10161,"à¦Ĩà¦Łà¦ª":10162,"à¦ıà¦Ĩà¦¦":10163,"à¦·à§Łà¦®":10164,"à¦ĵà¦Ĺà¦°":10165,"à¦ĵà¦Ĩà¦ĩ":10166,"à¦°à¦¨à¦·":10167,"à¦°à¦Ĩà¦¸à¦¤":10168,"à¦°à¦¶à¦¤à¦¬à¦°":10169,"à¦¨à¦ķà¦¤à¦¦":10170,"à¦¨à¦ıà¦°à¦ľà¦¨":10171,"à¦¯à¦¸à¦¹à¦¯":10172,"à§§à§¨à§«à§¦":10173,"à¦°à¦ıà¦ķà¦ľà¦¨à¦¨":10174,"à¦¤à¦¹à¦ĩà¦¤":10175,"à§¨à§¨à§©":10176,"à¦¨à§Łà¦¨à¦ľ":10177,"à¦°à¦Ĩà¦¨à¦ħà¦¬à¦®":10178,"à¦²à¦Ĩà¦ĩà¦¸":10179,"à¦īà¦¬à¦Ń":10180,"à¦¨à¦°à¦£à¦¬":10181,"à¦Ĺà¦ıà¦¸":10182,"à¦Ńà§Łà¦ķà¦°":10183,"à¦¡à¦ĵà¦¬":10184,"à¦īà¦ĩà¦¦":10185,"à¦°à¦ªà¦°à¦ĵà¦¬":10186,"à§Ńà§§à§¨":10187,"à¦®à¦¤à¦ĸ":10188,"à¦·à¦£à¦ĸà¦¬à¦°à¦ĵà¦¬":10189,"à¦Łà¦¨à¦ĸ":10190,"à¦®à¦¦à¦ıà¦°à¦¶":10191,"à¦¨à¦¯à¦ĸà¦¨à¦¤":10192,"à¦¬à¦Ľà¦°à¦¹":10193,"à¦¤à¦Ľà§ľ":10194,"à¦²à¦¸à¦¹à¦¦":10195,"à¦ķà¦¤à¦¬à¦Ľà¦°à¦¬à§Łà¦¸":10196,"à¦ľà¦Ĺà¦łà¦¨":10197,"à¦ļà¦¶à¦¤":10198,"à¦£à¦ªà¦¦":10199,"à¦Ĩà¦®à¦¤":10200,"à¦°à¦ļà¦¶à¦®":10201,"à¦¹à¦¤à¦«":10202,"à¦°à¦ĩà¦¨à¦«":10203,"à¦¨à¦ıà¦°à¦«à¦²":10204,"à§§à§¯à§©":10205,"à§§à§¯à§ªà§ª":10206,"à§§à§¯à§¬à§®":10207,"à¦¬à¦¹à¦¨à¦®à¦¨":10208,"à¦¦à¦¨à¦®à¦¤":10209,"à¦¬à¦ĵà¦ľà§ľà¦¤":10210,"à¦ķà¦°à¦Ĩ":10211,"à¦ķà¦ĵà¦Ń":10212,"à¦®à¦ıà¦°à¦¨":10213,"à¦ªà¦ıà¦Ł":10214,"à¦¹à¦°à¦ªà¦°":10215,"à¦ľà¦°à¦ķ":10216,"à¦¶à¦ļà¦Ł":10217,"à¦Ĩà¦°à¦ĺ":10218,"à¦ļà¦ķà¦°à¦¤":10219,"à¦łà¦ļ":10220,"à¦¬à¦¨à¦«":10221,"à¦ªà¦¨à¦Ł":10222,"à¦°à¦ħà¦£":10223,"à¦Ŀà¦²à¦¸":10224,"à¦ķà¦¸à¦¹à¦ľ":10225,"à¦¨à¦Ĩà¦ŀ":10226,"à¦ķà¦¨à¦·":10227,"à¦ĩà¦¬à¦¨à¦ĸ":10228,"à¦¯à¦¤à¦Ĺ":10229,"à¦²à¦¹à¦ķà¦Ń":10230,"à¦ıà¦²à¦Ł":10231,"à¦§à¦¨à¦ĵà¦ª":10232,"à§§à§®à§¦à§¬à§¨à§¦à§§à§¯":10233,"à¦¨à¦ıà¦ĩà¦ľ":10234,"à¦¤à¦¨à¦¦à¦®à¦¨à¦Ł":10235,"à¦®à¦īà¦ļ":10236,"à¦ıà¦Ĩà§Ł":10237,"à¦§à¦¸à¦¨":10238,"à¦°à¦ªà¦¥à¦¬":10239,"à¦ıà¦ķà¦ĩà¦®":10240,"à¦łà¦ķà¦®":10241,"à¦¨à¦¬à¦ĩà¦Ł":10242,"à¦ĩà¦¨à¦ĸ":10243,"à¦°à¦¸à¦®à¦·":10244,"à¦¸à¦¹à¦¸à¦®":10245,"à¦¨à¦ıà¦§à¦°à¦¨":10246,"à§¨à§¦à§¨à§§à§§à§¨à§¦à§¦":10247,"à¦ªà¦¦à¦ıà¦¬":10248,"à¦Ĩà¦°à¦ĵà¦īà¦ªà¦¸":10249,"à¦°à¦¥à¦®à¦ħà¦¨à¦²":10250,"à¦ıà¦¸à¦¬à¦Ĺ":10251,"à§¨à§©à§ª":10252,"à¦ĵà¦ľà¦²à¦¬":10253,"à¦ıà¦«à¦ĩà¦īà¦ľ":10254,"à¦¨à¦ĩà¦¬à¦¨à¦¸":10255,"à¦°à¦Ĩà¦°à¦ĵà¦ªà¦¡":10256,"à¦°à¦ĭà¦£à¦¦":10257,"à¦ķà¦¨à¦¨":10258,"à¦ķà¦Ĩà¦«à¦Ĺ":10259,"à¦¸à¦ĩà¦ķà¦°":10260,"à¦²à¦ĩà¦²":10261,"à¦¦à§ľ":10262,"à¦Ĺà¦°à¦¨":10263,"à¦Ĩà§Łà¦ķ":10264,"à¦Ĩà¦¹à¦°":10265,"à¦Ĩà¦ªà§ľà¦¤":10266,"à¦Ńà¦ķà¦°à¦²":10267,"à§ľà¦¬à¦Ľà¦°à¦ª":10268,"à¦®à¦¨à¦ħà¦¨":10269,"à¦°à¦ıà¦ªà¦°":10270,"à¦¸à¦¬à¦¡":10271,"à¦¨à¦Ĩà¦°à¦¶":10272,"à¦²à¦¸à¦Ł":10273,"à¦°à§Łà¦®":10274,"à¦Ĩà¦°à¦ĵà¦®":10275,"à¦²à¦Ńà¦¯":10276,"à¦·à¦¦à¦¶":10277,"à§§à§ªà§¨":10278,"à¦¨à§Łà¦Ł":10279,"à¦¯à¦¥à¦ª":10280,"à¦ªà¦£à¦¢":10281,"à¦īà¦¡à¦¤":10282,"à¦ļà¦ªà¦¦à¦¸":10283,"à¦°à¦ķà¦®à¦²à¦Ĺà¦ŀ":10284,"à¦ķà¦«à¦²":10285,"à¦¤à¦°à¦¢":10286,"à¦²à¦°à¦¦":10287,"à¦¦à¦°à¦¸à¦®":10288,"à¦¯à¦Ĩà¦°à¦®":10289,"à¦Łà¦Ĩà¦ĩà¦¨":10290,"à¦Ĺà¦²à¦¹":10291,"à¦ļà¦¨à¦ªà¦°à¦¬à¦°":10292,"à¦§à¦¸à¦¤":10293,"à¦°à¦ªà¦¯":10294,"à¦ĸà¦¨à¦¥":10295,"à¦ĩà¦ľà¦¦":10296,"à¦¤à¦¦à¦ĸà¦²à¦®":10297,"à§İà¦¸à¦°à¦¬à¦°":10298,"à¦¸à¦¦à¦°à¦°":10299,"à¦¨à¦ıà¦ĩà¦ĺà¦Łà¦¨":10300,"à¦¨à¦īà¦Ĺ":10301,"à¦®à¦°à¦®":10302,"à¦®à¦Ĺà¦°":10303,"à¦¦à¦¶à¦¦":10304,"à§Łà¦ľà¦¬":10305,"à¦ĩà¦ĩà¦ļ":10306,"à¦·à¦ĵà¦¶":10307,"à¦§à¦ıà¦ķà¦Ł":10308,"à¦ĵà¦°à¦ļ":10309,"à¦¡à¦¸à¦Ń":10310,"à¦¡à¦ĺà¦Ł":10311,"à¦«à¦°à¦¶":10312,"à¦łà¦¹":10313,"à¦ıà¦ĩà¦ļà¦ķ":10314,"à¦¯à¦¬à¦¡":10315,"à¦ĩà¦ªà¦£":10316,"à¦ħà¦¸à¦ļ":10317,"à¦«à¦²à¦¸à¦®":10318,"à§Łà¦²à¦ĩà¦¬à¦¨":10319,"à¦ķà¦ľà¦®":10320,"à¦¤à¦£":10321,"à¦¦à¦ĩà¦®":10322,"à¦¯à¦ľà¦¨à¦ª":10323,"à¦¯à¦¬à¦²à¦Ľ":10324,"à¦¹à¦®à¦¹":10325,"à¦ľà§Łà¦¶":10326,"à¦Ĩà¦°à¦®à¦¨":10327,"à¦¥à¦¦à¦¨":10328,"à¦ĵà¦īà¦ª":10329,"à¦ĸà¦¬à¦ķ":10330,"à¦ĸà¦ķà¦¥":10331,"à¦«à¦¬à¦²":10332,"à¦«à¦Ĩà¦¹à¦®":10333,"à¦¬à¦²à¦¬à¦¨":10334,"à¦ľà¦¨à¦°à¦¸":10335,"à¦Ļà¦ķ":10336,"à§¨à§¦à§®":10337,"à¦¶à¦¨à¦ĸ":10338,"à¦¨à¦ľà¦¸":10339,"à¦¤à¦ªà¦¦à¦ķ":10340,"à¦ĸà¦¬à¦°à¦Ń":10341,"à¦Ĺà¦²à¦¡":10342,"à¦¨à¦ĵà¦ĩà¦¬":10343,"à¦Ĺà¦£à¦«":10344,"à¦·à¦ķà¦ªà¦°":10345,"à¦°à¦¹à¦£à¦ª":10346,"à¦ĩà¦¡à¦¨":10347,"à¦°à¦ıà¦ķà¦¬à¦¨":10348,"à¦²à¦ľà¦¹":10349,"à¦ıà¦ĩà¦ļà¦¬":10350,"à§ªà§¦à§«à§¦":10351,"à¦¤à¦°à¦¦à¦ķ":10352,"à¦«à¦°à¦¯à¦Ĺ":10353,"à¦¨à¦ĺà¦¨":10354,"à¦¤à¦ıà¦®":10355,"à¦²à¦Ĩà¦°à¦¬":10356,"à¦¶à¦Ĩà¦®à¦°":10357,"à¦¶à¦ıà¦¶":10358,"à¦ĸà¦¹à§Ł":10359,"à¦¡à¦¦à¦²":10360,"à¦°à¦¸à¦¬à¦¨":10361,"à¦°à¦®à§İà¦¸":10362,"à§Łà¦®à¦Ĺ":10363,"à¦¬à¦¤à¦²à¦¬":10364,"à¦°à¦¸à¦®à§Łà¦¥":10365,"à¦°à¦ĸà¦¬à¦°à¦ħà¦¨":10366,"à¦¸à¦¹à¦ľà¦²à¦Ń":10367,"à¦°à¦¸à¦ķà¦²à¦¶":10368,"à¦ĩà¦ķà¦®à¦¬":10369,"à¦Ĩà¦¤à¦¸à¦°à¦¬":10370,"à¦¬à¦¤à¦ķ":10371,"à¦¤à¦°à¦ĩà¦īà¦Ł":10372,"à¦¸à¦°à¦£à¦¨":10373,"à¦®à¦Ĺà¦¨":10374,"à¦²à¦ıà¦Ń":10375,"à¦¯à¦ħà¦ķ":10376,"à¦°à¦®à¦¨à¦ķà¦°":10377,"à¦°à¦¤à¦²à¦¦":10378,"à¦°à¦¹à¦ķà¦¦":10379,"à¦¯à¦¬à§Łà¦¸":10380,"à¦°à¦ĩà¦ħà¦¨":10381,"à§¨à§¦à§¨à§§à§¨à§¦à§¨à§¨":10382,"à§§à§¨à§¨à§¦à§¨à§§":10383,"à§§à§Ńà§¯":10384,"à¦¬à¦ķà¦¤à¦Ł":10385,"à¦¤à¦Ĺà¦¦":10386,"à¦®à¦°à¦¯":10387,"à¦²à¦Ĩà¦ĵà§Ł":10388,"à¦¦à¦ł":10389,"à¦¦à¦ľà¦®":10390,"à¦¦à¦īà¦ªà¦¨":10391,"à¦¹à¦Łà¦²":10392,"à¦Łà¦ıà¦°à¦ª":10393,"à¦¶à¦°à¦ª":10394,"à¦°à¦¤à¦¹à¦¬":10395,"à¦°à¦ľà¦¹":10396,"à¦¨à¦¬à¦ľà¦®":10397,"à¦¨à¦¤à¦ĸà¦¨à¦ķ":10398,"à¦²à¦ķà¦ªà¦¦":10399,"à¦ĩà¦¨à¦Ľ":10400,"à¦īà¦¨à¦Ł":10401,"à¦°à¦¸à¦®à§Łà¦Ń":10402,"à§¨à§¦à§¨à§§à§¦à§¦":10403,"à¦²à¦¹à¦ķà¦ĸ":10404,"à¦·à¦®à¦¹à¦²":10405,"à¦°à¦ĸà¦¬à¦°à¦Ł":10406,"à¦¦à¦ĩà¦¬à¦¨à¦¶":10407,"à¦°à¦Ĩà¦°à¦ĵà¦ıà¦ķà¦Ł":10408,"à¦ĸà¦°à¦ļà¦ķà¦°à¦¤":10409,"à¦¨à¦ıà¦ķà¦ľà¦¨à¦®":10410,"à¦®à¦Ĺà¦¬":10411,"à¦²à¦ĵà¦Ń":10412,"à¦²à¦ıà¦°à¦¬":10413,"à¦ªà¦ĵà¦®":10414,"à¦¯à¦ħà¦¨à¦²":10415,"à¦§à¦Ĩà¦ķ":10416,"à¦ĵà¦¸à¦ķ":10417,"à¦īà¦²à¦Ĺ":10418,"à¦°à¦®à§Łà¦¨":10419,"à¦£à§Ł":10420,"à¦¨à¦Ĩà¦ĩ":10421,"à¦°à¦Łà¦¨":10422,"à¦¨à¦Ńà¦¦":10423,"à¦¨à¦ıà¦ķà¦°":10424,"à¦²à¦ªà¦£":10425,"à¦¯à¦¤à¦ĸ":10426,"à¦²à¦¹à¦ķà¦Ĺ":10427,"à¦²à§Łà¦Ľ":10428,"à¦°à¦¹à¦£à¦ħà¦¨":10429,"à¦¨à§Łà¦Ń":10430,"à¦īà§ľà¦¨":10431,"à¦ªà¦¤à¦¨":10432,"à¦¦à¦¸à¦¬":10433,"à§Łà¦ıà¦ķà¦¸":10434,"à¦ľà¦ĩà¦®":10435,"à¦Ĩà¦¦à¦¨":10436,"à¦·à¦¦à¦ª":10437,"à¦ĵà¦®à¦¦":10438,"à§Ĥà§į":10439,"à¦¬à¦¸à¦¦":10440,"à¦¸à¦¬à¦¤à¦¥":10441,"à¦¨à¦ıà¦°à¦ķà¦®":10442,"à¦°à¦¥à¦®à¦ıà¦¬":10443,"à¦īà¦Łà¦ħà¦¬":10444,"à¦ķà¦ĸà¦¨à¦ĵà¦ķ":10445,"à¦°à¦ħà¦¬à¦¸à¦°à¦ª":10446,"à¦®à¦Ńà¦Ļ":10447,"à¦¨à¦¸à¦®à§Łà¦Ł":10448,"à¦ıà¦ĸà¦¨à¦ķà¦°à¦£":10449,"à¦¨à¦°à¦®à¦ľ":10450,"à¦ķà¦¨à¦ª":10451,"à¦ıà¦¤à¦®":10452,"à¦ıà¦¨à¦Ĺ":10453,"à¦·à¦ħà¦§":10454,"à¦ĵà¦¹à§Łà¦¤":10455,"à¦ĵà¦ıà¦ķà¦ª":10456,"à¦Ĩà¦®à¦Ĺ":10457,"à¦°à¦Ĩà¦ľà¦¬":10458,"à¦¹à¦¬à¦¹":10459,"à§©à§§à§©":10460,"à§©à§ªà§¬":10461,"à¦¨à¦®à¦¯":10462,"à¦īà¦ªà¦®à¦¨":10463,"à§Łà¦ķà¦ľ":10464,"à¦¨à¦ľà¦¹":10465,"à¦ķà¦ªà¦²":10466,"à¦Łà¦ķà¦¯":10467,"à¦¤à¦ªà¦Ł":10468,"à¦¬à¦¹à¦¨à¦¬à¦¨":10469,"à¦¬à¦¤à¦¶":10470,"à¦ĩà¦¹à¦ĵà§Ł":10471,"à¦¬à§ľà¦¶":10472,"à¦¨à¦ħà¦¬à¦¦":10473,"à¦¨à¦ıà¦ķà¦ľà¦¨à¦¬":10474,"à¦¦à¦°à¦«":10475,"à¦¯à¦ħà¦Ļ":10476,"à§Łà¦¹à¦ľ":10477,"à¦¹à¦Ĩà¦ķ":10478,"à¦ľà¦ıà¦°à¦¸":10479,"à¦Ĺà¦®à¦ķà¦°":10480,"à¦·à¦¸à¦¬":10481,"à¦¡à¦ıà¦«":10482,"à¦łà¦ĸ":10483,"à¦°à¦ħà¦ªà¦ª":10484,"à¦°à¦¸à¦®à§Łà¦²":10485,"à¦¨à¦Ĩà¦°à¦Ĩà¦®":10486,"à¦Ĺà¦¤à¦īà¦¦":10487,"à§Łà¦®à¦¯":10488,"à¦ĸà¦¬à¦°à¦Ĺ":10489,"à¦ªà¦¦à¦Ń":10490,"à¦īà¦ľà¦ĸ":10491,"à¦ĩà¦Ńà§Ł":10492,"à¦²à§Łà¦Ń":10493,"à¦«à¦²à¦°":10494,"à¦ıà¦ķà¦ľà¦¨à¦¡":10495,"à¦¬à§ľà¦ľ":10496,"à¦²à¦Ĩà¦°à¦¸":10497,"à¦ħà¦²à¦Ļ":10498,"à¦¤à¦ĸà¦¨à¦Ĩà¦ªà¦¨":10499,"à¦°à¦ıà¦ĩà¦ĺà¦Łà¦¨":10500,"à¦¹à¦¯à¦°à¦¤à¦¸":10501,"à¦¬à¦¦à¦²à¦Ĺ":10502,"à¦ķà¦ħà¦®":10503,"à¦¸à¦°à¦¨":10504,"à§Łà¦ĵà¦¨":10505,"à§Łà¦Ĳ":10506,"à§Łà¦īà§İà¦¸à¦¬":10507,"à¦§à¦¬à¦°":10508,"à¦¡à¦²à¦¬":10509,"à¦ħà¦²à¦ķ":10510,"à¦ľà¦¨à¦Ĺà¦¤":10511,"à¦°à¦¹à¦Łà¦²":10512,"à¦°à¦ĵà¦Ĩà¦Ĺ":10513,"à¦ıà¦ĩà¦ıà¦ķà¦Ł":10514,"à¦ıà¦ĩà¦Ĺà¦²":10515,"à¦°à¦īà¦¸":10516,"à¦°à¦Ľà¦¯":10517,"à¦ĩà¦¬à§ľ":10518,"à¦¸à¦¹à¦ľà¦ķ":10519,"à¦®à¦²à¦°":10520,"à¦¸à¦ķà¦¶":10521,"à¦Ĺà¦¤à¦¸à¦¹":10522,"à¦ĵà¦ªà¦£":10523,"à§§à§®à§©":10524,"à¦¤à¦ļà¦²à¦¬":10525,"à¦Ĺà¦°à¦®à¦ķà¦°":10526,"à¦Ĩà¦īà¦Łà¦ķà¦°":10527,"à¦¬à¦Ĩà§Ł":10528,"à¦²à¦ĩà¦ķ":10529,"à¦¯à§İà¦ª":10530,"à¦Łà¦°à¦ľ":10531,"à¦¶à¦²à¦ª":10532,"à¦ĩà¦ħà¦¨à¦²":10533,"à¦«à¦²à¦Ĺ":10534,"à§ľà¦ľà¦®":10535,"à¦°à¦¹à¦ĩà¦¤":10536,"à¦¨à¦¬à¦ķà¦²":10537,"à¦¨à¦ªà¦°à¦¸":10538,"à¦°à¦ĵà¦ħà¦§":10539,"à¦®à¦¸à¦Ĺ":10540,"à¦¤à¦ķà¦ľ":10541,"à¦®à¦¦à¦¨à¦®":10542,"à¦®à¦¬à¦ķ":10543,"à¦Ĺà¦¤à¦Ĩà¦ķ":10544,"à¦Ĺà¦²à¦¶":10545,"à¦Łà¦®à¦¡":10546,"à¦¤à¦²à¦ľ":10547,"à¦¨à¦ıà¦ĩà¦ªà¦°":10548,"à¦¸à¦«à¦²à¦®":10549,"à¦¦à¦¨à¦¬à¦Ļ":10550,"à¦°à¦ªà¦°à¦ĵà¦Ĩà¦®à¦°":10551,"à¦Ĩà¦īà¦¯":10552,"à¦²à¦Łà¦¬":10553,"à¦¯à¦ĩà¦¶":10554,"à§Łà¦ĩà¦¸à¦°":10555,"à¦ľà¦§à¦°":10556,"à¦ľà¦ķà¦ļ":10557,"à¦Ĩà¦·":10558,"à¦ıà¦°à¦¨à¦¤":10559,"à¦ıà¦°à¦Ĩà¦ĵà¦¤":10560,"à¦·à¦§à¦¨":10561,"à¦¡à¦ħà¦°":10562,"à¦®à¦¨à¦§":10563,"à¦ħà¦¨à¦¶à¦¨":10564,"à¦ªà¦¨à¦ĵà¦ľ":10565,"à¦ıà¦ĩà¦§à¦°":10566,"à¦ĩà¦Łà¦ıà¦¬":10567,"à¦«à¦²à¦ĸ":10568,"à¦°à¦¥à¦®à¦¬à¦²":10569,"à¦Ĺà¦łà¦¨à¦¦":10570,"à¦¡à¦¸à¦«":10571,"à¦¯à¦«à¦¸à¦²":10572,"à¦Ĺà¦°à¦®à¦ķ":10573,"à¦ĵà§ľà¦¨":10574,"à¦Ĺà¦²à¦®à¦¹à¦²":10575,"à¦¬à¦ıà¦¸":10576,"à¦¤à¦Ĩà¦°à¦ķ":10577,"à¦¸à¦¯à¦¦":10578,"à¦ªà¦¥à¦¨":10579,"à¦ľà¦¬à¦°":10580,"à¦ĩà¦§à¦¨":10581,"à¦¥à¦ħà¦§":10582,"à¦§à¦¨à¦¤":10583,"à¦ĵà¦®à¦¤":10584,"à¦ĵà¦ıà¦ĩà¦ļ":10585,"à¦ĵà¦Ĩà¦¨à¦¨":10586,"à¦ħà¦¨à¦°":10587,"à¦ħà¦¨à¦¸":10588,"à¦¨à¦®à¦ĩà¦¨":10589,"à¦¹à¦²à¦¶":10590,"à§İà¦Ĩà¦ªà¦¨":10591,"à¦²à¦¨à¦¬à¦¨":10592,"à¦¦à¦ķà¦¬à¦²":10593,"à¦°à¦īà¦ªà¦°à¦¶":10594,"à§§à§®à§§":10595,"à¦ıà¦°à¦ªà¦°à¦®":10596,"à¦ĩà¦Ľà¦¡":10597,"à¦Ĺà¦¤à¦ķà¦¯":10598,"à¦¨à¦Ĩà¦ĩà¦¨à¦¶":10599,"à¦°à§Łà¦¸":10600,"à¦ķà¦ıà¦¡":10601,"à¦¬à¦Ĩà¦¸":10602,"à¦²à¦¶à¦¹":10603,"à¦Łà¦²à¦¬":10604,"à¦ľà¦²à¦°":10605,"à¦Ĺà¦ĩà¦¤":10606,"à¦Ĺà¦¸à¦®à§Ł":10607,"à¦¡à¦¨à¦®":10608,"à¦¡à¦Ĩà¦ªà¦¨":10609,"à¦°à¦£à¦ĵà¦īà¦¨":10610,"à¦ĸà¦¨à¦¶":10611,"à¦ªà§ľà¦¨":10612,"à§Łà¦¦à¦¤":10613,"à¦²à¦Ĩà¦°à¦¤":10614,"à¦®à¦Łà¦°à¦¸":10615,"à¦¹à¦°à¦£à¦¹":10616,"à¦ķà¦īà¦ªà¦¦":10617,"à¦¬à¦īà¦ª":10618,"à¦¤à¦¬à¦²à¦¤":10619,"à¦¤à¦Ĩà¦§":10620,"à¦²à§ľà¦Ľ":10621,"à¦¯à¦ĵà¦ľ":10622,"à¦¹à¦īà¦ªà¦²à¦ķ":10623,"à¦Łà¦ħà¦¶":10624,"à¦¶à¦¶à¦¨":10625,"à¦¶à¦ıà¦¦":10626,"à¦Ľà¦ªà¦¦":10627,"à¦°à¦¬à¦£à¦ķà¦°":10628,"à¦ıà¦ķà¦ķà¦Ń":10629,"à¦ıà¦ĩà¦Ĩà¦®":10630,"à§ªà§¨à§¦":10631,"à§Łà¦¨à¦¥":10632,"à¦Ŀà¦°à¦¨":10633,"à§Łà¦ķà¦¤à¦¬":10634,"à§§à§¯à§«à§ª":10635,"à¦¨à¦¶à¦¨à¦¸":10636,"à¦¨à¦ĵà¦ĩà¦¦":10637,"à¦°à¦ĺà¦¨à¦¤":10638,"à¦ıà¦¤à¦Ń":10639,"à§®à§¦à§¯":10640,"à§¨à§¬à§¯":10641,"à¦°à¦ªà¦¥à¦§à¦°":10642,"à¦ıà¦¸à¦ıà¦«à¦¬":10643,"à¦¤à¦ĵà¦·":10644,"à¦¸à¦Ĺà¦²":10645,"à¦®à§Łà¦®":10646,"à¦Łà¦¶à¦°":10647,"à¦Ĺà¦¸à¦¬":10648,"à¦ıà¦²à¦¨":10649,"à¦Ńà¦®à¦¤":10650,"à¦¡à¦ķà¦°à¦¬":10651,"à¦®à¦¨à¦Ĩà¦²":10652,"à¦°à¦ļà¦®à§İà¦ķ":10653,"à¦īà¦¨à¦ªà¦°":10654,"à¦Ŀà§ľà¦¤":10655,"à¦Łà¦¬à¦¡":10656,"à¦ıà¦ĸà¦¨à¦ĵà¦®":10657,"à¦²à¦¦à¦¹":10658,"à¦ıà¦ķà¦ľà¦¨à¦¤":10659,"à§¨à§«à§¦à§¦":10660,"à¦ĩà¦¶à¦¹à¦°":10661,"à¦ĸà¦ķà¦·":10662,"à¦¸à¦¹à¦ľà¦ıà¦¬":10663,"à¦ķà¦Ĩà¦ľà¦ķ":10664,"à¦¦à¦Ľà¦¬":10665,"à¦¥à¦°à¦¦":10666,"à¦§à¦Ĺà§ľ":10667,"à¦ĵà¦Ĩà¦ĩà¦¨":10668,"à¦°à¦ķà¦¨à¦«":10669,"à¦ıà¦ķà¦ĩà¦ķà¦¥":10670,"à¦°à¦¹à¦¹":10671,"à¦°à¦ıà¦ĺà¦Łà¦¨":10672,"à¦°à¦ĵà¦¸à¦Ļ":10673,"à§Łà¦¨à¦Ĩà¦²":10674,"à¦®à¦¸à¦¹à¦¬":10675,"à¦ķà¦ªà¦¦à¦ķ":10676,"à¦°à§Łà¦ķà¦°à¦²":10677,"à¦ªà¦ķà¦Ĩà¦¬":10678,"à¦¨à¦ĵà¦®à¦¹":10679,"à¦ıà¦®à¦¨à¦ļ":10680,"à¦¨à¦¡à¦¬":10681,"à¦ıà¦¸à¦¬à¦¶":10682,"à¦¸à¦«à¦²à¦ķ":10683,"à¦°à¦īà¦ªà¦°à¦²":10684,"à¦ķà¦ĵà¦Ĩà¦°":10685,"à¦ĩà¦²à¦«à¦²à¦ķ":10686,"à¦¨à¦ıà¦ĸà¦¨à¦¤":10687,"à¦ıà¦°à¦ĩà¦§":10688,"à¦Ĩà§Łà¦ķà¦°à¦°":10689,"à¦ķà¦Ŀà¦ķ":10690,"à¦¨à¦ıà¦¸à¦ıà¦¸à¦¸":10691,"à¦¬à¦īà¦ªà¦ķ":10692,"à¦®à¦ķà¦°à¦¬":10693,"à¦²à¦ĸà¦¨":10694,"à¦²à¦ıà¦°à¦®à¦§":10695,"à¦¯à¦ĵà¦°":10696,"à§Łà¦¶à¦ķ":10697,"à¦ĩà¦°à¦®":10698,"à¦ļà¦ĩà§Ł":10699,"à¦ĵà¦°à¦Ĺ":10700,"à¦ĵà¦®à¦¸":10701,"à¦ªà¦¨à¦¹":10702,"à¦ıà¦ĩà¦¹à¦¤":10703,"à¦¦à¦ķà¦ĵà¦®":10704,"à¦ĩà¦ľà¦Ł":10705,"à¦°à¦īà¦ªà¦¸à¦ļ":10706,"à¦®à¦®à¦£":10707,"à¦°à¦ĭà¦¤":10708,"à¦Łà¦ªà¦¤à¦Ļ":10709,"à¦ķà¦Ĩà¦ļ":10710,"à¦ªà¦Ľà¦¬":10711,"à§Łà¦ıà¦¸à¦ıà¦¸à¦¸":10712,"à¦¹à¦ıà¦°à¦ª":10713,"à¦ľà¦°à¦¬":10714,"à¦ľà¦®à¦¸":10715,"à¦ļà¦īà¦ĩà¦ķ":10716,"à¦¥à¦Ĩà¦¦":10717,"à¦ĵà¦¨à¦Ń":10718,"à¦ĵà¦Ĩà¦ļ":10719,"à¦°à¦ªà¦°à¦ıà¦Ł":10720,"à§ľà¦¯":10721,"à¦ľà¦¨à¦Ĩà¦²":10722,"à¦°à¦Ĩà¦¸à¦ķ":10723,"à¦¬à¦¸à¦¦à¦°à¦¦":10724,"à¦ĩà¦²à¦ªà¦°":10725,"à¦ıà¦¸à¦°":10726,"à¦¤à¦®à¦¯":10727,"à¦Łà¦¨à¦ķà¦°à¦¤":10728,"à¦¨à¦Ĩà¦ľà¦®":10729,"à¦ªà§ľà¦ªà§ľ":10730,"à¦¨à¦ĵà¦ĩà¦¸à¦²":10731,"à§§à§¨à§§à§¬":10732,"à¦·à¦ĸà¦¬à¦°à¦Ł":10733,"à¦°à¦ªà¦¥à¦¦":10734,"à¦¯à¦ĸà¦¨à¦Ĺ":10735,"à¦¡à¦Łà¦ķà¦®à¦¬":10736,"à¦ıà¦ķà¦ĩà¦§à¦°à¦¨":10737,"à¦¨à¦¤à¦ĸà¦¨à¦Ĩà¦ªà¦¨":10738,"à¦¨à¦ĩà¦īà¦ı":10739,"à¦²à¦ıà¦®à¦¨":10740,"à¦¦à¦°à¦ªà¦°":10741,"à¦¦à¦ªà¦¡":10742,"à¦¯à¦Ĩà¦¹":10743,"à§Łà¦ļà¦°":10744,"à¦ļà¦ķà¦°à¦²":10745,"à¦§à¦ķà¦²":10746,"à¦ĵà¦Ĺà¦²":10747,"à¦ĵà¦¬à¦²à¦Ľ":10748,"à¦¡à¦Ĩà¦Ľ":10749,"à¦¡à¦ħà¦¨à¦²":10750,"à¦£à¦¶à¦ķ":10751,"à¦łà¦¯":10752,"à¦°à¦¨à¦Ĩà¦®":10753,"à¦¨à¦¬à¦¬à¦§":10754,"à¦²à¦¨à¦ľ":10755,"à§¬à§§à§¦":10756,"à¦¤à¦ķà¦°à¦£à¦ķ":10757,"à§§à§¯à§¬à§§":10758,"à¦ĵà¦¸à¦Ļ":10759,"à¦¨à¦¶à¦«":10760,"à¦²à¦ªà¦Ł":10761,"à¦¤à¦¸à¦ŀ":10762,"à¦Ĺà¦²à¦Ĩà¦®":10763,"à¦°à¦¸à¦¬à¦¸à¦®à§Ł":10764,"à¦¨à¦ıà¦ĩà¦¶":10765,"à§¨à§¬à§®":10766,"à¦°à¦Ŀà¦Ĺà§ľ":10767,"à§¨à§¦à§¨à§§à§®":10768,"à¦¬à¦°à¦§":10769,"à¦¤à¦ªà§ľà¦²":10770,"à¦¯à¦ĺà¦°":10771,"à§Łà¦ĩà¦¸":10772,"à¦Łà¦Ĩà¦¤":10773,"à¦¶à¦ĩ":10774,"à¦Ĩà¦¨à¦ľ":10775,"à¦ıà¦Ĩà¦®":10776,"à¦ķà¦°à¦ªà¦°":10777,"à¦°à¦£à¦¤à¦ª":10778,"à¦°à¦ıà¦§à¦°à¦¨":10779,"à¦²à¦¤à¦Ĺ":10780,"à¦ĩà¦¬à¦ķ":10781,"à¦¯à¦ķà¦°à¦ķà¦°à¦¤":10782,"à§¨à§¦à§§à§¯à§¨à§¦à§¨à§¦":10783,"à¦¯à¦ķà¦°à¦¤à¦¥":10784,"à¦īà¦ªà¦ķà¦°à¦£à¦¬":10785,"à¦°à¦ªà¦¤à¦¨à¦ĺà¦Ł":10786,"à¦¬à¦Ĩà¦Ĺ":10787,"à¦²à¦«à¦°":10788,"à¦¶à¦¹à¦ļ":10789,"à¦·à¦ħà¦¸":10790,"à¦·à¦¸à¦®à¦°":10791,"à¦§à¦§":10792,"à¦®à¦¨à¦¬à¦²":10793,"à¦¬à¦¨à¦ĸ":10794,"à¦¹à§Łà¦Ĩà¦Ĺ":10795,"à¦°à¦ľà¦¨à¦¨à¦ķ":10796,"à¦ıà¦ĩà¦Ĩà¦²":10797,"à¦²à¦¨à¦Ł":10798,"à¦°à¦Ľà¦²":10799,"à§İà¦¸à¦ķà¦¸":10800,"à¦Łà¦¸à¦ķà¦²":10801,"à¦«à¦¤à¦ĵà§Ł":10802,"à§Ŀà¦ª":10803,"à§¨à§¦à§¨à§§à§Ń":10804,"à§ĩà§į":10805,"à¦ķà¦ıà¦ĸà¦¨":10806,"à¦¬à¦°à¦£à¦ķ":10807,"à¦¶à¦ĵà¦¶":10808,"à¦Ĺà¦¸à¦®à¦¯":10809,"à¦ĩà¦ıà¦ķà¦¸":10810,"à¦ıà¦ĺ":10811,"à¦·à¦¤à¦¸":10812,"à¦ľà¦¨à¦ķà¦°à¦Ľ":10813,"à¦°à¦¨à¦Ł":10814,"à§¨à§¦à§©":10815,"à¦°à¦ıà¦ĩà¦ķà¦°":10816,"à¦°à¦īà¦Ńà§Ł":10817,"à§İà¦ħà¦¨":10818,"à¦¤à¦¨à¦¹à¦ĵà§Ł":10819,"à¦°à¦ĩà¦¨à¦¬":10820,"à§§à§¯à§ªà§¯":10821,"à¦Ĩà¦¦à¦°à¦ķà¦°":10822,"à¦ıà¦®à¦Ĩà¦¬à¦¦":10823,"à¦°à¦®à¦£à¦ļ":10824,"à¦£à¦¬à§Łà¦¸":10825,"à¦¨à§Łà¦¨à¦ļ":10826,"à¦°à¦Īà¦¦à¦īà¦ªà¦¹":10827,"à¦°à¦Ĩà¦Ĺà¦®à¦¨à¦ĺà¦Ł":10828,"à¦¤à¦ĵà¦ħà¦¨":10829,"à¦¸à¦¤à¦¨":10830,"à¦¦à¦īà¦ªà¦ľ":10831,"à¦¹à¦ıà¦ķà¦Ł":10832,"à¦ĵà¦¨à§Ł":10833,"à¦¡à¦¬à¦ķ":10834,"à¦īà¦Łà¦ķ":10835,"à¦¨à¦¸à¦¦à¦ķ":10836,"à¦¨à¦¦à¦²à¦ķ":10837,"à¦¨à¦ľà¦¯":10838,"à§¨à§§à§¨à§¦à§¨à§§":10839,"à¦¨à¦Ĺà¦°à¦¯":10840,"à§Łà¦®à§İà¦¸":10841,"à§¨à§¦à§¨à§§à§¦à§¬":10842,"à¦ªà¦ķà¦īà¦¨":10843,"à¦°à¦¹à¦£à¦¸":10844,"à¦°à¦®à¦£à¦ķà¦°à¦²":10845,"à¦·à§Łà¦ķà¦īà¦ªà¦¦":10846,"à¦°à¦Ĩà¦°à¦ĵà¦¦":10847,"à¦¹à¦°à¦¦à¦°à¦¬":10848,"à¦ķà¦¨à¦°":10849,"à¦ķà¦ıà¦ĸ":10850,"à¦¸à¦¸à¦¹à¦ķ":10851,"à¦¦à¦¶à¦®à¦¶":10852,"à§Łà¦Ĺà¦¬":10853,"à¦Łà¦Ľà¦¬":10854,"à¦ľà¦ªà§ľà¦¤":10855,"à¦Ĺà¦ľà¦Ł":10856,"à¦ĩà¦īà¦ªà¦¸":10857,"à§¦à§§à§¬":10858,"à¦ľà¦¨à¦ķà¦²":10859,"à¦°à¦Ĩà¦®à¦¤à¦²":10860,"à¦°à¦ĵà¦ł":10861,"à¦°à¦Ĺà¦¹":10862,"à¦ķà¦¬à¦°à¦ª":10863,"à¦®à¦¦à¦¶à¦«":10864,"à¦¬à¦ªà¦¶":10865,"à¦ªà¦¦à¦Ľ":10866,"à¦Ĩà¦°à¦ĵà¦ļ":10867,"à¦īà¦²à¦¦":10868,"à¦¤à¦¹à¦ĩà¦²":10869,"à§Łà¦Ĺà§ľ":10870,"à¦ıà¦°à¦°à¦ķ":10871,"à¦Ĩà¦īà¦Łà¦¡":10872,"à¦¨à¦īà¦¬":10873,"à¦¬à¦ľà¦®":10874,"à¦¸à¦ĵà¦¨":10875,"à¦¸à¦ĩà¦¨à¦¸":10876,"à¦®à¦¶à¦ķ":10877,"à¦ªà¦ħà¦Ń":10878,"à§Łà¦ħà¦Ł":10879,"à¦Łà¦ªà¦¨":10880,"à¦ĩà¦¶à¦¨":10881,"à¦Ĩà¦ĩà¦¶":10882,"à¦ıà¦ıà¦ķà¦Ł":10883,"à¦¥à¦Ĩà¦²":10884,"à¦°à¦¬à¦ĩà¦¯":10885,"à¦°à¦ªà¦°à¦ĵà¦®":10886,"à¦°à¦¨à¦«":10887,"à¦¬à¦¨à¦ļ":10888,"à¦Łà¦¨à¦Ĺ":10889,"à¦°à¦®à¦¤à¦¯":10890,"à¦¶à¦¬à¦Ļ":10891,"à¦ıà¦®à¦¨à¦ķà¦°":10892,"à¦ĩà¦īà¦¡":10893,"à¦·à¦¦à¦®":10894,"à¦¶à¦Ĺà¦Ļ":10895,"à¦°à¦Ĩà¦°à¦ĵà¦ĸà¦¬":10896,"à¦°à¦§à¦°à¦¨à¦ħà¦¨":10897,"à¦¤à¦ıà¦ĩà¦¨":10898,"à¦ªà¦Ŀ":10899,"à¦ªà¦¸à¦ª":10900,"à¦¦à¦ĩà¦¤":10901,"à¦¹à¦Ĩà¦¹à¦®à¦¦":10902,"à¦ĩà¦Ĩà¦°à¦ı":10903,"à¦·à¦ľà¦¨à¦ķ":10904,"à¦°à¦¬à¦°à¦Ĺ":10905,"à¦°à¦¤à¦«":10906,"à¦°à¦ľà¦²à¦ª":10907,"à¦°à¦Ĩà¦¨à¦°":10908,"à¦°à¦Ĩà¦¹à¦ķ":10909,"à¦°à¦Ĩà¦Łà¦Ł":10910,"à§§à§·":10911,"à§ªà§ªà§¬":10912,"à¦¹à¦²à¦¹":10913,"à¦¨à¦Ĩà¦ĩà¦Ł":10914,"à¦²à¦¸à¦²":10915,"à¦®à¦²à¦ª":10916,"à¦·à§Łà¦¯":10917,"à¦²à§Łà¦¡":10918,"à¦ķà¦¸à¦®à¦ķà¦°":10919,"à¦ķà¦ľà¦¨à¦Ľ":10920,"à¦ıà¦ķà¦ĩà¦ıà¦²":10921,"à¦°à¦¬à§ľà¦®":10922,"à¦¬à¦ħà¦¤":10923,"à¦¬à¦°à¦®à¦¹":10924,"à¦¬à¦ĩà¦¸à¦®":10925,"à¦®à¦Ĩà¦Ĺà¦¸":10926,"à¦²à¦£":10927,"à¦Łà¦ıà¦°à¦¸":10928,"à¦ĩà¦ľà¦¨à¦ª":10929,"à¦Ĩà¦°à¦¬à¦°":10930,"à¦§à¦ĵà¦¨":10931,"à¦°à¦ķà¦¹à¦¬":10932,"à¦¨à¦¸à¦«à¦°":10933,"à¦°à¦ħà¦ļ":10934,"à¦¹à¦²à¦Ľ":10935,"à¦°à¦Ľà¦¡":10936,"à§¬à§¦à§¦à§¦à§¦":10937,"à¦°à¦ĩà¦ħ":10938,"à¦·à¦£à¦Ĩà¦®":10939,"à§Łà¦¦à¦¶":10940,"à§¨à§¦à§¨à§§à§¨à§©":10941,"à¦¨à¦ĵà¦·":10942,"à¦ĩà¦¦à¦«":10943,"à¦°à¦®à¦£à¦®à¦¤":10944,"à¦¨à§Łà¦¨à¦ľà¦®":10945,"à¦ķà¦ĸà¦¨à¦¥":10946,"à¦Ĩà¦¹à¦®à¦®":10947,"à¦°à¦ĵà¦ªà¦°à¦¯":10948,"à¦°à¦¸à¦ķà¦²à¦¨":10949,"à§«à§«à§Ń":10950,"à¦ħà¦ªà¦¹à¦°à¦£à¦ķ":10951,"à¦ķà¦ĺà¦°":10952,"à¦¤à¦ıà¦ķà¦¦":10953,"à¦¤à¦¸à¦ķà¦²à¦ķ":10954,"à¦Ĩà¦Łà¦²":10955,"à¦ıà¦ıà¦¬":10956,"à¦ļà¦Ĺà¦¤":10957,"à¦Ńà¦ıà¦¬":10958,"à¦°à¦ªà¦°à¦¡":10959,"à¦¬à¦¨à¦°à¦ķ":10960,"à¦¨à¦¤à¦ĸà¦¨à¦¸":10961,"à¦¹à¦¤à¦ıà¦¬":10962,"à¦ĩà¦®à¦¶":10963,"à¦°à¦ĸà¦¤":10964,"à¦ĵà¦¬à¦Ł":10965,"à¦ĵà¦¸à¦¤à¦°":10966,"à¦īà¦ľà¦¸à¦®":10967,"à¦Īà¦®à¦¶":10968,"à¦ıà¦®à¦Ĩà¦¬":10969,"à¦ķà¦¶à¦¹":10970,"à¦ıà¦ĩà¦¸à¦¬à¦ķ":10971,"à¦¬à§ľà¦¹":10972,"à¦¸à¦«à¦°à¦®":10973,"à§¨à§¬à§ª":10974,"à¦Ĩà¦¹à¦¤à¦ļ":10975,"à¦¤à¦ħà¦¬à¦¶":10976,"à¦¸à¦¸à¦°à¦ķ":10977,"à¦¦à¦¤à¦°":10978,"à¦Łà¦īà¦ª":10979,"à¦ľà¦ĵà¦¦":10980,"à¦¶à¦Ĩà¦¦":10981,"à¦ĩà¦Ĩà¦§":10982,"à¦Ĩà¦īà¦¨":10983,"à¦ıà¦°à¦¸à¦Ń":10984,"à¦ĵà¦ħà¦«":10985,"à¦ĵà¦¹à§Łà¦¨":10986,"à¦ĵà¦ħà¦ľ":10987,"à¦ĸà¦«à¦ľ":10988,"à¦£à¦ħà¦ŀ":10989,"à¦²à¦ķà¦ħà¦¨":10990,"à¦°à¦ıà¦°à¦¨":10991,"à¦°à¦ıà¦ĩà¦¸à¦®":10992,"à¦ıà¦ĩà¦¬à¦Ľ":10993,"à¦°à¦ĩà¦Ĺ":10994,"à¦ªà§ľà¦¶":10995,"à¦°à¦ĺà¦°à¦¥":10996,"à¦Īà¦¦à¦°":10997,"à¦ĩà¦«à¦¹":10998,"à¦¦à¦®à¦¶":10999,"à¦ªà¦¸à¦ľ":11000,"à¦¤à¦°à¦£à¦Ĺ":11001,"à¦°à¦¸à¦¹à¦¦":11002,"à¦°à¦ĸà¦¬à¦°à¦Ń":11003,"à¦°à¦¬à§Łà¦¸à¦¹à§Ł":11004,"à¦¨à¦īà¦ªà¦¹":11005,"à¦ķà¦¶à¦¤":11006,"à¦®à¦ıà¦¦":11007,"à¦®à¦ħà¦¨à¦²":11008,"à¦ľà¦®à¦¤":11009,"à¦ĵà¦Ĺà¦¤":11010,"à¦«à¦ķà¦°à¦¤":11011,"à¦°à¦ªà¦Łà¦Ń":11012,"à§ľà¦ıà¦²":11013,"à¦°à¦ľà¦¸":11014,"à¦¨à¦ªà¦°à¦ª":11015,"à¦¹à¦²à¦Ł":11016,"à¦¯à¦ķà¦¯":11017,"à¦¯à¦ķà¦°à¦ĸ":11018,"à¦¦à¦ķà¦¸à¦¹à¦Ĩà¦Łà¦ķ":11019,"à¦ıà¦¸à¦¨":11020,"à¦¦à¦¨à¦Ľ":11021,"à¦²à¦¸à¦¹à¦¬":11022,"à§§à§¯à§«à§«":11023,"à¦ªà¦ķà¦Ĺ":11024,"à¦ªà¦¦à¦¹":11025,"à¦°à¦īà¦ªà¦Ń":11026,"à¦ĩà¦Ńà¦®":11027,"à¦¨à¦ļà¦²à¦¬":11028,"à¦¬à¦¦à¦°à¦Ĺà¦ŀ":11029,"à¦°à¦¥à¦®à¦«":11030,"à¦Ĩà¦Łà¦ķà¦¶":11031,"à¦Ĩà¦ĩà¦ªà¦°":11032,"à¦¯à¦ĸà¦¨à¦ıà¦Ł":11033,"à¦¸à¦¹à¦ľà¦īà¦ª":11034,"à§ªà§¦à§¦à§¦":11035,"à¦ķà¦°à¦ļ":11036,"à¦¬à¦ķà¦Ł":11037,"à¦¬à¦ĵà¦¦":11038,"à¦¤à¦ĵà¦¹":11039,"à¦²à¦Ĩà¦¸à¦°":11040,"à¦¹à¦ķà¦°à¦Ľ":11041,"à¦ĩà¦ħà¦«":11042,"à¦Ĩà¦ªà§ľ":11043,"à¦Ĩà¦ĩà¦ļ":11044,"à¦Ľà§Łà¦¦":11045,"à¦·à¦ĩà¦¤":11046,"à¦¡à¦®à¦¨":11047,"à¦°à¦¸à¦¹à¦¨":11048,"à§§à§¨à§¦à§§à§¬":11049,"à¦¤à¦¬à¦®":11050,"à¦ıà¦ĩà¦ıà¦ķ":11051,"à¦ıà¦ĩà¦¶à¦¹à¦°":11052,"à§¬à§®à§¦":11053,"à¦¯à¦ķà¦°à¦¹":11054,"à¦ĩà¦ķà¦·":11055,"à¦¸à¦¨à¦¯":11056,"à¦¸à¦¨à¦ľ":11057,"à¦¨à¦ĵà¦ħà¦Ń":11058,"à¦¸à¦®à§Łà¦¯":11059,"à§¨à§ªà§§":11060,"à§§à§©à§¨à§¦à§¨à§§":11061,"à¦Łà¦¦à¦²à¦ķ":11062,"à¦¨à¦ħà¦¡":11063,"à¦¨à§Łà¦¨à¦ªà¦°":11064,"à¦Ķà¦·à¦§à¦ª":11065,"à¦¸à¦«à¦²à¦¹à¦¤":11066,"à¦¤à¦¤à¦¨":11067,"à¦¸à¦ħà¦¨à¦²":11068,"à¦²à¦¶à¦ķ":11069,"à¦²à¦ħà¦ŀ":11070,"à¦ľà¦²à¦ľ":11071,"à¦Ĺà¦°à¦¤":11072,"à¦Ĺà¦°à¦°":11073,"à¦ħà¦ħ":11074,"à¦°à¦ªà¦°à¦ħà¦¬à¦¶":11075,"à¦®à¦¨à¦ªà¦°":11076,"à¦°à¦¹à¦ķà¦°à¦Ľ":11077,"à¦°à¦£à¦ľà¦¨à¦Ĺà¦£":11078,"à¦°à¦ĵà¦ĩà¦¸":11079,"à§¯à§§à§§":11080,"à¦®à¦¦à¦¦":11081,"à§Łà¦®à¦§":11082,"à¦¨à¦ĵà¦ĩà¦¨":11083,"à¦¬à¦¹à¦¨à¦ķà¦°à¦¤":11084,"à¦¨à¦ıà¦¬à¦Ľ":11085,"à¦¤à¦ĸà¦¨à¦Ĩà¦®à¦°":11086,"à¦¨à¦ĩà¦īà¦Ł":11087,"à¦ķà¦«à¦°":11088,"à¦¤à¦Ĩà¦«à¦Ĺ":11089,"à¦¸à¦¸à¦Ń":11090,"à¦¯à¦¹à§Łà¦¨":11091,"à¦ľà¦ľà¦¨":11092,"à¦ľà¦²à¦¤":11093,"à¦ĩà¦Ĩà§Ł":11094,"à¦ıà¦ħ":11095,"à¦ļà¦ıà¦ĩà¦ļà¦¡":11096,"à¦ĵà¦ľà¦¨à¦¬":11097,"à¦¡à¦¹à¦²":11098,"à¦£à¦ķà¦¥":11099,"à¦¨à¦¤à§İà¦ķ":11100,"à¦¸à¦¬à¦¸à¦®à§Łà¦¸":11101,"à¦²à¦¨à¦īà¦¦":11102,"à¦®à¦¤à¦¯":11103,"à¦¨à¦Ĺà¦°à¦¥":11104,"à¦Ĩà¦¦à¦¤":11105,"à¦¹à¦¸à¦ķà¦°":11106,"à¦¯à¦ĸà¦¨à¦ıà¦ķà¦Ł":11107,"à¦°à¦ıà¦ĩà¦ħà¦¨":11108,"à¦ļà¦¸à¦¤à¦°":11109,"à¦¨à¦Ĩà¦¹à¦®à¦¦à¦ķ":11110,
[...]
