{"[SOT]":0,"[PAD]":1,"[EOT]":2,"[UNK]":3,"[MASK]":4,"[CLS]":5,"[SEP]":6,"!":7,"\"":8,"#":9,"$":10,"%":11,"&":12,"'":13,"(":14,")":15,"*":16,"+":17,",":18,"-":19,".":20,"/":21,"0":22,"1":23,"2":24,"3":25,"4":26,"5":27,"6":28,"7":29,"8":30,"9":31,":":32,";":33,"<":34,"=":35,">":36,"?":37,"@":38,"A":39,"B":40,"C":41,"D":42,"E":43,"F":44,"G":45,"H":46,"I":47,"J":48,"K":49,"L":50,"M":51,"N":52,"O":53,"P":54,"Q":55,"R":56,"S":57,"T":58,"U":59,"V":60,"W":61,"X":62,"Y":63,"Z":64,"[":65,"\\":66,"]":67,"^":68,"_":69,"`":70,"a":71,"b":72,"c":73,"d":74,"e":75,"f":76,"g":77,"h":78,"i":79,"j":80,"k":81,"l":82,"m":83,"n":84,"o":85,"p":86,"q":87,"r":88,"s":89,"t":90,"u":91,"v":92,"w":93,"x":94,"y":95,"z":96,"{":97,"|":98,"}":99,"~":100,"¡":101,"¢":102,"£":103,"¤":104,"¥":105,"¦":106,"§":107,"¨":108,"©":109,"ª":110,"«":111,"¬":112,"®":113,"¯":114,"°":115,"±":116,"²":117,"³":118,"´":119,"µ":120,"¶":121,"·":122,"¸":123,"¹":124,"º":125,"»":126,"¼":127,"½":128,"¾":129,"¿":130,"À":131,"Á":132,"Â":133,"Ã":134,"Ä":135,"Å":136,"Æ":137,"Ç":138,"È":139,"É":140,"Ê":141,"Ë":142,"Ì":143,"Í":144,"Î":145,"Ï":146,"Ð":147,"Ñ":148,"Ò":149,"Ó":150,"Ô":151,"Õ":152,"Ö":153,"×":154,"Ø":155,"Ù":156,"Ú":157,"Û":158,"Ü":159,"Ý":160,"Þ":161,"ß":162,"à":163,"á":164,"â":165,"ã":166,"ä":167,"å":168,"æ":169,"ç":170,"è":171,"é":172,"ê":173,"ë":174,"ì":175,"í":176,"î":177,"ï":178,"ð":179,"ñ":180,"ò":181,"ó":182,"ô":183,"õ":184,"ö":185,"÷":186,"ø":187,"ù":188,"ú":189,"û":190,"ü":191,"ý":192,"þ":193,"ÿ":194,"Ā":195,"ā":196,"Ă":197,"ă":198,"Ą":199,"ą":200,"Ć":201,"ć":202,"Ĉ":203,"ĉ":204,"Ċ":205,"ċ":206,"Č":207,"č":208,"Ď":209,"ď":210,"Đ":211,"đ":212,"Ē":213,"ē":214,"Ĕ":215,"ĕ":216,"Ė":217,"ė":218,"Ę":219,"ę":220,"Ě":221,"ě":222,"Ĝ":223,"ĝ":224,"Ğ":225,"ğ":226,"Ġ":227,"ġ":228,"Ģ":229,"ģ":230,"Ĥ":231,"ĥ":232,"Ħ":233,"ħ":234,"Ĩ":235,"ĩ":236,"Ī":237,"ī":238,"Ĭ":239,"ĭ":240,"Į":241,"į":242,"İ":243,"ı":244,"Ĳ":245,"ĳ":246,"Ĵ":247,"ĵ":248,"Ķ":249,"ķ":250,"ĸ":251,"Ĺ":252,"ĺ":253,"Ļ":254,"ļ":255,"Ľ":256,"ľ":257,"Ŀ":258,"ŀ":259,"Ł":260,"ł":261,"Ń":262,"à§":263,"¦¾":264,"à¦¾":265,"¦°":266,"à¦°":267,"à§ĩ":268,"à§į":269,"¦¿":270,"à¦¿":271,"¦¨":272,"à¦¨":273,"¦ķ":274,"à¦ķ":275,"¦¬":276,"à¦¬":277,"¦¤":278,"à¦¤":279,"¦¸":280,"à¦¸":281,"¦®":282,"à¦®":283,"¦²":284,"à¦²":285,"¦ª":286,"à¦ª":287,"¦¯":288,"à¦¯":289,"¦¦":290,"à¦¦":291,"à§ģ":292,"à¦°à":293,"à¦°à¦":294,"¦Ł":295,"à¦Ł":296,"à§Ł":297,"à§ĭ":298,"¦¹":299,"à¦¹":300,"¦ľ":301,"à¦ľ":302,"¦¶":303,"à¦¶":304,"¦Ĺ":305,"à¦Ĺ":306,"à§Ģ":307,"¦ĩ":308,"à¦ĩ":309,"¦Ĩ":310,"à¦Ĩ":311,"¦ı":312,"à¦ı":313,"¦Ľ":314,"à¦Ľ":315,"¦ļ":316,"à¦ļ":317,"¦¼":318,"à¦¼":319,"à¦ķà¦°":320,"¦·":321,"à¦·":322,"¦Ń":323,"à¦Ń":324,"¦¥":325,"à¦¥":326,"¦§":327,"à¦§":328,"¦ĸ":329,"à¦ĸ":330,"¦ĵ":331,"à¦ĵ":332,"¦¡":333,"à¦¡":334,"¦Ĥ":335,"à¦Ĥ":336,"¦ħ":337,"à¦ħ":338,"¦ī":339,"à¦ī":340,"à¦°à¦¸":341,"¦«":342,"à¦«":343,"à¦°à¦ķ":344,"à¦°à¦¬":345,"à§¨":346,"à¦°à¦®":347,"à¦°à¦ª":348,"¦£":349,"à¦£":350,"à§§":351,"à§¦":352,"à¦ªà¦°":353,"à§ľ":354,"à¦¸à¦®":355,"à¦°à¦¤":356,"à§Ĥ":357,"à¦¼à§ĩ":358,"à§ĥ":359,"à¦ıà¦ķ":360,"à¦Ĩà¦®":361,"¦ł":362,"à¦ł":363,"à¦¼à¦¾":364,"à¦¬à¦²":365,"à¦®à¦¨":366,"à¦°à¦¨":367,"à¦°à¦¦":368,"à¦°à¦ľ":369,"à¦ľà¦¨":370,"¦ģ":371,"à¦ģ":372,"à¦ħà¦¨":373,"¦Ļ":374,"à¦Ļ":375,"à¦°à¦Ĩ":376,"à§§à§":377,"à¦ªà¦¨":378,"à¦ıà¦¬":379,"à¦°à¦¹":380,"à¦¹à§Ł":381,"à¦¨à¦¬":382,"à¦¾à¦Ĥ":383,"¦ŀ":384,"à¦ŀ":385,"à¦°à¦£":386,"à¦¨à¦¤":387,"¦ĺ":388,"à¦ĺ":389,"à¦¨à¦¸":390,"à¦¬à¦¨":391,"à§¨à§¦":392,"à¦¬à¦¸":393,"à¦¬à¦°":394,"à¦°à¦ħ":395,"à¦ĵà§Ł":396,"à¦°à¦¶":397,"à¦°à¦ı":398,"à¦ĩà¦¨":399,"à¦¾à¦ģ":400,"à¦²à¦ķ":401,"à¦°à¦ļ":402,"à¦°à¦ľà¦¨":403,"à¦¤à¦¬":404,"à¦¨à¦ķ":405,"à¦ıà¦ĩ":406,"à§©":407,"à¦¨à¦ª":408,"à¦¸à¦¬":409,"à¦¹à¦¬":410,"à§«":411,"à§Į":412,"à¦°à¦Ĺ":413,"à¦Ĩà¦ªà¦¨":414,"à¦Ĩà¦²":415,"à¦¶à¦¨":416,"à§ª":417,"à¦¨à¦¨":418,"à¦°à¦ĵ":419,"à§Ī":420,"à¦ıà¦ķà¦Ł":421,"à¦ķà¦°à¦¤":422,"à¦ķà¦®":423,"à¦ĩà¦¸":424,"à¦¤à¦°":425,"à¦²à¦¨":426,"à¦°à¦Ń":427,"à¦¹à¦¯":428,"à¦°à¦ī":429,"à¦īà¦¨":430,"à¦¿à¦Ĥ":431,"à¦ķà¦¬":432,"à¦¹à¦²":433,"à¦¨à¦®":434,"à¦°à¦¯":435,"à§İ":436,"à¦ķà¦²":437,"à¦¹à¦¤":438,"à¦¯à¦¬":439,"à¦īà¦ª":440,"à§®":441,"à§¬":442,"à§Ń":443,"à¦²à¦¬":444,"à¦ıà¦¸":445,"à¦°à¦ķà¦°":446,"à¦°à¦Ľ":447,"à§Łà¦¨":448,"à§¯":449,"à¦ĵà¦¯":450,"à¦°à¦²":451,"à¦¨à¦¦":452,"à¦Ĩà¦¬":453,"¦ĥ":454,"à¦ĥ":455,"à¦ªà¦¤":456,"à¦ķà¦Ł":457,"à¦®à¦¤":458,"à¦¯à¦ķ":459,"à¦°à¦¥":460,"à¦Ĩà¦¸":461,"à¦®à¦¸":462,"à¦ĩà¦²":463,"à¦ĸà¦¨":464,"¦Ŀ":465,"à¦Ŀ":466,"à¦ķà¦¸":467,"à¦°à¦°":468,"à¦ļà¦²":469,"à¦¤à¦¨":470,"à¦°à¦§":471,"à¦¤à¦®":472,"à¦¦à¦ķ":473,"à¦°à¦«":474,"à§¨à§¦à§¨":475,"à¦°à¦¸à¦®":476,"à¦¦à¦¨":477,"à¦·à¦£":478,"à¦ĩà¦ķ":479,"à¦¤à¦ķ":480,"à¦°à¦ĩ":481,"à¦īà¦¦":482,"à¦²à¦¤":483,"à¦¯à¦¦":484,"à¦¯à¦®":485,"à§Łà¦¸":486,"à¦ĩà¦¤":487,"à¦ĩà¦¬":488,"à¦°à¦®à¦§":489,"à¦ļà¦¨":490,"à¦°à¦ªà¦°":491,"à¦²à¦®":492,"à¦§à¦°":493,"à¦¸à¦¹":494,"à¦Łà¦¨":495,"à¦°à¦ĸ":496,"à¦¨à¦Ĩ":497,"à¦¯à¦¨":498,"à¦²à¦¸":499,"à¦ķà¦¦":500,"à¦ĩà¦®":501,"à¦¸à¦¨":502,"à¦ĩà¦Ł":503,"à¦ķà¦¤":504,"à¦ħà¦°":505,"à¦®à¦¦":506,"à¦®à¦¬":507,"à¦¸à¦°":508,"à¦ıà¦Ł":509,"à¦¨à¦ľ":510,"à¦¨à¦ķà¦°":511,"à¦¸à¦ª":512,"à¦ķà¦ª":513,"à¦®à¦¹":514,"à¦°à¦Ł":515,"à¦¨à¦Ĺ":516,"à¦Ĩà¦°":517,"¦¢":518,"à¦¢":519,"à¦¨à¦¯":520,"à¦ħà¦Ń":521,"à¦ķà¦ķ":522,"à§§à§¯":523,"à§§à§¦":524,"à¦¨à¦Ń":525,"à¦¶à¦ķ":526,"à¦ªà§ľ":527,"à¦®à¦²":528,"à¦¬à¦ķ":529,"à¦¸à¦ķ":530,"à¦¨à¦°":531,"à¦Ĩà¦®à¦°":532,"à¦Ĩà¦Ĺ":533,"à¦¨à¦ı":534,"à¦Ĩà¦Ľ":535,"à¦Ĩà¦¨":536,"à¦®à¦ķ":537,"à¦Łà¦ķ":538,"à¦ªà¦ķ":539,"à¦¤à¦ķà¦°":540,"à¦ªà¦¦":541,"à¦°à¦ħà¦¨":542,"à¦ĵà¦¸":543,"à¦¬à¦¬":544,"à¦®à¦°":545,"à¦¯à¦¬à¦¹":546,"à§Łà¦¬":547,"à¦ĵà¦¬":548,"à¦¦à¦°":549,"à¦¯à¦¸":550,"à¦ķà¦¨":551,"à¦ħà¦¬":552,"à¦ĩà¦ª":553,"à¦Ĺà¦¤":554,"à¦²à¦ª":555,"à¦¼à¦¿":556,"à¦¯à¦¬à¦¸":557,"à§¨à§¦à§¨à§¨":558,"à¦®à¦ª":559,"à¦ĩà¦¸à¦²":560,"à¦¨à¦¶":561,"à¦Ĩà¦ľ":562,"à¦°à§Ł":563,"à¦Ĺà¦²":564,"à¦ĵà¦ª":565,"à¦¬à¦ª":566,"à¦ĩà¦°":567,"à§Łà¦ķ":568,"à¦¯à¦¤":569,"à¦¬à¦Ľ":570,"à¦¦à¦¸":571,"à¦īà¦¤":572,"à¦¤à¦ª":573,"à¦¤à¦¸":574,"à¦°à¦¸à¦Ļ":575,"à¦¹à¦ļ":576,"à¦ĩà§Ł":577,"à¦¯à¦ª":578,"à¦Ĺà¦ŀ":579,"à¦¸à¦Ń":580,"à§Łà¦ª":581,"à§Łà¦¤":582,"à¦²à¦¹":583,"à¦ĩà¦¡":584,"à¦ĩà¦ľ":585,"à§Łà¦¦":586,"à§ĩà¦¾":587,"à¦ķà¦°à¦¬":588,"à¦°à¦®à¦¤":589,"à¦īà¦ľ":590,"à¦²à¦Ĺ":591,"à¦ľà¦®":592,"à¦¤à¦¥":593,"à§Łà¦®":594,"à¦¶à¦¬":595,"à¦ĸà¦¤":596,"à¦ıà¦²":597,"à§§à§¨":598,"à¦°à¦īà¦ª":599,"à¦¨à¦Ł":600,"à¦¸à¦°à¦ķ":601,"à¦ķà¦¥":602,"à¦ĩà¦Ń":603,"à¦¶à¦°":604,"à¦ĸà¦¬":605,"à¦Ĺà¦°":606,"à¦¨à¦ĵ":607,"à¦¹à¦®":608,"à¦¨à¦¹":609,"à¦°à¦¡":610,"à¦¨à¦®à¦¨":611,"à¦°à¦¬à¦°":612,"à¦¬à¦¦":613,"à¦¤à¦¦":614,"à§§à§®":615,"à¦·à§Ł":616,"à¦Ĺà¦¬":617,"à¦ªà¦¡":618,"à¦°à¦Ĩà¦Ĺ":619,"à§§à§«":620,"à¦ıà¦®à¦¨":621,"à¦ħà¦¸":622,"à¦Łà¦¬":623,"à¦¸à¦®à§Ł":624,"à¦§à¦¨":625,"à¦Ĩà¦°à¦ĵ":626,"à¦ħà¦¤":627,"à¦«à¦²":628,"à§ģà¦ģ":629,"à¦¬à¦¹":630,"à¦Ĺà¦£":631,"à¦¨à¦ļ":632,"à¦ĩà¦ī":633,"à¦ħà¦§":634,"à¦°à¦ĺ":635,"à¦°à¦ıà¦ķà¦Ł":636,"à¦ĩà¦¦":637,"à¦²à§Ł":638,"à¦ķà¦°à¦²":639,"à§§à§Ń":640,"à§§à§ª":641,"à¦ľà¦¬":642,"à¦Ĩà¦ķ":643,"à¦Łà¦¸":644,"à¦īà¦²":645,"à¦¤à¦¹à§Ł":646,"à¦·à¦ķ":647,"à¦¨à¦ıà¦¬":648,"à¦°à¦¹à¦®":649,"à¦°à¦ķà¦¥":650,"à§¦à§¦":651,"à¦Ĩà¦¦":652,"à¦¸à¦²":653,"à¦ıà¦ĸ":654,"à¦Łà¦ª":655,"à¦ĵà¦¤":656,"à§İà¦¸":657,"à¦¹à¦¸":658,"à¦ıà¦ĸà¦¨":659,"à¦ıà¦®":660,"à¦īà¦ł":661,"à¦īà¦ªà¦ľ":662,"à§§à§¬":663,"à¦¤à¦¤":664,"à¦ľà¦¸":665,"à¦Łà¦Ĺ":666,"à¦²à¦Ń":667,"à¦¬à¦¤":668,"à¦ħà¦ª":669,"à¦¼à§ĭ":670,"à¦¦à¦ª":671,"à§§à§©":672,"à¦°à¦ħà¦Ń":673,"à¦¶à¦¤":674,"à¦īà¦ļ":675,"à¦°à¦®à¦£":676,"à¦°à¦īà¦¦":677,"à¦ĩà¦¯":678,"à¦®à¦®":679,"à¦ķà¦°à¦Ľ":680,"à¦ļà¦Ł":681,"à¦ħà¦¬à¦¸":682,"à¦¸à¦¸":683,"à¦Ľà¦¬":684,"à¦ħà¦«":685,"à¦ĵà¦®":686,"à¦ķà¦Ń":687,"à¦¦à¦²":688,"à¦¹à¦°":689,"à¦¸à¦¤":690,"à¦ĵà¦ķ":691,"à¦ĺà¦Łà¦¨":692,"à¦Ĺà¦¨":693,"à¦ĵà¦Ń":694,"à¦¦à¦¶":695,"à¦ĩà¦īà¦¨":696,"à¦ıà¦¨à¦ª":697,"à¦Łà¦®":698,"à¦·à¦¤":699,"à¦¬à¦¶":700,"à¦ľà¦°":701,"à¦²à¦¦":702,"à¦¨à¦²":703,"¦Ī":704,"à¦Ī":705,"à¦°à¦ıà¦ķ":706,"à¦«à¦¤":707,"à¦°à¦®à¦¨":708,"à¦ĩà¦¹":709,"à¦¸à¦¦":710,"à¦¸à¦®à¦¸":711,"à¦®à¦ķà¦°":712,"à¦¥à¦¨":713,"à¦°à¦¹à¦£":714,"à¦°à¦°à¦¹à¦®":715,"à¦Ĩà¦ĩà¦¨":716,"à¦°à¦¥à¦®":717,"à¦ħà¦ªà¦°":718,"à¦ıà¦ķà¦ľà¦¨":719,"à¦¬à¦²à¦²":720,"à¦Ĺà¦ł":721,"à¦ĵà¦¨":722,"à¦īà¦Ł":723,"à¦Ľà¦¨":724,"à¦ıà¦¨":725,"à¦ĸà¦²":726,"à¦¶à¦ķà¦°":727,"à¦¨à¦Ĩà¦®":728,"à¦«à¦°":729,"à¦¶à¦¸":730,"à¦¦à¦®":731,"à¦¶à¦ª":732,"à¦ľà¦¶":733,"à§§à§§":734,"à¦·à¦¦":735,"à¦·à¦¯":736,"à¦¤à¦¹":737,"à¦ļà¦ķ":738,"à¦²à¦¯":739,"à¦ħà¦ķ":740,"à¦ĵà¦¦":741,"à¦ķà¦¶":742,"à¦²à¦ľ":743,"à¦Ĺà¦ķà¦°":744,"à¦ĩà¦«":745,"à¦§à¦¬":746,"à¦¸à¦®à¦¯":747,"à¦Ĩà¦¶":748,"à¦¯à¦ķà¦°":749,"à¦²à¦ĩà¦¸à¦²":750,"à§¨à§ª":751,"à¦®à¦ľ":752,"à¦®à¦Ĺ":753,"à¦Ĩà¦¤":754,"à¦°à¦¸à¦Ń":755,"à¦Łà¦ķà¦°":756,"à¦ªà¦¸":757,"à¦¤à¦²":758,"à¦ĩà¦ļ":759,"à¦¥à¦¬":760,"à¦ıà¦¤":761,"à¦ĺà¦°":762,"à¦ıà¦ª":763,"à§Łà¦Ĺ":764,"à¦ĺà¦Ł":765,"à¦¨à¦«":766,"à¦¯à¦°":767,"à¦ŀà¦ª":768,"à¦Ńà¦°":769,"à¦®à¦¶":770,"à¦ķà¦ķà¦°":771,"à§·":772,"à§Łà¦°":773,"à§©à§¦":774,"à¦°à¦ķà¦²":775,"à¦Ĺà¦¦":776,"à¦¨à¦¡":777,"à¦ľà¦ķà¦°":778,"à¦Ńà¦¬":779,"à¦°à¦£à¦ķà¦°":780,"à¦ķà¦ļ":781,"à¦®à¦§":782,"à¦¨à¦¥":783,"à§¨à§¦à§¨à§§":784,"à¦¦à¦¬":785,"à¦ªà¦¬":786,"à¦²à¦ķà¦°":787,"à¦¨à¦ĸ":788,"à¦¨à¦ªà¦°":789,"à¦¯à¦¥":790,"à§¨à§«":791,"¦Ĳ":792,"à¦Ĳ":793,"à¦¬à¦Ľà¦°":794,"à¦°à¦Ĩà¦²":795,"à¦ıà¦Ĺ":796,"à¦¶à¦¦":797,"à¦²à¦°":798,"à¦¨à§Ł":799,"à¦°à¦ıà¦¬":800,"à¦ĵà¦²":801,"à¦¤à¦¹à¦¯":802,"à¦¬à¦®":803,"à¦¶à¦¹":804,"à¦ľà¦ª":805,"à¦°à¦ķà¦®":806,"à¦Ĺà¦®":807,"à§ĩà¦ģ":808,"à¦ħà¦¨à¦²":809,"à¦¶à¦Ĺ":810,"à¦ªà¦²":811,"à¦£à¦¬":812,"à§ĭà¦ģ":813,"à¦Ĩà§Ł":814,"à¦¬à¦²à¦¤":815,"à¦¹à¦ķ":816,"à¦ľà¦²":817,"à¦ıà¦¸à¦¸":818,"à§İà¦ķ":819,"à¦§à¦ķà¦°":820,"à¦°à¦Ĩà¦®":821,"à¦ıà¦¦":822,"à¦ľà¦ķ":823,"à¦°à¦¸à¦¬":824,"à¦¨à¦¸à¦®":825,"à¦²à¦¥":826,"à¦§à¦°à¦¨":827,"à¦¨à¦ıà¦ĩ":828,"à¦¡à¦²":829,"à¦¼à§Ģ":830,"à¦ıà¦°à¦ª":831,"à¦²à¦Ł":832,"à¦ħà¦¬à¦¶":833,"à¦ĩà¦¶":834,"à¦·à¦®à¦¤":835,"à¦¤à¦ľ":836,"à¦Ĩà¦ĵà§Ł":837,"à¦°à¦¬à¦¨":838,"à¦¸à¦Ł":839,"à¦īà¦ķ":840,"à¦¡à¦ķ":841,"à¦Łà¦¦":842,"à¦¤à¦Ń":843,"à¦ĵà¦°":844,"à¦ľà¦¨à¦ª":845,"à¦¡à¦¸":846,"à¦Łà¦°":847,"à¦īà§İ":848,"à§¨à§¦à§¦":849,"à¦²à¦«":850,"à¦§à¦¤":851,"à¦·à¦®":852,"à¦¸à¦ķà¦°":853,"à¦ĩà¦Ĺ":854,"à¦¯à¦¶":855,"à¦ļà¦°":856,"à¦°à¦ħà¦§":857,"à¦°à¦ĸà¦¬":858,"à¦¨à¦Ĩà¦ªà¦¨":859,"à¦¤à¦Ľ":860,"à¦Ĺà¦¬à¦¨":861,"à¦²à¦²":862,"à¦Ĩà¦Łà¦ķ":863,"à¦¼à§ģ":864,"à¦¹à¦ľ":865,"à§¨à§®":866,"à§Łà¦¶":867,"à¦īà¦ªà¦¸":868,"à¦¬à§ľ":869,"à¦¹à¦ĵà§Ł":870,"à¦Ĩà¦°à¦¬":871,"à¦¨à¦ħ":872,"à¦Ĺà¦ª":873,"à¦ķà¦Ĺ":874,"à¦¤à¦¶":875,"à§¨à§©":876,"à¦®à¦¯":877,"à¦ıà¦«":878,"à¦ıà¦¸à¦¬":879,"à¦¸à¦«":880,"à¦ĵà¦ľ":881,"à¦¡à¦¬":882,"à¦ªà¦£":883,"à§¨à§¯":884,"à¦¹à§Łà¦¨":885,"à¦°à¦Ĩà¦¬":886,"à¦°à¦ļà¦¨":887,"à¦ªà¦Ł":888,"à¦Ĩà¦ĩ":889,"à¦¸à¦ļ":890,"à¦¨à¦ħà¦¨":891,"à¦ĸà¦¹":892,"à¦ķà¦¸à¦®":893,"à§«à§¦":894,"à¦¸à¦Ļ":895,"à¦°à¦ħà¦°":896,"à¦¯à¦ĸ":897,"à¦²à¦ļ":898,"à¦°à¦¸à¦°":899,"à¦¦à¦¦":900,"à¦ķà¦¯":901,"à¦¯à¦ľ":902,"à¦°à¦¸à¦¨":903,"à¦¤à¦ĸ":904,"à¦ķà¦ľ":905,"à¦¬à¦¡":906,"à¦ĩà¦Ĩà¦®":907,"à¦°à¦ĵà¦ª":908,"à§¨à§¬":909,"à¦ªà¦¥":910,"à¦ķà¦¹":911,"à¦®à¦ļ":912,"à¦¯à¦¯":913,"à§¨à§¦à§¨à§¦":914,"à¦ıà¦ĩà¦¬":915,"à¦°à¦ªà¦ķ":916,"à¦°à¦Ĩà¦¨":917,"à¦ªà¦¶":918,"à¦ĵà¦¶":919,"à¦ķà¦ªà¦°":920,"à¦¾à¦ĥ":921,"à§ĭà¦ĥ":922,"à¦¥à¦®":923,"à¦·à¦¸":924,"à¦°à¦Ĺà¦²":925,"à¦ľà§Ł":926,"à¦²à¦Ľ":927,"à¦ıà¦ķà¦¬":928,"à¦¸à¦ķà¦²":929,"à¦Ĺà§ľ":930,"à¦Ĩà¦¹":931,"à¦·à¦ķà¦°":932,"à¦²à¦¶":933,"à¦Ĩà¦ľà¦ķ":934,"à¦Łà¦¬à¦²":935,"à¦°à¦«à¦²":936,"à¦¨à¦Ľ":937,"à¦ıà¦Ľ":938,"à¦ķà¦°à¦£":939,"à¦ıà¦ĩà¦ļ":940,"à§¨à§Ń":941,"à¦¨à¦¬à¦²":942,"à¦ľà¦¨à¦ķ":943,"à¦¡à¦®":944,"à§Łà¦¯":945,"à¦¬à¦Ļ":946,"à¦¹à§Łà¦¤":947,"à¦¶à¦®":948,"à¦Łà¦²":949,"à¦ĩà¦Ľ":950,"à¦°à¦ªà¦¤":951,"à¦Ĩà¦ª":952,"à§Łà¦ľ":953,"à¦Ĺà¦¸":954,"à§Łà¦Ń":955,"à¦Łà¦Ł":956,"à§¨à§¨":957,"à¦°à¦īà¦¤":958,"à¦¨à¦ıà¦ķ":959,"à¦¡à¦ª":960,"à¦¤à¦Ĺ":961,"à§®à§¦":962,"à¦¬à¦ľ":963,"à¦ĵà¦ļ":964,"à¦¬à¦²à¦Ľ":965,"à¦Łà¦¤":966,"à¦Łà¦ľ":967,"à¦¨à§Łà¦¨":968,"à¦¯à¦Ĺ":969,"à¦Ĺà¦²à¦¨":970,"à¦ĩà¦¨à¦¸":971,"à¦¦à¦ķà¦°":972,"à¦°à¦®à¦¹":973,"à¦Ĺà¦ķ":974,"à¦¨à¦Ĩà¦²":975,"à¦ĺà¦¨":976,"à¦°à¦ķà¦°à¦¤":977,"à¦°à¦¸à¦¹":978,"à¦²à¦Ĩ":979,"à¦°à¦¸à¦®à¦¯":980,"à¦Ĩà¦¸à¦Ľ":981,"à¦¤à¦¹à¦¬":982,"à§¨à§§":983,"à¦ħà¦Ĺ":984,"à¦¸à¦¦à¦¸":985,"à¦ıà¦ĩà¦ª":986,"à¦·à¦ª":987,"à¦¡à¦¨":988,"à§ªà§¦":989,"à¦ĵà¦Ĺ":990,"à¦ļà¦®":991,"à¦°à¦¸à¦ķ":992,"à¦°à¦¶à¦°":993,"à¦Ĩà¦¸à¦²":994,"à¦¶à¦¨à¦ĵà¦Ń":995,"à¦ıà¦ĩà¦¸":996,"à¦£à¦¨":997,"à¦°à¦£à¦¸à¦®":998,"à¦°à¦īà¦ªà¦°":999,"à¦°à¦Ĩà¦°":1000,"à¦£à¦®":1001,"à¦°à¦®à¦£à¦Ĺ":1002,"à¦ªà¦®":1003,"à¦ķà¦ĸà¦¨":1004,"à¦®à¦¨à¦¸":1005,"à¦¦à¦¤":1006,"à¦Łà¦«":1007,"à¦ĩà¦ķà¦°":1008,"à¦Ĩà¦°à¦ķ":1009,"à¦°à¦²à¦ķ":1010,"à¦ľà¦¤":1011,"à¦°à¦¹à¦£à¦ķà¦°":1012,"à¦ķà¦Ľ":1013,"à¦¿à¦ĥ":1014,"à¦°à¦¬à¦²":1015,"à¦®à§Ł":1016,"à¦ĵà¦ł":1017,"à¦ļà¦¤":1018,"à¦ĸà¦ķ":1019,"à¦¯à¦ĸà¦¨":1020,"à¦¤à¦ļ":1021,"à¦¤à¦Ł":1022,"à¦ĵà¦¹":1023,"à¦°à¦¹à§Ł":1024,"à¦§à¦ķ":1025,"à¦¶à¦Ł":1026,"à§¨à§¦à§§à§¯":1027,"à¦°à¦ĵà¦¬":1028,"à¦ªà¦ª":1029,"à¦īà¦ĩà¦ķ":1030,"à¦·à¦¨":1031,"à¦ıà¦ķà¦¦":1032,"à¦®à¦¡":1033,"¦ĭ":1034,"à¦ĭ":1035,"à¦°à¦¨à¦¤":1036,"à¦°à¦Ļ":1037,"à¦°à¦ĺà¦Łà¦¨":1038,"à¦ļà¦²à¦Ľ":1039,"à¦°à¦§à¦°":1040,"à¦īà¦ªà¦²à¦ķ":1041,"à¦ıà¦°":1042,"à¦¨à¦¬à¦¨":1043,"à¦£à¦ķ":1044,"à¦ħà¦²":1045,"à¦¤à¦°à¦£":1046,"à¦ıà¦®à¦¨à¦ķ":1047,"à¦Ĩà¦Ĺà¦¸":1048,"à¦ĵà¦¸à¦®":1049,"à¦¤à¦ĸà¦¨":1050,"à¦ĵà¦ħà¦¨":1051,"à¦Ĩà¦¬à¦¦":1052,"à¦¤à¦«":1053,"à¦£à¦ª":1054,"à¦¸à¦¬à¦ļ":1055,"à¦Ĺà¦²à¦¬":1056,"à¦¬à¦Ń":1057,"à¦¹à¦¨":1058,"à¦īà¦¨à¦²":1059,"à¦ķà¦«":1060,"à¦ħà¦®":1061,"à¦°à¦ĩà¦¤":1062,"à¦Ĺà¦łà¦¨":1063,"à¦·à¦¬":1064,"à¦ıà¦°à¦¸":1065,"à¦¯à¦Ń":1066,"à¦Ľà¦°":1067,"à¦ľà¦¨à¦ķà¦°":1068,"à§Įà¦ģ":1069,"à¦¶à¦²":1070,"à¦ľà¦Ł":1071,"à¦¸à¦ľ":1072,"à¦Ĩà¦¯":1073,"à¦ħà¦¥à¦¬":1074,"à¦ľà¦¦":1075,"à¦ĸà¦°":1076,"à¦°à¦Ŀ":1077,"à¦łà¦ķ":1078,"à¦Ĩà¦°à¦ı":1079,"à¦²à¦¡":1080,"à¦ľà¦¯":1081,"à¦ľà¦§":1082,"à¦¤à¦ªà¦°":1083,"à¦°à¦ªà¦¥":1084,"à¦®à¦Ł":1085,"à¦¯à¦¹":1086,"à¦ħà¦ŀ":1087,"à¦¤à¦¯":1088,"à¦°à¦īà¦ªà¦ľ":1089,"à¦īà¦¡":1090,"à¦¬à¦¯":1091,"à¦Ĩà¦§":1092,"à§Łà¦¹":1093,"à¦°à¦¦à¦°":1094,"à¦°à¦¸à¦¦à¦¸":1095,"à§¨à§¦à§§à§®":1096,"à§Łà¦ļ":1097,"à¦Ńà¦ķ":1098,"à¦¨à¦¤à¦¬":1099,"à¦ĸà¦®":1100,"à¦·à§Łà¦Ł":1101,"à¦°à¦Ĩà¦¶":1102,"à¦°à¦¤à¦¥":1103,"à¦Ľà§ľ":1104,"à¦ķà¦ĸ":1105,"à¦ĩà¦īà¦°":1106,"à¦ıà¦¡":1107,"à¦¯à¦®à¦¨":1108,"à¦Łà¦Ń":1109,"à¦ĵà¦ªà¦°":1110,"à¦ıà¦¶":1111,"à¦īà¦®":1112,"à¦Łà¦¹":1113,"à¦ķà¦¡":1114,"à¦ĺà¦£":1115,"à§Łà¦ķà¦°":1116,"à¦²à¦ĸ":1117,"à¦ļà¦¬":1118,"à¦ľà¦¹":1119,"à¦¥à¦ķ":1120,"à¦¾à§ĩ":1121,"à¦¤à¦ķà¦°à¦¤":1122,"à¦Īà¦¦":1123,"à¦ĩà¦ĸ":1124,"à¦¸à¦¹à¦ľ":1125,"à¦īà¦¬":1126,"à¦Ĩà¦¹à¦®":1127,"à¦¯à¦Ł":1128,"à¦Ĺà¦ľ":1129,"à§Łà¦²":1130,"à¦Ĩà¦«":1131,"à¦ľà¦¨à¦¸":1132,"à§©à§«":1133,"à¦ĸà¦Ľ":1134,"à¦ĩà¦¨à¦®":1135,"à¦Ŀà¦¤":1136,"à¦£à¦¸":1137,"à¦°à¦ħà¦¬à¦¸":1138,"à¦°à¦¸à¦®à¦¸":1139,"à¦²à¦ªà¦°":1140,"à¦Ĩà¦¨à¦¨":1141,"à¦ĵà¦Ł":1142,"à¦ĩà¦¥":1143,"à¦«à¦Ł":1144,"à§ľà¦ķ":1145,"à¦¨à¦īà¦¤":1146,"à¦¦à¦¹":1147,"à¦°à¦ł":1148,"à¦¯à¦ħà¦¨":1149,"à¦°à¦¸à¦®à§Ł":1150,"à¦ľà¦Ĺ":1151,"à¦®à¦ĸ":1152,"à§ªà§«":1153,"à¦ĩà¦¬à¦¨":1154,"à¦¦à¦ľ":1155,"à¦īà¦°":1156,"à¦®à¦¥":1157,"à¦¸à¦®à¦°":1158,"à¦¡à¦Ł":1159,"à¦ıà¦®à¦ª":1160,"à¦²à¦¨à¦ķà¦°":1161,"à¦¸à¦¬à¦ķ":1162,"à¦¡à¦ķà¦°":1163,"à¦²à¦ıà¦¬":1164,"à¦ıà¦°à¦¬":1165,"à¦Łà¦¥":1166,"à¦£à¦¤":1167,"à¦ıà¦Ń":1168,"à¦ķà¦ľà¦¨":1169,"à§¬à§¦":1170,"à¦°à¦ĵà§Ł":1171,"à¦®à¦¸à¦ľ":1172,"à¦īà§İà¦ª":1173,"à¦°à¦ıà¦ĩ":1174,"à¦²à¦Ĩà¦®":1175,"à¦¨à¦§à¦°":1176,"à¦®à¦Ń":1177,"à¦ıà¦°à¦ķ":1178,"à¦°à¦¹à¦¤":1179,"à¦ħà¦¶":1180,"à§©à§©":1181,"à¦ŀà¦¤":1182,"à¦ķà§Ł":1183,"à¦°à¦Ĺà¦ŀ":1184,"à¦ıà¦¸à¦ıà¦¸à¦¸":1185,"à¦ĸà¦ķà¦°":1186,"à¦¤à¦¹à¦²":1187,"à¦ļà¦²à¦¤":1188,"à¦¦à¦Ĺ":1189,"à¦Ĩà¦¹à¦¤":1190,"à¦¨à¦ıà¦ķà¦Ł":1191,"à¦®à¦Ļ":1192,"à¦¬à¦Ĺ":1193,"à¦Ĩà¦¸à¦¤":1194,"à¦Ĩà¦°à¦¸":1195,"à¦Ńà¦¬à¦¨":1196,"à¦ĩà¦¸à¦®":1197,"à¦¬à¦²à¦¬":1198,"à¦°à¦īà¦¨":1199,"à¦¬à¦¸à¦®":1200,"à¦¥à¦²":1201,"à¦°à¦ŀ":1202,"à¦°à¦ħà¦¸":1203,"à¦Ĩà¦ªà¦¡":1204,"à¦¨à¦ķà¦®":1205,"à¦ıà¦ķà¦®":1206,"à¦ķà¦ł":1207,"à¦¸à¦Ĺ":1208,"à¦¨à¦Ĩà¦¬":1209,"à¦Łà¦ĸ":1210,"à¦°à¦¢":1211,"à¦¶à¦ľ":1212,"à¦Ĩà¦¸à¦¬":1213,"à¦Ĩà¦ļ":1214,"à¦°à¦¸à¦°à¦ķ":1215,"à¦Ĳà¦¤":1216,"à§¨à§¦à§§à§Ń":1217,"à¦¯à¦²":1218,"à¦ħà¦ľ":1219,"à¦¶à¦«":1220,"à¦Ľà¦¥":1221,"à¦·à¦°":1222,"à§ģà¦ĥ":1223,"à§§à§¦à§¦":1224,"à§©à§§":1225,"à¦ĵà¦¡":1226,"à¦¤à¦¸à¦®":1227,"à§¯à§¯":1228,"à¦ªà¦ķà¦°":1229,"à¦°à¦Ĩà¦ķ":1230,"à¦¤à¦¹à¦¤":1231,"à¦§à¦¨à¦ķà¦°":1232,"à¦¸à¦¡":1233,"à§Ńà§¦":1234,"à¦°à¦Ĩà¦¤":1235,"à¦ĸà¦Ł":1236,"à¦§à¦®":1237,"à¦°à¦Ĩà§Ł":1238,"à¦·à¦ľ":1239,"à¦¯à¦¤à¦®":1240,"à§Łà¦«":1241,"à¦ĩà¦¨à¦¬":1242,"à¦°à¦Ĺà¦¤":1243,"à¦ĵà¦ĸ":1244,"à¦®à¦«":1245,"à¦ıà¦°à¦®":1246,"à§Łà¦ªà¦°":1247,"à§ªà§©":1248,"à¦Īà¦¶":1249,"à¦ĩà¦ŀ":1250,"à¦ªà¦¨à¦ķà¦°":1251,"à¦°à¦Ľà¦¬":1252,"à¦ķà¦²à¦ķ":1253,"à¦ĩà¦īà¦ª":1254,"à¦¡à¦Ń":1255,"à¦¦à¦ķà¦®":1256,"à¦²à¦Ĩà¦²":1257,"à¦¹à¦ª":1258,"à¦§à¦¸":1259,"à¦ĩà¦«à¦¸":1260,"à¦·à¦¥":1261,"à¦°à¦Ĩà¦¸":1262,"à¦¶à¦Ń":1263,"à¦ĵà¦Ĩà¦®":1264,"à¦¦à¦¨à¦ķà¦°":1265,"à§Ńà§«":1266,"à¦¯à¦ļ":1267,"à¦ıà¦ĩà¦¦":1268,"à¦ĩà¦¨à¦ķ":1269,"à¦ľà¦ľ":1270,"à¦¨à¦ľà¦°":1271,"à¦¦à¦Ł":1272,"à¦·à¦ªà¦°":1273,"à¦¬à¦°à¦¸":1274,"à¦Ĺà¦Ń":1275,"à¦°à¦ħà¦ª":1276,"à¦ıà¦ĩà¦ķ":1277,"à¦ıà¦ĩà¦®":1278,"à¦¤à¦°à¦¦":1279,"à¦¨à¦ĵà¦ª":1280,"à¦Łà¦ļ":1281,"à¦ļà¦²à¦ļ":1282,"à§ªà§ª":1283,"à¦°à¦Ĩà¦¦":1284,"à¦¬à¦ķà¦°":1285,"à¦Ĺà¦¡":1286,"à¦ĵà¦ĩ":1287,"à¦°à¦¸à¦ķà¦²":1288,"à¦ıà¦¸à¦ª":1289,"à¦°à¦¹à¦¸":1290,"à§Łà¦ħà¦¨":1291,"à¦°à¦ĵà¦¯":1292,"à¦ľà¦¨à¦¨":1293,"à¦«à¦¸":1294,"à¦¬à¦ļ":1295,"à¦¨à¦ķà¦°à¦¤":1296,"à¦£à¦¦":1297,"à¦°à¦ķà¦¬":1298,"à¦¹à¦¹":1299,"à¦¤à¦ıà¦¬":1300,"à¦ªà¦°à¦¬à¦°":1301,"à¦Ĩà¦Ł":1302,"à¦Ńà§Ł":1303,"à§©à§¬":1304,"à¦¨à¦Ĩà¦®à¦°":1305,"à¦ıà¦°à¦®à¦§":1306,"à¦ĵà¦«":1307,"à¦°à¦¸à¦¬à¦ļ":1308,"à¦¶à¦¹à¦°":1309,"à¦īà¦ªà¦ķ":1310,"à¦ªà¦Ĺ":1311,"à¦ľà¦¥":1312,"à§ľà¦¤":1313,"à¦°à¦ıà¦²":1314,"à¦¸à¦ł":1315,"à¦°à¦ªà¦¦":1316,"à¦ľà¦¨à¦Ĺà¦£":1317,"à¦¯à¦¸à¦®":1318,"à¦¦à¦¸à¦®":1319,"à¦¨à¦ıà¦Ł":1320,"à¦¨à¦ħà¦¤":1321,"à¦ĩà¦īà¦ķ":1322,"à¦¶à¦¶":1323,"à¦ľà¦¡":1324,"à¦£à¦ķà¦°":1325,"à¦īà¦¦à¦¯":1326,"à¦¹à¦ĵà¦¯":1327,"à¦¨à¦¹à§Ł":1328,"à¦¨à¦Ĩà¦Ĺ":1329,"à¦Ĩà¦°à¦¤":1330,"à¦·à¦£à¦ķà¦°":1331,"à¦®à¦Ľ":1332,"à¦¬à¦ĩ":1333,"à§§à§¯à§¯":1334,"à¦°à¦Ĩà¦ªà¦¨":1335,"à¦īà¦ªà¦¨":1336,"à¦¥à¦¸":1337,"à¦īà¦ªà¦°":1338,"à§«à§«":1339,"à¦īà¦¸":1340,"à¦ıà¦ķà¦¸":1341,"à¦®à¦Ĩà¦®":1342,"à¦°à¦ĩà¦īà¦¨":1343,"à¦®à¦£":1344,"à¦²à¦ķà¦²":1345,"à¦¯à¦ıà¦ķà¦Ł":1346,"à¦ĩà¦Ĩà¦ªà¦¨":1347,"à§Łà¦Ł":1348,"à¦Ĺà¦¤à¦ķ":1349,"à¦Łà¦Ľ":1350,"à¦Ĩà¦ĩà¦¸":1351,"à¦°à¦ħà¦ķ":1352,"à¦¤à¦ħà¦¨":1353,"à¦°à¦¬à¦ķ":1354,"à¦°à¦ĵà¦¸":1355,"à¦ĩà¦¬à¦²":1356,"à¦¥à¦ª":1357,"à¦®à¦Ĺà¦ŀ":1358,"à¦Ĺà¦¤à¦¬":1359,"à¦²à¦¹à¦ķ":1360,"à§©à§ª":1361,"à¦Ńà¦¯":1362,"à¦ļà§Ł":1363,"à¦ªà¦·":1364,"à¦¯à¦ªà¦°":1365,"à¦·à§Łà¦ķ":1366,"à¦¦à¦°à¦ķ":1367,"à¦°à¦Ĩà¦¹":1368,"à¦°à¦ĩà¦¨":1369,"à¦°à¦ĵà¦ªà¦°":1370,"à¦Łà¦¶":1371,"à¦ªà¦ļ":1372,"à¦£à¦Ń":1373,"à¦¶à¦¨à¦¸":1374,"à¦ľà§ľ":1375,"à¦Ńà¦ķà¦°":1376,"à¦¸à¦²à¦®":1377,"à¦°à¦ħà¦¤":1378,"à¦¨à¦Ĺà¦°":1379,"à¦°à¦®à¦ľ":1380,"à¦¬à¦§":1381,"à¦ıà¦ĩà¦¨":1382,"à¦°à¦¹à¦¯":1383,"à¦¨à¦¸à¦°à¦ķ":1384,"à¦¬à¦°à¦¨":1385,"à¦¶à¦¨à¦¬":1386,"à¦īà§İà¦¸à¦¬":1387,"à¦¹à¦«":1388,"à¦°à¦ĸà¦¬à¦°":1389,"à¦°à¦£à¦¬":1390,"à¦°à¦£à¦¸":1391,"à¦¦à¦ķà¦¬":1392,"à¦¦à¦°à¦¬":1393,"à¦¤à¦°à¦¬":1394,"à§§à§¯à§Ń":1395,"à§¨à§¦à§§à§¬":1396,"à¦ĵà¦ķà¦°":1397,"à¦®à¦ªà¦°":1398,"à¦°à¦¥à¦®à¦¬":1399,"à¦¹à§Łà¦¸":1400,"à¦°à¦¦à¦²":1401,"à¦°à¦·":1402,"à¦®à¦ıà¦¬":1403,"à§Łà¦£":1404,"à¦¬à¦°à¦¬":1405,"à¦¸à¦¶":1406,"à¦Ĺà¦Ľ":1407,"à§Łà¦¸à¦®":1408,"à¦ķà¦ħà¦¨":1409,"à¦Ĩà¦¹à¦®à¦¦":1410,"à¦°à¦¹à¦²":1411,"à¦¨à¦§":1412,"à¦¸à¦¥":1413,"à¦®à¦¨à¦ķ":1414,"à¦ħà¦Ļ":1415,"à¦°à¦£à¦ķ":1416,"à§Łà¦ĸ":1417,"à¦¶à¦¥":1418,"à¦¬à¦²à¦®":1419,"à¦Łà¦ªà¦°":1420,"à§İà¦ª":1421,"à¦ĩà¦ħà¦¨":1422,"à¦°à¦Ĩà¦ĵà¦¤":1423,"à¦ļà¦¯":1424,"à¦¶à¦¯":1425,"à¦ĩà¦ªà¦°":1426,"à¦¦à¦¨à¦¬":1427,"à¦¹à¦¯à¦°à¦¤":1428,"à¦¬à¦Ľà¦°à¦¬":1429,"à¦°à¦¹à¦¬":1430,"à¦ķà¦ĵ":1431,"à¦Łà¦°à¦¸":1432,"à§©à§®":1433,"à¦ľà¦¨à¦¬":1434,"à¦¤à¦°à¦Ĺ":1435,"à¦¹à¦ķà¦°":1436,"à¦¥à¦°":1437,"à¦§à¦ª":1438,"à¦·à¦ķà¦¦":1439,"à¦°à¦¦à¦ķ":1440,"à¦°à¦Ī":1441,"à¦®à¦¹à¦¤":1442,"à¦¥à¦¤":1443,"à¦·à¦Ł":1444,"à¦ĩà¦īà¦Ł":1445,"à¦ħà¦¦":1446,"à¦īà§ľ":1447,"à§¯à§¦":1448,"à¦¡à¦°":1449,"à§©à§Ń":1450,"à¦ľà¦ķà¦°à¦¤":1451,"à¦¨à¦Ĩà¦°":1452,"à¦°à¦ľà¦®":1453,"à§ªà§®":1454,"à¦ıà¦ľ":1455,"à¦¯à¦Ĩà¦®":1456,"à¦¦à¦¯":1457,"à¦®à¦¸à¦®":1458,"à¦ıà¦°à¦Ĩà¦Ĺ":1459,"à¦°à¦ĩà¦®":1460,"à¦°à¦¸à¦¦":1461,"à§¨à§¦à§§à§«":1462,"à¦Ńà¦Ł":1463,"à¦Ĩà¦ĩà¦¡":1464,"à¦¸à¦¹à¦ķ":1465,"à¦Łà¦¸à¦®":1466,"à¦°à¦£à¦®":1467,"à¦°à¦ıà¦¸":1468,"à¦¨à¦ľà¦¨":1469,"à¦¤à¦¦à¦¨":1470,"à¦ĩà¦¸à¦¬":1471,"à§ªà§¬":1472,"à¦¨à¦ħà¦Ń":1473,"à¦ķà¦ıà¦¬":1474,"à¦Ĩà¦²à¦®":1475,"à¦¬à¦°à¦¦":1476,"à¦°à¦ħà¦«":1477,"à¦°à¦ĺà¦°":1478,"à¦ªà§ľà¦¤":1479,"à¦¶à¦¨à¦ķà¦°":1480,"à¦°à¦£à¦¤":1481,"à¦Łà¦¡":1482,"à¦¨à¦¬à¦°":1483,"à¦¨à¦ħà¦°":1484,"à¦ĩà¦®à¦¨":1485,"à¦Ĩà¦°à¦®":1486,"à§Łà¦Ľ":1487,"à¦°à¦ļà¦²":1488,"à¦Ĩà¦¸à¦¨":1489,"à¦¡à¦¦":1490,"à¦ħà¦Ł":1491,"à¦¡à¦¹":1492,"à¦°à¦īà¦ļ":1493,"à¦§à¦¦":1494,"à¦²à¦ħà¦¨":1495,"à¦¦à¦«":1496,"à¦ªà¦¯":1497,"à¦¤à¦°à¦ª":1498,"à¦¶à¦ĸ":1499,"à§®à§®à§¦":1500,"à¦¨à¦ķà¦°à¦Ľ":1501,"à¦Ĩà¦ķà¦°":1502,"à¦²à¦¸à¦®":1503,"à¦¦à¦£":1504,"à¦¤à¦¹à¦ļ":1505,"à¦Ĺà¦Ĺ":1506,"à¦ĸà¦¸":1507,"à§ªà§Ń":1508,"à§Łà¦Ĩà¦®":1509,"à§ľà¦Ľ":1510,"à§¨à§¦à§¨à§©":1511,"à¦¯à¦ıà¦¬":1512,"à¦¦à¦¨à¦ª":1513,"à¦ªà¦ľ":1514,"à§ľà¦¬":1515,"à¦°à¦¥à¦®à¦ª":1516,"à¦¯à¦«":1517,"à§©à§¨":1518,"à¦°à¦ªà¦°à¦¬":1519,"à¦ļà¦¸":1520,"à¦ľà¦ķà¦°à¦Ľ":1521,"à¦¨à¦¸à¦Ń":1522,"à¦¤à¦®à¦¬":1523,"à¦¬à¦¸à¦¬":1524,"à¦ħà¦¥":1525,"à¦¸à¦ĸ":1526,"à¦¬à¦ĸ":1527,"à¦¤à¦¨à¦ķà¦°":1528,"à¦¬à¦Ł":1529,"à¦ĩà¦ı":1530,"à¦°à¦¹à¦ķà¦°":1531,"à¦£à¦Ĺ":1532,"à¦¬à¦¨à¦¯":1533,"à¦¸à¦¹à¦¯":1534,"à¦¸à¦ªà¦°":1535,"à¦¦à¦¶à¦¶":1536,"à¦¬à§Ł":1537,"à¦Ĩà¦°à¦ª":1538,"à¦¦à¦ĸ":1539,"à¦īà§İà¦¸":1540,"à¦Ĩà¦ĩà¦ª":1541,"à¦¨à¦Ĩà¦¹à¦®":1542,"à¦ķà¦¶à¦¨":1543,"à¦¬à¦¦à¦²":1544,"à§Łà¦ıà¦¬":1545,"à¦ĵà¦Ľ":1546,"à¦¥à¦Ĺ":1547,"à¦Ĩà¦°à¦ĵà¦ªà§ľ":1548,"à§¨à§¦à§§à§ª":1549,"à¦ħà¦¸à¦®":1550,"à§¦à§¦à§¦":1551,"à¦°à¦¬à¦¸":1552,"à¦ľà¦Ľ":1553,"à¦¯à¦ĩ":1554,"à¦ıà¦ķà¦ĩ":1555,"à¦¸à¦¯":1556,"à§©à§¯":1557,"à¦®à¦¬à¦Ļ":1558,"à¦¸à¦ħ":1559,"à¦Ĺà¦°à¦®":1560,"à¦¦à¦¶à¦®":1561,"à¦¤à¦°à¦®":1562,"à¦ķà¦ħ":1563,"à¦¨à¦¬à¦¬à¦¨":1564,"à¦Łà¦ĵà¦¯":1565,"à§Ńà§¬":1566,"à¦¿à¦ģ":1567,"à¦¬à¦Ľà¦°à¦ª":1568,"à¦ıà¦¸à¦®":1569,"à¦ªà¦Ľà¦¨":1570,"à¦²à¦Ļ":1571,"à¦°à¦ļà¦°":1572,"à¦¯à¦Ĩà¦ªà¦¨":1573,"à¦®à¦°à¦£":1574,"à¦ĩà¦²à¦«":1575,"à¦¨à¦ĵà¦¸":1576,"à¦·à¦Ń":1577,"à§Ńà§®":1578,"à¦°à¦¸à¦¹à¦¯":1579,"à¦ĸà¦°à¦ļ":1580,"à¦®à¦ĵ":1581,"à¦°à¦ķà¦¨":1582,"à¦ªà¦Ń":1583,"à¦°à¦ħà¦¬":1584,"à¦īà¦łà¦²":1585,"à¦¡à¦Ĺ":1586,"à¦¤à¦¹à¦ĵà§Ł":1587,"à¦®à¦Ĩ":1588,"à¦ĺà¦¦":1589,"à¦¹à¦ł":1590,"à¦ªà¦ŀ":1591,"à¦¹à§Łà¦ķ":1592,"à¦°à¦ªà¦°à¦¤":1593,"à¦°à¦ªà¦°à¦¥":1594,"à¦¬à¦¬à¦°":1595,"à¦¦à§Ł":1596,"à¦¼à§į":1597,"à¦¦à¦ķà¦¸":1598,"à¦¹à§Łà¦¬":1599,"à¦²à¦ķà¦¬":1600,"à¦§à¦°à¦£":1601,"à¦Ĺà¦ķà¦°à¦¤":1602,"à¦ªà¦¦à¦ķ":1603,"à¦²à¦ĵ":1604,"à¦¨à¦®à¦¹":1605,"à§¬à§«":1606,"à¦¬à¦Ĺà¦ŀ":1607,"à§Łà¦¥":1608,"à¦¹à¦¦":1609,"à¦°à¦°à¦ķ":1610,"à¦Łà¦ħ":1611,"à¦¦à¦Ĩà¦²":1612,"à¦¡à¦«":1613,"à¦¤à¦¨à¦¤":1614,"à¦Łà¦ıà¦¬":1615,"à¦¯à¦Ľ":1616,"à¦°à¦¯à¦¦":1617,"à¦ľà¦¨à¦¦":1618,"à¦ľà¦¨à¦®":1619,"à¦¤à¦°à¦ķ":1620,"à¦ıà¦ĩà¦Ń":1621,"à¦ĩà¦²à¦¸":1622,"à¦ĩà¦¸à¦°":1623,"à¦°à¦¨à¦¬":1624,"à¦²à¦®à¦¨":1625,"à¦¤à¦ĵ":1626,"à¦¤à¦¡":1627,"à¦ĸà¦¯":1628,"à¦ľà¦¨à¦¤":1629,"à¦ĸà¦¬à¦°à¦ª":1630,"à¦¡à¦¡":1631,"à¦°à¦Ĺà¦£":1632,"à¦®à¦¸à¦ª":1633,"à¦ĸà¦¦":1634,"à¦ķà¦Ĩ":1635,"à¦Ĺà¦¥":1636,"à§İà¦¬":1637,"à¦¨à¦¸à¦Ļ":1638,"à¦ıà¦¨à¦ľ":1639,"à¦ķà¦®à¦ª":1640,"à¦°à¦Ĳ":1641,"à¦ıà¦¸à¦ıà¦®":1642,"à¦¸à§ľ":1643,"à¦®à¦ŀ":1644,"à§§à§¯à§®":1645,"à¦ľà¦¨à¦¶":1646,"à¦ĩà¦ıà¦ķ":1647,"à¦¸à¦¬à¦ľ":1648,"à¦°à¦ªà¦°à¦ª":1649,"à¦¨à¦īà¦¦":1650,"à§Łà¦£à¦Ĺà¦ŀ":1651,"à¦²à¦ķà¦¡":1652,"à¦ĩà¦ķà¦®":1653,"à¦¨à¦¢":1654,"à¦²à¦īà¦¦":1655,"à¦¨à¦¸à¦°":1656,"à¦°à¦Ĩà¦°à¦ĵ":1657,"à¦§à¦¹à§Ł":1658,"à¦²à¦ĺ":1659,"à§ªà§¯":1660,"à§Łà¦¬à¦°":1661,"à¦¦à¦ļ":1662,"à¦²à¦Ĺà¦ŀ":1663,"à¦ķà¦¤à¦Ł":1664,"à¦°à¦¥à¦®à¦¦":1665,"à¦ľà¦Ļ":1666,"à¦Łà¦«à¦°":1667,"à§Łà¦ıà¦ķ":1668,"à¦°à¦ľà¦¬":1669,"à¦¬à¦¨à¦¬":1670,"à¦ľà¦¨à¦Ĺ":1671,"à¦®à¦¬à¦²":1672,"à¦ĩà¦ĺ":1673,"à¦ıà¦°à¦¦":1674,"à§ªà§§":1675,"à§¬à§¬":1676,"à¦ıà¦°à¦ľà¦¨":1677,"à¦¸à¦ıà¦¬":1678,"à¦ıà¦¸à¦®à§Ł":1679,"à¦¦à¦¨à¦ķ":1680,"à¦ľà¦Ń":1681,"à¦¤à¦°à¦¸":1682,"à¦Ĺà¦£à¦®":1683,"à¦¯à§Ł":1684,"à¦īà¦ªà¦¦":1685,"à¦ĩà¦²à¦¬":1686,"à¦²à¦ħ":1687,"à¦°à¦ħà¦ªà¦°":1688,"à¦°à¦ķà¦°à¦¬":1689,"à¦°à¦®à¦°":1690,"à¦Ńà¦¬à¦¤":1691,"à¦°à¦¤à¦¬":1692,"à¦ļà¦«":1693,"à¦¬à¦°à¦ħà¦ķ":1694,"à¦°à¦£à¦ª":1695,"à¦¨à¦ĩ":1696,"à¦¸à¦ķà¦°à¦¤":1697,"à¦¨à¦ıà¦ĸ":1698,"à¦Łà¦ķà¦°à¦¤":1699,"à¦ĵà¦·":1700,"à¦ĩà¦¸à¦Ļ":1701,"à¦°à¦ªà¦°à¦¸":1702,"à¦¬à¦¨à¦ķ":1703,"à¦ļà¦ª":1704,"à¦ķà¦®à¦¨":1705,"à¦Ĩà¦°à¦¨":1706,"à¦īà¦ªà¦¹":1707,"à§Łà¦¡":1708,"à¦¨à¦¹à¦²":1709,"à§ªà§¨":1710,"à¦¨à¦Ĩà¦ĩà¦¡":1711,"à§«à§®":1712,"à¦§à¦Ń":1713,"à¦ıà¦ľà¦¨":1714,"à¦¤à¦ıà¦ķà¦Ł":1715,"à¦ıà¦ķà¦ª":1716,"à¦°à¦Ĩà¦ĩà¦¨":1717,"à¦ĩà¦®à¦°":1718,"à¦¶à¦¨à¦ª":1719,"à¦¨à¦¸à¦¬":1720,"à¦Ľà¦¡":1721,"à¦ªà§ľà¦²":1722,"à¦¸à§ľà¦ķ":1723,"à¦¨à¦¸à¦¹":1724,"à¦°à¦ªà¦°à¦ĵ":1725,"à¦Łà¦ĵà§Ł":1726,"à¦¶à¦¨à¦ķ":1727,"à¦ĩà¦¹à¦¬":1728,"à¦¬à¦°à¦¨à¦Ń":1729,"à¦¸à¦¹à¦¬":1730,"à¦Ĩà¦Ļ":1731,"à§İà¦¸à¦ķ":1732,"à¦®à¦īà¦¦":1733,"à¦«à¦ķ":1734,"à¦°à¦ıà¦ķà¦®":1735,"à¦²à¦ķà¦®":1736,"à¦¦à¦¨à¦¶":1737,"à¦£à¦°":1738,"à¦ıà¦ķà¦¥":1739,"à¦¨à¦¸à¦®à§Ł":1740,"à¦Ĺà¦Ł":1741,"à¦¶à¦ļ":1742,"à¦°à¦ĩà¦ļ":1743,"à¦¨à¦¨à¦¤":1744,"à§«à§¦à§¦":1745,"à¦«à¦ĸà¦°":1746,"à§Łà¦Ĩà¦¨":1747,"à¦ķà¦·":1748,"à¦īà¦ĩà¦¨":1749,"à¦ļà¦²à¦®":1750,"à¦ħà¦¬à¦¦":1751,"à¦¬à¦°à¦ķ":1752,"à¦Ĩà¦°à¦ĵà¦¬":1753,"à¦Ĳà¦ķ":1754,"à¦°à¦°à¦¸":1755,"à¦°à¦Ĩà¦Ľ":1756,"à§¨à§¦à§§à§¨":1757,"à¦¶à¦ķà¦°à¦¤":1758,"à¦®à¦¤à¦¬":1759,"à¦¶à¦¨à¦°":1760,"à¦®à¦¬à¦°":1761,"à§Łà¦ħ":1762,"à¦ĩà¦ıà¦ķà¦Ł":1763,"à¦Ĩà¦²à¦¹":1764,"à§«à§¬":1765,"à¦¨à¦ĵà¦¬":1766,"à¦²à¦¬à¦²":1767,"à¦¯à¦ĵ":1768,"à¦ĭà¦£":1769,"à¦¯à¦¤à¦¥":1770,"à¦·à¦¶":1771,"à¦¬à¦¸à¦ª":1772,"à¦¯à¦ķà¦°à¦¤":1773,"à¦®à¦£à¦¬":1774,"à¦¤à¦®à¦¨":1775,"à¦¨à¦¯à¦¦":1776,"à¦°à¦®à¦ª":1777,"à¦Łà¦¯":1778,"à¦ĵà¦ı":1779,"à¦°à¦ķà¦°à¦Ľ":1780,"à¦¦à¦Ń":1781,"à¦Īà¦®":1782,"à¦ķà¦ħà¦°":1783,"à¦ļà¦¦":1784,"à¦°à¦ļà¦Ł":1785,"à¦ļà¦¶":1786,"à¦Ńà¦®":1787,"à¦ĸà¦ª":1788,"à¦°à¦¬à¦¹":1789,"à¦²à¦¨à¦ķ":1790,"à¦ķà¦Ĺà¦ŀ":1791,"à¦°à¦ĩà¦²":1792,"à¦ĩà¦ıà¦ĩ":1793,"à¦²à¦ĵà§Ł":1794,"à¦§à¦¥":1795,"à¦ĸà¦£":1796,"à¦¬à¦°à¦ª":1797,"à¦Ĩà¦¦à¦°":1798,"à¦ıà¦°à¦ªà¦°":1799,"à§ľà¦²":1800,"à¦¸à¦¤à¦°":1801,"à§¨à§¦à§§à§©":1802,"à¦ĩà¦¨à¦ª":1803,"à¦¡à¦¶":1804,"à¦ķà¦¸à¦Ń":1805,"à¦¤à¦¤à¦¥":1806,"à¦¤à¦Ĩà¦®":1807,"à¦ıà¦ĺà¦Łà¦¨":1808,"à¦Ĩà¦īà¦Ł":1809,"à¦°à¦Ĩà¦Ĺà¦¸":1810,"à¦¸à¦¸à¦®":1811,"à¦¶à¦ªà¦°":1812,"à¦°à¦ľà¦¨à¦ª":1813,"à¦ıà¦°à¦¨":1814,"à¦ıà¦ĩà¦ļà¦ıà¦¸à¦¸":1815,"à¦Ĩà¦ĺ":1816,"à¦¹à¦°à¦£":1817,"à¦Ĺà¦«":1818,"à¦¨à¦§à¦°à¦¨":1819,"à¦¨à¦¤à¦¥":1820,"à¦īà¦ľà¦¬":1821,"¦Ķ":1822,"à¦Ķ":1823,"à¦¨à¦ĺ":1824,"à¦īà¦°à¦°à¦¹à¦®":1825,"à¦¹à¦īà¦¦":1826,"à¦°à¦¶à¦ķ":1827,"à¦¬à¦«":1828,"à§Łà¦ķà¦®":1829,"à¦ļà¦¨à¦ķà¦°":1830,"à¦ĩà¦¨à¦«":1831,"à¦ĩà¦Ĩà¦®à¦°":1832,"à¦Ĩà¦ĵà¦¯":1833,"à¦¤à¦¨à¦¬":1834,"à¦¨à¦Ĩà¦¨":1835,"à¦¦à¦ķà¦ķ":1836,"à¦īà¦łà¦¤":1837,"à§¦à§§":1838,"à¦¸à¦Ľ":1839,"à¦«à¦«":1840,"à¦¨à¦ªà¦¦":1841,"à¦¬à¦ªà¦°":1842,"à¦¶à¦ħà¦¨":1843,"à¦¬à¦°à¦£":1844,"à¦§à¦ķà¦°à¦¤":1845,"à¦ļà¦²à¦¬":1846,"à¦Ĩà¦ĸ":1847,"à¦°à¦¥à¦®à¦¸":1848,"à§«à§¯":1849,"à¦Ĩà¦Łà¦ķà¦ķà¦°":1850,"à¦°à¦īà¦²":1851,"à¦Ńà¦¦":1852,"à¦ĩà¦ıà¦¬":1853,"à§§à§¨à§¦":1854,"à¦ķà¦Ĩà¦®":1855,"à¦¸à¦ĵ":1856,"à¦°à¦¨à¦®":1857,"à¦¨à¦ķà¦²":1858,"à¦²à¦¹à§Ł":1859,"à¦®à¦Ĩà¦²":1860,"à¦¤à¦Ĩà¦²":1861,"à¦Ńà¦Ļ":1862,"à¦¨à¦Ĩà¦ľ":1863,"à¦°à¦ķà¦°à¦²":1864,"à¦°à¦¸à¦ķà¦²à¦ķ":1865,"à¦·à¦·":1866,"à¦łà¦ª":1867,"à¦°à¦ķà¦ª":1868,"à§Łà¦®à¦¨à¦¸":1869,"à¦Ľà¦¦":1870,"à¦¯à¦¡":1871,"à¦ķà§ľ":1872,"à¦¨à¦¹à¦¤":1873,"à¦¨à¦ķà¦¬":1874,"à§Łà¦¸à¦Ń":1875,"à¦Ĩà¦ī":1876,"à§ĩà§":1877,"à¦°à¦ıà¦ĩà¦ļ":1878,"à¦Ĩà¦¨à¦¤":1879,"à¦ķà¦°à¦ª":1880,"à¦ıà¦ĩà¦ļà¦¡":1881,"à¦°à¦£à¦ķà¦°à¦¤":1882,"à¦¨à¦¸à¦¨":1883,"à¦¸à¦°à¦£à¦ķà¦°":1884,"à¦¨à¦ł":1885,"à§Łà¦¨à¦ªà¦°":1886,"à§«à§¨":1887,"à§Łà¦ıà¦ķà¦Ł":1888,"à¦²à¦ķà¦ķ":1889,"à§«à§§":1890,"à¦ªà¦«":1891,"à¦°à¦Ĺà¦°":1892,"à¦®à§ľ":1893,"à¦ľà§Łà¦¨":1894,"à¦°à¦ĩà¦¬":1895,"à¦ħà¦¸à¦¹":1896,"à¦ªà¦°à¦¤":1897,"à¦Ńà¦¸":1898,"à¦£à¦¹":1899,"à¦ĩà¦Łà¦¬":1900,"à¦ĩà¦īà¦¸":1901,"à¦īà¦ªà¦¯":1902,"à§¯à§¬":1903,"à¦Ĺà¦¶":1904,"à¦°à¦¤à¦°":1905,"à¦ķà¦¸à¦¹":1906,"à¦¸à¦®à¦¨":1907,"à§ĩà§Ĺ":1908,"à§İà¦ķà¦°":1909,"à¦°à¦ĵà¦¨":1910,"à¦°à¦ªà¦Ľà¦¨":1911,"à¦°à¦¸à¦®à§Łà¦¸":1912,"à¦°à¦īà¦ªà¦ķ":1913,"à¦®à¦ı":1914,"à¦¥à¦¦":1915,"à¦¨à¦¹à¦¯":1916,"¦Ĭ":1917,"à¦Ĭ":1918,"à¦°à¦¸à¦¤":1919,"à¦ĸà¦¬à¦°":1920,"à¦°à¦ıà¦®à¦¨":1921,"à¦¬à¦ľà¦¨":1922,"à§®à§®":1923,"à¦Łà¦ı":1924,"à¦°à¦®à¦¸":1925,"à¦°à¦Ĺà¦¨":1926,"à¦°à¦ĩà¦¸à¦²":1927,"à¦ĩà¦²à¦ķ":1928,"à¦¨à¦Ĩà¦¦":1929,"à¦°à¦ıà¦ķà¦¬":1930,"à¦¶à¦Ľ":1931,"à¦°à¦ıà¦Ł":1932,"à§Ńà§§":1933,"à¦ĸà¦¬à¦°à¦ĵà¦¬":1934,"à¦¨à¦ĵà§Ł":1935,"à¦§à¦Ł":1936,"à¦Ĩà¦°à¦ĵà¦¬à¦²":1937,"à§Łà¦®à¦¨":1938,"à¦¯à¦Ĩà¦¬":1939,"à¦²à¦Ĺà¦ª":1940,"à¦°à¦£à¦ľ":1941,"à¦Ĺà¦ļ":1942,"à¦ıà¦ĩà¦°":1943,"à¦¦à¦¨à¦ķà¦°à¦¤":1944,"à¦ľà¦Ĺà¦ŀ":1945,"à¦¨à¦ıà¦²":1946,"à¦°à¦¶à¦¬":1947,"à¦¶à¦ķà¦®":1948,"à¦¶à¦īà¦¦":1949,"à¦ľà¦ļ":1950,"à¦Ĩà¦ĩà¦Ł":1951,"à¦°à¦ıà¦ķà¦ľà¦¨":1952,"à§¨à§¦à§§à§¦":1953,"à¦§à¦¶":1954,"à¦¨à¦Ĩà¦°à¦ĵ":1955,"à¦¨à¦ªà¦¤":1956,"à¦°à¦īà§İ":1957,"à§«à§Ń":1958,"à§Ŀ":1959,"à¦Ĺà¦¯":1960,"à¦¬à¦°à¦®":1961,"à¦Ľà¦¤":1962,"à¦°à¦ªà¦¶":1963,"à¦²à¦ı":1964,"à¦Ĺà¦¸à¦®":1965,"à¦°à¦īà¦ªà¦¸":1966,"à§Łà¦¸à¦°à¦ķ":1967,"à¦¸à¦ŀ":1968,"à¦¨à¦·":1969,"à¦ķà¦Ĩà¦Ľ":1970,"à¦°à¦¬à§ľ":1971,"à¦°à¦ħà¦Ĺ":1972,"à¦°à¦ªà¦°à¦®":1973,"à¦·à¦Ĺ":1974,"à¦ĸà¦¨à¦¤":1975,"à¦°à¦¹à¦ĵà§Ł":1976,"à§¦à§¨":1977,"à¦¨à¦ıà¦Ľ":1978,"à¦²à¦¤à¦¬":1979,"à¦¨à¦Ĩà¦¸":1980,"à¦¤à¦ħ":1981,"à¦²à¦Ĩà¦°":1982,"à¦°à¦Ńà¦°":1983,"à¦ķà¦ıà¦ķ":1984,"à¦¤à¦ĺ":1985,"à¦¹à§Łà¦ª":1986,"à¦°à¦ĵà¦ķ":1987,"à¦¸à¦¬à¦¬":1988,"à¦°à¦Ĩà¦¹à¦®":1989,"à¦¸à¦¹à¦¸":1990,"à¦ĩà¦ķà¦¬":1991,"à¦¤à¦ķà¦°à¦¬":1992,"à¦¸à¦®à¦ķ":1993,"à¦ķà¦®à¦²":1994,"à¦¨à¦ĩà¦¨":1995,"à¦¸à¦ıà¦ķ":1996,"à¦Łà¦¹à§Ł":1997,"à¦°à¦£à¦¨":1998,"à¦¶à¦¨à¦¶":1999,"à¦ĵà¦ıà¦ķ":2000,"à¦¤à¦ıà¦ķ":2001,"à¦°à¦®à¦¶":2002,"à¦ªà¦¹":2003,"à¦¨à¦ħà¦§":2004,"à¦¦à¦¨à¦¸":2005,"à§¬à§®":2006,"à§Łà¦ħà¦Ń":2007,"à¦¶à¦¨à¦¨":2008,"à¦²à¦¨à¦®":2009,"à¦¸à¦°à¦¬à¦°":2010,"à¦ħà¦¨à¦¨":2011,"à¦ķà¦®à¦¬":2012,"à¦ıà¦®à¦¬":2013,"à¦°à¦ªà§ľ":2014,"à¦¨à¦ķà¦°à¦¬":2015,"à¦ıà¦ĩà¦Ł":2016,"à¦°à¦¸à¦¹à¦ķ":2017,"à¦°à¦¸à¦®à¦°":2018,"à§Łà¦¨à¦¬":2019,"à¦Ĩà¦¬à¦¹":2020,"à¦¨à¦¨à¦¬":2021,"à¦ıà¦¯":2022,"à¦ĩà¦Ĩà¦²":2023,"à§«à§©":2024,"à¦¬à¦°à¦Ĩà¦Ĺà¦¸":2025,"à¦°à¦ªà¦°à¦¦":2026,"à¦ĩà¦ĵ":2027,"à¦¨à¦īà¦ªà¦ľ":2028,"à¦¦à¦ĸà¦²":2029,"à§¦à§©":2030,"à¦®à¦ħà¦¨":2031,"à¦¦à¦¨à¦¦":2032,"à¦ĩà¦®à¦¸":2033,"à¦®à¦®à¦¤":2034,"à¦°à¦ľà¦°":2035,"à¦¯à¦ħà¦§":2036,"à¦ĩà¦ľà¦¨":2037,"à¦¹à¦¬à¦§":2038,"à¦Ĩà¦°à¦¦":2039,"à¦¨à¦¶à¦¨":2040,"à§¦à§¬":2041,"à¦ıà¦ķà¦°":2042,"à¦°à¦Ĩà¦¯":2043,"à¦Ŀà§ľ":2044,"à¦¶à¦¸à¦®":2045,"à§ĩà¦¾à¦ģ":2046,"à¦Ńà¦ª":2047,"à¦®à¦ĺ":2048,"à§¦à§§à§Ń":2049,"à§§à§¦à§¦à§¦":2050,"à¦°à¦¬à§Łà¦¸":2051,"à¦¨à¦ıà¦®à¦¨":2052,"à¦¡à¦ľ":2053,"à¦ĵà¦ıà¦ķà¦Ł":2054,"à¦ıà¦ķà¦ķ":2055,"à¦Ńà¦¨":2056,"à¦¤à¦ķà¦®":2057,"à¦°à¦ªà¦°à¦ķ":2058,"à¦ķà¦¬à¦²":2059,"à¦ªà¦ªà¦°":2060,"à¦·à¦¹":2061,"à¦ľà¦ĸ":2062,"à¦ıà¦ķà¦¤":2063,"à¦ıà¦ĩà¦Ĺ":2064,"à¦¸à¦¦à¦¸à¦¦à¦¸":2065,"à¦Ĩà¦ľà¦¬":2066,"à§«à§ª":2067,"à¦¨à¦ĩà¦¤":2068,"à¦¬à¦°à¦¥":2069,"à¦¹à§Łà¦¯":2070,"à¦¯à¦ħà¦°":2071,"à¦¡à¦ħ":2072,"à¦°à¦¸à¦ļ":2073,"à¦ĵà¦¥":2074,"à§¨à§¦à§§à§§":2075,"à¦§à¦°à¦¤":2076,"à¦¸à¦¬à¦®":2077,"à¦¬à¦Ľà¦°à¦¬à§Łà¦¸":2078,"à§ĭà¦Ĥ":2079,"à§Ńà§Ń":2080,"à¦¨à¦¹à¦¬":2081,"à¦¨à¦¤à¦ĸà¦¨":2082,"à¦ıà¦®à¦¨à¦ıà¦ķà¦Ł":2083,"à¦¨à¦ħà¦ªà¦°":2084,"à¦īà¦ľà¦¡":2085,"à¦¤à¦§à¦°":2086,"à¦ļà¦¨à¦ķà¦®":2087,"à¦Ĺà¦£à¦¤à¦¨":2088,"à¦īà¦ªà¦Ń":2089,"à§¬à§¯":2090,"à¦¨à¦ıà¦ĸà¦¨":2091,"à¦°à¦Īà¦¦":2092,"à¦°à¦ĩà¦¸":2093,"à¦¸à¦¬à¦¸à¦®à§Ł":2094,"à¦¬à¦¸à¦¹à¦ľ":2095,"à¦¨à¦¸à¦®à¦¸":2096,"à¦ħà¦¬à¦¹":2097,"à¦¤à¦ħà¦Ń":2098,"à¦ķà¦ħà¦¬à¦¸":2099,"à¦¨à¦¤à¦®à¦¯":2100,"à¦°à¦ıà¦ĩà¦¸":2101,"à¦¸à¦ĵà§Ł":2102,"à¦¹à¦ħ":2103,"à¦Ľà¦²":2104,"à¦īà¦ľà¦ª":2105,"à¦Ĩà§ľ":2106,"à¦¸à¦ı":2107,"à¦°à¦Ĩà¦®à¦°":2108,"à¦·à¦¹à§Ł":2109,"à¦²à¦ķà¦ª":2110,"à¦°à¦ļà¦ķ":2111,"à¦¬à§Łà¦¸":2112,"à¦°à¦ıà¦ĩà¦ª":2113,"à¦²à¦ıà¦ķ":2114,"à¦°à¦¶à¦¹":2115,"à¦¨à¦ĵà¦¯":2116,"à¦Ĩà¦®à¦¦":2117,"à¦ļà¦¡":2118,"à¦ķà¦¹à§Ł":2119,"à§¦à§¯":2120,"à§³":2121,"à¦·à¦ķà¦¨":2122,"à¦Ľà¦ķ":2123,"à¦Ĩà¦ĩà¦¨à¦ľ":2124,"à¦¤à¦¨à¦ª":2125,"à¦ĸà¦¬à¦°à¦¬":2126,"à¦Ĩà¦«à¦Ĺ":2127,"à¦Ĺà¦¤à¦®":2128,"à¦Łà¦ķà¦®":2129,"à¦ĩà¦ıà¦Ł":2130,"à¦ıà¦ĩà¦ľ":2131,"à¦¸à¦®à¦Ĺ":2132,"à§¨à§¦à§¨à§¨à§¦":2133,"à¦¨à¦ıà¦¤":2134,"à¦°à¦¤à¦ª":2135,"à¦®à¦¨à¦Ĺ":2136,"à¦ĵà¦ľà¦¨":2137,"à¦ļà¦ķà¦°":2138,"à¦°à¦Ĩà¦ĵà§Ł":2139,"à¦Ķà¦·":2140,"à¦ıà¦ķà¦ľà¦¨à¦®":2141,"à¦ļà§ľ":2142,"à¦£à¦«":2143,"à¦ķà¦®à¦¤":2144,"à¦Ĩà¦°à¦Ĩà¦®":2145,"à¦¸à¦«à¦²":2146,"à§¦à§®":2147,"à¦¨à¦¸à¦ķ":2148,"à§Łà¦¬à¦²":2149,"à¦§à¦ľ":2150,"à§¬à§ª":2151,"à¦°à¦¹à¦ļ":2152,"à¦ĸà¦ĸ":2153,"à§¬à§Ń":2154,"à¦Ĺà¦¤à¦ľ":2155,"à¦ĭà¦¤":2156,"à§©à§¦à§¦":2157,"à¦Ĩà¦ĩà¦¨à¦Ĩà¦¦":2158,"à¦¯à¦ħ":2159,"à§¦à§«":2160,"à¦¬à¦°à¦°":2161,"à¦°à¦¬à¦Ľ":2162,"à¦Ĩà¦¶à¦°":2163,"à¦¦à¦°à¦ľ":2164,"à¦ĩà¦¨à¦Ń":2165,"à¦ıà¦ķà¦ľà¦¨à¦¬":2166,"à¦°à¦ĵà¦®":2167,"à¦Ĺà¦Ļ":2168,"à¦¥à¦¹à§Ł":2169,"à¦¸à¦ĵà¦¯":2170,"à¦Ŀà¦°":2171,"à¦°à¦īà¦ªà¦°à¦¨":2172,"à§¦à§Ń":2173,"à¦°à¦°à¦¶":2174,"à¦ªà§Ł":2175,"à¦ķà¦¸à¦®à§Ł":2176,"à¦®à¦¤à¦ª":2177,"à¦°à¦¤à¦²":2178,"à¦¦à¦¨à¦ľ":2179,"à¦¤à¦°à¦¨":2180,"à¦¤à¦§":2181,"à¦ıà¦°à¦¶":2182,"à¦°à¦ħà¦¨à¦²":2183,"à¦²à¦¬à¦¨":2184,"à¦¨à¦ĩà¦®":2185,"à¦°à¦Ĩà¦²à¦®":2186,"à¦®à¦¨à¦¬":2187,"à¦°à¦¯à¦¤":2188,"à¦¬à¦¥":2189,"à¦ķà¦Ĩà¦²":2190,"à¦¨à¦īà¦¨":2191,"à¦¯à¦¬à¦§":2192,"à¦¤à¦°à¦£à¦ķà¦°":2193,"à¦¤à¦¬à¦°":2194,"à¦¤à¦Ĩ":2195,"à¦¦à¦ķà¦ĵà¦ª":2196,"à¦¨à¦īà¦ª":2197,"à¦īà¦Ńà¦¯":2198,"à¦¨à¦¬à¦¤":2199,"à¦ħà¦ªà¦¸":2200,"à¦Ĺà¦ľà¦ªà¦¤":2201,"à¦¶à¦ĵ":2202,"à¦¨à¦¬à¦¸":2203,"à¦ıà¦ĩà¦¯":2204,"à¦ıà¦ĸà¦¨à¦ªà¦°":2205,"à¦²à¦Ĩà¦¬":2206,"à¦·à¦£à¦ª":2207,"à¦¥à¦¬à¦Ľà¦°":2208,"à§¨à§¦à§¦à§¯":2209,"à¦°à¦«à¦°":2210,"à¦°à¦ķà§Ł":2211,"à¦°à¦¤à¦¨":2212,"à¦§à¦ĸ":2213,"à¦ªà§ľà¦Ľ":2214,"à¦¯à¦¹à¦¤":2215,"à¦ıà¦ªà¦°":2216,"à¦¬à¦Ľà¦°à¦Ĩà¦Ĺ":2217,"à¦¨à¦ķà¦°à¦²":2218,"à¦¤à¦°à¦ķà¦°":2219,"à¦ķà¦²à¦®":2220,"à¦Ĺà¦¹":2221,"à¦²à¦§":2222,"à§¦à§ª":2223,"à¦«à¦²à¦ª":2224,"à§¨à§¦à§¦à§®":2225,"à¦ľà¦īà¦ªà¦ľ":2226,"à¦°à¦Ĩà¦§":2227,"à¦Ľà¦¦à¦ľ":2228,"à§¬à§§":2229,"à¦ıà¦ĸà¦¨à¦ķ":2230,"à¦ľà¦¸à¦®":2231,"à¦°à¦®à¦¤à¦¬":2232,"à¦łà¦¬":2233,"à¦®à¦¦à¦¸":2234,"à¦ıà¦ĩà¦¤":2235,"à¦¬à¦¸à¦¤":2236,"à¦ķà¦Ĩà¦Ĺ":2237,"à¦°à¦¹à¦°":2238,"à¦¤à¦®à¦¸":2239,"à¦·à¦£à¦ķ":2240,"à¦ªà§ľà¦¬":2241,"à¦Ńà¦ľà¦¨":2242,"à¦Ńà¦°à¦ķà¦°":2243,"à¦¨à¦¬à¦ľ":2244,"à¦īà¦ªà¦²à¦¬":2245,"à¦¨à¦¶à¦°":2246,"à¦°à¦ıà¦ĩà¦¬":2247,"à¦¨à¦ĵà¦ķ":2248,"à§Łà¦ĵ":2249,"à¦¶à¦Ļ":2250,"à¦Ĩà¦¡":2251,"à¦·à¦ļ":2252,"à¦¶à¦ķà§Ł":2253,"à¦¯à¦¹à¦²":2254,"à¦Łà¦ħà¦¨":2255,"à¦¬à¦¤à¦¨":2256,"à¦ķà¦§":2257,"à§Łà¦Ĩà¦ķ":2258,"à¦¨à¦ĵà¦Ĺ":2259,"à§¯à§«":2260,"à¦°à¦Ĩà¦ĩà¦¡":2261,"à§°":2262,"à¦¯à¦ıà¦ķ":2263,"à¦ĵà¦Ĩà¦²":2264,"à¦¸à¦¹à¦¨":2265,"à¦ĩà¦Ĩà¦¬":2266,"à¦ķà¦¬à¦¨":2267,"à¦«à¦ľ":2268,"à¦Ĩà¦°à¦¯":2269,"à¦¦à¦Ľ":2270,"à¦ļà¦°à¦®":2271,"à¦°à¦®à¦°à¦¦":2272,"à¦ĩà¦²à¦®":2273,"à¦²à¦ıà¦ķà¦Ł":2274,"à¦¶à¦ıà¦¬":2275,"à§Łà¦¸à¦¬":2276,"à¦¤à¦¨à¦¯":2277,"à¦īà¦¹":2278,"à¦¨à¦ħà¦¬à¦¸":2279,"à¦Ĩà¦°à¦ľ":2280,"à¦°à¦¥à¦®à¦Ĩà¦²":2281,"à¦¯à¦¹à§Ł":2282,"à¦łà¦¶":2283,"à§ľà¦¯à¦¨":2284,"à¦Ĩà¦°à¦ĵà¦ªà¦¡":2285,"à¦°à¦Ĩà¦¨à¦¨":2286,"à¦°à¦Ńà¦¬":2287,"à¦°à¦ıà¦ĸà¦¨":2288,"à¦ĩà¦¨à¦Ł":2289,"à¦¸à¦ķà¦²à¦ķ":2290,"à¦¨à¦°à¦¸":2291,"à¦°à¦®à¦ķà¦°":2292,"à¦ĩà¦¨à¦¶":2293,"à¦ªà¦ĵà¦ħà¦¨":2294,"à¦¹à§Łà¦®":2295,"à¦®à§Łà¦®à¦¨à¦¸":2296,"à¦°à¦¤à¦ķ":2297,"à¦Ĩà¦ĩà¦¨à¦¶":2298,"à¦ĩà¦¨à¦¡":2299,"à¦¤à¦®à¦¹":2300,"à¦ĩà¦ľà¦ķ":2301,"à¦¤à¦ħà¦°":2302,"à¦¨à¦ĵà¦®":2303,"à¦ĩà¦¤à¦¬":2304,"à§¯à§®":2305,"à¦ªà¦¨à¦¬":2306,"à¦¶à¦¨à¦Ł":2307,"à¦ĵà¦ħ":2308,"à¦¶à¦¸à¦°à¦ķ":2309,"à¦°à¦ıà¦ĩà¦ļà¦ıà¦¸à¦¸":2310,"à¦°à¦¦à¦¤":2311,"à¦¥à¦¹":2312,"à¦¤à¦Ĩà¦Ľ":2313,"à¦£à¦¶":2314,"à¦°à¦¬à¦¡":2315,"à¦ıà¦ĩà¦ªà¦°":2316,"à¦¬à¦°à¦¤":2317,"à¦ĩà¦¨à¦¨":2318,"à¦°à¦ªà¦£":2319,"à¦¹à¦¤à¦°":2320,"à§§à§¯à§Ńà§§":2321,"à¦°à¦¨à¦Ĺ":2322,"à¦ĩà¦¨à¦ķà¦°":2323,"à¦ķà¦¤à¦¥":2324,"à¦ķà¦īà¦¨":2325,"à¦īà¦łà¦Ľ":2326,"à¦¤à¦ĸà¦¨à¦¤":2327,"à§Ńà§¨":2328,"à§Łà¦Ĩà¦¸":2329,"à¦ľà¦²à¦¬":2330,"à¦¡à¦¤":2331,"à¦°à¦¦à¦°à¦ķ":2332,"à¦¡à¦¥":2333,"à¦ħà¦¥à¦ļ":2334,"à¦¶à¦¨à¦¦":2335,"à¦¹à¦¶":2336,"à¦ķà¦ķà¦®":2337,"à¦¥à¦¶":2338,"à¦¨à¦ļà¦²":2339,"à¦°à¦ıà¦ĸ":2340,"à¦²à¦ĵà¦¯":2341,"à¦¬à¦¨à¦¨":2342,"à¦ıà¦®à¦¸":2343,"à¦¨à¦ıà¦¸":2344,"à¦ĩà¦Łà¦Ł":2345,"à¦¦à¦¥":2346,"à¦°à¦ıà¦ķà¦¦":2347,"à¦¯à¦ĵà¦¸":2348,"à¦¨à¦Ĩà¦ķ":2349,"à¦°à¦«à¦°à¦®":2350,"à¦¦à¦ķà¦¦":2351,"à¦¯à¦ªà¦¦":2352,"à¦¯à¦¸à¦°à¦ķ":2353,"à¦īà¦ľà¦Ł":2354,"à¦ıà¦ķà¦¸à¦Ļ":2355,"à¦¤à¦¬à¦²":2356,"à¦ĩà¦¨à¦ľ":2357,"à¦°à¦Ĳà¦¤":2358,"à¦®à¦¹à¦²":2359,"à¦īà§Ł":2360,"à§¬à§¨":2361,"à¦¬à¦¸à¦īà¦ªà¦²à¦ķ":2362,"à¦ıà¦°à¦ĩ":2363,"à¦¬à¦£":2364,"à¦¤à¦¬à¦¤":2365,"à¦°à¦Ńà§Ł":2366,"à¦łà¦¦":2367,"à¦ĩà¦Ĩà¦Ľ":2368,"à¦ıà¦ĸà¦¨à¦¬":2369,"à¦¬à¦¸à¦¨":2370,"à¦Ĺà¦²à¦ķ":2371,"à¦ıà¦°à¦ķà¦®":2372,"à¦°à¦ĵà¦¦":2373,"à¦ľà¦«":2374,"à¦Łà¦ĩ":2375,"à¦ıà¦§à¦°à¦¨":2376,"à¦°à¦¥à¦®à¦®":2377,"à¦Ĩà¦ĩà¦ľ":2378,"à¦·à¦£à¦¦":2379,"à¦ĩà¦ĵà§Ł":2380,"à¦«à¦¹":2381,"à§Łà¦¨à¦ķà¦°":2382,"à¦Ĺà¦ªà¦°":2383,"à¦¯à¦¹à¦¬":2384,"à¦®à¦¤à¦²":2385,"à¦¸à¦¹à¦ª":2386,"à¦£à¦¸à¦®":2387,"à¦²à¦°à¦ļà¦¨":2388,"à¦¥à¦ł":2389,"à§Łà¦¤à¦¬":2390,"à¦¡à¦ıà¦¬":2391,"à¦¼à¦Ĥ":2392,"à¦ķà¦¬à¦°":2393,"à¦¸à¦ħà¦¨":2394,"à¦ªà¦Ľ":2395,"à¦°à¦Ĩà¦ľ":2396,"à¦¤à¦°à¦īà¦¤":2397,"à¦ĩà¦ļà¦²":2398,"à¦ıà¦¨à¦ı":2399,"à¦ĩà¦ķà¦²":2400,"à¦¬à¦ıà¦¬":2401,"à¦²à¦¹à¦¤":2402,"à¦¥à¦ķà¦°":2403,"à¦ĩà¦¸à¦ļ":2404,"à¦¤à¦ıà¦ĩ":2405,"à¦ľà¦ıà¦¬":2406,"à¦¸à¦¹à¦®":2407,"à¦ĵà¦®à¦¨":2408,"à¦ªà¦ĸ":2409,"à¦¬à¦ķà¦¦":2410,"à¦Ĩà¦¤à¦Ļ":2411,"à¦°à¦ħà¦Ļ":2412,"à¦°à¦ĭ":2413,"à¦°à¦ĩà¦ª":2414,"à¦Ĺà¦¤à¦¸":2415,"à¦°à¦ĵà¦¤":2416,"à¦¨à¦ıà¦¦":2417,"à¦¨à¦¬à¦ķ":2418,"à¦ĩà¦²à¦¨":2419,"à¦¬à¦¨à¦ķà¦°":2420,"à¦¯à¦ĩà¦¤":2421,"à¦¡à¦ķà¦°à¦¤":2422,"à¦°à¦¸à¦¹à¦¸à¦Ń":2423,"à¦ħà¦ļ":2424,"à¦ĩà¦¬à¦°":2425,"à¦²à¦Ĩà¦ľ":2426,"à¦¬à¦Ľà¦°à¦§à¦°":2427,"à¦°à¦ķà¦£":2428,"à¦°à¦Ĺà¦¬":2429,"à¦¨à¦ħà¦¸":2430,"à¦¨à¦Ĩà¦¹":2431,"à¦£à¦¯":2432,"à¦ªà¦°à¦¶":2433,"à¦īà¦Ń":2434,"à¦¡à¦Łà¦ķà¦®":2435,"à¦§à¦¹à¦¯":2436,"à¦§à¦Ĺ":2437,"à¦§à¦°à¦²":2438,"à¦¤à¦¨à¦ķ":2439,"à¦Ĩà¦¹à¦¸":2440,"à¦ħà¦¡":2441,"à¦«à¦°à¦®":2442,"à¦ľà¦īà¦¦":2443,"à¦¤à¦®à¦ª":2444,"à¦²à¦¹à¦ķà¦®":2445,"à¦¯à¦Ĩà¦¨":2446,"à§Łà¦ħà¦°":2447,"à¦ľà¦¨à¦°":2448,"à¦Łà¦ħà¦«":2449,"à¦¤à¦Ĩà¦¦":2450,"à¦®à¦ķà¦®":2451,"à¦°à¦ĸà¦¬à¦°à¦ª":2452,"à¦¬à¦Ĩà¦²":2453,"à¦ıà¦ĩà¦²":2454,"à¦¨à¦ħà¦ª":2455,"à¦¦à¦¬à¦²":2456,"à¦¸à¦¹à¦Ĩà¦Łà¦ķ":2457,"à¦ıà¦®à¦¨à¦Ł":2458,"à¦Ĺà¦¤à¦Ń":2459,"à¦°à¦¤à¦¦à¦¨":2460,"à¦īà¦ªà¦ķà¦°à¦£":2461,"à¦ªà¦¨à¦¸":2462,"à§İà¦°":2463,"à¦¨à¦ıà¦°à¦ª":2464,"à¦ĸà¦¬à¦°à¦¦":2465,"à§¯à§Ń":2466,"à¦°à¦°à¦¬":2467,"à¦¬à¦ķà¦®":2468,"à¦¸à¦¬à¦ª":2469,"à¦·à¦£à¦¬":2470,"à¦Ĩà¦²à¦ķ":2471,"à¦«à¦¨":2472,"à¦Ĩà¦ŀ":2473,"à¦ĵà¦¬à¦²":2474,"à¦ĩà¦«à¦¤":2475,"à§§à§§à§¦":2476,"à¦ĩà¦¸à¦¨":2477,"à¦²à¦ķà¦°à¦¤":2478,"à§®à§«":2479,"à¦Ĺà¦®à¦¨":2480,"à¦¬à¦ķà¦ķ":2481,"à¦°à¦ıà¦ķà¦ª":2482,"à¦°à¦¬à¦¯":2483,"à¦¤à¦¨à¦¸":2484,"à¦¸à¦ķà¦°à¦²":2485,"à¦ıà¦ķà¦¨":2486,"à¦¹à¦Ĩà¦²":2487,"à¦°à¦¬à¦¦à¦²":2488,"à¦¯à¦ķà¦²":2489,"à¦¸à¦ķà¦®":2490,"à¦¨à¦¬à¦Ļ":2491,"à¦°à¦£à¦¹":2492,"à¦¬à¦¨à¦¸":2493,"à¦ĵà¦Ĩà¦ªà¦¨":2494,"à¦°à¦£à¦Ń":2495,"à¦ľà¦ķà¦°à¦¬":2496,"à¦Ĩà¦°à¦ĵà¦¦":2497,"à¦ĩà¦²à¦ª":2498,"à§Ńà§©":2499,"à¦°à¦ħà¦¡":2500,"à§ĩà¦ĥ":2501,"à§Łà¦ĺ":2502,"à¦¨à¦ĩà¦¸à¦²":2503,"à¦ĩà¦¡à¦¸":2504,"à§¨à§¦à§¨à§¨à§¨à§¦à§¨à§©":2505,"à¦¥à¦®à¦¨":2506,"à¦¤à¦¹à¦ĵà¦¯":2507,"à¦°à¦ıà¦ķà¦¸":2508,"à¦Ĺà¦ĸ":2509,"à¦ĵà¦ħà¦Ń":2510,"à¦·à¦ķà¦ķ":2511,"à¦Ĺà¦¬à¦°":2512,"à¦¨à¦¨à¦®":2513,"à¦¯à¦Ĩà¦²":2514,"à¦°à¦ªà¦²":2515,"à¦¦à¦®à¦¨":2516,"à¦¹à¦ķà¦¦":2517,"à¦¹à§Łà¦°":2518,"à¦°à¦¨à¦¦":2519,"à¦ıà¦¤à¦Ł":2520,"à¦²à¦¢":2521,"à¦°à¦Ĩà¦¹à¦¬":2522,"à¦Ĩà¦ĩà¦¬":2523,"à¦¨à¦ħà¦¥à¦¬":2524,"à¦§à¦¸à¦®":2525,"à¦ªà¦¸à¦®":2526,"à¦¨à¦¦à¦²":2527,"à¦ĩà¦¬à¦ķà¦°":2528,"à¦łà¦¸":2529,"à¦¨à¦īà¦²":2530,"à¦°à¦Ĩà¦¶à¦Ļ":2531,"à¦°à¦¸à¦®à¦¨":2532,"à¦¦à¦ħà¦¨":2533,"à¦ķà¦°à¦¦":2534,"à¦¹à¦°à¦ķ":2535,"à¦¹à¦ĩà¦¤":2536,"à¦ıà¦°à¦«à¦²":2537,"à¦°à¦¤à¦¤":2538,"à¦ķà¦ĩà¦¤":2539,"à¦¶à¦¡":2540,"à¦ıà¦¤à¦¥":2541,"à¦Ĺà¦¤à¦¦":2542,"à¦īà¦łà¦¬":2543,"à¦°à¦¸à¦ł":2544,"à¦¦à¦ıà¦¬":2545,"à¦¸à¦¬à¦¸à¦®à¦¯":2546,"à¦¨à¦¡à¦²":2547,"à¦¨à¦°à¦ķ":2548,"à¦¨à¦Ľà¦¬":2549,"à§ľà¦¦":2550,"à¦¬à¦ħà¦¨":2551,"à¦£à¦ļ":2552,"à¦¤à¦Ĩà¦¸":2553,"à¦ĩà¦¦à¦¹":2554,"à¦Ĩà¦°à¦Ł":2555,"à§§à§ªà§¨à§¯":2556,"à¦ķà¦¨à¦Ł":2557,"à¦ķà¦Ĩà¦ª":2558,"à¦ķà¦ªà¦¦":2559,"à¦¸à¦¬à¦¨":2560,"à§İà¦®":2561,"à¦°à¦ªà¦°à¦°":2562,"à¦¯à¦¤à¦Ł":2563,"à¦¨à¦ıà¦ķà¦ľà¦¨":2564,"à¦¶à¦ķà¦¦":2565,"à¦¦à¦ķà¦¨":2566,"à§¨à§¦à§¦à§Ń":2567,"à¦¦à¦ªà¦¤":2568,"à¦²à¦ªà¦®":2569,"à¦Ĺà¦łà¦¨à¦ķà¦°":2570,"à¦¨à¦Ĩà¦ĵà§Ł":2571,"à¦ıà¦°à¦ļ":2572,"à¦ľà§Łà¦¦":2573,"à¦ķà¦²à¦¨":2574,"à¦¯à¦ĵà¦ª":2575,"à¦¬à¦²à¦¨":2576,"à¦°à¦ħà¦¬à¦¶":2577,"à¦²à¦ķà¦¨":2578,"à¦¡à¦ļ":2579,"à¦ªà¦°à¦¬":2580,"à¦ķà¦ĺ":2581,"à¦łà¦¨":2582,"à¦«à¦®":2583,"à¦°à¦Ĩà¦ľà¦ķ":2584,"à¦ķà¦¸à¦°à¦ķ":2585,"à§¯à§©":2586,"à¦Łà¦¸à¦ħ":2587,"à¦ĩà¦ķà¦°à¦¤":2588,"à¦ĩà¦¡à¦¢":2589,"à¦¯à¦¬à¦°":2590,"à¦ĩà¦ħ":2591,"à¦·à¦£à¦¨":2592,"à¦ıà¦ĸà¦¨à¦ĵ":2593,"à¦®à¦®à¦¹":2594,"à¦¶à¦¨à¦Ĺ":2595,"à¦¹à¦¤à¦¹à§Ł":2596,"à¦ĩà¦īà¦ı":2597,"à¦¯à¦ķà¦°à¦¬":2598,"à¦¯à¦§":2599,"à§§à§«à§¦":2600,"à¦°à¦ļà¦£":2601,"à¦ªà¦ķà¦¥":2602,"à¦Ńà¦²":2603,"à¦²à¦¨à¦¸":2604,"à¦ĩà¦Ĩà¦Ĺ":2605,"à¦ĵà§ľ":2606,"à¦¬à¦¹à¦¨à¦ı":2607,"à§Łà¦¢":2608,"à¦°à¦£à¦¦":2609,"à¦¨à¦ıà¦ĩà¦¬":2610,"à¦¸à¦¹à¦ħà¦¨":2611,"à¦łà¦ķà¦°":2612,"à¦¶à¦¨à¦®":2613,"à¦ıà¦¨à¦¸":2614,"à¦Ĩà¦¨à¦¸":2615,"à¦²à¦ķà¦¸":2616,"à¦¸à¦Ĩà¦²":2617,"à¦²à¦¨à¦ķà¦°à¦¤":2618,"à¦īà¦Ĺ":2619,"à¦ĩà¦¹à¦²":2620,"à¦Ĩà¦°à¦¶":2621,"à¦ıà¦ĸà¦¨à¦¸":2622,"à¦¨à¦¸à¦®à¦¯":2623,"à¦ıà¦¤à¦¦":2624,"à¦ľà¦¸à¦¦":2625,"à¦¹à§Łà¦ıà¦¬":2626,"à¦§à¦²":2627,"à¦ĩà¦Ńà¦ķà¦°":2628,"à¦ıà¦ĸà¦¨à¦¤":2629,"à¦¹à¦Ń":2630,"à¦°à¦Ĩà¦ļ":2631,"à¦®à¦°à¦¤":2632,"à§¯à§ª":2633,"à¦§à¦¯":2634,"à¦ĩà¦²à¦Ł":2635,"à¦°à¦ªà¦°à¦¶":2636,"à§¯à§§":2637,"à¦īà¦¨à¦¸":2638,"à§¬à§©":2639,"à¦ªà§Łà¦¸":2640,"à¦¸à¦¬à¦¶":2641,"à¦¤à¦ķà¦°à¦Ľ":2642,"à¦ıà¦ĩà¦§à¦°à¦¨":2643,"à¦¯à¦ĸà¦¨à¦¤":2644,"à¦ķà¦®à¦¹":2645,"à¦«à¦ľà¦²":2646,"à¦®à¦ĺà¦Ł":2647,"à¦ķà¦ªà¦ł":2648,"à¦¸à¦¬à¦²":2649,"à¦®à¦¨à¦¦":2650,"à¦®à¦¦à¦®":2651,"à§Łà¦ıà¦¸":2652,"à¦¯à¦ľà¦¨":2653,"à¦ľà¦ªà¦°":2654,"à¦ķà¦ķà¦°à¦¤":2655,"à¦ıà¦ĩà¦¶":2656,"à¦ªà¦¨à¦ķ":2657,"à¦¨à¦Ĩà¦Ľ":2658,"à¦²à¦¤à¦²":2659,"à¦¬à¦¹à¦¨à¦ıà¦°à¦¸à¦ķà¦²à¦ķ":2660,"à¦¬à¦°à¦Ĺ":2661,"à¦īà¦ĸ":2662,"à¦Ĩà¦°à¦ĵà¦ľ":2663,"à¦¤à¦°à¦¬à¦Ļ":2664,"à¦¸à¦¨à¦ª":2665,"à¦¸à¦¹à¦¦":2666,"à¦¸à¦¨à¦¦":2667,"à¦°à¦¨à¦Ń":2668,"à§§à§¨à§¨":2669,"à¦²à¦¤à¦ª":2670,"à¦ķà¦¬à¦Ľ":2671,"à¦·à§Łà¦Ĺ":2672,"à¦ķà¦£":2673,"à¦§à¦¹":2674,"à¦¬à¦ıà¦ķà¦Ł":2675,"à¦ĩà¦¨à¦¦":2676,"à¦ªà¦£à¦ķà¦°":2677,"à¦«à¦¬":2678,"à¦ķà¦ħà¦Ń":2679,"à¦°à¦¸à¦ª":2680,"à¦¦à¦¨à¦®":2681,"à§®à§§":2682,"à¦¨à¦ıà¦¶":2683,"à¦°à¦ıà¦ª":2684,"à¦°à¦®à¦¬":2685,"à¦¸à¦¨à¦ķ":2686,"à¦°à¦¤à¦¦":2687,"à¦¹à¦°à¦¨":2688,"à¦ĸà¦¥":2689,"à¦¤à¦¨à¦¨":2690,"à¦¸à¦¬à¦Ĺ":2691,"à¦ĩà¦§":2692,"à¦¹à¦Ł":2693,"à¦¤à¦¨à¦¦":2694,"à¦¯à¦ıà¦Ł":2695,"à¦°à¦¤à¦®":2696,"à¦¹à¦Ĺ":2697,"à¦ĸà¦¨à¦ķ":2698,"à§®à§ª":2699,"à¦¯à¦Łà¦¨":2700,"à§Łà¦Ĩà¦°":2701,"à¦Ĩà¦ªà¦¤":2702,"à§Ńà§¯":2703,"à¦ıà¦ķà¦¹":2704,"à¦¯à¦§à¦°":2705,"à¦®à¦®à¦¨":2706,"à¦ĵà¦¹à¦¤":2707,"à§ľà¦ķà¦°":2708,"à¦·à¦ħà¦¤":2709,"à§§à§¨à§©":2710,"à¦®à§Łà¦¸à¦Ń":2711,"à¦ĺà¦®":2712,"à§¨à§¦à§¦à§¦":2713,"à¦°à¦ıà¦¨":2714,"à¦ıà¦®à¦ķ":2715,"à§Łà¦Ĩà¦²":2716,"à¦¨à¦°à¦¬":2717,"à¦ķà¦Ĩà¦¬":2718,"à¦·à¦Ľ":2719,"à¦īà¦¯":2720,"à¦ĩà¦¸à¦®à§Ł":2721,"à¦°à¦¹à¦£à¦ķà¦°à¦¤":2722,"à¦°à¦¥à¦®à¦ķ":2723,"à¦®à¦§à¦°":2724,"à¦¤à¦ħà¦¬à¦¸":2725,"à¦Ĩà¦ľà¦¸":2726,"à§Ńà§ª":2727,"à¦¯à¦®à¦¤":2728,"à§ģà¦Ĥ":2729,"à¦¤à¦ķà¦°à¦£":2730,"à¦īà¦·":2731,"à¦Ĺà¦£à¦¤":2732,"à¦°à¦Ĩà§ľ":2733,"à¦ªà¦Ĺà¦ŀ":2734,"à¦°à¦Ĩà¦¦à¦°":2735,"à¦¨à¦ĵà¦¨":2736,"à¦²à¦¹à¦²":2737,"à¦¨à¦ķà¦¥":2738,"à¦ĵà¦ĩà¦¬":2739,"à¦¡à¦¯":2740,"à¦ķà¦ķà¦²":2741,"à¦Łà¦ĩà¦¨":2742,"à¦®à¦¨à¦Ł":2743,"à§Łà¦ı":2744,"à¦°à¦ıà¦ĩà¦¦":2745,"à¦¦à¦ķà¦ľ":2746,"à¦ıà¦ķà¦¯":2747,"à¦¤à¦Ĩà¦¬":2748,"à¦²à§ľ":2749,"à¦¨à¦°à§Ł":2750,"à¦ľà¦Ĺà¦¤":2751,"à¦¯à¦Ĩà¦®à¦°":2752,"à§¨à§¦à§¨à§¦à§¨à§¦à§¨à§§":2753,"à¦°à¦ªà¦°à¦¬à¦°":2754,"à¦²à¦¸à¦¬":2755,"à¦°à¦Ĺà¦Ń":2756,"à¦¯à¦ĵà¦¯":2757,"à¦Ĺà¦ıà¦¬":2758,"à¦ıà¦ĩà¦¹":2759,"à¦łà¦¤":2760,"à¦°à¦ªà¦ł":2761,"à¦°à¦ħà¦®":2762,"à¦¨à¦¸à¦¤":2763,"à¦¤à¦¨à¦®":2764,"à¦Ńà¦¬à¦ķà¦°":2765,"à¦¯à¦ļà¦Ł":2766,"à¦¤à¦®à¦ľà¦¨":2767,"à¦®à¦¦à¦¨":2768,"à¦°à¦ķà¦ķ":2769,"à¦°à¦®à¦¤à¦¨":2770,"à¦¨à¦ļà¦Ł":2771,"à¦¨à§Łà¦¨à¦¬":2772,"à¦²à¦ķà¦¦":2773,"à§İà¦ªà¦°":2774,"à¦¬à¦ĩà¦¬":2775,"à¦ľà¦¨à¦ķà¦°à¦¤":2776,"à¦ļà¦®à§İà¦ķ":2777,"à¦ķà¦ı":2778,"à¦¯à¦¬à¦¦":2779,"à¦¯à¦¸à¦ļ":2780,"à¦°à¦¬à¦£à¦¤":2781,"à¦ªà¦¦à¦¸":2782,"à¦®à¦¨à¦®":2783,"à¦Ĩà¦®à¦²":2784,"à¦°à¦ªà¦°à¦¨":2785,"à§ľà¦¨":2786,"à¦¸à¦¬à¦¦":2787,"à¦¨à¦Ĩà¦¶":2788,"à¦°à¦īà¦ªà¦°à¦Ń":2789,"à¦£à¦Ł":2790,"à¦ľà¦¨à¦ıà¦¬":2791,"à¦®à¦¨à¦ª":2792,"à¦¤à¦®à¦¤":2793,"à¦°à¦°à§Ł":2794,"à¦·à¦²":2795,"à¦ĩà¦Ĩ":2796,"à¦®à¦ħ":2797,"à§Łà¦¸à¦ª":2798,"à¦¨à§Łà¦¨à¦ª":2799,"à¦¤à¦¸à¦®à¦¸":2800,"à¦ªà¦ħà¦¨":2801,"à¦Ńà¦Ĺ":2802,"à§ľà¦®":2803,"à¦Łà¦ıà¦ķà¦Ł":2804,"à¦¬à¦Ĩà¦®":2805,"à¦īà¦ĩà§Ł":2806,"à¦¹à¦¥":2807,"à§®à§®à§¦à§§à§Ń":2808,"à¦°à¦¹à¦£à¦ķ":2809,"à¦Ĩà¦°à¦ĵà¦ħà¦¨":2810,"à¦Ľà¦ª":2811,"à¦·à¦ĸ":2812,"à¦°à¦¦à¦°à¦ľ":2813,"à§Łà¦§":2814,"à¦¸à¦ĵà¦¸":2815,"à¦·à¦ķà¦¬":2816,"à¦°à¦īà§İà¦ª":2817,"à¦¯à¦¬à¦²":2818,"à¦¦à¦ķà¦ª":2819,"à¦ĩà¦¹à§Ł":2820,"à¦¤à¦ķà¦ª":2821,"à¦¸à¦¨à¦¬":2822,"à¦¨à¦ħà¦¬":2823,"à¦¬à¦¸à¦²":2824,"à¦ĵà¦ıà¦¬":2825,"à§®à§¯":2826,"à¦°à¦ľà¦¨à¦Ĺà¦£":2827,"à¦ħà¦¬à¦°":2828,"à¦¨à¦Ĺà¦¤":2829,"à§Łà¦¸à¦°":2830,"à¦²à§Łà¦¬":2831,"à¦¬à¦¹à¦¨":2832,"à¦ĩà¦Łà¦¥":2833,"à¦Ĩà¦ªà¦²":2834,"à¦¸à¦¦à¦¨":2835,"à§Łà¦®à¦¹":2836,"à¦°à¦°à¦¹":2837,"à¦ĩà¦¨à¦Ĺ":2838,"à¦ĩà¦Łà¦®":2839,"à¦°à¦ªà¦¡":2840,"à¦ħà¦¤à¦ıà¦¬":2841,"à¦Łà¦¹à¦²":2842,"à¦Łà¦ıà¦ķ":2843,"à¦ĩà¦ķà¦¥":2844,"à¦¤à¦¸à¦°":2845,"à§Ĥà¦ģ":2846,"à¦°à¦¶à¦¤":2847,"à¦ªà¦ıà¦¬":2848,"à¦¤à¦¸à¦Ń":2849,"à¦¬à¦ŀ":2850,"à¦·à§Łà¦¨":2851,"à¦ħà¦·":2852,"à¦²à¦¹à¦¬":2853,"à¦·à¦¹à¦²":2854,"à¦°à¦īà§İà¦¸":2855,"à¦ĩà¦§à¦°":2856,"à¦²à¦¨à¦¬":2857,"à¦¤à¦īà¦¦":2858,"à¦ªà¦°à¦°":2859,"à¦¬à¦Ľà¦°à¦¬à¦¯":2860,"à¦ķà¦ħà¦§":2861,"à¦ĩà¦Łà¦¸":2862,"à¦¤à¦Ĩà¦°":2863,"à¦ķà¦¹à¦¤":2864,"à¦°à¦£à¦¯":2865,"à¦ªà¦¦à¦¤":2866,"à¦ıà¦®à¦ıà¦¸":2867,"à¦¬à¦²à¦¸":2868,"à¦¯à¦Ľà¦¬":2869,"à¦ļà¦¹":2870,"à¦¶à¦ķà¦¯":2871,"à§ĩà¦Ĥ":2872,"à¦¤à¦°à¦Ĩ":2873,"à¦¡à¦ªà¦°":2874,"à¦ķà¦īà¦ª":2875,"à¦¯à¦īà¦¦":2876,"à¦£à¦ľ":2877,"à¦ıà¦ĸà¦¨à¦Ĩà¦®":2878,"à¦¯à¦¸à¦¹":2879,"à¦¨à¦®à¦ľ":2880,"à¦°à¦°à¦¹à¦¸":2881,"à¦ķà¦¨à¦¸":2882,"à¦°à¦¸à¦ŀ":2883,"à§®à§Ń":2884,"à¦īà¦Ńà§Ł":2885,"à¦ªà¦°à¦ķ":2886,"à¦¤à¦ķà¦°à¦²":2887,"à¦°à¦¯à¦¥":2888,"à§®à§©":2889,"à¦īà¦ĩà¦²":2890,"à¦¶à¦ķà¦°à¦²":2891,"à¦°à¦¥à¦®à¦¤":2892,"à¦°à¦®à¦ķ":2893,"à¦¯à¦¤à¦¬":2894,"à¦ħà¦¹":2895,"à¦§à¦¨à¦¸":2896,"à¦¯à¦ķà¦®à¦ª":2897,"à¦¨à¦īà¦ĩà¦ķ":2898,"à¦ļà¦¥":2899,"à¦°à¦®à¦¯":2900,"à¦¬à¦ĩà¦®":2901,"à¦²à¦¨à¦ª":2902,"à¦¸à¦Ĩà¦Ĺ":2903,"à¦¤à¦¬à¦¯":2904,"à¦ĸà¦¨à¦¸":2905,"à¦ļà¦ľ":2906,"à¦ıà¦ĸà¦¨à¦ª":2907,"à¦ķà¦¹à¦²":2908,"à¦°à¦Ĩà¦Ļ":2909,"à¦®à¦ıà¦ķ":2910,"à¦ıà¦ĩà¦ĺà¦Łà¦¨":2911,"à¦¶à¦ļà¦¨":2912,"à§¨à§§à§®":2913,"à¦¸à¦®à§Łà¦ķ":2914,"à¦ķà¦¨à¦«":2915,"à§İà¦¨":2916,"à§Łà¦ªà¦¤":2917,"à¦Ĺà¦¨à¦Ń":2918,"à¦²à¦ľà¦¬":2919,"à¦°à¦ľà¦²":2920,"à¦ľà§Łà¦ª":2921,"à¦®à¦Ĩà¦¬":2922,"à¦®à¦īà¦¨":2923,"à¦Ĩà¦ķà¦¬":2924,"à¦¨à¦ĵà¦¦":2925,"à¦¸à¦Ĩà¦®":2926,"à¦ıà¦«à¦¸":2927,"à§Łà¦¨à¦¡à¦²":2928,"à¦ĩà¦Ĩà¦¸":2929,"à¦·à¦£à¦¸":2930,"à¦¨à¦ĵà¦¤":2931,"à¦¥à¦Ń":2932,"à¦īà¦ĩà§Łà¦°":2933,"à¦¯à¦¤à¦¦":2934,"à¦¤à¦°à¦¥":2935,"à¦īà¦¸à¦®":2936,"à¦·à¦ķà¦¸":2937,"à¦ĩà¦ıà¦¸":2938,"à¦¨à¦ĩà¦²":2939,"à¦«à¦²à¦¤":2940,"à¦ķà¦Ĩà¦¨":2941,"à¦ıà¦ķà¦ľà¦¨à¦ķ":2942,"à¦²à¦¹à¦¯":2943,"à¦ķà¦ħà¦¸":2944,"à¦®à¦ĩà¦®":2945,"à¦ªà¦¨à¦¦":2946,"à¦Łà¦ĵ":2947,"à¦°à¦®à¦¡":2948,"à¦°à¦īà¦ªà¦¦":2949,"à¦¦à¦ªà¦°":2950,"à¦ķà¦¸à¦®à¦¯":2951,"à¦°à¦¹à¦£à¦¯":2952,"à¦¤à¦¨à¦Ń":2953,"à¦ıà¦ķà¦ĩà¦¸":2954,"à¦ĩà¦īà¦ľ":2955,"à¦ĩà¦¨à¦¤":2956,"à¦īà¦¥":2957,"à¦ħà¦¬à¦²à¦®":2958,"à¦ıà¦ķà¦ľà¦¨à¦ª":2959,"à¦§à¦ĺ":2960,"à¦¯à¦ķà¦®":2961,"à¦ıà¦¨à¦Ĩà¦ĩà¦¡":2962,"à¦¸à§ľà¦ķà¦¦":2963,"à§ªà§¦à§¦":2964,"à¦ĩà¦¡à¦ļà¦Ł":2965,"à¦¬à¦¨à¦®":2966,"à¦·à¦ķà¦¤":2967,"à¦°à¦¨à¦ľ":2968,"à¦ĵà¦®à¦¹":2969,"à¦ļà¦Ĺ":2970,"à¦ıà§ľ":2971,"à¦¬à¦²à¦ķ":2972,"à¦ķà¦¦à¦²":2973,"à¦Ŀà¦²":2974,"à§¨à§®à§ªà§©":2975,"à¦·à¦¦à¦¨":2976,"à¦¹à§Łà¦¤à¦¬":2977,"à¦ªà¦ķà¦®":2978,"à¦¬à¦ĩà¦¸":2979,"à¦Ŀà¦ĸ":2980,"à¦®à¦Ĩà¦ľ":2981,"à¦ĩà¦®à¦¹":2982,"à§Łà¦¨à¦¤":2983,"à¦¬à¦ķà¦²":2984,"à¦¤à¦¶à¦°":2985,"à¦¦à¦²à¦Ł":2986,"à¦Ĩà¦°à¦Ĩ":2987,"à¦¨à¦¬à¦Ľà¦°":2988,"à§Łà¦¦à¦ª":2989,"à¦§à¦¨à¦¬":2990,"à¦ªà¦Łà¦ª":2991,"à¦¶à¦ķà¦°à¦¬":2992,"à¦°à¦ħà¦¬à¦¦":2993,"à¦ıà¦ķà¦¶":2994,"à¦ķà¦īà¦¦":2995,"à¦¸à¦¹à¦Ĺ":2996,"à¦¨à¦ĩà¦īà¦¨":2997,"à¦¶à¦¸à¦¦à¦¸":2998,"à¦¦à¦¡":2999,"à¦ĺà¦¸":3000,"à¦ªà¦¦à¦¬":3001,"à¦°à¦°à¦«":3002,"à¦Łà¦¹à¦¯":3003,"à¦¸à¦īà¦¦":3004,"à¦ªà¦°à¦®":3005,"à¦¸à¦®à¦¤":3006,"à¦¤à¦°à¦¯":3007,"à¦ĩà¦¬à¦Ľ":3008,"à¦ıà¦¸à¦¬à¦ķà¦¥":3009,"à¦°à¦¸à¦¬à¦ķ":3010,"à¦°à¦ıà¦¨à¦Ĩà¦ĩà¦¡":3011,"à¦°à¦ĸà¦¬à¦°à¦ªà¦¤":3012,"à¦¦à¦¨à¦ĸ":3013,"à¦Ĩà¦²à¦®à¦Ĺ":3014,"à¦ķà¦ªà¦¤":3015,"à¦ħà¦¬à¦®":3016,"à¦¬à¦¨à¦§":3017,"à¦¤à¦¬à¦Ľ":3018,"à¦°à¦ħà¦¶":3019,"à¦¦à¦¨à¦¨":3020,"à¦¥à¦¨à¦ķà¦°":3021,"à¦ķà¦¹à¦¬":3022,"à¦¹à¦¬à¦²":3023,"à¦ıà¦ķà¦ĩà¦¸à¦Ļ":3024,"à¦¸à¦¬à¦¸":3025,"à¦°à¦¸à¦®à§Łà¦¬":3026,"à¦·à¦£à¦®":3027,"à¦²à¦ħà¦°":3028,"à¦°à¦¬à¦Ľà¦°":3029,"à¦°à¦ħà¦ľ":3030,"à¦ıà¦¹":3031,"à¦¤à¦°à§Ł":3032,"à¦²à¦Ĩà¦¨":3033,"à¦ıà¦ĩà¦«":3034,"à¦·à¦ķà¦®":3035,"à¦ıà§Ł":3036,"à¦¬à¦¦à¦¨":3037,"à¦¤à¦¸à¦°à¦ķ":3038,"à¦ĩà¦²à¦ł":3039,"à¦°à¦®à¦£à¦ķà¦°":3040,"à¦ķà¦ľà¦¬":3041,"à§Łà¦Ĩà¦Ľ":3042,"à¦Ĺà¦£à¦ª":3043,"à§Łà¦ľà¦¨":3044,"à¦ĵà¦ķà¦®":3045,"à¦·à¦¦à¦¸":3046,"à¦°à¦°à¦Ļ":3047,"à¦Ĩà¦²à¦¬":3048,"à§Łà¦Ĩà¦¬":3049,"à¦¬à¦ĩà§Ł":3050,"à¦ķà¦ĵà¦¸":3051,"à¦¯à¦ķà¦¥":3052,"à¦¨à¦ĺà¦Łà¦¨":3053,"à¦£à¦Ĩà¦«":3054,"à§İà¦«":3055,"à¦¤à¦ķà¦¬":3056,"à¦¤à¦®à¦¶":3057,"à¦¨à¦«à¦²":3058,"à¦ļà¦Ĺà§ľ":3059,"à¦§à¦Ľ":3060,"à¦®à¦Ĩà¦ªà¦¨":3061,"à§İà¦¦":3062,"à¦ıà¦ĩà¦¸à¦®à¦¸":3063,"à¦Ńà¦°à¦¶":3064,"à¦²à¦ĩà¦¨":3065,"à¦ıà¦ķà¦ľà¦¨à¦¸":3066,"à¦°à¦¤à¦°à¦«":3067,"à¦¤à¦¬à¦¸":3068,"à¦ĸà¦¶":3069,"à¦°à¦¶à¦¹à¦°":3070,"à¦ķà¦¸à¦¬":3071,"à¦«à¦¸à¦²":3072,"à¦®à§İà¦¸":3073,"à¦¥à¦¥":3074,"à¦¬à¦°à¦ľ":3075,"à¦°à¦®à¦£à¦ķ":3076,"à¦ľà¦¨à¦¯":3077,"à¦¨à¦Ŀ":3078,"à¦Łà¦ķà¦ª":3079,"à¦²à¦®à¦¹":3080,"à¦¸à¦ħà¦«":3081,"à¦ıà¦¸à¦ĩ":3082,"à¦¹à¦Ľ":3083,"à¦¬à¦ĩà¦Ł":3084,"à¦¯à¦°à¦ķ":3085,"à¦Ĩà¦ĩà¦ıà¦¸":3086,"à¦¹à¦ĸ":3087,"à¦Ĺà¦¸à¦Ń":3088,"à¦¬à¦°à¦ªà¦°":3089,"à¦²à¦¬à¦°":3090,"à¦ĩà¦Ļ":3091,"à¦ĩà¦Łà¦¹":3092,"à¦¤à¦¹à§Łà¦¨":3093,"à¦¤à¦ıà¦²":3094,"à§Łà¦Ĩà¦®à¦°":3095,"à¦§à¦ıà¦¬":3096,"à§¨à§«à§¦":3097,"à¦Ľà¦¯":3098,"à¦¨à¦¤à¦®":3099,"à¦¨à¦ĵà¦°":3100,"à¦²à¦ŀ":3101,"à¦īà¦²à¦ķà¦°":3102,"à¦¤à¦¤à¦¬":3103,"à¦Ĩà¦ĩà¦ıà¦¸à¦¬":3104,"à¦ªà¦ķà¦²":3105,"à¦°à¦īà¦ªà¦°à¦ķ":3106,"à¦¨à¦Ĩà¦¹à¦®à¦¦":3107,"à¦ķà¦¹à¦¯":3108,"à¦£à¦ªà¦°":3109,"à¦ĵà¦Ĩà¦¬":3110,"à¦ĵà¦ĵ":3111,"à¦°à¦ļà¦¤":3112,"à¦°à¦īà¦ªà¦¯":3113,"à¦¨à¦¤à¦°":3114,"à¦Ĩà¦°à¦Ń":3115,"à¦¸à¦®à§Łà¦¬":3116,"à¦¤à¦īà¦ª":3117,"à¦¤à¦Ĩà¦ªà¦¨":3118,"à¦¸à¦¦à¦°à¦īà¦ªà¦ľ":3119,"à¦°à¦ıà¦¦":3120,"à¦°à¦²à§ľ":3121,"à§®à§¨":3122,"à¦¦à¦²à¦ķ":3123,"à¦īà¦ľà¦¸":3124,"à¦ĵà¦ħà¦°":3125,"à¦Łà¦Ĺà¦²":3126,"à¦¬à¦ĩà¦ª":3127,"à¦·à§ľà¦¯à¦¨":3128,"à¦®à¦¨à¦¯":3129,"à¦Ńà¦ķà¦®à¦¨":3130,"à¦Łà¦¹à¦¬":3131,"à¦ĩà¦īà¦¤":3132,"à¦Ĺà¦£à¦¨":3133,"à¦°à¦§à¦°à¦¨":3134,"à¦¦à¦ķà¦¶":3135,"à¦ľà¦¬à¦¸":3136,"à¦¹à¦Ĩà¦®":3137,"à¦°à¦ĸà¦¬à¦°à¦¬":3138,"à¦«à¦²à¦¨":3139,"à¦°à¦ĩà¦ķ":3140,"à§Łà¦¸à¦¨":3141,"à¦°à¦īà¦ªà¦°à¦¦":3142,"à¦¸à¦®à¦¬":3143,"à§®à§¬":3144,"à¦°à¦Ĩà¦°à¦ķ":3145,"à¦¨à¦Ĩà¦ľà¦ķ":3146,"à¦°à¦¦à¦ª":3147,"à¦¦à¦Ĩà¦®":3148,"à¦®à¦¨à¦¤":3149,"à¦°à¦¶à¦¨":3150,"à¦¸à¦ĺ":3151,"à¦¨à¦¬à¦Ľ":3152,"à¦¤à¦®à¦®":3153,"à¦Ĩà¦¬à¦¶":3154,"à¦¥à¦ķà¦¦":3155,"à¦ĩà¦ľà¦®":3156,"à¦ıà¦ĩà¦¡":3157,"à¦ķà¦¸à¦¨":3158,"à¦ĵà¦ıà¦Ł":3159,"à§¯à§¨":3160,"à¦²à¦¨à¦¶":3161,"à¦¹à¦°à¦£à¦¸":3162,"à¦¡à¦ıà¦ķ":3163,"à¦¨à¦ĵà¦Ń":3164,"à¦°à¦ĵà¦ªà¦°à¦¨":3165,"à¦¬à¦īà¦¦":3166,"à¦¦à¦°à¦¸":3167,"à¦¸à¦°à¦£":3168,"à§Łà¦¬à¦¸":3169,"à¦¥à¦¹à¦²":3170,"à¦ªà¦¨à¦ķà¦°à¦¤":3171,"à¦ĩà¦Łà¦Ĺ":3172,"à¦²à¦¸à¦ķ":3173,"à¦°à¦ħà¦ŀ":3174,"à¦Ĩà¦ľà¦®":3175,"à¦¤à¦¸à¦®à§Ł":3176,"à¦£à¦Ĩà¦¦":3177,"à¦Ĩà¦ļà¦°à¦£":3178,"à¦®à¦¨à¦ķà¦°":3179,"à¦¸à¦«à¦°":3180,"à¦Łà¦¨à¦®":3181,"à¦§à¦¨à¦ķ":3182,"à¦Ĺà¦ķà¦°à¦¬":3183,"à¦¬à¦²à¦ª":3184,"à¦ĵà¦Ĩà¦Ľ":3185,"à¦°à¦ľà¦¨à¦¸":3186,"à¦¤à¦¸à¦ķà¦²":3187,"à¦ıà¦ĩà¦¸à¦®à§Ł":3188,"à¦°à¦ķà¦¸":3189,"à¦ħà¦¯":3190,"à¦¨à¦ıà¦¨":3191,"à¦īà¦¶à¦¨à¦¶":3192,"à¦¬à¦¨à¦¦":3193,"à¦®à¦¦à¦ª":3194,"à¦Ĩà¦¶à¦Ļ":3195,"à¦ĺà¦°à¦¬":3196,"à¦ĩà¦¸à¦ª":3197,"à¦Ĩà¦ĩà§Ł":3198,"à¦ıà¦®à¦¨à¦Ń":3199,"à¦²à§Łà¦¥":3200,"à¦ķà¦¤à¦¦":3201,"à¦Ŀà¦¡":3202,"à¦¤à¦°à¦ĵ":3203,"à¦°à¦ĸà¦°à¦ļ":3204,"à¦£à¦ıà¦¬":3205,"à¦ıà¦ķà¦ľ":3206,"à¦¤à¦°à¦ľ":3207,"à¦·à¦¹à¦¯":3208,"à¦²à¦Ĩà¦¹à¦®":3209,"à¦¯à¦ħà¦ª":3210,"à¦°à¦ĩà¦īà¦ª":3211,"à¦¦à¦²à¦¬":3212,"à¦ļà¦®à¦ķ":3213,"à§§à§§à§ª":3214,"à¦°à¦«à¦¤":3215,"à¦°à¦Ĺà¦ł":3216,"à§Łà¦¨à¦ķ":3217,"à§Łà¦Ĩà¦Ĺ":3218,"à¦Ĺà¦²à¦ª":3219,"à¦¨à¦ľà¦°à¦¦":3220,"à¦°à¦«à¦Ł":3221,"à¦ĩà¦®à¦¬":3222,"à¦¬à¦¨à¦¶":3223,"à§Łà¦¦à¦²":3224,"à¦¨à§Łà¦ķà¦°":3225,"à¦®à¦¦à¦ķ":3226,"à¦®à¦¦à¦¹":3227,"à¦ħà¦¬à¦§":3228,"à¦¯à¦ĸà¦¨à¦ķ":3229,"à¦®à¦ł":3230,"à¦²à¦¸à¦¹":3231,"à¦ķà¦ıà¦ķà¦Ł":3232,"à§Łà¦ķà¦¬":3233,"à¦¹à§Łà¦¦":3234,"à¦ªà¦ķà¦ľà¦¨":3235,"à¦·à¦ıà¦¬":3236,"à¦ĵà¦°à¦¬":3237,"à¦ĵà¦°à¦ķ":3238,"à§Łà¦¤à¦¥":3239,"à§¨à§¦à§¦à§¬":3240,"à§Łà¦Ĩà¦ªà¦¨":3241,"à¦®à¦¤à¦¦":3242,"à¦ķà¦ĵà¦¬":3243,"à¦²à¦Ĩà¦Ľ":3244,"à¦ĸà¦¬à¦°à¦¸":3245,"à¦°à¦ĩà¦¨à¦ļ":3246,"à¦®à¦ıà¦ķà¦Ł":3247,"à¦¨à¦ħà¦«":3248,"à¦ıà¦®à¦ı":3249,"à¦°à¦Ĩà¦®à¦²":3250,"à¦²à¦ıà¦¨":3251,"à¦®à¦¦à¦¶":3252,"à¦¬à¦¨à¦ª":3253,"à¦ĩà¦¨à¦¯":3254,"à§İà¦ªà¦°à¦¤":3255,"à¦°à¦¯à¦¨":3256,"à§§à§§à§©":3257,"à¦°à¦Ĩà¦ĺ":3258,"à¦¯à¦Ĩà¦°":3259,"à¦°à¦Ĩà¦ª":3260,"à¦²à¦ıà¦Ł":3261,"à§Łà¦¹à§Ł":3262,"à¦Łà¦¬à¦²à¦¬":3263,"à¦²à¦ķà¦Ń":3264,"à¦®à¦¨à¦ľ":3265,"à¦ĩà¦¯à¦¦":3266,"à¦¤à¦ı":3267,"à¦¥à¦ļ":3268,"à¦Łà¦Ĩà¦®":3269,"à¦¸à¦®à§Łà¦¸":3270,"à¦ķà¦¸à¦®à¦¸":3271,"à¦¤à¦ĸà¦¨à¦¸":3272,"à¦ĸà¦¬à¦°à¦¨":3273,"à¦ķà¦ĵà§Ł":3274,"à¦¨à¦Ĩà§Ł":3275,"à¦ĩà¦ħà¦Ń":3276,"à¦ķà¦¤à¦¬":3277,"à¦°à¦ªà¦°à¦Ĩà¦®":3278,"à¦¨à¦¤à¦¨":3279,"à¦°à¦ıà¦®à¦ª":3280,"à¦Ĩà¦ĩà¦ķ":3281,"à¦¦à¦ĵ":3282,"à¦ĩà¦²à¦Ĺ":3283,"à¦¶à¦¬à¦¨":3284,"à¦¹à¦²à¦¬":3285,"à¦¶à¦ķà¦¤":3286,"à¦Ĺà¦¤à¦°":3287,"à¦§à¦ļ":3288,"à¦¸à¦¹à¦¤":3289,"à¦¨à¦ıà¦ĩà¦ª":3290,"à¦¬à¦°à¦¸à¦ķ":3291,"à¦łà¦ķà¦¦":3292,"à¦ķà¦°à¦ķ":3293,"à¦ªà¦ķà¦Ń":3294,"à¦¡à¦ı":3295,"à¦ķà¦°à¦¸":3296,"à¦£à¦²":3297,"à§Łà¦ıà¦²":3298,"à¦ĩà¦Łà¦Ĩà¦ĩà¦¨":3299,"à¦¸à¦§à¦°":3300,"à¦Ĩà¦¹à¦¤à¦¹à§Ł":3301,"à¦ķà¦¤à¦ķ":3302,"à§§à§§à§«":3303,"à¦ıà¦°à¦ĩà¦®à¦§":3304,"à¦°à¦ľà§Ł":3305,"à¦°à¦īà¦ªà¦°à¦¬":3306,"à¦¦à¦¤à¦¥":3307,"à¦°à¦ķà¦¯":3308,"à¦¬à¦ħà¦°":3309,"à¦·à¦Ĩà¦ªà¦¡":3310,"à¦°à¦ĵà¦°":3311,"à¦ĵà¦Ĩà¦°":3312,"à¦¦à¦¨à¦ªà¦¤":3313,"à¦°à¦ªà¦°à¦ĩ":3314,"à¦¨à¦²à¦ķ":3315,"à¦°à¦ĵà¦²":3316,"à¦ķà¦®à¦ªà¦ķ":3317,"à§ľà¦ª":3318,"à¦ĩà¦¨à¦°":3319,"à¦¬à¦ªà¦¨":3320,"à¦°à¦ķà¦²à¦ķ":3321,"à¦£à¦ıà¦¶":3322,"à¦§à¦ķà¦¤":3323,"à¦ıà¦®à¦¶":3324,"à¦°à¦ĵà¦Ń":3325,"à¦Ĺà¦ķà¦°à¦²":3326,"à¦«à¦ª":3327,"à¦¤à¦ıà¦°à¦¸":3328,"à¦¹à¦¤à¦¬":3329,"à¦®à¦°à¦ķ":3330,"à¦°à¦ıà¦¸à¦ıà¦¸à¦¸":3331,"à¦°à¦ªà¦¤à¦¨":3332,"à¦¦à¦Ĩà¦¬":3333,"à¦ªà¦Ļ":3334,"à¦¸à¦¬à¦§à¦°à¦¨":3335,"à¦¤à¦ĩà¦¤":3336,"à¦°à¦¨à¦¸à¦®":3337,"à¦Ĺà¦¤à¦ª":3338,"à¦¦à¦Ĩ":3339,"à§İà¦¤":3340,"à¦°à¦ıà¦¤":3341,"à¦ĸà¦¨à¦¬":3342,"à¦ĩà¦¸à¦¹":3343,"à¦®à¦ĩà¦¨":3344,"à¦ĩà¦¡à¦ķ":3345,"à¦¤à¦Ĩà¦°à¦¬":3346,"à¦®à¦ķà¦¬":3347,"à¦ĵà¦¬à¦¨":3348,"à¦ıà¦ķà¦ľà¦¨à¦¨":3349,"à¦ĩà¦²à¦¦":3350,"à¦ķà¦¸à¦ķ":3351,"à¦Łà¦Ĩ":3352,"à¦°à¦īà¦ªà¦¨":3353,"à¦°à¦ĩà§Ł":3354,"à¦®à¦¨à¦¨":3355,"à¦°à¦°à¦ļà¦¨":3356,"à¦¦à¦ķà¦¹":3357,"à¦ªà¦¶à¦¨":3358,"à¦ĩà¦²à¦ķà¦°":3359,"à¦²à¦Ĩà¦ªà¦¨":3360,"à¦°à¦ıà¦ĩà¦®":3361,"à§ĩà§Ĺà¦ģ":3362,"à§¨à§¦à§¨à§¦à§¨à§§":3363,"à¦Ĩà¦²à¦«":3364,"à¦¶à¦¢":3365,"à¦£à¦¤à¦¹à§Ł":3366,"à¦ħà¦ªà¦°à¦¦":3367,"à¦¨à¦¹à¦ļ":3368,"à§Łà¦Ĩ":3369,"à¦¨à¦¹à¦ĵà§Ł":3370,"à¦Ĺà¦¤à¦¯":3371,"à¦°à¦£à¦Ĺ":3372,"à¦ıà¦¤à¦¬":3373,"à¦ªà¦°à¦¸":3374,"à¦¤à¦ªà§ľ":3375,"à¦ķà¦ķà¦¥":3376,"à¦ľà¦¨à¦Ľ":3377,"à¦¸à¦ķà¦°à¦Ľ":3378,"à¦ķà¦ĵà¦®":3379,"à¦¦à¦Ĺà¦ŀ":3380,"à¦ĩà¦īà¦ıà¦¨à¦ĵ":3381,"à§Łà¦¨à¦¸":3382,"à¦°à¦ķà¦¦":3383,"à¦Ĭà¦°":3384,"à¦¶à¦®à¦¨":3385,"à¦ľà¦ħà¦¨":3386,"à¦¯à¦¹à¦¯":3387,"à¦ħà¦¬à¦ķ":3388,"à¦¨à¦ªà¦°à¦¬à¦°":3389,"à¦ıà¦ĩà¦ĵà¦¯":3390,"à¦ķà¦ĩà¦¸à¦²":3391,"à¦ķà¦ıà¦²":3392,"à¦ĸà¦ľ":3393,"à¦¤à¦ªà¦ķ":3394,"à¦Ĺà¦¤à¦¬à¦Ľà¦°":3395,"à¦°à¦ĸà¦¬à¦°à¦¸":3396,"à¦¦à¦¨à¦²":3397,"à¦²à¦°à¦ķ":3398,"à¦®à¦¤à¦¹à¦ļ":3399,"à¦¦à¦°à¦¬à¦¨":3400,"à¦ıà¦¸à¦ķ":3401,"à¦¤à¦¨à¦ķà¦°à¦¤":3402,"à¦ĵà¦§":3403,"à¦¸à¦ķà¦²à¦¬":3404,"à¦°à¦ıà¦ľ":3405,"à¦īà¦¶":3406,"à¦ķà¦Ĩà¦ªà¦¨":3407,"à¦Łà¦¨à¦ª":3408,"à¦®à¦¸à¦¹":3409,"à¦Łà¦®à¦¹":3410,"à¦Ľà¦Ł":3411,"à¦¤à¦®à¦ľ":3412,"à¦¸à¦®à§Łà¦²":3413,"à¦Ńà¦°à¦¯":3414,"à¦¨à¦¸à¦ķà¦²":3415,"à¦¦à¦ķà¦°à¦¤":3416,"à¦¤à¦¬à¦Ľà¦°":3417,"à¦°à¦£à¦¶":3418,"à¦°à¦ªà¦°à¦¯":3419,"à¦ĵà¦Ĩà¦®à¦°":3420,"à¦°à¦®à¦Ļ":3421,"à¦Ŀà¦¬":3422,"à¦ıà¦¸à¦¡":3423,"à¦ıà¦ĩà¦ĸ":3424,"à¦¹à¦Ĩà¦²à¦®":3425,"à¦¨à¦Ĺà¦²":3426,"à¦ĵà¦ıà¦°à¦Ĺ":3427,"à¦¸à¦ķà¦²à¦ª":3428,"à¦·à¦¸à¦®":3429,"à¦īà¦¬à¦ļ":3430,"à¦ĵà¦¬à¦°":3431,"à¦·à¦ħà¦Ń":3432,"à¦ļà§Łà¦¤":3433,"à¦ĩà¦Łà¦ķ":3434,"à¦īà¦²à¦Ĩà¦ī":3435,"à¦ķà¦Ĩà¦°":3436,"à¦ıà¦ķà¦¦à¦®":3437,"à¦ĸà¦¬à¦°à¦Ł":3438,"à¦Ĩà¦®à¦¨":3439,"à¦Ľà¦§à¦°":3440,"à¦ıà¦«à¦¬":3441,"à¦ªà¦ķà¦¡":3442,"à¦¦à¦¨à¦Ł":3443,"à¦łà¦®":3444,"à¦¹à¦²à¦¸":3445,"à¦¨à¦ıà¦ª":3446,"à¦¯à¦ĸà¦¨à¦¬":3447,"à¦ķà¦Ľà§ľ":3448,"à¦¨à¦¦à¦ķ":3449,"à¦¤à¦¬à¦¨":3450,"à¦ĵà¦ĩà¦¦":3451,"à¦ıà¦®à¦¡":3452,"à¦°à¦Ĺà§ľ":3453,"à¦ķà¦ħà¦«":3454,"à¦Łà¦°à¦¬":3455,"à¦¤à¦ķà¦¥":3456,"à¦¯à¦ĩà¦ª":3457,"à¦°à¦ķà¦·":3458,"à¦Ĩà¦Ĩ":3459,"à¦ıà¦¡à¦Ń":3460,"à¦ıà¦ķà¦¨à¦ľà¦°":3461,"à¦¸à¦¦à¦°":3462,"à¦¬à¦¹à¦¨à¦ķà¦°":3463,"à¦°à¦ıà¦ĩà¦ķ":3464,"à¦¶à¦¨à¦ıà¦¬":3465,"à¦¨à¦®à¦¤":3466,"à¦Ĩà¦°à¦°":3467,"à¦ĸà¦Ń":3468,"à¦ıà¦ĩà¦¸à¦®":3469,"à¦®à¦¨à¦ĸ":3470,"à¦ªà¦ķà¦¸":3471,"à¦²à¦ķà¦ķà¦°":3472,"à¦ľà¦¨à¦ľ":3473,"à¦°à¦ªà¦°à¦ıà¦ķ":3474,"à¦Ĺà¦łà¦¨à¦¸":3475,"à¦®à¦°à¦£à¦ķà¦°":3476,"à¦ĸà¦«":3477,"à¦ľà¦²à¦ª":3478,"à¦ĩà¦ħà¦°":3479,"à¦¶à¦¹à§Ł":3480,"à¦¸à¦ĩà§Ł":3481,"à¦ıà¦ķà¦²":3482,"à¦ıà¦ĩà¦¸à¦¬":3483,"à¦°à¦¶à¦¸":3484,"à§Łà¦ıà¦Ł":3485,"à¦ĵà¦ĩà¦¨":3486,"à¦·à¦ķà¦ª":3487,"à¦ıà¦ķà¦Ĺ":3488,"à¦ķà¦¶à¦ķ":3489,"à¦®à¦ĩ":3490,"à¦Ńà¦ľà¦¨à¦ķà¦¸":3491,"à¦¨à¦ķà¦¶":3492,"à¦ıà¦²à¦¸":3493,"à¦ľà¦ķà¦²":3494,"à§Łà¦¬à¦¨":3495,"à¦Ĩà¦¨à¦¹":3496,"à¦¤à¦ħà¦¤":3497,"à¦Łà¦¬à¦²à¦Ł":3498,"à¦²à¦¨à¦ķà¦°à¦Ľ":3499,"à¦ĩà¦Łà¦Ń":3500,"à§¨à§¦à§¦à§§":3501,"à¦ıà¦¬à¦Ľ":3502,"à¦ŀà¦°":3503,"à¦°à¦¹à¦®à¦¤":3504,"à§¨à§¯à§¦":3505,"à¦§à¦ªà¦°":3506,"à¦¯à¦ĸà¦¨à¦¸":3507,"à¦ķà¦§à¦°":3508,"à¦¨à¦°à¦®":3509,"à¦¤à¦¸à¦¨":3510,"à¦²à¦¤à¦¸":3511,"à¦¤à¦ĸà¦¨à¦ķ":3512,"à¦¬à¦ĵ":3513,"à¦®à¦ĵà¦ľ":3514,"à¦°à¦¤à¦¬à¦°":3515,"à¦®à¦ļà¦¨":3516,"à¦²à¦¹à¦ķà¦¸":3517,"à¦¤à¦ªà¦¦":3518,"à¦Ĺà¦ļà¦Ł":3519,"à¦°à¦ľà¦Ĺà¦¤":3520,"à¦ĩà¦ł":3521,"à¦īà¦¶à¦¨":3522,"à¦¹à¦ĩà¦¬":3523,"à¦°à¦ķà¦¤":3524,"à¦ĩà¦¡à¦¬":3525,"à¦ĩà¦¹à¦¯":3526,"à¦Ĩà¦°à¦ļ":3527,"à¦Ľà¦«":3528,"à¦¯à¦¤à¦ķ":3529,"à¦¡à¦ĵà§Ł":3530,"à¦ķà¦Łà¦ķ":3531,"à¦Ĺà¦Ĩà¦¨":3532,"à¦®à¦¨à¦Ń":3533,"à¦Ĺà¦¨à¦¸":3534,"à§Łà¦īà¦¦":3535,"à¦ľà¦¨à¦¸à¦®":3536,"à¦°à¦ĺà¦¨":3537,"à¦°à¦ħà¦²":3538,"à¦°à¦ĩà¦ī":3539,"à¦·à¦¹à¦¬":3540,"à¦°à¦ıà¦Ĺ":3541,"à¦Ĺà¦ħà¦¨":3542,"à¦Łà¦īà¦ªà¦ľ":3543,"à¦¤à¦ħà¦§":3544,"à¦ĩà¦Łà¦ª":3545,"à¦ĵà¦°à¦®":3546,"à¦¨à¦Ĩà¦¤":3547,"à¦°à¦ªà¦ŀ":3548,"à¦²à¦¤à¦¥":3549,"à¦°à¦Ĩà¦ªà¦¡":3550,"à¦Ĩà§Łà¦ķà¦°":3551,"à¦¹à¦¯à¦°à¦¤à¦®":3552,"à¦°à¦Ĩà¦°à¦¬":3553,"à¦¬à¦°à¦£à¦ķà¦°":3554,"à¦®à¦¤à¦ķ":3555,"à¦¬à¦¬à¦²":3556,"à¦ĩà¦Ĩà¦°":3557,"à§Łà¦¤à¦²":3558,"à¦Łà¦®à¦¨":3559,"à§§à§§à§¨":3560,"à¦ĸà¦ļ":3561,"à¦ľà¦¬à¦¨":3562,"à¦Ĩà¦¹à¦¬":3563,"à¦§à¦¨à¦ķà¦°à¦²":3564,"à¦ľà¦¤à¦¨":3565,"à¦ĩà¦Ńà¦ķ":3566,"à¦°à¦ĵà¦¶":3567,"à¦¨à¦Ĺà¦¦":3568,"à¦¨à¦«à¦°":3569,"à¦ĩà¦¨à¦²":3570,"à¦ıà¦®à¦®":3571,"à¦¤à§İà¦ķ":3572,"à¦¦à¦¨à¦°":3573,"à¦¯à¦¸à¦¬":3574,"à¦¯à¦ĵà§Ł":3575,"à¦°à¦¹à¦¨":3576,"à¦Łà¦Ĩà¦ª":3577,"à¦¯à¦ħà¦Ń":3578,"à¦ĩà¦¸à¦¤":3579,"à¦°à¦īà¦ªà¦°à¦¹":3580,"à¦¶à¦Ĩà¦®":3581,"à¦¨à¦ħà¦¨à¦²":3582,"à¦·à¦ķà¦°à¦¤":3583,"à¦¸à¦®à§Łà¦¨":3584,"à¦Ķà¦·à¦§":3585,"à¦ıà¦²à¦¬":3586,"à¦¹à§Łà¦ľ":3587,"à¦¦à¦²à¦Ĺ":3588,"à¦¦à¦Ĩà¦¤":3589,"à¦ĩà¦¹à¦¤":3590,"à¦·à¦¹à¦¤":3591,"à¦Łà¦°à¦ķ":3592,"à§Łà¦ħà¦¸":3593,"à¦ĩà¦ıà¦ĸ":3594,"à¦®à¦ķà¦°à¦¤":3595,"à¦ĸà¦ªà¦°":3596,"à¦ķà¦¨à¦Ń":3597,"à¦²à¦ł":3598,"à¦ıà¦¸à¦ĩà¦¸":3599,"à¦°à¦¨à¦¯":3600,"à¦ªà¦¦à¦ª":3601,"à¦°à¦£à¦Ľ":3602,"à¦Ľà¦®":3603,"à¦°à¦¶à¦Ļ":3604,"à¦²à¦ħà¦«":3605,"à¦Ĺà¦¢":3606,"à¦¤à¦ªà¦¡":3607,"à¦ıà¦¸à¦¬à¦ķ":3608,"à¦£à¦ķà¦°à¦¤":3609,"à§Łà¦¤à¦¨":3610,"à¦°à¦®à¦ŀ":3611,"à¦ĺà¦ķ":3612,"à¦Łà¦ķà¦°à¦¬":3613,"à¦Ĩà¦°à¦ĵà¦ķ":3614,"à¦Ĩà¦Ń":3615,"à¦ħà¦ªà¦®":3616,"à¦°à¦¯à¦¶":3617,"à¦¨à¦ļà¦°":3618,"à¦ļà§Łà¦ªà¦¤":3619,"à¦®à¦Ĩà¦¹à¦®":3620,"à¦·à§Łà¦ķà¦¸à¦®":3621,"à¦¬à¦¸à¦īà¦¦à¦¯":3622,"à¦¼à¦¾à¦Ĥ":3623,"à¦ıà¦¤à¦ķ":3624,"à¦ķà¦°à¦¹à¦®":3625,"à¦ķà¦¸à¦°":3626,"à¦°à¦¬à¦Ļ":3627,"à¦¨à¦¬à¦¹":3628,"à¦¨à§ľ":3629,"à¦¸à¦®à§Łà¦ª":3630,"à¦ľà¦ħ":3631,"à¦¬à¦°à¦¡":3632,"à¦·à¦ķà¦¶":3633,"à¦²à¦¨à¦ħà¦¨":3634,"à¦Ļà¦ļ":3635,"à¦¤à¦ľà¦°":3636,"à¦Łà¦ĺ":3637,"à¦°à¦¦à¦ĸà¦²":3638,"à¦ıà¦ĸà¦¨à¦¥":3639,"à¦·à¦ķà¦²":3640,"à¦ªà¦°à¦Ĺà¦¨":3641,"à¦°à¦¹à¦¨à¦ķà¦°":3642,"à¦¬à¦ĵà¦ª":3643,"à¦ıà¦°à¦Ń":3644,"à¦°à¦ķà¦ł":3645,"à¦¸à¦ķà¦°à¦¬":3646,"à¦°à¦¸à¦¹à¦ľ":3647,"à¦¡à¦ķà¦²":3648,"à§Łà¦ªà§ľ":3649,"à¦¹à¦°à¦¸":3650,"à§Łà¦°à§Ł":3651,"à¦°à¦ıà¦ķà¦¨":3652,"à¦°à¦Ĩà¦Łà¦ķ":3653,"à¦ıà¦°à¦ıà¦ķà¦Ł":3654,"à¦ķà¦ĩà¦¨":3655,"à¦ĺà¦Łà¦¤":3656,"à§¨à§¦à§¨à§§à§¨à§¨":3657,"à¦ĵà¦¢":3658,"à¦ĩà¦Łà¦¨":3659,"à¦¨à¦ıà¦°à¦Ĩà¦Ĺ":3660,"à¦Ĺà¦īà¦ł":3661,"à¦°à¦Ĭ":3662,"à¦¶à¦§":3663,"à¦ĩà¦²à¦¶":3664,"à¦¸à¦®à§Łà¦¤":3665,"à¦ķà¦Ĩà¦¯":3666,"à§Łà¦ıà¦ĩ":3667,"à¦§à¦¬à¦ª":3668,"à¦§à¦ķà¦°à¦Ľ":3669,"à¦°à¦¸à¦®à§Łà¦ķ":3670,"à¦°à¦Ĩà¦ĩà¦¨à¦ľ":3671,"à§§à§ªà§ªà§ª":3672,"à¦ļà¦ĸ":3673,"à¦²à¦ħà¦Ń":3674,"à¦ĵà¦Ĩà¦¨":3675,"à¦®à¦¹à§Ł":3676,"à¦¤à¦ıà¦Ł":3677,"à¦ĵà¦īà¦¨":3678,"à¦ıà¦®à¦¨à¦ª":3679,"à¦°à¦®à¦¦":3680,"à¦§à¦ķà¦°à¦¬":3681,"à¦°à¦¦à¦¶à¦ķ":3682,"à¦²à¦Ĩà¦ķ":3683,"à¦°à¦«à¦°à¦®à¦ª":3684,"à¦Ĩà¦¬à¦°":3685,"à¦²à¦¸à¦°à¦ķ":3686,"à¦ıà¦ķà¦ļ":3687,"à¦Īà¦¸":3688,"à¦£à¦ĸ":3689,"à¦°à¦Ĩà¦Ĺà¦®à¦¨":3690,"à¦¬à¦°à¦¶":3691,"à¦ĩà¦¬à¦Ľà¦°":3692,"à¦¨à¦ħà¦²":3693,"à¦°à¦īà¦ªà¦¹":3694,"à¦ķà¦ĩà¦īà¦¨":3695,"à¦Łà¦¬à¦²à¦ķ":3696,"à¦£à¦Ĺà¦ŀ":3697,"à¦īà¦ĩà¦¯":3698,"à¦¨à¦ıà¦¸à¦®à§Ł":3699,"à¦Ľà¦Ĺ":3700,"à¦¦à¦°à¦¦":3701,"à¦¤à¦°à¦¸à¦®":3702,"à¦ıà¦ķà¦ªà¦°":3703,"à¦®à¦¸à¦®à¦°":3704,"à¦ĸà¦Ĺ":3705,"à¦ķà¦ĵà¦ª":3706,"à¦°à¦Ĩà¦¸à¦¨":3707,"à¦ıà¦®à¦¨à¦¬":3708,"à¦¶à¦¨à¦¥":3709,"à¦ĸà¦¨à¦¨":3710,"à¦¨à¦¶à¦¹":3711,"à¦¤à¦ķà¦¸à¦®":3712,"à¦¸à¦«à¦²à¦¤":3713,"à¦ľà¦Ĩà¦²":3714,"à¦¸à¦ĩà¦¤":3715,"à¦¹à¦²à¦¦":3716,"à¦·à¦¡":3717,"à¦¸à¦ļà¦²":3718,"à¦Ĺà¦®à¦°":3719,"à¦¦à¦°à¦ª":3720,"à¦¤à¦ķà¦²":3721,"à¦ĩà¦¸à¦®à¦¯":3722,"à¦¬à¦¨à¦Ĺ":3723,"à¦¯à¦¸à¦°":3724,"à¦ļà¦ªà¦°":3725,"à¦²à§Łà¦¶":3726,"à¦¤à¦ĵà§Ł":3727,"à¦¯à¦ĺ":3728,"à¦¬à¦ķà¦¬":3729,"à¦°à¦ıà¦ķà¦ķ":3730,"à¦ĵà¦ķà¦²":3731,"à¦ķà¦¤à¦¤":3732,"à¦Ĩà¦°à¦¹":3733,"à§Łà¦°à¦¸":3734,"à¦²à¦ıà¦¸":3735,"à¦ĩà¦ĵà¦¯":3736,"à§³à§³":3737,"à¦²à¦¸à¦¨":3738,"à¦ļà¦¨à¦ķ":3739,"à¦°à¦Ĩà¦¨à¦¤":3740,"à¦ĩà¦ĩ":3741,"à¦°à¦¤à¦¸":3742,"à¦¯à¦īà¦¨":3743,"à¦¸à¦ĩà¦īà¦¨":3744,"à¦²à¦ķà¦¹":3745,"à¦Ĩà¦²à¦¤":3746,"à¦¸à¦°à¦¬":3747,"à¦ķà¦ľà¦¨à¦ķ":3748,"à¦Ĩà¦ĩà¦«":3749,"à¦¹à¦¤à¦¥":3750,"à¦¶à¦ıà¦ķ":3751,"à¦¹à¦¸à¦®":3752,"à¦ĵà¦ıà¦¸":3753,"à§Ģà¦ĥ":3754,"à¦łà¦ķà¦ª":3755,"à¦ļà¦°à¦ķ":3756,"à¦¯à¦ĩà¦¸":3757,"à¦¨à§Łà¦ķ":3758,"à¦²à¦ĩà¦īà¦¨":3759,"à¦¦à¦¨à¦ħà¦¨":3760,"à¦°à¦īà¦ł":3761,"à¦°à¦¨à§Ł":3762,"à¦¤à¦ªà¦£":3763,"à¦¦à¦ĸà¦²à¦ķà¦°":3764,"à¦£à¦®à¦¨":3765,"à¦²à§Łà¦ķ":3766,"à¦Łà¦ıà¦²":3767,"à¦¨à¦ıà¦Ń":3768,"à¦°à¦«à¦²à¦ª":3769,"à¦¨à¦¬à¦¬à¦°":3770,"à¦²à§Łà¦ª":3771,"à¦·à¦£à¦ķà¦°à¦¤":3772,"à¦īà¦ľà¦°":3773,"à¦°à¦£à¦ħà¦¨":3774,"à¦¯à¦ĩà¦¨":3775,"à¦²à§Łà¦¸":3776,"à¦°à¦¸à¦°à¦¬à¦°":3777,"à¦²à¦ķà¦¥":3778,"à¦¬à¦°à¦¯":3779,"à¦ĵà¦¸à¦®à¦®":3780,"à¦¡à¦ĵà¦¯":3781,"à¦¤à¦ľà¦¨":3782,"à¦¦à¦¨à¦Ĺ":3783,"à¦Ĩà¦°à¦ıà¦ķà¦Ł":3784,"à¦Łà¦ķà¦²":3785,"à¦¥à¦ªà¦°":3786,"à¦ļà¦£":3787,"à¦ĵà¦ħà¦¸":3788,"à¦¨à¦§à¦¨":3789,"à¦·à¦£à¦¶":3790,"à¦¨à¦ıà¦®à¦¨à¦ķ":3791,"à¦¨à¦ıà¦ķà¦¬":3792,"à¦¨à¦ıà¦ĩà¦¸":3793,"à¦¤à¦¢":3794,"à¦¨à¦¤à¦¦":3795,"à¦¦à¦°à¦®":3796,"à¦īà¦ĩ":3797,"à¦¨à¦°à¦ķà¦®":3798,"à¦¦à¦īà¦²":3799,"à¦ĩà¦ľà¦°":3800,"à¦®à¦¦à¦Ĩà¦²":3801,"à¦§à¦¨à¦ª":3802,"à¦ĩà¦ħà¦ªà¦°":3803,"à¦Ĩà¦Ĺà¦·":3804,"à¦¹à¦ıà¦¸à¦ıà¦¸à¦¸":3805,"à¦Ĩà¦¸à¦®":3806,"à¦ıà¦¸à¦¬à¦¬":3807,"à¦£à¦¹à§Ł":3808,"à¦·à¦ħà¦¨":3809,"à§¬à§¦à§¦":3810,"à¦¨à¦ĵà¦¶":3811,"à¦°à¦ķà¦ĸà¦¨":3812,"à¦¨à¦ħà¦¬à¦¶":3813,"à¦Ĺà¦ķà¦®":3814,"à¦²à¦ıà¦ĩ":3815,"à¦īà¦ªà¦¸à¦°":3816,"à¦¹à§Łà¦ªà¦°":3817,"à¦°à¦īà¦ªà¦°à¦ª":3818,"à¦¹à¦ªà¦°":3819,"à¦Ĩà¦ĩà¦¨à¦¬":3820,"à¦¦à¦°à¦¨":3821,"à¦¨à¦Ĩà¦°à¦¬":3822,"à¦°à¦¹à¦ĵà¦¯":3823,"à§¯à§¯à§¯":3824,"à¦ĵà¦ĺ":3825,"à§¨à§¦à§§à§¯à§¨à§¦à§¨à§¦":3826,"à¦¯à¦¤à¦®à¦¸":3827,"à§§à§¦à§«":3828,"à¦Ńà¦īà¦¦":3829,"à¦²à¦Ŀ":3830,"à§Łà¦¤à¦ª":3831,"à¦¸à¦¨à¦®":3832,"à¦¯à¦¨à¦¤":3833,"à¦ĩà¦¶à¦¤":3834,"à§Łà¦ħà¦¬à¦¸":3835,"à¦ŀà¦¦":3836,"à¦Ĺà¦£à¦¹à¦¤":3837,"à¦Ļà¦²":3838,"à¦«à¦ķà¦°":3839,"à¦¨à¦Ĩà¦ĩà¦¨":3840,"à¦£à¦Ľ":3841,"à¦¨à¦ıà¦®":3842,"à¦¹à¦²à¦ª":3843,"à¦¨à¦Ĩà¦°à¦¸":3844,"à¦¯à¦īà§İà¦ª":3845,"à¦Ĺà¦¤à¦¬à¦Ľ":3846,"à¦¯à¦ĩà¦¬":3847,"à¦¥à¦ħà¦¨":3848,"à¦¥à¦Ł":3849,"à¦¹à§Łà¦¶":3850,"à¦Ńà¦¬à¦ķ":3851,"à¦·à¦¦à¦ļ":3852,"à¦ĩà¦Ńà¦Ł":3853,"à¦£à¦¥":3854,"à¦ļà¦¨à¦ª":3855,"à§®à§¦à§¦":3856,"à¦«à¦²à¦¬":3857,"à¦°à¦£à¦ıà¦Ł":3858,"à¦°à¦ľà¦¯":3859,"à¦°à¦®à¦ªà¦°":3860,"à¦ľà¦Ĩà¦¦":3861,"à¦īà¦¯à¦¦":3862,"à¦®à¦ĵà¦®":3863,"à§¨à§¦à§§à§Ńà§¨à§¦à§§à§®":3864,"à§İà¦ľ":3865,"à§¨à§¦à§¦à§ª":3866,"à¦Ĳà¦¶":3867,"à¦ĩà¦ıà¦ĸà¦¨":3868,"à¦ĺà¦Łà¦Ľ":3869,"à¦ĩà¦¡à¦²":3870,"à¦¸à¦¬à¦°":3871,"à¦ĵà¦ıà¦ĩ":3872,"à¦°à¦ľà¦¨à¦¸à¦Ń":3873,"à¦ĸà¦ķà¦¦":3874,"à¦²à¦§à¦°":3875,"à¦Ĩà¦°à¦ĵà¦¸":3876,"à¦ľà¦¨à¦¹":3877,"à§Łà¦īà¦ªà¦ľ":3878,"à¦°à¦ĵà¦ľ":3879,"à¦ĩà¦¸à¦ķ":3880,"à¦«à¦¦":3881,"à¦ħà¦ªà¦¹":3882,"à¦®à¦¤à¦¨":3883,"à¦Ĺà¦²à¦¸":3884,"à¦§à¦ķà¦°à¦²":3885,"à¦ķà¦²à¦¬":3886,"à¦ĩà¦īà¦ıà¦¸":3887,"à¦¡à¦¸à¦®":3888,"à¦¨à¦ľà¦®":3889,"à¦¶à¦¤à¦ķ":3890,"à¦¦à¦ķà¦¸à¦®":3891,"à¦¶à¦Ĩà¦ĵà§Ł":3892,"à¦Ĺà¦®à§Łà¦®à¦¨à¦¸":3893,"à¦²à¦ķà¦¶":3894,"à¦Ĺà¦£à¦¸":3895,"à¦ıà¦ķà¦¸à¦®à§Ł":3896,"à¦°à¦£à¦Ł":3897,"à¦ĩà¦²à¦ħ":3898,"à¦®à¦¬à¦¨":3899,"à¦£à¦¡":3900,"à¦¨à¦¤à¦¤":3901,"à¦¤à¦¨à¦¹à¦¯":3902,"à¦°à¦¹à¦£à¦ķà¦°à¦¬":3903,"à¦¯à¦®à¦¹":3904,"à¦·à¦ķà¦¥":3905,"à¦°à¦ªà¦¬":3906,"à¦°à¦Ĩà¦¸à¦²":3907,"à¦¦à¦°à¦Ń":3908,"à¦¤à¦®à¦ķ":3909,"à¦Łà¦¸à¦¹":3910,"à¦ķà¦Ĩà¦¹à¦®":3911,"à¦ĵà¦ķà¦¨à¦Ł":3912,"à¦®à¦¸à¦°":3913,"à¦¹à¦²à¦®":3914,"à¦¨à¦Ĺà¦°à¦¬":3915,"à¦¨à¦ĩà¦¬":3916,"à¦¹à¦¨à¦¬":3917,"à¦ĸà¦¬à¦¨":3918,"à¦¯à¦ĸà¦¨à¦ª":3919,"à¦¨à¦®à¦§":3920,"à¦²à¦¹à¦ķà¦ķà¦²":3921,"à¦Ńà§Łà¦ª":3922,"à¦¬à¦ĩà¦Ĺ":3923,"à¦¯à¦®à¦ķ":3924,"à¦ªà¦ķà¦¬":3925,"à¦¸à¦¹à§Ł":3926,"à¦¼à§Ĥ":3927,"à¦°à¦Ĩà¦¬à¦¹":3928,"à¦ĸà¦¬à¦°à¦ľ":3929,"à¦¹à¦²à¦¤":3930,"à¦¶à¦¨à¦«":3931,"à¦¶à¦Ĩà¦¨":3932,"à§¨à§¦à§¨à§¨à§§à§¦":3933,"à¦ķà¦īà¦¤":3934,"à§Łà¦ķà¦²":3935,"à¦²à¦¬à¦ķ":3936,"à¦°à¦£à¦ĸ":3937,"à¦¸à¦¨à¦¸":3938,"à¦°à¦ĵà¦ħà¦¨":3939,"à¦°à¦īà¦ľ":3940,"à¦°à¦Ĩà¦¬à¦¦":3941,"à¦¨à§Łà¦¨à¦ķà¦°":3942,"à¦°à¦Ĩà¦ªà¦¤":3943,"à¦ķà¦¸à¦¹à¦¯":3944,"à¦°à¦Ńà¦¯":3945,"à¦¤à¦¤à¦ķ":3946,"à¦ıà¦ķà¦§à¦°à¦¨":3947,"à¦¹à¦¤à¦¦":3948,"à¦ķà¦ľà¦¨à¦ª":3949,"à¦¬à¦²à¦¦":3950,"à¦¶à¦¨à¦¤":3951,"à¦®à¦īà¦²":3952,"à¦¹à¦¨à¦¤":3953,"à¦ĩà¦¹à¦ļ":3954,"à¦¨à¦īà¦ļ":3955,"à¦Ĩà¦¸à¦°":3956,"à¦Ĩà¦°à¦ĵà¦ª":3957,"à¦ªà¦¨à¦ª":3958,"à¦£à¦ĵà¦ª":3959,"à¦¥à¦¸à¦®":3960,"à¦¬à¦ĺ":3961,"à¦°à¦£à¦Ĩà¦®":3962,"à¦¬à¦®à¦¨":3963,"à¦¨à¦¯à¦ĸà¦¨":3964,"à¦ĩà¦²à¦ļ":3965,"à¦Ĩà¦°à¦¡":3966,"à¦¬à§ľà¦¬":3967,"à¦°à¦īà¦°":3968,"à¦ªà¦Ĩà¦®":3969,"à¦ĵà¦ķà¦ĸà¦¨":3970,"à§§à§©à§¦":3971,"à¦¹à¦¬à¦¨":3972,"à¦ıà¦°à¦®à¦¤":3973,"à¦·à¦£à¦ªà¦°":3974,"à¦§à¦ħà¦¨":3975,"à¦²à¦¤à¦ĸà¦¨":3976,"à¦°à¦¤à¦ļ":3977,"à¦¶à¦¬à¦°":3978,"à¦Ĺà¦°à¦ª":3979,"à¦ĩà¦²à¦ľ":3980,"à¦ķà¦Ĺà¦²":3981,"à¦ĩà¦®à¦¦":3982,"à¦°à¦ıà¦®":3983,"à¦Ĺà¦£à¦¸à¦®":3984,"à¦¹à¦°à¦¦":3985,"à§Łà¦ķà¦¸":3986,"à¦Łà¦¹à¦¤":3987,"à¦ķà¦°à¦°":3988,"à¦°à¦ıà¦¶":3989,"à¦¹à¦ĩà¦¬à¦¨":3990,"à¦¤à¦°à¦Ł":3991,"à¦īà¦²à¦ĩà¦¸à¦²":3992,"à¦ĩà¦ħà¦ķ":3993,"à¦°à¦Ĭà¦°":3994,"à¦īà¦²à¦Ĩà¦²":3995,"à¦§à¦¨à¦«":3996,"à¦Ĩà¦°à¦Ĺ":3997,"à¦°à¦Īà¦¶":3998,"à¦¨à¦¬à¦¦":3999,"à¦°à¦¸à¦®à§Łà¦ª":4000,"à¦ĩà¦Ńà¦¸":4001,"à¦¶à¦ķà¦°à¦Ľ":4002,"à¦®à¦¤à¦¸":4003,"à¦ľà¦¬à¦Ĺ":4004,"à¦¦à¦¨à¦«":4005,"à¦¤à¦Ĺà¦¤":4006,"à§ľà¦¸":4007,"à¦ªà¦ĵà¦¸":4008,"à¦ľà¦¨à¦¸à¦Ń":4009,"à¦ıà¦®à¦ıà¦®":4010,"à¦ıà¦ĩà¦ķà¦¥":4011,"à¦Łà¦ķà¦ıà¦ķ":4012,"à¦¸à¦ĵà¦Ĳà¦¤":4013,"à¦°à¦£à¦ıà¦¬":4014,"à§¨à§¯à§¦à§Ńà§¬":4015,"à§®à§®à§¦à§¨à§®à§ªà§©":4016,"à§®à§®à§¦à§§à§Ńà§¨à§¯à§¦à§Ńà§¬":4017,"à¦¯à¦ªà¦£":4018,"à¦§à¦§à¦°":4019,"à¦°à¦Ķ":4020,"à¦¡à¦ħà¦¨":4021,"à¦«à¦Ĺ":4022,"à§Łà¦¨à¦®":4023,"à¦ľà¦ĵà§Ł":4024,"à¦ķà¦°à¦¨":4025,"à¦ļà¦¨à¦ħà¦«":4026,"à¦®à¦¸à¦¨à¦¦":4027,"à¦Ĩà¦¹à¦²":4028,"à¦Ĺà¦¸à¦°à¦ķ":4029,"à¦ĵà¦°à¦¸":4030,"à¦Łà¦¸à¦¬":4031,"à¦°à¦¨à¦ķà¦°":4032,"à§¨à§¦à§¨à§§à§¨à§¦à§¨à§¨":4033,"à¦¬à¦¸à¦¹":4034,"à¦·à¦®à¦¨":4035,"à¦§à¦¨à¦Ľ":4036,"à¦Ĩà¦ľà¦°":4037,"à§İà¦¶":4038,"à¦ľà¦Ĺà¦¨":4039,"à¦°à¦£à¦¡":4040,"à§§à§§à§§à§¨":4041,"à¦ľà¦Ĩà¦®":4042,"à¦°à¦ĵà¦·":4043,"à¦Ĺà¦²à¦®":4044,"à¦°à¦ĵà¦ªà¦°à¦¹":4045,"à§§à§¯à§¯à§¬":4046,"à¦°à§Łà¦ķà¦°":4047,"à¦°à¦°à¦®":4048,"à¦¯à¦īà¦ª":4049,"à¦·à¦ľà¦¨à¦ª":4050,"à¦ĺà¦¬":4051,"à¦¬à¦¨à¦¥":4052,"à§§à§ªà§¦":4053,"à¦ıà¦ĸà¦¨à¦¦":4054,"à¦¶à§Ł":4055,"à¦¥à¦¹à¦¯":4056,"à¦¨à¦°à¦¯":4057,"à¦¤à¦ĵà¦¬":4058,"à¦¦à¦¨à¦Ń":4059,"à¦ĵà¦¸à¦¨":4060,"à¦¨à¦ĵà¦ľ":4061,"à¦¬à¦°à¦«":4062,"à¦®à¦¦à¦ľ":4063,"à¦ħà¦¬à¦¤":4064,"à¦¶à¦ħ":4065,"à¦ıà¦«à¦¡":4066,"à¦¯à¦§à¦¨":4067,"à¦°à¦īà¦ªà¦ªà¦°":4068,"à¦¡à¦īà¦¤":4069,"à¦Ńà¦¬à¦¹à¦¬":4070,"à¦¨à¦¤à¦ķà¦°":4071,"à§¨à§¦à§¨à§¨à§§à§¨":4072,"à¦¶à¦¤à¦Ń":4073,"à¦Ĩà¦¸à¦¸":4074,"à¦¹à¦°à¦ª":4075,"à¦°à¦¬à¦£":4076,"à¦ĩà¦¦à¦²":4077,"à¦°à¦¬à¦¦":4078,"à¦ªà¦ĺ":4079,"à¦¤à¦¨à¦¶":4080,"à¦°à¦¹à§Łà¦¨":4081,"à¦ķà¦ĺà¦Łà¦¨":4082,"à¦¤à¦²à¦¬":4083,"à¦·à¦®à¦¹":4084,"à¦ıà¦¨à¦¡":4085,"à¦¶à¦ķà¦ĵà¦¸à¦®":4086,"à¦°à¦ĩà¦ķà¦¬":4087,"à¦¨à¦Ĺà¦£":4088,"à¦¤à¦¬à¦ķ":4089,"à¦·à¦ķà¦¸à¦®":4090,"à¦°à¦Ńà¦ķ":4091,"à¦ķà¦ķà¦°à¦²":4092,"à¦¸à¦¬à¦¹":4093,"à§ľà¦ķà¦¦":4094,"à¦Łà¦¬à¦¨":4095,"à¦¨à¦ªà¦£":4096,"à¦¹à¦ķà¦°à¦¤":4097,"à¦¯à¦ħà¦¤":4098,"à§Łà¦ķà¦°à¦¤":4099,"à¦°à¦ĵà¦¶à¦¨":4100,"à¦²à¦¸à¦°":4101,"à¦¨à¦ľà¦¬":4102,"à¦ıà¦ķà¦ĩà¦Ń":4103,"à¦Ĩà¦ľà¦¶":4104,"à¦¯à¦¬à¦¨":4105,"à¦°à¦¥à¦®à¦¶":4106,"à¦Ńà¦Ĺà¦¬":4107,"à¦ĵà¦īà¦¦":4108,"à¦¨à¦ķà¦ķ":4109,"à¦ľà¦¹à¦¬":4110,"à¦ªà¦¦à¦°":4111,"à¦°à¦ļà¦²à¦ļ":4112,"à§Łà¦¬à¦Ļ":4113,"à¦ıà¦¨à¦¬":4114,"à¦ĩà¦²à¦¸à¦®":4115,"à§Łà¦¦à¦«":4116,"à¦ĵà¦ĩà¦¸":4117,"à¦®à¦ĵà§Ł":4118,"à¦ĩà¦ªà§ľ":4119,"à¦°à¦¥à¦®à¦Ł":4120,"à¦°à¦°à¦¯":4121,"à¦¦à¦ķà¦Ĩà¦¬":4122,"à¦Ĺà¦ķà¦°à¦Ľ":4123,"à¦ıà¦ĩà¦ħ":4124,"à¦¯à¦°à§Ł":4125,"à¦°à¦ĵà¦ªà¦°à¦¦":4126,"à¦¸à¦¬à¦ĸà¦¬":4127,"à¦Ĩà¦ĩà¦¨à¦ª":4128,"à¦ıà¦®à¦ľ":4129,"à¦Ĩà¦ĩà¦Ń":4130,"à¦ĭà¦·":4131,"à¦¹à§Łà¦Ĩà¦®":4132,"à¦¦à¦ķà¦®à¦¨":4133,"à¦Ĩà¦°à¦ĵà¦Ń":4134,"à¦°à¦¹à¦ķ":4135,"à¦Ĩà¦ľà¦¥":4136,"à¦ķà¦ĵà¦¯":4137,"à¦ļà¦¨à¦¸":4138,"à¦ĵà¦ķà¦°à¦¤":4139,"à¦¨à¦Ĺà¦¬":4140,"à¦°à¦¨à¦¬à¦¨":4141,"à¦ľà¦¨à¦Ĺà¦£à¦ķ":4142,"à¦²à¦¨à¦ķà¦°à¦¬":4143,"à¦ľà¦ĵà¦¸":4144,"à¦ĩà¦°à§Ł":4145,"à¦ªà¦ķà¦°à¦¤":4146,"à¦¨à¦ıà¦®à¦ª":4147,"à¦ıà¦®à¦¨à¦¸":4148,"à¦¨à¦ķà¦¨":4149,"à¦§à¦¨à¦ķà¦°à¦¤":4150,"à¦ķà¦Ŀ":4151,"à¦ĵà¦°à¦ª":4152,"à¦¶à¦ĵà¦¬":4153,"à§§à§§à§®":4154,"à¦īà¦ĩà¦®":4155,"à¦¯à¦ı":4156,"à¦²à§Łà¦®":4157,"à¦°à¦¸à¦«":4158,"à§Ńà§¦à§¦":4159,"à¦ĩà¦īà¦²":4160,"à¦·à¦§":4161,"à¦īà§İà¦¸à¦°":4162,"à¦Ĩà¦°à¦ĸ":4163,"à¦¨à¦ħà¦ķ":4164,"à¦¯à¦ĩà¦ķ":4165,"à¦®à¦¦à¦°":4166,"à§Łà¦ĵà§Ł":4167,"à¦¸à¦ªà¦¤":4168,"à¦Łà¦¨à¦¸":4169,"à¦¤à¦°à¦¤":4170,"à¦¸à¦Ĳà¦¤":4171,"à¦¨à¦¦à¦°":4172,"à¦Łà¦¸à¦®à§Ł":4173,"à¦¹à¦²à¦ķ":4174,"à¦®à§Łà¦¨":4175,"à¦¸à¦°à¦¡":4176,"à¦¶à¦¶à¦¤":4177,"à¦²à¦Ĩà¦¹à¦¸":4178,"à¦²à¦Łà¦¨":4179,"à¦ĵà¦§à¦°":4180,"à¦®à¦¢":4181,"à¦²à¦¨à¦¨":4182,"à¦Ńà¦¸à¦®":4183,"à¦¸à¦¹à¦²":4184,"à¦ĵà¦¹à§Ł":4185,"à¦°à¦®à¦£à¦¬":4186,"à¦¤à¦¤à¦¦":4187,"à¦¹à¦°à¦¬":4188,"à¦°à¦ªà¦¨":4189,"à¦¶à¦¨à¦ļ":4190,"à¦Łà¦Ĩà¦ķ":4191,"à¦°à¦¨à¦ķ":4192,"à¦®à¦°à¦¦":4193,"à¦¤à¦ĸà¦¨à¦¬":4194,"à¦²à¦ĩà¦¤":4195,"à¦¶à¦ķà¦ķ":4196,"à¦ĩà¦²à¦¡":4197,"à¦·à¦ľà¦¨":4198,"à¦¤à¦¶à¦¬":4199,"à¦ıà¦«à¦ª":4200,"à¦°à¦¥à¦®à¦ªà¦°":4201,"à¦ľà¦ªà¦¥":4202,"à¦¨à§Łà¦¨à¦ªà¦¤":4203,"à¦¯à¦Ĩà¦Ĺ":4204,"à¦Ĩà¦°à¦«":4205,"à¦ļà¦²à¦²":4206,"à¦¦à¦ı":4207,"à¦ĩà¦¶à¦°":4208,"à¦¨à¦§à¦°à¦£":4209,"à¦¯à§Łà¦¨":4210,"à¦·à§Łà¦¬à¦¸":4211,"à¦¦à¦¸à¦°":4212,"à¦ķà¦ļà¦ķ":4213,"à¦ķà¦¸à¦ª":4214,"à¦¸à¦¸à¦¹":4215,"à¦¯à¦ıà¦ĩ":4216,"à¦°à¦ķà¦®à¦¬":4217,"à¦ĵà¦¯à¦¦":4218,"à¦¨à§Łà¦¨à¦ķ":4219,"à¦¨à¦ªà¦²":4220,"à¦ħà¦ªà¦¬":4221,"à¦¤à¦ĸà¦¨à¦Ĩà¦®":4222,"à¦¨à§Łà¦¨à¦¸":4223,"à¦¤à¦²à¦ķ":4224,"à¦¯à¦ĵà¦¬":4225,"à¦°à§Łà¦¨":4226,"à¦·à¦£à¦Ĺ":4227,"à¦£à¦ľà§Łà¦¨":4228,"à¦¸à¦ıà¦¸":4229,"à§¨à§¦à§¦à§«":4230,"à¦ªà¦¬à¦²":4231,"à¦ĩà¦ķà¦Ĺ":4232,"à¦¯à¦ħà¦ªà¦°":4233,"à¦°à¦¨à¦¨":4234,"à¦¨à¦¤à¦ĸà¦¨à¦¤":4235,"à¦ļà¦²à¦ķ":4236,"à¦ĵà¦īà¦ªà¦ľ":4237,"à¦¬à¦¹à¦¨à¦§à¦°":4238,"à¦·à¦«":4239,"à¦Ĩà¦ľà¦¤":4240,"à¦ĩà¦īà¦¦":4241,"à¦¤à¦°à¦£à¦«":4242,"à¦¯à¦¨à¦¯":4243,"à¦²à¦¨à¦¦":4244,"à¦°à¦Ĩà¦¡":4245,"à¦«à¦Ĩà¦²":4246,"à¦²à¦¹à¦ĵà§Ł":4247,"à§§à§§à§¯":4248,"à¦¬à¦Ľà¦°à¦ªà¦°":4249,"à¦¯à¦ĵà¦ªà¦°":4250,"à¦¬à¦°à¦ĸ":4251,"à¦ªà¦ļà¦°":4252,"à¦¹à¦ıà¦¬":4253,"à¦ļà¦Ń":4254,"à¦ıà¦¸à¦ıà¦®à¦ıà¦¸":4255,"à¦¹à¦ħà¦¨":4256,"à¦°à¦ĩà¦ľ":4257,"à¦¯à¦ķà¦¬":4258,"à¦¯à¦°à¦ļà¦¨":4259,"à¦°à¦¸à¦¤à¦°":4260,"à¦§à¦¨à¦¨":4261,"à¦¬à¦¹à¦¤":4262,"à¦¨à¦®à¦°":4263,"à¦¬à¦ĩà¦ķ":4264,"à¦Łà¦¨à¦¬":4265,"à¦®à¦¦à¦¬":4266,"à¦¯à¦Ĩà¦Ľ":4267,"à¦ĩà¦ħà¦¸":4268,"à¦¨à¦ļà¦¨":4269,"à¦«à¦²à¦¸":4270,"à¦¤à¦Ĩà¦¨":4271,"à¦£à¦¤à¦ķà¦°":4272,"à¦ĩà¦¨à¦¥":4273,"à¦ıà¦¸à¦Ĩà¦ĩ":4274,"à¦°à¦£à¦¸à¦Ń":4275,"à¦ªà¦°à¦¦":4276,"à¦¹à¦²à¦¨":4277,"à¦ķà¦®à¦¦":4278,"à¦ıà¦¸à¦®à¦¯":4279,"à¦ªà¦ĵ":4280,"à§§à§§à§§":4281,"à¦¹à¦ĩà¦²":4282,"à¦ıà¦°à¦ľ":4283,"à¦¨à¦ķà¦Ĩà¦īà¦Ł":4284,"à¦°à¦²à¦¨":4285,"à¦ªà¦¨à¦īà¦ªà¦²à¦ķ":4286,"à¦¯à¦Łà¦ķà¦¦":4287,"à¦¯à¦¹à¦ļ":4288,"à¦°à¦ķà¦¬à¦²":4289,"à§ģà§ģ":4290,"à¦¯à¦¤à¦®à¦ª":4291,"à¦¬à¦ĩà¦¨":4292,"à¦ĩà¦¸à¦°à¦ķ":4293,"à¦¸à¦¬à¦¥":4294,"à¦¡à¦²à¦¸":4295,"à¦°à¦ĩà¦Ń":4296,"à¦®à¦Ĩà¦°":4297,"à¦¶à§Łà¦¤":4298,"à¦®à¦ħà¦°":4299,"à¦ĩà¦¬à¦²à¦²":4300,"à¦¨à¦¸à¦¹à¦ķ":4301,"à¦°à¦§à¦¨":4302,"à§Łà¦ħà¦¤":4303,"à¦ıà¦²à¦ľ":4304,"à¦¤à¦ĵà¦ª":4305,"à¦¬à¦®à¦¹":4306,"à¦°à¦ĩà¦¨à¦¸":4307,"à¦ķà¦°à¦£à¦¬":4308,"à¦°à¦£à¦°":4309,"à¦®à¦ĵà¦¸":4310,"à¦¤à¦°à¦ĵà¦¦à¦ķ":4311,"à¦¬à¦¨à¦¤":4312,"à¦īà§İà¦ķ":4313,"à¦¦à¦Ĩà¦¨":4314,"à¦Ĩà¦°à¦¯à¦¦":4315,"à¦ĸà¦¡":4316,"à§Łà¦ħà¦¨à¦²":4317,"à¦¤à¦ľà¦®":4318,"à¦Ĩà¦°à¦²":4319,"à¦°à¦ıà¦°":4320,"à¦Łà¦¦à¦²":4321,"à¦®à¦¨à¦²":4322,"à¦¨à¦ĺà¦Ł":4323,"à¦¹à§Łà¦ħà¦¨":4324,"à§Łà¦īà¦¤":4325,"à¦ľà¦¨à¦Ń":4326,"à¦¨à¦ªà¦¶":4327,"à¦¨à¦ĺà¦°":4328,"à¦ªà¦§":4329,"à§Łà¦ıà¦¤":4330,"à¦°à¦¬à¦¤":4331,"à¦¤à¦Ĩà¦ķ":4332,"à¦°à¦ĸà¦¨":4333,"à¦²à¦Ĩà¦¸":4334,"à¦¬à¦°à¦Ń":4335,"à¦°à¦ªà¦°à¦Ĺ":4336,"à¦¨à¦®à¦Ļ":4337,"à¦¤à¦ħà¦¸":4338,"à¦Ĺà¦ªà¦¤":4339,"à¦¤à¦®à¦¦":4340,"à¦¨à¦ªà§ľ":4341,"à¦Ĺà¦°à§Ł":4342,"à¦ĵà¦®à¦°":4343,"à¦ħà¦ªà¦¹à¦°à¦£":4344,"à¦°à¦¥à¦®à¦¨":4345,"à¦¸à¦¹à¦ļ":4346,"à¦§à¦¹à¦¬":4347,"à¦®à¦ķà¦ķ":4348,"à¦°à¦¸à¦®à§Łà¦¤":4349,"à¦¸à¦®à§Łà¦¦":4350,"à¦ıà¦ķà¦¬à¦Ľà¦°":4351,"à¦¦à¦ķà¦¤":4352,"à¦²à¦Ĺà¦Ļ":4353,"à¦Łà¦®à¦¸":4354,"à¦°à¦ĩà¦«à¦¤":4355,"à¦·à§Łà¦¸à¦®":4356,"à¦Ĩà¦ĩà¦²":4357,"à¦°à¦®à¦¸à¦ľ":4358,"à¦¬à¦Ĩà¦²à¦¹":4359,"à¦¥à¦ľ":4360,"à¦¨à¦ħà¦®":4361,"à§§à§¦à§®":4362,"à¦¬à¦¨à¦Ł":4363,"à§¨à§¦à§¦à§©":4364,"à¦Ĩà¦ľà¦¦":4365,"à¦¡à¦Ľ":4366,"à¦Ĩà¦ĩà¦¨à¦¸":4367,"à¦¬à¦ĵà§Ł":4368,"à¦¹à¦°à¦°":4369,"à¦¤à¦¨à¦Ĺ":4370,"à¦ĩà¦Ĩà¦¨":4371,"à¦ķà¦°à¦ķà¦®":4372,"à§Łà¦Ĩà¦°à¦ĵ":4373,"à¦®à¦ķà¦¸":4374,"à¦°à¦ıà¦ĩà¦¨":4375,"à¦ĸà¦ķà¦¬":4376,"à¦°à¦īà¦ķ":4377,"à¦¦à¦°à¦ķà¦°":4378,"à¦Ľà¦ļ":4379,"à¦¯à¦ĩà¦®":4380,"à¦īà¦²à¦Ĩà¦īà¦¯":4381,"à¦ıà¦ĸà¦¨à¦¯":4382,"à¦«à¦Łà¦ĵà§Ł":4383,"à¦¨à¦¹à¦ĩà¦¨":4384,"à§Łà¦¦à¦®":4385,"à§§à§¯à§Ńà§«":4386,"à§Łà¦¬à¦¹":4387,"à¦²à¦īà¦²":4388,"à¦°à¦ķà¦®à¦²":4389,"à§§à§¦à§§":4390,"à¦¹à§İ":4391,"à¦°à¦Ńà¦Ł":4392,"à¦¨à¦ĩà¦¸":4393,"à¦¨à¦¨à¦¦":4394,"à¦£à¦ªà¦¶":4395,"à¦²à¦¤à¦ķ":4396,"à¦ıà¦ĸà¦¨à¦®":4397,"à§Łà¦¨à¦¶":4398,"à¦¬à¦ķà¦¨":4399,"à¦°à¦Ĩà¦ĩà¦¸":4400,"à¦ĺà¦²":4401,"à¦¨à¦Ĺà¦ŀ":4402,"à¦°à¦ĵà¦ľà¦¨":4403,"à¦¹à¦²à¦¯":4404,"à¦¸à¦ĩà¦¨":4405,"à¦īà¦«":4406,"à¦ĺà¦¡":4407,"à¦ĩà¦ªà¦ķ":4408,"à§Łà¦ķà¦¥":4409,"à¦·à¦£à¦ļ":4410,"à¦¨à¦ıà¦Ĺ":4411,"à¦°à¦Ľà§ľ":4412,"à¦²à¦°à¦¬":4413,"à¦¬à¦ĩà¦ªà¦¤":4414,"à¦®à§Łà¦¦":4415,"à¦¶à¦¨à¦ħ":4416,"à¦°à¦ĵà¦Ĺ":4417,"à¦¬à¦¨à¦ľ":4418,"à¦Īà¦¦à¦Ĺ":4419,"à¦¨à¦īà¦ªà¦²à¦ķ":4420,"à¦°à¦ªà¦°à¦¹":4421,"à¦ıà¦¸à¦ıà¦«":4422,"à¦Łà¦ªà¦£":4423,"à¦¤à¦¸à¦¬":4424,"à¦ķà¦²à¦¸":4425,"à¦¨à¦ľà¦¨à¦ª":4426,"à¦Ĺà¦ĵ":4427,"à¦īà¦²à¦¹":4428,"à§ªà§«à§¬":4429,"à§Łà¦īà¦¨":4430,"à¦°à¦Ĺà¦¡":4431,"à§Łà¦īà¦ª":4432,"à¦Ĺà¦°à¦ķ":4433,"à¦¯à¦®à¦°":4434,"à¦ıà¦¸à¦®à§Łà¦¤":4435,"à¦°à¦ĩà¦īà¦Ł":4436,"à§Łà¦¨à¦ª":4437,"à¦ľà¦¨à¦¹à¦¯":4438,"à¦¸à¦°à¦¸":4439,"à¦¸à¦«à¦Łà¦ĵà§Ł":4440,"à¦ĩà¦¢":4441,"à¦ĩà¦ħà¦Ĺ":4442,"à¦¨à¦¸à¦ª":4443,"à¦°à¦ĩà¦¦":4444,"à¦¬à¦ĩà¦Ń":4445,"à¦Ĺà¦īà¦¤":4446,"à¦ĩà¦¡à¦¨":4447,"à¦¦à¦īà¦¦":4448,"à¦ıà¦¸à¦Ł":4449,"à¦®à¦°à¦¬":4450,"à¦ıà¦ĩà¦¸à¦®à¦¯":4451,"à¦¬à¦ĩà¦¤":4452,"à¦ĸà¦¨à¦ª":4453,"à¦²à¦°à¦ª":4454,"à¦ļà§Łà¦¦":4455,"à¦¨à¦¸à¦¦":4456,"à¦°à¦ıà¦¡":4457,"à¦¨à¦ĩà§Ł":4458,"à§İà¦Ń":4459,"à¦Łà¦¸à¦¨":4460,"à¦ĩà¦¨à¦ªà¦°":4461,"à¦¦à¦®à¦¤":4462,"à¦ķà¦°à¦Ĺ":4463,"à¦¯à¦¸à¦®à¦¸":4464,"à¦ļà¦¨à¦¨":4465,"à¦¹à¦°à¦®":4466,"à¦¸à¦°à¦®":4467,"à¦®à¦°à¦¹":4468,"à¦®à¦¨à¦Ĩà¦Ľ":4469,"à¦·à¦Ĩà¦®":4470,"à¦°à¦¹à¦ķà¦°à¦¤":4471,"à§Łà¦°à¦ª":4472,"à¦°à¦¸à¦¹à¦ª":4473,"à¦°à¦ĩà¦ŀ":4474,"à¦§à¦¨à¦¦":4475,"à¦ªà¦ķà¦ķ":4476,"à¦¤à¦°à¦Ļ":4477,"à¦Ĺà¦łà¦¨à¦Ł":4478,"à¦Ĩà¦ĸà¦¤":4479,"à¦Ĺà¦¹à§Ł":4480,"à¦ĩà¦ıà¦®à¦¨":4481,"à¦¦à¦¹à§Ł":4482,"à§¨à§¦à§§à§¯à§¨à§¦":4483,"à¦ıà¦°à¦¦à¦¶à¦ķ":4484,"à¦¤à¦¸à¦®à¦¯":4485,"à¦Łà¦®à¦¶":4486,"à¦ļà¦¨à¦ħà¦¨":4487,"à¦¯à¦°à¦ķà¦®":4488,"à¦°à¦¹à¦ª":4489,"à¦ļà¦°à¦£":4490,"à¦ĩà¦Ŀ":4491,"à¦Ńà¦ķà¦°à¦¤":4492,"à§§à§§à§¬":4493,"à¦ĵà¦ĩà¦®":4494,"à¦¸à¦°à¦ŀ":4495,"à§§à§¨à§«":4496,"à¦¸à¦ıà¦¨":4497,"à¦¦à¦«à¦¤à¦°":4498,"à¦¤à¦¨à¦ĩà¦¤":4499,"à¦¶à¦ı":4500,"à§Łà¦ļà¦²":4501,"à¦ĩà¦ıà¦Ĺ":4502,"à¦¨à¦Ĩà¦°à¦¤":4503,"à¦ĩà¦¨à¦ļ":4504,"à¦Ĺà¦£à¦ªà¦°":4505,"à¦¸à¦ıà¦ķà¦Ł":4506,"à¦®à¦Ĩà¦¸":4507,"à¦Ĩà¦ĩà¦®":4508,"à¦Ĩà¦ľà¦Ĩà¦®":4509,"à¦ĩà¦ıà¦²":4510,"à¦ķà¦Łà¦ª":4511,"à¦²à¦ıà¦²":4512,"à¦ķà¦®à¦°":4513,"à¦¨à¦ħà¦ŀ":4514,"à§¦à§§à§¯":4515,"à§§à§¬à§§à§Ń":4516,"à¦°à¦ªà¦°à¦ľ":4517,"à§Łà¦¬à¦ķ":4518,"à¦ĵà¦¸à¦°à¦ķ":4519,"à¦¤à¦īà¦¤":4520,"à¦®à¦¸à¦²":4521,"à¦ļà¦²à¦¬à¦¨":4522,"à¦¶à¦¨à¦¡":4523,"à¦²à¦Ĺà¦¬":4524,"à¦ķà¦¹à¦ĵà§Ł":4525,"à¦¬à¦°à¦²":4526,"à¦¹à¦ĩà§Ł":4527,"à¦¶à¦¶à¦¤à¦ķ":4528,"à¦¯à¦ķà¦°à¦²":4529,"à¦²à¦ĩ":4530,"à¦°à¦¸à¦¦à¦°à¦īà¦ªà¦ľ":4531,"à¦¨à¦ļà¦ķ":4532,"à¦ĩà¦Łà¦ķà¦°":4533,"à¦Łà¦§à¦°":4534,"à¦²à¦Ĩà¦²à¦®":4535,"à¦ıà¦ĩà¦§":4536,"à¦®à¦ĵà¦¯":4537,"à¦Łà¦¬à¦°":4538,"à¦Ĩà¦¨à¦²":4539,"à¦Łà¦ķà¦°à¦Ľ":4540,"à¦°à¦¨à¦Ĺà¦°à¦¬":4541,"à¦²à¦®à¦§":4542,"à¦¬à¦ķà¦¸":4543,"à¦°à¦®à¦¤à¦ķ":4544,"à§§à§§à§Ń":4545,"à¦£à¦§":4546,"à§¯à§§à§¦":4547,"à¦ķà¦¸à¦¬à¦ľ":4548,"à¦Ĩà¦¨à¦¬":4549,"à¦²à¦Ĩà¦¦":4550,"à¦ľà¦¨à¦¹à¦¬":4551,"à¦¸à¦ķà¦ķ":4552,"à§¨à§¦à§¦à§¨":4553,"à§§à§©à§§à§ª":4554,"à¦°à¦ħà¦ªà¦¬":4555,"à¦Łà¦ĩà¦īà¦¨":4556,"à¦Ĺà¦¤à¦¤":4557,"à¦¦à¦²à¦¨":4558,"à¦·à¦®à¦¹à¦¬":4559,"à¦¤à¦ļà¦ķ":4560,"à¦¦à¦ĺ":4561,"à¦¶à¦¨à¦¸à¦®":4562,"à¦ĸà¦ĺ":4563,"à¦ıà¦¸à¦ľ":4564,"à¦¶à¦²à¦¬":4565,"à¦°à¦ĩà¦¬à¦¨":4566,"à¦¹à¦¤à¦¨":4567,"à¦¶à¦¸à¦®à§Ł":4568,"à¦·à¦¦à¦°":4569,"à¦¯à¦ĸà¦¨à¦®":4570,"à¦ķà¦°à¦¬à¦¨":4571,"à¦¸à¦®à¦Ŀ":4572,"à¦ľà¦ķà¦°à¦²":4573,"à¦°à¦®à¦²":4574,"à§§à§¬à§¦":4575,"à¦ĩà¦Ĩà¦¶":4576,"à¦Łà¦ķà¦°à¦²":4577,"à¦ķà¦®à¦Ľ":4578,"à¦¶à¦¨à¦²":4579,"à¦¬à¦¸à¦Ł":4580,"à¦ķà¦ķà¦¬":4581,"à§İà¦¸à¦ķà¦¦":4582,"à§Łà¦¨à¦Ĩà¦ĵà§Ł":4583,"à¦Ńà¦¶":4584,"à¦¤à¦¸à¦ļ":4585,"à¦²à¦ķà¦°à¦²":4586,"à¦Łà¦Ĩà¦Ĺ":4587,"à¦®à¦¨à¦ļ":4588,"à¦ĩà¦¨à¦¹":4589,"à¦°à¦ĵà¦¹":4590,"à¦ĵà¦°à§Ł":4591,"à¦ıà¦ķà¦¸à¦ª":4592,"à¦Łà¦¸à¦ķ":4593,"à¦¤à¦ĵà¦®":4594,"à¦Ńà¦°à¦¸":4595,"à¦Ĩà¦ĩà¦ıà¦®":4596,"à¦Ĺà¦łà¦¨à¦¬":4597,"à¦¯à¦¥à¦Ń":4598,"à¦²à¦²à¦ķ":4599,"à¦§à¦¡":4600,"à¦Ľà¦¦à¦¸":4601,"à¦īà¦ªà¦¬":4602,"à¦¯à¦ħà¦¸":4603,"à¦¶à¦¨à¦ķà¦°à¦¤":4604,"à¦²à¦®à¦ľ":4605,"à¦¹à¦¨à¦ª":4606,"à¦ĵà¦ĩà¦ª":4607,"à¦°à¦ħà¦¦":4608,"à§İà¦¸à¦¬":4609,"à¦®à¦Ĩà¦¦":4610,"à¦¨à¦¨à¦¯":4611,"à§¦à§§à§®":4612,"à¦¤à¦°à¦Ĩà¦¹à¦¤":4613,"à¦ıà¦ĩà¦ħà¦¨":4614,"à¦¨à¦ıà¦ķà¦¦":4615,"à¦¨à¦ıà¦ĩà¦ķ":4616,"à¦ķà¦²à¦ª":4617,"à¦®à¦§à¦¨":4618,"à¦ķà¦§à¦¨":4619,"à¦¬à¦°à¦¹":4620,"à¦²à¦Ĺà¦¸":4621,"à¦Ĩà¦°à¦ħà¦¨":4622,"à§Łà¦§à¦°":4623,"à¦£à¦¬à¦¨":4624,"à¦¨à¦ıà¦°":4625,"à¦Ĩà¦Łà¦ķà¦ķ":4626,"à¦°à¦®à¦¬à¦°":4627,"à¦¯à¦ĸà¦¨à¦Ĩà¦ªà¦¨":4628,"à¦ªà¦®à¦¨":4629,"à¦«à¦°à¦ĩà¦ķà¦¬":4630,"à¦ĺà¦¶":4631,"à¦īà¦ľà¦ķ":4632,"à¦¨à¦¶à¦¬":4633,"à§İà¦¸à¦ķà¦°":4634,"à¦¤à¦ĩà¦¨":4635,"à¦¨à¦ķà§Ł":4636,"à¦®à¦¦à¦Ĩà¦¬":4637,"à¦«à¦²à¦¦":4638,"à¦łà¦ªà¦°":4639,"à¦¤à¦°à¦¹":4640,"à¦£à¦ĺ":4641,"à¦ªà¦ķà¦ª":4642,"à¦Łà¦²à¦ķà¦°":4643,"à¦ĩà¦¹à§Łà¦¤":4644,"à¦¹à§Łà¦Ĺ":4645,"à¦®à¦Ĩà¦²à¦®à¦Ĺ":4646,"à¦®à¦¶à¦¤à¦¬":4647,"à¦¤à¦ĩà¦īà¦¨":4648,"à¦¨à¦ĵà¦¹":4649,"à¦¬à¦ĩà¦¯":4650,"à¦ķà¦¦à¦°":4651,"à¦ĩà¦²à¦°":4652,"à¦«à¦²à¦ķ":4653,"à¦²à¦Ĺà¦ĩà¦¨à¦ķà¦°":4654,"à¦¯à¦®à¦¯":4655,"à¦·à¦¹à¦ĵà§Ł":4656,"à¦ĩà¦¸à¦®à¦¸":4657,"à¦°à¦ıà¦ķà¦¤":4658,"à¦·à¦°à¦ķà¦°":4659,"à¦¹à¦ĵà¦¤":4660,"à¦·à¦£à¦¤":4661,"à¦ķà¦¬à¦Ļ":4662,"à§Łà¦ıà¦®à¦¨":4663,"à¦ıà¦ĩà¦ħà¦Ń":4664,"à¦ĩà¦²à¦¹":4665,"à¦¯à¦īà¦ªà¦¯":4666,"à¦ĺà¦Łà¦²":4667,"à¦°à¦¬à¦²à¦²":4668,"à¦Ĩà¦¸à¦ķ":4669,"à¦Ĳà¦¨":4670,"à¦Łà¦Ĩà¦¬":4671,"à¦¨à¦ıà¦°à¦®à¦§":4672,"à¦°à¦īà§İà¦¸à¦¬":4673,"à¦°à¦Ĩà¦Ń":4674,"à§İà¦¯":4675,"à¦¤à¦®à¦¸à¦ª":4676,"à¦ıà¦°à¦ªà¦°à¦¤":4677,"à¦¸à§Ł":4678,"à§¦à§¦à§¦à§¦":4679,"à¦²à¦¸à¦¤":4680,"à¦¦à¦Ĩà¦¹à¦®":4681,"à¦¦à¦Ĩà¦¹à¦®à¦¦":4682,"à¦ıà¦°à¦¸à¦®":4683,"à¦®à¦¦à¦¤":4684,"à¦¨à¦¸à¦¦à¦¸":4685,"à¦ľà¦²à¦¦":4686,"à¦ıà¦°à¦ħà¦¨":4687,"à¦²à¦ĵà¦ª":4688,"à¦ķà¦Łà¦¥":4689,"à¦Ľà¦¹":4690,"à¦Ńà¦°à¦ª":4691,"à¦Ńà¦°à¦¤":4692,"à§Łà¦ħà¦§":4693,"à¦·à¦ĸà¦¬":4694,"à§ľà¦¹":4695,"à¦²à¦¬à¦¸":4696,"à¦ĸà¦¨à¦®":4697,"à¦°à¦¹à¦¦":4698,"à¦¦à¦¨à¦ļ":4699,"à¦Ľà¦¸":4700,"à§§à§©à§§":4701,"à¦°à¦ħà¦¨à¦¨":4702,"à¦¸à¦Ńà¦¬à¦¨":4703,"à¦Łà¦§":4704,"à¦ĺà¦ª":4705,"à¦²à¦ªà¦¥":4706,"à¦¯à¦Łà¦ķ":4707,"à¦¨à¦ĩà¦¬à¦¨":4708,"à¦¨à¦ī":4709,"à§İà¦¸à¦°":4710,"à§Łà¦°à¦®":4711,"à¦ªà¦¨à¦¸à¦®":4712,"à¦ĩà¦ķà¦¦":4713,"à¦ĩà¦ľà¦¬":4714,"à¦¸à¦¸à¦°":4715,"à¦¨à¦¬à¦¬":4716,"à¦²à¦¤à¦¤":4717,"à¦Łà¦Ĩà¦°":4718,"à§Łà¦¯à¦¦":4719,"à¦·à¦¤à¦¬":4720,"à¦²à¦®à¦¤":4721,"à¦ķà¦¢":4722,"à¦®à¦¨à¦°":4723,"à¦°à¦ĩà¦īà¦°":4724,"à¦ķà¦ħà¦ŀ":4725,"à¦ľà¦ĵ":4726,"à¦®à¦ªà¦¨":4727,"à¦¯à¦ĵà¦ļ":4728,"à¦¨à¦īà¦ªà¦¦":4729,"à¦Ĺà¦£à¦ķ":4730,"à¦¨à¦¬à¦¡":4731,"à¦ħà¦ªà¦°à¦ķ":4732,"à¦¸à¦¨à¦¨":4733,"à¦°à¦¸à¦¨à¦¦":4734,"à¦īà¦ľà¦²":4735,"à¦ļà¦ĩà¦ŀ":4736,"à¦Łà¦¨à¦ķ":4737,"à¦°à¦ĩà¦¹":4738,"à§Łà¦¨à¦¦":4739,"à¦°à¦®à¦£à¦ª":4740,"à¦°à¦§à¦°à¦ķà¦°":4741,"à¦°à¦¬à¦²à¦Ľ":4742,"à¦®à¦Ĺà§ľ":4743,"à¦®à¦ĵà¦¬":4744,"à¦¨à¦Ĩà¦°à¦ĵà¦ªà§ľ":4745,"à¦¯à¦ĩà¦Ĩà¦®":4746,"à¦®à¦¨à¦ıà¦ķà¦Ł":4747,"à¦®à¦¸à¦¬":4748,"à¦¡à¦ĩà¦¨":4749,"à§Łà¦Ŀ":4750,"à¦²à¦Ĩà¦®à¦°":4751,"à¦¶à¦ĵà¦¸":4752,"à¦¬à¦°à¦Ĩ":4753,"à¦®à§İà¦ķ":4754,"à¦ıà¦ĸà¦¨à¦¨":4755,"à¦¯à¦®à¦¸":4756,"à¦«à¦¤à¦°":4757,"à¦·à¦²à¦ķ":4758,"à¦¬à¦ħ":4759,"à§§à§§à§¨à§¦à§¨à§¨":4760,"à¦¨à¦ķà¦ĸà¦¨":4761,"à¦Łà¦¹à¦ļ":4762,"à¦¶à¦ĺ":4763,"à¦¦à¦°à¦Ĺà¦ŀ":4764,"à¦¶à¦¤à¦¬à¦°":4765,"à§Łà¦¹à¦¤":4766,"à¦¡à¦ĸ":4767,"à¦ļà¦²à¦¨":4768,"à¦¬à§ľà¦²":4769,"à¦¨à§Łà¦¤":4770,"à¦°à§Łà¦ķ":4771,"à¦ĩà¦²à¦¨à¦®":4772,"à¦¶à¦°à§İ":4773,"à¦¤à¦ĺà¦Łà¦¨":4774,"à¦ĩà¦Ńà¦Ĩà¦°":4775,"à¦¦à¦¶à¦Ł":4776,"à¦°à¦°à¦«à¦¹":4777,"à¦ıà¦°à¦°":4778,"à¦²à¦ĵà¦¸":4779,"à¦ªà¦¸à¦®à§Ł":4780,"à¦«à¦°à¦Ĺ":4781,"à¦°à¦Ĩà¦ĩà¦ª":4782,"à¦¨à¦ıà¦ĩà¦ļ":4783,"à¦ľà¦ķà¦®":4784,"à¦ĵà¦¸à¦°":4785,"à¦¬à¦¹à¦¨à¦¬":4786,"à¦£à¦¤à¦¹à¦¯":4787,"à¦°à¦¤à¦¶":4788,"à¦¤à¦Ĩà¦®à¦°":4789,"à¦ĩà¦Ńà¦¬":4790,"à¦¶à¦ªà¦¥":4791,"à¦Ĩà¦°à¦ıà¦ķ":4792,"à¦¤à¦Ľà¦¬":4793,"à¦²à§Łà¦¨":4794,"à§Łà¦ł":4795,"à§Łà¦¨à¦¨":4796,"à¦²à¦ĵà¦®":4797,"à¦ĵà¦ıà¦ĸà¦¨":4798,"à¦°à¦ªà¦°à¦ıà¦¬":4799,"à¦«à¦²à¦®":4800,"à¦ıà¦°à¦¸à¦Ļ":4801,"à¦ħà¦ªà¦ª":4802,"à¦¬à¦¸à¦ķ":4803,"à¦²à¦Ľà¦¬":4804,"à¦ıà¦ĩà¦Ľà¦¬":4805,"à¦¬à¦²à¦²à¦¤":4806,"à¦¯à¦īà¦¤":4807,"à¦ıà¦®à¦°":4808,"à¦ĩà¦Ľà¦¬":4809,"à§Łà¦°à¦ķ":4810,"à¦¹à¦¹à¦¹à¦¹":4811,"à§Łà¦Ĺà¦¤":4812,"à¦°à¦īà¦ĩà¦¨":4813,"à¦īà¦¦à¦ķ":4814,"à¦¡à¦ħà¦«":4815,"à¦ªà¦¨à¦°":4816,"à¦°à¦ĩà¦°":4817,"à¦²à¦¬à¦£":4818,"à¦ĵà¦¸à¦¹":4819,"à¦®à¦¤à¦¥":4820,"à¦¤à¦«à¦²":4821,"à¦¥à¦¡":4822,"à¦Ľà¦¨à¦¥":4823,"à¦°à¦¦à¦¶":4824,"à¦Ńà¦¬à¦¹à§Łà¦¨":4825,"à¦ľà¦¨à¦®à¦¤":4826,"à¦ľà¦²à¦ķ":4827,"à¦²à¦ĩà§Ł":4828,"à¦Ĺà¦®à¦¸":4829,"à¦¨à¦¬à¦ª":4830,"à¦Ĺà¦°à¦£":4831,"à¦Ĩà¦°à¦ĵà¦ıà¦ķà¦Ł":4832,"à¦ªà¦¹à§Ł":4833,"à¦ľà¦¨à¦ħà¦¨":4834,"à§§à§©à§«":4835,"à¦°à¦ħà¦¥à¦¬":4836,"à¦®à¦Ĩà¦®à¦°":4837,"à¦®à¦²à¦®":4838,"à¦ķà¦Ĺà¦¬":4839,"à¦·à§Łà¦ķà¦¬":4840,"à¦¬à¦²à¦¹":4841,"à¦¬à¦ĵà¦ªà¦¶":4842,"à¦·à¦®à¦¹à§Ł":4843,"à¦¤à¦ħà¦ŀ":4844,"à¦°à¦¤à¦¸à¦°à¦ķ":4845,"à¦ĵà¦Ĩà¦Ĺ":4846,"à§ľà¦Ń":4847,"à¦ķà¦®à¦²à¦Ĺà¦ŀ":4848,"à§§à§®à§§à§¯":4849,"à¦ļà¦ļ":4850,"à¦ļà¦Ĺà¦¡":4851,"à¦¶à¦¨à¦¹":4852,"à¦¨à¦®à¦ŀ":4853,"à¦ķà¦Łà¦¸":4854,"à¦ĩà¦ķà¦°à¦¬":4855,"à¦ķà¦²à¦ķà¦°":4856,"à¦ľà¦¨à¦¡":4857,"à¦®à¦¹à¦¯":4858,"à¦¯à¦°à¦¯":4859,"à¦¨à¦ıà¦ĩà¦¦":4860,"à¦¸à¦¶à¦¸":4861,"à¦Łà¦¬à¦²à¦ĸ":4862,"à¦¸à¦ķà¦²à¦¸":4863,"à¦®à¦ĩà¦¸à¦²":4864,"à¦¬à¦Ľà¦°à¦®":4865,"à¦¶à¦¹à¦¬":4866,"à¦ĵà¦°à¦«":4867,"à¦¸à¦¬à¦ĸ":4868,"à¦°à¦¶à¦ªà¦¥":4869,"à¦ĩà¦ĩà¦¸à¦²":4870,"à¦īà¦ªà¦®à¦¹":4871,"à¦Ĺà¦Ĩà¦Ľ":4872,"à¦°à¦¨à¦ľà¦°":4873,"à§§à§¯à§¯à§¦":4874,"à¦ļà¦ķà¦ª":4875,"à¦ĩà¦¨à¦Ĩà¦ª":4876,"à¦¨à¦ªà¦ŀ":4877,"à§Łà¦¨à¦¯":4878,"à¦ıà¦ķà¦®à¦¹":4879,"à¦°à¦²à¦®":4880,"à¦¯à¦Ļ":4881,"à¦¨à¦¨à¦Ń":4882,"à¦¯à¦¯à¦¥":4883,"à¦¬à¦°à¦Ł":4884,"à¦ªà¦¨à¦®":4885,"à¦¶à¦ķà¦¸":4886,"à¦¹à¦Ĩà¦Ĺ":4887,"à¦ľà¦¹à§Ł":4888,"à¦ªà¦¦à¦¥":4889,"à¦¶à¦ĵà¦ª":4890,"à¦¤à¦Ĩà¦°à¦¬à¦Ĩà¦®":4891,"à¦¨à¦¬à¦¸à¦®":4892,"à¦ıà¦ıà¦®":4893,"à¦¨à¦ķà¦²à¦ķ":4894,"à¦¥à¦¬à¦°":4895,"à¦¦à¦°à¦¥":4896,"à¦ĵà¦¨à¦¤":4897,"à¦ķà¦ķà¦Ł":4898,"à¦¬à¦°à¦ı":4899,"à¦¤à¦¹à§Łà¦¸":4900,"à¦¤à¦¸à¦¤":4901,"à¦°à¦Ĩà¦®à¦¨":4902,"à¦°à¦ĵà¦¸à¦®":4903,"à¦¨à¦ªà¦¥":4904,"à§Łà¦¦à¦°":4905,"à¦·à¦ķà¦¹":4906,"à¦£à¦Ĩà¦®":4907,"à¦¡à¦¬à¦²":4908,"à¦ıà¦¥":4909,"à¦¸à¦¨à¦ķà¦°":4910,"à¦°à¦¸à¦®à§Łà¦¨":4911,"à¦®à¦Ĩà¦¨":4912,"à¦ĵà¦Ĩà¦¦":4913,"à¦°à¦īà§İà¦ªà¦¤":4914,"à¦ħà¦ªà¦¶à¦¨":4915,"à¦¨à¦Ĩà¦¬à¦¦":4916,"à¦ĵà¦Ĩà¦¸":4917,"à¦°à¦īà¦®":4918,"à¦¯à¦ħà¦«":4919,"à§§à§¦à§¯":4920,"à¦£à¦ıà¦ķà¦Ł":4921,"à¦°à¦ļà¦²à¦¨":4922,"à¦¬à¦Ľà¦°à¦ķ":4923,"à¦¯à¦Ĩà¦¦":4924,"à¦¯à¦Ĩ":4925,"à¦Ĺà¦¤à¦¨":4926,"à¦²à¦ķà¦°à¦¬":4927,"à¦Ĩà¦ľà¦ª":4928,"à¦Łà¦°à¦¦":4929,"à¦ķà¦Ĩà¦ĩà¦¨":4930,"à¦ħà¦£":4931,"à¦¸à¦ķà¦¦":4932,"à¦¯à¦ĸà¦¨à¦Ĩà¦®":4933,"à¦Łà¦Ĩà¦ªà¦¨":4934,"à¦ķà¦°à¦®":4935,"à¦°à¦ĩà¦¶":4936,"à§Łà¦ķà¦ķà¦®":4937,"à¦ıà¦ķà¦ľà¦¨à¦¶":4938,"à¦¦à¦°à¦¹":4939,"à¦°à¦ªà¦°à¦Ń":4940,"à§Łà¦¸à¦¹":4941,"à¦Ĺà¦¤à¦ķà§Ł":4942,"à¦¨à¦ĩà¦°":4943,"à¦°à¦£à¦ķà¦°à¦¬":4944,"à¦¬à¦¶à¦ķ":4945,"à¦²à¦Ĩà¦¹à¦®à¦¦":4946,"à¦ĵà¦ĩà¦¤":4947,"à¦ĩà¦®à¦ª":4948,"à¦¯à¦Ĩà§Ł":4949,"à¦°à¦ķà¦°à¦£":4950,"à¦ıà¦®à¦¤":4951,"à¦°à¦ıà¦®à¦¨à¦ķ":4952,"à¦®à¦¦à¦¶à¦¹":4953,"à¦°à¦®à¦®":4954,"à¦Łà¦ħà¦°":4955,"à¦¶à¦¨à¦¯":4956,"à¦¨à¦Ĺà¦¤à¦ķ":4957,"à¦°à¦£à¦«":4958,"à¦°à¦īà¦ªà¦°à¦¸":4959,"à¦ªà¦¨à¦¶":4960,"à¦°à¦ĵà¦ªà¦°à¦¬":4961,"à¦Ńà¦ľ":4962,"à¦¯à¦ķà¦°à¦Ľ":4963,"à¦ķà¦Łà¦¨":4964,"à¦ĩà¦¬à¦²à¦¤":4965,"à¦ıà¦ħà¦¬à¦¸":4966,"à¦ıà¦°à¦īà¦¦":4967,"à§İà¦¹":4968,"à¦°à¦ľà¦Ļ":4969,"à¦ıà¦°à¦ªà¦°à¦¥":4970,"à¦ľà¦ļà¦²à¦Ľ":4971,"à¦°à¦Ĩà¦ķà¦°":4972,"à§¨à§¦à§¨à§ª":4973,"à¦²à¦ķà¦¤":4974,"à¦¨à¦¶à¦ķ":4975,"à§§à§¦à§©":4976,"à¦ıà¦°à¦Ĩà¦¨":4977,"à¦¦à¦¶à¦¬":4978,"à¦¶à¦¹à¦¤":4979,"à¦ıà¦¨à¦ķ":4980,"à¦¶à¦īà¦¨":4981,"à¦ķà¦¬à¦Ľà¦°":4982,"à¦®à¦ĵà¦°":4983,"à¦¤à¦ł":4984,"à¦¨à¦ıà¦ĩà¦®":4985,"à¦īà¦§":4986,"à¦¨à¦ĵà¦¸à¦®":4987,"à¦¹à¦²à¦ıà¦ķà¦Ł":4988,"à¦¨à¦ľà¦¨à¦ķ":4989,"à¦¨à¦ªà¦°à¦°":4990,"à¦ĺà¦°à¦¦":4991,"à¦°à¦°à¦ŀ":4992,"à¦²à¦ħà¦¬":4993,"à¦ıà¦ķà¦¸à¦®à¦¯":4994,"à¦¸à¦ĵà¦¬":4995,"à¦·à¦ķà¦ľà¦¨":4996,"à¦¸à¦ħà¦°":4997,"à¦°à¦īà¦ĩà¦ķ":4998,"à¦¥à¦¯":4999,"à¦¬à¦ıà¦¶":5000,"à¦°à¦ıà¦ĩà¦Ń":5001,"à¦¹à¦¤à¦¸":5002,"à¦ĩà¦ĩà¦¨":5003,"à¦ĵà¦ħà¦¬":5004,"à§Łà¦Ĩà¦ĵà§Ł":5005,"à¦¨à¦ħà¦¶":5006,"à§ģà§į":5007,"à¦®à¦ķà¦¥":5008,"à¦ķà¦ıà¦Ł":5009,"à¦¸à¦®à§Łà¦Ł":5010,"à¦°à¦¤à¦Ń":5011,"à¦°à¦ĩà¦Ļ":5012,"à¦¬à¦ĩà¦¦":5013,"à¦§à¦«":5014,"à¦§à¦¬à¦¨":5015,"à¦¬à§ľà¦ª":5016,"à¦Ĩà¦¶à¦ª":5017,"à¦ĩà¦Ńà¦ľ":5018,"à¦ıà¦°à¦ħà¦°":5019,"à¦²à¦ķà¦ļ":5020,"à¦Ĩà¦īà¦Łà¦¸":5021,"à¦ıà¦°à¦ªà¦ķ":5022,"à¦ıà¦°à¦¤":5023,"à¦§à¦¨à¦®":5024,"à¦¨à§Łà¦¨à¦¶":5025,"à¦¤à¦ĩà¦¸à¦²":5026,"à¦Łà¦Ĩà¦²":5027,"à¦¬à¦¸à¦Ń":5028,"à¦°à¦ªà¦°à¦ļ":5029,"à¦ķà¦°à¦£à¦ª":5030,"à§Łà¦ķà¦ķ":5031,"à¦Ĺà¦°à¦¬":5032,"à¦ľà¦ªà§ľ":5033,"à¦²à¦«à¦²":5034,"à¦īà¦Ľ":5035,"à¦ļà¦Ľ":5036,"à¦Łà¦ľà¦®":5037,"à¦°à¦ªà¦°à¦Ĩà¦ªà¦¨":5038,"à¦²à¦ħà¦¸":5039,"à¦¥à¦ĵà¦¬":5040,"à¦²à¦ªà¦¦":5041,"à¦°à¦īà¦ªà¦°à¦¤":5042,"à¦²à¦¨à¦¤":5043,"à¦¬à¦ľà¦¨à¦¦":5044,"à¦·à¦£à¦Ń":5045,"à¦ĵà¦Ĩà¦¤":5046,"à¦²à¦¶à¦¬":5047,"à¦«à¦°à¦¹":5048,"à¦¨à¦Ĩà¦¯":5049,"à¦ķà¦ĩ":5050,"à¦¨à¦Ĩà¦ª":5051,"à¦®à¦ıà¦Ł":5052,"à¦¬à¦²à¦²à¦Ĩà¦®":5053,"à¦¶à¦¨à¦Ń":5054,"à¦ļà¦ıà¦ª":5055,"à¦¤à¦¨à¦ļ":5056,"à¦°à¦£à¦ªà¦°":5057,"à¦§à¦¨à¦¯":5058,"à¦¬à¦Ĩà¦¬":5059,"à¦¤à¦Ĩà¦Ĺ":5060,"à¦¤à¦¸à¦¹":5061,"à¦°à¦ķà¦Ł":5062,"à¦¯à¦ĵà¦¸à¦®":5063,"à¦Ĺà¦łà¦¨à¦Ĺ":5064,"à§Łà¦°à¦¬":5065,"à¦¸à¦®à§Łà¦§à¦°":5066,"à¦¶à¦¨à¦ľ":5067,"à¦ķà¦¤à¦Ĩà¦²":5068,"à¦¤à¦¹à§Łà¦¤":5069,"à¦¶à¦§à¦°":5070,"à¦Ĺà¦ĵà¦¸":5071,"à¦°à¦ħà¦Ł":5072,"à¦Ĩà¦²à¦ľ":5073,"à¦®à§Łà¦ķ":5074,"à¦¬à¦¨à¦Ń":5075,"à¦ıà¦¸à¦¬à¦ª":5076,"à§§à§¦à§Ń":5077,"à¦¤à¦°à¦Ń":5078,"à¦·à¦¦à¦ķ":5079,"à¦ıà¦ĩà¦¤à¦¥":5080,"à¦¶à¦®à¦ľ":5081,"à¦®à¦¤à¦ľ":5082,"à¦¯à¦¢":5083,"à§Łà¦¦à¦ķ":5084,"à¦ĸà¦¨à¦Ĩà¦®":5085,"à¦§à¦¨à¦¶":5086,"à§©à§¦à§¨à§¦à§¨à§¨":5087,"à¦¸à¦Ĩà¦Ľ":5088,"à¦²à¦¯à¦¦":5089,"à¦·à¦£à¦¸à¦®":5090,"à¦§à¦°à¦¬":5091,"à¦ıà¦®à¦¨à¦ħà¦¨":5092,"à¦ıà¦°à¦Ĺ":5093,"à¦«à§Łà¦¸":5094,"à¦®à¦ļà¦ķ":5095,"à¦°à¦£à¦²":5096,"à¦¬à¦¤à¦¨à¦ķà¦°":5097,"à¦ķà¦ªà¦¥":5098,"à§Łà¦ľà§ľ":5099,"à¦ıà¦ĩà¦ªà¦¦":5100,"à¦ıà¦®à¦¹":5101,"à¦²à§Łà¦ľ":5102,"à¦°à¦Ĩà¦¶à¦ª":5103,"à§ľà¦Ĺ":5104,"à¦§à¦¶à¦¤":5105,"à¦°à¦Ĳà¦ķ":5106,"à¦·à¦£à¦ıà¦¬":5107,"à¦Ĺà¦£à¦¶":5108,"à¦¤à¦°à¦¶":5109,"à¦¨à¦Ĺà¦°à¦īà¦ªà¦ľ":5110,"à¦°à¦£à¦¹à¦²":5111,"à¦®à¦¨à¦Ĺà¦°":5112,"à¦ıà¦ĩà¦ĵà§Ł":5113,"à¦¬à¦¦à¦°":5114,"à¦ıà¦ļ":5115,"à¦£à¦ħà¦¨":5116,"à¦¨à¦¶à¦¹à¦°":5117,"à¦Ĩà¦«à¦¸":5118,"à¦ĸà¦¬à¦°à¦ķ":5119,"à§¨à§©à§¦":5120,"à¦°à¦ľà¦¨à¦¨":5121,"à¦Ĺà¦£à¦¬":5122,"à¦ķà¦Ĩà¦¦":5123,"à¦²à¦ĵà¦¬":5124,"à¦ĩà¦Ĩà¦ľ":5125,"à¦°à¦ĸà¦¬à¦°à¦ľ":5126,"à¦²à¦Ĺà¦²":5127,"à¦¨à¦Ĩà¦¨à¦¨":5128,"à¦ıà¦¨à¦Ĩ":5129,"à¦ªà¦¥à¦ª":5130,"à¦¶à¦ķà¦ª":5131,"à¦ĩà¦²à¦Ľà¦¬":5132,"à¦īà¦ªà¦°à¦¨":5133,"à¦Ńà¦¬à¦¹à§Ł":5134,"à¦¨à¦Ĩà¦¸à¦²":5135,"à¦°à¦Ĺà¦£à¦¸à¦®":5136,"à¦°à¦ıà¦¸à¦¬":5137,"à¦¡à¦ķà¦®":5138,"à§§à§ªà§ª":5139,"à¦ıà¦ķà¦Ń":5140,"à¦²à¦¹à¦ķà¦¬":5141,"à¦¹à¦¨à¦¸":5142,"à¦Ĩà¦«à¦°":5143,"à¦ĩà¦Łà¦¤":5144,"à¦¨à§Łà¦¬":5145,"à¦°à¦£à¦ħà¦§":5146,"à¦ıà¦ĩà¦ħà¦¬à¦¸":5147,"à¦ĩà¦¨à¦ıà¦¬":5148,"à¦Ĺà¦®à¦ĸ":5149,"à¦Ĺà¦¤à¦¶":5150,"à¦ĸà¦°à¦ļà¦ķà¦°":5151,"à¦¬à§ľà¦ķ":5152,"à¦Ĳà¦¬":5153,"à¦¸à¦§":5154,"à¦ĩà¦²à¦²":5155,"à¦ªà¦¦à¦¦":5156,"à§Łà¦ĵà¦¸":5157,"à¦¤à¦¦à¦°":5158,"à¦ĵà¦Ĺà¦¬":5159,"à¦ĩà¦ķà¦¨":5160,"à¦Łà¦īà¦¦":5161,"à¦Łà¦¸à¦°à¦ķ":5162,"à¦£à¦¹à¦¯":5163,"à¦ĩà¦ħà¦¬":5164,"à¦°à¦ªà¦¦à¦ķ":5165,"à¦¸à¦¹à¦ľà¦ķà¦°":5166,"à¦ĸà¦ķà¦ª":5167,"à¦²à¦¤à¦®":5168,"à¦¯à¦ıà¦ĸ":5169,"à§Łà¦ıà¦¦":5170,"à§§à§¯à§Ńà§¨":5171,"à¦®à¦²à¦ķ":5172,"à¦¨à§Łà¦¬à¦°":5173,"à¦°à¦ıà¦Ľ":5174,"à¦ĩà¦ıà¦¦":5175,"à¦¹à§Łà¦¹":5176,"à¦Ĺà¦ĺà¦°":5177,"à§Łà¦ķà¦¤":5178,"à¦°à¦¸à¦®à§Łà¦®":5179,"à§¨à§¨à§¦":5180,"à¦°à¦ıà¦°à¦ª":5181,"à¦¤à¦°à¦«":5182,"à¦ıà¦ĩà¦Ľ":5183,"à¦°à¦²à¦ľ":5184,"à¦¥à¦«":5185,"à¦¹à§Łà¦Ń":5186,"à¦²à¦®à¦°":5187,"à§§à§¯à§¯à§§":5188,"à¦ļà¦²à¦ª":5189,"à¦¯à¦ĸà¦¨à¦¦":5190,"à¦¸à¦²à¦ķà¦°":5191,"à¦ķà¦ıà¦¸":5192,"à§§à§¯à§¯à§¨":5193,"à¦ĩà¦īà¦ªà¦ľ":5194,"à¦°à¦ĵà¦ļ":5195,"à¦¸à¦¶à¦°":5196,"à¦ľà¦ıà¦²":5197,"à¦°à¦Ĩà¦ĸ":5198,"à¦²à¦Ĺà¦°":5199,"à¦¨à¦®à¦¡":5200,"à¦¤à¦ĵà¦¸":5201,"à¦¨à¦ĵà¦ªà¦°":5202,"à¦®à¦ķà¦²":5203,"à¦ķà¦ķà¦°à¦¬":5204,"à¦¸à¦ķà¦¬":5205,"à¦¶à¦°à¦£":5206,"à¦ķà¦¤à¦¨":5207,"à¦Ľà¦Ń":5208,"à¦¨à¦°à¦ļà¦¨":5209,"à¦ĩà¦®à¦¤":5210,"à¦ķà¦ĵà¦¦":5211,"à¦Łà¦īà¦¤":5212,"à¦°à¦ķà¦ļ":5213,"à¦¨à¦ıà¦ĩà¦¨":5214,"à¦°à¦ķà¦²à¦®":5215,"à¦Ĩà¦¹à¦®à¦¦à¦Ľà¦«":5216,"à¦¬à§ľà¦¦":5217,"à§Łà¦ĩà¦īà¦¨":5218,"à¦ķà¦°à¦®à¦¨":5219,"à¦Ńà¦¬à¦¸":5220,"à§§à§¯à§¯à§Ń":5221,"à¦°à¦ªà¦°à¦ıà¦ķà¦Ł":5222,"à¦°à¦¸à¦¬à¦¶":5223,"à¦ķà¦¨à¦¤":5224,"à¦ľà¦¬à¦²":5225,"à¦Łà¦²à¦®":5226,"à§Łà¦ĩà¦¨":5227,"à¦īà¦¸à¦¸":5228,"à¦¤à¦Ĺà¦²":5229,"à¦ķà¦¤à¦¸":5230,"à¦§à¦¨à¦ħà¦¨":5231,"à¦¨à¦ıà¦ĺà¦Łà¦¨":5232,"à¦īà¦¡à¦¸":5233,"à¦®à¦¦à¦¶à¦®à¦¶":5234,"à¦«à¦¯":5235,"à¦®à¦Ĩà¦Ľ":5236,"à¦ĩà¦ļà¦²à¦Ľ":5237,"à¦²à¦Ĩà¦Ĺ":5238,"à¦īà¦¬à¦¸":5239,"à¦Ľà¦¦à¦¬":5240,"à¦ĸà¦¨à¦¦":5241,"à¦¦à¦ķà¦²":5242,"à¦Łà¦²à¦ķ":5243,"à¦°à¦·à§ľà¦¯à¦¨":5244,"à¦Ńà¦¬à¦ķà¦°à¦¤":5245,"à¦¹à¦¤à¦ķà¦°":5246,"à§Łà¦«à¦²":5247,"à¦®à¦¨à¦Ľ":5248,"à¦Łà¦ķà¦¨":5249,"à¦¬à¦²à¦Ł":5250,"à¦¸à¦®à¦®":5251,"à¦¤à¦ħà¦ª":5252,"à¦ĩà¦¨à¦«à¦°à¦®":5253,"à¦°à¦¨à¦¸":5254,"à¦ķà¦ķà¦·":5255,"à§§à§®à§®à§¦":5256,"à¦ıà¦°à¦²":5257,"à¦¦à¦ķà¦ķà¦°":5258,"à¦ĩà¦¯à¦¥":5259,"à¦¬à¦°à¦ļ":5260,"à§§à§¦à§¨":5261,"à¦²à¦ļà¦¨":5262,"à¦°à¦ĵà¦ĸ":5263,"à§Łà¦ĩà¦¤":5264,"à¦®à¦īà¦ªà¦ľ":5265,"à§Łà¦®à¦®":5266,"à¦Łà¦¸à¦°":5267,"à¦¯à¦ķà¦°à¦ķà¦°":5268,"à¦ĩà¦²à¦ĸ":5269,"à¦ªà¦¨à¦ľ":5270,"à¦²à¦¨à¦Ĺ":5271,"à¦ķà¦īà¦²":5272,"à¦īà¦¬à¦²":5273,"à¦ħà¦«à¦¬":5274,"à¦Łà¦°à¦ª":5275,"à¦ķà¦ħà¦ªà¦°":5276,"à¦²à¦ªà¦¤":5277,"à¦°à¦¸à¦¹à¦¬":5278,"à¦Łà¦¢":5279,"à¦Ĩà¦¹à¦¤à¦¦":5280,"à¦£à¦ħ":5281,"à¦¬à¦°à¦¢":5282,"à¦°à§Łà¦¬":5283,"à¦ķà¦ĵà¦īà¦ļ":5284,"à¦®à¦ķà¦ª":5285,"à¦Ĩà¦²à¦Ĩà¦®":5286,"à¦§à¦¹à¦²":5287,"à¦°à¦ķà¦®à¦ª":5288,"à¦°à¦¯à¦ĸà¦¨":5289,"à¦°à¦¨à¦ķà¦¶":5290,"à¦¶à¦¬à¦²":5291,"à¦¤à¦²à¦®":5292,"à¦Łà¦¨à¦¦":5293,"à¦¶à¦ķà¦¬":5294,"à¦¤à¦°à¦£à¦ķ":5295,"à¦¯à¦°à¦¬":5296,"à¦ĸà¦²à¦ķà¦°":5297,"à¦°à¦¤à¦ķà¦°":5298,"à¦°à¦Ĺà¦£à¦®":5299,"à¦¶à¦ĺà¦Ł":5300,"à¦Īà¦¨":5301,"à¦ĩà¦ıà¦ª":5302,"à¦®à¦ľà¦¨":5303,"à¦Ľà¦¶":5304,"à¦°à¦ªà¦°à¦¬à¦Ľ":5305,"à¦°à¦¦à¦°à¦¬":5306,"à¦ĺà¦Łà¦¬":5307,"à¦Łà¦ªà¦¤":5308,"à¦°à¦²à¦ķà¦¡":5309,"à¦°à¦ĩà¦¯":5310,"à§§à§¦à§¬":5311,"à¦°à¦¥à¦®à¦°":5312,"à¦²à¦²à¦¤":5313,"à¦¸à¦Ĩ":5314,"à¦¨à¦ªà¦¨":5315,"à¦ªà¦¨à¦«":5316,"à§Łà¦®à¦ķ":5317,"à§Łà¦Ńà¦°":5318,"à¦²à¦Ńà¦°":5319,"à¦¨à¦¨à¦ķ":5320,"à¦Ĺà¦®à¦ķ":5321,"à¦°à¦¡à¦ķ":5322,"à¦¬à¦ªà¦¤":5323,"à¦°à¦®à¦¤à¦¸":5324,"à¦°à¦Ĩà¦¨à¦¸":5325,"à§Łà¦ħà¦¬":5326,"à¦ľà¦Ĩà¦¹à¦®":5327,"à¦°à¦ıà¦Ń":5328,"à¦ĺà¦·":5329,"à¦ľà¦¨à¦ļ":5330,"à¦°à¦Ĩà¦¨à¦¶à¦°":5331,"à¦¸à¦°à¦²":5332,"à¦®à¦¤à¦²à¦¬":5333,"à¦Łà¦°à¦¨":5334,"à¦ıà¦ķà¦ĩà¦°à¦ķà¦®":5335,"à¦£à¦Ńà¦Ł":5336,"à¦¯à¦®à¦ľ":5337,"à¦ĩà¦īà¦ıà¦¸à¦¬":5338,"à¦Ĺà¦Ńà¦°":5339,"à¦ĩà¦ĩà¦¤":5340,"à¦ĩà¦¡à¦®":5341,"à¦ĩà¦¬à¦¸":5342,"à¦¬à¦°à¦ĵà§Ł":5343,"à¦ªà¦²à¦ķ":5344,"à§§à§¨à§®":5345,"à¦ıà¦ĩà¦ľà¦¨":5346,"à¦ıà¦ĩà¦®à¦¹":5347,"à§¨à§¦à§¨à§¨à§¨à§©":5348,"à§§à§¯à§¯à§¯":5349,"à§¨à§¦à§§à§®à§¨à§¦à§§à§¯":5350,"à¦¸à¦«à¦Łà¦ĵà¦¯":5351,"à¦°à¦ħà¦¬à¦ķ":5352,"à¦ħà¦¸à¦¨":5353,"à¦¤à¦ķà¦¦":5354,"à¦¬à¦§à¦°":5355,"à¦¨à¦Ĩà¦°à¦ķ":5356,"à¦Ńà¦ļ":5357,"à¦¤à¦¨à¦¥":5358,"à¦°à¦Ĩà¦¹à¦®à¦¦":5359,"à¦¤à¦®à¦°":5360,"à¦ĩà¦²à¦¥":5361,"à¦«à¦²à¦ľ":5362,"à¦°à¦īà¦ªà¦°à¦ļ":5363,"à¦Ĩà¦°à¦ĵà¦¤":5364,"à¦²à¦¨à¦Ń":5365,"à¦ĩà¦¸à¦Ĺ":5366,"à§Łà¦®à¦°":5367,"à¦¨à¦Ĺà¦°à¦ª":5368,"à¦°à¦¬à¦²à¦¤":5369,"à¦¸à¦°à¦¶":5370,"à¦²à¦¶à¦¨":5371,"à¦ĵà¦ĩà¦¸à¦²":5372,"à¦¶à¦ªà¦¤":5373,"à¦ıà¦ķà¦®à¦¤":5374,"à¦ĩà¦ªà¦¡":5375,"à¦Ĺà¦¤à¦ªà¦°":5376,"à¦¬à¦ķà¦ª":5377,"à¦¯à¦ªà¦¤":5378,"à¦·à§Łà¦¬":5379,"à¦¾à¦¾":5380,"à¦·à¦ħà¦°":5381,"à¦Łà¦Ĩà¦Ľ":5382,"à¦¤à¦īà¦¨":5383,"à¦ªà¦¦à¦®":5384,"à¦Ĺà¦®à¦ª":5385,"à¦¬à¦¨à¦°":5386,"à¦¸à¦ħà¦ª":5387,"à¦¤à¦°à¦Ĩà¦®":5388,"à¦ļà¦²à¦¸":5389,"à¦°à¦ľà¦¨à¦ķ":5390,"à¦°à¦°à¦¸à¦ĸ":5391,"à¦¬à¦°à¦ĩ":5392,"à¦¤à¦Ńà¦°":5393,"à¦¤à¦²à¦«":5394,"à¦¤à¦¯à¦¦":5395,"à¦¥à¦īà¦ª":5396,"à¦¨à¦ĸà¦¬":5397,"à¦Ĩà¦ĩà¦ı":5398,"à¦²à¦®à¦Ļ":5399,"à¦Ĺà¦ĺ":5400,"à¦ĩà¦īà¦ļ":5401,"à¦¨à¦ĩà¦īà¦ķ":5402,"à¦¹à¦¨à¦¨":5403,"à¦ĩà¦ľà¦¤":5404,"à¦¯à§Łà¦ķà¦°":5405,"à¦¸à¦Ĩà¦°":5406,"à¦¸à¦ªà¦¨":5407,"à¦¸à¦¤à¦¤":5408,"à¦¨à¦ľà¦Ł":5409,"à¦°à¦Ĩà¦®à¦¦":5410,"à¦¯à¦ļà¦°":5411,"à§Łà¦Ĺà¦²":5412,"à¦·à¦¬à¦²":5413,"à§§à§¯à§¯à§®":5414,"à¦Ĺà¦¤à¦¸à¦ª":5415,"à¦¤à¦¸à¦¦à¦¸":5416,"à¦īà§İà¦ªà¦¨":5417,"à¦¤à¦ĸà¦¨à¦ª":5418,"à¦°à¦¦à¦¸":5419,"à¦ķà¦Ĩà¦¸":5420,"à¦¦à¦Ĩà¦ªà¦¨":5421,"à¦ľà¦¨à¦ªà¦°":5422,"à§Łà¦¹à¦²":5423,"à¦¸à¦ķà¦·":5424,"à¦ĵà¦¸à¦¬":5425,"à¦°à¦®à¦¤à¦ª":5426,"à¦Ĺà¦²à¦Ĺ":5427,"à¦°à¦ĸà¦¬à¦°à¦ļ":5428,"à¦²à¦Ńà¦Ł":5429,"à¦·à¦¬à¦°":5430,"à¦¹à¦Ĩà¦¬":5431,"à¦ķà¦¤à¦¹":5432,"à¦ħà¦«à¦¸":5433,"à¦°à¦®à¦¬à¦¨":5434,"à¦ªà¦¨à¦ķà¦°à¦Ľ":5435,"à¦¨à¦Ĩà¦ĸà¦¤":5436,"à¦¤à¦¬à§Łà¦¸":5437,"à¦°à¦ªà¦°à¦Ĩà¦¬":5438,"à§¨à§¦à§¨à§«":5439,"à¦¨à¦¦à¦£":5440,"à¦°à¦£à§Łà¦¨":5441,"à¦°à¦ĸà¦¬à¦°à¦ĵà¦¬":5442,"à¦·à§Łà¦ķà¦®à¦¨":5443,"à§Łà¦¶à¦¹":5444,"à¦Ĺà¦®à¦¬":5445,"à¦°à¦ıà¦ĩà¦ªà¦°":5446,"à§§à§¨à§¦à§¨à§¨":5447,"à§§à§¬à§ª":5448,"à¦²à¦ĵà¦ķ":5449,"à§İà¦ļ":5450,"à¦¶à¦¤à¦¬":5451,"à¦Ĺà¦Ĩà¦®":5452,"à¦¶à¦¨à¦ħà¦¨":5453,"à¦ķà¦Łà¦®":5454,"à¦ĩà¦¡à¦¶":5455,"à¦Łà¦ķà¦¬":5456,"à¦ĸà¦²à¦¨":5457,"à¦ķà¦ıà¦ĩ":5458,"à¦ıà¦²à¦ķ":5459,"à¦łà¦Ń":5460,"à¦ªà¦°à¦²":5461,"à¦ıà¦ķà¦ķà¦¥":5462,"à¦¼à¦¾à§ĩ":5463,"à¦°à¦«à¦ķ":5464,"à¦®à¦¤à¦Ń":5465,"à¦ķà¦Ĩà¦ĩà¦¡":5466,"à¦ªà¦¸à¦Ł":5467,"à¦¤à¦īà¦²":5468,"à¦¶à¦Ĺà§ľ":5469,"à¦¬à¦²à¦ķà¦°":5470,"à¦£à¦¹à¦¬":5471,"à¦¨à¦ıà¦ľ":5472,"à¦¹à¦°à¦¹":5473,"à§¨à§¦à§¨à§§à§¨":5474,"à¦ªà¦¦à¦®à¦¨":5475,"à¦ļà¦ľà¦¨":5476,"à¦ķà¦Łà¦¬à¦°":5477,"à¦¸à¦Ĩà¦ªà¦¨":5478,"à¦°à¦¨à¦Ĺà¦°":5479,"à¦¶à¦ħà¦°":5480,"à¦¤à¦ĵà¦®à¦¹":5481,"à¦°à¦ķà¦®à¦ķ":5482,"à§§à§©à§©":5483,"à§ľà¦¶":5484,"à¦ķà¦°à¦¯":5485,"à¦ıà¦ħà¦¨":5486,"à¦°à¦®à¦£à¦¸":5487,"à¦°à¦ĵà¦ªà¦°à¦Ń":5488,"à¦ĩà¦ħà¦¤":5489,"à¦Łà¦ķà¦¥":5490,"à§§à§¯à§Ńà§¦":5491,"à¦Ĺà¦łà¦¨à¦ķ":5492,"à¦°à¦¸à¦¬à¦Ĺ":5493,"à¦¶à¦¬à¦ª":5494,"à¦¸à¦ĵà¦¨":5495,"à¦¨à¦ıà¦°à¦ªà¦°":5496,"à¦«à¦¨à¦¸à¦®":5497,"à¦ĭà¦£à¦¦":5498,"à¦®à¦ĩà¦¤":5499,"à¦ĺà¦°à¦¥":5500,"à¦ĩà¦īà¦Ĩà¦°à¦ı":5501,"à¦ĩà¦ľà¦Ļ":5502,"à¦¦à¦ªà§ľ":5503,"à§§à§¨à§§à§Ń":5504,"à¦ªà¦ķà¦¹":5505,"à¦¦à¦«à¦¤":5506,"à¦ıà¦ķà¦ĩà¦¦":5507,"à¦¬à¦¨à¦¸à¦®":5508,"à¦¦à¦¨à¦ķà¦°à¦¬":5509,"à¦°à¦°à¦®à¦ľ":5510,"à¦°à¦¸à¦ķà¦²à¦¶":5511,"à¦¨à¦¬à¦²à¦²":5512,"à§Łà¦ķà¦¨":5513,"à¦¤à¦¤à¦¤":5514,"à¦Ľà¦¦à¦ª":5515,"à§§à§«à§¦à§¦":5516,"à¦ĩà¦ıà¦ĩà¦¬":5517,"à¦®à¦¸à¦¨":5518,"à§Łà¦Ĩà¦¦":5519,"à¦¨à¦Ńà¦°":5520,"à¦¤à¦ĸà¦¨à¦®":5521,"à¦ĩà¦Ĩà¦Ĺà¦·":5522,"à§¨à§¦à§§à§¬à§¨à§¦à§§à§Ń":5523,"à¦Ńà¦¹":5524,"à¦®à¦¨à¦¶":5525,"à¦¸à¦¦à¦°à¦¬":5526,"à¦Ĩà¦°à¦Ľ":5527,"à¦¤à¦¶à¦ķ":5528,"à¦¯à¦¸à¦¨":5529,"à¦¨à§Łà¦¸":5530,"à¦°à¦Ĩà¦ĵà¦¯":5531,"à¦°à¦¤à¦ľ":5532,"à¦Łà¦Ŀ":5533,"à¦¤à¦°à¦£à¦¬":5534,"à¦«à¦²à¦Ń":5535,"à¦Ńà¦¬à¦¹à¦¯":5536,"à¦¬à¦²à¦ľ":5537,"à¦¬à¦®à¦¤":5538,"à¦¯à¦ĩà¦¸à¦²":5539,"à¦¤à¦®à¦°à¦¦":5540,"à¦Ĺà¦§à¦°":5541,"à¦°à¦Ĩà¦ļà¦°à¦£":5542,"à¦ļà¦ķà¦¬":5543,"à¦·à§Łà¦Ń":5544,"à¦®à¦Ĺà¦¤":5545,"à¦ıà¦¸à¦ıà¦¸":5546,"à¦ĵà¦¸à¦¤":5547,"à¦·à§Łà¦ķà¦ª":5548,"à¦¸à¦¹à¦ķà¦°":5549,"à¦¨à¦¹à¦ĵà¦¯":5550,"à¦¤à¦ķà§Ł":5551,"à¦¥à¦¸à¦ª":5552,"à¦¶à¦¹à¦²":5553,"à¦°à¦¡à¦²":5554,"à¦°à¦ĸà¦¬à¦°à¦¦":5555,"à¦¤à¦Ĩà§Ł":5556,"à¦¬à¦Ĩà¦°":5557,"à¦®à¦¤à¦¤":5558,"à¦«à¦Łà¦ĵà¦¯":5559,"à¦ªà¦¨à¦¨":5560,"à¦ĩà¦¤à¦¥":5561,"à¦ĩà¦ĺà¦Łà¦¨":5562,"à¦²à¦¬à¦Ļ":5563,"à§¨à§§à§®à§¨":5564,"à¦°à¦¸à¦¬à¦¸":5565,"à¦ļà¦¨à¦ªà¦°":5566,"à¦°à¦²à¦¡":5567,"à¦°à¦¹à§Łà¦¤":5568,"à¦īà¦ķà¦°":5569,"à¦Łà¦Ĩà¦¨":5570,"à¦¹à¦¨à¦°":5571,"à¦ĸà¦ıà¦¬":5572,"à§§à§¯à§ªà§Ń":5573,"à¦łà¦Ľ":5574,"à¦°à¦¸à§ľà¦ķ":5575,"à¦°à¦ľà¦¨à¦ķà¦¬à¦Ļ":5576,"à§¯à§¯à§¬":5577,"à¦ĸà¦ķà¦²à¦ķ":5578,"à¦ªà¦²à¦¸":5579,"à¦ľà¦¨à¦¹à¦¤":5580,"à¦ıà¦®à¦¨à¦ªà¦°":5581,"à¦ªà¦¦à¦ĸ":5582,"à¦®à¦¹à¦¬":5583,"à¦ĩà¦ªà¦²":5584,"à¦®à¦¤à¦®":5585,"à¦¸à¦ķà¦²à¦®":5586,"à¦ĵà¦°à¦Ĺ":5587,"à¦Ĩà¦Łà¦ķà¦®":5588,"à¦¸à¦°à¦¦":5589,"à§İà¦īà§İà¦ª":5590,"à¦¨à¦¶à¦¤":5591,"à¦ıà¦¸à¦ªà¦°":5592,"à¦ĩà¦Łà¦¦":5593,"à¦¨à¦ıà¦°à¦¸":5594,"à¦·à§Łà¦ķà¦ķà¦°":5595,"à¦ĺà¦¨à¦ĺ":5596,"à¦¬à¦ķà¦Ĺ":5597,"à¦¯à¦¤à¦¤":5598,"à¦¨à¦®à¦¸à¦ľ":5599,"à¦¡à¦Ĩà¦°":5600,"à¦¯à¦Ĩà¦¸":5601,"à¦¯à¦Ĺà¦¤":5602,"à§«à§«à§«":5603,"à¦ļà¦Ĩà¦¦":5604,"à¦łà¦¥":5605,"à¦ĺà§ľ":5606,"à¦Ľà¦¦à¦®":5607,"à¦²à¦¹à¦ķà¦ļ":5608,"à¦¶à¦°à¦ķ":5609,"à¦ĩà¦ħà¦ª":5610,"à¦ķà¦ħà¦ª":5611,"à¦°à¦¥à¦®à¦¬à¦°":5612,"à¦ªà¦ĩà¦¤":5613,"à§Łà¦Ĩà¦ľ":5614,"à¦ıà¦¸à¦Ĩà¦ĩà¦¬":5615,"à¦¤à¦Ĩà¦ĩà¦¨":5616,"à¦¨à¦ĵà¦Ł":5617,"à¦Ńà§Łà¦Ļ":5618,"à¦Ĩà¦Łà¦Ł":5619,"à¦ıà¦ĸà¦¨à¦¶":5620,"à¦ĩà¦ķà¦°à¦Ľ":5621,"à¦¯à¦¸à¦¬à¦ļ":5622,"à¦°à¦ĵà¦ªà¦°à¦ķ":5623,"à¦²à¦¤à¦¦":5624,"à¦¬à¦¬à¦¸":5625,"à¦īà¦¨à¦¬":5626,"à¦ªà¦ł":5627,"à¦¤à¦°à¦°à¦¶":5628,"à¦¬à¦īà¦¨":5629,"à¦ıà¦ķà¦ĩà¦¬":5630,"à¦ªà¦¸à¦¬":5631,"à¦£à¦ħà¦°":5632,"à¦Ĩà¦ł":5633,"à¦ıà¦°à¦«":5634,"à¦°à¦¸à¦¹à¦¸":5635,"à¦°à¦ĵà¦ªà¦°à¦ª":5636,"à¦Ĩà¦ķà¦¸":5637,"à¦°à¦£à¦¹à¦¤":5638,"à¦¬à¦¨à¦¹":5639,"à¦Ĩà¦ĩà¦°":5640,"à¦°à¦¸à¦¬à¦¥":5641,"à¦¤à¦ĩà¦®":5642,"à¦¬à¦ī":5643,"à¦¯à¦ĩà¦Ĩà¦ªà¦¨":5644,"à¦·à¦¦à¦¬":5645,"à¦¡à¦ķà¦°à¦¬":5646,"à¦²à¦ķà¦°à¦Ľ":5647,"à¦¯à¦ĩà¦¸à¦®":5648,"à¦¨à¦ĩà¦īà¦°":5649,"à¦¬à¦ķà¦¶":5650,"à¦®à¦ĵà¦²":5651,"à§§à§¨à§§à§«":5652,"à¦ĩà¦ıà¦ĩà¦ª":5653,"à¦®à¦ªà¦¤":5654,"à¦¯à¦Ĺà¦²":5655,"à¦¹à§Łà¦ıà¦¤":5656,"à§¬à§¨à§¦à§¨à§¨":5657,"à¦®à¦ĵà¦¦":5658,"à§§à§®à§¦":5659,"à¦Łà¦°à¦¯":5660,"à¦·à¦ħ":5661,"à¦®à¦ħà¦§":5662,"à¦°à¦ıà¦®à¦¡":5663,"à¦¨à¦°à¦¨":5664,"à¦°à¦¸à¦¬à¦ľ":5665,"à¦ļà¦ķà¦¦":5666,"à¦®à¦¨à¦¹":5667,"à¦ķà¦¬à¦°à¦¸":5668,"à¦Ĩà¦²à¦®à¦¶":5669,"à¦¸à¦¬à¦Ń":5670,"à¦·à¦¸à¦°":5671,"à¦ªà¦ħ":5672,"à¦¡à¦Ĩà¦®":5673,"à¦ĵà¦ľà¦¨à¦ķà¦®":5674,"à¦ķà¦ıà¦®à¦ª":5675,"à¦Łà¦ĵà¦¸":5676,"à¦ıà¦ĩà¦¸à¦ª":5677,"à¦ļà¦¬à¦Ľà¦°":5678,"à¦°à¦¬à¦²à¦¬":5679,"à¦ıà¦¸à¦¬à¦¤à¦¥":5680,"à¦¥à¦īà¦¦":5681,"à¦ªà¦ıà¦ķà¦Ł":5682,"à¦°à¦ªà¦¦à¦¤":5683,"à¦ĩà¦¡à¦ª":5684,"à¦°à¦ħà¦¬à¦¨à¦¤":5685,"à¦²à¦īà¦ªà¦ľ":5686,"à¦²à¦ľà¦°":5687,"à¦¯à§İ":5688,"à¦°à¦ıà¦°à¦¬":5689,"à¦ıà¦²à¦ª":5690,"à¦Ĩà¦°à¦Ĩà¦ªà¦¨":5691,"à¦²à¦Ĩà¦¯":5692,"à¦ĵà¦Ĩà¦ķ":5693,"à¦Ĩà¦ĩà¦¨à¦®à¦¨":5694,"à¦ĩà¦Ĺà¦²":5695,"à¦¦à¦°à¦īà¦ªà¦ľ":5696,"à¦¬à¦¹à¦²":5697,"à¦°à¦ıà¦ķà¦ªà¦°":5698,"à¦ŀà¦¡":5699,"à¦¦à¦¶à¦ķ":5700,"à¦¬à¦²à¦¶":5701,"à¦ľà¦²à¦¹":5702,"à¦¨à¦ĩà¦®à¦°":5703,"à¦¥à¦ļà¦Ł":5704,"à¦¹à§Łà¦ıà¦Ľ":5705,"à¦ħà¦¬à¦ľ":5706,"à¦¤à¦ħà¦ªà¦°":5707,"à¦ĵà¦Ĩà¦°à¦¬":5708,"à¦ĵà¦ıà¦¡":5709,"à¦ľà¦²à¦¢":5710,"à¦¦à¦Ĺà¦²":5711,"à¦ķà¦Łà¦²":5712,"à§§à§«à§«":5713,"à¦¸à¦ıà¦²":5714,"à¦Łà¦¸à¦¸":5715,"à¦²à¦¸à¦«":5716,"à¦ĩà¦Ĩà¦ķ":5717,"à¦¤à¦¦à¦²":5718,"à¦ķà¦Łà¦¦":5719,"à¦ļà¦²à¦ķà¦°":5720,"à¦²à¦ķà¦¸à¦Ń":5721,"à§ªà§«à§¦":5722,"à¦°à¦¸à¦ķà¦²à¦ª":5723,"à¦¨à¦Ĩà¦§":5724,"à¦£à¦¹à¦²":5725,"à¦°à¦¬à¦Ĺ":5726,"à¦¦à¦¶à¦°":5727,"à¦ĩà¦Łà¦¡":5728,"à¦°à¦Īà¦¦à¦¶":5729,"à¦Łà¦ıà¦¨":5730,"à¦ıà¦®à¦¨à¦®":5731,"à§¨à§¨à§¦à§¨à§¨":5732,"à¦²à¦ªà§ľ":5733,"à¦¤à¦ķà¦¨":5734,"à¦°à¦£à¦Ĩà¦ªà¦¨":5735,"à¦¶à¦¸à¦¹":5736,"à¦Łà¦ĵà¦ª":5737,"à¦ķà¦ķà¦°à¦Ľ":5738,"à¦²à¦°à¦Ļ":5739,"à¦ıà¦ĩà¦¬à¦²":5740,"à¦ĩà¦Ĩà¦¦":5741,"à¦°à¦ıà¦°à¦¸":5742,"à¦ĩà¦°à¦¶":5743,"à¦§à¦¨à¦ķà¦°à¦¬":5744,"à¦ĩà¦¤à¦°":5745,"à§Łà¦ķà¦ª":5746,"à¦·à¦£à¦«":5747,"à¦ķà¦¬à¦¸":5748,"à¦¨à¦ĩà¦¨à¦¸":5749,"à¦°à¦¤à¦ĸà¦¨":5750,"à§¨à§ªà§¨à§«":5751,"à¦ĭà¦£à¦¨":5752,"à¦°à¦ıà¦ķà¦¶":5753,"à¦²à¦ĩà¦®":5754,"à¦°à¦īà¦ªà¦°à¦®":5755,"à¦¤à¦ıà¦¸":5756,"à¦Łà¦Ĩà¦¦":5757,"à¦Ĳà¦¦":5758,"à¦¨à¦ĵà¦īà¦¤":5759,"à¦°à¦¸à¦ķà¦²à¦¸":5760,"à¦Łà¦Ńà¦°":5761,"à¦°à¦«à¦¸à¦²":5762,"à¦«à¦¶":5763,"à¦Łà¦°à¦®":5764,"à¦¨à¦Ĺà¦°à¦Ĩà¦ĵà§Ł":5765,"à¦¦à¦°à¦¤":5766,"à¦¤à¦°à¦°":5767,"à§Łà¦Ĩà¦¹à¦¤":5768,"à¦ĵà¦ħà¦¤":5769,"à¦ıà¦®à¦¨à¦¦":5770,"à¦ıà¦ĩà¦ļà¦ª":5771,"à¦¯à¦ķà¦¨":5772,"à¦ĩà¦Ĩà¦ľà¦ķ":5773,"à¦ķà¦¸à¦¤":5774,"à¦Łà¦ªà¦ķ":5775,"à¦¶à¦ħà¦«":5776,"à¦ĵà¦ħà¦§":5777,"à¦ļà¦²à¦¥":5778,"à¦²à§Łà¦Ĺ":5779,"à¦¸à¦Ĩà¦¨":5780,"à¦¨à¦ıà¦°à¦¬":5781,"à¦¤à¦²à¦ª":5782,"à§Łà¦ıà¦ķà¦ľà¦¨":5783,"à¦¶à¦¹à¦¯":5784,"à¦¸à¦®à§Łà¦®":5785,"à¦ĩà¦Ńà¦ª":5786,"à¦¤à¦°à¦ŀ":5787,"à¦®à¦ĵà¦ķ":5788,"à¦°à¦ļà¦²à¦®":5789,"à¦¤à¦ĸà¦¬":5790,"à¦ªà¦¦à¦¨":5791,"à¦®à¦īà¦¤":5792,"à¦Ĩà¦°à¦ıà¦Ł":5793,"à¦¬à¦²à¦°":5794,"à¦¶à¦ĵà¦ľ":5795,"à¦¨à¦°à¦¹":5796,"à¦Ĩà¦ľà¦¸à¦ķ":5797,"à¦¯à¦ĵà¦¨":5798,"à¦Łà¦ĩà¦¤":5799,"à¦Ĺà¦¤à¦¤à¦¥":5800,"à¦ĸà¦§":5801,"à¦°à§Łà¦¦":5802,"à§¨à§Ńà§¨à§¦à§¨à§¨":5803,"à¦®à¦¬à¦²à¦²":5804,"à§¯à§¬à§§à§¨":5805,"à¦¬à¦Ĩà¦Ľ":5806,"à¦§à¦¹à¦¤":5807,"à¦ĩà¦¡à¦ķà¦ķ":5808,"à§¨à§®à§¨à§¯":5809,"à¦¯à¦¥à¦¬":5810,"à§¯à§¦à§¦":5811,"à¦°à¦¬à¦§":5812,"à¦²à¦¸à¦Ń":5813,"à¦°à¦ıà¦ķà¦°":5814,"à¦ıà¦°à¦¯":5815,"à¦¶à¦¬à¦Ľà¦°":5816,"à¦²à¦ħà¦¤":5817,"à¦ıà¦°à¦ªà¦°à¦¸":5818,"à¦°à¦®à¦£à¦°":5819,"à¦²à¦īà¦¤":5820,"à¦ķà¦ĩà¦ķ":5821,"à¦ķà¦ĸà¦¨à¦ĵà¦ķà¦ĸà¦¨":5822,"à¦¹à¦¸à¦ª":5823,"à¦ķà¦®à¦ľ":5824,"à¦¿à¦¾":5825,"à¦Ĩà¦®à¦¤à¦²":5826,"à¦¨à¦Ľà§ľ":5827,"à¦¶à¦ıà¦ķà¦Ł":5828,"à¦·à¦ķà¦ķà¦°":5829,"à¦·à¦£à¦¬à¦¨":5830,"à¦Ĺà¦²à¦¦":5831,"à¦¬à¦Ľà¦°à¦¸":5832,"à¦ľà¦²à¦¸":5833,"à§Łà¦Ĩà¦¸à¦Ľ":5834,"à¦°à¦¸à¦®à¦¤":5835,"à¦ıà¦¤à¦¸":5836,"à¦Ĩà¦Ĺà¦®à¦¨":5837,"à¦²à¦Ĺà¦ĩà¦¨":5838,"à¦¤à¦¹à§Łà¦¬":5839,"à¦Łà¦°à¦¹":5840,"à¦ıà¦°à¦¹":5841,"à¦¦à¦ķà¦ıà¦¬":5842,"à¦ıà¦ĩà¦ħà¦ŀ":5843,"à¦łà¦ķà¦ķà¦°":5844,"à¦¥à¦ªà¦¤":5845,"à¦ķà¦Ĩà¦¤":5846,"à¦°à¦Ľà¦¨":5847,"à¦¨à¦ĵà¦«":5848,"à¦¬à§ľà¦¸":5849,"à¦¬à¦ķà¦¤":5850,"à¦ķà¦ī":5851,"à¦Ĺà¦®à¦ľ":5852,"à¦ľà¦¨à¦¹à¦²":5853,"à¦¤à¦ľà¦¨à¦ª":5854,"à¦°à¦¤à¦¯":5855,"à¦°à¦¨à¦ĵà¦Ĺ":5856,"à¦¯à¦®à¦Ĺ":5857,"à¦¨à¦ıà¦¸à¦¬":5858,"à¦¨à¦¸à¦ļ":5859,"à¦¨à¦¹à¦¯à¦°à¦¤":5860,"à¦ıà¦«à¦Ĩà¦ĩ":5861,"à¦·à¦®à¦¹à¦¯":5862,"à§ľà¦¥":5863,"à¦ľà¦¨à¦«":5864,"à¦¸à¦Ĩà¦¦":5865,"à§¨à§¬à§¨à§¦à§¨à§¨":5866,"à¦¤à¦ļà¦²":5867,"à¦Ľà§Ł":5868,"à¦ĩà¦ıà¦¤":5869,"à¦ıà¦ķà¦§":5870,"à¦ĵà¦ĩà¦ķ":5871,"à¦ĩà¦ıà¦ĩà¦¸":5872,"à¦¦à¦¨à¦ıà¦¬":5873,"à¦ķà¦®à§Łà¦¦":5874,"à¦¶à¦ħà¦Ń":5875,"à¦°à¦ĸà¦¬à¦°à¦¶":5876,"à¦¤à¦°à¦ªà¦°":5877,"à¦¯à¦ĵà¦ķ":5878,"à§ľà¦ªà¦¤":5879,"à§¯à§¨à§¦à§¨à§¨":5880,"à¦ķà¦²à¦¦":5881,"à¦ľà¦¹à¦²":5882,"à¦ķà¦¬à§ľ":5883,"à¦īà¦ľà¦®":5884,"à§¨à§¬à§¨à§Ń":5885,"à¦®à¦Ĩà¦¹":5886,"à¦ķà¦®à¦¸":5887,"à¦¥à¦²à¦¬à¦¨":5888,"à¦¹à§Łà¦ļ":5889,"à¦¹à§Łà¦ĸ":5890,"à¦ĩà¦¬à¦¹":5891,"à¦īà¦ľà¦ľ":5892,"à¦°à¦®à¦¸à¦®":5893,"à¦°à¦Ĩà¦¨à¦ķ":5894,"à§Łà¦ªà¦¦":5895,"à¦®à¦²à¦¦":5896,"à¦®à¦¸à¦°à¦ķ":5897,"à¦Łà¦°à¦°":5898,"à¦°à¦Ńà¦¦":5899,"à¦Łà¦¨à¦¡":5900,"à¦ĵà¦ĩà¦¶":5901,"à¦®à¦¹à¦®":5902,"à¦¦à¦ĩà¦¬à¦¨":5903,"à¦°à¦¸à¦®à§Łà¦¦":5904,"à¦¯à¦®à¦¡":5905,"à¦°à¦ķà¦¹":5906,"à¦°à¦ıà¦ķà¦Ń":5907,"à¦Łà¦ķà¦Ł":5908,"à¦¦à¦ľà¦¬":5909,"à¦ĩà¦Ĩà¦¤":5910,"à¦Ĩà¦ľà¦¹":5911,"à¦²à¦®à¦¡":5912,"à¦°à¦¸à¦°à¦ŀ":5913,"à¦¬à¦²à¦²à¦ķ":5914,"à¦°à¦¥à¦®à¦¥":5915,"à¦°à¦²à¦Ĺ":5916,"à¦ķà¦¸à¦ĩà¦īà¦¨":5917,"à¦Ĩà¦¹à¦®à¦¦à¦®":5918,"à¦°à¦¹à¦ľ":5919,"à¦²à¦¶à¦°":5920,"à¦¨à¦ıà¦°à¦ľà¦¨":5921,"à¦ľà¦¨à¦²":5922,"à¦ķà¦Ĩà¦ķ":5923,"à¦²à¦¹à¦ķà¦ķ":5924,"à¦¤à¦ķà¦¤":5925,"à¦°à¦¸à¦®à¦ķ":5926,"à§±":5927,"à¦¤à¦ĩ":5928,"à¦ĵà¦°à¦¦":5929,"à§Łà¦ĵà¦¬":5930,"à¦°à¦ĺà¦Ł":5931,"à¦°à¦¥à¦®à¦¸à¦ª":5932,"à¦ĸà¦¡à¦²":5933,"à¦¤à¦¬à¦¹":5934,"à¦°à¦Ĩà¦°à¦¸":5935,"à¦¹à¦°à¦¤":5936,"à¦§à¦¨à¦°":5937,"à¦°à¦²à¦¤":5938,"à¦ķà¦ªà¦£":5939,"à¦°à¦®à¦ļ":5940,"à¦°à¦¸à¦®à¦Ĺ":5941,"à¦¤à¦¨à¦°":5942,"à¦²à¦ľà¦²":5943,"à¦¤à¦ĵà¦¯":5944,"à¦¯à§Łà¦¬":5945,"à¦ķà¦Ĩà¦¶":5946,"à¦¨à¦ıà¦ĩà¦Ń":5947,"à§§à§¨à§©à§ªà§«à§¬":5948,"à¦ªà¦®à§Łà¦¦":5949,"à§§à§ªà§«":5950,"à¦²à¦¨à¦¯":5951,"à¦ľà§Łà¦ķà¦°":5952,"à¦¤à¦Ĩà¦ªà¦¡":5953,"à¦¯à¦ıà¦¸":5954,"à¦¶à¦ĵà¦¦":5955,"à¦£à¦¤à¦¥":5956,"à¦²à¦°à¦®":5957,"à¦ļà¦¨à¦ķà¦°à¦¤":5958,"à¦ĩà¦¬à¦²à¦Ľ":5959,"à¦¤à¦®à¦§":5960,"à¦ľà¦ıà¦ķ":5961,"à¦ĵà¦¦à¦ķ":5962,"à¦²à¦ļà¦ķ":5963,"à§«à§¨à§¦à§¨à§¨":5964,"à¦¨à¦ıà¦ľà¦¨":5965,"à§Łà¦ıà¦ĸà¦¨":5966,"à¦ĩà¦¸à¦Ł":5967,"à¦¬à§ľà¦®":5968,"à¦¨à¦ķà¦²à¦®":5969,"à¦ĵà¦īà¦²":5970,"à¦¬à¦Ľà¦°à¦¤":5971,"à¦ĸà¦¬à¦°à¦¶":5972,"à§§à§¦à§ª":5973,"à§§à§¯à§¯à§«":5974,"à¦¤à¦°à¦ĸ":5975,"à¦¯à¦®à¦¬":5976,"à¦²à¦īà¦ª":5977,"à¦ıà¦ķà¦¦à¦²":5978,"à¦¨à¦¤à¦ķà¦°à¦¤":5979,"à¦Łà¦¸à¦ª":5980,"à¦¼à¦ĥ":5981,"à¦ĵà¦ħà¦ªà¦°":5982,"à¦°à¦¹à¦¶":5983,"à¦°à¦£à¦Ĩà¦ĩà¦ª":5984,"à¦¤à¦ħà¦¨à¦²":5985,"à¦ĵà¦īà¦¤":5986,"à¦¬à¦ł":5987,"à¦°à¦ĩà¦®à¦§":5988,"à¦°à¦®à§Łà¦®à¦¨à¦¸":5989,"à¦¨à¦ķà¦ª":5990,"à¦¤à¦Ŀ":5991,"à¦ĵà¦¬à¦Ļ":5992,"à¦¦à¦¨à¦¡":5993,"à¦¨à¦ľà¦°à¦°":5994,"à¦¨à¦Īà¦¶":5995,"à¦Łà¦ªà¦¦":5996,"à¦ĵà¦ħà¦ª":5997,"à¦ªà¦ªà¦¤":5998,"à¦¬à¦Ĩà¦ªà¦¨":5999,"à¦¤à¦Ĩà¦¶":6000,"à¦ĩà¦ħà¦¬à¦¸":6001,"à¦¨à¦ĩà¦īà¦ª":6002,"à§Łà¦®à¦¦":6003,"à¦¸à¦¬à¦ĸà¦¬à¦°à¦ľà¦¨à¦ª":6004,"à¦°à¦Ĺà¦Ļ":6005,"à¦ĸà¦°à¦¤":6006,"à¦¬à¦ĩà¦ļ":6007,"à¦ķà¦Łà¦ķà¦®à§Łà¦¦":6008,"à¦ªà¦¨à¦ķà¦°à¦²":6009,"à¦¬à¦°à¦°à¦¹à¦®":6010,"à¦¸à¦ıà¦Ł":6011,"à¦°à¦¥à¦®à¦ľ":6012,"à¦¦à¦¸à¦¹":6013,"à¦°à¦Ĩà¦ŀ":6014,"à¦¾à§į":6015,"à¦¶à¦¨à¦ªà¦°":6016,"à¦®à¦ľà¦¬":6017,"à§§à§¯à§Ńà§©":6018,"à¦°à¦¥à¦®à¦¯":6019,"à¦¤à¦ĵà¦¨":6020,"à¦Ńà¦§":6021,"à¦¨à¦ıà¦°à¦ķ":6022,"à§ĥà¦Ĥ":6023,"à¦¯à¦Ŀ":6024,"à¦°à¦¥à¦®à¦Ń":6025,"à¦ķà¦°à¦ľ":6026,"à¦ªà¦¦à¦ķà¦ª":6027,"à¦ľà¦ı":6028,"à¦Łà¦°à¦ľà¦®":6029,"à¦¤à¦īà¦ļ":6030,"à¦Ńà¦ķà¦°à¦¬":6031,"à¦°à¦®à¦Ĺ":6032,"à¦¤à¦¨à¦§à¦°":6033,"à¦°à¦¸à¦«à¦²à¦¤":6034,"à§§à§¨à§©à§ªà§«à§¬à§Ńà§®":6035,"à¦¤à¦°à¦ķà¦°à¦¤":6036,"à¦«à¦²à¦¶":6037,"à¦Ńà¦«":6038,"à¦¨à§Łà¦ª":6039,"à¦¶à¦¬à¦¸":6040,"à¦¨à¦ħà¦°à¦°à¦¶":6041,"à¦¨à¦®à¦®à¦¤":6042,"à¦īà¦²à¦«":6043,"à¦ļà¦¨à¦¦":6044,"à¦¦à¦ķà¦ªà¦¦":6045,"à¦ĩà¦Łà¦°":6046,"à¦¥à¦²à¦¥":6047,"à¦°à¦ĩà¦īà¦ķ":6048,"à¦¨à¦°à¦¤":6049,"à¦¯à¦¸à¦°à¦¬à¦°":6050,"à¦¨à¦ĩà¦ķ":6051,"à¦¨à¦¬à§ľ":6052,"à¦¹à¦ľà¦®":6053,"à¦¬à¦°à¦ļà¦¨":6054,"à¦·à§Łà¦ķà¦¸":6055,"à§Łà¦¸à¦¤":6056,"à¦°à¦Ĩà¦¸à¦°":6057,"à¦¦à¦ħ":6058,"à§Łà¦Ĩà¦¤":6059,"à¦¬à§ľà¦Ń":6060,"à§§à§©à§¨":6061,"à¦®à¦¶à¦°":6062,"à¦ıà¦°à¦ªà¦°à¦¬":6063,"à¦ľà§Łà¦¬":6064,"à¦ĺà¦¬à¦¦":6065,"à¦¥à¦ıà¦¬":6066,"à¦ĩà¦ľà¦ķà¦°":6067,"à¦¨à¦¦à¦ª":6068,"à¦°à¦¸à¦¬à¦ª":6069,"à¦Łà¦¸à¦¡":6070,"à¦¤à¦°à¦£à¦¸":6071,"à¦Łà¦¨à¦¯":6072,"à¦°à¦īà§İà¦¸à¦®":6073,"à¦ıà¦¸à¦®à§Łà¦īà¦ªà¦¸":6074,"à¦°à¦¬à§Ł":6075,"à¦°à¦·à¦·":6076,"à¦¬à§Łà¦ķ":6077,"à¦ĵà¦¦à¦°":6078,"à¦°à¦®à¦¨à¦ķ":6079,"à¦²à¦¨à¦ļ":6080,"à¦£à¦¹à¦¤":6081,"à¦¬à¦ķà¦¦à¦²":6082,"à¦°à¦°à¦ª":6083,"à¦°à¦¤à¦°à¦«à¦¥":6084,"à¦ıà¦¬à¦Ľà¦°":6085,"à¦Ĺà¦°à¦¯":6086,"à¦¨à¦¤à¦ª":6087,"à¦Ķà¦ªà¦¨":6088,"à¦ĩà¦°à¦¯":6089,"à¦²à¦Ĺà¦ķà¦°":6090,"à¦ªà¦°à¦ª":6091,"à¦°à¦£à¦¹à§Ł":6092,"à¦¸à¦ľà¦¨":6093,"à¦ĸà¦ħà¦¨":6094,"à¦°à¦ĵà¦Ł":6095,"à¦¨à¦¯à¦¶":6096,"à¦®à¦°à¦¸":6097,"à¦Ńà¦¥":6098,"à¦ĵà¦ķà¦¨à¦«":6099,"à¦Ńà¦¬à¦¨à¦¯":6100,"à¦¸à¦°à¦¯":6101,"à¦¬à¦ı":6102,"à¦Ĺà¦ħ":6103,"à¦®à¦¤à¦ĸà¦¨":6104,"à¦ĩà¦īà¦ıà¦¨":6105,"à¦°à¦Ĺà¦łà¦¨":6106,"à¦īà¦²à¦ķ":6107,"à¦ªà¦¦à¦ľ":6108,"à¦Ĩà¦ļà¦®à¦ķ":6109,"à¦Łà¦¸à¦®à¦¯":6110,"à¦ħà¦¥à¦ļà¦¤":6111,"à¦ľà¦°à¦ľ":6112,"à¦ĵà¦®à¦°à¦«":6113,"à¦¯à¦¤à¦®à¦¬":6114,"à¦ķà¦Ľà¦¬":6115,"à¦®à¦ĵà¦¨":6116,"à¦°à¦²à¦ª":6117,"à¦°à¦ĵà¦«":6118,"à¦¨à¦Ĩà¦°à¦¨":6119,"à¦ĵà¦ľà¦²":6120,"à¦®à¦īà¦®":6121,"à¦¤à¦°à¦²":6122,"à¦¦à¦¸à¦Ń":6123,"à¦¯à¦¸à¦Ń":6124,"à¦ıà¦ĸà¦¨à¦ħà¦¨":6125,"à§©à§¨à§¦à§¨à§¨":6126,"à¦¸à¦®à¦¹":6127,"à¦¥à¦¨à¦¦":6128,"à¦ĩà¦¸à¦¸":6129,"à¦¸à¦ķà¦²à¦¶":6130,"à¦ĩà¦¬à¦¡":6131,"à¦ıà¦°à¦¥":6132,"à¦¨à¦¸à§ľ":6133,"à¦®à¦ķà¦°à¦£à¦ķà¦°":6134,"à¦¸à§ľà¦ķà¦ªà¦°":6135,"à¦¹à§Łà¦¬à¦²":6136,"à¦ªà¦¹à¦²":6137,"à¦Ĩà¦ĩà¦¨à¦Ĺà¦¤à¦¬":6138,"à§¨à§©à§ªà§¬":6139,"à¦¡à¦Ĩà¦¬":6140,"à¦łà¦ķà¦¬":6141,"à¦¦à¦ķà¦¸à¦¹":6142,"à¦Łà¦ıà¦¸":6143,"à¦¦à¦¬à¦°":6144,"à¦ķà¦¬à¦Ľà¦°à¦§à¦°":6145,"à¦ıà¦ĸà¦¨à¦Ĩà¦ªà¦¨":6146,"à¦ļà¦²à¦Ł":6147,"à¦²à¦ĵà¦°":6148,"à¦°à¦®à¦£à¦¨":6149,"à¦ıà¦ķà¦ĩà¦¸à¦®à§Ł":6150,"à¦¦à¦¨à¦¯":6151,"à§§à§Ńà§«":6152,"à¦°à¦ªà¦°à¦Ĩ":6153,"à¦¨à¦ıà¦ķà¦®":6154,"à§Łà¦ľà¦°":6155,"à§§à§¯à§¯à§©":6156,"à¦®à¦ĵà¦ª":6157,"à¦·à¦£à¦°":6158,"à¦ĩà¦²à¦ĵà¦¯":6159,"à¦°à¦ĸà¦¬à¦°à¦ķ":6160,"à§Łà¦ħà¦Ĺ":6161,"à¦ĵà¦ĵà§Ł":6162,"à¦Łà¦¶à¦¨":6163,"à§Łà¦ıà¦¨":6164,"à§ĥà¦ĥ":6165,"à¦®à¦£à¦ª":6166,"à¦²à¦ĩà¦¸":6167,"à¦ĩà¦Łà¦²":6168,"à§§à§©à§ª":6169,"à¦ªà¦īà¦¦":6170,"à¦Łà¦ªà§ľ":6171,"à¦¨à¦ĩà¦Ń":6172,"à¦ľà¦ĺ":6173,"à¦ıà¦¨à¦Ł":6174,"à§§à§©à§Ń":6175,"à¦ªà¦¨à¦¤":6176,"à¦®à¦¸à¦ķ":6177,"à¦¬à¦°à¦ıà¦¬":6178,"à¦®à¦ħà¦Ń":6179,"à§Łà¦¤à¦ĸà¦¨":6180,"à¦¡à¦¹à§Ł":6181,"à§¨à§¨à§«":6182,"à¦ĩà¦²à¦Ń":6183,"à¦ĩà¦ıà¦°à¦ķ":6184,"à¦¬à¦¬à¦ľ":6185,"à§Łà¦ľà¦®":6186,"à¦ıà¦ĩà¦ļà¦Ł":6187,"à¦ıà¦ĩà¦°à¦ķà¦®":6188,"à§§à§¦à§§à§¨":6189,"à¦Łà¦¹à¦ĵà§Ł":6190,"à¦®à¦¸à¦¦à¦¸":6191,"à§¨à§¯à§¨à§¦à§¨à§¨":6192,"à¦ĵà¦°à¦¯":6193,"à¦¦à¦ķà¦°à¦¬":6194,"à§§à§©à§§à§ªà§§à§«":6195,"à¦®à¦¤à¦°":6196,"à¦®à¦ķà¦¤":6197,"à¦®à¦¸à¦ļ":6198,"à¦ıà¦¸à¦¬à¦¨":6199,"à¦Ŀà¦Ĺà§ľ":6200,"à¦²à¦¦à¦²":6201,"à¦Ĩà¦ļà¦°à¦£à¦ķà¦°":6202,"à¦ľà¦Ĺà¦¦":6203,"à§§à§¨à§¨à§¦à§¨à§¨":6204,"à¦®à¦¨à¦¹à¦¬":6205,"à¦ĺà¦¨à¦ķà¦°":6206,"à¦²à¦¸à¦¸":6207,"à¦®à¦ħà¦«":6208,"à¦ĩà¦ĺà¦Ł":6209,"à¦°à¦Ĩà¦ĩ":6210,"à¦ľà¦¤à¦¬":6211,"à§§à§¬à§®":6212,"à¦²à¦ĩà¦ŀ":6213,"à¦ķà¦®à¦ķ":6214,"à¦ĩà¦ķà¦ª":6215,"à§¨à§¦à§©à§¦":6216,"à¦¨à¦ĵà¦²":6217,"à¦°à¦¦à¦²à¦¨":6218,"à¦¬à¦¶à¦°":6219,"à¦ªà¦Ĩà¦²":6220,"à¦²à¦ħà¦¬à¦¸":6221,"à¦ĩà¦ıà¦ķà¦®":6222,"à¦ķà¦¬à¦ķ":6223,"à¦ªà¦¬à¦¨":6224,"à¦°à¦ĵà¦ªà¦°à¦¸":6225,"à¦ķà¦¸à¦Ļ":6226,"à¦ķà¦Ĩà¦īà¦Ł":6227,"à¦§à¦¹à¦ĵà§Ł":6228,"à¦¬à¦ħà¦Ń":6229,"à¦¹à¦Ĩà¦ªà¦¨":6230,"à¦ļà¦¨à¦®":6231,"à¦ıà¦ķà¦ħà¦¨":6232,"à§§à§¨à§©à§§à§©à§§":6233,"à§®à§®à§¦à§¯à§¬à§§à§¨":6234,"à§¨à§§à§®à§§à§®à§®à§¦":6235,"à§¨à§®à§ªà§©à§¨à§§à§®à§¨":6236,"à§®à§®à§¦à§¨à§®à§ªà§©à§¨à§©à§ªà§¬":6237,"à§®à§®à§¦à§¨à§®à§ªà§©à§¨à§§à§®à§§à§®à§®à§¦":6238,"à§®à§®à§¦à§§à§Ńà§¨à§¯à§¦à§Ńà§¬à§¯à§¯à§¯":6239,"à§®à§®à§¦à§§à§Ńà§¨à§¯à§¦à§Ńà§¬à§¯à§¯à§¬":6240,"à§®à§®à§¦à§¯à§¬à§§à§¨à§§à§¨à§©à§§à§©à§§":6241,"à§®à§®à§¦à§¨à§®à§ªà§©à§¨à§§à§®à§§à§®à§®à§¦à§¨à§®à§ªà§©à§¨à§§à§®à§¨":6242,"à§®à§®à§¦à§§à§Ńà§¨à§¯à§¦à§Ńà§¬à§¯à§¯à§¬à§®à§®à§¦à§§à§Ńà§¨à§¯à§¦à§Ńà§¬à§¯à§¯à§¯":6243,"à¦°à¦®à¦¨à¦Ĺ":6244,"à¦°à¦Ńà¦Ļ":6245,"à§Łà¦ķà¦¸à¦°à¦ķ":6246,"à¦·à¦ĵ":6247,"à¦¹à¦¤à¦ª":6248,"à¦¦à¦Ĩà¦²à¦®":6249,"à¦°à¦£à¦¤à¦¬":6250,"à¦ħà¦°à¦£":6251,"à¦ķà¦Ĩà¦ľ":6252,"à¦®à¦¦à¦ĸ":6253,"à¦ªà¦ħà¦°":6254,"à¦¸à¦°à¦£à¦ķà¦°à¦¤":6255,"à¦¨à¦¬à¦Ĺ":6256,"à¦¨à¦¸à¦¹à¦ľ":6257,"à¦ĩà¦Łà¦ıà¦¬":6258,"à¦°à¦ĵà¦ªà¦°à¦ļ":6259,"à¦¸à¦¨à¦®à¦¨":6260,"à¦¤à¦®à¦²":6261,"à¦ıà¦ĸà¦¨à¦ĵà¦ªà¦°":6262,"à§¯à§§à§¦à§§à§§à§§à§¨":6263,"à¦Ńà¦¤":6264,"à¦¦à¦¨à¦¤":6265,"à¦¡à¦¨à¦¬":6266,"à¦ķà¦Ńà¦Ł":6267,"à§Łà¦Ńà¦¬à¦¨":6268,"à¦¬à¦¹à¦¨à¦ĵà¦¸":6269,"à¦¯à¦¤à¦®à¦ķ":6270,"à¦®à¦¹à¦¸":6271,"à¦ªà¦Ĩà¦ªà¦¨":6272,"à§¨à§ªà§¦":6273,"à¦ıà¦ĩà¦ļà¦ıà¦®":6274,"à¦²à¦§à¦¨":6275,"à¦ĩà¦¸à¦¬à¦ļ":6276,"à¦¯à¦¯à¦¦":6277,"à§§à§«à§®":6278,"à¦Ĩà¦Łà¦ķà¦¸":6279,"à¦Ĺà¦£à¦§à¦°":6280,"à¦¸à¦Ĩà¦¬":6281,"à§§à§«à§©":6282,"à§Łà¦¨à¦ľ":6283,"à¦ľà¦®à¦¨":6284,"à¦¹à¦¤à¦¹":6285,"à¦¨à¦¬à¦²à¦Ľ":6286,"à¦ĩà¦ĺà¦°":6287,"à¦°à¦ħà¦¬à¦¹":6288,"à¦®à§Łà¦ª":6289,"à¦¦à¦¨à¦ķà¦°à¦²":6290,"à¦ļà¦°à¦£à¦ķà¦°":6291,"à¦ķà¦¦à¦²à¦Ĺ":6292,"à¦¬à¦¹à§Ł":6293,"à¦ĸà¦«à¦ľà¦²":6294,"à¦Łà¦ķà¦¯":6295,"à¦°à¦Ĺà¦Ńà¦°":6296,"à§§à§¬à§Ń":6297,"à¦ĩà¦°à¦ķ":6298,"à¦¨à¦ĵà¦ļ":6299,"à¦Łà¦ľà¦¨":6300,"à¦ĩà¦®à¦®":6301,"à¦¤à¦ªà¦¶":6302,"à¦°à¦¸à¦¬à¦¬":6303,"à¦°à¦ªà¦°à¦«":6304,"à§İà¦Ĺ":6305,"à¦¨à¦Ĩà¦²à¦¹":6306,"à§§à§Ńà§¦":6307,"à§§à§©à§¬":6308,"à¦ķà¦¶à¦¨à¦¬":6309,"à¦ĺà¦¸à¦®à¦¯":6310,"à¦ķà¦Ļ":6311,"à¦Ĩà¦«à¦ľ":6312,"à¦¨à¦ĩà¦ª":6313,"à¦ªà¦ıà¦²":6314,"à¦¦à¦ķà¦°à¦²":6315,"à¦°à¦¹à¦£à¦ķà¦°à¦²":6316,"à¦ļà¦²à¦Ĺ":6317,"à¦īà¦ľà¦«":6318,"à¦īà¦¸à¦ķ":6319,"à¦ıà¦ķà¦ľà¦¨à¦Ń":6320,"à¦īà¦ªà¦ķà¦°à¦£à¦¬":6321,"à¦ĵà¦¹à¦¯":6322,"à¦ĵà¦ıà¦ĩà¦ļà¦¡":6323,"à¦°à¦ķà¦®à¦°à¦ª":6324,"à¦¬à¦ħà¦²":6325,"à¦¯à¦¶à¦ķ":6326,"à¦¤à¦®à¦¤à¦¬":6327,"à¦¨à¦ħà¦ľ":6328,"à¦ļà¦¨à¦¬":6329,"à§§à§¯à§®à§¦":6330,"à¦¤à¦¸à¦Ļ":6331,"à¦ªà¦ķà¦¡à¦®":6332,"à§Łà¦¸à¦ķà¦²":6333,"à¦ªà¦¦à¦Ĺ":6334,"à¦¨à¦®à¦£":6335,"à¦ªà¦ķà¦¦":6336,"à¦ªà¦¨à¦¤à¦¥":6337,"à¦¦à¦°à¦²":6338,"à¦Łà¦ķà¦¶":6339,"à¦°à¦®à¦¤à¦¦":6340,"à¦®à¦ķà¦Ń":6341,"à§©à§«à§¦":6342,"à¦§à¦ħà¦°":6343,"à¦°à¦ªà¦°à¦ħà¦¨":6344,"à¦ĵà¦ĩà¦īà¦¨":6345,"à¦¶à¦®à¦¹":6346,"à§Łà¦ļà¦Ł":6347,"à¦ĸà¦ķà¦®":6348,"à¦£à¦¤à¦¹à¦¬":6349,"à¦¬à¦¨à¦ķà¦°à¦¤":6350,"à¦¬à¦°à¦¸à¦®":6351,"à¦°à¦ľà¦Ł":6352,"à¦¸à¦¨à¦Ń":6353,"à¦ķà¦¨à¦¯":6354,"à¦°à¦ħà¦¹":6355,"à¦¨à¦ħà¦Ļ":6356,"à¦¸à¦«à¦²à¦Ń":6357,"à¦ıà¦°à¦ħà¦§":6358,"à¦¬à¦¨à¦«":6359,"à¦Ĺà§ľà¦¤":6360,"à¦°à¦²à¦¬":6361,"à¦¨à¦Īà¦¦":6362,"à¦¨à¦¤à¦¦à¦¨":6363,"à¦²à§Łà¦Ńà¦°":6364,"à¦¯à¦¸à¦ķà¦²":6365,"à§¯à§§à§¦à§§à§§à§§à§¨à§§à§©à§§à§ªà§§à§«":6366,"à¦¤à¦ļà¦Ł":6367,"à¦ľà¦¢":6368,"à¦¦à¦°à¦Ĺ":6369,"à¦°à¦ķà¦Ń":6370,"à¦¬à¦¹à¦¬":6371,"à§Łà¦¸à¦®à§Ł":6372,"à¦Ĺà¦ĵà¦¬":6373,"à¦Ńà¦¬à¦ª":6374,"à¦²à¦Ľà§ľ":6375,"à¦°à¦«à¦ľ":6376,"à¦ıà¦®à¦Ń":6377,"à¦¸à¦ĩà¦¸à¦²":6378,"à¦Ĩà¦Łà¦ķà¦¬":6379,"à¦²à¦Ĩà¦ľà¦¹":6380,"à¦°à¦ľà¦¨à¦¨à¦®":6381,"à¦°à¦ļà¦²à¦¤":6382,"à¦ıà¦ĸà¦¨à¦ĵà¦¬":6383,"à¦Ļà¦¨":6384,"à¦¤à¦ĩà¦¸":6385,"à¦ªà¦ĵà¦¬":6386,"à¦ķà¦¬à¦¡":6387,"à¦¨à¦ıà¦°à¦®":6388,"à¦¬à¦ĩà¦ªà§ľ":6389,"à¦°à¦Īà¦®":6390,"à¦¬à¦ľà¦¨à¦°":6391,"à§Łà¦īà¦ªà¦¸":6392,"à¦¤à¦ªà¦¤":6393,"à¦°à¦ĸà¦¬à¦°à¦¨":6394,"à¦«à¦ļ":6395,"à§§à§¯à§®à§§":6396,"à¦¨à¦Ĺà¦°à¦¸":6397,"à¦¥à¦Ľ":6398,"à¦ĸà¦Ĩà¦®":6399,"à§§à§ªà§¯":6400,"à¦¸à¦ķà¦¨":6401,"à¦ķà¦Ĩà§Ł":6402,"à¦¨à¦®à¦¨à¦¸":6403,"à¦ĩà¦ªà¦¤":6404,"à¦ĵà¦ĩà¦¯":6405,"à¦®à¦ĩà¦°à¦¹":6406,"à¦¨à¦Ĳ":6407,"à¦¨à¦īà¦ªà¦¸":6408,"à¦¦à¦ĩà¦¸à¦²":6409,"à¦®à¦¦à¦Ĩà¦¬à¦¦":6410,"à¦¸à¦¦à¦°à¦ķ":6411,"à¦·à¦ķà¦Ĩà¦¬":6412,"à¦°à¦ĭà¦£":6413,"à¦¸à¦¨à¦°":6414,"à¦°à¦ıà¦ĩà¦°":6415,"à¦ħà¦¬à¦¨":6416,"à¦°à¦ħà¦¯":6417,"à§¨à§©à§¨à§ªà§¨à§«":6418,"à¦łà¦°":6419,"à§¨à§ªà§Ń":6420,"à¦Ĩà¦°à¦¥":6421,"à¦§à¦°à¦Ľ":6422,"à¦²à¦¤à¦°":6423,"à¦¶à¦¹à¦°à¦Ł":6424,"à¦°à¦®à¦¤à¦²à¦¬":6425,"à¦¸à¦¬à¦Ł":6426,"à¦ªà¦ķà¦¤":6427,"à¦°à¦ıà¦ķà¦¹":6428,"à§Łà¦°à¦¨":6429,"à¦ļà¦®à¦¶":6430,"à¦¶à¦¤à¦¶":6431,"à¦¶à¦ªà¦¥à¦¨":6432,"à¦ıà¦®à¦ıà¦²":6433,"à¦ªà¦¨à¦ķà¦°à¦¬":6434,"à§§à§¬à§§à§Ńà§§à§®à§§à§¯":6435,"à¦Ĩà¦Łà¦ķà¦ª":6436,"à¦°à¦¬à¦¸à¦¬":6437,"à§Łà¦ħà¦ŀ":6438,"à¦¯à¦ħà¦¬à¦¶":6439,"à¦¹à¦ĩà¦¸à¦²":6440,"à¦¸à¦¹à¦¸à¦Ń":6441,"à¦²à¦ĵà¦¦":6442,"à¦¯à¦ľà¦¨à¦ķ":6443,"à§¨à§®à§¨à§¯à§©à§¦":6444,"à¦¤à¦¬à¦¬":6445,"à¦ĸà¦¬à¦°à¦®":6446,"à§Ģà¦Ĥ":6447,"à¦¸à¦¦à¦°à¦¥":6448,"à§§à§¯à§¯à§ª":6449,"à§Łà¦¸à¦ķ":6450,"à§§à§¨à§¦à§¦":6451,"à¦°à¦¬à¦¸à¦¤":6452,"à¦°à¦«à¦²à¦¨":6453,"à¦Ĺà¦ľà¦¨":6454,"à¦Ĺà¦°à¦¸":6455,"à¦ıà¦¸à¦¬à¦¦":6456,"à¦ĵà¦¶à¦°":6457,"à§Łà¦®à¦¸à¦ľ":6458,"à¦Ĺà¦łà¦¨à¦®":6459,"à¦Ĺà¦łà¦¨à¦ª":6460,"à¦£à¦¬à¦Ļ":6461,"à¦·à¦¹à¦ĵà¦¯":6462,"à¦°à¦²à¦Ļ":6463,"à¦°à¦Ĺà¦°à¦®":6464,"à¦ķà¦ĩà¦°":6465,"à¦¤à¦¹à¦¨à¦¤":6466,"à¦ıà¦ķà¦ĩà¦¸à¦®à¦¯":6467,"à¦ĸà¦¬à¦°à¦°":6468,"à§§à§ªà§©":6469,"à¦¶à¦¬à¦ķ":6470,"à¦īà¦Łà¦ª":6471,"à¦ĸà¦Ĩà¦¬":6472,"à¦°à¦Ĩà¦ĩà¦ķ":6473,"à¦¦à¦Ĩà¦°":6474,"à¦ĩà¦¸à¦ķà¦²":6475,"à¦ľà¦¨à¦®à¦¨":6476,"à§Łà¦ħà¦ªà¦°":6477,"à¦Īà¦°":6478,"à¦ķà¦¨à¦ķ":6479,"à¦¯à¦ıà¦²":6480,"à¦Ĺà¦£à¦Ńà¦¬à¦¨":6481,"à¦¦à¦¹à¦²":6482,"à¦īà¦Łà¦¸":6483,"à¦ĺà¦°à¦ª":6484,"à¦ªà¦¥à¦ļ":6485,"à¦¬à¦Ĺà¦¤":6486,"à¦²à¦ıà¦°à¦ª":6487,"à¦®à§Łà¦²":6488,"à¦°à¦Ńà¦Ĺ":6489,"à¦ķà¦ħà¦¬":6490,"à¦ıà¦¸à¦ĩà¦ĵ":6491,"à¦¬à¦ĵà¦ķ":6492,"à¦°à¦ªà¦°à¦ı":6493,"à¦ĸà§ľ":6494,"à¦ıà¦ķà¦ķà¦°":6495,"à§¨à§©à§¨à§ªà§¨à§«à§¨à§¬à§¨à§Ń":6496,"à¦ħà¦¬à¦¸à¦°à¦ª":6497,"à¦ķà¦ľà¦¨à¦¤":6498,"à¦·à¦Ļ":6499,"à¦ªà¦¸à¦¨":6500,"à¦ļà§Łà¦ķà¦°":6501,"à¦¬à¦¸à¦Ľ":6502,"à¦¯à¦ĸà¦¨à¦¨":6503,"à§¯à§§à§¦à§§à§§à§§à§¨à§§à§©à§§à§ªà§§à§«à§§à§¬à§§à§Ńà§§à§®à§§à§¯":6504,"à§¨à§ªà§©":6505,"à¦¨à¦ĩà¦ŀ":6506,"à§Łà¦ķà§Ł":6507,"à¦£à¦ķà¦®":6508,"à¦£à¦ķà¦°à¦¬":6509,"à¦¨à§Łà¦®":6510,"à§§à§©à§®":6511,"à¦¦à¦§":6512,"à¦¶à¦Ĩà¦Ĺ":6513,"à¦°à¦¸à§ľ":6514,"à¦¯à¦¨à¦¬":6515,"à§Łà¦ħà¦¶":6516,"à¦ķà¦ľà¦¨à¦¬":6517,"à§§à§¨à§ª":6518,"à¦°à¦ĺà¦£":6519,"à¦ķà¦ĵà¦¶":6520,"à¦¤à¦°à¦ħà¦¨":6521,"à§¨à§¦à§¨à§§à§¨à§¨à§¨à§©à§¨à§ªà§¨à§«à§¨à§¬à§¨à§Ń":6522,"à¦¦à¦¹à¦¤":6523,"à¦¦à¦ķà¦Ĺ":6524,"à¦ĩà¦¨à¦Ĩà¦ªà¦ķà¦°":6525,"à¦¨à¦īà§İà¦ª":6526,"à¦ļà¦¶à¦®":6527,"à¦°à¦ľà¦Ĺ":6528,"à¦¯à¦Ĩà¦ĩà¦¨":6529,"à¦°à¦®à¦¤à¦®":6530,"à¦°à¦¬à¦¬":6531,"à¦°à¦®à¦ļà¦²à¦®":6532,"à¦ļà¦ªà¦ł":6533,"à¦ªà¦¨à¦ªà¦°":6534,"à§¯à§§à§¦à§§à§§à§§à§¨à§§à§©à§§à§ªà§§à§«à§§à§¬à§§à§Ńà§§à§®à§§à§¯à§¨à§¦à§¨à§§à§¨à§¨à§¨à§©à§¨à§ªà§¨à§«à§¨à§¬à§¨à§Ń":6535,"à¦ķà¦Łà¦¤":6536,"à¦¶à¦¦à¦²":6537,"à¦°à¦ªà¦°à¦²":6538,"à¦°à¦¸à¦¸":6539,"à¦¤à¦¤à¦Ł":6540,"à§§à§¯à§®à§¬":6541,"à¦°à¦¹à¦£à¦¨":6542,"à¦Ĩà¦ĩà¦¯":6543,"à¦¤à¦¹à§Łà¦ª":6544,"à§Łà¦ıà¦ĸ":6545,"à§Łà¦¸à¦Ļ":6546,"à¦Ĺà¦¹à¦²":6547,"à¦°à¦Ĩà¦¤à¦Ļ":6548,"à§¯à§§à§¦à§§à§§à§§à§¨à§§à§©à§§à§ªà§§à§«à§§à§¬à§§à§Ńà§§à§®à§§à§¯à§¨à§¦à§¨à§§à§¨à§¨à§¨à§©à§¨à§ªà§¨à§«à§¨à§¬à§¨à§Ńà§¨à§®à§¨à§¯à§©à§¦":6549,"à¦¬à¦Ľà¦°à¦¯":6550,"à¦¬à¦ªà¦¦":6551,"à¦°à¦Ńà¦¬à¦¨":6552,"à¦¥à¦¤à¦²":6553,"à¦°à¦ĵà¦ķà¦°":6554,"à¦ĩà¦®à¦ļ":6555,"à§Łà¦Ĩà¦¶":6556,"à§Łà¦¬à¦¦":6557,"à¦ĵà¦ĩà¦ıà¦²":6558,"à¦ªà¦°à¦¨":6559,"à¦¨à¦¸à¦¬à¦ļ":6560,"à¦¦à¦ħà¦°":6561,"à¦·à¦ĺ":6562,"à¦ķà¦¬à¦°à¦ĸ":6563,"à¦¨à§Łà¦¯":6564,"à¦Łà¦°à¦Ĺ":6565,"à¦²à¦¨à¦¸à¦®":6566,"à¦Łà¦ħà¦Ń":6567,"à¦¶à¦Ĺà¦¤":6568,"à¦Ĩà¦ľà¦®à¦Ļ":6569,"à¦²à¦¨à¦ķà¦ķ":6570,"à¦ľà¦°à¦¤":6571,"à¦¤à¦°à¦£à¦ª":6572,"à¦ĩà¦Łà¦¯":6573,"à¦¥à¦°à¦ķ":6574,"à§Łà¦¶à¦¨":6575,"à¦°à¦®à¦¨à¦ľ":6576,"à§ľà¦°":6577,"à§§à§¯à§Ńà§ª":6578,"à¦ľà¦ķà¦¨":6579,"à¦¹à¦¨à¦ķ":6580,"à¦ĩà¦Łà¦ªà¦°":6581,"à¦ıà¦®à¦¨à¦¨":6582,"à§İà¦¸à¦®":6583,"à¦Ĩà¦ľà¦¨":6584,"à¦«à¦ĸ":6585,"à¦īà§İà¦¸à¦¬à¦®":6586,"à¦¶à¦ħà¦§":6587,"à¦·à¦īà¦¦":6588,"à¦Ļà¦¤":6589,"à¦¬à¦¹à¦°":6590,"à¦°à¦ıà¦ķà¦¯":6591,"à¦¥à¦°à¦ĺ":6592,"à¦Łà¦¬à¦²à¦«":6593,"à¦ķà¦īà¦ļ":6594,"à¦ıà¦¸à¦¬à¦¸":6595,"à¦§à¦¨à¦¸à¦®":6596,"à¦ĩà¦ĵà¦Ń":6597,"à§§à§¨à§¬":6598,"à¦¤à¦¤à¦ĵà¦¹":6599,"à¦ļà¦ıà¦¬":6600,"à¦°à§Łà¦Ł":6601,"à¦²à¦ľà¦¨":6602,"à¦ĩà¦¹à§Łà¦¨":6603,"à¦®à¦¹à¦ļ":6604,"à¦¨à¦¸à¦«":6605,"à¦°à¦¥à¦®à¦Ĺ":6606,"à¦¦à¦Ĩà¦Ľ":6607,"à¦§à¦°à¦ļà¦¨":6608,"à¦°à¦£à¦ļ":6609,"à§§à§¬à§«":6610,"à¦¤à¦¨à¦ıà¦¬":6611,"à¦®à¦ıà¦²":6612,"à¦Ĺà¦«à¦°à¦Ĺ":6613,"à¦¨à¦¨à¦Ĺ":6614,"à¦¤à¦ĸà¦¨à¦¦":6615,"à¦ķà¦ĵà¦ķ":6616,"à¦°à¦ķà¦¤à¦Ł":6617,"à¦ķà¦ļà¦°":6618,"à¦²à¦¤à¦ĸ":6619,"à¦īà¦ľà¦¨":6620,"à¦ĸà¦¸à¦®":6621,"à¦¸à¦¹à¦°":6622,"à¦®à¦ļà¦Ł":6623,"à¦īà¦®à¦°":6624,"à¦¤à¦°à¦ļ":6625,"à¦¤à¦ķà¦ķ":6626,"à¦ľà¦ĸà¦¬à¦°à¦¨":6627,"à¦Ľà§Łà¦®":6628,"à¦ıà¦ĩà¦ķà¦°":6629,"à¦ķà¦ıà¦¨":6630,"à¦¤à¦¤à¦®":6631,"à¦Ĺà¦°à¦¦":6632,"à¦¸à¦Ĩà¦ķ":6633,"à¦ķà¦¯à¦¦":6634,"à¦¦à¦ľà¦¨à¦ª":6635,"à¦Łà¦¨à¦ķà¦°":6636,"à¦ļà¦ħà¦¨":6637,"à¦°à¦ªà¦¥à¦ļà¦²":6638,"à¦§à¦¨à¦Ĺ":6639,"à§Łà¦ıà¦ķà¦¦":6640,"à¦¯à¦īà¦²":6641,"à¦¨à¦Ĩà¦°à¦ĵà¦ªà¦¡":6642,"à¦Łà¦ķà¦¸":6643,"à¦¤à¦°à¦ªà¦¶":6644,"à¦¨à¦¬à¦®":6645,"à§Łà¦¨à¦°":6646,"à¦¤à¦Ĩà¦°à¦ĵ":6647,"à¦ĩà¦ıà¦ķà¦¦":6648,"à¦¨à¦°à¦«":6649,"à¦ªà¦¸à¦¹":6650,"à¦¯à¦ħà¦¨à¦²":6651,"à§§à§®à§«":6652,"à¦ķà¦®à¦¡":6653,"à¦¨à¦īà¦ķ":6654,"à¦·à¦ıà¦ķà¦Ł":6655,"à¦ĩà¦¡à¦Ĺ":6656,"à¦°à¦®à¦£à¦®à¦¤":6657,"à¦ķà¦ĵà¦°":6658,"à§§à§¯à§¦":6659,"à¦ĩà¦¨à¦ķà¦¥":6660,"à¦ıà¦ĩà¦®à¦¨":6661,"à¦¯à¦ķà¦°à¦Ń":6662,"à¦ķà¦¸à¦¦à¦¸":6663,"à¦«à¦¨à¦ķà¦°":6664,"à¦ĩà¦²à¦ıà¦¬":6665,"à¦¦à¦¹à¦¯":6666,"à¦§à¦ħà¦®":6667,"à¦¸à¦¨à¦¤":6668,"à¦®à¦ĵà¦¤":6669,"à§§à§¦à§§à§«":6670,"à¦¨à¦īà¦®":6671,"à¦²à¦¸à¦¡":6672,"à¦ķà¦ħà¦Ļ":6673,"à¦ķà¦Łà¦¬":6674,"à¦«à¦°à¦¯":6675,"à¦¨à¦¯à¦¥":6676,"à¦¸à¦°à¦¤":6677,"à¦Łà¦¨à¦¤":6678,"à¦®à¦¸à¦Ń":6679,"à¦Ĩà¦īà¦Łà¦ª":6680,"à¦¶à¦Ĩà¦°":6681,"à¦ķà¦īà¦ªà¦¨":6682,"à¦ªà¦¸à¦®à¦¯":6683,"à¦ĩà¦°à¦«":6684,"à¦Ĩà¦ľà¦ĸà¦¬à¦°à¦¬":6685,"à¦®à¦ĵà¦¸à¦®":6686,"à¦ķà¦¶à¦¬":6687,"à§©à§©à§©":6688,"à¦®à¦¨à¦¥":6689,"à¦°à¦ļà¦²à¦Ľ":6690,"à¦°à¦ıà¦ĩà¦²":6691,"à¦ĩà¦¨à¦ĩà¦¨à¦ķ":6692,"à¦¤à¦ĸà¦¨à¦¨":6693,"à¦°à¦ħà¦ªà¦ļ":6694,"à¦ĩà¦¶à¦¬":6695,"à¦Ĩà§Łà¦¨":6696,"à¦°à¦īà¦ªà¦°à¦°":6697,"à¦¸à¦¹à¦ľà¦Ń":6698,"à§¨à§ªà§¨à§¦à§¨à§¨":6699,"à¦ªà¦ı":6700,"à¦Łà¦ĩà¦ªà¦¤":6701,"à¦¬à¦Ľà¦°à¦¦":6702,"à¦īà¦ľà¦¶":6703,"à¦°à¦ıà¦ķà¦Ĺ":6704,"à¦¯à¦īà¦ļ":6705,"à¦ľà¦ļà¦Ł":6706,"à¦·à¦®à¦ķà¦°":6707,"à¦īà¦ªà¦ªà¦°":6708,"à¦§à¦Ĩà¦°":6709,"à§§à§¦à§¨à§¦à§¨à§¨":6710,"à¦¨à¦°à¦¹à¦®":6711,"à¦ķà¦¤à¦°":6712,"à¦¸à¦Ĺà§ľ":6713,"à¦ķà¦¨à¦ª":6714,"à¦ıà¦ĩà¦§à¦°à¦£":6715,"à¦¸à¦ķà¦¸":6716,"à¦¬à¦¶à¦¤":6717,"à¦¶à¦ķà¦¨":6718,"à¦ĩà¦ĵà¦¬":6719,"à¦ķà¦¤à¦Ĺ":6720,"à¦Ĩà¦¨à¦Ľ":6721,"à¦ĵà¦²à¦ľ":6722,"à¦¨à¦°à¦¶":6723,"à¦°à¦Ķà¦·":6724,"à¦¹à¦¤à¦®":6725,"à¦ķà¦ĩà¦®":6726,"à¦¥à¦¹à¦ļ":6727,"à¦®à¦¨à¦«":6728,"à¦·à¦ķà¦ªà¦°":6729,"à¦Ĺà¦¤à¦ļ":6730,"à¦²à¦ªà¦¡":6731,"à¦ĩà¦ľà¦ª":6732,"à¦°à¦¸à¦ķà¦²à¦¬":6733,"à¦·à¦Ĩà¦²":6734,"à¦¯à¦ħà¦¬":6735,"à¦¦à¦°à¦ıà¦ķà¦Ł":6736,"à¦²à¦¬à¦¦":6737,"à¦°à¦Īà¦¦à¦īà¦ªà¦¹":6738,"à¦Łà¦ħà¦§":6739,"à¦¨à¦ªà¦ķ":6740,"à¦·à¦ķà¦ľ":6741,"à¦ªà¦°à¦¯":6742,"à¦Ĩà¦¦à¦®":6743,"à¦¦à¦®à¦¹":6744,"à¦°à¦Ńà¦°à¦¸":6745,"à¦¤à¦ħà¦®":6746,"à¦°à¦Ĩà¦°à¦ĵà¦ªà§ľ":6747,"à¦ľà§Łà¦ķ":6748,"à¦¨à¦¬à¦®à¦¶":6749,"à¦ĸà¦ķà¦¬à¦¨":6750,"à¦ĵà¦Ľà¦¬":6751,"à¦ĩà¦¨à§Ł":6752,"à¦ĩà¦²à¦¤":6753,"à¦¨à§Łà¦¨à¦¨":6754,"à¦Ĩà¦°à¦¬à¦¦":6755,"à¦īà¦¨à¦ķ":6756,"à¦łà¦ķà¦¶":6757,"à¦°à¦īà¦ªà¦°à¦ľ":6758,"à¦¹à¦¤à¦ķ":6759,"à¦¨à¦Ńà¦Ł":6760,"à¦Ĺà¦®à¦®":6761,"à¦ĵà¦ħà¦¨à¦²":6762,"à§§à§¯à§®à§ª":6763,"à¦ĩà¦īà¦¬":6764,"à¦Ĺà¦¨à¦¬":6765,"à¦®à¦¨à¦Ĩà¦®":6766,"à¦ķà¦ĩà§Ł":6767,"à¦ıà¦°à¦¸à¦°":6768,"à¦¤à¦¹à¦¨":6769,"à¦Ĺà¦®à¦¤":6770,"à§Łà¦¹à¦¬":6771,"à¦¨à¦¤à¦ķ":6772,"à¦¦à¦¨à¦ľà¦®":6773,"à¦ĵà¦Ŀ":6774,"à¦Ĩà¦ĩà¦¨à¦ħà¦¨":6775,"à¦²à¦¨à¦°":6776,"à¦¯à¦ĩà¦Ń":6777,"à¦¯à¦Ĩà¦ķ":6778,"à¦ķà¦°à¦£à¦ķà¦°":6779,"à¦ķà¦ľà¦¨à¦¨":6780,"à¦°à¦ħà¦¸à¦®":6781,"à¦²à¦ķà¦ľ":6782,"à¦¨à¦Ĩà¦ĵà¦¯":6783,"à¦¦à¦¹à¦¬":6784,"à¦īà¦Ĩà¦®":6785,"à¦¶à¦Ĩà¦²":6786,"à¦Ĺà¦°à¦®à¦ª":6787,"à¦ĵà¦Ĩà¦¶":6788,"à¦ªà¦¹à¦¯":6789,"à¦²à¦ķà¦ªà¦°":6790,"à¦¸à¦¦à¦°à¦°":6791,"à¦¹à¦ķà¦¹":6792,"à¦°à¦¦à¦ĵà¦ªà¦°":6793,"à¦Ĺà¦¤à¦¬à¦ķ":6794,"à¦Łà¦ķà¦ķ":6795,"à¦·à¦ķà¦Ĺ":6796,"à¦«à§Ł":6797,"à¦ıà¦ķà¦ĩà¦ªà¦°":6798,"à¦ķà¦ľà¦®":6799,"à¦¹à§Łà¦ıà¦°à¦ª":6800,"à¦¯à¦¸à¦Ļ":6801,"à¦¤à¦ªà¦¨":6802,"à¦¬à¦°à¦¸à¦¨":6803,"à¦®à¦¯à¦¦":6804,"à§§à§¯à§®à§¯":6805,"à§Łà¦ıà¦Ĺ":6806,"à¦·à¦ªà¦¦":6807,"à¦¶à¦ĩà¦¨":6808,"à¦¯à¦ıà¦ĩà¦¬":6809,"à¦°à¦¥à¦®à¦ļ":6810,"à¦łà¦ķà¦ķ":6811,"à¦¹à¦²à¦Ń":6812,"à§Ńà§©à§¦":6813,"à¦°à¦¥à¦®à¦§":6814,"à¦ĸà¦ĺà¦°":6815,"à§¨à§«à§«":6816,"à¦¬à¦°à¦ħà¦ªà¦°":6817,"à¦¸à¦ĵà¦®":6818,"à§Łà¦°à¦ľ":6819,"à¦°à¦ħà¦¸à¦¹":6820,"à¦ıà¦¨à¦ıà¦¸":6821,"à¦ķà¦Ľà¦²":6822,"à¦ķà¦°à§Ł":6823,"à¦¦à¦¸à¦°à¦ķ":6824,"à¦ĵà¦ļà¦²":6825,"à¦¨à¦¤à¦°à¦ª":6826,"à¦Ľà§Łà¦Ł":6827,"à¦²à¦ıà¦ĸà¦¨":6828,"à¦°à¦¹à¦Ł":6829,"à¦Īà¦¨à¦īà¦¦":6830,"à§§à§¨à§Ń":6831,"à¦°à¦īà¦ªà¦¬":6832,"à¦°à¦Ĩà¦Ĺà¦ªà¦°":6833,"à¦¬à¦ķà¦°à¦¤":6834,"à¦ĸà¦ķà¦Ĩà¦²à¦®à¦¶":6835,"à¦ļà¦ķà¦ļà¦ķ":6836,"à¦·à¦ķà¦°à¦²":6837,"à¦¶à¦ıà¦¸":6838,"à¦ĩà¦¸à¦¦":6839,"à§ľà¦Ł":6840,"à¦ıà¦ķà¦«":6841,"à¦°à¦Ĩà¦ĩà¦Ł":6842,"à¦®à¦ħà¦¸":6843,"à¦¶à¦¤à¦ķà¦°":6844,"à¦§à¦Ĩà¦®":6845,"à§Łà¦ĺà¦Łà¦¨":6846,"à¦ķà¦ĵà¦ħà¦°":6847,"à¦¤à¦Ĺà¦°":6848,"à¦°à¦ĩà¦īà¦ı":6849,"à¦ķà¦¤à¦ĸà¦¨":6850,"à¦®à¦ĩà¦¬à¦¨":6851,"à¦īà¦¡à¦ħà¦Ń":6852,"à¦°à¦®à¦ķà¦°à¦¤":6853,"à¦°à¦¡à¦Łà¦ķà¦®":6854,"à¦¸à¦Ĩà¦¹à¦®":6855,"à§©à§ªà§¬":6856,"à¦²à¦Ĩà¦īà¦Ł":6857,"à¦Ĺà¦¹à¦¤":6858,"à¦¶à¦ĩà¦¤":6859,"à¦ľà¦¨à¦ķà¦®":6860,"à¦®à¦ĩà¦īà¦¨":6861,"à¦¨à¦Ńà¦¬à¦¨":6862,"à§Łà¦ıà¦°à¦ª":6863,"à¦°à¦¸à¦ĸ":6864,"à¦ħà¦²à¦°":6865,"à¦°à¦ĵà¦¡":6866,"à§¨à§§à§Ń":6867,"à¦¨à¦¸à¦¹à¦¬":6868,"à§¨à§ªà§ª":6869,"à¦ķà¦¸à¦Ł":6870,"à¦ķà¦ľà¦¨à¦¸":6871,"à¦¦à¦¨à¦¹":6872,"à¦¹à¦¯à¦°à¦¤à¦Ĩà¦¬":6873,"à¦Łà¦ł":6874,"à¦Łà¦°à¦¶":6875,"à¦£à¦Ĺà¦¤à¦®":6876,"à¦²à¦ķà¦Ĺ":6877,"à¦¶à¦°à§İà¦ļà¦¨":6878,"à¦¦à¦¶à¦ľ":6879,"à¦¸à¦¦à¦ķ":6880,"à¦¨à¦¦à¦¯":6881,"à¦ĵà¦Ĩ":6882,"à¦Ńà¦¡":6883,"à¦¹à¦¡":6884,"à¦ªà¦ķà¦¨":6885,"à¦Ĩà¦°à¦ķà¦ĸà¦¨":6886,"à¦ĩà¦¡à¦Ł":6887,"à¦¦à¦ĵà¦¦":6888,"à¦°à¦ļà¦°à¦®":6889,"à¦ıà¦ķà¦Ľ":6890,"à¦¹à¦²à¦ľ":6891,"à¦ĸà¦ķà¦ķ":6892,"à¦®à¦ıà¦¤":6893,"à¦¬à¦°à¦ħà¦¨":6894,"à¦Ĺà¦¹à¦¯":6895,"à¦²à¦ħà¦ª":6896,"à¦¨à¦¸à¦¬à¦ķ":6897,"à¦ķà¦Ńà¦¬à¦¨":6898,"à¦ĵà¦ĩà¦°":6899,"à¦Ĺà¦¸à¦¹":6900,"à§§à§ªà§®":6901,"à¦¤à¦Ĩà¦¤":6902,"à¦Łà¦ľà¦¨à¦ª":6903,"à¦ĩà¦¶à¦ķ":6904,"à¦¸à¦¸à¦¬":6905,"à¦Ĩà¦ľà¦¶à¦¨":6906,"à§Łà¦¨à¦¹à§Ł":6907,"à¦¨à¦īà¦ł":6908,"à¦«à¦¡":6909,"à¦ıà¦¸à¦¬à¦®":6910,"à¦°à¦¬à¦¶":6911,"à¦¤à¦¬à¦¡":6912,"à¦ľà¦ħà¦°":6913,"à¦ªà¦Ĺà¦²":6914,"à¦¬à¦¤à¦®":6915,"à¦ĵà¦ĩà¦Ĺ":6916,"à¦ħà¦«à¦²":6917,"à¦¹à¦²à¦°":6918,"à¦¬à¦²à¦Ĺ":6919,"à¦·à¦¸à¦¨":6920,"à¦²à¦Ĩà¦²à¦®à¦®":6921,"à¦ĩà¦ħà¦§":6922,"à¦ļà§Łà¦¨":6923,"à§¨à§ªà§®":6924,"à¦°à¦Ĩà¦¨à¦ª":6925,"à§§à§«à§¯":6926,"à¦¯à¦®à¦ª":6927,"à¦Ńà¦¸à¦ķ":6928,"à¦°à¦īà¦ªà¦°à¦¥":6929,"à¦Ĩà¦ĩà¦¨à¦ķ":6930,"à¦¶à¦ħà¦®":6931,"à¦ĸà¦ķà¦°à¦¤":6932,"à¦¶à¦¨à¦ħà¦«":6933,"à§Łà¦¨à¦Ĺà¦°":6934,"à¦ıà¦ķà¦ĩà¦ķ":6935,"à§©à§¨à§®":6936,"à¦¦à¦ļà¦Ł":6937,"à¦¨à¦¹à¦ł":6938,"à¦¯à¦ł":6939,"à¦¶à¦²à¦Ĺ":6940,"à¦¹à§Łà¦«":6941,"à¦¯à¦ĩà¦¦":6942,"à¦īà¦ī":6943,"à¦¨à¦ļà¦²à¦¤":6944,"à¦ķà¦°à¦¶":6945,"à¦łà¦ļ":6946,"à¦ĭà¦£à¦¬":6947,"à¦¨à¦¹à§Łà¦°":6948,"à¦¦à¦ĵà¦¸":6949,"à¦ĸà¦ķà¦¹":6950,"à¦¸à¦ıà¦°à¦ª":6951,"à¦ªà¦ļà¦ķ":6952,"à¦ħà¦¬à¦¸à¦°":6953,"à¦¹à¦¤à¦¤":6954,"à¦Ĩà¦ľà¦ªà¦°":6955,"à¦ĩà¦Ĺà¦°":6956,"à¦°à¦¬à§ľà¦Ń":6957,"à¦ľà¦¨à¦Ł":6958,"à¦²à¦¹à¦ķà¦¹":6959,"à¦¹à§Łà¦ıà¦Ł":6960,"à¦¤à¦ķà¦£":6961,"à¦ĵà¦ıà¦²":6962,"à¦§à¦ĵà¦¸":6963,"à§§à§«à§¬":6964,"à¦°à¦¨à¦°":6965,"à¦²à¦ļà¦Ł":6966,"à¦°à¦ķà¦®à¦¸":6967,"à§¨à§¨à§¨":6968,"à¦²à¦Ĩà¦®à¦¦":6969,"à§§à§¯à§«à§¨":6970,"à¦°à¦ķà¦®à¦¨":6971,"à¦²à¦Ĩà§Ł":6972,"à¦°à¦¸à¦¹à¦Ĩà¦Łà¦ķ":6973,"à¦²à¦¹à¦ĵà¦¯":6974,"à¦Īà¦¦à¦®":6975,"à¦ıà¦ıà¦¸":6976,"à¦°à§Łà¦£à¦ª":6977,"à¦¯à¦ħà¦ŀ":6978,"à¦ĩà¦ĩà¦īà¦¨":6979,"à¦²à¦ļà¦²":6980,"à¦®à¦°à¦¯":6981,"à¦®à¦ıà¦¸":6982,"à¦®à¦Ŀ":6983,"à¦¹à¦¹à¦²":6984,"à§Łà¦īà¦ł":6985,"à¦°à¦Ĩà¦°à¦¤":6986,"à¦²à¦ıà¦¦":6987,"à¦ıà¦ķà¦ĩà¦ª":6988,"à¦¯à¦ĩà¦ľ":6989,"à§§à§©à§¯":6990,"à¦°à¦īà¦ªà¦°à¦¯":6991,"à¦¤à¦ļà¦°":6992,"à¦·à¦ļà¦¨":6993,"à¦¨à¦ľà¦Ļ":6994,"à¦²à¦¤à¦Ĩà¦¨":6995,"à¦ĵà¦¬à¦¹":6996,"à¦ľà¦ĩà¦īà¦¨":6997,"à¦¦à¦ķà¦ĵà¦¬":6998,"à¦¨à¦¸à¦®à¦°":6999,"à¦°à¦ľà¦¨à¦Ĺ":7000,"à§Ńà§¨à§Ń":7001,"à§Łà¦¨à¦Ń":7002,"à¦Ĩà¦¤à¦¸à¦®":7003,"à¦ĵà¦ķà¦¥":7004,"à¦°à¦®à¦¨à¦¸":7005,"à¦¶à¦ĺà¦Łà¦¨":7006,"à¦ľà¦¨à¦ķà¦°à¦¬":7007,"à¦¤à¦¨à¦¹à§Ł":7008,"à¦°à¦£à¦ıà¦ķà¦Ł":7009,"à¦¨à§Łà¦¶":7010,"à¦¨à¦ĵà¦ĸ":7011,"à¦¨à¦ľà¦²":7012,"à§§à§¯à§©":7013,"à¦Ĩà¦ľà¦Ĩà¦®à¦°":7014,"à§Łà¦ķà¦¹":7015,"à¦²à¦¤à¦¨":7016,"à¦īà¦Łà¦¨":7017,"à¦¡à¦ĩà¦īà¦¨":7018,"à¦¬à¦¬à¦¨":7019,"à¦Łà¦¬à¦ķ":7020,"à¦¦à¦ķà¦«":7021,"à¦°à¦¶à¦ª":7022,"à¦¯à¦¸à¦¦à¦¸":7023,"à¦°à¦ªà¦°à¦ªà¦°à¦ĩ":7024,"à¦²à¦¹à¦ľ":7025,"à¦¬à¦²à¦¹à§Ł":7026,"à¦¨à¦¬à¦¯":7027,"à¦ıà¦ĸà¦¨à¦ĵà¦ķ":7028,"à¦ĩà¦¸à¦¬à¦ķ":7029,"à¦ķà¦¸à¦ļ":7030,"à¦ķà¦Ĩà¦®à¦°":7031,"à¦¨à¦Ĩà¦ªà¦¡":7032,"à¦¬à¦¸à¦°":7033,"à¦Ĺà¦®à¦¹":7034,"à¦°à¦ıà¦°à¦®à¦§":7035,"à§Łà¦ıà¦Ľ":7036,"à§ªà§¨à§¦à§¨à§¨":7037,"à¦łà¦Ĺ":7038,"à¦°à¦ıà¦°à¦®":7039,"à¦ľà§Łà¦²":7040,"à¦ıà¦ķà¦ľà¦¨à¦°":7041,"à¦ķà¦¹à¦ļ":7042,"à¦·à¦£à¦¯":7043,"à¦°à¦ıà¦ĩà¦ľ":7044,"à¦¨à¦ªà¦¬":7045,"à¦¯à¦¸à¦¤":7046,"à¦Łà¦¸à¦¤":7047,"à¦¸à¦«à¦Ł":7048,"à¦£à¦Ĩà¦²":7049,"à¦ľà¦¨à¦ªà¦¦":7050,"à¦¨à¦Ĺà¦¨":7051,"à¦¦à¦¶à¦¹":7052,"à¦ĭà¦£à¦ª":7053,"à¦°à¦¨à¦ª":7054,"à¦®à¦ıà¦°à¦ª":7055,"à¦ĩà¦«à¦²":7056,"à¦¹à¦°à¦£à¦¦":7057,"à¦Ĺà¦¨à¦®":7058,"à¦ŀà¦¬":7059,"à¦°à¦ıà¦ĩà¦Ĺ":7060,"à¦°à¦¸à¦¬à¦ĸà¦¬à¦°à¦ª":7061,"à§§à§¨à§©à§ªà§«à§¬à§Ńà§®à§¯à§§à§¦à§§à§§à§§à§¨à§§à§©à§§à§ªà§§à§«à§§à§¬à§§à§Ńà§§à§®à§§à§¯à§¨à§¦à§¨à§§à§¨à§¨à§¨à§©à§¨à§ªà§¨à§«à§¨à§¬à§¨à§Ńà§¨à§®à§¨à§¯à§©à§¦":7062,"à§Łà¦¶à¦°":7063,"à¦°à¦¸à¦«à¦°":7064,"à¦·à¦¹à¦ļ":7065,"à§§à§¯à§¬":7066,"à¦¬à¦ªà¦¨à¦ķ":7067,"à¦®à¦ıà¦ĸ":7068,"à¦¦à¦ĵà¦¬":7069,"à¦¬à¦¹à¦¨à¦¶":7070,"à§İà¦«à¦°à¦°à¦¹à¦®":7071,"à¦ķà¦¤à¦®":7072,"à¦·à¦¦à¦¸à¦ļ":7073,"à¦®à¦®à¦Ń":7074,"à¦¨à¦®à¦¸":7075,"à¦®à¦ķà¦°à¦£":7076,"à¦Ĩà¦īà¦Łà¦²":7077,"à¦¸à¦ĵà¦¦":7078,"à¦ªà¦ķà¦¥à¦¨":7079,"à¦²à¦°à§Ł":7080,"à¦°à¦Ĩà¦°à¦®":7081,"à¦¨à¦ıà¦°à¦Ĩà¦¨":7082,"à§ĩà§ĩ":7083,"à¦łà¦¸à¦ª":7084,"à§Łà¦¨à¦Ĺ":7085,"à¦Ĩà¦¤à¦¤":7086,"à¦¹à¦ķà¦ķ":7087,"à¦ĩà¦ħà¦¬à¦¶":7088,"à¦²à¦¸à¦Ļ":7089,"à§¨à§¦à§ªà§§":7090,"à¦¡à¦Ĺà§ľ":7091,"à¦°à¦¸à¦ľ":7092,"à¦ĩà¦ªà¦¦":7093,"à¦§à¦°à§Ł":7094,"à¦Łà¦ħà¦¨à¦²":7095,"à¦¨à¦īà¦ªà¦°":7096,"à¦¬à¦°à¦Ĩà¦®":7097,"à¦°à¦ĩà¦¨à¦ķ":7098,"à¦®à¦Ĩà¦ķ":7099,"à¦īà¦¨à¦ª":7100,"à¦®à§Łà¦ķà¦°":7101,"à¦²à¦¦à¦¶":7102,"à¦¤à¦¹à¦ĩà§Ł":7103,"à¦¨à§Łà¦¨à¦®":7104,"à§§à§«à§ª":7105,"à¦¤à¦°à¦¡":7106,"à¦²à¦Ĺà§ľ":7107,"à¦ĵà¦¤à¦¬":7108,"à¦¤à¦ħà¦¬":7109,"à¦°à¦¸à¦²":7110,"à¦ĩà¦ıà¦°à¦ª":7111,"à¦°à¦£à¦Ĩà¦®à¦°":7112,"à¦ªà¦¹à¦¤":7113,"à¦ķà¦®à¦¹à¦²":7114,"à¦ľà¦®à¦¹":7115,"à¦ıà¦ħà¦Ń":7116,"à¦¥à¦¨à¦ª":7117,"à¦ĩà¦ıà¦°":7118,"à¦Ľà¦¦à¦°":7119,"à§§à§¯à§«":7120,"à¦ķà¦ļà¦²":7121,"à¦īà¦Ńà§Łà¦ªà¦ķ":7122,"à¦¶à¦¨à¦Ľ":7123,"à¦®à¦¤à¦¶":7124,"à¦ıà¦«à¦ıà¦«":7125,"à¦ĸà¦Ĩà¦Ľ":7126,"à¦ĩà¦īà¦¹":7127,"à¦¤à¦¨à¦¹à¦¤":7128,"à¦¨à¦Ĺà¦°à¦ķ":7129,"à¦²à¦ī":7130,"à¦¥à¦¦à¦¤":7131,"à¦¹à¦¤à¦¹à¦¯":7132,"à§Łà¦ĩà¦¸à¦²":7133,"à¦¬à¦²à¦ļ":7134,"à¦¤à¦ıà¦ĸ":7135,"à¦ķà¦ħà¦¤":7136,"à¦¤à¦¹à§Łà¦¯":7137,"à¦ķà¦¬à¦¹":7138,"à¦¶à¦ķà¦¨à¦¸":7139,"à¦°à¦ıà¦ķà¦ľà¦¨à¦¸":7140,"à§§à§§à§¦à§¦":7141,"à¦ļà¦²à¦Ń":7142,"à¦Ĩà¦ªà¦Ĺ":7143,"à¦Ĺà¦ıà¦¨":7144,"à¦łà¦ľ":7145,"à¦¸à¦¦à¦°à¦¹":7146,"à¦°à¦¤à§İà¦ķ":7147,"à¦ıà¦¸à¦®à§Łà¦¸":7148,"à¦ľà¦¶à¦°":7149,"à¦ĩà¦Ĩà¦Ĺà¦¸":7150,"à§§à§¨à§§à§¬":7151,"à¦Ĩà¦Ĩà¦Ĩà¦Ĩ":7152,"à¦¯à¦Ĩà¦ľ":7153,"à¦°à¦Ĺà¦£à¦¤à¦¨":7154,"à¦¦à¦¶à¦¦":7155,"à¦·à¦Ĩà¦Ľ":7156,"à¦ľà¦¬à¦°":7157,"à¦ĵà¦ĩà¦¸à¦®à§Ł":7158,"à¦¨à¦¸à¦¹à¦¸":7159,"à¦¹à§Łà¦¤à¦ĸà¦¨":7160,"à¦Ĩà¦°à¦ªà¦°":7161,"à§¨à§«à§¨à§¦à§¨à§¨":7162,"à¦ķà¦°à¦Ń":7163,"à¦®à¦¤à¦¸à¦®":7164,"à¦¦à¦¨à¦¸à¦®":7165,"à¦¦à¦ĵà§Ł":7166,"à¦¤à¦¬à¦ľ":7167,"à¦Łà¦¬à¦²à¦®":7168,"à¦ıà¦¸à¦®à§Łà¦¬":7169,"à¦Ľà¦¨à¦¦":7170,"à¦²à¦°à¦¸":7171,"à¦ĩà¦°à¦¸":7172,"à¦ĩà¦Ľà§ľ":7173,"à¦ķà¦¬à¦Ľà¦°à¦Ĩà¦Ĺ":7174,"à¦Ĺà¦ĩà¦¨":7175,"à¦®à¦²à¦¬":7176,"à¦ħà¦°à¦¬":7177,"à¦¨à¦īà¦¦à¦¯":7178,"à¦¨à¦¤à¦ļ":7179,"à¦¤à¦¨à¦¹":7180,"à§§à§¬à§©":7181,"à¦²à¦ĩà¦²":7182,"à¦®à¦Ĩà¦¹à¦¬":7183,"à¦¨à¦ļà¦²à¦ļ":7184,"à¦Łà¦īà¦ļ":7185,"à§İà¦®à¦¨":7186,"à¦§à¦¹à¦ļ":7187,"à§¨à§¦à§¨à§§à§ª":7188,"à¦°à¦£à¦¥":7189,"à¦ªà¦ıà¦ķ":7190,"à¦Ńà¦¬à¦¬":7191,"à¦¨à¦ľà§Ł":7192,"à¦¡à¦ĵ":7193,"à¦°à¦ĩà¦Ľ":7194,"à§İà¦Ĩà¦®":7195,"à¦²à¦®à¦²":7196,"à¦Ĺà¦łà¦¨à¦¸à¦Ń":7197,"à¦Łà¦ĵà¦¬":7198,"à¦°à¦ªà¦°à¦ĵà¦¤":7199,"à¦¬à¦īà¦¤":7200,"à¦¯à¦¯à¦¨":7201,"à¦²à¦Ĺà¦¤":7202,"à¦ķà¦Ĺà¦£":7203,"à¦ķà¦¶à¦¨à¦ª":7204,"à¦²à¦ĵà¦¨":7205,"à¦ķà¦§à¦°à¦¨":7206,"à¦®à¦°à§Ł":7207,"à¦°à¦°à¦ļ":7208,"à¦¨à¦¸à¦ŀ":7209,"à§§à§¯à§¬à§¯":7210,"à¦²à¦¸à¦ªà¦°":7211,"à¦®à¦®à¦Ļ":7212,"à¦ªà¦¸à¦¡":7213,"à¦ĸà¦ķà¦¸":7214,"à¦¬à¦ĩà¦Ľ":7215,"à¦¨à¦ħà¦Ĺ":7216,"à§¨à§¦à§§":7217,"à¦ªà¦ıà¦Ĺ":7218,"à¦ªà¦ķà¦°à¦Ľ":7219,"à¦ľà¦ĩà¦¤":7220,"à¦ľà¦¨à¦¬à¦²":7221,"à¦¥à¦²à¦ªà¦°":7222,"à§§à§¯à§«à§¦":7223,"à¦¬à¦¤à¦²":7224,"à¦ĩà¦ıà¦¨":7225,"à¦¸à¦ĵà¦ª":7226,"à¦°à¦ľà¦²à¦¸":7227,"à¦¤à¦ĵà¦¤":7228,"à¦¦à¦ĵà¦ª":7229,"à¦Ĺà¦¹à¦¬":7230,"à¦ĩà¦°à¦¬":7231,"à¦ľà¦®à¦ľà¦®":7232,"à¦¯à¦¤à¦®à¦ľà¦¨à¦ª":7233,"à¦¨à¦Ĺà¦£à¦®":7234,"à§Łà¦¨à¦ķà¦°à¦¤":7235,"à¦Łà¦Ļ":7236,"à¦ªà¦¸à¦¸":7237,"à¦¶à¦ķà¦¶":7238,"à¦¨à¦Ĩà¦«":7239,"à¦®à¦¬à¦¦à¦²":7240,"à¦ĵà¦°à¦¨":7241,"à¦¥à¦ķà¦ħà¦Ń":7242,"à¦Ĩà¦«à¦¤":7243,"à¦°à¦Ĩà¦Ł":7244,"à¦ķà¦¤à¦ª":7245,"à¦ķà¦ļà¦Ł":7246,"à¦°à¦ħà¦ªà¦®":7247,"à¦®à¦ªà¦ŀ":7248,"à¦ķà§Łà¦²":7249,"à¦²à¦ıà¦ª":7250,"à¦¨à¦Ĺà¦°à¦¦à¦ķ":7251,"à¦¸à¦ķà¦²à¦¨":7252,"à¦Ĩà¦°à¦ĵà¦¨":7253,"à¦¶à¦ĵà¦®":7254,"à¦ľà¦Ĩà¦ªà¦¨":7255,"à¦²à¦ľà§Ł":7256,"à¦°à¦¹à¦£à¦¶":7257,"à§Łà¦¨à¦Ľ":7258,"à¦§à¦Ĺà¦²":7259,"à¦ıà¦ĸà¦¨à¦ĵà¦¸":7260,"à¦ªà¦¨à¦¯":7261,"à§İà¦²":7262,"à¦¤à¦°à¦£à¦®":7263,"à¦®à¦ķà¦°à¦Ľ":7264,"à§Łà¦ıà¦ķà¦¬":7265,"à¦§à¦¨à¦¤":7266,"à§¨à§©à§®":7267,"à¦ħà¦¬à¦²":7268,"à¦¬à¦ıà¦ķ":7269,"à¦ķà¦ıà¦Ĺ":7270,"à§¨à§¦à§«":7271,"à¦°à¦¤à§İà¦ªà¦°à¦¤":7272,"à¦¨à¦¬à¦ķà¦²":7273,"à¦®à¦Ĩà¦Ĺ":7274,"à¦¸à¦¢":7275,"à¦°à¦Ĩà¦¨à¦®":7276,"à¦¹à¦Łà¦¨":7277,"à¦²à§Łà¦ķà¦°":7278,"à§§à§¨à§¯":7279,"à¦°à¦ķà¦¬à¦°":7280,"à¦·à¦£à¦§à¦°":7281,"à¦°à¦Ĩà¦¨à¦¹":7282,"à¦®à¦Ĩà¦¹à¦®à¦¦":7283,"à¦¶à¦°à¦¬":7284,"à¦¸à¦ıà¦ª":7285,"à¦ıà¦ķà¦ľà¦¨à¦²":7286,"à¦¨à¦īà§İà¦¸à¦¬":7287,"à¦Ĺà¦§":7288,"à¦ıà¦ı":7289,"à¦¡à¦¸à¦¨":7290,"à¦ıà¦ĩà¦ĺ":7291,"à¦¤à¦¹à§Łà¦ķ":7292,"à¦¯à¦°à¦ª":7293,"à¦ķà¦¶à¦°":7294,"à¦¦à¦¬à¦ª":7295,"à¦°à¦ªà¦°à¦Ł":7296,"à¦¬à¦¸à¦ħà¦¨":7297,"à¦²à¦¸à¦²":7298,"à¦§à¦®à¦¨":7299,"à¦ĩà¦ªà¦¥":7300,"à§¨à§®à§¨à§¦à§¨à§¨":7301,"à¦¨à¦ĵà¦ľà¦¨à¦®à¦¤":7302,"à¦°à¦¡à¦¨":7303,"à¦¤à¦²à¦Ń":7304,"à¦°à¦«à¦¸":7305,"à¦°à¦®à¦¤à¦ķà¦°":7306,"à¦°à¦¹à¦ł":7307,"à¦ķà¦®à¦®":7308,"à¦®à¦ıà¦°":7309,"à¦Łà¦°à¦ľ":7310,"à¦¨à¦¹à§Łà¦¤":7311,"à¦¥à¦ķà¦¸":7312,"à¦²à¦ıà¦¤":7313,"à¦¯à¦īà¦ªà¦ķ":7314,"à¦°à¦ıà¦ĩà¦¤":7315,"à¦°à¦ĸà¦¬à¦°à¦®":7316,"à¦§à¦¨à¦Ł":7317,"à¦¬à¦ħà¦¸":7318,"à§ľà¦ªà¦°":7319,"à§Łà¦®à¦¤":7320,"à¦ĵà¦Ĩà¦ĵà§Ł":7321,"à§¨à§©à§ª":7322,"à¦ķà¦¡à¦ĩà¦¨":7323,"à¦²à¦¨à¦¹":7324,"à¦ĩà¦īà¦ł":7325,"à¦¯à¦ľà¦°":7326,"à¦¬à¦¹à¦ħà¦Ĺ":7327,"à¦«à¦¨à¦¦":7328,"à¦®à¦¤à¦²à¦¬à¦īà¦¤":7329,"à¦¹à¦¨à¦¦":7330,"à¦¸à¦¹à¦¶":7331,"à¦ľà¦ĵà¦¯":7332,"à¦ķà¦ªà¦ķ":7333,"à¦ıà¦¸à¦®à§Łà¦ª":7334,"à¦¯à¦¶à¦¸":7335,"à¦¬à¦ĩà¦²":7336,"à¦¤à¦¨à§Ł":7337,"à¦Ńà¦ľà¦¨à¦ķ":7338,"à¦²à¦ĩà¦¯":7339,"à¦®à¦ķà¦ıà¦ķà¦Ł":7340,"à§Łà¦®à¦Ĺ":7341,"à¦ıà¦ħà¦ŀ":7342,"à¦¦à¦°à¦¶":7343,"à¦¨à¦¨à¦Ĺà¦°":7344,"à¦²à¦Ĺà¦Ł":7345,"à¦°à¦ľà§Łà¦ª":7346,"à¦ľà¦¹à¦¯":7347,"à¦ĺà¦Ń":7348,"à§§à§Ńà§®":7349,"à¦¹à¦¬à¦°":7350,"à¦ĵà¦®à¦§":7351,"à¦°à¦£à¦¹à¦ļ":7352,"à¦ķà¦Ĩà¦ªà¦¡":7353,"à¦ľà¦¹à¦ļ":7354,"à¦·à¦¬à¦¨":7355,"à¦Ĩà¦ĩà¦ıà¦®à¦ıà¦«":7356,"à¦°à§Łà¦ª":7357,"à¦°à¦«à¦¹":7358,"à¦¨à¦ĩà¦¯":7359,"à¦¶à¦ľà¦¨à¦ª":7360,"à¦ıà¦ķà¦ĸ":7361,"à¦²à¦¹à¦ļ":7362,"à¦¤à¦°à¦Ľ":7363,"à¦ħà¦ªà¦Ł":7364,"à¦°à¦īà¦ªà¦¸à¦°":7365,"à¦ĵà¦¸à¦®à¦¸":7366,"à¦¯à¦ķà¦°à¦¹à¦¬":7367,"à¦ľà§Łà¦®":7368,"à¦ķà¦°à¦£à¦ķ":7369,"à¦¨à¦Ĩà¦°à¦®":7370,"à¦¨à¦¸à¦ł":7371,"à¦ķà¦¸à¦ľ":7372,"à¦ļà¦¤à¦²":7373,"à¦¨à¦®à¦ķ":7374,"à¦¸à¦°à¦¨":7375,"à¦¤à¦ħà¦«":7376,"à§Łà¦°à¦²":7377,"à¦®à¦ĩà¦ķà¦¬":7378,"à¦ĩà¦Łà¦«":7379,"à¦²à¦ķà¦²à¦ķ":7380,"à¦²à¦Ĩà¦¯à¦¹":7381,"à¦°à¦®à¦¤à¦¤":7382,"à¦¬à¦Ńà¦Ł":7383,"à¦¨à¦Ĳà¦¤":7384,"à¦ĩà¦§à¦°à¦¨":7385,"à¦ıà¦§à¦°à¦£":7386,"à¦¸à¦ķà¦²à¦¦":7387,"à§©à§«à§«":7388,"à¦¬à¦¸à¦¸":7389,"à¦Ĩà¦ľà¦ľ":7390,"à¦¨à¦ıà¦ķà¦ª":7391,"à¦¯à¦Łà¦¨à¦¶":7392,"à¦ıà¦¸à¦ıà¦®à¦®":7393,"à§§à§«à§Ń":7394,"à¦ĩà¦ħà¦¨à¦²":7395,"à¦°à¦īà¦Ń":7396,"à¦ľà¦Ĩà¦Ĺ":7397,"à¦¬à¦²à¦²à¦¨":7398,"à¦¤à¦ĺà¦Ł":7399,"à¦Łà¦ªà¦Ł":7400,"à¦ľà¦¨à¦¹à§Ł":7401,"à¦·à¦Ĩà¦Ł":7402,"à§Łà¦ķà¦°à¦Ľ":7403,"à¦Ĺà¦¹à¦ļ":7404,"à¦¬à¦¦à¦²à¦¨":7405,"à¦ıà¦ķà¦ľà¦¨à¦Ĺ":7406,"à¦¤à¦¦à¦ķ":7407,"à¦ĵà¦ĩà¦«à¦¤":7408,"à¦¶à¦ĵà¦¨":7409,"à¦°à¦ĵà¦ªà¦°à¦Ĺ":7410,"à¦ĩà¦¦à¦°":7411,"à¦°à¦Ĩà¦°à¦ª":7412,"à¦°à¦¸à¦¹à¦¦":7413,"à¦¨à¦ĵà¦ħà¦¨":7414,"à§§à§ªà§¨":7415,"à¦īà¦¬à¦Ń":7416,"à¦¨à§Łà¦¨à¦¦":7417,"à¦¶à¦īà¦¤":7418,"à¦·à¦°à¦¤":7419,"à¦¤à¦¬à¦ķà¦ħà¦°":7420,"à¦®à¦¶à¦²":7421,"à¦¸à¦īà¦¤":7422,"à¦¦à¦īà¦¤":7423,"à¦Ĩà¦°à¦Ĩà¦²":7424,"à¦¯à¦¸à¦ł":7425,"à¦·à¦¸à¦°à¦ķ":7426,"à¦ĩà¦ªà¦ķà¦°":7427,"à¦¯à¦®à¦ķà¦°":7428,"à¦¨à¦ĵà¦¤à¦¥":7429,"à¦°à¦¸à¦¬à¦®":7430,"à¦Łà¦ıà¦Ł":7431,"à¦ķà¦¹à¦ĵà¦¯":7432,"à§§à§¯à§ªà§®":7433,"à¦ķà¦ıà¦ª":7434,"à§©à§§à§©":7435,"à§§à§®à§¬":7436,"à¦¼à¦¿à¦Ĥ":7437,"à¦¤à¦ľà¦²":7438,"à¦²à§Łà¦¸à¦®":7439,"à¦ľà¦ķà¦¦":7440,"à¦ĩà¦¡à¦ļ":7441,"à¦¨à¦¬à¦°à¦Ĺ":7442,"à¦¥à¦Ĩà¦¤":7443,"à¦¹à¦ķà¦¸":7444,"à¦¬à¦ªà§ľ":7445,"à¦²à¦ĺà¦°":7446,"à¦²à¦¸à¦ª":7447,"à¦¤à¦¤à¦°":7448,"à¦ķà¦Ĩà¦¹à¦®à¦¦":7449,"à¦¬à¦¤à¦¶":7450,"à¦ıà¦«à¦Ł":7451,"à¦ĩà¦¦à¦¹à¦Ŀ":7452,"à¦ļà¦ķà¦ķ":7453,"à¦ħà¦¬à¦¬":7454,"à¦¹à¦¤à¦¶":7455,"à¦°à¦¸à¦¶à¦¸":7456,"à¦¹à¦²à¦Ĩà¦®":7457,"à¦°à¦Ĩà¦¦à¦²":7458,"à¦¨à¦ĸà¦¨":7459,"à¦ªà¦ķà¦°à¦¬":7460,"à¦¡à¦¸à¦ķ":7461,"à¦¯à¦¦à¦²":7462,"à¦¨à¦Ĺà§ľ":7463,"à§¨à§¦à§¨à§§à§Ń":7464,"à¦¡à¦ħà¦¬":7465,"à¦®à¦ıà¦ĸà¦¨":7466,"à¦ķà¦°à¦ļ":7467,"à¦¤à¦ıà¦Ĺ":7468,"à§Ŀà¦¤":7469,"à¦Ĺà¦Ĩà¦°":7470,"à¦²à¦¨à¦ıà¦¬":7471,"à¦²à¦¨à¦¡":7472,"à¦ĵà¦ľà¦¨à¦ª":7473,"à¦¤à¦¬à¦Ļ":7474,"à¦°à¦®à¦£à¦²":7475,"à¦ıà¦°à¦ķà¦®à¦ķ":7476,"à¦ĩà¦Ĩà¦¸à¦²":7477,"à¦§à¦ĵà¦¦":7478,"à¦Ĺà¦¤à¦ķà¦°":7479,"à¦¡à¦¬à¦¨":7480,"à¦Ĩà¦°à¦ĵà¦¤à¦¥":7481,"à¦¶à¦¨à¦ı":7482,"à§ľà¦«":7483,"à§¨à§ªà§«":7484,"à¦ľà¦®à¦¬":7485,"à¦Łà¦ħà¦ª":7486,"à¦ĩà¦ıà¦®à¦¨à¦ķ":7487,"à¦¬à¦ĩà¦¸à¦¨":7488,"à§Łà¦ĩà¦īà¦ª":7489,"à¦°à¦®à¦£à¦ķà¦°à¦¤":7490,"à¦¬à¦ķà¦°à¦¸":7491,"à§§à§ªà§¬":7492,"à¦¹à¦ķà¦¬":7493,"à¦¨à¦īà¦ĩà¦¨":7494,"à¦¬à¦Ĺà¦²":7495,"à¦¨à¦¸à¦²":7496,"à¦®à¦¹à¦°":7497,"à§«à§¦à§¦à§¦":7498,"à¦Ńà¦Ń":7499,"à¦ļà¦ķà¦®":7500,"à¦°à¦ıà¦ķà¦Ľ":7501,"à§§à§ªà§Ń":7502,"à¦īà¦ľà¦¦":7503,"à§Łà¦ıà¦ĺà¦Łà¦¨":7504,"à¦ľà¦¨à¦Ĺà¦¨":7505,"à¦Ĩà¦Łà¦ķà¦°":7506,"à¦°à¦¥à¦®à¦¡":7507,"à¦ıà¦®à¦¦":7508,"à§Łà¦Ĳà¦ķ":7509,"à¦ľà¦®à¦ķ":7510,"à¦°à¦ªà¦°à¦ªà¦°":7511,"à¦°à¦Ĩà¦¸à¦¬":7512,"à¦·à§Łà¦¸":7513,"à¦®à¦¨à¦Ĺà¦°à¦¸":7514,"à¦ĩà¦¤à¦ĸà¦¨":7515,"à¦®à¦°à¦£à¦¸à¦Ń":7516,"à¦°à¦¬à¦ĩà§Ł":7517,"à¦Łà¦¨à¦Ł":7518,"à¦¦à¦¶à¦ĸà¦£":7519,"à¦²à¦¤à¦¶":7520,"à¦²à¦ķà¦Ľ":7521,"à§Ńà§¨à§¦à§¨à§¨":7522,"à§§à§®à§®":7523,"à¦°à¦°à¦ī":7524,"à¦īà¦²à¦¬":7525,"à¦¦à¦ıà¦ķà¦Ł":7526,"à¦ĩà¦¨à¦ĺ":7527,"à¦ķà¦¶à¦ª":7528,"à¦¬à¦²à¦Ń":7529,"à¦¯à¦°à¦¸":7530,"à¦ĵà¦ıà¦¤":7531,"à¦°à¦ªà§Ł":7532,"à§§à§«à§¨":7533,"à§§à§¯à§®à§©":7534,"à¦¤à¦¬à§ľ":7535,"à§Łà¦ĩ":7536,"à¦Łà¦¤à¦¥":7537,"à§¨à§¦à§¨à§§à§¬":7538,"à¦Łà¦¸à¦ľ":7539,"à¦°à¦ĵà¦¶à¦¨à¦ıà¦°à¦¶":7540,"à¦ħà¦¬à¦Ĺà¦¤":7541,"à¦¤à¦ªà¦²":7542,"à¦°à¦®à§Łà¦¦":7543,"à§§à§¯à§Ńà§¬":7544,"à¦°à¦¨à¦¡":7545,"à¦ĵà¦¦à¦²":7546,"à¦¹à¦ľà¦°à¦¤":7547,"à¦¬à¦ĩà¦ĸ":7548,"à¦¡à¦ī":7549,"à¦ıà¦¡à¦¸":7550,"à¦¦à¦²à¦ª":7551,"à§Łà¦®à¦Ļ":7552,"à¦¸à¦°à¦£à¦ķ":7553,"à¦ĩà¦¨à¦ĸ":7554,"à¦¥à¦ķà¦ª":7555,"à¦ķà¦ĩà¦¸":7556,"à¦Ĺà¦¬à¦²":7557,"à¦°à¦ıà¦ķà¦ľà¦¨à¦®":7558,"à¦¬à¦¹à¦¨à¦®":7559,"à§§à§¯à§¬à§®":7560,"à¦Ĩà¦°à¦¬à¦¸":7561,"à¦ĵà¦ıà¦¦":7562,"à¦¨à¦īà¦ľ":7563,"à¦¡à¦ıà¦²":7564,"à¦¤à¦ıà¦ĩà¦¸":7565,"à¦īà¦ªà¦ļ":7566,"à§§à§¯à§®à§®":7567,"à¦¨à¦Ĩà¦ļ":7568,"à¦°à¦¹à§Łà¦°":7569,"à¦¡à¦Ĩà¦ªà¦¨":7570,"à¦ķà¦ĵà¦¨":7571,"à¦²à¦Ńà¦¯":7572,"à¦ĩà¦ĵà¦ª":7573,"à¦°à¦ªà¦°à¦ĸ":7574,"à¦¯à¦ľà¦®":7575,"à¦¤à¦Ĩà¦ľ":7576,"à¦®à¦ķà¦¦":7577,"à¦°à¦īà¦¦à¦¯":7578,"à§Ńà§«à§¦":7579,"à¦¤à¦°à¦ıà¦¬":7580,"à¦īà¦ľà¦ķà¦°":7581,"à¦ıà¦ĩà¦Ĩà§Ł":7582,"à¦²à¦ĵà¦¤":7583,"à¦ıà¦¡à¦®":7584,"à¦ĵà¦°à¦¹":7585,"à¦¬à¦Ľà¦°à¦ľ":7586,"à¦·à¦ķà¦Ľ":7587,"à¦ªà¦Ĩà¦Ľ":7588,"à¦¨à¦ıà¦ķà¦¸":7589,"à¦ıà¦ĩà¦ĸà¦¬à¦°à¦Ł":7590,"à¦Ĩà¦¬à¦²":7591,"à¦°à¦ıà¦ĩà¦¶":7592,"à¦²à¦¬à¦¹":7593,"à¦ĩà¦ķà¦Ł":7594,"à¦·à¦£à¦īà¦ªà¦ķ":7595,"à¦¬à¦²à¦ıà¦ķà¦Ł":7596,"à¦¶à¦¨à¦ķà¦°à¦²":7597,"à¦§à¦¨à¦¸à¦¨à¦¦":7598,"à§Łà¦¹à¦ļ":7599,"à¦ĵà¦ıà¦ĸ":7600,"à¦®à¦¸à¦¤":7601,"à¦£à¦¬à¦²":7602,"à¦®à¦ķà¦¯":7603,"à¦²à§Łà¦°":7604,"à¦¤à¦ıà¦ķà¦¬":7605,"à§Łà¦ļà¦²à¦ļ":7606,"à¦ľà¦ĺà¦°":7607,"à¦¡à¦Ĩà¦ĵà§Ł":7608,"à¦¹à¦§à¦°":7609,"à¦Ĺà¦²à¦¥":7610,"à¦°à¦ĩà¦§":7611,"à¦ĩà¦®à¦²":7612,"à¦¶à¦²à¦ķ":7613,"à§®à§¨à§¦à§¨à§¨":7614,"à¦īà¦¨à¦¶":7615,"à¦®à¦¶à¦¹":7616,"à¦ıà¦īà¦ªà¦²à¦ķ":7617,"à¦°à¦ıà¦°à¦ķ":7618,"à¦«à¦¥":7619,"à¦Łà¦°à¦¡":7620,"à¦¸à¦¦à¦°à¦¦à¦ª":7621,"à¦²à¦¸à¦ħ":7622,"à¦ªà¦¥à¦¦":7623,"à¦ıà¦¸à¦®à¦¸":7624,"à¦¨à¦Ĺà¦°à¦®":7625,"à¦ļà§Łà¦ª":7626,"à¦Ńà¦¬à¦ļ":7627,"à¦°à¦¸à¦®à§Łà¦Ĺ":7628,"à¦²à¦Ĺà¦£":7629,"à§§à§¯à§ª":7630,"à¦£à¦īà¦¦":7631,"à¦¨à¦Ĺà¦°à¦īà¦¤":7632,"à¦Ŀà§ľà¦¸":7633,"à¦°à¦Ĺà¦¦":7634,"à¦ľà¦²à¦®":7635,"à¦°à¦ıà¦ķà¦ļ":7636,"à¦ĩà¦ıà¦ķà¦ľà¦¨":7637,"à¦°à¦ħà¦·":7638,"à¦¦à¦®à¦ķ":7639,"à¦²à¦°à¦¯":7640,"à¦Łà¦ħà¦¬":7641,"à§¨à§«à§©":7642,"à§§à§¯à§®à§«":7643,"à¦¦à¦°à¦«":7644,"à¦Ĺà¦¨à¦¶":7645,"à¦ĩà¦¨à¦ħà¦¨":7646,"à¦¨à¦Ńà¦¬":7647,"à§Łà¦ıà¦ĩà¦¬":7648,"à¦¨à¦°à¦Ļ":7649,"à§§à§¯à§Ńà§¯":7650,"à¦°à¦¸à¦«à¦²":7651,"à¦¨à¦ĩà¦¹":7652,"à¦ıà¦ĩà¦īà¦¦":7653,"à§§à§ªà§¦à§¦":7654,"à¦¤à¦ĸà¦¨à¦¥":7655,"à¦ĩà¦¡à¦¦":7656,"à§§à§¨à§©à§¦":7657,"à§Łà¦®à¦ħà¦¨":7658,"à¦īà¦ıà¦ĩà¦ļ":7659,"à¦°à¦ªà¦Ł":7660,"à¦¨à¦ıà¦ĩà¦Ł":7661,"à¦ķà¦ĩà¦¨à¦¸":7662,"à¦¦à¦°à¦ĸ":7663,"à¦¨à¦Ĺà¦°à¦¶":7664,"à¦°à¦¸à¦¹à¦ľà¦īà¦ª":7665,"à¦¬à¦ľà¦°":7666,"à¦¤à¦ľà¦¬":7667,"à¦²à¦¬à¦¡":7668,"à¦¥à¦¸à¦¹":7669,"à¦īà¦ªà¦¤":7670,"à§©à§Ńà§¦":7671,"à¦®à¦¨à¦Ĩà¦ªà¦¨":7672,"à¦¦à¦®à¦¨à¦ķà¦®":7673,"à¦£à¦¬à¦¸":7674,"à¦°à¦ħà¦¬à¦¤":7675,"à¦ľà¦ķà¦¥":7676,"à¦ħà§Ł":7677,"à¦·à¦£à¦Ł":7678,"à¦°à¦£à¦ķà¦°à¦²":7679,"à¦īà¦¨à¦¸à¦Ł":7680,"à¦ĵà¦ľà¦°":7681,"à¦¨à¦ĵà¦¡":7682,"à¦¦à¦ħà¦Ń":7683,"à¦²à¦¸à¦®à¦¸":7684,"à¦Łà¦¨à¦Ń":7685,"à¦ķà¦ıà¦¤":7686,"à¦·à§Łà¦¹à¦²":7687,"à§¨à§¦à§¨à§§à§®":7688,"à§Łà¦Ĩà¦Łà¦ķ":7689,"à¦ıà¦¸à¦Ń":7690,"à¦¶à¦¸à¦°":7691,"à§ľà¦¹à§Ł":7692,"à¦¨à¦¹à¦°":7693,"à¦ķà¦ĺà¦£":7694,"à¦Ĺà¦²à¦ķà¦°":7695,"à¦Łà¦ī":7696,"à¦¨à¦ªà¦°à¦¬":7697,"à¦°à¦ķà¦¨à¦¸":7698,"à¦¨à¦¬à§Łà¦¸":7699,"à¦¯à¦¤à¦¨":7700,"à§§à§¬à§¯":7701,"à¦ľà¦ĵà¦°":7702,"à¦ĵà¦ĩà¦ļ":7703,"à¦¯à¦īà¦ªà¦¸":7704,"à¦Ĺà¦²à¦¤":7705,"à¦¨à¦ĩà¦īà¦¸":7706,"à§Łà¦ħà¦ª":7707,"à¦®à¦²à¦¤":7708,"à¦ĵà¦ħà¦²":7709,"à¦ªà¦¸à¦ķ":7710,"à¦ĵà¦¹à¦¬":7711,"à¦¬à¦Ľà¦°à¦¶":7712,"à¦²à¦¨à¦ķà¦°à¦²":7713,"à§§à§¬à§¬":7714,"à¦¸à§İ":7715,"à¦²à¦Ĩà¦¤":7716,"à¦¨à¦Ĺà¦°à¦¨":7717,"à§¨à§¬à§®":7718,"à¦°à¦¸à¦¹à¦¸à¦®":7719,"à¦¨à¦¤à¦ľ":7720,"à¦°à¦ıà¦ĩà¦¯":7721,"à¦Łà¦¬à¦¡":7722,"à¦°à¦Ŀà§ľ":7723,"à¦°à¦Ĩà¦²à¦ľ":7724,"à¦Ńà¦¬à¦ĺ":7725,"à¦¦à¦ķà¦Ĩà¦®":7726,"à¦ľà¦ªà¦¡":7727,"à¦¤à¦®à¦¬à¦°":7728,"à§Łà¦Ĺà¦ŀ":7729,"à§§à§¯à§¬à§¦":7730,"à¦¹à¦°à¦ľà¦¨":7731,"à¦¹à¦ľà¦¯":7732,"à¦Ĺà¦²à¦Ĩà¦®":7733,"à¦īà¦ľà¦¥":7734,"à¦¹à§Łà¦Ĩà¦ªà¦¨":7735,"à¦¨à¦¤à¦ĸà¦¨à¦Ĩà¦ªà¦¨":7736,"à¦Ľà¦Ľ":7737,"à¦§à¦¨à¦Ń":7738,"à¦ªà¦¸à¦°":7739,"à¦ĩà¦Łà¦ļ":7740,"à¦²à¦ªà¦¶":7741,"à¦ĩà¦¨à¦ªà¦¤":7742,"à¦¸à¦¬à¦¯":7743,"à¦ıà¦®à¦Ł":7744,"à¦ĩà¦¯à¦ĸà¦¨":7745,"à¦Łà¦¸à¦¦":7746,"à¦°à¦®à¦£à¦®":7747,"à¦¯à¦ĺà¦Łà¦¨":7748,"à¦Ĩà¦ķà¦¤":7749,"à¦§à¦Ĺà¦®":7750,"à¦·à¦°à¦ķ":7751,"à¦łà¦¨à¦ķà¦°":7752,"à¦ĩà¦°à¦®":7753,"à¦ľà¦ķà¦¬":7754,"à¦ĩà¦ĸà¦²":7755,"à¦¨à¦ªà¦¡":7756,"à¦ľà¦ıà¦ķà¦Ł":7757,"à¦·à§Łà¦ª":7758,"à¦¶à¦¹à¦°à¦¥":7759,"à¦ļà¦¨à¦¹à¦¬":7760,"à¦¡à¦§":7761,"à¦ĩà¦Ĩà¦Łà¦ķ":7762,"à¦¨à¦¡à¦ķ":7763,"à¦ķà¦¦à¦ķ":7764,"à¦¬à¦ķà¦·":7765,"à¦¤à¦¸à¦ķ":7766,"à¦¶à¦¹à¦°à¦Ĺ":7767,"à¦¯à¦ĸà¦¨à¦Ĩà¦®à¦°":7768,"à¦ŀà¦¸":7769,"à¦ıà¦®à¦¨à¦²":7770,"à¦¦à¦ıà¦ķ":7771,"à¦¯à¦ŀ":7772,"à¦²à¦¨à¦Ł":7773,"à¦®à¦ħà¦¤":7774,"à¦Łà¦ıà¦°à¦¸":7775,"à¦Ŀà¦°à¦¨":7776,"à¦¤à¦°à¦£à¦ħà¦¨":7777,"à§¨à§©à§¬":7778,"à¦²à¦ĵà¦¶":7779,"à¦Łà¦ıà¦¸à¦ıà¦¸à¦¸":7780,"à¦¬à§ľà¦¹à§Ł":7781,"à¦¬à¦Ĩà¦¨":7782,"à¦ķà¦¦à¦«":7783,"à¦Łà¦¬à¦²à¦ª":7784,"à¦°à¦īà¦ªà¦°à¦ıà¦ķà¦Ł":7785,"à¦ķà¦ľà¦¨à¦Ĺ":7786,"à¦¦à¦°à¦ķà¦¥":7787,"à¦Ĺà¦ħà¦Ń":7788,"à¦¤à¦Ĩà¦°à¦ĵà¦ªà§ľ":7789,"à¦¬à¦²à¦²à¦¹":7790,"à¦ĩà¦¨à¦Ĩà¦¬":7791,"à¦²à¦ķà¦¯":7792,"à§¨à§¬à§¯":7793,"à¦¯à¦®à¦«":7794,"à¦¬à¦ľà¦¨à¦ª":7795,"à¦¶à¦ĵà§Ł":7796,"à¦¯à¦Łà¦¨à¦¸":7797,"à¦°à¦¡à¦¬":7798,"à¦ĩà¦Ĩà¦°à¦¸":7799,"à¦ĺà¦°à¦Ł":7800,"à¦°à¦®à¦£à¦Ń":7801,"à¦Ńà¦¹à¦¬":7802,"à¦¥à¦ķà¦¤":7803,"à¦ľà¦¨à¦Ĩà¦Ľ":7804,"à¦·à¦¨à¦ķà¦°":7805,"à¦ĵà¦ĩà¦Ń":7806,"à¦īà§İà¦¸à¦¬à¦ª":7807,"à§¨à§ªà§¬":7808,"à¦°à¦¤à¦Ĺ":7809,"à¦°à¦²à¦¸":7810,"à¦ĩà¦ķà¦ł":7811,"à¦¬à¦ĵà¦®":7812,"à¦¤à¦°à¦£à¦¶":7813,"à¦ĩà¦¸à¦¹à¦ľ":7814,"à¦ľà¦¨à¦ķà¦¨":7815,"à¦°à¦¸à¦¹à¦ķà¦°":7816,"à¦¨à¦¤à¦²":7817,"à¦¬à¦¸à¦¹à¦ķ":7818,"à¦Ńà¦ķà¦°à¦²":7819,"à§§à§¯à§¬à§¨":7820,"à¦ķà¦¯à¦¨":7821,"à¦§à¦ļà¦²":7822,"à¦ĩà¦īà¦ªà¦ķ":7823,"à§§à§¯à§®à§¨":7824,"à¦Ĺà¦ĵà¦ª":7825,"à§¨à§¦à§¨à§¨à§¯":7826,"à¦¶à¦¸à¦«à¦²":7827,"à¦ľà¦¹à¦¤":7828,"à¦ľà¦Ĩà¦¨":7829,"à¦¸à¦¨à¦ľ":7830,"à¦ĸà¦¬à¦°à¦ªà¦¡":7831,"à¦Łà¦Ĩà¦¸":7832,"à§§à§®à§Ń":7833,"à¦¶à¦ıà¦¶":7834,"à¦®à¦°à¦£à¦ľ":7835,"à¦Ĩà§Łà¦¬":7836,"à¦ĵà¦ķà¦¬":7837,"à¦¦à¦Ĩà¦¸":7838,"à¦¬à¦ĵà¦¸":7839,"à¦ĵà¦ıà¦Ĺ":7840,"à¦¦à¦ķà¦°à¦Ľ":7841,"à¦°à¦ĸà¦¬à¦°à¦°":7842,"à¦ĵà¦ªà§ľ":7843,"à¦°à¦¦à¦®":7844,"à¦¯à¦ıà¦ĸà¦¨":7845,"à¦ļà¦¨à¦¸à¦®":7846,"à¦®à¦®à¦ľ":7847,"à¦¬à¦°à¦ĵ":7848,"à¦°à¦Ĩà¦¬à¦°":7849,"à¦°à¦īà¦Ńà¦¯":7850,"à¦ıà¦«à¦«":7851,"à¦¤à¦®à¦£":7852,"à¦¯à¦Łà¦¨à¦ķ":7853,"à¦°à¦¨à¦¥":7854,"à¦®à¦¤à¦¹":7855,"à¦¡à¦¸à¦¬":7856,"à¦¨à¦ıà¦°à¦ªà¦°à¦¤":7857,"à¦ĵà¦Ĺà¦²":7858,"à¦°à¦£à¦ĺà¦Ł":7859,"à¦°à¦£à¦ķà¦°à¦Ľ":7860,"à§Łà¦Ĩà§Ł":7861,"à¦·à¦£à¦ķà¦°à¦Ľ":7862,"à¦°à¦ĩà¦ıà¦ķà¦Ł":7863,"à¦¬à§ľà¦¬à§ľ":7864,"à§«à§§à§¦":7865,"à¦ĺà¦°à¦¨":7866,"à¦ıà¦ķà¦Ŀ":7867,"à¦ĸà¦¬à¦°à¦ĸà¦¬à¦°":7868,"à¦¦à¦ĩà¦¬":7869,"à¦¬à¦ĵà¦¬":7870,"à§İà¦ĸ":7871,"à¦®à§Łà¦¬":7872,"à¦°à¦¦à¦£":7873,"à¦ķà¦Ĺà§ľ":7874,"à¦§à¦ķà¦®":7875,"à¦¨à¦ıà¦¸à¦®":7876,"à¦ľà¦Ĩà¦¬":7877,"à§§à§®à§¯":7878,"à¦°à¦ħà¦¬à¦°":7879,"à¦ľà¦Ĩà¦Ľ":7880,"à¦²à¦¦à¦ķ":7881,"à¦¨à¦ľà¦¹":7882,"à¦¨à¦Ĩà¦²à¦¬":7883,"à¦°à¦¸à¦®à§Łà¦¶":7884,"à¦°à¦¦à¦²à¦ķ":7885,"à¦ľà¦¨à¦ĸ":7886,"à¦¨à¦ıà¦¸à¦®à§Łà¦¤":7887,"à¦Ńà¦¬à¦¹à¦²":7888,"à¦ķà¦¦à¦¶à¦ķ":7889,"à¦Łà¦ħà¦¸à¦¨":7890,"à¦¸à¦ļà¦°":7891,"à¦¤à§İà¦ª":7892,"à¦¤à¦¹à¦ĩà¦¬":7893,"à¦ĩà¦²à¦¯":7894,"à¦ĸà¦ľà¦¨à¦ķ":7895,"à§§à§¯à§Ńà§®":7896,"à¦²à¦ħà¦ķ":7897,"à¦¡à¦ĩà¦¤":7898,"à¦¨à¦ıà¦ĩà¦Ĺ":7899,"à¦ĵà¦Ĩà¦ĸ":7900,"à¦°à¦Ĩà¦¨à¦ĸ":7901,"à¦Ĩà¦Łà¦ķà¦«":7902,"à¦ĩà¦ªà¦¸":7903,"à¦²à¦¨à¦²":7904,"à¦ħà¦ªà¦Ľà¦¨":7905,"à¦ķà¦ıà¦¶":7906,"à¦īà¦¡à¦¬":7907,"à¦Ĺà¦®à¦Ĺ":7908,"à¦¦à¦ĵà¦®":7909,"à¦ľà§Łà¦¸":7910,"à¦ķà¦Ĺà¦¤":7911,"à¦²à¦Ĺà¦«":7912,"à¦·à¦ĸà¦¬à¦°à¦ª":7913,"à§Łà¦ªà¦£":7914,"à§§à§¬à§«à§«à§«":7915,"à¦·à¦Ĩà¦¬":7916,"à¦¨à¦Ĺà¦¦à¦ħà¦°":7917,"à§Łà¦Ĩà¦°à¦ĵà¦ªà§ľ":7918,"à¦¨à¦¤à¦¸":7919,"à¦¯à¦ķà¦ª":7920,"à¦°à¦¨à§ľ":7921,"à¦¯à¦°à¦¤à¦ļ":7922,"à¦ĩà¦ªà¦Ľà¦¨":7923,"à¦°à¦īà¦ªà¦°à¦Ĺ":7924,"à§¨à§¦à§§à§¯à§¨à§¦à§¨à§¦à§¨à§¦à§¨à§§":7925,"à¦¬à¦¨à¦ıà¦¬":7926,"à¦£à¦ħà¦¬à¦¸":7927,"à¦°à¦Ĩà¦ĩà¦¨à¦¶":7928,"à¦ĩà¦ıà¦ķà¦¬":7929,"à¦ļà¦²à¦°":7930,"à§¨à§¨à§¬":7931,"à¦¨à¦Ī":7932,"à¦¨à¦¬à¦²à¦¤":7933,"à¦°à¦¸à¦¬à¦°":7934,"à¦°à¦ĵà¦ªà¦°à¦®":7935,"à¦¨à¦ĩà¦¦":7936,"à§Łà¦°à¦¸à¦¹à¦¸à¦Ń":7937,"à¦§à¦¬à¦²":7938,"à¦ĵà¦°à¦Ļ":7939,"à¦·à¦£à¦ĸà¦¬à¦°à¦ĵà¦¬":7940,"à¦ļà¦ŀ":7941,"à¦ľà¦ĵà¦¬":7942,"à¦ĩà¦²à¦ĵà§Ł":7943,"à¦ķà¦¨à¦¬":7944,"à¦²à¦¸à¦¦":7945,"à¦ľà¦¨à¦ĺ":7946,"à¦¨à¦ļà¦¤":7947,"à¦ĩà¦«à¦Ł":7948,"à¦«à¦¬à¦²":7949,"à§§à§¯à§Ńà§Ń":7950,"à¦¸à¦°à¦°":7951,"à¦ĩà¦ľà¦¡":7952,"à¦ıà¦°à¦ħà¦Ń":7953,"à¦¬à¦°à§Ł":7954,"à¦¸à¦¹à¦ľà¦¸":7955,"à¦¤à¦«à¦¸":7956,"à¦¨à¦ªà¦°à¦¶":7957,"à¦īà¦¬à¦ĵà§Ł":7958,"à¦°à¦¥à¦®à¦¹":7959,"à¦°à¦ĵà¦ªà¦°à¦¤":7960,"à¦ıà¦ĸà¦¨à¦Ń":7961,"à¦Łà¦ķà§Ł":7962,"à¦·à¦¨à¦¬":7963,"à¦¯à¦ıà¦¨":7964,"à¦¨à¦¨à¦²":7965,"à¦¨à¦ªà¦¦à¦ķ":7966,"à¦°à¦ıà¦«":7967,"à¦Łà¦ĩà¦®":7968,"à¦¦à¦ĵà¦¯":7969,"à¦ĩà¦ĵà¦¸":7970,"à¦ľà¦¨à¦¬à¦²à¦¨":7971,"à§¨à§®à§®":7972,"à§¨à§¦à§®":7973,"à¦°à¦ķà¦ļà¦ķ":7974,"à¦¤à¦ħà¦ķ":7975,"à¦°à¦ĵà¦®à¦¨":7976,"à¦Łà¦¸à¦²":7977,"à¦¨à¦¹à§Łà¦¨":7978,"à¦§à¦Ĩà¦Ľ":7979,"à¦ĸà¦®à¦¨":7980,"à¦Ĺà¦ıà¦ķ":7981,"à¦Ĺà¦²à¦Ł":7982,"à¦·à¦¦à¦®":7983,"à¦ķà¦¶à¦¨à¦¸":7984,"à¦¤à¦¨à¦Ĩà¦¨":7985,"à¦¨à¦ľà¦¨à¦Ĺà¦£":7986,"à¦¹à¦ĩà¦¯":7987,"à¦¤à¦¨à¦²":7988,"à¦ĩà¦¡à¦°":7989,"à¦¯à¦ªà§ľ":7990,"à¦¡à¦¢":7991,"à¦¬à¦²à¦¡":7992,"à¦¶à¦²à¦¨":7993,"à¦Ĩà¦°à¦¬à¦¬":7994,"à¦°à¦£à§Łà¦¨à¦ķà¦°":7995,"à¦ķà¦īà¦ªà¦ķ":7996,"à¦Ńà¦ıà¦¬":7997,"à¦°à¦Ĩà¦°à¦ĵà¦¬":7998,"à¦¨à¦Ĩà¦°à¦ĵà¦¦":7999,"à¦ıà¦ĸà¦¨à¦ĵà¦ª":8000,"à¦°à¦Ĩà¦¸à¦Ľ":8001,"à¦īà§İà¦¸à¦¥":8002,"à¦¬à¦¹à¦¯":8003,"à¦Ĩà¦ĩà¦¤":8004,"à¦ĩà¦ľà¦²":8005,"à¦«à¦°à¦ķ":8006,"à¦°à¦ķà¦¡":8007,"à¦Łà¦¬à¦²à¦¦à¦²":8008,"à¦ıà¦®à¦ıà¦«":8009,"à¦¡à¦ĺ":8010,"à§ªà§©à§¦":8011,"à¦¤à¦°à¦ªà¦¤":8012,"à¦°à¦īà¦·":8013,"à¦²à¦ķà¦ıà¦¬":8014,"à¦Ĩà¦²à¦®à¦¡":8015,"à¦¶à¦ıà¦Ĺ":8016,"à¦°à¦ıà¦ķà¦ľà¦¨à¦¬":8017,"à§§à§¯à§¬à§¬":8018,"à¦²à¦¹à¦ķà¦¬à¦²":8019,"à¦¹à§Łà¦ıà¦ĩ":8020,"à§¨à§©à§¯":8021,"à¦¨à¦Łà¦¨":8022,"à§Łà¦ıà¦ķà¦®":8023,"à¦ªà¦¬à¦¯":8024,"à¦ĵà¦ļà¦Ł":8025,"à¦¹à§Łà¦ıà¦ķ":8026,"à¦¨à¦Ĳà¦ķ":8027,"à¦¦à¦¢":8028,"à¦°à¦¨à¦²":8029,"à¦¨à¦ıà¦¸à¦®à¦¯":8030,"à§Łà¦¬à¦Ľ":8031,"à¦łà¦Ł":8032,"à¦²à¦¹à¦ķà¦¦":8033,"à¦¬à¦¤à¦¬":8034,"à¦®à¦°à¦®":8035,"à¦Ĩà¦¹à¦¤à¦ķà¦°":8036,"à§Łà¦ıà¦°":8037,"à¦¨à¦ľà¦¨à¦¸":8038,"à¦¬à¦°à¦Ĺà¦ŀ":8039,"à¦¤à¦ĵà¦ķ":8040,"à§§à§¯à§¨":8041,"à¦Ĩà¦ķà¦¬à¦°à¦Ĩà¦²":8042,"à¦°à¦ıà¦ķà¦ľà¦¨à¦ª":8043,"à¦Ĩà¦¨à¦ľ":8044,"à¦¨à¦Ĩà¦°à¦¯":8045,"à¦¥à¦¹à¦¤":8046,"à¦ĩà¦ĵà¦ķ":8047,"à¦¤à¦Ńà¦Ł":8048,"à¦°à¦«à¦¯":8049,"à¦·à¦£à¦¥":8050,"à¦ĩà¦¹à¦°":8051,"à¦ľà¦°à¦¬":8052,"à¦¹à¦¤à¦«":8053,"à¦Ĩà¦ľà¦Ĺ":8054,"à¦¡à¦®à¦ŀ":8055,"à¦°à¦ĸà¦¬à¦°à¦Ĩà¦ľà¦ķ":8056,"à¦¬à¦¸à¦°à¦ķ":8057,"à§Łà¦īà¦²":8058,"à§§à§¯à§¬à§ª":8059,"à¦¨à¦Ĩà¦Łà¦ķ":8060,"à¦ıà¦®à¦¨à¦ıà¦ķ":8061,"à¦ķà¦¶à¦¨à¦¦":8062,"à¦¦à¦īà¦ªà¦¸":8063,"à¦ĩà¦Ńà¦¨":8064,"à¦¬à§İà¦¸":8065,"à¦Ĩà¦°à¦ıà¦¸":8066,"à¦¨à¦ıà¦¸à¦ıà¦¸à¦¸":8067,"à¦¨à¦ıà¦«":8068,"à¦²à¦Ĩà¦²à¦®à¦¸":8069,"à§Łà¦Ľà¦¬":8070,"à¦°à¦¬à¦ļ":8071,"à¦²à§Łà¦Ł":8072,"à¦ĵà¦¨à¦¬":8073,"à¦²à¦ķà¦ħà¦¨":8074,"à§Łà¦ľà§Ł":8075,"à¦°à¦¡à¦Ĺ":8076,"à¦ľà¦¸à¦°à¦ķ":8077,"à¦¸à¦īà¦ª":8078,"à¦®à¦®à¦§":8079,"à§®à§§à§¦":8080,"à¦¤à¦ıà¦¦":8081,"à¦ĸà¦°à¦¬":8082,"à¦¨à¦ķà¦²à¦ķà¦°":8083,"à¦£à¦®à¦¤":8084,"à¦°à¦ĵà¦ıà¦ķà¦Ł":8085,"à¦ľà¦¨à¦Ĩà¦®":8086,"à¦ıà¦ĩà¦Ĩà¦ĩà¦¨":8087,"à¦¨à¦ıà¦ĩà¦¤":8088,"à¦°à¦Ĩà¦¨à¦¥":8089,"à¦¶à¦ĵà¦Ń":8090,"à¦Ńà¦¬à¦¹à¦ļ":8091,"à¦Ĩà¦°à¦ķà¦°":8092,"à¦¨à¦Ĩà¦«à¦Ĺ":8093,"à¦ķà¦°à¦¹":8094,"à§§à§Ńà§¬":8095,"à¦¶à¦®à¦¤":8096,"à¦¨à¦ıà¦¡":8097,"à¦®à§Łà¦¸":8098,"à¦ķà¦¸à¦®à¦ķ":8099,"à§§à§¨à§§":8100,"à¦¯à¦ħà¦¬à¦¦":8101,"à¦°à¦¹à¦£à¦ķà¦°à¦Ľ":8102,"à¦¨à§Łà¦Ĩà¦®":8103,"à¦¬à¦ķà¦ł":8104,"à¦¹à¦ķà¦¤":8105,"à§§à§¯à§®à§Ń":8106,"à§¨à§¦à§ª":8107,"à¦ķà¦®à¦¥":8108,"à¦ıà¦ķà¦ľà¦¨à¦®à¦¹":8109,"à¦Ĩà¦¦à¦°à¦ķà¦°":8110,"à¦ıà¦ķà¦°à¦ľà¦®":8111,"à¦ĵà¦¶à¦ķ":8112,"à¦²à¦Ĺà¦¨":8113,"à¦¨à¦ķà¦Ĩà¦īà¦Łà¦ªà¦°":8114,"à¦Łà¦ĵà¦Ń":8115,"à¦¹à¦¨à¦®":8116,"à§¨à§©à§Ń":8117,"à¦¨à¦ľà¦²à¦¬":8118,"à¦¸à¦®à¦¤à¦²à¦ª":8119,"à¦¨à¦Ńà§Ł":8120,"à¦°à¦ıà¦ĩà¦Ł":8121,"à§§à§Ńà§ª":8122,"à§¬à§«à§¦":8123,"à¦ªà¦¨à¦Ĺ":8124,"à§Łà¦¶à¦Ļ":8125,"à¦¹à§Łà¦¸à¦®":8126,"à§§à§®à§ª":8127,"à¦¸à¦ĵà¦ľ":8128,"à¦¦à¦°à¦Ł":8129,"à¦·à¦¦à¦¸à¦¦à¦¸":8130,"à¦¯à¦ĩà¦²":8131,"à§¨à§¦à§§à§Ńà§¨à§¦à§§à§®à§¨à§¦à§§à§¯à§¨à§¦à§¨à§¦à§¨à§¦à§¨à§§":8132,"à¦ıà¦®à¦¨à¦ķà¦¥":8133,"à¦°à¦¸à¦®à§Łà¦¯":8134,"à¦¬à§ľà¦§à¦°à¦¨":8135,"à¦·à¦£à¦¹":8136,"à§İà¦¥":8137,"à¦°à¦¹à¦£à¦¸":8138,"à¦¨à¦¯à¦ĸà¦¨à¦¤":8139,"à¦¸à¦¬à¦Ľ":8140,"à¦°à¦ĵà¦ł":8141,"à§¨à§¦à§¨à§§à§¦":8142,"à¦¸à¦¶à¦¨":8143,"à¦ķà¦ħà¦¶":8144,"à¦¸à¦¸à¦°à¦¬à¦°":8145,"à¦£à¦¤à¦°":8146,"à¦®à¦ķà¦¨":8147,"à¦ķà¦ħà¦Ĺ":8148,"à¦¹à§Łà¦¡":8149,"à¦§à¦¨à¦ļ":8150,"à¦£à¦ļà¦¨":8151,"à¦¹à§Łà¦Ľ":8152,"à¦Łà¦ĵà¦®":8153,"à¦ĩà¦¬à¦Ļ":8154,"à¦°à¦ªà¦¥à¦ª":8155,"à¦¸à¦¬à¦ķà¦¥":8156,"à¦®à¦ĵà¦Ĺ":8157,"à¦ĩà¦ķà¦°à¦²":8158,"à¦²à¦Ĩà¦¹":8159,"à¦ķà¦°à¦ªà¦°":8160,"à¦ıà¦¤à¦Ĺ":8161,"à¦¨à¦¨à§Ł":8162,"à¦°à¦īà¦ªà¦²à¦ķ":8163,"à§Łà¦ķà¦¶":8164,"à¦¤à¦ıà¦ĩà¦¬":8165,"à¦¶à¦¨à¦¤à¦¥":8166,"à¦§à¦°à¦ĩà¦²":8167,"à¦·à¦ķà¦°à¦¬":8168,"à¦¤à¦¸à¦²":8169,"à¦°à¦ķà¦¶":8170,"à¦²à¦¹à¦°":8171,"à¦¤à¦°à¦¢":8172,"à¦°à¦Ĩà¦ĩà¦ķà¦¨à¦Ł":8173,"à¦Ĩà¦ľà¦Ĩà¦ªà¦¨":8174,"à¦ķà¦²à¦ķà¦°à¦¤":8175,"à¦¬à¦²à¦Ĩà¦®":8176,"à¦ķà¦ħà¦ķ":8177,"à¦°à¦Ĺà¦£à¦¤":8178,"à¦¨à¦ħà¦¥":8179,"à¦¦à¦²à¦¥":8180,"à¦ķà¦ĵà¦Ĺà¦£à¦¶":8181,"à¦£à¦ªà¦¦":8182,"à¦¨à¦ķà¦£":8183,"à¦Ĩà¦ĩà¦¡à¦¬":8184,"à¦®à¦ıà¦¨":8185,"à¦¬à¦ķà¦¥":8186,"à¦ªà¦ķà¦ļ":8187,"à¦ķà¦ĩà¦²":8188,"à¦°à¦ıà¦ķà¦¥":8189,"à¦¨à¦Ĩà¦ĩà¦ľ":8190,"à¦°à¦ľà¦²à¦¬":8191,"à¦¦à¦°à¦¬à¦¨à¦¸":8192,"à¦ıà¦ĸà¦¨à¦Ĩà¦®à¦°":8193,"à¦ħà¦¥à¦ļà¦¸":8194,"à§¨à§¦à§¨à§¨à§§à§®":8195,"à¦°à¦Ĩà¦®à¦¤à¦²":8196,"à¦¯à¦ķà¦°à¦¸":8197,"à¦°à¦¸à¦®à§Łà¦Ł":8198,"à¦ĩà¦²à¦ı":8199,"à¦ıà¦ķà¦Ĩà¦²":8200,"à¦ķà¦¬à¦ľ":8201,"à¦°à¦¸à¦®à§Łà¦Ĩà¦®":8202,"à¦²à¦Ĩà¦°à¦ķ":8203,"à¦ĩà¦ªà¦¬":8204,"à¦¤à¦¨à¦¬à¦¨":8205,"à¦¤à¦¨à¦ľ":8206,"à¦Łà¦¨à¦¥":8207,"à¦¦à¦°à¦°":8208,"à¦£à¦¶à¦ķ":8209,"à¦¤à¦¨à¦¸à¦®":8210,"à¦¨à¦ĩà¦īà¦Ł":8211,"à¦ıà¦ĩà¦Ĩà¦°":8212,"à¦¸à¦®à¦ľ":8213,"à¦ıà¦ĩà¦ĵà¦·":8214,"à¦²à¦¹à¦ķà¦°":8215,"à¦«à¦²à¦Ł":8216,"à¦¨à¦ıà¦ĩà¦²":8217,"à¦ĩà¦ıà¦ĩà¦¦":8218,"à¦Ĺà¦°à¦°":8219,"à¦¶à¦¨à¦ĵà¦¸":8220,"à§«à§«à§¦":8221,"à¦®à¦¨à¦Ĺà¦°à¦¥":8222,"à¦¤à§ľ":8223,"à¦²à¦īà¦¨":8224,"à¦ıà¦ĩà¦Ĺà¦²":8225,"à¦¥à¦¬à¦²":8226,"à¦¤à¦°à¦£à¦¦":8227,"à¦¬à¦¹à¦¨à¦ķ":8228,"à¦¨à¦Ĩà¦ĩà¦¨à¦ľ":8229,"à¦¬à¦ļà¦¨":8230,"à¦¦à¦¨à¦Ĺà¦°":8231,"à¦ľà¦¸à¦ľ":8232,"à¦¨à¦¸à§ľà¦ķ":8233,"à¦°à¦®à¦£à¦¶":8234,"à¦¨à¦ıà¦ķà¦ķ":8235,"à§Łà¦ķà¦°à¦²":8236,"à¦ľà¦°à¦¸":8237,"à¦ĸà¦¢":8238,"à¦ľà¦ľà§Ł":8239,"à¦°à¦£à¦¤à¦ķ":8240,"à¦¨à¦īà¦ªà¦¨":8241,"à¦¤à¦¹à§Łà¦ıà¦¬":8242,"à¦®à¦ķà¦°à¦²":8243,"à¦¶à¦ļà¦Ł":8244,"à¦ľà¦¨à¦Ĩà¦¹à¦¤":8245,"à¦¬à¦ķà¦¯":8246,"à¦ĸà¦ķà¦²":8247,"à¦ľà¦¨à¦Ĩà¦¹à¦¤à¦¹à§Ł":8248,"à¦Ĺà¦¸à¦¹à¦ķ":8249,"à¦ĩà¦ĵà¦°":8250,"à¦Ĩà¦ĩà¦¸à¦ķ":8251,"à§¨à§«à§¬":8252,"à¦°à¦ķà§ľ":8253,"à¦°à¦¦à¦«à¦¤à¦°":8254,"à¦Łà¦°à¦Ł":8255,"à¦·à¦Ĩà§Ł":8256,"à¦¨à¦ĩà¦ī":8257,"à¦Ĩà¦ĩà¦ıà¦«":8258,"à¦Ńà¦¬à¦¨à§Ł":8259,"à¦Ĩà¦°à¦¬à¦²":8260,"à¦ĩà¦ĩà¦ī":8261,"à§Łà¦¶à¦¤":8262,"à¦ªà¦¨à¦ļ":8263,"à¦¸à¦ħà¦¬":8264,"à¦°à¦ıà¦ķà¦ķà¦°":8265,"à¦¸à¦¦à¦¬":8266,"à¦¶à¦¹à¦°à¦¬":8267,"à¦°à¦ªà¦¥à¦¬":8268,"à¦ľà¦¨à¦¸à¦ļ":8269,"à¦Łà¦®à¦¡":8270,"à¦¬à¦ªà¦¡":8271,"à¦¤à¦¨à¦Ľ":8272,"à¦°à¦ľà§Łà¦¨":8273,"à¦°à¦ķà¦®à¦Ń":8274,"à¦¨à¦¡à¦®":8275,"à¦¸à¦ķà¦ª":8276,"à¦²à¦Ĩà¦¶":8277,"à§¨à§«à§¦à§¦":8278,"à¦ªà¦¹à¦¬":8279,"à¦¯à¦ĵà¦ľ":8280,"à¦§à¦ĵ":8281,"à§¨à§®à§¦":8282,"à¦¨à¦ķà¦¤":8283,"à¦ľà¦°à¦ķ":8284,"à¦Ĺà¦¤à¦Ĺ":8285,"à¦Łà¦¬à¦Ĺ":8286,"à¦¬à¦Ĩà¦¦":8287,"à¦ļà¦¤à¦°à¦Ĺà¦£":8288,"à¦£à¦¤à¦®":8289,"à¦·à¦ķà¦ıà¦¬":8290,"à¦®à¦Ĺà¦£":8291,"à¦°à¦¬à¦ĩà¦ª":8292,"à¦¨à¦ħà¦¡":8293,"à§§à§«à§§":8294,"à¦®à¦ıà¦Ń":8295,"à¦¬à¦ªà¦ķ":8296,"à¦ĺà¦ľ":8297,"à¦Ĩà¦Ĺà¦°à¦¤à¦²":8298,"à¦·à¦¸à¦®à§Ł":8299,"à¦ķà¦¦à¦®":8300,"à§Łà¦Ĩà¦¸à¦¤":8301,"à¦ħà¦®à¦¨":8302,"à¦ĩà¦²à¦ªà¦°":8303,"à§Łà¦Ńà§Ł":8304,"à¦¤à¦¨à¦Ł":8305,"à¦²à¦°à¦¹":8306,"à¦¥à¦°à¦¬":8307,"à¦²à§Łà¦¦":8308,"à¦ĩà¦¸à¦ł":8309,"à§©à§©à§¦":8310,"à¦¤à¦ıà¦ķà¦¸":8311,"à¦Ĺà¦łà¦¨à¦¨":8312,"à¦¬à¦°à¦£à¦ª":8313,"à¦ıà¦²à¦¨":8314,"à¦ŀà¦ļ":8315,"à¦¬à¦ļà¦Ł":8316,"à¦¯à¦ĸà¦¨à¦¶":8317,"à¦·à¦īà¦ªà¦²à¦ķ":8318,"à¦¯à¦Ĩà¦®à¦¦":8319,"à¦®à¦Ĩà¦¯":8320,"à¦Łà¦Ĩà§Ł":8321,"à¦²à¦¨à¦Ľ":8322,"à¦°à¦ıà¦¯":8323,"à¦¦à¦¨à¦ªà¦°":8324,"à¦Łà¦¸à¦¬à¦ļ":8325,"à¦ľà¦¨à¦¥":8326,"à¦¬à¦ķà¦°à¦¬":8327,"à¦²à¦ħà¦ªà¦°":8328,"à¦²à¦ķà¦Ł":8329,"à¦ıà¦¸à¦«":8330,"à§¨à§¦à§§à§Ńà§§à§®":8331,"à¦°à¦¬à¦ĩà¦®":8332,"à¦ªà¦¦à¦ļ":8333,"à¦®à¦²à¦¸":8334,"à¦¤à¦¨à¦ĺà¦Ł":8335,"à§§à§¯à§¬à§§":8336,"à¦ħà¦¬à¦¸à¦°à¦¨":8337,"à¦Īà¦¦à¦īà¦²à¦«":8338,"à§§à§¯à§«à§ª":8339,"à¦¬à¦°à¦īà¦¦":8340,"à¦¬à¦¸à¦¦":8341,"à¦īà¦Ĩà¦¬":8342,"à¦ľà¦ĵà¦¹":8343,"à§¨à§«à§®":8344,"à¦¤à¦Ĩà¦¸à¦²":8345,"à¦¯à¦ĵà¦¦":8346,"à¦¨à¦ķà¦¯":8347,"à¦ĸà¦ķà¦¶":8348,"à¦°à¦ĵà¦Ĩà¦®":8349,"à¦¸à¦®à¦¶":8350,"à¦¹à§Łà¦Ł":8351,"à¦ĩà¦ľà¦Ł":8352,"à¦¶à¦¨à¦ķà¦°à¦¬":8353,"à¦°à¦Ĺà¦£à¦¹à¦¤":8354,"à¦¶à¦ķà¦²":8355,"à¦¯à¦Ĩà¦¶":8356,"à¦°à¦Ĩà¦¨à¦¬":8357,"à¦¦à¦¶à¦®à¦¶":8358,"à§¨à§§à§¦":8359,"à¦ıà¦°à¦Ł":8360,"à§§à§¨à§¦à§«":8361,"à¦¯à¦ĩà¦īà¦°":8362,"à¦¥à¦ķà¦¬":8363,"à¦°à¦¸à¦®à¦ªà¦°":8364,"à¦«à¦ľà¦°":8365,"à¦ıà¦¸à¦ĩà¦¤":8366,"à¦ļà¦ķà¦²":8367,"à¦«à¦°à¦¸":8368,"à¦ħà¦ªà¦¹à¦°à¦£à¦ķà¦°":8369,"à¦¹à§Łà¦²":8370,"à¦°à¦¸à¦¹à¦ħà¦¨":8371,"à¦ķà¦ĸà¦¬":8372,"à¦°à¦ªà¦°à¦ĵà¦ķ":8373,"à¦ĵà¦Ĩà¦ľ":8374,"à¦¦à¦¤à¦¬":8375,"à¦ıà¦ĩà¦ıà¦²":8376,"à¦¬à¦¹à¦¨à¦¸":8377,"à§¨à§®à§¯":8378,"à¦°à¦ĵà¦ķà¦®":8379,"à¦¤à¦Ĺà¦£":8380,"à¦ıà¦ĩà¦ħà¦°":8381,"à¦ıà¦°à¦ªà¦°à¦ª":8382,"à¦¨à¦ĩà¦ļ":8383,"à¦²à¦ıà¦ĸ":8384,"à¦Ĩà¦°à¦ıà¦¬":8385,"à¦·à¦ıà¦ķ":8386,"à¦¥à¦°à¦¦":8387,"à¦¬à¦¨à¦¸à¦Ļ":8388,"à¦ľà¦ķà¦¤à¦¤":8389,"à§¨à§¦à§¨à§¨à§Ń":8390,"à¦¬à¦ķà¦°à¦Ľ":8391,"à¦·à¦Ĩà¦ªà¦¨":8392,"à¦īà¦²à¦Ļ":8393,"à¦ıà¦ķà¦°à¦ķà¦®":8394,"à¦²à¦¸à¦®à¦°":8395,"à¦¤à¦²à¦ĵà¦ľà¦²":8396,"à¦·à¦¦à¦ª":8397,"à¦°à¦¹à¦ĩà¦¤":8398,"à¦¸à¦¬à¦ªà¦°":8399,"à¦®à¦°à¦¨":8400,"à¦·à¦ħà¦®":8401,"à¦®à¦¤à¦ķà¦°":8402,"à¦¬à¦°à¦ħà¦Ĺ":8403,"à¦¨à¦Ńà¦¦":8404,"à¦¤à¦¨à¦®à¦¨":8405,"à¦·à¦£à¦ħà¦¨":8406,"à¦¨à¦ļà¦²à¦Ľ":8407,"à¦ķà¦īà¦ªà¦ľ":8408,"à¦¸à¦ĩ":8409,"à¦°à¦¬à¦ĩà¦¸à¦®":8410,"à¦ķà¦°à¦£à¦ıà¦¬":8411,"à¦Ĺà¦²à¦°":8412,"à¦¸à¦°à¦¶à¦Ļ":8413,"à¦ľà¦²à¦ĸ":8414,"à¦¨à¦¶à¦¨à¦¸":8415,"à¦ľà¦ħà¦«":8416,"à¦ıà¦°à¦¡":8417,"à¦¤à§İà¦ªà¦°à¦¤":8418,"à¦Ĩà¦®à¦ľ":8419,"à¦ĩà¦¨à¦ĵà§Ł":8420,"à¦¦à¦¹à¦ļ":8421,"à¦ķà¦ľà¦¨à¦®":8422,"à¦ĩà¦ķà¦ļ":8423,"à§Łà¦¸à§ľà¦ķà¦¦":8424,"à¦²à¦ĵà¦¸à¦®":8425,"à¦Ĩà¦°à¦¸à¦®":8426,"à¦Ŀà¦ªà¦¥":8427,"à¦¦à¦¬à¦¨":8428,"à§İà¦Ĩà¦ªà¦¨":8429,"à¦ıà¦®à¦ıà¦¬":8430,"à¦Ńà¦¬à¦¨à¦¨":8431,"à¦®à¦Ĩà§Ł":8432,"à¦¶à¦Ŀ":8433,"à¦ĸà¦ķà¦¤":8434,"à¦¡à¦ıà¦¨":8435,"à¦¹à§Łà¦ıà¦¦":8436,"à§ľà¦ľ":8437,"à¦¢à¦²":8438,"à¦ıà¦ķà¦ľà¦¨à¦¯":8439,"à¦Łà¦ħà¦ŀ":8440,"à§Łà¦ħà¦«":8441,"à¦ĩà¦ĵà¦¦":8442,"à¦°à¦¸à¦¦à¦°à¦¶":8443,"à¦°à¦ĭà¦£à¦¦":8444,"à¦¶à¦Ĩà¦ĵà¦¯":8445,"à¦°à¦Ĩà¦°à¦¨":8446,"à¦¸à¦¦à¦®":8447,"à¦ķà¦ħà¦¨à¦²":8448,"à¦°à¦ĩà¦¸à¦°":8449,"à¦Łà¦°à¦«":8450,"à¦¬à§Łà¦¸à¦Ń":8451,"à¦²à¦¯à¦ĸà¦¨":8452,"à¦²à¦¹à¦ķà¦¶":8453,"à§¬à§©à§¬":8454,"à¦ķà¦ķà¦ª":8455,"à§§à§Ńà§¨":8456,"à¦¹à¦¯à¦°à¦¤à¦¶":8457,"à¦¬à¦²à¦¯":8458,"à§Łà¦¬à¦¸à¦¬":8459,"à¦£à¦ĵà¦¸":8460,"à¦ıà¦®à¦¨à¦¯":8461,"à§¨à§¦à§§à§«à§¨à§¦à§§à§¬":8462,"à¦²à¦ļà¦°":8463,"à¦ıà¦§":8464,"à§¨à§ªà§¯":8465,"à¦¡à¦Ĩà¦²":8466,"à¦°à¦¬à§ľà¦¬":8467,"à§¨à§¦à§¨à§¬":8468,"à¦¯à¦¤à¦°":8469,"à¦¹à¦ľà¦¨":8470,"à¦ªà¦¨à¦¥":8471,"à¦°à¦ĵà¦Ľ":8472,"à¦¹à¦¤à¦¦à¦°":8473,"à¦ªà¦¥à¦ļà¦²":8474,"à¦¸à¦°à§Ł":8475,"à¦ªà¦īà¦ªà¦¨":8476,"à¦®à¦ĸà¦¨":8477,"à¦ıà¦®à¦¨à¦¸à¦®à§Ł":8478,"à¦¯à¦ķà¦ķ":8479,"à¦¡à¦¹à¦²":8480,"à¦¨à¦ªà¦Ľà¦¨":8481,"à¦¦à¦ķà¦ļ":8482,"à¦§à¦ķà¦¬":8483,"à¦¤à¦Ĩà¦¬à¦¦":8484,"à§Łà¦¤à¦¦à¦¨":8485,"à§Łà¦ķà¦°à¦¬":8486,"à¦°à¦¬à¦ĩà¦Ł":8487,"à¦Ľà¦ĸ":8488,"à§§à§¯à§©à§¦":8489,"à¦Ĩà¦ľà¦«":8490,"à§§à§ªà§¨à§§":8491,"à¦ķà¦ķà¦¨":8492,"à¦¸à¦¨à¦¥":8493,"à¦ªà¦¬à§Łà¦¸":8494,"à¦ĵà¦¹à¦²":8495,"à¦£à¦ĵà¦¬":8496,"à¦¨à¦¸à¦°à¦¬à¦°":8497,"à¦¤à¦Ĺà¦¬":8498,"à§§à§ªà§¨à§¨":8499,"à¦ĩà¦Ľà¦¡":8500,"à¦ĩà¦ķà¦ķà¦°":8501,"à¦ĩà¦¨à¦¸à¦®":8502,"à¦Łà¦¬à¦¸":8503,"à¦¹à¦Ĩ":8504,"à¦ªà¦¨à¦Ń":8505,"à§©à§¬à§¦":8506,"à¦Ĩà¦Łà¦ĺà¦°":8507,"à¦·à¦ķà¦Ĩà¦²":8508,"à¦°à¦Ŀà¦¡":8509,"à¦¯à¦Ĩà¦¤":8510,"à¦ĸà¦ľà¦¨":8511,"à¦°à¦ķà¦¸à¦®":8512,"à¦ļà¦¨à¦¶":8513,"à¦ıà¦«à¦ķ":8514,"à¦¦à¦¨à¦«à¦°à¦®":8515,"à¦ĩà¦¬à¦¦à¦²":8516,"à¦®à¦ľà¦²":8517,"à¦°à¦¶à¦°à¦£":8518,"à¦¸à¦Ńà¦°":8519,"à¦ļà¦¸à¦®":8520,"à¦¹à¦¤à¦°à§Ł":8521,"à¦²à¦ĸà¦¬à¦°à¦ĵà¦¬":8522,"à¦ľà¦ł":8523,"à§Łà¦®à¦¬":8524,"à¦ªà¦¬à¦¸":8525,"à¦«à¦°à¦®à¦ª":8526,"à¦¦à¦Ĩà¦¶":8527,"à¦ıà¦°à¦ĸ":8528,"à§İà¦¸à¦°à¦¬à¦°":8529,"à¦īà¦ªà¦ª":8530,"à§¨à§¬à§«":8531,"à¦¯à¦¦à¦°":8532,"à¦¨à¦Ĩà¦Ĺà¦¸":8533,"à¦Ĩà¦°à¦ħ":8534,"à¦¯à¦ĩà¦ļ":8535,"à¦¹à¦®à¦¹":8536,"à¦ħà¦ªà¦ķà¦°":8537,"à¦ĩà¦ľà¦¦":8538,"à¦ªà¦¸à¦ıà¦¨":8539,"à§§à§¯à§¬à§Ń":8540,"à¦ĺà¦°à¦¸":8541,"à¦®à¦ħà¦¨à¦²":8542,"à¦²à¦ķà¦¸à¦®":8543,"à¦ľà¦¸à¦¹":8544,"à¦ıà¦®à¦ıà¦ķ":8545,"à¦°à¦ĵà¦ªà¦°à¦ľ":8546,"à¦¯à¦Ĩà¦ĩà¦¨à¦Ĩà¦¦":8547,"à¦¨à¦ħà¦¨à¦¨":8548,"à¦ıà¦ĩà¦¬à¦Ľà¦°":8549,"à¦ıà¦ĸà¦¨à¦ĵà¦¤":8550,"à¦·à¦¤à¦¥":8551,"à¦¸à¦Ľà¦¬":8552,"à¦¤à¦Ĺà¦¦":8553,"à¦ĩà¦ıà¦¸à¦¬":8554,"à¦¹à¦ªà§ľ":8555,"à¦ļà¦ĵà§Ł":8556,"à§§à§¯à§¬à§«":8557,"à¦¹à¦²à¦Ĺ":8558,"à¦ıà¦°à¦ĩà¦§":8559,"à¦¬à§ľà¦ªà¦°":8560,"à¦®à¦²à¦Ĺà¦ŀ":8561,"à¦Ĺà¦£à¦ľ":8562,"à¦īà¦²à¦Ł":8563,"à§©à§ªà§®":8564,"à¦®à¦ĺà¦Łà¦ª":8565,"à¦¤à¦Ĩà¦ĵà§Ł":8566,"à¦¨à¦ĸà¦¬à¦°à¦ª":8567,"à¦ªà¦¸à¦Ĺ":8568,"à¦¯à¦ĸà¦¨à¦ıà¦ķà¦Ł":8569,"à¦ĵà¦ĩà¦Ł":8570,"à¦ĸà¦¬à¦°à¦Ĺ":8571,"à¦ıà¦ķà¦ľà¦¨à¦¦":8572,"à§§à§¯à§«à§¬":8573,"à§¨à§«à§Ń":8574,"à¦ķà¦ĸà¦¨à¦ķ":8575,"à¦ľà¦ĸà¦®":8576,"à§Łà¦¦à¦¶":8577,"à§¨à§«à§¯":8578,"à¦¯à¦Ĺà¦¬":8579,"à¦¯à¦¬à¦ľ":8580,"à¦¯à¦ıà¦ĩà¦ª":8581,"à¦¨à¦ħà¦ļ":8582,"à¦īà¦¡à¦¬à¦²":8583,"à¦Łà¦ªà¦¤à¦Ļ":8584,"à¦ıà¦¸à¦ıà¦®à¦ľ":8585,"à¦Ĺà¦²à¦ħ":8586,"à¦ĵà¦«à¦²":8587,"à¦®à¦ķà¦°à¦¬":8588,"à¦¹à¦ĩà¦ļ":8589,"à¦°à¦¤à¦¹à¦¬":8590,"à¦ħà¦¬à¦¨à¦¤":8591,"à¦ļà¦ķà¦°à¦¤":8592,"à¦ļà¦²à¦¶":8593,"à¦¥à¦®à¦ķ":8594,"à¦ĩà¦ľà¦¨à¦ª":8595,"à¦ıà¦°à¦ªà¦°à¦ķ":8596,"à¦ıà¦®à¦¨à¦ľ":8597,"à¦ļà¦¨à¦ķà¦°à¦¬":8598,"à¦ĩà¦Ńà¦¦":8599,"à¦ªà¦¨à¦ħà¦¨":8600,"à§§à§Ńà§§à§®":8601,"à¦¤à§Ł":8602,"à¦¨à¦ĵà¦°à¦«":8603,"à§ªà§ªà§¬":8604,"à¦°à¦īà¦ªà¦°à¦¶":8605,"à¦ªà¦¦à¦Ń":8606,"à¦¯à¦ĵà¦¤":8607,"à¦¥à¦ĺ":8608,"à¦°à¦ķà¦«":8609,"à¦¤à¦®à¦¯":8610,"à¦ªà¦Ńà¦Ł":8611,"à¦¶à¦°à¦¦":8612,"à¦¨à¦īà¦°":8613,"à¦ķà¦¨à¦®":8614,"à¦¤à¦°à¦ļà¦¨":8615,"à¦ļà¦¨à¦°":8616,"à¦¡à¦²à¦¬":8617,"à¦¸à¦¦à¦Ńà¦¬à¦¨":8618,"à¦¦à¦°à¦¯":8619,"à¦¨à¦Ĩà¦°à¦ª":8620,"à¦°à¦¨à¦Ĺà¦¦":8621,"à¦Ĩà¦ľà¦¯":8622,"à¦Ĩà¦ªà¦¸":8623,"à¦°à¦®à¦¨à¦®":8624,"à¦¨à¦ıà¦ĩà¦°":8625,"à¦ıà¦°à¦īà¦¤":8626,"à¦ĵà¦īà¦ļ":8627,"à¦īà¦Łà¦¬":8628,"à¦ķà¦ĺà¦¨":8629,"à¦®à¦ĸà¦£":8630,"à¦°à¦ªà¦Łà¦Ń":8631,"à¦¤à¦¨à¦ªà¦°":8632,"à¦¨à¦²à¦¨":8633,"à¦ĩà¦Łà¦ľ":8634,"à¦¹à¦¤à¦Ń":8635,"à¦ıà¦ķà¦ľà¦¨à¦ķà¦°":8636,"à¦¤à¦ĵà¦¦":8637,"à¦ıà¦ĩà¦ļà¦¸":8638,"à§¨à§Ńà§¯":8639,"à¦ıà¦¸à¦Ĩà¦°à¦ı":8640,"à¦¦à¦°à¦ļ":8641,"à¦¨à¦ıà¦®à¦ıà¦ķ":8642,"à¦¨à¦Ĺà¦¡":8643,"à¦Ĩà¦®à¦¬":8644,"à¦²à¦ªà¦²":8645,"à§¨à§®à§©":8646,"à¦¨à¦īà¦ªà¦ķ":8647,"à¦Łà¦Ĩà¦Ĺà¦¸":8648,"à§Łà¦Ĺà¦£à¦¸à¦®":8649,"à¦¤à¦¨à¦¹à¦¬":8650,"à¦¨à¦Ĺà¦°à¦Ľ":8651,"à¦¸à¦ªà¦¡":8652,"à§©à§¬à§«":8653,"à§¨à§¦à§¨à§¨à§¦à§¯":8654,"à¦īà¦«à¦«":8655,"à¦¨à¦ķà¦ł":8656,"à¦¦à¦²à¦¸":8657,"à¦²à§Łà¦¹":8658,"à¦°à¦ľà¦¸":8659,"à¦¨à¦¬à¦ªà¦¦":8660,"à¦§à¦¨à¦¹":8661,"à¦¬à¦Ľà¦°à¦¨":8662,"à¦²à¦®à¦¸à¦ľ":8663,"à¦¡à¦¸à¦¹":8664,"à¦«à§Łà¦ľ":8665,"à¦¤à¦ķà¦¶":8666,"à¦¯à¦¶à¦°":8667,"à¦ĭà¦£à¦Ĺ":8668,"à¦°à¦¸à¦¬à¦¦":8669,"à¦ıà¦¸à¦ı":8670,"à¦¯à¦ĵà¦¶":8671,"à¦·à¦Ĩà¦¹à¦¤":8672,"à¦¦à¦¨à¦¦à¦¤":8673,"à§§à§¯à§§à§¨":8674,"à¦ķà¦¹à¦°":8675,"à¦°à¦®à¦£à¦¥":8676,"à¦¥à¦ĸ":8677,"à¦ıà¦ĸà¦¨à¦°":8678,"à¦¬à¦ĵà¦¯":8679,"à¦ľà¦Ĩà¦°":8680,"à¦¦à¦ķà¦¸à¦¹à¦Ĩà¦Łà¦ķ":8681,"à¦¤à¦®à¦Ĺ":8682,"à¦¬à¦ĵà¦¤":8683,"à§ªà§¦à§ª":8684,"à¦ķà¦Ĩà¦ľà¦ķ":8685,"à¦Łà¦ĵà¦°":8686,"à¦·à¦Ĩà¦¦":8687,"à¦°à¦«à¦ľà¦²":8688,"à¦ĸà¦²à¦¦":8689,"à¦Ĩà¦ĩà¦ļ":8690,"à¦¯à¦¹à¦ĵà§Ł":8691,"à§§à§¦à§¦à§¦à§¦":8692,"à¦Ńà¦¬à¦¤à¦¬":8693,"à¦ıà¦°à¦ħ":8694,"à¦°à¦£à¦¤à¦ª":8695,"à§§à§¨à§§à§©":8696,"à¦ķà¦Ŀà¦ķ":8697,"à¦ķà¦ĩà¦īà¦ª":8698,"à¦¸à§ľà¦ķà¦ħà¦¬à¦°":8699,"à¦¯à¦īà¦¦à¦ĺ":8700,"à¦¯à¦¤à¦ª":8701,"à¦ıà¦ķà¦§à¦°à¦£":8702,"à¦²à¦ıà¦Ľ":8703,"à¦¹à¦¨à¦Ń":8704,"à¦¦à¦ķà¦ĵà¦¸":8705,"à¦²à¦ĵà¦ªà¦°":8706,"à¦¨à¦Ĩà¦°à¦Ĩà¦®":8707,"à¦®à¦Ĩà¦¸à¦²":8708,"à¦«à¦Ĩà¦¹à¦®":8709,"à¦¨à¦Ĩà¦²à¦®":8710,"à¦¸à¦ħà¦Ń":8711,"à¦¸à¦ħà¦§":8712,"à¦«à¦²à¦°":8713,"à§ªà§Ńà§§à§¬":8714,"à¦¯à¦ĸà¦¨à¦ľ":8715,"à¦Ĩà¦°à¦ĵà¦ĸ":8716,"à¦¶à¦Ĩà¦ªà¦¨":8717,"à¦¬à¦¨à¦ļ":8718,"à¦§à¦¨à¦¹à¦¬":8719,"à§ľà¦ĸ":8720,"à¦®à¦¶à¦ķ":8721,"à¦ĩà¦®à¦ľ":8722,"à¦·à¦£à¦ļà¦¨":8723,"à¦ķà¦¸à¦¹à¦ľ":8724,"à¦Ĩà¦²à¦Ĺ":8725,"à¦Ĺà¦¤à¦ħà¦°":8726,"à¦Ĺà¦®à¦Ĺà¦ŀ":8727,"à¦°à¦²à¦°":8728,"à¦²à¦¸à¦®à¦Ĺ":8729,"à¦ļà¦ĩà§Ł":8730,"à¦ħà¦§à¦°":8731,"à¦¤à¦®à¦ħà¦§":8732,"à¦¶à¦°à¦¤":8733,"à¦īà§ľà¦¤":8734,"à¦ĵà¦ļà¦²à¦¬":8735,"à¦°à¦¸à¦¬à¦Ł":8736,"à¦¯à¦ıà¦¶":8737,"à¦¥à¦ķà¦Ń":8738,"à¦°à¦ľà¦ĵà§Ł":8739,"à¦¨à¦¸à¦¬à¦ľ":8740,"à¦²à¦ħà¦§":8741,"à¦ĸà¦Ĩà¦¬à¦¦":8742,"à¦ľà¦¸à¦®à¦¨":8743,"à¦¨à¦«à¦Ł":8744,"à¦ľà¦ĵà¦®":8745,"à¦ķà¦«à¦²":8746,"à¦ĩà¦Ńà¦Ĩà¦ªà¦¡":8747,"à¦¤à¦¤à¦¸":8748,"à¦¤à¦ķà¦Ĩà¦¸":8749,"à¦²à¦īà¦ļ":8750,"à¦°à¦¤à¦ħà¦¬à¦¸":8751,"à¦¤à¦°à¦£à¦¨":8752,"à¦ĩà¦«à¦ĩà¦¨":8753,"à¦Ĩà¦°à¦ĵà¦ļ":8754,"à¦·à¦ĵà¦¬":8755,"à¦ĩà¦ĵà¦¨":8756,"à¦ĩà¦ıà¦°à¦¸":8757,"à§§à§Ńà§©":8758,"à¦īà¦¡à¦«":8759,"à¦¤à¦®à¦¸à¦®":8760,"à¦²à¦ħà¦²":8761,"à¦¨à¦ľà¦°à¦ķ":8762,"à§İà¦ļà¦¨":8763,"à¦Łà¦ıà¦ĩ":8764,"à¦¤à¦ªà¦¥":8765,"à¦®à§Łà¦®":8766,"à¦Łà§Łà¦²":8767,"à¦Ĺà¦ıà¦²":8768,"à¦§à¦ªà¦ķ":8769,"à¦®à¦Ĩà¦ªà¦¡":8770,"à¦Łà¦¨à¦¨":8771,"à¦ĩà¦Ĩà¦ª":8772,"à¦²à¦Ĩà¦ĩà¦¨":8773,"à¦¤à¦ĸà¦¨à¦Ĩà¦ªà¦¨":8774,"à¦¨à¦Ĺà¦°à¦¥":8775,"à¦ħà¦¸à¦¤":8776,"à¦°à¦Ĺà¦łà¦¨à¦ķà¦°":8777,"à¦¸à¦ľà¦®":8778,"à¦ªà¦Ĩà§Ł":8779,"à§Łà¦¸à¦®à¦¸":8780,"à¦°à¦ĺà¦°à¦¬":8781,"à¦¹à¦°à¦Ĺ":8782,"à§Łà¦Ļ":8783,"à¦ĩà¦ıà¦ĩà¦ķ":8784,"à¦·à¦£à¦ľ":8785,"à¦¨à¦Ĩà¦ķà¦°":8786,"à¦°à¦ªà¦°à¦¹à¦¤":8787,"à¦¡à¦¸à¦Ń":8788,"à§¨à§¦à§¨à§§à§§":8789,"à§©à§«à§®":8790,"à¦ıà¦¸à¦¨":8791,"à¦¤à¦Ļ":8792,"à¦ĵà¦ĩà¦²":8793,"à§§à§¯à§ªà§¬":8794,"à¦ıà¦ĩà¦¬à¦ĩà¦Ł":8795,"à¦ĸà¦°à¦ªà¦°":8796,"à¦¨à¦ıà¦®à¦¬":8797,"à¦°à¦®à¦ħà¦¨":8798,"à¦°à¦¤à¦¹":8799,"à¦°à¦¥à¦®à¦ķà¦°":8800,"à¦°à¦īà¦ªà¦ª":8801,"à¦¨à¦ıà¦ĩà¦ļà¦ıà¦¸à¦¸":8802,"à¦¦à¦ĩà¦īà¦¨":8803,"à¦¡à¦¸à¦ª":8804,"à¦ľà¦ľà¦Ĩà¦¦":8805,"à¦ªà¦²à¦¬":8806,"à¦¸à¦¨à¦ıà¦¬":8807,"à§¨à§¯à§«":8808,"à¦¹à¦ķà¦®":8809,"à¦¤à¦¹à§Łà¦®":8810,"à¦£à¦Ĩà¦ªà¦¨":8811,"à¦¤à¦¹à¦ĩà¦¤":8812,"à¦°à¦ĵà¦¤à¦¥":8813,"à¦¸à¦²à¦ķà¦°à¦¤":8814,"à¦Ľà¦ķà¦°":8815,"à¦°à¦ľà¦¨à¦¤":8816,"à¦°à¦ıà¦ķà¦ľà¦¨à¦ķ":8817,"à¦¸à¦«à¦°à¦®":8818,"à¦¸à¦ıà¦¨à¦ıà¦®à¦ıà¦ķ":8819,"à¦ĵà¦°à¦ļ":8820,"à¦®à¦¸à¦¦":8821,"à¦ķà¦°à¦ĸ":8822,"à¦·à¦¦à¦¤":8823,"à¦¨à¦ıà¦ĩà¦ħà¦Ń":8824,"à§¨à§¦à§¨à§¨à§¦à§®":8825,"à¦¬à¦ĩà¦ªà¦¡":8826,"à¦°à¦ķà¦Ĺ":8827,"à¦¤à¦®à¦ĵà¦Ń":8828,"à¦¡à¦²à¦ķ":8829,"à¦ķà¦Ĩà¦§":8830,"à¦¤à¦ªà¦¦à¦ķ":8831,"à¦ľà¦Ŀ":8832,"à¦ĵà¦ªà¦°à¦¬à¦°":8833,"à¦«à¦°à¦¶":8834,"à¦ļà¦ħà¦Ĺ":8835,"à¦¨à¦¬à¦®à¦¦à¦¶à¦®à¦¶":8836,"à¦¤à¦£":8837,"à¦°à¦°à¦¨":8838,"à§§à§Ńà§¯":8839,"à¦¹à§Łà¦ıà¦¸à¦®à§Ł":8840,"à§İà¦¸à¦°à¦ķ":8841,"à¦«à¦Ľ":8842,"à¦łà¦¯":8843,"à¦²à¦«à¦°":8844,"à¦®à¦īà¦ª":8845,"à¦°à¦¤à¦®à¦¹":8846,"à¦°à¦ħà¦ªà¦¸":8847,"à¦°à¦¹à¦¥":8848,"à¦īà¦¨à¦Ł":8849,"à¦°à¦Ķà¦·à¦§":8850,"à¦²à¦Ĩà¦°à¦¬":8851,"à§§à§«à§¨à§¦":8852,"à¦ķà§Łà¦Ł":8853,"à¦Ĩà¦°à¦Ĩà¦®à¦°":8854,"à¦ıà¦¸à¦ķà¦²":8855,"à§¨à§¦à§¨à§¨à§¨":8856,"à¦¨à¦Ńà¦ķ":8857,"à¦¹à¦¨à¦ķà¦°":8858,"à¦ªà¦¦à¦ıà¦¬":8859,"à¦¨à¦¸à¦¹à¦¯":8860,"à¦ĵà¦ªà¦¦":8861,"à¦¬à¦ķà¦°à¦°":8862,"à¦¯à¦ĸà¦¨à¦°":8863,"à¦Ńà¦¬à¦ķà¦°à¦Ľ":8864,"à¦¬à¦¶à¦¤à¦¬à¦°":8865,"à§Łà¦¬à¦Ľà¦°":8866,"à¦ıà¦ķà¦¦à¦¶à¦ķ":8867,"à¦¤à¦®à¦¸à¦ľ":8868,"à¦¸à¦¦à¦°à¦¶":8869,"à¦ªà¦¸à¦«":8870,"à¦¯à¦¸à¦®à§Ł":8871,"à¦¯à¦ĵà¦°":8872,"à¦¦à¦ķà¦¡":8873,"à¦²à¦Ńà¦ķ":8874,"à¦¬à¦²à¦²à¦¬":8875,"à¦²à¦ĵà¦¹":8876,"à¦¬à¦²à¦ĸ":8877,"à¦Ĺà¦¬à¦¸":8878,"à¦¤à¦«à¦°":8879,"à§Łà¦ķà¦¦":8880,"à¦¯à¦®à¦¦":8881,"à¦¨à¦ıà¦ĩà¦ł":8882,"à¦¯à¦Ĺà¦°":8883,"à§§à§¯à§§à§§":8884,"à¦®à¦ıà¦ĩ":8885,"à¦¨à¦¸à¦¹à¦ħà¦¨":8886,"à¦¤à¦ıà¦ĩà¦ª":8887,"à¦¯à¦ķà¦¯":8888,"à¦¨à¦Ĩà¦Ļ":8889,"à§Łà¦°à¦¸à¦ļ":8890,"à¦°à¦ĸà¦£":8891,"à¦°à¦¸à¦¨à¦ĸ":8892,"à¦®à¦ıà¦°à¦¸":8893,"à¦²à¦Ĩà¦īà§Ł":8894,"à¦¡à¦ıà¦ķà¦Ł":8895,"à¦¤à¦ĩà¦¬":8896,"à¦¬à¦¨à¦Ńà¦°":8897,"à¦¤à¦¹à¦¨à¦¨":8898,"à¦ĩà¦ļà¦²à¦¬":8899,"à¦°à¦°à¦ľ":8900,"à¦ķà¦ħà¦¥à¦¬":8901,"à§Łà¦¶à¦ķ":8902,"à¦ĩà¦¦à¦¹à¦¸":8903,"à¦·à§Łà¦¤":8904,"à¦¸à¦¬à¦¡":8905,"à¦ķà¦ĵà¦Ń":8906,"à¦¸à¦°à¦ª":8907,"à¦¹à¦²à¦¶":8908,"à¦¯à¦¤à¦®à¦ıà¦ķà¦Ł":8909,"à¦²à¦¬à¦²à¦²":8910,"à¦®à¦¨à¦§à¦°":8911,"à¦²à¦¦à¦¤":8912,"à¦²à¦ħà¦¬à¦¶":8913,"à¦¨à¦Ĩà¦ĩà¦¸":8914,"à§Łà¦¬à¦²à¦²":8915,"à§Łà¦ħà¦¥à¦¬":8916,"à¦ħà¦ĸ":8917,"à¦ķà¦ĵà¦Ł":8918,"à¦ĩà¦ªà¦¶":8919,"à¦°à¦¸à¦®à¦¬":8920,"à¦°à¦ıà¦°à¦ªà¦°":8921,"à¦¨à¦ĩà¦¶":8922,"à¦°à¦ªà¦°à¦¡":8923,"à¦ĸà¦°à¦¬à¦¸":8924,"à¦°à¦ĸà¦¬à¦°à¦Ł":8925,"à§¨à§©à§©":8926,"à¦¤à¦¸à¦®à§Łà¦ª":8927,"à¦ľà¦¨à¦¸à¦¦à¦¸":8928,"à¦Ńà¦¨à¦¦":8929,"à¦¥à¦Ĩà¦®":8930,"à¦ĵà¦Ĩà¦ĩà¦¸":8931,"à§¨à§¦à§¨à§§à§¦à§«":8932,"à¦¨à¦ĸà¦¬à¦°":8933,"à¦°à¦¬à¦Ľà¦°à¦Ĩà¦Ĺ":8934,"à¦¬à¦¦à¦®":8935,"à¦ĩà¦ĺà¦£":8936,"à¦ĵà¦ķà¦¨":8937,"à¦Ńà¦¬à¦Ľ":8938,"à¦ľà¦¬à¦Ľ":8939,"à¦Ĩà¦¯à¦¹":8940,"à¦¯à¦ĸà¦¨à¦¬à¦²":8941,"à§Łà¦ĵà¦ª":8942,"à¦ľà¦°à§Ł":8943,"à¦Ĺà¦¸à¦°":8944,"à¦¥à¦Ĩà¦Ľ":8945,"à¦¤à¦ĵà¦Ĺ":8946,"à¦°à¦Ĺà¦¹":8947,"à¦ªà¦Łà¦¨":8948,"à¦ĵà¦ĩà¦¹":8949,"à§Łà¦¦à¦¸":8950,"à¦Łà¦¬à§ľ":8951,"à¦ıà¦ĸà¦¨à¦ļ":8952,"à¦¬à§ľà¦ħ":8953,"à¦ľà¦īà¦¨":8954,"à¦ħà¦®à¦¸":8955,"à¦ķà¦°à¦¬à¦²":8956,"à¦ĩà¦²à¦Ĩà¦ªà¦¨":8957,"à¦īà¦²à¦Ĩà¦īà§Ł":8958,"à¦¦à¦ķà¦¹à¦²":8959,"à¦Ĩà¦ľà¦Ń":8960,"à¦°à¦£à¦¹à¦¯":8961,"à¦¨à¦®à¦¯":8962,"à¦²à¦ıà¦ĩà¦¬":8963,"à¦°à¦¨à¦²à¦ķ":8964,"à¦£à¦ıà¦²":8965,"à¦¨à§Łà¦¦":8966,"à¦īà¦¨à¦®":8967,"à¦Łà¦¬à¦²à¦ħà¦¨":8968,"à¦®à¦ĵà¦¶":8969,"à¦ĵà¦īà¦ªà¦¸":8970,"à¦°à¦¸à¦®à§Łà¦¹":8971,"à§Łà¦ĸà¦£":8972,"à¦¶à¦¤à¦¶à¦¤":8973,"à¦ķà¦°à¦«":8974,"à¦®à¦Ĺà¦²":8975,"à¦¥à¦¨à¦ľ":8976,"à¦ıà¦®à¦¨à¦ħà¦¬à¦¸":8977,"à¦Ĩà¦°à¦ĵà¦ķà§Ł":8978,"à§İà¦ĺ":8979,"à¦®à¦²à¦ª":8980,"à¦¨à¦ªà¦°à¦®":8981,"à¦¯à¦ľà¦¨à¦ķà¦Ń":8982,"à¦¯à¦ĵà¦®":8983,"à¦²à¦¤à¦ľ":8984,"à¦Ĩà¦°à¦ĵà¦¶":8985,"à¦§à¦ħà¦Ń":8986,"à¦¯à¦¬à¦¦à¦²":8987,"à§Łà¦²à¦ķà¦¡":8988,"à¦¹à§Łà¦Ĺà¦¤":8989,"à¦°à¦¸à¦ķà¦²à¦®":8990,"à¦¯à¦ĩà¦¯":8991,"à§§à§¯à§«à§®":8992,"à¦®à¦ľà¦®":8993,"à¦Ĺà¦ħà¦¸":8994,"à¦¬à¦Ĩ":8995,"à¦ķà¦Ĳà¦¤":8996,"à¦¹à§Łà¦¯à¦¦":8997,"à¦¨à¦Ĩà¦ľà¦¬":8998,"à§Łà¦Ĩà§ľ":8999,"à¦¶à¦Ĩà¦¸":9000,"à¦ıà¦ķà¦ıà¦ķà¦Ł":9001,"à¦Ĺà¦¤à¦¥":9002,"à¦ıà¦ĩà¦¨à¦¤":9003,"à¦ķà¦¨à¦ľ":9004,"à§©à§¦à§¦à§¦":9005,"à¦°à¦®à¦£à¦ļ":9006,"à§©à§©à§®":9007,"à§¨à§©à§¨à§¦à§¨à§¨":9008,"à¦¦à¦°à¦ıà¦¬":9009,"à¦¥à¦¹à¦ĵà§Ł":9010,"à§¨à§¦à§§à§®à§§à§¯":9011,"à¦«à¦Ń":9012,"à¦ľà¦«à¦«":9013,"à¦Ńà¦¬à¦¯":9014,"à¦¨à¦ıà¦ĩà¦¯":9015,"à¦¸à¦¹à¦ľà¦ıà¦¬":9016,"à§©à§©à§¬":9017,"à¦¥à¦¸à¦°à¦ķ":9018,"à§§à§¨à§¦à§®":9019,"à§Łà¦Ĩà¦¸à¦²":9020,"à¦¤à¦ķà¦ł":9021,"à¦Ĺà¦²à¦¶":9022,"à¦¬à¦¤à¦¤":9023,"à¦¬à¦£à¦Ń":9024,"à¦°à¦Ĩà¦īà¦Ł":9025,"à¦°à¦Ľà¦¡":9026,"à§§à§¯à§§à§¦":9027,"à¦¶à¦¸à¦«à¦°":9028,"à¦·à§Łà¦¯":9029,"à¦¬à¦²à¦«":9030,"à¦ĩà¦Ńà¦®":9031,"à¦Ĳà¦ĸ":9032,"à¦°à¦¸à¦¦à¦°à¦¹":9033,"à¦¤à¦ħà¦Ł":9034,"à¦°à¦¸à¦¬à¦§à¦°à¦¨":9035,"à¦¶à¦²à¦ª":9036,"à¦¹à¦¬à¦¹":9037,"à¦ıà¦¸à¦ıà¦®à¦¸":9038,"à¦ľà¦¸à¦¦à¦°à¦īà¦ªà¦ľ":9039,"à¦ĵà¦ħà¦Ĺ":9040,"à¦ľà¦¨à¦Ĺà¦°":9041,"à¦¹à¦¨à¦ļà¦²":9042,"à¦¸à¦ĩà¦¨à¦¸":9043,"à¦ĩà¦Ĩà¦¨à¦¨":9044,"à§¬à§©à§¦":9045,"à¦ķà¦¨à¦Ĺ":9046,"à¦Ĩà¦Łà¦ķà¦¦":9047,"à¦¨à¦ıà¦ķà¦¥":9048,"à¦°à¦īà¦ªà¦²à¦¬":9049,"à§¨à§©à§«":9050,"à¦¹à§Łà¦ıà¦ķà¦Ł":9051,"à¦°à¦®à¦¹à§ľ":9052,"à¦¥à¦§":9053,"à¦ĸà¦ķà¦Ń":9054,"à¦¯à¦Ĩà¦§":9055,"à¦°à¦£à¦¹à¦¬":9056,"à¦¹à¦¤à¦ķà¦°à¦¤":9057,"à¦ªà¦¸à¦ª":9058,"à¦ħà¦®à¦°":9059,"à¦ľà¦¨à¦ıà¦°à¦®à¦§":9060,"à§ªà§¬à§¦":9061,"à¦¹à¦°à¦Ĺà¦ŀ":9062,"à¦ĸà¦ķà¦¸à¦®":9063,"à¦ıà¦ĩà¦¶à¦°":9064,"à¦®à¦ĸà¦²":9065,"à¦°à¦®à¦¥":9066,"à¦°à¦ªà¦°à¦Ĩà¦®à¦°":9067,"à¦«à¦²à¦«à¦²":9068,"à§§à§¯à§¨à§¯":9069,"à¦ľà¦²à¦¨":9070,"à¦ľà¦²à¦°":9071,"à¦¯à¦ķà¦¤":9072,"à¦°à¦ĸà¦¬à¦°à¦ĸ":9073,"à¦ĸà¦²à¦®":9074,"à¦ĩà¦¬à§ľ":9075,"à¦°à¦¬à¦ī":9076,"à¦ĸà¦¬à¦°à¦ĸ":9077,"à¦ľà¦¨à¦¬à¦¨":9078,"à¦²à¦ĵà¦Ń":9079,"à¦¦à¦ķà¦Ľ":9080,"à¦ıà¦ĸà¦¨à¦¹":9081,"à¦¹à¦¯à¦°à¦¤à¦¸":9082,"à¦¥à¦¬à¦¨":9083,"à¦Ĩà¦°à¦ĵà¦ıà¦ķà¦¬":9084,"à¦ĸà¦¬à¦°à¦¡":9085,"à¦²à¦ľà¦¨à¦ª":9086,"à¦Ĩà¦ĩà¦¨à¦ĵà¦¬":9087,"à¦ĩà¦Łà¦¸à¦®":9088,"à¦ĩà¦¡à¦¹":9089,"à¦ªà¦ķà¦°à¦²":9090,"à¦ľà¦ĵà¦ª":9091,"à¦¹à¦¸à¦°":9092,"à¦ķà¦ªà§ľ":9093,"à¦·à¦ħà¦¸":9094,"à¦·à¦ķà¦Ĩà¦¨":9095,"à¦²à¦°à¦¦":9096,"à¦¤à¦ªà¦Ł":9097,"à¦¯à¦ĩà¦ıà¦ķà¦Ł":9098,"à¦ªà¦¦à¦²":9099,"à¦¤à¦ļà¦²à¦ļ":9100,"à§Łà¦Ĺà¦°":9101,"à¦¶à¦ľà¦®":9102,"à¦¸à¦ļà¦²à¦°":9103,"à¦Łà¦°à§Ł":9104,"à¦¬à¦¬à¦Ļ":9105,"à¦Łà¦¨à¦ļ":9106,"à¦·à¦ªà¦¥":9107,"à¦¬à§ľà¦ķà¦°":9108,"à¦Ĺà¦¨à¦ķ":9109,"à§¬à§¨à§®":9110,"à¦łà¦¡":9111,"à¦°à¦ķà¦®à¦¤":9112,"à¦ªà¦¨à¦ıà¦¬":9113,"à¦ĩà¦¬à¦²à¦¬":9114,"à¦²à¦¬à¦¶":9115,"à¦¸à¦¹à¦ıà¦ķà¦Ł":9116,"à¦ıà¦°à¦ªà¦°à¦®":9117,"à¦¸à¦¸à¦¹à¦ķ":9118,"à¦°à¦°à¦¥":9119,"à¦¸à¦¨à¦¶":9120,"à¦§à¦ķà¦²":9121,"à¦ĩà¦²à¦ħà¦¨":9122,"à¦¬à¦ķà¦¹":9123,"à¦ªà¦Ĩà¦°":9124,"à¦ķà¦°à¦£à¦Ł":9125,"à¦·à¦¹à§Łà¦¨":9126,"à§Łà¦ĵà¦¦":9127,"à¦¨à¦²à¦ķà¦¡":9128,"à¦®à¦²à¦Ĺ":9129,"à¦¦à¦ªà¦¡":9130,"à¦¸à¦¹à¦ľà¦¬":9131,"à§Łà¦ľà¦¨à¦ª":9132,"à¦¶à¦ķà¦¹":9133,"à¦·à¦£à¦ķà¦°à¦¬":9134,"à¦ªà¦¦à¦¯":9135,"à¦°à¦¤à¦Ľ":9136,"à¦Ĩà¦ĩà¦ĵà¦ıà¦¸":9137,"à¦¤à¦ıà¦ª":9138,"à¦¨à¦¬à¦¸à¦Ń":9139,"à¦¯à¦¸à¦®à¦¯":9140,"à¦°à¦ıà¦ķà¦ĩà¦¸à¦®à§Ł":9141,"à¦¤à¦¶à¦¤":9142,"à¦ĵà¦¤à¦¥":9143,"à¦¹à¦ħà¦°":9144,"à¦¶à¦®à¦°":9145,"à¦Ĺà¦ħà¦°":9146,"à¦ıà¦ķà¦ĺ":9147,"à¦¬à¦²à¦²à¦¸":9148,"à¦łà¦¸à¦®":9149,"à¦²à¦ĩà¦¨à¦¸":9150,"à¦¨à§Łà¦¨à¦ªà¦°":9151,"à¦Łà¦¨à¦°":9152,"à¦²à§Łà¦ªà¦°":9153,"à§§à§ªà§§":9154,"à¦¯à¦īà¦ªà¦²à¦¬":9155,"à¦Ĺà¦¤à¦¶à¦¨":9156,"à§¨à§¦à§Ń":9157,"à¦°à¦¥à¦®à¦«":9158,"à¦¬à¦°à¦ķà¦°":9159,"à¦²à§Łà¦ıà¦¬":9160,"à¦Łà¦ķà¦¦":9161,"à¦ĩà¦ľà¦¨à¦ķ":9162,"à§ªà§©à§¬":9163,"à¦Ĩà¦²à¦¸":9164,"à¦ķà¦Ĩà¦°à¦¬":9165,"à¦°à¦ĺà¦°à¦¥":9166,"à¦ĩà¦ķà¦ķ":9167,"à¦Ĺà¦Ĩà§Ł":9168,"à§§à§¯à§ªà§¦":9169,"à¦¤à¦ħà¦ªà¦¸":9170,"à¦¤à¦ļà¦¨":9171,"à¦ĩà¦²à¦ªà¦Ł":9172,"à¦¯à¦Ī":9173,"à¦ıà¦Ĩà¦ªà¦¨":9174,"à¦§à¦¨à¦¹à§Ł":9175,"à¦¨à¦Ĺà¦¦à¦Ł":9176,"à¦¨à¦¤à¦ĸà¦¨à¦¸":9177,"à¦¨à¦¨à¦°":9178,"à¦ķà¦²à¦Ļ":9179,"à¦¨à¦Ĺà¦°à¦¹":9180,"à¦¤à¦¯à¦¶":9181,"à¦¸à¦ķà¦Ń":9182,"à¦®à¦ļà¦°":9183,"à¦¶à¦Ĩà¦¬":9184,"à¦²à¦°à¦¹à¦®":9185,"à¦¬à¦ªà¦Ľà¦¨":9186,"à§¨à§¦à§¨à§¨à§®":9187,"à¦ªà¦ľà§Ł":9188,"à¦ĵà¦¯à¦¥":9189,"à¦°à¦Ĺà¦®":9190,"à§¨à§Ńà§«":9191,"à¦¯à¦¤à¦®à¦¶":9192,"à¦īà¦®à¦°à¦°":9193,"à¦®à¦ªà¦²":9194,"à¦ıà¦ĸà¦¨à¦ıà¦ķà¦Ł":9195,"à¦¬à¦²à¦¥":9196,"à¦¬à¦Ĩà¦®à¦°":9197,"à§¨à§¦à§¨à§§à§§à§§":9198,"à§¨à§«à§ª":9199,"à¦ıà¦²à¦¡":9200,"à¦¯à¦Łà¦ķà¦°":9201,"à¦°à¦ıà¦ĩà¦¹":9202,"à¦®à¦¶à¦¬":9203,"à¦īà¦ªà¦¶":9204,"à¦ªà¦¥à¦¨":9205,"à¦ħà¦®à¦²":9206,"à¦®à¦ĩà§Ł":9207,"à¦°à¦¥à¦®à¦²":9208,"à§Łà¦ªà¦²":9209,"à¦°à¦ªà¦¯":9210,"à¦¯à¦¤à¦Ĺ":9211,"à¦ıà¦ķà¦¡":9212,"à¦Ĩà¦·":9213,"à¦°à¦®à§İà¦¸":9214,"à¦¬à¦ĩà¦īà¦°":9215,"à¦°à¦ıà¦°à¦¨":9216,"à¦ıà¦ĸà¦¨à¦ľ":9217,"à¦ĺà¦¨à¦¤":9218,"à¦¨à¦°à¦ª":9219,"à¦Ľà¦²à¦¤":9220,"à¦łà¦ķà¦¸":9221,"à¦ıà¦®à¦¨à¦ķà¦°":9222,"à¦ıà¦ķà¦ĩà¦§à¦°à¦¨":9223,"à§Łà¦ıà¦®à¦¨à¦ķ":9224,"à¦¸à¦¬à¦¤":9225,"à§Łà¦¸à¦¦à¦¸":9226,"à§§à§¬à§¨à§¦à§¨à§¦":9227,"à¦¹à¦²à¦Ĩà¦ªà¦¨":9228,"à¦¸à¦¹à¦ľà¦¹à¦¬":9229,"à¦ıà¦°à¦ķà¦®à¦ıà¦ķà¦Ł":9230,"à¦¬à¦ħà¦ª":9231,"à¦ĵà¦°à¦Ń":9232,"à¦ĩà¦¨à¦ķà¦°à¦¤":9233,"à§§à§®à§©":9234,"à§Łà¦¦à¦¨":9235,"à¦ĵà¦²à¦ķ":9236,"à¦°à¦Ŀà¦°":9237,"à¦°à¦Ĩà¦Łà¦ķà¦ķà¦°":9238,"à¦¨à¦¸à¦®à¦Ĺ":9239,"à¦ľà¦¤à¦²":9240,"à¦¶à¦Ĩà¦ľ":9241,"à¦·à¦¯à¦¦":9242,"à¦īà¦ľà¦Ń":9243,"à¦Łà¦¬à¦²à¦²":9244,"à¦¯à§Łà¦¬à¦¹":9245,"à¦¶à¦¨à¦ıà¦ķ":9246,"à¦¬à¦ħà¦¬":9247,"à¦¨à¦ĸà¦°à¦ļ":9248,"à¦ĩà¦ıà¦®":9249,"à¦ıà¦ĩà¦ķà¦®":9250,"à¦¦à¦īà¦ªà¦ľ":9251,"à¦¨à¦ĵà¦ķà¦°":9252,"à¦¬à¦¨à¦ªà¦°":9253,"à¦®à¦®à¦°":9254,"à¦®à¦¹à¦ĵà§Ł":9255,"à¦¬à¦Ĩà¦¹à¦®":9256,"à¦²à¦¹à¦ķà¦ª":9257,"à¦ļà¦ħ":9258,"à¦īà¦Łà¦ĩà¦¨":9259,"à¦Łà¦Ĩà¦ľ":9260,"à¦°à¦īà¦ĸ":9261,"à§Łà¦ħà¦®":9262,"à¦ļà¦°à¦¬":9263,"à¦Ĺà¦£à¦Ń":9264,"à¦ĺà¦°à¦Ń":9265,"à§¨à§¨à§ª":9266,"à¦²à¦ĵà¦Ĺ":9267,"à§Łà¦®à¦§":9268,"à¦°à¦®à¦¥à¦ļ":9269,"à¦²à¦¹à¦ķà¦ľ":9270,"à¦ĩà¦²à¦¸à¦¦":9271,"à¦ĸà¦ķà¦¨":9272,"à¦Ĳà¦¸":9273,"à¦¸à¦ĵà¦¤":9274,"à¦¬à¦°à¦Ľ":9275,"à¦¥à¦¦à¦£":9276,"à¦ĩà¦ıà¦°à¦¬":9277,"à¦¨à¦¦à¦°à¦ķ":9278,"à¦®à¦Ľà¦¬":9279,"à¦°à¦ħà¦£":9280,"à¦²à¦¤à¦ªà¦°":9281,"à§§à§Ńà§Ń":9282,"à¦¤à¦¸à¦ķà¦²à¦¤à¦¥":9283,"à¦¬à¦¹à¦ļ":9284,"à¦ĵà¦ĩà¦īà¦°":9285,"à¦°à¦īà¦ªà¦¸à¦ļ":9286,"à¦°à¦¸à¦¦à¦°à¦¸":9287,"à¦²à¦ıà¦°à¦®":9288,"à§Łà¦°à¦¯":9289,"à¦ĵà¦¸à¦ķ":9290,"à¦ıà¦ķà¦ĩà¦Ĺ":9291,"à§©à§©à§«":9292,"à¦²à¦¹à¦ķà¦¨":9293,"à¦ļà¦ķà¦¸":9294,"à¦¯à¦¸à¦¬à¦ķ":9295,"à¦«à¦²à¦¹":9296,"à¦®à¦Ĩà¦¶":9297,"à¦ļà§Łà¦¬":9298,"à¦°à¦§à¦°à¦£":9299,"à¦ľà¦¸à¦¦à¦°à¦®":9300,"à§§à§ªà§§à§«":9301,"à¦Ľà¦Ĩà¦®":9302,"à¦²à¦¤à¦ĸà¦¨à¦¤":9303,"à¦¤à¦°à¦ħà¦¸":9304,"à¦¡à¦¸à¦°":9305,"à§§à§¬à§¨":9306,"à¦Ĩà¦°à¦¬à¦Ĩà¦®":9307,"à¦¸à¦ķà¦²à¦ľ":9308,"à¦ĺà¦°à¦Ľ":9309,"à¦ªà¦£à¦¨":9310,"à¦¶à¦Ĩà¦¦":9311,"à¦¦à¦¤à¦¹":9312,"à¦¦à¦īà¦ªà¦¨":9313,"à¦¤à¦ķà¦¸":9314,"à¦¶à¦Ĺà¦¡":9315,"à¦«à¦īà¦¦":9316,"à¦¹à§Łà¦Ĩà¦¬":9317,"à¦¨à¦ľà¦¨à¦¨":9318,"à¦¯à¦®à¦®":9319,"à§©à§Ńà§Ń":9320,"à¦ķà¦°à¦£à¦¸":9321,"à¦ķà¦ĩà¦¬":9322,"à¦¤à¦¨à¦Ńà¦Ĺà¦¤":9323,"à¦ľà¦ĺà¦¨":9324,"à¦ħà¦¬à¦¤à¦°à¦£":9325,"à¦¤à¦¸à¦®à§Łà¦¸":9326,"à¦°à¦ıà¦ķà¦¸à¦Ļ":9327,"à¦®à¦ļà¦²":9328,"à§İà¦Ľ":9329,"à¦°à¦ĩà¦¸à¦®":9330,"à¦Ĺà¦°à¦®à¦ķà¦°":9331,"à¦ĵà¦ľà¦¨à¦¬":9332,"à¦°à¦ĸà¦¬à¦°à¦ħà¦¨":9333,"à¦Łà¦ħà¦ªà¦°":9334,"à¦Ĺà¦īà¦¨":9335,"à¦·à¦°à¦ļà¦¨":9336,"à¦¸à¦°à¦¡à¦®":9337,"à¦Ńà¦¨à¦¬à¦¬à¦°":9338,"à¦¬à¦Ĩà¦¸":9339,"à¦®à¦¦à¦Ĩà¦®":9340,"à¦¨à¦ħà¦¦":9341,"à¦·à¦īà¦¦à¦¯":9342,"à§Łà¦ķà¦ĸà¦¨":9343,"à¦¡à¦¬à¦Ĺ":9344,"à¦ķà¦ıà¦ĸ":9345,"à¦Łà¦¸à¦¶":9346,"à¦°à¦ıà¦¹":9347,"à¦īà¦¡à¦¤":9348,"à¦°à¦²à¦¸à¦Ń":9349,"à¦²à¦ļà¦¤":9350,"à¦ľà¦²à¦ľ":9351,"à¦Łà¦«à¦Ł":9352,"à¦®à¦ħà¦ª":9353,"à¦ªà¦ķà¦Ĺ":9354,"à§¬à§¦à§¬":9355,"à¦¤à¦ıà¦Ľ":9356,"à¦°à¦ĩà¦ħà¦¨":9357,"à¦¸à¦¹à¦ľà¦²à¦Ń":9358,"à¦ĩà¦ļà¦Ł":9359,"à¦ĵà¦¬à¦¸":9360,"à§¨à§¬à§ª":9361,"à¦ĵà¦¸à¦®à¦¯":9362,"à¦ĸà¦¬à¦ķ":9363,"à¦¥à¦¹à¦¬":9364,"à¦īà¦ªà¦¸à¦®":9365,"à¦®à¦¦à¦¦":9366,"à¦¯à¦Ĩà¦ľà¦ķ":9367,"à¦°à¦¬à¦ĩà¦¬":9368,"à§İà¦¸à¦ķà¦¤":9369,"à¦ķà¦¨à¦¡":9370,"à¦¤à¦Ĩà¦¯":9371,"à¦°à¦ªà¦°à¦ĵà¦¬":9372,"à¦¨à¦¨à¦¨":9373,"à¦¨à¦ĵà¦·":9374,"à¦£à¦¹à¦ĵà§Ł":9375,"à¦°à¦¬à¦īà¦ķ":9376,"à¦¨à¦Ĺà¦°à¦Ĺ":9377,"à¦°à¦¸à¦¹à¦Ĺ":9378,"à¦ĺà¦¸à¦®à§Ł":9379,"à¦£à¦¬à¦°":9380,"à¦¸à¦®à§Łà¦®à¦¤":9381,"à¦¬à¦ļà¦°":9382,"à¦ľà¦ļà¦²":9383,"à¦ıà¦ıà¦«à¦ª":9384,"à¦ıà¦ķà¦²à¦ķà¦°":9385,"à¦īà¦Łà¦ħà¦¬":9386,"à¦¸à¦ĵà¦ķ":9387,"à¦·à¦£à¦ĸ":9388,"à¦£à¦īà¦ĩà¦®":9389,"à¦¨à§Łà¦ķà¦°à¦Ľ":9390,"à§Łà¦īà¦ªà¦¸à¦®":9391,"à¦ªà¦§à¦°":9392,"à¦¨à¦¤à¦ĸà¦¨à¦ķ":9393,"à¦²à¦¸à¦ļ":9394,"à¦Ĺà¦¤à¦¸à¦®":9395,"à¦ıà¦ĩà¦¸à¦°à¦ķ":9396,"à§©à§®à§Ń":9397,"à¦ķà¦Ĩà¦¨à¦¨":9398,"à¦Łà¦ĩà¦²":9399,"à¦°à¦¤à¦«à¦¸":9400,"à§Łà¦ĩà¦®":9401,"à¦ıà¦²à¦°":9402,"à¦¨à¦ĩà¦ľ":9403,"à¦¸à¦ħà¦¸":9404,"à¦¨à¦ıà¦ĩà¦ļà¦¡":9405,"à¦¸à¦¹à¦ľà¦īà¦ª":9406,"à¦«à¦īà¦¨":9407,"à§¨à§¦à§¬":9408,"à¦¯à¦¦à¦°à¦ķ":9409,"à¦¬à¦ĵà¦¦":9410,"à¦Ĺà¦¤à¦¡":9411,"à§§à§§à§§à§©":9412,"à¦Ĺà¦¨à¦¤":9413,"à¦«à¦°à¦ľ":9414,"à¦¨à¦ıà¦°à¦¨":9415,"à¦¶à¦ıà¦ĸà¦¨":9416,"à¦ĩà¦Ĩà¦ĩà¦Ł":9417,"à§§à§¯à§«à§«":9418,"à¦°à¦īà¦ªà¦°à¦Ĩà¦²":9419,"à¦Ľà¦¦à¦¶":9420,"à¦¯à¦¬à¦¡":9421,"à¦²à¦¤à¦ħà¦ªà¦°":9422,"à¦Ĺà¦ħà¦«":9423,"à¦¨à¦ľà¦¸":9424,"à¦¨à¦ıà¦¯":9425,"à¦·à¦ĵà¦Ń":9426,"à¦ĩà¦¨à¦ħ":9427,"à¦ķà¦¸à¦®à¦¨":9428,"à¦¤à¦ĸà¦¨à¦°":9429,"à¦°à¦£à¦Ĩà¦ĩà¦¨":9430,"à¦ĵà¦Ĩà¦¨à¦¨":9431,"à¦¨à¦¹à¦ķ":9432,"à¦ĩà¦īà¦Ń":9433,"à¦¨à¦Ĩà¦īà¦Ł":9434,"à¦²à¦¦à¦°":9435,"à¦¸à¦¬à¦§à¦°à¦£":9436,"à¦°à¦ĵà¦®à¦°":9437,"à¦¨à¦ªà¦Ł":9438,"à§Łà¦¬à¦²à¦¤":9439,"à¦®à¦¨à¦ħà¦¨":9440,"à¦°à¦¸à¦°à¦¦":9441,"à¦Ĺà¦¤à¦®à¦Ļ":9442,"à¦Ĳà¦®":9443,"à¦łà¦²":9444,"à§§à§¯à§©à§¯":9445,"à¦¸à¦ķà¦Ĺ":9446,"à¦·à¦¨à¦¨":9447,"à¦¸à¦¹à¦ĵà§Ł":9448,"à¦¯à¦ĸà¦¨à¦¯":9449,"à§¦à§«à§¦":9450,"à¦¶à¦¦à¦¤":9451,"à¦²à¦Ĩà¦ĵà§Ł":9452,"à¦Ĩà§Łà¦ķà¦°à¦¤":9453,"à¦·à¦¨à¦¦":9454,"à¦ªà¦¦à¦ķà¦°":9455,"à¦Ĺà¦¸à¦®à§Ł":9456,"à¦¹à¦ĩà¦Ľ":9457,"à¦¤à¦ıà¦ķà¦ª":9458,"à¦Ĺà¦ĩà¦¤":9459,"à¦īà¦²à¦Ĩà¦²à¦®":9460,"à§ľà¦ķà¦īà¦¨":9461,"à¦¦à¦ķà¦ħ":9462,"à§§à§«à§§à§¬":9463,"à¦¨à¦®à¦²":9464,"à§§à§¯à§ªà§¯":9465,"à¦«à¦²à¦Ĺ":9466,"à¦¡à¦¹à¦¤":9467,"à¦¦à¦¶à¦¸":9468,"à¦°à¦ļà¦®à§İà¦ķ":9469,"à¦²à¦ªà¦°à¦¬à¦°":9470,"à¦¶à¦ªà¦²":9471,"à¦Ĳà¦ª":9472,"à§¨à§®à§«":9473,"à§Łà¦Ĩà¦ľà¦ķ":9474,"à¦ĺà¦Łà¦ķ":9475,"à¦¬à¦Ľà¦°à¦¥":9476,"à¦¤à¦®à¦Ļ":9477,"à¦®à¦Ĩà¦ª":9478,"à¦¶à¦ł":9479,"à¦Ĩà¦°à¦ĵà¦īà¦ªà¦¸":9480,"à§¨à§¯à§®":9481,"à¦°à¦¹à¦¨à¦ķ":9482,"à¦²à¦ıà¦°":9483,"à§¨à§¦à§¨à§¦à§¦":9484,"à¦ħà¦¥à¦ļà¦ª":9485,"à¦°à¦¶à¦®":9486,"à¦ĩà¦²à¦«à¦²à¦ķ":9487,"à¦¶à¦¤à¦°":9488,"à¦°à¦®à¦¤à¦²à¦¬à¦¦à¦ķ":9489,"à¦¦à¦ĵà¦ķ":9490,"à¦¨à¦¨à¦ľà¦°":9491,"à¦·à¦ħà¦¬à¦¦":9492,"à¦°à¦£à¦Ĩà¦²":9493,"à¦²à¦īà¦®":9494,"à§¨à§¦à§¨à§§à§©":9495,"à¦ĩà¦ľà¦ªà¦°":9496,"à¦¶à¦ľà¦¨":9497,"à¦ĩà¦¦à¦ķ":9498,"à¦ıà¦ķà¦ĩà¦®":9499,"à§Łà¦°à¦ªà¦¦":9500,"à¦Ĺà¦¨à¦ª":9501,"à¦°à¦¬à¦ļà¦¨":9502,"à¦ĩà¦¨à¦¬à¦ķ":9503,"à¦ĵà¦Ĩà¦§":9504,"à¦²à¦¨à¦¥":9505,"à¦°à¦®à¦ıà¦¬":9506,"à¦¹à¦ķà¦ªà¦°":9507,"à§Łà¦ıà¦¸à¦®à§Ł":9508,"à¦¬à¦¹à¦¸":9509,"à¦°à¦®à¦¨à¦Ń":9510,"à¦®à¦ļà¦¤":9511,"à¦¨à¦°à¦ľ":9512,"à¦Ĩà¦ĩà¦¹":9513,"à¦¯à¦¸à¦¹à¦¯":9514,"à¦¬à¦ĩà¦¶":9515,"à¦ķà¦ľà¦¨à¦¦":9516,"à¦ķà¦ĺà¦°":9517,"à¦ļà¦¶à¦¤":9518,"à¦¯à¦ĩà¦īà¦¨":9519,"à¦°à¦īà¦Ńà§Łà¦Ńà¦¬à¦¨":9520,"à§©à§ªà§¦":9521,"à¦°à¦Ĺà¦¤à¦ķ":9522,"à¦°à¦īà¦¸":9523,"à¦¯à¦ľà¦¨à¦ª":9524,"à¦°à¦ķà¦¨à¦Ł":9525,"à¦¦à¦§à¦°":9526,"à¦¬à¦¨à¦¡":9527,"à¦°à¦ĸà¦¤":9528,"à¦¨à¦«à¦ķ":9529,"à¦²à¦ħà¦ŀ":9530,"à¦īà¦ľà¦¸à¦®":9531,"à¦ĩà¦ľà¦¯":9532,"à¦¬à¦ħà¦§":9533,"à§§à§Ńà§¨à§¦à§¨à§¨":9534,"à¦ľà¦¤à¦¥":9535,"à¦²à¦¬à¦ª":9536,"à¦ĵà¦ĩà¦Ľ":9537,"à¦Ĩà¦°à¦ĵà¦¶à¦ķ":9538,"à¦ķà¦ļà¦²à¦ļ":9539,"à¦ĩà¦«à¦īà¦¦":9540,"à¦ĩà¦Ĺà¦¤":9541,"à§Łà¦ľà¦²":9542,"à¦¡à¦¸à¦«":9543,"à§¨à§ªà§¨":9544,"à§Łà¦®à¦¸":9545,"à¦¸à¦¹à¦¨à¦¶":9546,"à¦¤à¦°à¦£à¦Ľ":9547,"à§Łà¦ħà¦Ł":9548,"à¦Łà¦ľà¦¨à¦¸":9549,"à¦¹à¦ķà¦°à¦¬":9550,"à¦ĺà¦¨à¦ķ":9551,"à§§à§¯à§¨à§¦":9552,"à¦¤à¦ħà¦²":9553,"à§Łà¦īà¦ļ":9554,"à¦°à¦®à¦¤à¦ıà¦ķà¦Ł":9555,"à¦¯à¦¬à¦²à¦¤":9556,"à¦ĩà¦®à¦Ł":9557,"à¦Łà¦īà¦ª":9558,"à§Łà¦ķà¦ľ":9559,"à¦łà¦ķà¦°à¦¤":9560,"à¦¬à§İ":9561,"à¦ħà¦ľà¦Ĺ":9562,"à¦ªà¦¥à¦Ĺ":9563,"à¦ķà¦°à¦ľà¦²à¦¦":9564,"à§©à§®à§¬":9565,"à¦ħà¦ļà¦²":9566,"à¦¸à§İà¦®":9567,"à¦¡à¦Ĩà¦ķ":9568,"à¦¬à¦ķà¦¸à¦®":9569,"à¦¬à¦¸à¦¦à¦¸":9570,"à¦°à¦Ĩà¦°à¦ĵà¦¦":9571,"à¦ĸà¦¬à¦°à¦¤":9572,"à¦ļà¦ķà¦Ń":9573,"à§İà¦ĵà¦ľ":9574,"à¦¨à¦ıà¦ķà¦ĩà¦¸à¦Ļ":9575,"à¦Ľà¦¦à¦ķà¦ķ":9576,"à¦¦à¦²à¦¤":9577,"à¦¨à¦ĺà¦¨":9578,"à¦¶à¦¨à¦ħà¦¬à¦¬":9579,"à¦Ĺà¦Ńà¦Ļ":9580,"à¦¹à¦ıà¦ķ":9581,"à§ľà¦ļ":9582,"à¦ľà¦Ĩà¦¹à¦®à¦¦":9583,"à¦¯à¦īà¦ł":9584,"à§©à§«à§ª":9585,"à¦¬à§Łà¦ķà¦°":9586,"à¦Ĩà¦²à¦®à¦¸":9587,"à¦ĸà¦°à¦ļà¦¬":9588,"à§Łà¦ıà¦ĩà¦¸":9589,"à¦ıà¦¤à¦¬à¦¡":9590,"à¦¬à¦¸à¦ĵ":9591,"à¦·à¦ħà¦§":9592,"à¦¬à§ľà¦ľ":9593,"à¦ıà¦Ĩà§Ł":9594,"à¦ļà¦ĵà¦¸":9595,"à¦ħà¦¯à¦¥":9596,"à¦¬à¦¸à¦Ĩà¦ľ":9597,"à¦ĸà¦ķà¦·":9598,"à¦°à¦ıà¦ĩà¦ļà¦¡":9599,"à¦Ĩà¦ĩà¦¶":9600,"à¦ķà¦Łà¦°":9601,"à§Łà¦°à¦¤":9602,"à¦®à§Łà¦«":9603,"à¦¹à¦°à¦ªà¦¥":9604,"à¦ķà¦ĵà¦¤":9605,"à¦Ĩà¦Ĺà¦²":9606,"à¦ķà¦ĸà¦¨à¦ĵ":9607,"à¦ıà¦®à¦¨à¦ĺà¦Łà¦¨":9608,"à¦¦à¦¸à¦¬":9609,"à¦²à¦ķà¦§":9610,"à¦²à¦¹à¦ķà¦®à¦¨":9611,"à¦¹à¦¤à¦¯":9612,"à¦¹à§Łà¦¬à¦°":9613,"à¦ıà¦ĩà¦¬à¦Ľ":9614,"à¦¯à¦Ĩà¦¹":9615,"à¦ļà¦®à¦ķà¦ª":9616,"à¦²à¦¬à¦¦à¦²":9617,"à¦ıà¦ĩà¦Ĩà¦²":9618,"à§¨à§¦à§¨à§§à§¦à§«à§ªà§¦":9619,"à¦°à¦ĩà¦Ĺ":9620,"à¦¬à¦²à¦¸à¦®":9621,"à§«à§¨à§¦à§¨à§§à§¦à§«à§ªà§¦":9622,"à¦¸à¦¹à¦Ĩà¦°":9623,"à¦¹à¦¸à¦ķà¦°":9624,"à¦°à¦ıà¦°à¦Ĩà¦Ĺ":9625,"à¦§à¦Ĩà¦¨":9626,"à¦·à¦£à¦¸à¦®à¦¤à¦²à¦ĵà¦ľà¦²":9627,"à¦īà¦ĩà¦ľ":9628,"à¦īà¦¨à¦¯":9629,"à¦ªà¦¥à¦Ń":9630,"à¦¹à¦Łà¦¸":9631,"à¦¤à¦ıà¦¤":9632,"à¦¤à¦ªà¦¬":9633,"à¦ĭà¦£à¦ªà¦°":9634,"à¦·à¦¸à¦ª":9635,"à¦¦à¦ħà¦¸":9636,"à§Łà¦ĩà¦¸":9637,"à¦¨à¦Ĩà¦°à¦¦":9638,"à¦¸à¦²à¦¤":9639,"à¦®à¦¨à¦¡":9640,"à¦¹à¦°à¦°à¦¸":9641,"à¦¬à¦°à¦®à¦¹":9642,"à¦¸à¦¨à¦ļ":9643,"à¦¯à¦ªà¦¶":9644,"à¦ıà¦ķà¦¨à¦¤":9645,"à¦¯à¦ĩà¦¶":9646,"à¦¨à¦ľà¦¯":9647,"à¦Ĺà¦ĵà¦¯":9648,"à¦ľà¦¨à¦®à¦¹":9649,"à¦¨à¦¬à¦ķà¦£":9650,"à¦ªà¦ķà¦ªà¦°":9651,"à¦¶à¦Ĺà§ľà¦¤":9652,"à¦®à¦ıà¦®":9653,"à§§à§ªà§¨à§©":9654,"à¦ĭà¦£à¦ĸ":9655,"à¦¦à¦Ĩà¦¬à¦¦":9656,"à¦°à¦ĩà¦Ĩà¦®":9657,"à¦ıà¦¸à¦ıà¦®à¦ıà¦®":9658,"à¦°à¦£à¦ľà¦¨à¦Ĺà¦£":9659,"à¦¨à¦Ĺà¦°à¦°":9660,"à¦°à¦Ĩà¦ľà¦¬":9661,"à¦ıà¦ķà¦ľà¦¨à¦ļ":9662,"à¦¦à¦Ĩà¦¦":9663,"à¦ĩà¦ıà¦ĩà¦®":9664,"à¦ªà¦ħà¦Ń":9665,"à¦°à¦ĸà¦ª":9666,"à¦¨à¦«à¦ľ":9667,"à¦ĵà¦¸à¦®à¦°":9668,"à¦²à¦Ńà¦¬à¦¨":9669,"à§Łà¦¨à¦ĺ":9670,"à¦°à¦ªà¦°à¦Ľ":9671,"à¦°à¦¸à¦¦à¦°":9672,"à¦·à¦¤à¦ļ":9673,"à¦ĵà¦ľà¦¬":9674,"à¦ĩà¦®à¦§":9675,"à¦ķà¦¨à¦¦":9676,"à¦¬à¦ªà¦¨à¦®":9677,"à¦ªà¦®à¦¹":9678,"à¦¦à¦®à¦²":9679,"à¦ķà¦²à¦°":9680,"à¦Ĩà¦ĩà¦¨à¦®":9681,"à¦Ĩà¦Łà¦²":9682,"à¦¸à¦¹à¦ľà¦ķ":9683,"à¦°à¦¨à¦¹":9684,"à§İà¦¸à¦ķà¦¨":9685,"à¦¤à¦ķà¦Ĺ":9686,"à¦°à¦ĩà¦¨à¦«":9687,"à¦ıà¦ķà¦ľà¦¨à¦¡":9688,"à¦¨à¦Ĩà¦°à¦¶":9689,"à¦Ĺà¦®à¦ķà¦°":9690,"à§¨à§¨à§©":9691,"à¦¯à¦²à¦ķ":9692,"à¦¹à¦¨à¦Ĺà¦ŀ":9693,"à¦ĵà¦ľà¦®":9694,"à¦ıà¦°à¦ªà¦°à¦¦":9695,"à§©à§«à§¬":9696,"à¦¡à¦ķà¦Ń":9697,"à¦°à¦ĩà¦Ł":9698,"à¦ĵà¦¸à¦¹à¦¯":9699,"à¦°à¦§à¦°à¦¨à¦ħà¦¨":9700,"à¦¬à§ľà¦¶":9701,"à¦Ĩà¦²à¦¨":9702,"à¦²à¦ıà¦®":9703,"à¦¯à¦ıà¦¤":9704,"à¦°à¦ıà¦ķà¦«":9705,"à¦°à¦ıà¦°à¦ľà¦¨":9706,"à¦²à¦ľà¦¬à¦¬":9707,"à¦°à¦ķà¦ķà¦°":9708,"à¦Ĺà¦Ĩà¦¬":9709,"à¦·à¦¤à¦¸":9710,"à¦¨à¦ªà¦°à¦ķ":9711,"à§Łà¦ªà§ľà¦¤":9712,"à¦ķà¦¸à¦¨à¦¦":9713,"à¦®à¦ħà¦¬à¦¸":9714,"à¦ıà¦®à¦¨à¦ħà¦Ń":9715,"à¦Ĺà¦īà¦łà¦²":9716,"à¦ıà¦ĩà¦ļà¦ķ":9717,"à¦¸à¦¬à¦ıà¦²":9718,"à¦¤à¦ħà¦Ļ":9719,"à¦®à¦ªà¦¦":9720,"à¦²à¦ıà¦ľ":9721,"à¦¬à¦ľà¦²":9722,"à¦Ľà¦§à¦°à¦¤":9723,"à¦ĵà¦ļà¦²à¦Ľ":9724,"à§¨à§¬à§¦":9725,"à¦īà§İà¦ķà¦£":9726,"à¦ªà¦īà¦ļ":9727,"à§§à§¯à§ªà§©":9728,"à¦¬à¦²à¦²à¦®":9729,"à¦ħà¦¥à¦ļà¦¬":9730,"à¦¶à¦ĵà¦ķà¦¤":9731,"à¦¯à¦ĺà¦°":9732,"à¦ªà¦ľà¦²":9733,"à¦¨à¦¦à¦²à¦Ł":9734,"à¦ĸà¦¬à¦°à¦ļ":9735,"à¦²à¦ĵà¦ķà¦²":9736,"à§§à§¯à§ªà§«":9737,"à§Łà¦°à¦ı":9738,"à¦°à¦¬à¦Ľà¦°à¦§à¦°":9739,"à¦¤à¦ĵà¦Ń":9740,"à¦ĩà¦Łà¦¶":9741,"à¦¤à¦¸à¦ķà¦²à¦ķ":9742,"à¦¨à¦¨à¦¸":9743,"à¦²à¦Ĺà¦Ĺ":9744,"à¦¨à¦¸à¦ķà¦²à¦ª":9745,"à¦¨à¦°à¦¦":9746,"à¦ĩà¦¡à¦«":9747,"à¦ĵà¦®à¦¤":9748,"à¦¬à¦ķà¦Ĩà¦Łà¦ķ":9749,"à¦ĩà¦Ĩà¦ĵà§Ł":9750,"à¦Ĩà¦°à¦ĵà¦¯":9751,"à¦¤à¦ķà¦¡":9752,"à¦¹à¦¤à¦Ľ":9753,"à¦·à¦®à¦¬":9754,"à¦ķà¦Łà¦¹à¦¤":9755,"à¦¸à¦¤à¦¬":9756,"à¦·à¦ķà¦¯":9757,"à¦§à¦ĵà¦¬":9758,"à¦²à¦Ĩà¦°à¦¤":9759,"à¦ľà¦¨à¦ķà¦°à¦Ľ":9760,"à¦®à¦ħà¦¬":9761,"à¦°à¦£à¦ħà¦Ń":9762,"à¦¸à¦¹à¦¸à¦®":9763,"à¦®à¦²à¦ķà¦°à¦¬":9764,"à¦Ĺà¦²à¦¡":9765,"à¦¨à¦¬à¦¦à¦²":9766,"à§§à§¦à§§à§§":9767,"à¦Ĩà¦®à¦¨à¦§":9768,"à¦¦à¦¸à¦¨":9769,"à¦¯à¦¤à¦®à¦®":9770,"à§¨à§¦à§¨à§¨à§§à§¬":9771,"à¦¶à¦¹à¦ĵà§Ł":9772,"à¦®à¦¤à¦ªà¦°":9773,"à¦¤à¦¸à¦ŀ":9774,"à¦Ĺà¦¤à¦ķà¦¯":9775,"à¦¤à¦īà§İà¦ª":9776,"à¦°à¦Ĩà¦¨à¦ħà¦¨":9777,"à¦ĵà¦¸à¦®à§Ł":9778,"à§Łà¦ªà¦ķ":9779,"à¦ªà¦¦à¦¶":9780,"à¦¤à¦¤à¦ª":9781,"à¦¤à¦ĸà¦°à¦ļ":9782,"à¦·à¦ķà¦°à¦Ľ":9783,"à¦ĵà¦Ĺà¦°":9784,"à¦¬à§Łà¦ķà¦®":9785,"à¦·à¦£à¦ķà¦°à¦²":9786,"à¦²à¦ªà¦£":9787,"à¦¬à¦°à¦£à¦¦":9788,"à§Łà¦Ĺà¦£à¦®":9789,"à¦¹à¦Ĩà¦¨":9790,"à¦ĺà¦¤":9791,"à¦¦à¦ł":9792,"à¦¤à¦Ĩà¦¨à¦¨":9793,"à¦ļà¦Ĺà¦¤":9794,"à¦¨à¦ªà¦°à¦¸":9795,"à¦§à¦ķà¦°à¦£":9796,"à¦ķà¦¸à¦Ĺ":9797,"à§©à§©à§Ń":9798,"à¦ļà¦²à¦ķà¦°à¦¤":9799,"à¦īà¦ľà¦ļ":9800,"à¦¯à¦ıà¦Ĺ":9801,"à¦ĩà¦²à¦¸à¦°":9802,"à§§à§ªà§¨à§ª":9803,"à¦°à¦Ĩà¦¨à¦ĵà¦¹":9804,"à§§à§ªà§¨à§®":9805,"à§Łà¦¸à¦¬à¦ļ":9806,"à§¬à§Ńà§¬":9807,"à¦ķà¦Ńà¦°":9808,"à¦°à¦ĩà¦īà¦ľ":9809,"à¦ĩà¦²à¦īà¦ªà¦ľ":9810,"à¦¶à¦Ĩà¦Ľ":9811,"à§¨à§¨à§¨à§¦à§¨à§¨":9812,"à¦īà§ľà¦¨":9813,"à¦Ĺà¦ıà¦ķà¦Ł":9814,"à¦ĩà¦ħà¦«":9815,"à§§à§¦à§§à§Ń":9816,"à¦¯à¦ĩà¦°":9817,"à¦Łà¦¯à¦¦":9818,"à¦²à¦ĵà¦ħà¦¨":9819,"à¦Łà¦Ĩà¦ªà¦¬":9820,"à§ªà§¦à§¦à§¦":9821,"à¦£à¦ķà¦°à¦²":9822,"à¦Ĩà¦Łà¦ª":9823,"à¦¸à¦¬à¦ĩà¦¬":9824,"à¦ĵà¦ıà¦ĩà¦¬":9825,"à§§à§®à§¦à§¦":9826,"à¦°à¦Ľà¦¤":9827,"à¦¸à¦ıà¦°à¦¬":9828,"à¦ľà¦ĵà¦ķ":9829,"à¦°à¦ĵà¦ªà¦°à¦¯":9830,"à¦¸à¦ıà¦°à¦®":9831,"à¦Ĺà¦ľà¦²":9832,"à¦°à¦¤à¦²à¦¦":9833,"à¦²à¦ľà¦®":9834,"à§¬à§¨à§Ń":9835,"à§§à§¯à§¦à§®":9836,"à¦²à¦Ĩà¦ľà¦ķ":9837,"à¦¡à¦ħà¦°":9838,"à¦ĵà¦ªà¦¡":9839,"à¦ıà¦²à¦«":9840,"à§§à§¨à§¦à§Ń":9841,"à§Ŀà¦¬":9842,"à¦°à¦ĸà¦¬à¦°à¦Ĺ":9843,"à¦Īà¦¦à¦ķ":9844,"à¦Ĺà¦¦à¦¤":9845,"à¦Łà¦ıà¦°à¦ª":9846,"à¦īà¦ĩà¦¥":9847,"à§Łà¦°à¦¹":9848,"à¦°à¦®à¦Ń":9849,"à¦ĵà¦ĵà¦®à¦°":9850,"à¦ıà¦ĩà¦¸à¦¬à¦ķ":9851,"à¦°à¦§à¦°à¦¤":9852,"à¦ªà¦¸à¦¦":9853,"à¦Łà¦ıà¦°à¦®":9854,"à¦¶à¦Ĩ":9855,"à§¨à§¦à§©":9856,"à¦Ńà¦°à¦ķà¦°à¦¤":9857,"à¦ĩà¦ªà¦®":9858,"à§Łà¦°à¦¶":9859,"à¦¤à¦®à¦ŀ":9860,"à¦ıà¦¸à¦¹":9861,"à¦ĵà¦¸à¦ļ":9862,"à¦²à¦°à¦ªà¦¦":9863,"à¦Ńà§Łà¦ķà¦°":9864,"à¦®à¦ĩà¦īà¦°":9865,"à¦ĩà¦°à¦¹":9866,"à¦ıà¦¸à¦¬à¦ľ":9867,"à¦°à¦ĺà¦¨à¦¤":9868,"à§Ńà§«à§®":9869,"à¦¨à¦¬à¦¶":9870,"à¦Ńà¦ĺ":9871,"à¦°à¦¸à¦®à¦·":9872,"à¦²à§Łà¦Ľ":9873,"à§Łà¦ıà¦ĩà¦ª":9874,"à¦¹à¦Ľà¦²":9875,"à§Łà¦Ĩà¦§":9876,"à¦¬à¦¨à¦ķà¦¥":9877,"à¦¯à¦ıà¦ª":9878,"à¦¨à¦²à¦¡":9879,"à¦ķà¦ıà¦ĩà¦¬":9880,"à¦¬à¦ļà¦ķ":9881,"à¦°à¦®à¦¹à¦²":9882,"à¦£à¦Ĩà¦Ľ":9883,"à¦°à¦ħà¦¬à¦®":9884,"à¦Ĺà¦£à¦Ł":9885,"à¦ķà¦®à¦¤à¦¬":9886,"à§§à§¯à§«à§§":9887,"à¦ľà¦®à¦¤":9888,"à¦ķà¦ħà¦®":9889,"à¦¹à¦¤à¦¹à¦ĵà§Ł":9890,"à¦¡à¦²à¦ª":9891,"à¦ªà¦¨à¦Ľ":9892,"à¦¸à¦ķà¦¶":9893,"à¦ķà¦ľà¦°":9894,"à¦¤à¦¨à¦ķà¦°à¦¬":9895,"à¦¦à¦ıà¦²":9896,"à§§à§¨à§§à§¨":9897,"à¦¯à¦ĩà¦¹":9898,"à§«à§©à§¦":9899,"à¦ķà¦¨à¦¨":9900,"à¦¨à¦ªà¦°à¦ª":9901,"à¦§à¦¹à¦ĵà¦¯":9902,"à¦ķà¦°à¦Ĩ":9903,"à¦£à¦ªà¦£":9904,"à¦īà§İà¦ªà¦¤":9905,"à¦ĩà¦°à¦ķà¦®":9906,"à¦ħà¦ľà¦¸":9907,"à¦ķà¦¤à¦ĸ":9908,"à¦ľà¦§à¦°":9909,"à¦°à¦®à§Łà¦¨":9910,"à¦ŀà¦ķ":9911,"à¦°à¦«à¦²à¦¸":9912,"à¦ļà¦°à¦®à¦¦":9913,"à¦ıà¦¸à¦°":9914,"à¦°à¦ľà§ľ":9915,"à¦·à¦ķà¦ĵà¦¶":9916,"à¦£à§Ł":9917,"à¦®à¦Ĩà¦¤":9918,"à¦°à¦ĵà¦ĩà¦¬":9919,"à¦²à¦ķà§Ł":9920,"à§Łà¦ľà¦Ļ":9921,"à¦°à¦ªà¦¥à¦ĸ":9922,"à¦°à¦ªà¦¦à¦ļ":9923,"à¦ªà¦¬à¦°":9924,"à¦°à¦ĩà¦¨à¦ľ":9925,"à§Łà¦¤à¦°":9926,"à¦īà¦¨à¦¤":9927,"à¦¨à¦ķà¦·":9928,"à¦¡à¦²à¦«":9929,"à§Łà¦ıà¦ĩà¦¦":9930,"à¦Īà¦¦à¦¸":9931,"à¦ľà¦Ĩà¦¸":9932,"à¦°à¦ıà¦¸à¦ª":9933,"à¦ĵà¦ħà¦«":9934,"à¦²à¦ķà¦ħà¦§":9935,"à¦ıà¦ıà¦ķà¦Ł":9936,"à¦°à¦ªà¦°à¦ĵà¦Ĩà¦®à¦°":9937,"à¦¤à¦ļà¦²à¦Ľ":9938,"à¦¦à¦¤à¦ķà¦°":9939,"à¦°à¦¤à¦¸à¦²":9940,"à¦°à¦ĸà¦¬à¦°à¦«":9941,"à¦£à¦ķà¦°à¦Ľ":9942,"à¦īà¦ľà¦Ĺ":9943,"à¦¨à§Łà¦¹":9944,"à¦¹à¦°à¦£à¦¹":9945,"à¦¬à¦īà¦ķ":9946,"à¦ĩà¦«à¦°":9947,"à¦£à¦¸à¦¹":9948,"à¦²à¦¸à¦¹à¦Ĩà¦Łà¦ķ":9949,"à¦ĵà¦ĩà¦¸à¦®":9950,"à¦Ĺà¦Ĩà¦²":9951,"à¦īà¦¸à¦ª":9952,"à¦¯à¦ķà¦¸":9953,"à§§à§§à§§à§®":9954,"à§¦à§§à§«":9955,"à¦Łà¦ķà¦¹":9956,"à¦Łà¦°à¦īà¦¦":9957,"à¦¤à¦°à¦ı":9958,"à§¨à§¬à§©":9959,"à¦¦à¦ĩà¦¤":9960,"à¦¶à¦ıà¦²":9961,"à§İà¦ªà¦¤":9962,"à§¨à§Ńà§®":9963,"à¦¬à¦°à¦¶à¦¨":9964,"à§¨à§Ńà§¨":9965,"à¦¦à¦²à¦®":9966,"à¦¨à¦īà¦ĩà¦²":9967,"à¦²à¦¨à¦ĩà¦¸à¦²":9968,"à¦ĸà¦¸à§ľ":9969,"à¦·à¦ĩà¦¤":9970,"à¦²à¦¶à¦ķ":9971,"à¦¹à¦°à¦°à¦¹à¦®à¦¤":9972,"à¦¹à¦¯à¦°à¦¤à¦Ĩà¦²":9973,"à¦¨à¦ıà¦ĩà¦ľ":9974,"à¦¬à¦ķà¦«":9975,"à¦¶à¦¨à¦ĸ":9976,"à¦¨à¦Ĺà¦°à¦¯":9977,"à¦Łà¦¤à¦²":9978,"à¦ıà¦ĩà¦¸à¦¤":9979,"à¦Ĺà¦²à¦®à¦¹à¦²":9980,"à§¨à§¦à§¨à§¨à§§à§Ń":9981,"à¦¦à¦Ŀ":9982,"à¦¨à¦Ĩà¦ľà¦®":9983,"à¦īà¦¨à¦ķà¦°":9984,"à¦ķà¦¸à¦ķà¦²":9985,"à§©à§¦à§©":9986,"à¦ĸà¦¬à¦°à¦¸à¦°":9987,"à§§à§§à§¨à§¦à§¨à§§":9988,"à¦²à¦¨à¦Ĺà¦°":9989,"à¦ªà¦¡à¦ķ":9990,"à§Łà¦ħà¦ľ":9991,"à¦¦à¦ķà¦Ĩà¦¨":9992,"à¦°à¦¸à¦¹à¦§à¦°":9993,"à¦°à¦ĵà¦ªà¦°à¦¥":9994,"à¦ħà¦¤à¦¨":9995,"à¦Łà¦ķà¦ļ":9996,"à¦ĵà¦¬à¦²à¦¤":9997,"à¦ıà¦ĸà¦¨à¦ĵà¦ľ":9998,"à¦ļà¦ªà¦¦à¦¸":9999,"à¦¹à¦°à¦«":10000,"à¦ļà¦Ĩà¦²":10001,"à¦®à¦¹à¦ķ":10002,"à¦®à¦²à¦°":10003,"à¦¹à¦²à¦ļ":10004,"à¦¦à¦¨à¦ħà¦°":10005,"à¦¤à¦īà¦ªà¦ľ":10006,"à¦Ĩà¦°à¦®à¦¨":10007,"à¦Ńà¦¬à¦ķà¦°à¦²":10008,"à¦§à¦¨à¦ľ":10009,"à¦¸à¦¨à¦²":10010,"à¦°à¦¨à¦ľà¦°à¦ķ":10011,"à¦¬à¦ĩà¦¸à¦²":10012,"à¦ľà¦īà¦²":10013,"à¦¨à¦Ńà¦Ļ":10014,"à¦Ńà¦°à¦ķà¦°à¦¬":10015,"à¦ĩà¦ķà¦ĸà¦¨":10016,"à§©à§«à§¯":10017,"à¦¶à¦°à¦£à¦ĸ":10018,"à¦¨à¦ıà¦°à¦«à¦²":10019,"à¦¦à§Łà¦ķ":10020,"à¦£à¦ħà¦Ń":10021,"à§Łà¦¨à¦Ĺà¦ŀ":10022,"à¦²à¦Ĩà¦°à¦¸":10023,"à¦°à¦Ľà¦¯":10024,"à¦·à§Łà¦ħà¦¨":10025,"à¦ĩà¦²à¦ıà¦ķ":10026,"à¦£à¦¤à¦¹à¦¤":10027,"à¦¤à¦®à¦¡":10028,"à¦°à§Łà¦ķà¦°à¦¤":10029,"à¦¤à¦ĩà¦īà¦ª":10030,"à¦ĩà¦ĩà¦ļ":10031,"à¦¹à¦Ĩà¦¹à¦®à¦¦":10032,"à¦¯à¦¬à¦²à¦Ľ":10033,"à¦Ĺà¦¦à¦ª":10034,"à¦ıà¦ķà¦ĺà¦£":10035,"à§İà¦ħà¦¨":10036,"à¦ĵà¦ªà¦¶":10037,"à¦¨à¦ħà¦¥à¦ļ":10038,"à¦ķà¦°à¦ıà¦¬":10039,"à¦ıà¦®à¦¨à¦¸à¦®à¦¯":10040,"à¦Łà¦¹à¦ĵà¦¯":10041,"à¦¨à¦¦à¦®":10042,"à¦Ĩà¦ĩà¦ıà¦²":10043,"à¦¦à¦¨à¦¥":10044,"à¦ĩà¦¡à¦ķà¦°":10045,"à¦ĸà¦®à¦£":10046,"à¦®à¦®à¦¯":10047,"à¦¬à¦¤à¦¸":10048,"à¦°à¦ªà¦°à¦ıà¦ķà¦¬":10049,"à¦£à¦ħà¦ŀ":10050,"à¦ªà¦¨à¦Ł":10051,"à¦®à¦łà¦¬":10052,"à¦Ĺà¦īà¦¦":10053,"à¦¤à¦¬à¦¦à¦²":10054,"à¦¶à¦ķà¦ķà¦°":10055,"à¦°à¦²à¦Ń":10056,"à¦ķà¦ªà¦²":10057,"à¦ĩà¦īà¦®":10058,"à¦¶à¦Ńà¦Ł":10059,"à§Łà¦²à¦ķ":10060,"à¦£à¦ł":10061,"à¦ħà¦¸à¦Ń":10062,"à¦¨à¦ħà¦Ł":10063,"à¦¯à¦Ĺà¦£":10064,"à¦ĩà¦ķà¦¸":10065,"à¦£à¦¨à¦¤":10066,"à¦ľà¦¨à¦ªà§ľ":10067,"à¦ıà¦®à¦ıà¦ĩà¦ļ":10068,"à¦°à¦ķà¦®à¦ªà¦°":10069,"à¦¤à¦ıà¦ķà¦®":10070,"à¦Ĩà¦°à¦¬à¦°":10071,"à¦¡à¦ĵà¦¸":10072,"à¦¨à¦ķà¦¸":10073,"à¦²à¦¬à¦¬":10074,"à§§à§¯à§¬à§©":10075,"à¦¬à¦Ľà¦°à¦ªà¦°à¦ª":10076,"à¦ĩà¦Łà¦ĵà§Ł":10077,"à§ªà§¬à§®":10078,"à¦°à¦Ĩà¦ĩà¦¨à¦¬":10079,"à¦¬à§ľà¦ļ":10080,"à§ªà§«à§®":10081,"à¦¹à¦¸à¦¬":10082,"à¦Īà¦¦à¦Ĩà¦¨à¦¨":10083,"à¦ıà¦ķà¦ĩà¦ıà¦²":10084,"à¦ĩà¦ĵà¦®":10085,"à¦°à¦¥à¦®à¦ħ":10086,"à¦²à¦°à¦¨":10087,"à¦°à¦¸à¦¡":10088,"à¦¸à¦īà¦ªà¦ľ":10089,"à¦ªà¦¥à¦¹":10090,"à¦īà¦Ĩà¦ªà¦¨":10091,"à¦¥à¦ķà¦ķà¦°":10092,"à¦°à¦¸à¦®à§Łà¦ļ":10093,"à¦¯à¦ĸà¦¨à¦Ń":10094,"à¦¨à¦®à§Łà¦®à¦¨à¦¸":10095,"à§Łà¦ħà¦²":10096,"à¦ªà¦¦à¦ļà¦Ł":10097,"à¦ıà¦ĸà¦¨à¦ĸ":10098,"à¦ªà¦ıà¦Ł":10099,"à¦°à¦ķà¦ıà¦¬":10100,"à¦ıà¦Ĩà¦®":10101,"à¦£à§Łà¦ķà¦°":10102,"à¦¬à¦¹à¦¨à¦ķà¦°à¦¤":10103,"à¦¸à¦¤à¦¥":10104,"à§§à§¯à§«à§©":10105,"à¦°à¦¥à¦®à¦ĩà¦¨":10106,"à¦¤à¦°à¦£à¦ļ":10107,"à¦²à¦īà§İà¦ª":10108,"à¦¨à¦ķà¦¨à¦¸":10109,"à¦°à¦Łà¦Ļ":10110,"à¦¨à¦«à¦¸à¦²":10111,"à¦ķà¦°à¦īà¦¦":10112,"à¦ķà¦²à¦Ł":10113,"à¦Łà¦ıà¦®":10114,"à§Łà¦ħà¦ķ":10115,"à¦ĩà¦Ńà¦¯":10116,"à§Łà¦ľà¦¨à¦Ĺà¦£":10117,"à¦ªà¦Ĩà¦¬":10118,"à¦¹à¦¸à¦¹":10119,"à§§à§¨à§©à§ªà§«à§¬à§Ńà§®à§¯à§§à§¦à§§à§§à§§à§¨à§§à§©à§§à§ªà§§à§«à§§à§¬à§§à§Ńà§§à§®à§§à§¯à§¨à§¦à§¨à§§à§¨à§¨à§¨à§©à§¨à§ªà§¨à§«à§¨à§¬à§¨à§Ńà§¨à§®à§¨à§¯à§©à§¦à§©à§§":10120,"à¦ľà¦«à¦°":10121,"à¦°à¦¨à¦ĸ":10122,"à¦ªà¦Łà¦²":10123,"à¦ķà¦¤à¦¦à¦¨":10124,"à§§à§©à§¦à§¦":10125,"à¦°à¦ļà¦¶à¦®":10126,"à¦¶à¦¬à¦Ļ":10127,"à¦°à¦¥à¦®à¦ıà¦¬":10128,"à¦ıà¦ķà¦ľà¦¨à¦ľ":10129,"à¦¯à§İà¦¨":10130,"à¦·à¦¤à¦¨":10131,"à¦ķà¦¤à¦Ń":10132,"à¦²à¦ıà¦®à¦¨à¦ķ":10133,"à§ľà¦ĺ":10134,"à¦ıà¦ĩà¦¶à¦¬":10135,"à§§à§¯à§«à§¯":10136,"à¦Ĺà¦¤à¦īà¦¨":10137,"à¦Łà¦ĵà¦ķ":10138,"à¦¨à¦Ĺà¦°à¦ĩà¦īà¦¨":10139,"à¦°à¦ĩà¦«":10140,"à¦Łà¦Ĺà§ľ":10141,"à¦¸à§ľà¦ķà¦¨":10142,"à§ªà§«à§«":10143,"à¦ªà¦Ľà¦¬":10144,"à¦ªà¦°à¦ĸ":10145,"à¦ĩà¦ıà¦ķà¦¸":10146,"à¦ıà¦°à¦¸à¦Ń":10147,"à¦°à¦ķà¦®à¦¦":10148,"à¦°à¦¤à¦«":10149,"à¦īà§İà¦¸à¦¬à¦ķ":10150,"à§Łà¦ķà¦Ł":10151,"à¦¦à¦¨à¦¤à¦¥":10152,"à¦ĸà¦°à¦Ĺ":10153,"à¦°à¦Ĩà¦«":10154,"à¦¹à¦¤à¦ļ":10155,"à¦°à¦Ĺà¦¸":10156,"à¦°à¦Ĩà¦°à¦ĵà¦ķ":10157,"à§ªà§ªà§®":10158,"à¦¶à¦Ĺà¦²":10159,"à¦Ĺà¦¨à¦ļ":10160,"à¦ķà¦°à¦¬à¦ķ":10161,"à¦°à¦ıà¦®à¦¨à¦ıà¦ķà¦Ł":10162,"à¦Ĩà¦¹à¦¹à¦¹":10163,"à¦°à¦Ĩà¦ľà¦®":10164,"à§¦à§®à§¦":10165,"à¦¤à¦°à¦£à¦°":10166,"à¦°à¦ľà¦¨à¦Ĺà¦£à¦ķ":10167,"à¦¤à¦ĵà¦ľ":10168,"à§§à§¨à§§à§ª":10169,"à¦ĩà¦īà¦ıà¦¨à¦ĵà¦¸":10170,"à¦ķà¦¨à¦¹":10171,"à¦ĩà¦Ĩà¦§":10172,"à¦ıà¦ĩà¦Ĩà¦¨":10173,"à¦¯à¦ĸà¦¨à¦Ĺ":10174,"à¦¨à¦ĵà¦ħ":10175,"à¦°à¦¶à¦ªà¦¥à¦Ĺ":10176,"à¦°à¦ıà¦®à¦¸":10177,"à§Łà¦¨à¦¸à¦®":10178,"à¦ľà¦²à¦ĵà¦Ĩà¦¤":10179,"à¦ĸà¦¬à¦°à¦«":10180,"à§Łà¦¸à¦®à¦¬":10181,"à¦ĩà¦ļà¦ķ":10182,"à¦°à¦ħà¦¬à¦ķà¦®":10183,"à¦¤à¦ĩà¦°":10184,"à¦Ĺà¦ĵà¦ł":10185,"à¦°à¦ĸà¦²":10186,"à¦¸à¦ĩà¦ķà¦°":10187,"à¦ıà¦ķà¦ĩà¦¨":10188,"à¦®à¦¦à¦Ĺ":10189,"à¦Łà¦¤à¦¬":10190,"à¦²à¦Ĩà¦¬à¦¦":10191,"à¦¤à¦¹à¦ĩà¦¯":10192,"à¦°à¦ķà¦¨à¦«":10193,"à§§à§¨à§¦à§©":10194,"à¦¨à¦°à¦®à¦ľ":10195,"à§¨à§¦à§¨à§§à§«":10196,"à¦²à¦¨à¦ľ":10197,"à¦¦à¦¨à¦ĵà¦¬":10198,"à¦¯à¦Ĩà¦°à¦ĵ":10199,"à¦ļà¦ĺ":10200,"à¦°à¦¬à¦®":10201,"à¦ĸà¦¸à¦°":10202,"à¦¡à¦Ĩà¦¨":10203,"à¦°à¦īà¦ªà¦°à¦«":10204,"à¦¦à¦¶à¦¨":10205,"à§¦à§¯à§¦":10206,"à¦°à¦ıà¦ķà¦ľ":10207,"à¦ķà¦Ĩà¦¹":10208,"à¦Ńà¦°à¦ķà¦°à¦Ľ":10209,"à¦°à¦¬à¦ŀ":10210,"à¦¶à¦¹à¦°à¦ķ":10211,"à¦¹à¦Ĩà¦ķ":10212,"à¦·à¦¸à¦¬":10213,"à¦¹à¦¤à¦ħà¦¨":10214,"à¦ĩà¦īà¦¡":10215,"à§Ńà§¦à§Ń":10216,"à¦ĩà¦Īà¦¶":10217,"à¦°à¦Ĩà¦¨à¦ĵ":10218,"à¦°à¦®à¦Ł":10219,"à¦®à¦°à¦¤à¦Ľ":10220,"à¦®à¦ıà¦°à¦Ĩà¦¨":10221,"à¦°à¦īà¦¹":10222,"à¦§à¦¨à¦ĸ":10223,"à¦¨à¦¤à¦¹à¦¬":10224,"à§§à§¬à§¦à§¦":10225,"à¦¦à¦®à¦¨à¦ķà¦°":10226,"à§Łà¦¯à¦¥":10227,"à¦ıà¦®à¦ĩà¦ı":10228,"à¦ªà¦ªà§ľ":10229,"à¦®à¦¤à¦ļ":10230,"à¦¨à¦ĵà¦¸à¦®à¦¸":10231,"à¦ĩà¦Ľà¦²":10232,"à¦¶à¦ĩà¦¸":10233,"à¦ĩà¦¡à¦ĸ":10234,"à§§à§§à§§à§«":10235,"à¦®à¦°à¦«":10236,"à¦¯à¦®à¦ļ":10237,"à¦ľà¦¹à¦ĵà§Ł":10238,"à¦²à¦¥à¦ķ":10239,"à¦¹à¦°à¦¸à¦¨":10240,"à¦¨à¦Ĩà¦°à¦ľ":10241,"à¦īà¦ķà¦¥":10242,"à¦ĵà¦®à¦°à¦°":10243,"à¦¯à¦ķà¦ł":10244,"à§Łà¦ĩà§Ł":10245,"à¦Ńà¦¹à§Ł":10246,"à¦ļà¦°à¦®à¦¬":10247,"à§§à§®à§¨":10248,"à¦ıà¦ĩà¦²à¦ķ":10249,"à¦ĩà¦īà¦ĩà¦ķ":10250,"à¦ħà¦Ńà§Łà¦¨à¦Ĺà¦°":10251,"à¦ıà¦ķà¦ľà¦¨à¦«":10252,"à¦ļà§Łà¦ľ":10253,"à¦·à¦£à¦²":10254,"à¦¯à¦®à¦Ł":10255,"à¦¨à¦Ĩà¦ĩ":10256,"à¦°à¦£à¦¸à¦¦à¦¸":10257,"à¦·à¦ħà¦¬à¦¸":10258,"à¦¯à¦ķà¦²à¦ķ":10259,"à¦¹à¦¹à¦¤":10260,"à¦¡à¦¹à¦ļ":10261,"à¦¤à¦²à¦ľ":10262,"à¦¬à¦ķà¦Ł":10263,"à¦¦à¦ķà¦īà¦¦":10264,"à¦ĸà¦ķà¦ªà¦°":10265,"à§®à§«à§¦":10266,"à§Łà¦īà§İà¦¸à¦¬":10267,"à¦Łà¦ªà¦²":10268,"à¦ĩà¦ħà¦ľ":10269,"à¦·à¦¨à¦¤":10270,"à¦°à¦£à¦¤à¦¸":10271,"à¦®à¦¨à¦¬à¦²":10272,"à¦¡à¦Ŀ":10273,"à¦¨à¦Ĩà¦°à¦ĵà¦¬":10274,"à¦°à¦¹à¦£à¦¬":10275,"à¦¨à¦ıà¦ĸà¦¨à¦Ĩà¦®":10276,"à¦¤à¦īà¦ķ":10277,"à¦¦à¦ľà¦®":10278,"à§Ŀà¦ª":10279,"à¦°à§Łà¦¸":10280,"à¦Ĺà¦łà¦¨à¦¸à¦®":10281,"à¦²à¦¯à¦¶":10282,"à¦¶à¦ĩà¦®":10283,"à¦ĩà¦¶à¦¨":10284,"à¦ıà¦¤à¦Ń":10285,"à¦ľà¦ķà¦¤":10286,"à¦īà¦¬à¦¥":10287,"à¦¸à¦¬à¦¸à¦®":10288,"à¦²à¦ªà¦Ł":10289,"à¦ķà¦īà¦ªà¦¦":10290,"à¦ıà¦°à¦Ĩà¦ĵà¦¤":10291,"à¦£à¦¤à¦ķà¦°à¦¤":10292,"à§Łà¦ĵà¦¤":10293,"à¦¨à¦ĵà¦Ľ":10294,"à¦¯à¦®à§Ł":10295,"à§§à§¯à§¦à§¦":10296,"à¦¨à¦®à¦®":10297,"à¦Ĺà¦¤à¦ıà¦¬":10298,"à¦¨à¦¸à¦¹à¦¸à¦Ń":10299,"à¦ıà¦ĩà¦ħà¦¸":10300,"à¦ĩà¦Ĩà¦°à¦ķ":10301,"à§İà¦¸à¦ķà¦¡":10302,"à¦Ĩà¦¹à¦¯":10303,"à¦¨à¦¤à¦¸à¦®":10304,"à¦°à¦¤à¦ıà¦¬":10305,"à¦ıà¦¸à¦¬à¦ķà¦°":10306,"à§ĥà§ĥ":10307,"à¦°à¦ĸà¦¬à¦°à¦¡":10308,"à¦¤à¦ıà¦°":10309,"à¦°à¦ªà¦°à¦¬à¦Ľà¦°à¦§à¦°":10310,"à¦ıà¦ķà¦ľà¦¨à¦¹":10311,"à¦¨à¦ıà¦ĩà¦ªà¦°":10312,"à¦ķà¦ıà¦ľ":10313,"à¦°à¦ıà¦§à¦°à¦¨":10314,"à¦ĵà¦ĵà¦Ń":10315,"à¦§à¦¸à¦¤":10316,"à¦Ĩà¦®à¦Ĺ":10317,"à¦¯à¦ıà¦¦":10318,"à¦Ńà¦°à¦¦":10319,"à§§à§¯à§§à§Ń":10320,"à¦¦à§ľ":10321,"à¦ĩà¦Ńà¦°":10322,"à¦ıà¦ħ":10323,"à¦²à¦®à¦¯":10324,"à¦²à¦ĩà¦¬":10325,"à¦¥à¦²à¦ľ":10326,"à¦ıà¦ĸà¦¨à¦ĵà¦¨":10327,"à¦¯à¦ļà¦²à¦ļ":10328,"à¦®à¦Ĩà¦ľà¦ķ":10329,"à¦¶à¦¸à¦®à¦¯":10330,"à¦²à¦ķà¦«":10331,"à¦°à¦¸à¦®à§Łà¦°":10332,"à¦²à¦®à§Łà¦®à¦¨à¦¸":10333,"à¦īà¦²à¦Ĩà¦¯à¦¹":10334,"à¦²à¦ľà¦¹":10335,"à§©à§Ńà§¯":10336,"à¦¶à¦ĩà¦¬":10337,"à§«à§ªà§¦":10338,"à¦¤à¦ĩà¦īà¦°":10339,"à¦²à¦¹à§Łà¦¨":10340,"à¦ķà¦ĵà¦·":10341,"à¦¹à¦ıà¦ķà¦Ł":10342,"à¦Ĩà¦°à¦ĺ":10343,"à¦²à¦Łà¦ª":10344,"à¦ĵà¦ĵà¦¯":10345,"à§Łà¦¨à¦«":10346,"à§©à§Ńà§©à§®":10347,"à¦®à¦¤à¦Ł":10348,"à¦Ĩà¦ļà¦°à¦£à¦¬":10349,"à§¬à§ªà§¦":10350,"à¦¸à¦ķà¦²à¦ļ":10351,"à¦ĩà¦Ĩà¦°à¦¬":10352,"à¦ķà¦¤à¦²":10353,"à¦§à¦ħà¦¸":10354,"à¦°à¦ķà¦ľ":10355,"à¦ªà¦ķà¦¶":10356,"à¦ħà¦¨à¦¸":10357,"à¦§à¦¨à¦¡":10358,"à¦²à¦ıà¦Ń":10359,"à¦°à¦Ĩà¦°à¦ĵà¦ıà¦ķà¦Ł":10360,"à¦¶à¦¬à§ľ":10361,"à§§à§¯à§ªà§ª":10362,"à¦²à¦¹à¦ķà¦¤":10363,"à¦¸à¦ıà¦°à¦¸":10364,"à¦¶à¦ĩà¦¸à¦²":10365,"à¦łà¦¹":10366,"à§Łà¦¦à¦Ĩà¦²":10367,"à§Łà¦¤à¦®":10368,"à¦¤à¦Ĩà¦°à¦ķ":10369,"à¦¶à¦¬à¦¡":10370,"à¦ļà¦Łà¦ķ":10371,"à¦¸à¦¬à¦¸à¦®à§Łà¦Ń":10372,"à§©à§®à§¦":10373,"à¦ĵà¦ľà¦²à¦¬":10374,"à¦¡à¦Ĩà¦Ľ":10375,"à§Łà¦ĵà¦Ń":10376,"à¦ıà¦«à¦Ń":10377,"à¦¸à¦¸à¦Ń":10378,"à¦ĵà¦Ĺà¦¤":10379,"à¦ıà¦®à¦¨à¦ļ":10380,"à¦¹à¦Łà¦²":10381,"à¦ľà¦ĩà¦¨":10382,"à¦¹à§Łà¦ıà¦°à¦Ĩà¦Ĺ":10383,"à¦Ĺà¦ĵà¦¸à¦¹à¦¯":10384,"à¦¸à¦¨à¦¯":10385,"à¦¸à¦¦à¦°à¦ª":10386,"à¦ľà¦ªà¦ŀ":10387,"à¦ıà¦°à¦īà¦ª":10388,"à¦¯à¦ľà¦¨à¦ķà¦®":10389,"à¦¬à¦¨à¦²":10390,"à¦¸à¦®à¦¤à¦²":10391,"à¦²à¦Ĺà¦Ń":10392,"à§©à§¬à§®":10393,"à¦Ĺà¦®à¦¦":10394,"à¦ĵà¦ķà¦°à¦¬":10395,"à¦īà¦ľà¦¤":10396,"à¦ľà¦¶à¦¹à¦°":10397,"à§Łà¦ļà¦²à¦¤":10398,"à¦¤à¦°à¦¹à§Ł":10399,"à¦«à¦²à¦ķà¦°":10400,"à¦¨à¦¤à¦¹":10401,"à¦°à¦®à¦¤à¦²":10402,"à¦·à¦Ĩà¦°":10403,"à§Łà¦ħà¦¬à¦¶":10404,"à¦Ĩà¦¦à¦¨":10405,"à¦Ĺà¦Ĩà¦ªà¦¨":10406,"à¦²à¦¹à¦ķà¦ĸ":10407,"à¦ĵà¦ĩà¦ľ":10408,"à§§à§¯à§ªà§§":10409,"à¦¸à¦¸à¦¨":10410,"à¦¬à¦²à¦ıà¦¬":10411,"à¦¦à¦²à¦¦":10412,"à¦ĩà¦¦à¦¶à¦ķ":10413,"à¦¸à¦ķà¦¥":10414,"à¦ĵà¦ĸà¦¨":10415,"à¦¬à¦°à¦ĺ":10416,"à¦Ńà¦Ľ":10417,"à¦ĵà¦Ĩà¦ľà¦ķ":10418,"à§©à§«à§Ń":10419,"à¦ķà¦Ĳà¦ķ":10420,"à§Łà¦¨à¦ķà¦°à¦Ľ":10421,"à¦¡à¦ĺà¦Ł":10422,"à¦²à¦ıà¦ĩà¦ª":10423,"à¦¨à¦ıà¦ķà¦ľà¦¨à¦¬":10424,"à§Łà¦Ľà§ľ":10425,"à§Łà¦¨à¦ķà¦®":10426,"à¦ĩà¦®à¦ķ":10427,"à§¨à§¦à§¨à§¨à§§à§§à§«":10428,"à§¨à§¨à§§":10429,"à¦¬à¦ĩà¦¸à¦¹à¦ľ":10430,"à¦Ĩà¦ľà¦ĩà¦Ĩà¦ªà¦¨":10431,"à§©à§ªà§Ń":10432,"à§¨à§Ńà§¦":10433,"à¦ªà¦Ĩà¦¨":10434,"à¦§à¦ıà¦ķà¦Ł":10435,"à§§à§¯à§§à§ª":10436,"à§§à§¯à§«à§Ń":10437,"à¦¸à¦Łà¦²à¦ķà¦°":10438,"à¦ķà¦®à¦ĸà¦°à¦ļ":10439,"à¦¯à¦®à¦£":10440,"à¦·à¦ªà¦ŀ":10441,"à¦¡à¦®à¦¹":10442,"à¦¨à¦Ĩà¦ĩà¦Ł":10443,"à¦¦à¦¨à¦Ľ":10444,"à¦¬à¦Ľà¦°à¦ĩ":10445,"à¦°à¦¬à§Łà¦¸à¦¹à§Ł":10446,"à¦¶à¦ıà¦Ł":10447,"à¦°à¦¸à¦¤à¦¤":10448,"à§®à§¦à§¦à§¦":10449,"à¦¨à¦ıà¦¨à¦Ĩà¦ĩà¦¡":10450,"à¦ļà¦¤à¦°à¦®":10451,"à¦°à¦¶à¦¤à¦ķà¦°":10452,"à¦°à¦Ĺà¦£à¦¨":10453,"à¦°à¦ĵà¦ªà¦°à¦°":10454,"à§§à§¬à§¨à§¦à§¨à§¨":10455,"à¦¤à¦ĸà¦¨à¦¶":10456,"à¦¸à¦¬à¦ł":10457,"à¦ħà¦¬à¦¤à¦°à¦£à¦ķà¦°":10458,"à¦ıà¦²à¦®":10459,"à¦®à¦®à¦®à¦®":10460,"à¦²à¦ħà¦¥à¦¬":10461,"à¦¶à¦¤à¦¥":10462,"à¦ĵà¦¹à§Łà¦¨":10463,"à¦®à¦¦à¦«":10464,"à¦°à¦®à¦®à¦¤":10465,"à¦ķà¦Łà¦¤à¦®à¦ª":10466,"à¦Ŀà¦²à¦ķ":10467,"à¦Ĺà¦²à¦¹":10468,"à¦¤à¦ĸà¦¨à¦Ĩà¦®à¦°":10469,"à¦ıà¦¹à¦¸":10470,"à¦¹à§Łà¦Ĩà¦®à¦°":10471,"à¦«à¦²à¦«":10472,"à¦¤à¦¶à¦¨":10473,"à¦ħà¦«à¦¦":10474,"à¦¦à¦°à¦Ľ":10475,"à¦°à¦Ĩà¦¸à¦¤":10476,"à¦°à¦ıà¦ķà¦¬à¦Ľ":10477,"à¦ıà¦¸à¦Ĩà¦ĩà¦®":10478,"à¦·à¦ĩà¦¨":10479,"à§Łà¦®à¦ľ":10480,"à¦ĵà¦ķà¦ł":10481,"à¦Ĩà¦ªà¦ķ":10482,"à¦Ŀà¦Ĺà¦¡":10483,"à¦¨à¦ļà¦²à¦¬":10484,"à¦ĵà¦ĩà¦ĺà¦Łà¦¨":10485,"à¦°à¦¨à¦ľà¦°à¦¦":10486,"à¦ļà¦°à¦ª":10487,"à¦·à¦§à¦°":10488,"à§ľà¦ķà¦ªà¦°":10489,"à¦®à¦®à¦£":10490,"à¦ľà§Łà¦¢":10491,"à¦Ĺà¦ĩà¦®":10492,"à¦°à¦Ĩà¦«à¦Ĺ":10493,"à¦¨à¦ĵà¦®à¦¹":10494,"à¦¯à§Łà¦ķà¦°à¦¤":10495,"à¦¨à¦¦à¦¨à¦¦":10496,"à¦¯à¦ķà¦°à¦ĸ":10497,"à¦ªà¦¶à¦¨à¦¬":10498,"à¦ĩà¦ļà¦°":10499,"à¦ĩà¦²à¦Ľ":10500,"à¦Ĺà¦Ĩà¦Ĺ":10501,"à¦Ńà¦¹à¦¯":10502,"à¦°à¦ıà¦ĩà¦¸à¦®à§Ł":10503,"à¦ľà¦īà¦¤":10504,"à¦Ĩà§Łà¦¤":10505,"à¦®à¦Ĩà¦°à¦¬":10506,"à¦°à¦Ńà§Łà¦¦":10507,"à¦°à¦¹à¦£à¦ª":10508,"à¦¬à¦¦à¦²à¦ķà¦°":10509,"à¦¬à¦ĩà¦ľà¦°":10510,"à¦ķà¦¶à¦¹":10511,"à¦°à¦ĵà¦Ĩà¦Ĺ":10512,"à¦°à¦¨à¦Ł":10513,"à¦²à¦Ńà¦¬":10514,"à§Łà¦ªà¦°à¦¬à¦°":10515,"à¦²à¦ıà¦Ĺ":10516,"à¦Ĺà¦²à¦ıà¦¡à¦¸":10517,"à¦¤à¦ľà¦Ĺà¦¤":10518,"à¦¡à¦¡à¦ķ":10519,"à¦ıà¦®à¦ĸ":10520,"à¦°à¦¥à¦®à¦ķà¦²à¦ķ":10521,"à¦¥à¦ħà¦§":10522,"à¦£à¦ıà¦ķ":10523,"à¦Ĺà¦ªà¦¦":10524,"à¦Ľà¦¦à¦ķ":10525,"à¦ĩà¦ıà¦Ń":10526,"à¦ªà¦ķà¦ľ":10527,"à§©à§Ńà§®":10528,"à¦¨à¦ĵà¦¸à¦¦à¦¸":10529,"à¦ļà¦ķà¦¨":10530,"à¦Ĩà¦°à¦ıà¦¤":10531,"à¦ıà¦¸à¦ıà¦²":10532,"à¦²à¦Łà¦¸":10533,"à¦ĸà¦°à¦ļà¦ķà¦°à¦¤":10534,"à¦ķà¦¸à¦¸":10535,"à¦Łà¦°à¦¤":10536,"à¦ĵà¦ıà¦°":10537,"à¦ĵà¦īà¦ª":10538,"à¦ľà¦¨à¦¸à¦®à¦ķ":10539,"à¦°à¦ªà¦¦à¦¥":10540,"à¦ĸà¦¬à¦°à¦²":10541,"à¦¨à¦Ĩà¦°à¦ıà¦¸":10542,"à¦ľà¦ħà¦§":10543,"à¦ıà¦¸à¦®à§Łà¦®":10544,"à¦ĵà¦¸à¦Ļ":10545,"à§Łà¦¦à¦¤":10546,"à¦¡à¦¨à¦¥":10547,"à¦ļà¦Ĩà¦¨":10548,"à¦ĵà¦ĵà¦ª":10549,"à¦®à¦ķà¦¹":10550,"à¦ıà¦ĸà¦¨à¦Ĺ":10551,"à¦Ĩà¦¦à¦¤":10552,"à¦¡à¦Łà¦ķà¦®à¦¸à¦®":10553,"à¦īà¦Ńà§Łà¦¦":10554,"à¦¥à¦°à¦¸":10555,"à¦®à¦¨à¦Ĺà¦°à¦īà¦ªà¦ľ":10556,"à¦ĵà¦ıà¦¨":10557,"à¦ķà¦ľà¦Ł":10558,"à¦Łà¦°à¦ıà¦¬":10559,"à¦īà¦²à¦Ĺ":10560,"à¦°à¦ĵà¦¸à¦Ļ":10561,"à¦Ĩà¦ĩà¦ķà¦¨":10562,"à¦ľà¦¸à¦°":10563,"à¦¦à¦Ľà¦«":10564,"à¦¤à¦¹à¦¨à¦ıà¦¬":10565,"à¦¸à¦¸à¦¹à¦¬":10566,"à¦Ĩà¦²à¦®à¦®":10567,"à¦¹à¦¨à¦Ĺ":10568,"à¦¹à¦¤à¦Ĩà¦¹à¦¤":10569,"à¦·à§Łà¦Ĩà¦¹à¦®à¦¦à¦Ľà¦«":10570,"à¦¶à¦¸à¦Ń":10571,"à¦¨à§Łà¦Ł":10572,"à¦§à¦ķà¦Ĺ":10573,"à¦°à¦ĩà¦¶à¦¤":10574,"à¦¯à¦¥à¦®à¦°":10575,"à¦Łà¦Ĩà¦¯":10576,"à¦°à¦®à¦¨à¦ķà¦°":10577,"à§Łà¦ªà¦ŀ":10578,"à¦¯à¦ħà¦¬à¦¸":10579,"à¦°à¦¸à¦¬à¦ķà¦°":10580,"à¦¯à¦Ĳà¦¤":10581,"à¦Ĺà¦ľà¦®":10582,"à¦Ĺà¦°à¦ľ":10583,"à¦°à¦ıà¦ĩà¦«":10584,"à¦ıà¦°à¦§":10585,"à¦¨à¦¶à¦«":10586,"à¦°à¦¦à¦ĸà¦²à¦¨":10587,"à¦¸à¦¯à¦¦":10588,"à§§à§¯à§¨à§¦à§¨à§¨":10589,"à¦Łà¦¸à¦«":10590,"à¦ªà¦ħà¦¬à¦¸":10591,"à¦Łà¦Ľà¦¬":10592,"à¦«à¦ıà¦¬":10593,"à¦¥à¦¬à¦¸":10594,"à¦ľà¦¨à¦°à¦¸":10595,"à¦°à¦£à¦¦à¦°":10596,"à¦«à¦²à¦ĺ":10597,"à¦¨à¦ıà¦ķà¦ľà¦¨à¦¸":10598,"à¦ĩà¦¹à¦ł":10599,"à¦Ĺà¦ļà¦²à¦Ľ":10600,"à§¨à§¦à§¨à§Ń":10601,"à¦Ĩà¦ĩà¦ĵ":10602,"à¦¥à¦®à¦¹":10603,"à¦°à¦¥à¦®à¦ªà¦¤":10604,"à¦Łà¦ħà¦¸":10605,"à¦°à¦®à¦¤à¦ļ":10606,"à¦°à¦ıà¦ĩà¦ĺà¦Łà¦¨":10607,"à¦Ĩà¦°à¦ıà¦ķà¦¬":10608,"à¦ĩà¦Ńà§Ł":10609,"à¦°à¦ªà¦°à¦ıà¦Ł":10610,"à¦¦à¦ĸà¦²à¦¦":10611,"à¦¦à¦ĵà¦¤":10612,"à¦§à¦¬à¦¦":10613,"à§©à§ªà§«":10614,"à¦ıà¦ķà¦ħà¦Ń":10615,"à¦°à¦£à¦¬à¦®":10616,"à¦ĩà¦¸à¦Ń":10617,"à¦Łà¦ļà¦Ł":10618,"à¦Łà¦¨à¦ĸ":10619,"à¦¹à¦²à¦Ł":10620,"à¦Ńà¦¬à¦¤à¦¤":10621,"à¦ĩà¦®à¦¨à¦¸":10622,"à¦Ĩà¦ĩà¦¨à¦¤":10623,"à¦Ĩà¦¹à¦Ĩà¦¹":10624,"à§§à§¯à§©à§§":10625,"à¦ªà¦¨à¦¹":10626,"à¦°à¦ıà¦ĩà¦ħà¦¨":10627,"à¦¶à¦¶à¦¨":10628,"à¦¨à¦¯à¦¤à¦ķ":10629,"à¦¤à¦ıà¦¨":10630,"à¦°à¦¬à¦¥":10631,"à¦¨à¦ªà¦°à¦¦":10632,"à¦®à¦¬à¦¸":10633,"à¦ķà¦°à¦°à¦¬":10634,"à¦¸à¦°à¦¹":10635,"à¦Łà¦ĩà¦¸":10636,"à¦Łà¦ıà¦¡":10637,"à¦¨à¦ıà¦ķà¦ªà¦°":10638,"à¦ĵà¦°à¦ľ":10639,"à§Łà¦¨à¦Ĩà¦²":10640,"à¦ĵà¦¬à§ľ":10641,"à¦°à¦ªà¦¥à¦¦":10642,"à¦ķà¦Ĺà¦¨":10643,"à¦ĵà¦Ĩà¦ĩà¦ª":10644,"à¦²à¦¹à¦ł":10645,"à¦²à¦¸à¦°à¦¬à¦°":10646,"à§§à§¯à§§à§¬":10647,"à¦£à¦ªà¦¦à¦ķ":10648,"à§Łà¦ĸà¦¨":10649,"à¦®à¦ķà¦ļ":10650,"à¦¯à¦ĸà¦¨à¦²":10651,"à¦Łà¦ıà¦°à¦¬":10652,"à¦¬à¦Ĩà¦Ĺ":10653,"à¦ıà¦ĩà¦ļà¦¬":10654,"à¦ĩà¦ħà¦¶":10655,"à¦Ńà¦¬à¦¹":10656,"à¦¶à¦°à¦¸à¦®à¦Ĺ":10657,"à¦Ĺà¦łà¦¨à¦ĵà¦¬":10658,"à¦īà¦¨à¦¨":10659,"à¦ľà¦¨à¦Ĩà¦ķ":10660,"à¦¬à¦¨à¦ĸ":10661,"à¦¦à§Łà¦¬":10662,"à¦ĵà¦ıà¦ª":10663,"à¦°à¦¤à¦ĺ":10664,"à¦ĩà¦ķà¦®à¦¬":10665,"à¦īà¦«à¦²":10666,"à¦ľà¦¨à¦¬à¦°":10667,"à¦ĵà¦¸à¦®à¦¬":10668,"à¦Ĺà¦ľà¦¦":10669,"à¦¬à§ľà¦¨":10670,"à¦¨à¦Ĩà¦ĩà¦ª":10671,"à§Łà¦¤à¦ĸà¦¨à¦¤":10672,"à¦ıà¦ĸà¦¨à¦«":10673,"à¦¡à¦¨à¦®":10674,"à¦¤à¦¹à§Łà¦ıà¦¤":10675,"à§¨à§¦à§¦à§¦à§¦":10676,"à¦¹à¦¤à¦ıà¦¬":10677,"à¦Łà¦¶à¦¹à¦°":10678,"à¦¨à¦¸à¦®à¦¨":10679,"à¦ıà¦¹à¦¤":10680,"à¦ĩà¦ıà¦Ľ":10681,"à¦®à¦¤à¦ħà¦¨":10682,"à¦°à¦ıà¦ĩà¦ħà¦Ń":10683,"à§Ńà§®à§®":10684,"à§İà¦ıà¦¬":10685,"à¦ĵà¦¹à§Łà¦¤":10686,"à¦ıà¦°à¦¸à¦¦à¦¸":10687,"à¦¶à¦ľà¦²à¦¬":10688,"à¦ªà¦¸à¦ľ":10689,"à§©à§¨à§¯":10690,"à¦ķà¦«à¦°":10691,"à¦ķà¦ĵà¦ľ":10692,"à¦°à¦ĸà¦¨à¦¨":10693,"à¦¨à¦ĵà¦ĩà¦¦":10694,"à¦ıà¦Ĩà¦¬":10695,"à¦°à¦Ĩà¦°à¦¶":10696,"à¦²à¦¶à¦¹":10697,"à¦²à¦¸à¦¹à¦¬":10698,"à¦ĩà¦¬à¦ķ":10699,"à¦¶à¦ħà¦¬":10700,"à¦Īà¦¦à¦¶":10701,"à¦¨à¦ıà§Ł":10702,"à¦¸à¦®à§Łà¦¥":10703,"à¦¯à¦ĸà¦¨à¦ıà¦Ł":10704,"à¦¹à¦ĵà¦®":10705,"à§¦à§¬à§¦":10706,"à¦¨à¦®à¦¦":10707,"à¦¦à¦®à¦¯":10708,"à¦®à¦ĵà¦¹":10709,"à¦Ĩà¦ľà¦°à¦¬":10710,"à¦Łà¦®à¦Ļ":10711,"à¦ħà¦¥à¦ļà¦ķ":10712,"à¦°à¦īà¦ªà¦°à¦¸à¦¨":10713,"à¦¹à¦ĵ":10714,"à¦¨à¦ĩà¦¸à¦°":10715,"à¦¨à¦Ĩà¦°à¦ı":10716,"à¦²à¦ĵà¦ľ":10717,"à¦°à¦¹à¦¨à¦¯":10718,"à¦ĸà¦°à¦¸":10719,"à¦°à¦®à¦¨à¦Ł":10720,"à¦Ĺà¦ªà¦Ľà¦¨":10721,"à¦¯à§Łà¦¨à¦ªà¦¤":10722,"à¦¡à¦¹à¦¯":10723,"à¦¤à¦Ĩà¦¸à¦¨":10724,"à¦ªà¦¤à§İà¦ªà¦°à¦¤":10725,"à§Łà¦Ĩà¦°à¦ķ":10726,"à¦Ĺà¦Ĩà¦¸":10727,"à¦¯à¦ªà¦¡":10728,"à¦°à¦ıà¦ķà¦ħà¦¨":10729,"à¦¨à¦Ĩà¦°à¦¯à¦¦":10730,"à¦¯à§İà¦ª":10731,"à¦¸à¦ķà¦¦à¦²":10732,"à§Łà¦¨à¦ķà¦°à¦¬":10733,"à¦¡à¦īà¦¨":10734,"à§©à§«à§¦à§¦":10735,"à¦²à¦Ľà¦¡":10736,"à¦²à¦Ĩà¦ª":10737,"à§Łà¦¦à¦ıà¦¨":10738,"à¦¨à¦¸à¦¦à¦°à¦īà¦ªà¦ľ":10739,"à¦°à¦Ĺà¦£à¦¸":10740,"à¦ķà¦ħà¦¬à¦ķ":10741,"à¦ĺà¦ªà¦°":10742,"à¦īà¦¨à¦¡":10743,"à¦¤à¦¤à¦ĸà¦¨":10744,"à¦ķà¦¸à¦¹à¦ķ":10745,"à¦Ĩà¦ķà¦¬à¦°":10746,"à§Ńà§¦à§®":10747,"à§Łà¦Ĩà¦¨à¦¤":10748,"à¦¹à¦¸à¦¨":10749,"à¦·à¦®à¦°":10750,"à¦ªà¦¤à¦¨":10751,"à¦¨à¦Ĩà¦¦à¦°":10752,"à§¨à§¦à§¨à§§à§§à§¨":10753,"à¦°à¦¸à¦¦à¦°à¦Ĺ":10754,"à¦¥à¦°à¦¨":10755,"à¦¤à¦¹à¦ĩà¦²":10756,"à¦·à¦¨à¦Ń":10757,"à¦Ĺà¦²à¦ļ":10758,"à¦ķà¦®à¦§":10759,"à¦ĩà¦Ĩà§Ł":10760,"à¦¸à¦¹à¦ľà¦¨":10761,"à¦¸à¦ĩà¦¯":10762,"à¦Ļà¦¬":10763,"à¦¬à¦¹à¦£":10764,"à¦°à¦ıà¦ķà¦ľà¦¨à¦¨":10765,"à¦¤à¦ĩà¦²":10766,"à¦īà¦ªà¦ķà¦®":10767,"à¦¸à¦¹à¦¹":10768,"à¦²à¦ıà¦®à¦¨":10769,"à§®à§ªà§®":10770,"à¦°à¦ľà¦Ĺà¦¨":10771,"à§©à§¦à§¯":10772,"à¦¦à¦¯à¦¨":10773,"à¦ĭà¦¦":10774,"à¦ıà¦ķà¦¸à¦®":10775,"à¦°à¦£à¦ĵà¦ª":10776,"à¦²à¦®à¦ŀ":10777,"à¦ķà¦īà§İà¦ª":10778,"à¦ķà¦ıà¦®à¦¨":10779,"à¦¦à¦°à¦¹à¦®":10780,"à¦¯à¦Ĺà¦£à¦®":10781,"à§Łà¦Ĩà¦¸à¦¬":10782,"à¦²à¦ķà¦¬à¦²":10783,"à¦°à¦ĩà¦ĸ":10784,"à§Łà¦ıà¦ª":10785,"à¦ĩà¦ľà¦ľ":10786,"à§§à§¯à§¦à§§":10787,"à¦®à¦¤à¦ĸ":10788,"à¦ĩà¦Ńà¦ĸ":10789,"à¦ĩà¦¨à¦īà¦¦":10790,"à¦ĸà¦ķà¦¥":10791,"à¦°à¦Łà¦¨":10792,"à¦°à¦ªà¦°à¦¯à¦¦":10793,"à¦¬à¦¨à¦°à¦ķ":10794,"à¦Ĩà¦ĩà¦ıà¦¸à¦ª":10795,"à¦¤à¦ıà¦°à¦®à¦§":10796,"à¦ĸà¦«à¦ľ":10797,"à¦°à¦ıà§Ł":10798,"à¦ļà¦®à¦ķà¦¦":10799,"à¦²à¦¬à¦Ľ":10800,"à¦°à¦§à¦°à¦£à¦«":10801,"à¦ļà¦¨à¦Ń":10802,"à¦°à¦Ĩà¦¸à¦²à¦ķ":10803,"à¦¨à¦¸à¦ľ":10804,"à¦²à¦¤à¦Ĺ":10805,"à¦¤à¦¤à¦¨":10806,"à¦¤à¦ıà¦ĩà¦¨":10807,"à¦ıà¦ķà¦ľà¦¨à¦¤":10808,"à¦Łà§Ł":10809,"à¦ĸà¦¹à§Ł":10810,"à¦°à¦Ńà¦ª":10811,"à¦²à¦ıà¦ķà¦¦":10812,"à¦¯à¦ħà¦Ĺ":10813,"à¦¬à¦²à¦²à¦¦":10814,"à¦¸à¦Ĺà¦²":10815,"à¦¦à¦²à¦Ń":10816,"à¦¨à¦ĵà¦ĩà¦®":10817,"à¦īà¦Ńà§Łà¦Ńà¦¬à¦¨":10818,"à¦¹à¦®à¦¨":10819,"à¦ıà¦ķà¦ĩà¦ľ":10820,"à§§à§¯à§§à§¯":10821,"à¦īà¦¢":10822,"à¦¨à¦ıà¦§à¦°à¦¨":10823,"à¦¸à¦Ĩà¦®à¦°":10824,"à¦Ĺà¦ĵà§Ł":10825,"à§Łà¦¸à¦ŀ":10826,"à¦§à¦¨à¦ıà¦¬":10827,"à¦·à¦ķà¦ļ":10828,"à¦·à¦°à¦¨":10829,"à¦Ĳà¦°":10830,"à¦¬à¦¸à¦¤à¦ĺ":10831,"à¦īà¦ªà¦®à¦¨":10832,"à¦·à§Łà¦«":10833,"à¦¨à¦ıà¦®à¦¨à¦Ł":10834,"à¦ªà§ľà¦ªà¦°":10835,"à¦¸à¦ªà§ľ":10836,"à¦ķà¦ªà¦¦à¦ķ":10837,"à¦ľà¦ªà¦²":10838,"à¦īà§İà¦¸à¦¬à¦¬":10839,"à¦ªà¦¥à¦¶":10840,"à¦ªà¦¹à¦ļ":10841,"à¦·à¦ķà¦ªà¦¦":10842,"à¦ĵà¦Ĩà¦ĩà¦¨":10843,"à¦ıà¦ķà¦ľà¦¨à¦ĸ":10844,"à¦ķà¦¶à¦¨à¦Ł":10845,"à¦°à¦Ĩà¦²à¦®à¦¡":10846,"à¦¨à¦īà¦ªà¦¹":10847,"à¦§à¦ıà¦ķ":10848,"à§İà¦ıà¦ķà¦Ł":10849,"à¦²à¦¹à¦ķà¦«":10850,"à¦¯à¦īà¦ªà¦¨":10851,"à¦Łà¦°à¦ļ":10852,"à¦ĸà¦¨à¦¨à¦ķ":10853,"à¦¬à¦²à¦¹à¦¯":10854,"à¦§à¦¨à¦ªà¦°":10855,"à¦·à¦ħà¦ª":10856,"à¦¬à¦¸à¦¤à¦¬":10857,"à¦¶à¦¨à¦ıà¦²":10858,"à¦¹à¦¯à¦¦":10859,"à¦ķà¦¨à§Ł":10860,"à¦°à¦Ĩà¦°à¦ĵà¦ªà¦¡":10861,"à¦¬à¦®à¦ľ":10862,"à¦Ĺà§Ł":10863,"à§§à§¯à§¨à§¨":10864,"à¦ľà¦¬à¦ķ":10865,"à¦ĵà¦¬à¦¡":10866,"à¦Ĩà¦°à¦ł":10867,"à¦Ĳà¦ļ":10868,"à¦£à¦¬à¦¯":10869,"à¦¹à¦¸à¦¦":10870,"à¦ªà¦Ŀ":10871,"à¦¬à¦ıà¦¨":10872,"à¦¤à¦¬à¦ª":10873,"à¦°à¦ķà¦®à¦ıà¦ķà¦Ł":10874,"à§§à§¯à§¨à§§":10875,"à¦²à¦ıà¦¡":10876,"à¦Ĺà¦ľà¦¬":10877,"à§Ńà§«à§¦à§¦":10878,"à¦§à¦®à¦ķ":10879,"à§§à§¬à§§à§§":10880,"à¦ľà§Łà¦¨à¦Ĺ":10881,"à¦īà¦ªà¦¸à¦¹à¦ķ":10882,"à¦ıà¦¸à¦¬à¦¶":10883,"à¦ĵà¦ħà¦¶":10884,"à¦ĵà¦¬à¦Ł":10885,"à§Łà¦®à¦ª":10886,"à¦¶à¦²à¦¸":10887,"à¦ĵà¦ıà¦ķà¦ĩ":10888,"à¦¶à¦ħà¦¸":10889,"à¦¬à¦ķà¦ıà¦¬":10890,"à¦¤à¦®à¦¤à¦²":10891,"à¦¨à§Łà¦¨à¦¸à¦®":10892,"à¦²à¦²à¦®":10893,"à¦°à¦£à¦¤à¦Ń":10894,"à¦¤à¦ħà¦¶":10895,"à¦¤à¦¹à¦°":10896,"à¦¨à¦Ĺà¦£à¦¤":10897,"à¦¨à¦«à¦ĸà¦°":10898,"à¦¶à¦²à¦ħà¦§":10899,"à¦²à¦ĩà¦ķ":10900,"à§¨à§¨à§¯":10901,"à¦ıà¦°à¦ķà¦¥":10902,"à¦®à¦·":10903,"à¦§à¦¸à¦¨":10904,"à¦ıà¦ķà¦ľà¦¨à¦Ľ":10905,"à¦ıà¦ĩà¦¹à¦¤":10906,"à§İà¦Ĩà¦²":10907,"à¦¹à§Łà¦ķà¦°":10908,"à¦°à¦¸à¦ķà¦²à¦¨":10909,"à¦łà¦ķà¦ħà¦¨":10910,"à¦¥à¦°à¦®":10911,"à¦¶à¦¹à¦°à¦ª":10912,"à¦¯à¦ĸà¦¨à¦ĸ":10913,"à¦ħà¦¬à¦ĩà¦¨":10914,"à¦¬à¦²à¦¬à¦¨":10915,"à¦§à¦ªà¦¥":10916,"à¦¯à¦ĸà¦¨à¦ļ":10917,"à¦¹à¦¨à¦¤à¦¬":10918,"à¦¸à¦¬à¦¸à¦®à§Łà¦¸":10919,"à¦Łà¦ªà¦¡":10920,"à§©à§¯à§Ń":10921,"à¦¡à¦ľà¦¨":10922,"à¦°à¦£à¦ĵà¦®":10923,"à¦«à¦²à¦ĸ":10924,"à¦¸à¦ĩà¦®":10925,"à¦¤à¦ĵà¦¹":10926,"à¦Ŀà§ľà¦¬":10927,"à§¨à§¦à§¨à§¦à§¨à§¨":10928,"à¦ľà¦¨à¦ļà¦Ł":10929,"à¦°à¦Ĩà¦¨à¦¶":10930,"à¦°à¦¶à¦«":10931,"à¦°à¦¤à¦®à¦£":10932,"à¦ķà¦īà¦ªà¦¸":10933,"à¦§à¦¨à¦ĵà¦ª":10934,"à¦¸à¦«à¦²à¦¹à§Ł":10935,"à¦®à¦¶à¦¹à¦°":10936,"à¦¨à¦ĺà¦£":10937,"à§Łà¦®à¦Ł":10938,"à¦¬à¦ķà¦ĸ":10939,"à§©à§©à§ª":10940,"à¦ªà¦īà¦¤":10941,"à¦¦à¦ıà¦Ł":10942,"à¦°à¦°à¦¤":10943,"à¦¤à¦ħà¦Ĺ":10944,"à¦¤à¦°à¦ħ":10945,"à¦°à¦ĩà¦ķà¦°":10946,"à¦ªà¦ļà¦Ł":10947,"à¦¶à¦ĩà¦ľ":10948,"à¦ĩà¦¨à¦ľà¦¨":10949,"à¦¬à¦īà¦ª":10950,"à¦¹à¦¨à¦ıà¦¬":10951,"à¦·à¦ľà¦¨à¦ķ":10952,"à¦ĵà¦ªà§ľà¦¤":10953,"à¦Łà¦¸à¦ļ":10954,"à¦Ľà¦¨à¦«":10955,"à¦¤à¦ĵà¦¶":10956,"à¦¸à¦«à¦°à¦ķ":10957,"à¦¯à¦¤à¦¸":10958,"à§Łà¦Ĺà¦¤à¦ķ":10959,"à¦ĩà¦ªà¦£":10960,"à¦®à¦ıà¦°à¦¬":10961,"à¦®à¦«à¦¸":10962,"à¦ĩà¦¤à¦¸":10963,"à¦°à¦®à¦£à¦ıà¦¬":10964,"à§®à§®à§¦à§¨à§¯":10965,"à¦¯à¦ļà¦²":10966,"à¦¦à¦Ĩà¦ľ":10967,"à¦¸à¦¸à¦ļ":10968,"à¦¡à¦¨à¦¸":10969,"à¦ĩà¦ªà¦°à¦¬à¦°":10970,"à¦¤à¦īà¦ł":10971,"à¦¯à¦¸à¦ª":10972,"à¦ıà¦ĸà¦¨à¦ĵà¦ħà¦¨":10973,"à¦®à¦¨à¦Ĩà¦²":10974,"à¦¨à¦ıà¦ķà¦°":10975,"à§Łà¦ĺà¦°":10976,"à¦¥à¦ķà¦ķ":10977,"à¦Ĺà¦ĵà¦¤":10978,"à¦²à¦ıà¦ķà¦¬":10979,"à¦ľà§Łà¦Ĺ":10980,"à¦¨à¦Ĩà¦¶à¦°":10981,"à§®à§Ńà§ªà§ª":10982,"à¦°à§Łà¦²":10983,"à¦°à¦¨à¦Ĩà¦®":10984,"à¦¨à¦¸à¦¹à¦ª":10985,"à¦Ľà¦ķà¦¬":10986,"à¦ħà¦¤à¦ıà¦¬à¦¤":10987,"à¦¯à¦Ĩà¦¦à¦°":10988,"à¦°à¦®à¦ħà¦¬":10989,"à¦ķà¦²à¦¨à¦¬":10990,"à¦®à¦ıà¦°à¦ķ":10991,"à¦¹à¦°à¦Ń":10992,"à¦°à¦ĵà¦ħ":10993,"à¦®à¦ıà¦®à¦ª":10994,"à¦¿à§į":10995,"à¦®à¦Ĩà¦°à¦ķ":10996,"à¦°à¦ıà¦ĩà¦Ľ":10997,"à¦¨à¦ıà¦°à¦¶":10998,"à¦¬à¦ĩà¦°":10999,"à¦ıà¦ıà¦ĩà¦ļ":11000,"à¦®à¦ıà¦ª":11001,"à¦Īà¦¦à¦īà¦ªà¦¹":11002,"à¦Ĺà¦¤à¦¹":11003,"à¦ıà¦Ļ":11004,"à¦¤à¦ķà¦¯":11005,"à¦²à¦ªà¦ŀ":11006,"à¦ĸà¦¤à¦®":11007,"à§¨à§Ńà§©":11008,"à¦®à¦°à¦¶":11009,"à¦¯à¦ĸà¦¨à¦¹":11010,"à¦¸à¦¸à¦ª":11011,"à¦ĵà¦īà¦ªà¦ķ":11012,"à¦¹à¦²à¦¥":11013,"à§§à§¬à§§":11014,"à¦°à¦ıà¦ķà¦¬à¦¨":11015,"à¦°à¦¨à¦¬à¦Ĺà¦ł":11016,"à¦¹à¦°à¦ľ":11017,"à¦¡à¦®à¦¨":11018,"à¦¯à¦ĵà¦Ń":11019,"à¦Ĩà¦°à¦ĩ":11020,"à¦°à¦ªà¦°à¦¬à¦²":11021,"à¦ľà¦ľà¦®":11022,"à¦ķà¦²à¦Ĺ":11023,"à¦¨à¦Īà¦®":11024,"à¦Ĺà¦°à¦¨":11025,"à¦¨à¦ĵà¦ıà¦ķà¦Ł":11026,"à¦°à¦Ĩà¦°à¦ĵà¦Ń":11027,"à¦¸à¦ıà¦®":11028,"à¦Ĺà¦¸à¦®à¦¯":11029,"à¦°à¦Ľà¦²":11030,"à¦¯à¦ķà¦°à¦¶":11031,"à¦¨à¦Ĺà¦¤à¦®":11032,"à¦ķà¦Ĩà¦ļ":11033,"à¦ķà¦¸à¦°à¦ŀ":11034,"à¦ķà¦ıà¦°":11035,"à¦°à¦ıà¦ķà¦ľà¦¨à¦ķà¦°":11036,"à¦®à¦Ĩà¦ĩà¦¨à¦Ĩà¦¦":11037,"à§§à§¯à§ªà§¨":11038,"à¦ĩà¦§à¦¨":11039,"à¦¬à¦ıà¦Ł":11040,"à¦ľà¦¨à¦ķà¦°à¦²":11041,"à¦°à¦ıà¦ķà¦ĸ":11042,"à§¨à§®à§Ń":11043,"à¦ĵà¦¹à¦°à¦²":11044,"à¦¬à¦ĩà¦ķà¦®":11045,"à¦¸à¦°à¦£à¦ķà¦°à¦¬":11046,"à¦Ĩà¦°à¦¸à¦¬":11047,"à¦ĵà¦ħà¦ķ":11048,"à¦¹à¦ĩà¦¨":11049,"à¦Łà¦¨à¦ĵà¦Ĺ":11050,"à¦°à¦¬à¦ľ":11051,"à¦¯à¦¤à¦®à¦Ĺ":11052,"à¦ļà¦®à¦¤":11053,"à¦īà¦ıà¦¸":11054,"à¦ıà¦ĩà¦®à¦°":11055,"à§Ńà§«à§«":11056,"à¦ªà¦ħà¦«":11057,"à¦°à¦®à¦¤à¦Ń":11058,"à¦ľà¦¨à¦¶à¦ķ":11059,"à¦¨à¦¬à¦ľà¦®":11060,"à¦®à¦Ĩà¦²à¦¦":11061,"à¦§à¦¨à¦ĵà¦¬":11062,"à¦¸à¦ĵà¦°":11063,"à¦®à¦Ĺà¦°":11064,"à¦Ĩà¦°à¦ıà¦®à¦ª":11065,"à¦Łà¦Ĺà¦¬":11066,"à¦¬à¦Ľà¦°à¦ķà¦°":11067,"à¦¬à¦°à¦¸à¦°":11068,"à¦łà¦ĸ":11069,"à¦ĺà¦¸à¦®à§Łà¦§à¦°":11070,"à¦ĩà¦ĺà¦¨":11071,"à¦¨à¦¶à¦®":11072,"à¦¶à¦ªà¦¥à¦Ĺ":11073,"à§Łà¦¸à¦¬à¦ķ":11074,"à¦ĵà¦¨à¦¸":11075,"à¦ľà¦¨à¦¬à¦¸":11076,"à¦¨à¦¤à§İà¦ķ":11077,"à¦®à¦¨à¦¸à¦®":11078,"à¦¨à¦ıà¦ĸà¦¨à¦¤":11079,"à¦¬à¦°à¦°à¦¬":11080,"à¦²à¦ķà¦Ĩà¦²":11081,"à¦¸à¦¬à¦ĸà¦¬à¦°à¦¦":11082,"à¦¦à¦ķà¦ħà¦¨":11083,"à¦ħà¦ªà¦¹à¦°à¦£à¦®":11084,"à¦ľà¦®à¦ħ":11085,"à¦«à¦²à¦¸à¦®":11086,"à¦·à¦£à¦Ĩà¦®":11087,"à¦ĩà¦®à¦ļà¦°":11088,"à¦²à¦¨à§Ł":11089,"à¦ıà¦¨à¦īà¦¦":11090,"à§«à§¨à§¨":11091,"à¦ĩà¦ľà¦Ń":11092,"à¦·à¦§à¦¨":11093,"à§Łà¦¶à¦¹à¦°":11094,"à¦Łà¦ªà¦¨":11095,"à¦¨à¦ĩà¦īà¦ıà¦¨à¦ĵ":11096,"à¦¤à¦¨à¦ĵà¦¸":11097,"à¦ıà¦ĸà¦¨à¦Ł":11098,"à¦°à¦¸à¦¹à¦®":11099,"à¦ıà¦ĩà¦ļà¦Ĩà¦ĩà¦Ń":11100,"à¦¬à¦ĩà¦ħà¦¸à¦¨":11101,"à§¦à§¬à§¨à§¦à§¨à§¨":11102,"à¦Ĩà¦°à¦ĵà¦Ĺ":11103,"à¦°à¦¹à¦£à¦ħà¦¨":11104,"à¦¸à¦ħà¦¤":11105,"à¦ıà¦ŀ":11106,"à§¨à§§à§¨à§¦à§¨à§¨":11107,"à¦Łà¦ĩà¦¨à¦¸":11108,"à¦ĸà¦²à¦ķ":11109,"à¦¨à¦ıà¦¬à¦Ľ":11110,"à¦Ĩà¦¹à¦¤à¦°":11111,"à¦ľà¦¨à¦ķà¦ħà¦¬à¦¸":11112,"à¦¦à¦²à¦Ľ":11113,"à¦¶à¦¹à¦ļ":11114,"à¦²à¦ķà¦¨à¦Ł":11115,"à¦¯à¦¬à¦Ļ":11116,"à¦ªà¦®à¦ŀ":11117,"à¦ıà¦¸à¦¬à¦ļ":11118,"à¦Łà¦ħà¦¶":11119,"à¦¨à¦Ĩà¦¸à¦¬":11120,"à¦²à¦¸à¦®à¦¯":11121,"à¦°à¦·à¦¡":11122,"à¦¡à¦®à¦§":11123,"à§ªà§ªà§Ń":11124,"à¦°à¦®à¦¤à¦¯":11125,"à¦·à¦Ńà¦Ł":11126,"à¦ħà¦¦à¦®":11127,"à¦¨à¦¬à¦¸à¦¤":11128,"à¦ĸà¦¬à¦°à¦Ń":11129,"à¦¸à¦²à¦ķ":11130,"à¦²à¦Ĩà¦¸à¦²":11131,"à¦ľà§Łà¦¤":11132,"à¦ĩà¦¶à¦¹à¦°":11133,"à¦ĵà¦ĺà¦Ł":11134,"à¦ľà§Łà¦ļà¦ķ":11135,"à¦Łà¦²à¦¬":11136,"à¦¸à¦¦à¦°à¦¸":11137,"à¦®à¦ĩà¦ª":11138,"à¦°à¦Ńà¦®":11139,"à¦°à¦¸à¦¬à¦ķà¦Ł":11140,"à¦¸à¦ķà¦²à¦°":11141,"à¦°à¦¦à¦«":11142,"à¦ªà§ľà¦¦":11143,"à¦¶à¦ĵà¦ķ":11144,"à¦§à¦¬à¦ķ":11145,"à¦¨à¦ĵà¦ĩà¦¬":11146,"à§¨à§¯à§¬":11147,"à¦Ĺà¦²à¦¹à§Ł":11148,"à¦¹à¦ķà¦°à¦Ľ":11149,"à¦²à§Łà¦ĸ":11150,"à¦¤à¦°à¦®à¦¨":11151,"à§İà¦¬à¦¨":11152,"à§Łà¦¦à¦Ĩà¦¬":11153,"à¦¶à¦¸à¦¹à¦¬":11154,"à¦¤à¦ĺà¦°":11155,"à¦ľà¦¸à¦¨":11156,"à§§à§¯à§¦à§«":11157,"à¦¤à¦ĵà¦ħà¦¨":11158,"à¦ĵà¦¨à¦¦":11159,"à§İà¦Ł":11160,"à¦ıà¦®à¦¨à¦®à¦¨":11161,"à¦¯à¦ıà¦ĩà¦¸":11162,"à¦Ĩà¦ªà¦Ł":11163,"à¦Ĩà¦°à¦ıà¦¸à¦ıà¦¸":11164,"à¦°à¦Ĩà¦°à¦ı":11165,"à¦¸à¦ĩà¦īà¦°":11166,"à¦¸à¦ķà¦²à¦²":11167,"à¦ķà¦¸à¦²":11168,"à¦ķà¦¸à¦¹à¦¬":11169,"à¦®à¦ķà¦®à¦²":11170,"à¦Ĺà¦®à¦¶":11171,"à¦°à¦Ĩà¦²à¦¹":11172,"à¦¶à¦¦à¦¬":11173,"à¦Ĺà¦ĩà¦īà¦¨":11174,"à¦§à¦¹à§Łà¦¨":11175,"à¦¨à¦¯à¦¨":11176,"à¦Ķà¦·à¦§à¦ķ":11177,"à¦¬à¦ĩà¦¹":11178,"à¦ĩà¦¨à¦·":11179,"à¦¤à¦°à¦ľà¦¨":11180,"à¦Ĩà¦®à¦²à¦ķ":11181,"à¦¥à¦ĵ":11182,"à¦¸à¦«à¦²à¦¬":11183,"à¦ķà¦ĸà¦¨à¦ĵà¦ķ":11184,"à¦®à¦Ĩà¦°à¦¨":11185,"à¦°à¦ħà¦«à¦²":11186,"à§Łà¦ıà¦¸à¦ıà¦¸à¦¸":11187,"à§Łà¦¨à§Ł":11188,"à¦®à¦¸à¦¶":11189,"à¦¦à¦®à¦ŀ":11190,"à¦ıà¦°à¦¸à¦¹à¦¯":11191,"à¦¸à¦ĩà¦¬":11192,"à¦¨à¦¬à¦īà¦ª":11193,"à¦ĩà¦ĵà¦ĩ":11194,"à¦ıà¦ķà¦ħà¦¦":11195,"à¦ľà¦ĵà¦¨":11196,"à¦°à¦¸à¦¦à¦°à¦ķ":11197,"à¦¨à¦¦à§Ł":11198,"à§«à§¦à§¦à§¦à§¦":11199,"à§Łà¦ıà¦®à¦ª":11200,"à¦®à¦°à¦¤à¦Ĩà¦Ľ":11201,"à§§à§¯à§§à§©":11202,"à¦ķà¦ĸà¦¨à¦ĵà¦¬":11203,"à¦ıà¦¡à¦ĵà§Ł":11204,"à¦ķà¦¸à¦®à§Łà¦²":11205,"à¦²à¦ĩà¦ľ":11206,"à¦¨à¦Ĺà¦°à¦ľ":11207,"à¦ķà¦ĵà¦Ĩà¦°":11208,"à¦ıà¦ķà¦ĺà¦¨":11209,"à§Ŀà¦Ń":11210,"à¦¶à¦īà¦ļ":11211,"à¦ķà¦ķà¦ł":11212,"à¦®à¦°à¦¹à¦®":11213,"à¦¶à¦ķà¦ł":11214,"à¦¨à§Łà¦¤à¦¬":11215,"à¦ķà¦¶à¦¨à¦¨":11216,"à¦ķà¦Ĺà¦°":11217,"à¦®à¦ħà¦ŀ":11218,"à¦īà¦¬à¦ª":11219,"à¦ĩà¦¬à¦¤":11220,"à¦¤à¦Ĩà¦§":11221,"à¦¥à¦ķà¦®":11222,"à¦ķà¦ļà¦ķà¦°":11223,
[...]
