#version: 0.2
à ¦
à §
à¦ ¾
à¦ °
à§ ĩ
à§ į
à¦ ¿
à¦ ¨
à¦ ķ
à¦ ¬
à¦ ¤
à¦ ¸
à¦ ®
à¦ ²
à¦ ª
à¦ ¦
à¦ ¯
à§ ģ
à¦° à¦
à§ Ł
à¦ ¹
à¦ Ł
à§ ĭ
à¦ ľ
à¦ ¶
à§ Ģ
à¦ Ĺ
à¦ ĩ
à¦ Ĩ
à¦ ı
à¦ Ľ
à¦ ļ
à¦ķ à¦°
à¦ ·
à¦ Ń
à¦ §
à¦ ¥
à¦ ĸ
à¦ ĵ
à¦ ¼
à¦ Ĥ
à¦ ¡
à¦ ħ
à¦° à¦¸
à¦ ī
à¦ «
à¦° à¦ķ
à¦° à¦¬
à¦° à¦®
à¦° à¦ª
à¦ £
à§ §
à§ ¨
à§ ľ
à§ ¦
à¦° à¦¤
à¦ª à¦°
à§ Ĥ
à¦¸ à¦®
à§ ĥ
à¦® à¦¨
à¦ı à¦ķ
à¦ ł
à¦ľ à¦¨
à¦¬ à¦²
à¦° à¦¦
à¦Ĩ à¦®
à¦° à¦¨
à¦°à¦ ľ
à¦°à¦ ¹
à¦ ģ
à¦¬ à¦¨
à¦ Ļ
à¦°à¦ Ĩ
à¦¹ à§Ł
à¦¼ à¦¾
à¦¾ à¦Ĥ
à¦¼ à§ĩ
à¦¨ à¦¬
à¦ħ à¦¨
à¦ĵ à§Ł
à§§ à§
à¦ ĺ
à¦°à¦ £
à¦ ŀ
à¦¨ à¦¤
à¦ı à¦¬
à¦ª à¦¨
à¦¨ à¦¸
à¦¬ à¦°
à¦¬ à¦¸
à¦°à¦ ħ
à¦¾ à¦ģ
à¦°à¦ ¶
à¦² à¦ķ
à§¨ à§¦
à¦¨ à¦ķ
à¦¹ à¦¬
à¦°à¦ ı
à¦ĩ à¦¨
à¦¤ à¦¬
à¦¨ à¦ª
à¦ı à¦ĩ
à¦°à¦ ļ
à¦°à¦ľ à¦¨
à§ ©
à¦¸ à¦¬
à¦°à¦ ĵ
à¦ ĥ
à¦Ĩ à¦²
à¦¨ à¦¨
à§ ª
à¦ĩ à¦¸
à§ Į
à¦°à¦ Ĺ
à§ «
à¦¶ à¦¨
à¦¤ à¦°
à¦ķ à¦®
à¦¨ à¦®
à¦¹ à¦²
à§ Ī
à¦ķà¦° à¦¤
à¦°à¦ Ń
à¦ıà¦ķ à¦Ł
à¦ķ à¦¬
à¦¹ à¦¤
à§ İ
à¦°à¦ ī
à¦¿ à¦Ĥ
à¦ī à¦¨
à§Ł à¦¨
à¦Ĩ à¦ªà¦¨
à¦² à¦¨
à¦ī à¦ª
à¦ķ à¦²
à¦¯ à¦¬
à¦°à¦ Ľ
à¦Ĩ à¦¬
à¦° à¦ķà¦°
à§ ®
à§ ¬
à¦² à¦¬
à¦° à¦¯
à§ Ń
à¦¨ à¦¦
à§ ¯
à¦® à¦¤
à¦¯ à¦ķ
à¦° à¦°
à¦® à¦¸
à¦¹ à¦¯
à¦°à¦ ¥
à¦Ĩ à¦¸
à¦¤ à¦¨
à¦ĩ à¦²
à¦¦ à¦ķ
à¦°à¦ §
à¦ķ à¦Ł
à¦ļ à¦²
à¦ĩ à¦ķ
à¦ Ŀ
à¦ı à¦¸
à¦¦ à¦¨
à¦ª à¦¤
à¦° à¦²
à¦°à¦ ĩ
à¦· à¦£
à¦¤ à¦®
à¦ķ à¦¸
à¦² à¦®
à¦ĸ à¦¨
à¦¤ à¦ķ
à¦°à¦¸ à¦®
à¦ĵ à¦¯
à¦Ł à¦¨
à¦² à¦¤
à¦°à¦ «
à¦ļ à¦¨
à§Ł à¦¸
à¦ĩ à¦¬
à¦§ à¦°
à¦¸ à¦¹
à¦ī à¦¦
à¦¨ à¦Ĩ
à¦ĩ à¦®
à¦ĩ à¦¤
à¦ª à§ľ
à¦°à¦® à¦§
à¦°à¦ª à¦°
à¦°à¦ ĸ
à¦ķ à¦¦
à¦¸ à¦¨
à¦¯ à¦¦
à¦® à¦¹
à§Ł à¦ķ
à¦¸ à¦°
à¦¯ à¦¨
à¦¨ à¦ķà¦°
à¦¯ à¦®
à¦ķ à¦¤
à¦¨ à¦ľ
à¦ħ à¦Ń
à¦® à¦¦
à¦ĩ à¦Ł
à¦¨ à¦°
à¦Ĩ à¦Ľ
à¦°à¦ Ł
à¦® à¦²
à¦ķ à¦¨
à¦® à¦¬
à§¨ à§§
à¦ħ à¦°
à¦² à¦¸
à¦¨ à¦Ĺ
à¦¨ à¦ı
à¦¨ à¦Ń
à¦¶ à¦ķ
à¦¦ à¦°
à¦ĵ à¦¬
à§Ł à¦¬
à¦® à¦ķ
à¦¸ à¦ķ
à¦Ĩ à¦Ĺ
à¦ ¢
à¦® à¦ª
à§§à§ ¯
à§ĩ à¦¾
à¦Ĩ à¦°
à¦¸ à¦ª
à¦¬ à¦ķ
à¦Ĩ à¦¨
à¦¦ à¦¸
à¦ķ à¦ª
à¦¤ à¦ķà¦°
à¦ĩà¦¸ à¦²
à¦¬ à¦¬
à¦¨ à¦¯
à¦°à¦ħ à¦¨
à¦° à§Ł
à¦Ĩà¦® à¦°
à¦Ł à¦ķ
à¦® à¦°
à¦ı à¦Ł
à¦¨ à¦¶
à¦¬ à¦ª
à¦ĵ à¦¸
à¦ĵ à¦ª
à¦² à¦ª
à¦¯ à¦¬à¦¸
à¦ĩ à¦ª
à¦ĩ à¦°
à§Ł à¦¦
à¦ķ à¦ķ
à§Ł à¦¤
à¦ħ à¦¬
à¦°à¦¸ à¦Ļ
à¦Ĩ à¦ľ
à¦¯ à¦¸
à§§ à§¦
à§Ł à¦ª
à¦Ĺ à¦ŀ
à¦¤ à¦ª
à¦¬ à¦Ľ
à¦¹ à¦ļ
à¦¤ à¦¸
à¦ª à¦ķ
à§¨à§¦ à§¨à§§
à¦¯ à¦ª
à¦¯à¦¬ à¦¹
à§Ł à¦®
à¦ĩ à§Ł
à¦Ĩ à¦¦
à¦ľ à¦¶
à¦ĸ à¦¬
à¦Ĺ à¦¤
à¦¯ à¦¤
à¦¼ à¦¿
à¦Ĩ à¦°à¦ĵ
à¦ª à¦¦
à¦¶ à¦°
à¦Ĺ à¦²
à¦² à¦¹
à¦ĩ à¦ľ
à¦ı à¦²
à¦¨ à¦®à¦¨
à¦ī à¦¤
à¦Ĺ à¦°
à¦¨ à¦ĵ
à¦¸ à¦°à¦ķ
à¦ī à¦ľ
à¦¦ à¦²
à¦¸à¦® à§Ł
à¦Ĩ à¦ķ
à¦ķ à¦¥
à¦· à§Ł
à¦ķà¦° à¦²
à¦°à¦ī à¦ª
à¦¤ à¦¦
à¦ľ à¦®
à¦¤ à¦¥
à¦¨ à¦Ł
à¦¶ à¦¬
à¦Ĺ à¦£
à¦°à¦® à¦¤
à¦ĸ à¦¤
à¦ķà¦° à¦¬
à¦¨ à¦¹
à¦ĩ à¦Ń
à¦¹ à¦®
à¦ĩ à¦¬à¦¨
à¦°à¦ ĺ
à¦¾ à¦ĥ
à¦¸ à¦²
à¦ĩ à¦¦
à¦¬ à¦¹
à¦ħ à¦¸
à¦Ĩ à¦¤
à¦§ à¦¨
à¦ĵ à¦®
à¦² à§Ł
à¦°à¦Ĩ à¦Ĺ
à¦ħ à¦§
à¦°à¦ ¡
à¦ľ à¦¸
à¦¨ à¦ļ
à¦°à¦ķ à¦¥
à¦¸ à¦Ń
à¦¤ à¦¹à§Ł
à¦°à¦¬ à¦°
à¦« à¦°
à¦°à¦¹ à¦®
à§ģ à¦ģ
à¦ħ à¦¤
à¦¹ à¦°
à§¨à§¦ à§§à§
à§¨ à§ª
à¦Ł à¦¬
à¦ħ à¦¬à¦¸
à¦ħ à¦«
à¦Ĺ à¦¬
à¦¬ à¦¦
à§İ à¦¸
à¦ī à¦²
à¦ĵ à¦¤
à¦ Ī
à¦¶ à¦¤
à¦°à¦ı à¦ķà¦Ł
à¦ĩ à¦īà¦¨
à¦ª à¦¡
à¦« à¦²
à¦ı à¦®à¦¨
à¦· à¦ķ
à¦¸ à¦¤
à§§ à§¨
à¦ħ à¦ª
à¦² à¦Ĺ
à¦Ł à¦¸
à¦ľ à¦¬
à¦ĺ à¦Łà¦¨
à¦Ĩ à¦ĩà¦¨
à¦Ĺ à¦¨
à¦ı à¦ĸ
à¦ı à¦ĸà¦¨
à¦² à¦¦
à¦°à¦ħ à¦Ń
à¦Ľ à¦¨
à¦°à¦® à¦¨
à¦¶ à¦®
à¦¹ à¦¸
à¦īà¦ª à¦ľ
à¦Ł à¦ª
à¦¬ à¦¤
à¦ĵ à¦ķ
à¦ħ à¦ªà¦°
à§¦ à§¦
à¦Ł à¦Ĺ
à¦°à¦¹ à¦£
à¦® à¦®
à¦« à¦¤
à¦ħ à¦ķ
à¦Ľ à¦¬
à¦ķ à¦Ń
à¦² à¦Ń
à¦ī à¦ł
à¦¤ à¦¤
à¦°à¦ī à¦¦
à¦¦ à¦ª
à¦¨ à¦ıà¦¬
à¦¬ à¦¶
à¦ķ à¦°à¦Ľ
à¦ľ à¦°
à¦ı à¦®
à¦¸ à¦¦
à§§à§ «
à¦° à¦°à¦¹à¦®
à¦ĸ à¦²
à¦¸ à¦¸
à¦ĩ à¦¯
à¦ĩ à¦¡
à¦¨ à¦²
à¦ĩ à¦ī
à¦¶ à¦¸
à¦· à¦¤
à¦°à¦ı à¦ķ
à¦ļ à¦Ł
à¦ī à¦ļ
à§§à§ ®
à¦® à¦ķà¦°
à§§à§ ª
à¦Ĺ à¦ł
à§Ł à¦°
à¦°à¦¥ à¦®
à¦¶ à¦ª
à¦ĩ à¦«
à§§à§ Ń
à¦¯ à¦ķà¦°
à§Ł à¦Ĺ
à¦ķ à¦¶
à¦· à¦¦
à¦² à¦ĩà¦¸à¦²
à¦Ł à¦®
à¦¥ à¦¬
à¦¹ à¦ĵà§Ł
à¦ıà¦ķ à¦ľà¦¨
à¦¨ à¦Ĩà¦®
à¦¦ à¦®
à¦ĩ à¦¹
à§§ à§§
à¦¥ à¦¨
à¦ĵ à¦¦
à¦§ à¦¬
à§ ·
à¦ı à¦¨
à¦¨ à§Ł
à¦® à¦Ĺ
à¦¸à¦® à¦¸
à¦Ł à¦ķà¦°
à§§à§ ©
à¦ Ĳ
à¦¯ à¦°
à¦Ĩ à¦¶
à§¨à§¦ à§¦
à¦ĵ à¦¨
à¦ļ à¦ķ
à¦¶ à¦ķà¦°
à¦ĺ à¦°
à¦¨ à¦ĸ
à¦² à¦¯
à¦°à¦¸ à¦Ń
à¦°à¦® à¦£
à¦¦ à¦¬
à§© à§¦
à¦¤ à¦²
à¦¨ à¦¡
à¦°à¦Ĩ à¦²
à¦® à¦§
à¦Ĺ à¦¬à¦¨
à¦² à¦ľ
à§§à§ ¬
à¦ı à¦¨à¦ª
à¦ĺ à¦Ł
à¦Ĺ à¦ķà¦°
à¦¨ à¦ªà¦°
à¦Ĺ à¦®
à¦¨ à¦¥
à¦¨ à¦«
à¦ľ à¦ķà¦°
à¦² à¦°
à¦ķ à¦ķà¦°
à¦°à¦ķ à¦²
à¦ī à¦Ł
à¦¸à¦® à¦¯
à¦ı à¦¤
à¦¬à¦² à¦²
à¦¬à¦Ľ à¦°
à¦Ĺ à¦¦
à¦°à¦£ à¦ķà¦°
à¦®à¦¸ à¦ľ
à¦® à¦ľ
à¦ª à¦¸
à¦ı à¦ª
à¦ĩ à¦ļ
à¦¶ à¦¦
à§Ł à¦ķà¦°
à¦¶ à¦¹
à¦ľ à¦ª
à¦¯ à¦¥
à¦¨ à¦ıà¦ĩ
à¦£ à¦¬
à¦°à¦¸ à¦¬
à¦Ĩ à¦ĵà§Ł
à¦ĵ à¦Ń
à¦¤ à¦¹
à§¨ à§«
à¦°à¦ı à¦¬
à¦ĩ à¦Ĺ
à¦· à¦¯
à¦ı à¦¦
à¦ı à¦Ĺ
à¦® à¦¶
à¦Ń à¦¬
à¦§ à¦ķà¦°
à¦¹ à¦ķ
à¦¼ à§ĭ
à§İ à¦ķ
à¦² à¦ķà¦°
à¦Ń à¦°
à§ĩ à¦ģ
à¦¬à¦² à¦¤
à¦Ĩ à¦Łà¦ķ
à¦§ à¦°à¦¨
à¦² à¦Ľ
à¦¶ à¦Ĺ
à¦ķ à¦ļ
à¦ľ à¦²
à¦ª à¦¬
à¦¦ à¦¶
à¦¤ à¦ľ
à¦· à¦®
à¦² à¦¥
à¦ī à¦ķ
à¦ķ à¦¹
à¦Ł à¦°
à¦¹à§Ł à¦¨
à§İ à¦ª
à¦¤ à¦Ľ
à¦¹ à¦ľ
à¦· à¦®à¦¤
à¦ı à¦°à¦ª
à¦¬ à¦®
à§¨ à§®
à¦¨ à¦ħà¦¨
à¦Ĩ à§Ł
à¦Ĺ à¦ª
à¦¨ à¦¸à¦®
à¦§ à¦¤
à¦¤ à¦Ń
à§Ł à¦¶
à¦ª à¦Ł
à¦ĵ à¦²
à¦Ĩà¦¬ à¦¦
à¦°à¦ķ à¦®
à¦ĩ à¦¶
à¦¸ à¦ļ
à¦°à¦ĵ à¦ª
à¦ī à¦ĩà¦ķ
à¦Ł à¦¦
à§ĭ à¦ģ
à§¨ à§¨
à¦¨ à¦ħ
à¦¬ à¦Ļ
à¦ľ à§Ł
à¦Ĩ à¦«
à¦¸ à¦Ļ
à¦ľ à¦ķ
à¦ħà¦¬ à¦¶
à¦¨ à§Łà¦¨
à¦ª à¦¶
à¦ĵ à¦¶
à¦°à¦¸ à¦°à¦ķ
à¦°à¦ħ à¦°
à¦ĵ à¦°
à¦°à¦¸ à¦¨
à¦² à¦Ł
à¦ķ à¦°à¦£
à¦°à¦¬ à¦¨
à¦ıà¦ĩ à¦ļ
à¦¤ à¦¶
à¦ı à¦¸à¦¬
à§« à§¦
à¦°à¦ħ à¦§
à¦² à¦²
à¦¹à§Ł à¦¤
à§Ł à¦¯
à¦°à¦Ĩ à¦®
à¦¬ à§ľ
à¦ķ à¦Ĺ
à¦¸ à¦Ł
à¦ľà¦¨ à¦ª
à¦°à¦¸ à¦°
à¦¼ à§Ģ
à¦¦ à¦¦
à¦¤ à¦¹à¦¯
à¦°à¦Ĩ à¦¨
à¦ª à¦£
à¦īà¦ª à¦¸
à¦¸ à¦ķà¦°
à¦ľà¦¨ à¦ķ
à¦Ĩ à¦°à¦¬
à¦¤ à¦°à¦£
à§¨ à§¬
à¦ª à¦²
à¦ķ à¦¸à¦®
à¦Ĩ à¦ĩ
à¦Ĺ à¦¸
à¦ļ à¦°
à¦ĵ à¦Ĺ
à¦ķ à¦¯
à§Ł à¦ľ
à¦°à¦ª à¦ķ
à§¨ à§©
à¦¯ à¦®à¦¨
à¦°à¦Ĩ à¦¬
à¦ķ à¦ľ
à¦² à¦«
à¦ĵ à¦ľ
à¦ıà¦ĩ à¦¬
à¦¯ à¦ĸ
à¦· à¦¸
à¦¡ à¦¸
à¦¡ à¦ķ
à§¨à§¦ à§¨à§¦
à¦² à¦¶
à§¨ à§Ń
à¦¨ à¦Ĩà¦ªà¦¨
à¦ıà¦ķ à¦¦
à¦¸ à¦¦à¦¸
à¦· à¦ķà¦°
à¦¡ à¦¬
à¦¯ à¦¶
à¦¨ à¦¬à¦²
à¦¡ à¦²
à¦¯ à¦ľ
à¦Ĩà¦Ĺ à¦¸
à¦°à¦ĺ à¦Łà¦¨
à¦°à¦ª à¦¤
à¦® à¦ļ
à§¨ à§¯
à¦¸ à¦«
à§Ł à¦Ń
à¦ı à¦Ľ
à¦¬ à¦ľ
à¦¸ à¦ľ
à¦ħà¦¨ à¦²
à¦¨ à¦Ľ
à§® à§¦
à¦ıà¦¸ à¦¸
à¦ı à¦«
à¦ĩ à¦Ľ
à¦ľ à¦¦
à¦ĵ à¦ļ
à¦£ à¦®
à¦ĺ à¦£
à¦Ĺ à§ľ
à¦¨ à¦Ĩà¦²
à¦¤ à¦¹à¦¬
à¦ĩ à¦Ĩà¦®
à¦¹ à¦¨
à¦Ĩà¦¸ à¦²
à¦ıà¦ķ à¦¬
à¦£ à¦¨
à¦Ī à¦¦
à¦² à¦Ĩ
à¦¤ à¦ĸ
à¦ıà¦ĩ à¦¸
à¦¯ à¦Ĺ
à¦² à¦ļ
à§Ł à¦²
à¦ª à¦¥
à¦ĸ à¦¹
à¦® à¦Ĩ
à¦¡ à¦®
à¦ľ à¦§
à¦ĺ à¦¨
à¦°à¦® à¦¹
à§ª à§¦
à¦ļ à¦®
à¦¦ à¦¤
à¦¸ à¦ķà¦²
à¦¬à¦² à¦Ľ
à¦Ĩà¦ľ à¦ķ
à§ľ à¦ķ
à¦°à¦¸ à¦¦à¦¸
à¦¯ à¦¯
à¦ļà¦² à¦Ľ
à¦ĩ à¦īà¦ª
à¦Ł à¦Ł
à¦¥ à¦®
à¦ľ à¦¤
à¦°à¦« à¦²
à¦° à¦²à¦ķ
à¦ĩ à¦¨à¦¸
à¦¡ à¦ª
à¦ħ à¦Ĺ
à¦ļ à¦¤
à¦Ĩà¦¸ à¦Ľ
à¦¦ à¦ķà¦°
à¦¥ à¦ķ
à¦°à¦¬ à¦²
à¦¨ à¦ıà¦ķ
à§Ł à¦¹
à¦°à¦¨ à¦¤
à¦¿ à¦ĥ
à¦ī à¦®
à¦°à¦ī à¦¤
à¦ł à¦ķ
à¦°à¦¹à¦£ à¦ķà¦°
à¦ĸ à¦Ľ
à¦Ł à¦²
à¦ı à¦°
à¦¨ à¦¬à¦¨
à¦§ à¦ķ
à¦ª à¦ª
à¦¤ à¦Ĺ
à¦ĵ à¦¹
à¦·à§Ł à¦Ł
à¦ħ à¦®
à¦¯ à¦¹
à§¨à§¦ à§§à§¯
à¦°à¦¹ à§Ł
à¦¼ à§ģ
à¦¡ à¦¨
à¦Ĩ à¦ª
à¦ĩ à¦ķà¦°
à¦°à¦£ à¦¸à¦®
à¦Ĺà¦ł à¦¨
à¦Ĩ à¦°à¦ķ
à¦¶ à¦²
à¦° à¦ķà¦°à¦¤
à¦· à¦¬
à¦¨à¦Ĺ à¦°
à¦¶ à¦Ł
à¦® à¦¯
à¦²à¦¨ à¦ķà¦°
à¦· à¦¨
à¦ľà¦¨ à¦ķà¦°
à¦ıà¦ĩ à¦ª
à¦°à¦§ à¦°
à¦· à¦ĸà¦¬
à¦ķ à¦ªà¦°
à¦¤ à¦Ł
à¦ħ à¦²
à¦Ĩ à¦¹
à¦· à¦ª
à¦Ĺ à¦ķ
à¦¤ à¦ļ
à¦°à¦¸à¦® à§Ł
à¦°à¦¸ à¦¹
à¦ ĭ
à¦¶ à¦¶
à¦£ à¦ķ
à¦°à¦ĸ à¦¬
à¦°à¦Ĩ à¦°
à¦°à¦ħ à¦¬à¦¸
à¦¬ à¦¡
à¦Ĺ à¦²à¦¬
à¦°à¦ª à¦¥
à¦°à¦Ĺ à¦²
à¦°à¦ĵ à¦¬
à¦Ł à¦¬à¦²
à¦ķ à¦Ľ
à¦ľ à¦Ł
à¦°à¦¹ à¦¤
à¦ļ à¦¬
à¦® à¦¡
à¦°à¦Ĩ à¦¶
à¦°à¦¶ à¦°
à¦Ł à¦«
à¦Ł à¦¤
à¦°à¦¸ à¦ķ
à§Į à¦ģ
à¦Ľ à¦°
à¦ĸ à¦®
à¦īà¦¨ à¦²
à¦¤ à¦«
à¦¬ à¦Ń
à¦ĸ à¦ķ
à¦īà¦ª à¦²à¦ķ
à¦®à¦¨ à¦¸
à¦ī à§İà¦ª
à¦ĵ à¦¸à¦®
à¦ħ à¦¶
à¦¤ à¦Ĩà¦¦
à§ĭ à¦ĥ
à¦ĩ à¦¨à¦¬
à¦ĵ à¦ł
à¦¬ à¦Ĺà¦ŀ
à¦¯ à¦Ń
à¦£ à¦ª
à¦¦ à¦¹
à¦°à¦ĩ à¦¤
à¦Ł à¦¹
à§Ł à¦ļ
à¦² à¦ĸ
à¦Ł à¦ľ
à¦ıà¦®à¦¨ à¦ķ
à¦Ĩ à¦¯
à¦¦ à¦ľ
à¦ŀ à¦¤
à¦§ à¦®
à¦Ĩ à¦Ł
à¦ª à¦®
à¦ķ à¦ĸ
à¦ķ à¦ĸà¦¨
à¦°à¦¤ à¦¥
à¦¯ à¦Ł
à¦£ à¦¸
à¦ĵ à¦Ł
à¦°à¦ Ŀ
à¦² à¦¡
à¦ī à¦¬
à¦Ń à¦¬à¦¨
à¦¶ à¦«
à¦¤ à¦¯
à¦Ĩ à¦¹à¦¤
à¦°à¦ĵ à§Ł
à¦® à§Ł
à¦¸à¦¬ à¦ļ
à¦°à¦ī à¦ªà¦°
à¦ķ à¦«
à¦ĸ à¦°
à¦ı à¦®à¦ª
à¦ķ à§Ł
à§© à§©
à¦Ĩ à¦°à¦ı
à¦°à¦ī à¦¨
à¦ĵ à¦¡
à¦ľ à¦¹
à¦ĩ à¦ĸ
à¦ĩà¦« à¦¸
à¦ı à¦°à¦¸
à¦Ń à¦ķ
à¦£ à¦¤
à¦ľà¦¨ à¦¸
à¦¤ à¦ªà¦°
à¦¬ à¦Ĺ
à¦² à¦Ĩà¦²
à¦¡ à¦ķà¦°
à¦¯ à¦ĸà¦¨
à¦¤ à¦¹à¦²
à¦ķ à¦ł
à¦Ĩ à¦§
à¦°à¦Ĺ à¦ŀ
à¦ı à¦¶
à¦ĩ à¦¥
à¦ĵ à¦ªà¦°
à¦¤ à¦ķà¦°à¦¤
à¦² à¦ªà¦°
à¦°à¦ Ļ
à¦ľ à¦Ĺ
à¦¡ à¦Ł
à¦ħ à¦¥à¦¬
à¦¤ à¦ĸà¦¨
à¦ĵ à¦ħà¦¨
à¦« à¦Ł
à¦°à¦īà¦ª à¦ľ
à¦ı à¦¡
à¦°à¦¬ à¦ķ
à¦°à¦Ĩ à¦¸
à¦°à¦¸à¦® à¦¯
à¦Ľ à§ľ
à¦ķ à¦²à¦ķ
à¦ĸ à¦ķà¦°
à¦°à¦ļ à¦¨
à¦ª à¦Ľà¦¨
à¦°à¦¦ à¦°
à¦ŀ à¦ª
à¦¨à¦¤ à¦¬
à¦ķ à¦ľà¦¨
à¦¦ à¦£
à§Ł à¦«
à¦ī à¦¡
à¦Ĩ à¦¹à¦®
à¦ħ à¦ŀ
à¦°à¦ ¢
à§ª à§«
à¦ıà¦ķ à¦®
à¦¸à¦® à¦°
à¦ı à¦Ń
à¦· à¦°
à§¬ à§¦
à¦® à¦Ń
à¦ķ à¦¡
à¦® à¦Ļ
à¦ļà¦² à¦ļ
à¦°à¦ĩ à¦īà¦¨
à§ª à§©
à¦¨ à¦§à¦°
à¦°à¦Ĩ à¦ķ
à¦Ŀ à¦¤
à¦°à¦ ŀ
à¦® à¦Ł
à¦® à¦£
à¦°à¦Ĺ à¦¤
à¦ı à¦°à¦ķ
à¦® à¦ĸ
à¦°à¦Ľ à¦¬
à¦Ł à¦Ń
à¦¹ à¦ķà¦°
à¦°à¦ħ à¦¸
à¦Ĺ à¦ľ
à¦¤ à¦¸à¦®
à¦Ł à¦Ľ
à¦¨ à¦Ĩà¦¬
à¦ī à¦¸
à¦°à¦Ĩ à¦¤
à¦¤ à¦®à¦¨
à¦Ĩ à¦ªà¦¡
à¦· à¦ľ
à¦ī à¦ªà¦¨
à¦¶ à¦ľ
à¦ĩ à¦¸à¦®
à§Ł à¦Ł
à¦²à¦ķ à¦¡
à¦Ĩà¦« à¦Ĺ
à§¯ à§¯
à¦¨à¦ķ à¦®
à¦Ĩ à¦°à¦¸
à¦¥ à¦²
à¦²à¦ķ à¦²
à¦ľà¦¨ à¦¨
à¦Ĩ à¦¨à¦¨
à¦§ à¦¨à¦ķà¦°
à¦¯ à¦ļ
à¦ľ à¦¯
à¦® à¦«
à¦ļà¦² à¦¤
à¦¦ à¦ķà¦®
à¦¸à¦¬ à¦ķ
à¦°à¦Ĩ à§Ł
à¦ĵ à¦«
à§§à§¦ à§¦
à¦°à¦ı à¦ĩ
à¦¹à§Ł à¦ķ
à§§à§¯ à§Ń
à¦¯ à¦²
à¦¯ à¦¸à¦®
à¦§ à¦¸
à¦°à¦ª à¦¦
à¦¹ à¦¹
à¦¬ à¦°à¦ħ
à¦¨ à¦ħà¦Ń
à¦ļ à§Ł
à¦°à¦Ĩ à¦¹
à¦¯ à¦¤à¦®
à¦ľ à§ľ
à¦°à¦¥ à¦®à¦ª
à¦Ĩà¦°à¦ĵ à¦ªà§ľ
à¦¬ à¦§
à¦ĸ à¦Ł
à¦ĩà¦ī à¦°
à¦¨ à¦ıà¦ķà¦Ł
à¦ı à¦°à¦¬
à¦¬à¦² à¦¬
à¦ħ à¦ľ
à¦¹ à¦ª
à¦¸ à¦²à¦®
à¦¯ à¦¹à¦¬
à¦ī à§İ
à¦Ĩà¦¸ à¦¤
à§¨à§¦à§§à§ ®
à¦Ī à¦¶
à¦°à¦ ł
à§ģ à¦ĥ
à¦Ĺ à¦¤à¦ķ
à¦£ à¦Ń
à¦ĵ à¦ķà¦°
à¦Ĺ à¦Ń
à¦¦ à¦¸à¦®
à¦¤ à¦ıà¦¬
à¦¤ à¦°à¦¬
à¦¶ à¦Ń
à§¦ à§Ń
à¦ľ à¦ľ
à§¨à§¦à§§à§ Ń
à§ľ à¦¤
à¦ĩà¦¨ à¦®
à¦ıà¦ĩ à¦®
à¦¬ à¦°à¦¸
à¦¨ à¦ľà¦¨
à¦Ł à¦¥
à¦Ľ à¦¥
à¦®à¦¨ à¦ķ
à¦§ à¦ª
à§Ł à¦ħà¦¨
à¦¸à¦¹ à¦ľ
à¦ī à¦°
à¦¨ à¦ķà¦°à¦¤
à¦Ĩ à¦¸à¦¬
à§© à§«
à¦ªà¦¨ à¦ķà¦°
à¦Ĺ à¦¤à¦¬
à¦Ń à§Ł
à¦ªà§ľ à¦¤
à¦Ĳ à¦¤
à¦¨ à¦ĵà¦ª
à¦· à¦¥
à¦¦ à¦Ĺ
à¦īà¦ª à¦ķ
à¦Ĺ à¦¡
à¦ĩ à¦¬à¦²
à¦« à¦¸
à¦°à¦ħ à¦ª
à§Ł à¦Ľ
à¦² à¦Ĩà¦®
à§§à§¯ à§¯
à¦£ à¦¦
à¦¬ à¦¯
à¦Ł à¦¶
à¦¨ à¦¹à§Ł
à¦¸ à¦¡
à¦¶ à¦¥
à¦¬ à¦ľà¦¨
à¦· à§Łà¦ķ
à¦Ĩ à¦ļ
à¦°à¦Ĩ à¦¦
à¦¥ à¦ª
à¦Ł à¦¸à¦®
à¦°à¦¹ à¦¬
à¦°à¦ĵ à¦ªà¦°
à§© à§§
à§Ł à¦ĸ
à¦°à¦¸ à¦®à¦¸
à¦Ĩà¦¸ à¦¨
à¦¸ à¦Ĺ
à¦ıà¦ĩ à¦ķ
à¦°à¦Ĩ à¦ĵà¦¤
à¦¤ à¦¹à¦¤
à¦ĩ à¦ªà¦°
à¦°à¦£ à¦ķ
à§Ł à¦ªà¦°
à¦ĵ à¦ĸ
à¦¥ à¦¤
à¦¨à¦¸ à¦°à¦ķ
à¦¦ à¦«
à¦¹ à¦«
à¦¨ à¦Ĩà¦®à¦°
à¦°à¦¦ à¦²
à¦ı à¦°à¦®
à¦¡ à¦Ń
à¦¹à§Ł à¦¸
à§¨à§¦à§§à§ ©
à¦¬ à¦ķà¦°
à¦°à¦Ĩ à¦ĩà¦¨
à¦¬ à¦¦à¦²
à¦°à¦¬ à§Łà¦¸
à¦¦ à¦Ł
à¦¦ à¦ķà¦¬
à¦°à¦¨ à¦Ń
à¦°à¦ľ à¦®
à§İ à¦¬
à¦¨ à¦ħà¦¤
à¦°à¦¸à¦¬ à¦ļ
à¦ı à¦°à¦Ĩà¦Ĺ
à¦ıà¦ĩ à¦¦
à¦¨à¦ı à¦Ł
à¦ı à¦°à¦®à¦§
à¦® à¦Ľ
à¦® à¦¥
à¦² à¦ıà¦¬
à¦¨à¦Ĩ à¦Ĺ
à¦¤ à¦¦à¦¨
à¦Ł à¦°à¦¸
à¦°à¦ħ à¦¤
à¦°à¦ı à¦²
à§ľ à¦Ľ
à§¦ à§¬
à¦°à¦¹ à¦¸
à¦£ à¦ķà¦°
à¦¤ à¦ħà¦¨
à¦¦ à¦ĸ
à§¨à§¦à§§à§ ¬
à¦ĩ à¦¸à¦¬
à¦ª à¦°à¦¬à¦°
à¦Ĩ à¦ķà¦°
à¦¬ à¦¬à¦°
à¦¹à¦¯ à¦°à¦¤
à¦¤ à¦°à¦ª
à¦°à¦ĵ à¦¸
à¦°à¦¸ à¦¦
à¦® à¦ªà¦°
à¦¸ à¦¸à¦®
à¦® à¦¹à¦¤
à¦ª à¦ķà¦°
à¦¬ à¦°à¦¬
à¦°à¦ı à¦¸
à¦¬ à¦°à¦¦
à¦¨à¦¬ à¦¬à¦¨
à¦¯ à¦ªà¦°
à¦¯ à¦ħà¦¨
à¦¹ à¦¦
à¦ıà¦ķ à¦¸
à¦Ń à¦ķà¦°
à¦ĵ à¦Ĩà¦®
à¦Ĩ à¦°à¦¤
à¦°à¦¹ à¦²
à¦°à¦ĩ à¦¨
à¦ħ à¦¸à¦®
à¦°à¦ĩ à¦®
à¦°à¦¸ à¦ķà¦²
à¦¬à¦² à¦®
à¦Ĩ à¦ĩà¦¸
à¦īà¦¦ à¦¯
à¦Ĺ à¦Ĺ
à¦¶ à¦¹à¦°
à¦¥ à¦¸
à¦Ł à¦ļ
à§ª à§¬
à¦Ł à¦ĸ
à¦®à¦¬ à¦Ļ
à¦°à¦¥ à¦®à¦¬
à¦¸ à¦ł
à¦¶ à¦¯
à¦¯ à¦ıà¦ķà¦Ł
à¦¸ à¦¶
à¦· à¦ķà¦¦
à¦ķ à¦Ĩ
à§© à§Ń
à¦¨ à¦§
à¦ĩ à¦ŀ
à¦¯ à¦Ľ
à¦¬ à¦°à¦ª
à§¦ à§¯
à¦¬ à¦¤à¦¨
à¦¤ à¦°à¦¦
à¦® à¦¸à¦®
à¦ĸ à¦¬à¦°
à¦¤ à¦¹à¦ļ
à¦ľà¦¨ à¦Ĺà¦£
à§¨à§¦à§§à§ ª
à¦¨à¦ľ à¦°
à¦¬ à§Ł
à¦°à¦ĩ à¦¬à¦¨
à§¯ à§®
à¦ª à¦·
à¦¦ à¦°à¦ķ
à¦·à¦£ à¦ķà¦°
à¦ļ à¦¸
à¦ĵ à¦ĩ
à¦ħ à¦Ļ
à§Ł à¦Ĩà¦ķ
à§¨à§¦à§§à§ «
à¦ı à¦ĩà¦¨
à¦ħ à¦Ł
à¦² à¦¨à¦ķ
à¦¬ à¦ĩ
à¦¸ à§ľà¦ķ
à¦°à¦ª à¦°à¦¤
à¦· à¦ªà¦°
à¦ª à¦Ĺ
à¦Ĩ à¦ĩà¦ª
à¦°à¦ª à¦°à¦ª
à¦¨ à¦¸à¦®à§Ł
à¦ī à¦ªà¦°
à¦¸ à¦ĸ
à¦¬ à¦ļ
à¦ħ à¦¦
à¦ĩà¦ī à¦Ł
à¦¨à¦¬ à¦°
à¦¦ à¦¶à¦®
à§© à§ª
à¦Ĺ à¦Ľ
à¦°à¦ķ à¦¬
à¦ľ à¦¥
à¦¹ à¦ĩà¦¬à¦¨
à¦°à¦ľ à¦¬
à§® à§®à§¦
à¦ĵ à¦ľà¦¨
à¦°à¦Ĩ à¦ªà¦¨
à¦ĩà¦¸ à¦°
à¦¹ à¦°à¦£
à¦ĵ à¦Ľ
à§Ł à¦Ĩà¦®
à¦ľ à¦Ľ
à¦ľ à¦ķà¦°à¦¤
à¦¤ à¦¹à¦ĵà§Ł
à¦°à¦ķ à¦¨
à¦°à¦¤ à¦¬
à¦°à¦ĵ à¦¯
à¦² à¦ĺ
à¦¦à¦¨ à¦ķà¦°
à¦¨ à¦ħà¦°
à¦ī à§ľ
à¦°à¦Ĩ à¦°à¦ĵ
à¦¦ à¦¯
à¦¯ à¦ĩ
à¦ı à¦ľ
à¦²à¦¹ à¦ķ
à¦ª à¦ļ
à¦¨à¦¸ à¦Ń
à¦°à¦¬ à¦¸
à¦°à¦¹ à¦¯
à¦¬ à¦°à¦£
à¦ª à¦ľ
à¦ªà§ľ à¦²
à¦ħ à¦¥
à¦¨à¦Ĩ à¦¹à¦®
à§Ł à¦¥
à§« à§«
à§© à§¬
à¦°à¦ ·
à§Ł à¦ıà¦¬
à§ª à§®
à¦ķ à¦ħà¦¨
à¦¨ à¦īà¦ª
à¦ķ à¦ıà¦¬
à¦¸ à¦¹à¦¯
à¦® à¦Ĩà¦®
à§§ à§¨à§¦
à§Ł à¦¸à¦®
à¦² à¦Ļ
à¦°à¦¨ à¦¬
à¦¬à¦¸ à¦¬
à¦² à¦¸à¦®
à¦Ĩ à¦°à¦®
à¦°à¦ļ à¦²
à¦¨ à¦ĩà¦®
à¦°à¦ª à¦°à¦¬
à¦¥ à¦Ĺ
à§Ł à¦ıà¦ķ
à§ª à§Ń
à¦ĩà¦² à¦¸
à¦§ à¦¦
à§ľ à¦²
à§Ł à¦£
à¦ĩ à¦®à¦¨
à¦ķ à¦ĵ
à¦¦ à¦°à¦¬
à¦¦ à¦¨à¦¬
à¦¦ à¦ĩà¦¬à¦¨
à¦¨à¦® à¦¹
à¦¨à¦Ĩ à¦°
à¦ķà¦¤ à¦Ł
à¦ıà¦ĩà¦ļ à¦ıà¦¸à¦¸
à¦¨à¦ĵ à¦Ĺ
à¦¬ à¦ĸ
à¦²à¦ķ à¦ª
à¦¨à¦Ĩ à¦¦
à¦ª à¦Ń
à¦¹ à¦ĵà¦¯
à¦Ł à¦¡
à¦°à¦ Ī
à¦¶ à¦ĸ
à¦° à¦°à¦¹
à¦¦ à¦¨à¦ª
à¦Ĩà¦² à¦®
à¦°à¦¦ à¦ķ
à¦¦à¦¨ à¦¶
à¦¤ à¦°à¦ķ
à¦ľà¦¨ à¦¬
à¦¸à¦¹ à¦ķ
à¦ł à¦¶
à¦¹à§Ł à¦¬
à¦¡ à¦¹
à¦°à¦Ĩ à¦Ľ
à¦¸ à§ľ
à¦¯ à¦Ĩà¦®
à¦ĺ à¦¦
à¦°à¦Ĺ à¦¨
à¦² à¦®à¦¨
à¦Ĩ à¦ŀ
à§¯ à§¦
à¦īà¦ľ à¦¬
à¦¯ à§Ł
à¦¯ à¦ıà¦¬
à¦°à¦¥ à¦®à¦¦
à¦Ĺà¦£ à¦®
à¦¡ à¦¦
à¦¨à¦Ĩ à¦ľ
à¦® à¦Ĺà¦ŀ
à¦¶ à¦¨à¦¸
à¦¶à¦¨ à¦ķà¦°
à¦¥ à¦°
à§© à§¨
à§Ł à¦¡
à¦Ĺ à¦ªà¦°
à¦ĩ à¦ħà¦¨
à§ľ à¦¬
à§İ à¦¸à¦ķ
à¦°à¦ª à¦¶
à§Ń à§¦
à¦§ à¦Ń
à§Łà¦¨ à¦ªà¦°
à¦ı à¦¸à¦®
à¦°à¦¬ à¦¹
à¦ª à¦¦à¦ķ
à¦ĩà¦¸ à¦Ļ
à¦· à¦Ł
à¦°à¦ª à¦°à¦¸
à¦°à¦ħ à¦¬
à¦īà§İ à¦¸à¦¬
à¦¨ à¦ĩà¦¬à¦¨
à¦ī à¦Ń
à¦°à¦ī à¦ļ
à¦ł à¦ķà¦°
à¦Ł à¦ªà¦°
à§ĩ à§
à¦ľ à¦ķà¦°à¦Ľ
à¦Ĩà¦² à¦¹
à¦¬ à¦¸à¦®
à¦ĩ à¦ı
à¦¦ à¦Ń
à¦ķà¦° à¦ª
à¦¯ à¦«
à¦ľ à¦Ļ
à¦°à¦£ à¦¬
à¦ª à¦ŀ
à¦Ĺ à¦¥
à¦ĩ à¦ıà¦ķ
à¦°à¦ĺ à¦°
à§ĩà§ Ĺ
à¦°à¦ļ à¦°
à¦¹ à¦ł
à¦°à¦£ à¦®
à§© à§®
à¦ĩà¦² à¦«
à¦¬ à¦Ł
à¦§ à¦°à¦£
à¦°à¦Ĺ à¦£
à§¯ à§¬
à¦¸ à¦¥
à¦² à¦¬à¦²
à¦Ĩà¦¹ à¦®à¦¦
à¦°à¦® à¦ľ
à¦ı à¦¨à¦ı
à¦§ à¦¬à¦¨
à¦² à¦Ĺà¦ŀ
à§¦ à§«
à¦¨ à¦¢
à¦ĩ à¦Ĩà¦ªà¦¨
à¦· à¦Ń
à§Ł à¦Ĩ
à¦§ à¦¹à§Ł
à¦¼ à§į
à¦ľà¦¨ à¦¤
à¦¡ à¦«
à¦²à¦ķ à¦¬
à¦ļ à¦¦
à¦¨ à¦¹à¦²
à¦® à¦°à¦£
à¦² à¦ħà¦¨
à¦¸à¦¬ à¦ľ
à¦ļ à¦¯
à¦¡ à¦°
à¦ĩ à¦²à¦¬
à¦¨ à¦īà¦¦
à¦°à¦ª à¦°à¦®
à¦¦ à¦Ĩà¦²
à¦£ à¦Ĺ
à¦ī à§İà¦¸
à¦ľà¦¨ à¦®
à¦¸ à¦¤à¦°
à¦ĸ à¦¸
à¦ķ à¦ħ
à¦ĩ à¦¨à¦ķ
à¦¶ à¦®à¦ķ
à¦® à¦ıà¦¬
à¦£ à¦°
à¦¡ à¦¡
à¦¨à§Ł à¦¨à¦ª
à¦¸ à¦¹à¦¬
à§Ł à¦ķà¦®
à¦® à¦ŀ
à¦ļ à¦ª
à¦°à¦¸ à¦¹à¦¯
à¦² à¦ĵà§Ł
à¦¨à§Ł à¦¨à¦¬
à¦¨à¦¤ à¦¥
à¦Ĩà¦¤ à¦¸à¦®
à§¦ à§§
à¦°à¦ª à¦°à¦¥
à¦°à¦£ à¦ª
à¦¨ à¦¨à¦¤
à¦§ à¦¸à¦®
à¦¨à¦ª à¦¦
à¦ķ à¦¬à¦°
à¦ľ à¦¡
à¦¶ à¦¨à¦ķ
à¦ĸ à¦ª
à¦¤à¦¨ à¦ķà¦°
à¦® à¦¬à¦²
à¦¸à¦® à¦ķ
à¦Ĺà¦£ à¦¤à¦¨
à¦°à¦ĵ à¦®
à¦Ĺ à¦ķà¦°à¦¤
à§Ń à§«
à¦Ĩ à¦ĩà¦¡
à¦Ŀ à§ľ
à¦°à¦ħ à¦«
à¦¨à¦Ĩ à¦°à¦ĵ
à¦Ń à¦¦
à¦¡ à¦Ĺ
à¦¶ à¦¨à¦¬
à¦ı à¦¸à¦®à§Ł
à¦¬ à¦°à¦¨à¦Ń
à¦² à¦¹à§Ł
à¦¨à¦ķ à¦²
à¦¬à¦¸ à¦ª
à¦¨ à¦§à¦°à¦¨
à¦£ à¦¹
à¦°à¦£ à¦¤
à¦ĵ à¦ıà¦ķ
à¦¨ à¦ĩ
à¦® à¦īà¦¦
à¦¶à¦® à¦¶
à¦°à¦ķ à¦°à¦Ľ
à¦ª à¦ªà¦°
à¦ĵ à¦ıà¦ķà¦Ł
à¦ľà¦¨ à¦Ĺ
à¦Ĩ à¦°à¦¨
à¦¥ à¦¦
à¦°à¦® à¦ª
à¦¨à¦ı à¦ĸ
à¦ı à¦ĺà¦Łà¦¨
à¦ħ à¦¸à¦¹
à¦ Ķ
à¦Ĩ à¦ĸ
à¦¨à¦¸ à¦¹
à¦°à¦ Ĳ
à¦Ĩà¦Łà¦ķ à¦ķà¦°
à¦¨ à¦ħà¦ªà¦°
à¦ı à¦°à¦ªà¦°
à¦īà¦ª à¦¹
à¦¤ à¦¨à¦¤
à¦ľà¦¨ à¦¦
à¦°à¦¨ à¦®
à¦ Ĭ
à¦¸ à¦ªà¦°
à¦¤ à¦ıà¦ķà¦Ł
à¦ª à§Ł
à¦¾ à§ĩ
à¦Ī à¦®
à¦°à¦Ĺ à¦°
à¦ĩ à¦ķà¦®
à¦§ à¦¶
à¦ı à¦°à¦¨
à¦°à¦ı à¦ķà¦®
à¦°à¦¥ à¦®à¦¸
à¦¬à¦°à¦ħ à¦ķ
à¦² à¦ĵ
à§Ł à¦Ĩà¦°à¦ĵ
à¦ĩ à¦¹à¦¬
à¦Ľ à¦²
à¦® à§ľ
à¦ĩ à¦ľà¦¨
à¦ĩà¦¨ à¦«
à¦¬à¦¨ à¦¯
à¦¬à¦Ľ à¦°à¦ª
à¦¨ à¦¹à¦¤
à¦® à¦£à¦¬
à¦®à¦¤ à¦ª
à¦¿ à¦ģ
à¦¤ à¦°à¦¸
à¦¦ à§Ł
à¦Ń à¦¬à¦¤
à¦¸ à¦ħ
à¦ľà¦¨ à¦¶
à¦° à¦°à¦ķ
à¦® à¦ĵ
à¦® à¦¤à¦¬
à¦¨à¦¸ à¦¬
à¦°à¦ĵ à¦ķ
à§ª à§ª
à¦ķ à¦®à¦¨
à¦ľ à§Łà¦¨
à¦Ĩà¦°à¦ĵ à¦¬
à¦¦à¦¨ à¦ľ
à¦¦ à¦ļ
à¦Ĩ à¦°à¦ª
à¦¨à¦Ĩ à¦¨
à¦ı à¦ľà¦¨
à¦ĩà¦Ł à¦¬
à¦¯ à¦Ĩà¦ªà¦¨
à§Ł à¦Ĩà¦¨
à¦Ł à¦ĵà§Ł
à¦°à¦¸ à¦ļ
à¦°à¦¶ à¦ķ
à¦¸à¦¦à¦¸ à¦¦à¦¸
à¦¯ à¦ķà¦®
à¦ıà¦ķ à¦¥
à¦¦à¦ķ à¦¸
à¦¨à¦Ĩ à¦ķ
à¦¨ à¦·
à¦ķ à¦·
à¦°à¦ı à¦ĩà¦¦
à¦ıà¦ĩ à¦Ń
à§§à§¯ à§®
à¦¬ à¦°à¦ķ
à§¦ à§ª
à¦¤ à¦¨à¦¬
à¦¨à¦¸ à¦°
à§© à§¯
à¦¸ à¦¯
à¦ĸà¦¬ à¦°à¦ª
à¦¨ à¦Ĩà¦¸
à¦¬ à¦°à¦®
à¦² à¦ħ
à¦¹ à¦Ľ
à¦ĸ à¦¯
à¦ĸ à¦°à¦ļ
à¦°à¦® à¦°
à¦°à¦ĩ à¦ļ
à¦ĩ à¦ķà¦¬
à§Ł à¦§
à¦ıà¦¸ à¦ª
à¦¯ à¦ħà¦§
à¦°à¦ķà¦° à¦²
à¦Ĩ à¦ĺ
à§¬ à§Ń
à¦Ĩà¦°à¦ĵ à¦¬à¦²
à¦ķ à¦¶à¦¨
à¦® à¦®à¦¤
à¦¨ à¦ĵà¦¯
à¦¤ à¦¡
à¦¨ à¦ĵà¦¬
à§Ł à¦®à¦¨
à¦¬à¦¨ à¦¬
à¦¨ à¦ĵà¦¸
à¦ķà¦¸ à¦¹
à¦¶ à¦ªà¦°
à¦°à¦¬ à§ľ
à¦ıà¦ķ à¦ĩ
à¦¨ à¦°à¦¹
à¦°à¦£ à¦¨
à¦²à¦ķ à¦®
à§¦ à§®
à¦ķ à¦ħà¦«
à§« à§®
à¦Ł à¦«à¦°
à¦¸ à¦ŀ
à§Ł à¦ħ
à¦¶à¦¨ à¦¸à¦®
à¦¦ à¦°à¦¹
à§Ł à¦¨à¦¬
à¦§ à¦ľ
à¦Ł à¦ıà¦¬
à¦Ĺ à¦¯
à¦°à¦¹ à¦ķà¦°
à¦¨ à¦ĵà§Ł
à¦¶ à¦īà¦¦
à¦ļà¦¨ à¦ķà¦°
à¦ı à¦°à¦¦
à¦¨à¦ķ à¦¬
à¦ıà¦¸ à¦ıà¦¸à¦¸
à¦ĸ à¦¦
à¦ıà¦ĩ à¦Ł
à¦¶ à¦ļ
à§¨à§¦ à§¨
à¦Ł à¦¹à§Ł
à§« à§¦à§¦
à¦Ĳ à¦ķ
à¦Łà¦¸ à¦ħ
à§Łà¦£ à¦Ĺà¦ŀ
à¦² à¦īà¦¦
à¦ı à¦°à¦ľà¦¨
à¦ļ à¦¶
à¦§ à¦¥
à¦¨à¦ķà¦° à¦²
à¦ĭ à¦£
à¦ª à¦¯
à¦ĵ à¦·
à¦ļ à¦°à¦®
à§« à§¬
à¦ķ à¦ħà¦°
à¦¤ à¦Ĩà¦®
à¦Ľ à¦¡
à¦°à¦Ĩ à¦¯
à¦¨à¦ķ à¦°à¦Ľ
à§ Ŀ
à¦ĩ à¦ıà¦ķà¦Ł
à§Łà¦¸ à¦°à¦ķ
à¦ı à¦¨à¦ľ
à¦°à¦ħ à¦ªà¦°
à¦°à¦ĩ à¦¬
à¦ī à¦°à¦°à¦¹à¦®
à§¨à§¦ à§§à§¨
à§¨à§¦ à§§à§§
à¦īà¦ł à¦¤
à§ª à§§
à§¨à§¦à§¦ à§¯
à¦ĵ à§ľ
à¦°à¦¹ à¦ĵà§Ł
à¦ĩà¦¨ à¦ª
à¦ļà¦² à¦®
à¦¨ à¦¶à¦¨
à¦ĩ à¦Ĩà¦®à¦°
à¦« à¦ķ
à¦¹à§Ł à¦ª
à¦°à¦ķà¦° à¦¬
à¦¨à¦ı à¦²
à¦Ľ à¦¦
à¦¤à¦® à¦¬
à¦¶ à¦¸à¦®
à¦°à¦ī à¦²
à¦Ń à¦Ļ
à¦ıà¦ĩ à¦°
à¦¥ à¦¹à§Ł
à¦ħà¦ª à¦¸
à¦¸ à¦Ľ
à¦°à¦¸ à¦¤
à§ľ à¦¯à¦¨
à§ª à§¯
à¦īà¦ª à¦¯
à¦¬ à¦«
à§İ à¦°
à¦¬ à¦°à¦¥
à¦¹ à¦°à¦¹
à¦ĩ à¦ĺ
à¦¯ à¦ķà¦°à¦¤
à¦¹ à¦Ĺ
à¦ĵ à¦¥
à¦°à¦ª à¦°à¦ĵ
à¦¨à¦ı à¦Ľ
à¦ļ à¦²à¦¬
à§ª à§¨
à¦°à¦£ à¦¸
à¦°à¦¸à¦® à¦°
à¦¨ à¦ħà¦§
à¦ıà¦ķ à¦ª
à¦°à¦ı à¦ķà¦¬
à¦¶à¦¨ à¦¦
à¦ĩà¦® à¦°
à¦¨à¦ĵ à¦®
à¦¤ à¦Ĩà¦²
à¦°à¦ī à¦ªà¦ķ
à¦¤à¦°à¦¬ à¦Ļ
à¦¡ à¦ıà¦¬
à¦¨à¦¸ à¦¨
à¦¹ à¦īà¦¦
à¦· à¦¶
à¦¬ à§Łà¦¸
à¦Ĩà¦¤ à¦Ļ
à¦¨ à¦ĺ
à¦¨ à¦¹à¦¬
à¦¬ à¦°à¦¹
à¦¤ à¦ķà¦®
à¦Ł à¦¯
à¦°à¦ī à§İ
à¦¦ à¦Ĩà¦®
à¦ľ à¦ļ
à¦ķ à¦¹à§Ł
à¦Ł à¦ħ
à¦Ł à¦ķà¦°à¦¤
à¦°à¦ħ à¦Ĺ
à¦¸ à¦īà¦ªà¦ľ
à¦¯ à¦ĵ
à¦¸ à¦ķà¦°à¦¤
à¦¬à¦¨ à¦ķ
à¦ħà¦¬ à¦¦
à¦¨à¦¡ à¦²
à¦°à¦ª à¦Ľà¦¨
à¦ķ à¦Ĩà¦®
à¦ķ à¦īà¦¦
à¦°à¦ĩ à¦²
à¦ĵ à¦ı
à¦¡ à¦¶
à¦ķà¦¸ à¦Ń
à¦¤à¦ķà¦° à¦¬
à¦°à¦¤ à¦ª
à¦ħ à¦¡
à¦ķà¦² à¦®
à¦Ĩà¦¬ à¦¹
à¦¬à¦Ľ à¦°à¦¬à§Łà¦¸
à¦¦ à¦¨à¦ķ
à¦°à¦ª à¦°à¦¦
à¦² à¦¸à¦¹
à¦°à¦ķ à§Ł
à§Ń à§§
à¦°à¦ıà¦ķ à¦ľà¦¨
à§¨à§¦à§¦ à§®
à¦« à¦Ń
à¦¸ à¦ıà¦¬
à¦¶à¦¨ à¦¶
à¦īà¦ł à¦²
à¦¸ à¦¬à¦¨
à¦ı à¦ķà¦°
à¦ī à§Ł
à¦ıà¦ķ à¦ķ
à¦ħà¦¬ à¦¹
à¦® à¦ħà¦¨
à¦° à¦°à¦¸
à¦¸ à¦Ĩà¦ŀ
à¦ľ à¦Ń
à¦ı à¦°à¦¶
à§« à§¨
à¦² à¦Ĩà¦°
à¦Ĩ à¦ĩà¦Ł
à§¬ à§¬
à¦°à¦ĩ à¦¸à¦²
à¦¶ à¦¨à¦ª
à¦°à¦¤ à¦°
à¦ı à¦ªà¦°
à¦§ à¦Ł
à¦ĩ à¦ıà¦ĩ
à¦°à¦ı à¦ķà¦¦
à¦¬à¦°à¦ħ à¦ªà¦°
à¦® à¦°à¦¹
à¦® à¦Ĩà¦²
à¦¤ à¦ĺ
à¦ľ à¦«
à¦°à¦ļ à¦Ł
à¦°à¦ı à¦®à¦¨
à¦ĩà¦¨ à¦¡
à¦ªà§ľ à¦Ľ
à¦¨ à¦¨à¦¬
à¦Ĺ à¦Ł
à¦ħ à¦¬à¦°
à¦°à¦Ĩ à¦®à¦°
à¦²à¦ķ à¦ķ
à¦¤ à¦Ĩ
à§© à§¦à§¦
à¦£ à¦Ĩà¦«
à¦¸ à¦°à¦¬à¦°
à§Ł à¦ħà¦Ń
à¦Ĩ à¦¨à¦¤
à¦Ń à¦®
à§« à§Ń
à¦¨à¦¦ à¦²
à¦¤à¦® à¦¹
à¦ıà¦ĸà¦¨ à¦ªà¦°
à¦¦ à¦¨à¦¦
à¦ı à§Ł
à¦« à¦ĸà¦°
à¦¦à¦ķ à¦ķ
à¦¤ à¦°à¦£à¦ķà¦°
à¦Ĺ à¦ļ
à¦ļ à¦¨à¦ķà¦®
à¦ıà¦¸ à¦ıà¦®
à¦°à¦ª à¦°à¦ķ
à¦ĵ à¦ıà¦¬
à¦°à¦Ĩ à¦²à¦®
à§Ł à¦ķà¦°à¦¤
à¦ľ à¦ĸ
à¦Ľ à¦¤
à¦ķ à¦Ĺà¦ŀ
à¦¬ à¦ªà¦°
à§Ł à¦¬à¦²
à¦īà¦ª à¦¦
à¦Ĩà¦ľ à¦¬
à¦Ĩà¦ĩà¦¨ à¦¶
à¦Ķ à¦·
à¦Ĩ à¦Ļ
à¦Ĩ à¦ĵà¦¯
à¦°à¦ı à¦Ł
à¦¸à¦¬ à¦¬
à¦¤ à¦Ĩà¦Ľ
à¦ī à¦ĩà¦¨
à¦¯à¦¬ à¦§
à¦°à¦¯ à¦¦
à¦ķ à§ľ
à§Ł à¦ıà¦ķà¦Ł
à¦¹ à¦¤à¦°
à¦¸ à¦ĵà§Ł
à¦®à¦¦ à¦¸
à¦ĩ à¦ıà¦¬
à¦ª à¦¹
à¦¦ à¦¨à¦¸
à¦§ à¦ķà¦°à¦¤
à¦ī à¦Ĺ
à¦¬à¦¹ à¦¨
à¦² à¦¹à¦¬
à¦¸à¦¬ à¦¸à¦®à§Ł
à¦ĩà¦ī à¦¸
à¦¨ à¦¯à¦¦
à¦¯ à¦¡
à¦Ĺ à¦¶
à¦¤à¦° à¦ķà¦°
à¦ķ à¦¸à¦®à§Ł
à¦· à¦¹à§Ł
à¦§ à¦ıà¦¬
à¦°à¦¬ à¦Ľ
à¦°à¦¤ à¦ķ
à¦ªà§ľ à¦¬
à¦¤ à¦ıà¦ķ
à¦® à¦ķà¦®
à¦°à¦Ĩ à¦ªà¦¡
à¦¬à¦° à¦°
à¦ĩà¦¨ à¦¦
à¦ıà¦ĩà¦ļ à¦¡
à¦Ĩ à¦°à¦Ł
à§¨à§¦ à§§à§¦
à¦¸à¦¬ à¦®
à¦°à¦Ń à¦°
à§İ à¦ķà¦°
à¦īà¦ª à¦¸à¦°
à¦¤à¦ķ à¦°à¦£
à§ĩ à¦¾à¦ģ
à¦¨ à¦ĩà¦¤
à¦ķ à¦Ĩà¦²
à¦ª à¦°à¦Ĺà¦¨
à¦Ń à¦¨
à¦ıà¦ķ à¦¤
à§« à§¯
à¦¨ à¦īà¦¤
à¦¤ à¦¬à¦°
à¦ªà¦° à¦°
à¦°à¦£ à¦ķà¦°à¦¤
à¦°à¦ĵ à¦¨
à¦īà¦ª à¦Ń
à¦®à¦¤ à¦ķ
à§Ł à¦®à¦¨à¦¸
à¦°à¦ļ à¦£
à¦Ĩà¦ĩà¦¨ à¦ľ
à§Ł à¦ħà¦°
à¦ĸ à¦¨à¦¤
à¦¹à¦¬ à¦§
à¦°à¦¸ à¦ł
à¦ĩà¦² à¦ķà¦°
à¦¤ à¦ĵ
à¦ĩ à¦®à¦¸
à¦Ľ à¦¹
à¦£ à¦¶
à§¦ à§©
à¦ķ à¦Ĩà¦Ľ
à¦¦ à¦Ľ
à¦°à¦® à¦¶
à§§à§¯à§Ń à§§
à¦¯ à¦¸à¦¹
à¦Ĩ à¦°à¦¦
à¦¥ à¦®à¦¨
à¦Ľ à¦ķ
à¦°à¦¹ à¦ļ
à¦¯ à¦¹à¦²
à¦· à¦¹
à¦¨à¦¬ à¦¤
à¦® à¦ĩà¦¬à¦¨
à¦¶ à¦ķà¦°à¦¤
à¦ļ à¦ķà¦°
à¦¸à¦® à¦¨
à¦Ĺ à¦®à¦¨
à¦Ń à¦¸
à¦¤ à¦§à¦°
à¦² à¦ıà¦ķ
à¦Ĩ à¦¬à¦°
à¦² à¦§
à¦Ĩ à¦¦à¦°
à¦¸à¦¹ à¦¸
à¦ıà¦¨à¦ı à¦¨à¦¬
à§ °
à¦¤ à¦¨à¦ª
à¦¬à¦¸ à¦¤
à¦®à¦¨ à¦¬
à¦°à¦ı à¦®à¦ª
à¦Ń à¦Ł
à¦Ĺ à¦°à¦®
à¦ĩ à¦¬à¦°
à¦¶ à¦ķà¦®
à¦°à¦¤ à¦²
à¦¹à§Ł à¦¯
à¦¶ à¦¨à¦¨
à¦°à¦ħ à¦ķ
à¦¨à¦ı à¦¦
à¦ķ à¦ħà¦¬à¦¸
à¦ľ à¦²à¦¬
à¦°à¦¤ à¦¦à¦¨
à¦°à¦Ĩà¦Ĺ à¦¸
à¦ĵ à¦®à¦¨
à¦°à¦£ à¦ľ
à¦ĩà¦Ł à¦Ĩà¦ĩà¦¨
à¦ĸà¦¬ à¦°à¦¬
à¦· à¦ħà¦¤
à¦°à¦ª à§ľ
à¦°à¦ĩ à¦¸
à¦® à¦ļà¦Ł
à§Ł à¦Ĩà¦²
à¦°à¦ľ à¦°
à¦°à¦Ĩ à¦ĵà§Ł
à¦ľ à¦Ĺà¦ŀ
à¦°à¦Ń à¦¬
à¦°à¦ĩ à¦īà¦ª
à¦¶à¦ķ à§Ł
à¦¸ à¦ıà¦ķ
à¦¯ à¦ħà¦°
à¦Ĺ à¦ĸ
à¦ī à¦ĸ
à¦°à¦Ĩ à¦¨à¦¨
à¦¨à¦¸ à¦ķ
à¦¶à¦® à¦īà¦¨
à¦¨ à¦īà¦ªà¦ľ
à¦« à¦¹
à¦¹à§Ł à¦®
à¦ķà¦® à¦¬
à¦¨ à¦ł
à¦ķ à¦¬à¦²
à¦¸ à¦°à¦£à¦ķà¦°
à¦Ł à¦ĵà¦¯
à¦°à¦ľ à¦¨à¦ª
à¦°à¦¬ à¦¡
à¦°à¦īà¦ª à¦¸
à¦°à¦Ĩ à¦¹à¦®
à¦ı à¦¨à¦¸
à¦ļ à¦«
à¦ł à¦ª
à¦ĩà¦¨ à¦ľ
à§« à§©
à¦¨ à¦ļà¦²
à¦¤ à¦¤à¦¥
à¦¨à¦¬ à¦Ļ
à¦¨à¦ı à¦¤
à¦ĸ à¦ĸ
à¦ĩà¦¸ à¦ļ
à¦¨à¦ķà¦° à¦¬
à¦¯ à¦ıà¦ķ
à¦ļ à§ľ
à¦¨ à¦ĩà¦¸à¦²
à¦ľ à¦²à¦ª
à¦ıà¦ĩ à¦Ĺ
à¦ıà¦ķà¦ľà¦¨ à¦®
à¦ľ à¦īà¦ªà¦ľ
à¦§ à¦¹à¦¬
à¦Ĺ à¦«
à¦¯ à¦¹à§Ł
à¦°à¦Ĩ à¦ľ
à¦°à¦¸à¦® à§Łà¦ķ
à¦¹ à¦®à¦¦
à¦¨ à¦ħà¦¬à¦¸
à¦² à¦¤à¦¬
à¦§ à¦ĸ
à¦°à¦¤ à¦¨
à¦°à¦¶ à¦¹
à§« à§ª
à§¯à§® à§¨à§ª
à¦¤ à¦¨à¦¸
à¦¤ à¦°à¦®
à¦ĩ à¦²à¦ķ
à¦· à¦Ĺ
à§Ł à¦¬à¦°
à¦Ĺà¦£ à¦¤
à¦¨à¦ı à¦®à¦¨
à¦¬ à¦¥
à¦¦ à¦°à¦ľ
à¦Ł à¦ķà¦®
à¦¥ à¦¹
à¦Ļ à¦ļ
à¦ķà¦® à¦¤
à§ ³
à¦¸ à¦ĵ
à¦® à¦ı
à¦« à¦«
à¦ıà¦ĸ à¦¨à¦¸
à¦¨ à¦¸à¦®à¦¸
à¦¦ à¦Ĩà¦¤
à¦¦ à¦ĸà¦²
à¦¶ à¦ĵ
à¦Ĩ à§ľ
à¦ħà¦¨ à¦¨
à¦ķ à¦¹à¦²
à¦¤ à¦ħà¦Ń
à¦ķà¦ª à¦ł
à¦ıà¦ĸ à¦¨à¦ķ
à¦¨ à¦ıà¦¸
à¦ľ à¦īà¦¦
à¦Ĩ à¦¹à¦²
à§¨à§¦ à§¦à§¦
à¦°à§Ł à¦ķà¦°
à¦ĩà¦ī à¦ı
à§Ł à¦¢
à¦¹ à¦°à¦¨
à¦ı à¦§à¦°à¦¨
à¦°à¦¶ à¦¬
à¦ĩà¦¨ à¦Ń
à§¬ à§®
à§Ń à§¨
à§Ń à§©
à¦¨ à¦īà¦¨
à¦ı à¦°à¦ļ
à¦¤ à¦ıà¦ĩ
à¦ª à¦Ĺà¦ŀ
à¦ı à¦¯
à¦Ń à¦¯
à¦¬ à¦£
à§Ł à¦ĵ
à¦¶ à¦Ľ
à¦¥ à¦ķà¦°
à¦°à¦¬ à¦¦à¦²
à§Łà¦¨ à¦ķà¦°
à¦°à¦¸à¦® à§Łà¦¬
à¦Ĩ à¦²à¦ķ
à¦ħà¦¬ à¦®
à¦°à¦īà¦ª à¦¹
à¦¯ à¦¹à¦¤
à¦Ĺ à¦¸à¦®
à§Łà¦¸ à¦Ń
à¦ĸà¦¬ à¦°à¦ĵà¦¬
à¦² à¦¬à¦¨
à¦ĭ à¦¤
à¦Ĩà¦® à¦²
à¦ıà¦ĩ à¦¸à¦®à¦¯
à§¬ à§«
à¦¨à¦¬ à¦ľ
à§§à§¦ à§¦à§¦
à¦ĩ à¦«à¦¤
à¦ĩà¦² à¦Ł
à¦Ĺ à¦¤à¦®
à¦Ĩà¦® à¦¦
à§¨à§¦ à§¨à§¨
à¦® à¦¬à¦°
à¦® à¦Ĩà¦¬
à¦°à¦Ĩ à¦ĺ
à¦ķ à¦Ĩà¦Ĺ
à¦ĩ à¦Ĩà¦²
à¦°à¦® à¦¸
à¦Ĺ à¦¬à¦°
à§ĭ à¦Ĥ
à¦« à¦¨
à¦ľà¦¸ à¦¦
à¦Ĺà¦ł à¦¨à¦ķà¦°
à¦¯ à¦§à¦°
à¦°à¦« à¦°
à¦ķà¦¦ à¦²
à¦ıà¦®à¦¨ à¦ıà¦ķà¦Ł
à¦°à¦ı à¦ĩà¦¸
à¦°à¦¸à¦® à§Łà¦¸
à¦¸ à¦Ĩà¦²
à¦¨à¦ı à¦ĸà¦¨
à¦¨ à¦¹à¦¯
à¦īà¦ľ à¦¡
à¦¬ à¦Ĩà¦²
à¦¤ à¦ħà¦°
à¦¸à¦¬ à¦ª
à§¬ à§ª
à¦¯à¦¸ à¦°à¦ķ
à¦² à¦ķà¦°à¦¤
à¦² à¦Ĩà¦ľ
à¦¹à§Ł à¦°
à¦·à¦£ à¦¦
à¦¸à¦¹ à¦¨
à¦¨ à¦ĩà¦¨
à¦ķ à¦Ĩà¦¤
à¦² à¦¹à¦²
à¦Ĩ à¦®à¦¨
à¦Ĩ à¦ĩà¦ľ
à¦°à¦ı à¦ĩà¦ª
à¦¤ à¦°à¦¨
à¦¤ à¦®à¦¸
à¦Ĩ à¦¨à¦¸
à¦° à¦°à¦¶
à¦ıà¦ĩ à¦ªà¦°
à¦¤ à¦ªà§ľ
à§Łà¦¦ à¦ª
à¦¨ à¦°à¦¸
à¦¯ à¦ħ
à¦ı à¦°à¦ĩ
à¦¡ à¦ľ
à¦°à¦ı à¦ĸ
à¦¨ à¦«à¦²
à¦¤ à¦§
à¦² à¦ĵà¦¯
à¦£ à¦«
à¦ıà¦ĸ à¦¨à¦¬
à§Ł à¦ĺ
à¦°à¦® à¦°à¦¦
à¦¬à¦¨ à¦ķà¦°
à§Ń à§®
à¦¨à¦¶ à¦°
à¦ķ à¦ıà¦ķ
à¦¨à¦¤ à¦ĸà¦¨
à¦°à¦Ń à§Ł
à§Łà¦¸ à¦°
à¦ĩ à¦ķà¦°à¦¤
à¦°à¦ľ à¦¨à¦ķ
à¦°à¦Ĩ à¦§
à¦Ī à¦¦à¦®
à¦¤ à¦ħ
à¦¸ à¦°à¦£
à§Ł à¦°à¦²
à¦§ à¦°à¦¤
à¦¨à¦¬ à¦¸
à¦¤à¦¬ à¦¤
à§Ł à¦Ĩà¦°
à¦¹ à¦¶
à¦® à¦¹à¦²
à¦¯ à¦¬à¦°
à¦« à¦°à¦¯
à¦°à¦ĵ à¦¤
à¦ķ à¦§
à¦Ĺ à¦²à¦ķ
à§¦ à§¨
à§¦ à§§à§Ń
à¦°à¦¹ à¦°
à§İ à¦¨
à¦² à¦Ĩà¦¬
à¦¯ à¦Ĩà¦²
à¦ĵ à¦ħ
à¦ıà¦ĩ à¦ľ
à¦ĩ à¦ıà¦Ł
à¦°à¦ķ à¦ķ
à¦ıà¦ķ à¦¨
à¦²à¦¨ à¦ķà¦°à¦¤
à¦®à¦¤ à¦²
à¦¬à¦Ľ à¦°à¦Ĩà¦Ĺ
à§¨à§¦à§¦ à§§
à¦¦ à¦¬à¦²
à¦®à¦¨ à¦Ĺ
à¦°à¦¦ à¦¤
à¦Ĩà¦°à¦ĵ à¦ªà¦¡
à¦¨ à¦ĺà¦Łà¦¨
à¦ıà¦ĩ à¦¤
à¦¹à¦¤ à¦¹à§Ł
à§Ł à¦¨à¦¤
à¦°à¦¸ à¦¹à¦ķ
à¦« à¦Ĺ
à¦² à¦ı
à¦ĩ à¦¤à¦¬
à¦¨à¦ª à¦¤
à¦¬à¦Ľ à¦°à¦§à¦°
à§¨à§¦à§¦ à§¬
à¦¡ à¦ħ
à¦¬à¦Ľ à¦°à¦¬
à¦ħà¦¥ à¦ļ
à¦¸ à¦¨à¦ķ
à¦¦ à¦īà¦²
à¦ľ à¦ķà¦°à¦¬
à¦¶ à¦ıà¦¬
à¦ĩ à¦Ĩà¦Ĺ
à¦°à¦£ à¦¦
à¦¤ à¦¬à¦²
à¦ĩ à¦ĵà§Ł
à¦ıà¦ķà¦ľà¦¨ à¦¬
à§¨ à§§à§®
à¦ªà¦¦ à¦¤
à¦² à¦ıà¦ķà¦Ł
à¦ª à¦¨à¦¬
à¦¦ à¦ıà¦¬
à¦¯ à¦Łà¦¨
à¦Ĺ à¦¹
à¦· à¦ķà¦¨
à¦ĸ à¦²à¦®
à¦°à¦¬ à¦Ļ
à¦°à¦ı à¦ĸà¦¨
à¦¯à¦¤ à¦¥
à¦¨ à¦ħà¦¸
à¦ķ à¦ħà¦Ń
à¦® à¦Ĩà¦ľ
à§Ł à¦Ĩà¦¸
à¦¸à¦¹ à¦¦
à¦°à¦Ĩà¦¶ à¦Ļ
à¦¦à¦¨ à¦²
à¦°à¦Ĳ à¦¤
à¦ľà¦¨ à¦°
à¦Ĺà¦£ à¦¨
à¦« à¦ľà¦²
à¦°à¦¨ à¦Ĺ
à¦¬à¦¸ à¦īà¦ªà¦²à¦ķ
à¦ĩà¦Ł à¦¸
à¦°à¦¹à¦£ à¦ķ
à¦¡à¦Ł à¦ķà¦®
à¦ıà¦ķ à¦¹
à¦¨à¦ķ à¦¥
à§® à§®
à¦¤à¦ķà¦° à¦²
à¦¯ à¦Ĩà¦¬
à¦ľ à§Łà¦¦
à¦®à¦¨ à¦¦
à¦ĩà¦¸ à¦ª
à¦¨à¦Ĩ à¦Ľ
à¦¤ à¦ħà¦¬à¦¸
à¦°à¦ª à¦£
à¦°à¦ª à¦°à¦°
à¦²à¦ķ à¦Ń
à¦°à¦ı à¦ĩà¦¬
à¦Ĺà¦¤ à¦Ń
à¦¸ à¦ķà¦®
à¦¦ à¦¥
à¦· à§ľà¦¯à¦¨
à¦°à¦ı à¦ķà¦ª
à¦°à¦Ĺ à¦¬
à¦ľ à¦¸à¦®
à¦Ĩ à¦°à¦¯
à¦Ĩ à¦ĩà¦¬
à¦°à¦ħ à¦¬à¦¶
à¦Ĺà¦¤ à¦ľ
à¦¹ à¦°à¦ķ
à¦ı à¦°à¦ķà¦®
à¦°à¦ķ à¦ª
à§§ à§§à§¦
à¦°à¦¦ à¦°à¦ķ
à¦¸à¦¹ à¦ª
à¦¨à¦ĵ à¦ķ
à¦īà¦ł à¦Ľ
à¦Ĩà¦ĩ à¦¨à¦¬
à¦· à¦¦à¦¨
à¦°à¦¸ à¦®à¦¨
à¦ĩà¦Ń à¦ķà¦°
à¦²à¦Ĺ à¦¸
à¦ļ à¦¡
à¦ķ à¦¬à¦¨
à¦ķ à¦¹à¦¬
à¦¬ à¦°à¦¤
à¦ĩ à¦īà¦ľ
à¦Ĩ à¦ī
à¦¯ à¦ĵà¦ª
à¦ĩ à¦ĵ
à¦ĩà¦² à¦ª
à§ĩ à¦ĥ
à¦¦ à¦¡
à§Ł à¦¤à¦¬
à¦Ĩ à¦īà¦Ł
à¦¤ à¦¨à¦ķ
à¦¤ à¦ĵà¦ª
à¦® à¦°à¦¤
à¦ıà¦ĩ à¦²
à¦¶ à¦ħà¦¨
à¦Ĩ à¦¶à¦°
à¦ı à§ľ
à¦Ń à¦ľà¦¨
à¦°à¦¥ à¦®à¦®
à¦¬à¦ķ à¦ķ
à¦Ĩà¦ĩà¦¨ à¦Ĩà¦¦
à¦¶ à¦¸à¦°à¦ķ
à¦°à¦® à¦¤à¦¬
à¦¬à¦¸ à¦¨
à¦ĩà¦Ł à¦¦
à¦²à¦ķà¦ª à¦²à¦ķà¦ª
à¦ķ à¦īà¦¨
à¦Ł à¦¹à¦¬
à¦Ĺ à¦²à¦¨
à¦ıà¦®à¦¨ à¦Ł
à¦ª à¦¦à¦¸
à¦¸à¦ķ à¦²à¦ķ
à¦¨ à¦¸à¦®à¦¯
à¦® à¦§à¦°
à¦§ à¦²
à¦ł à¦¬
à¦² à¦Ĺà¦²
à¦ı à¦¹
à¦ı à¦®à¦ķ
à¦Ľ à¦¦à¦ľ
à¦°à¦® à¦ķà¦°
à¦¬à¦¨ à¦¤
à¦°à¦ļ à¦ķ
à¦°à¦ĩ à¦ª
à§Ł à¦¸à¦¬
à¦Ĩ à¦¸à¦®
à¦ĩà¦¦ à¦¹
à§¨à§® à§ªà§©
à¦¤ à¦īà¦¦
à¦ĩ à¦Ĩà¦¬
à¦· à¦¹à¦²
à¦ĵ à¦Ĩà¦²
à¦°à¦ħ à¦Ļ
à§« à§§
à¦¨à¦Ĩ à¦ĵà§Ł
à¦°à¦¹à¦£ à¦¯
à¦¨à¦ħ à¦¥à¦¬
à¦ª à¦«
à¦¹ à¦ķà¦¦
à¦ĩ à¦ķà¦²
à¦ĵ à¦¬à¦²
à¦¸à¦® à¦Ĺ
à¦¶à¦¨ à¦Ł
à§§à§« à§¦
à¦ĩ à¦Ĩà¦Ľ
à§¬ à§¯
à¦¨ à¦Ľà¦¬
à¦¨ à¦īà¦ĩà¦ķ
à§Ł à¦ıà¦ĩ
à¦ĩ à¦¨à¦¤
à¦Ń à¦ª
à¦°à¦¥ à¦®à¦ķ
à¦·à¦£ à¦ķ
à¦·à¦£ à¦ª
à§¨à§¦à§¦ à§¨
à¦¡ à¦¥
à¦°à¦ħà¦¨ à¦²
à¦« à¦ª
à¦°à¦® à¦¬
à¦°à¦¤ à¦¦
à¦Ł à¦ĩà¦¨
à¦Ĺ à¦²à¦ª
à¦¸à¦¹ à¦ħà¦¨
à¦Ĩà¦°à¦ĵ à¦¦
à¦¤ à¦¨à¦®
à¦Ł à¦ħà¦«
à§® à§¯
à§¬ à§§
à§Ń à§Ń
à¦¦ à¦®à¦¨
à§Ł à¦®à¦¹
à¦ı à¦¤à¦¥
à¦°à¦ķ à¦£
à¦¸à¦® à§Łà¦ķ
à¦°à¦¨ à¦¦
à¦°à¦¥ à¦®à¦¤
à¦ĩà¦² à¦®
à¦® à¦®à¦¹
à§ģ à¦Ĥ
à¦ľ à¦ªà¦°
à¦Ń à¦°à¦ķà¦°
à§İ à¦¦
à¦°à¦ĸ à¦¬à¦°
à§Łà¦¦ à¦²
à¦¸à§ľ à¦ķà¦¦
à¦¯ à¦ĵà¦¸
à§Ł à¦ıà¦¸
à¦Ĩ à¦ªà¦¤
à¦Ĩ à¦°à¦Ĩà¦®
à¦¶à¦¸ à¦¦à¦¸
à¦Ł à¦ħà¦¨
à¦§ à¦Ĺ
à¦°à¦ª à¦°à¦¬à¦°
à¦ıà¦ķ à¦¯
à¦¨à¦ķ à¦¶
à¦°à¦ı à¦¨
à¦®à¦¦ à¦®
à§¨à§¦à§¦ à§Ń
à¦¦ à¦ħà¦¨
à¦§ à¦¹
à¦ıà¦ĸà¦¨ à¦ĵ
à¦² à¦¹à¦¤
à¦¯ à¦ķà¦°à¦¬
à¦Ľ à¦ª
à¦¡ à¦¤
à¦¬à¦² à¦¸
à¦¬ à¦°à¦ªà¦°
à¦¦ à¦¨à¦®
à¦« à¦ľ
à¦²à¦ķ à¦¸
à¦¸à¦¬ à¦¦
à¦¨à¦Ĺ à¦°à¦¬
à§Łà¦¤ à¦¥
à¦Ĩ à¦¡
à¦ı à¦®à¦¬
à¦¨à¦Ĩ à¦¤
à¦°à¦Ī à¦¦
à¦¤ à¦¨à¦¦
à¦ı à¦¤à¦¦
à¦°à¦¸ à¦ª
à¦¬ à¦°à¦¶
à¦² à§ľ
à¦°à¦ Ĭ
à¦ıà¦ĩ à¦¯
à¦¸à¦¬ à¦¶
à¦Ĺà¦¤ à¦¦
à¦¦ à¦ĵ
à§ģ à§į
à¦ĩ à¦ļà¦²
à¦°à¦¤ à¦¤
à¦¬à¦¨ à¦¨
à¦°à¦ı à¦ķà¦¸
à¦īà¦ª à¦²à¦¬
à¦Ĩà¦¬ à¦¶
à¦¤à¦ķ à¦°à¦Ľ
à¦īà¦ľ à¦Ł
à¦¬ à¦°à¦¨
à¦ľ à§Łà¦ª
à¦£ à¦¸à¦®
à¦ıà¦ķ à¦¸à¦Ļ
à¦ħà¦ª à¦Ł
à¦¬ à¦°à¦Ĩà¦Ĺà¦¸
à¦¦ à¦Ĩà¦¹à¦®
à¦°à¦ª à¦²
à¦ľà¦¨ à¦ķà¦¨
à¦ıà¦¸ à¦ıà¦«
à¦ıà¦ĸ à¦¨à¦¤
à¦® à¦ĺ
à§Ł à¦ªà¦¤
à¦°à¦¤ à¦®
à¦°à¦¥à¦® à¦Ĩà¦²
à¦¨à¦ıà¦ĩ à¦¬
à¦¹ à¦¬à¦²
à¦Ĺ à¦Ļ
à¦ĩ à¦ıà¦¸
à¦¥ à¦¬à¦Ľà¦°
à¦¦à¦ķ à¦¦
à¦¤à¦® à¦ª
à¦¨à¦° à§Ł
à¦ĩà¦ī à¦ķ
à¦¸ à¦ħà¦¨
à¦¯ à¦¬à¦²
à¦Ĩ à¦ĩà¦ķ
à¦°à¦ª à¦°à¦¨
à¦Ŀ à¦¡
à§Ł à¦Ĩà¦¬
à¦Ł à¦ĵ
à¦Ĩ à¦°à¦¶
à¦¡ à¦¯
à¦« à¦²à¦ª
à¦°à¦Ĩ à¦¨à¦¤
à¦¤à¦¬ à¦Ľ
à¦°à¦ī à¦ªà¦¨
à¦·à¦£ à¦¬
à¦ª à¦ķà¦®
à¦·à¦£ à¦¨
à¦īà¦ľ à¦ª
à¦¸ à¦ķà¦°à¦²
à¦¯ à¦ĩà¦¤
à¦°à¦® à¦¤à¦¨
à§§ à§§à§¨
à¦°à¦ħ à¦¶
à¦¸à¦¹ à¦Ĩà¦Łà¦ķ
à¦ķà¦¤ à¦¥
à¦°à¦ ĭ
à¦¥ à¦¶
à¦ĵ à¦Ĩà¦ªà¦¨
à¦°à¦¹à¦£ à¦ķà¦°à¦¤
à¦¤ à¦¨à¦¨
à¦¸ à¦«à¦²
à¦ĩ à¦§à¦°
à¦ĸ à¦£
à¦ħ à¦¯
à¦¬ à¦°à¦¡
à¦ĵ à¦ĩà¦¬
à§¦à§¦ à§¦à§¦
à¦¬ à¦ĩà¦Ł
à¦¶ à¦Ļ
à¦ĩ à¦īà¦¤
à¦ĸ à¦¡
à¦¨à¦ª à¦Ľà¦¨
à¦¬ à¦ıà¦¬
à¦¸ à¦īà¦¦
à¦Ł à¦ķà¦²
à¦¶ à¦¡
à¦Ĺ à¦¸à¦Ń
à¦« à¦¸à¦²
à¦¬à¦¨ à¦§
à¦¤à¦¦ à¦ĸà¦²à¦®
à¦ľ à¦Ĩà¦ªà¦¨
à¦ĩ à¦¹à¦²
à¦¨à¦ħà¦¨ à¦²
à¦ıà¦ķ à¦ĩà¦¸à¦Ļ
à¦¤ à¦°à¦¤
à¦£ à¦ļ
à¦°à¦¨ à¦¨
à¦ĩà¦¨ à¦¨
à¦ĩà¦¸ à¦¨
à¦ķà¦® à¦²
à¦°à¦²à¦ķ à¦¡
à¦®à§Ł à¦®à¦¨à¦¸
à¦¨ à¦ıà¦ķà¦ľà¦¨
à¦² à¦°à¦ļà¦¨
à¦Ł à¦ĩà¦¤
à§§ à§¨à§§
à¦¬à¦² à¦¨
à§Ń à§¬
à¦°à¦° à§Ł
à¦°à¦« à¦¤
à¦¨ à¦īà¦²
à¦¸ à¦¨à¦ª
à¦ı à¦®à¦¸
à¦¼ à¦Ĥ
à¦®à¦¨ à¦Ł
à¦°à¦¶ à¦¹à¦°
à¦ĩà¦ķ à¦¥
à¦ķà¦¡ à¦ĩà¦¨
à¦¹ à¦Ĩà¦²
à¦ľ à¦ĵà¦ķ
à¦ĩ à¦²à¦¨
à¦¥ à¦Ń
à¦ıà¦ķ à¦¶
à¦ķà¦® à¦¹
à¦°à¦ī à§İà¦¸
à¦Ĺà¦£ à¦ªà¦°
à¦°à¦īà¦ªà¦° à¦¨
à¦¡ à¦īà¦¤
à§Ĥ à¦ģ
à¦¤à¦° à§Ł
à¦° à¦°à¦¬
à¦¤ à§İà¦ķ
à¦Ĺ à¦²à¦®
à¦°à¦ľ à¦²
à¦ĩà¦¨ à¦ķà¦°
à§İ à¦ľ
à¦°à¦¸à¦¹ à¦¸à¦Ń
à¦¬ à¦ĩà§Ł
à¦¹ à¦¨à¦ķ
à¦°à¦ľà¦¨ à¦Ĺà¦£
à¦°à¦« à¦°à¦®
à¦¨à¦¯ à¦¥
à¦Ĩà¦°à¦ĵ à¦ľ
à¦¨ à¦ĩà¦īà¦¨
à¦· à¦ĸà¦¬à¦°
à¦¥ à¦ķà¦¦
à¦ĵ à¦ķà¦¨
à¦« à¦®
à¦°à¦ķ à¦°à¦£
à¦ıà¦ĩ à¦¸à¦®à§Ł
à¦¦à¦¨ à¦ĸ
à¦¯à¦¸ à¦ļ
à¦¨ à¦ħà¦ª
à¦¬ à¦ĩà¦¬
à¦ĵ à¦ħà¦Ń
à¦ĵ à¦®à¦°
à¦²à¦ķ à¦¨
à¦Ĩà¦ĩà¦¨ à¦ª
à¦¯à¦ĸ à¦¨à¦¤
à¦¨ à¦«à¦°
à¦ª à¦Ľ
à¦¦ à¦²à¦ķ
à¦¯ à¦ľà¦¨
à¦°à¦ı à¦ĩà¦ļ
à¦°à¦Ĺ à¦ł
à¦¶à¦¨ à¦Ĺ
à¦¦à¦ķ à¦ĵà¦ª
à¦ıà¦¸ à¦ķ
à¦¨à¦ı à¦¨
à¦¤ à¦°à¦ĵ
à¦¶ à¦ķà¦¦
à¦£ à¦ªà¦°
à§ľ à¦®
à§ľ à¦¦
à¦¸à¦¹ à¦®
à¦¨à§Łà¦¨à¦ª à¦¤
à¦¸ à¦ı
à¦® à¦¦à¦¨
à¦¹ à¦Ń
à¦°à¦¹ à¦ķ
à¦¹à§Ł à¦ıà¦¬
à¦¹à¦¤ à¦¦
à¦°à¦¯ à¦¤
à¦²à¦Ĩ à¦¹à¦®
à¦ª à¦ħà¦¨
à¦¯ à¦§
à¦Ĩ à¦ĩà¦Ń
à¦°à¦Ĩ à¦ļ
à¦Ŀ à¦°
à¦ĸà¦¬ à¦°à¦¦
à¦¨à¦ıà¦ĩ à¦¸à¦®à¦¯
à¦ĩà¦īà¦ı à¦¨à¦ĵ
à¦° à¦°à¦®
à¦ķ à¦ĵà¦¸
à¦°à¦ı à¦ª
à¦¤à¦® à¦®
à¦¨à¦ı à¦®à¦ª
à¦īà¦Ń à¦¯
à¦¬ à¦ŀ
à¦Ĩ à¦ĩà§Ł
à¦Ľ à¦Ł
à¦· à¦ļ
à¦ĵ à¦¹à¦¤
à¦ĩà¦¨ à¦¶
à§® à§«
à¦ĩà¦¬ à¦ķà¦°
à¦¯à¦¤ à¦Ł
à¦ķ à¦ķà¦®
à§Ł à¦Ĩà¦Ľ
à¦ļ à¦Ĺ
à¦ħ à¦¬à¦²à¦®
à¦ī à¦ĩà§Ł
à¦ł à¦¤
à¦ł à¦¸
à¦¨à¦® à¦ľ
à¦ĩà¦® à¦ª
à§®à§®à§¦ à§§à§Ń
à¦¨ à¦ħà¦¬
à¦® à¦ĩ
à§Ł à¦Ĩà¦®à¦°
à¦ī à¦¥
à¦Ĩà¦ľ à¦¸
à¦ªà¦£ à¦ķà¦°
à¦¸ à¦«à¦°
à¦Ł à¦ĩ
à¦ĵ à¦¬à¦¨
à¦²à¦¬ à¦ķ
à¦®à¦¤ à¦¦
à§Łà¦¦ à¦«
à¦ķ à¦ĵà¦®
à§Ł à¦ķà¦¸
à¦£ à¦®à¦¨
à¦¦à¦ķ à¦ľ
à¦Ĩà¦¨ à¦¹
à¦°à¦Ĭ à¦°
à¦¬ à¦ķà¦®
à¦¤ à¦¸à¦°
à§Ł à¦Ĺà¦ŀ
à¦ĩ à¦ħ
à¦· à¦¸à¦®
à¦ī à¦¸à¦®
à¦¸à¦¹ à¦Ĺ
à¦ıà¦ķà¦ľà¦¨ à¦ķ
à¦¨ à¦°à¦¬
à§Ł à¦Ĩà¦Ĺ
à¦Ł à¦ı
à¦ĩ à¦¹à§Ł
à¦ļ à¦¹
à¦°à¦ª à¦ł
à¦°à¦Ĩ à¦®à¦²
à¦°à¦ĵ à¦¦
à§Łà¦¤ à¦ª
à§Ł à¦ªà§ľ
à¦Ĩ à¦ķà¦¬
à¦ļ à¦£
à¦ļ à¦ķà¦¨
à¦§ à¦Ľ
à¦ł à¦¦
à¦°à¦¦ à¦°à¦ľ
à§İ à¦®
à¦² à¦¸à¦¬
à¦Ĺ à¦ªà¦¤
à¦ī à¦ĩ
à¦°à¦ª à¦°à¦¶
à¦°à¦ħ à¦¡
à¦¦à¦¨ à¦ķà¦°à¦¤
à¦ıà¦¤ à¦Ł
à¦¯ à¦ķà¦²
à¦°à¦¸ à¦«
à¦°à¦® à¦¡
à¦°à¦ª à¦ŀ
à§¨ à§©à§¦
à¦īà¦ĩà§Ł à¦°
à¦ķ à¦£
à¦¬ à¦ªà¦¨
à¦¸ à¦°à¦ŀ
à¦® à¦ħ
à¦°à¦¤ à¦°à¦«
à¦¨à¦¤ à¦¨
à¦¨ à§ľ
à¦¯ à¦ĵà¦¯
à¦Ł à¦ıà¦ķ
à¦¶ à¦®à¦¨
à¦ļ à¦Ĺà§ľ
à¦ĸ à¦¥
à¦¨à¦¬ à¦Ľà¦°
à¦¨à¦¨ à¦®
à¦°à¦Ĩà¦ĩà¦¨ à¦ľ
à¦· à¦ķà¦ķ
à¦§ à¦¨à¦¸
à¦¥ à¦¥
à¦Ĺ à¦ıà¦¬
à§¨à§¦à§¦ à§«
à¦¨à¦ħ à¦Ł
à¦¤ à¦Ĩà¦¸
à¦¤ à¦Ĩà¦°à¦¬
à§Ł à¦¨à¦¸
à¦ī à¦¹
à¦°à¦¬ à¦Ľà¦°
à¦ľà¦¨ à¦ıà¦¬
à¦¬à¦¸ à¦¹à¦ľ
à§ª à§¦à§¦
à¦¤à¦¨ à¦¯
à¦¨à¦Ĩ à¦¶
à¦ĩà¦Ł à¦ħà¦ªà¦Ł
à¦ĩà¦ľ à¦¡à¦ıà¦¬
à¦ĩà¦Ń à¦Ł
à¦¬ à¦ħà¦¨
à¦¨à¦ķ à¦²à¦ķ
à¦²à§Ł à¦¥
à¦Ĩà¦ĩà¦¨ à¦®à¦¨
à¦ıà¦¡ à¦ľà¦ĵà¦ķ
à¦¯à¦ķà¦® à¦ª
à¦¤ à¦ķà¦¬
à¦¸ à¦¬à¦¸
à¦Ń à¦°à¦¶
à¦®à¦¨ à¦ª
à¦¶à¦ķ à¦¶
à¦¤à¦¹à§Ł à¦¨
à¦°à¦®à¦£ à¦ķ
à¦ķ à¦Ĩà¦¨
à¦¤ à¦¬à¦¨
à¦® à¦ĩà¦®
à¦ª à¦ĸ
à¦¦ à¦Ĺà¦ŀ
à¦¹ à¦ĸ
à¦¡ à¦ķà¦°à¦¤
à¦£ à¦ľ
à¦°à¦ľ à§Ł
à¦¨à¦¬ à¦ķ
à¦ıà¦ĩ à¦¹
à¦ħà¦ª à¦®
à¦ıà¦¸à¦¬ à¦ķà¦¥
à¦°à¦ĸà¦¬ à¦°à¦ª
à¦¯ à¦Ŀ
à¦· à§Łà¦¨
à§ľ à¦ķà¦°
à¦®à¦¨ à¦¯
à§§à§ª à§¨à§®
à¦¹ à¦Ł
à¦¶ à¦ķà¦°à¦²
à¦ĩ à¦Ĩà¦¸
à¦§ à¦ĺ
à¦°à¦¬ à¦£à¦¤
à¦°à¦ı à¦ķà¦¨
à¦°à¦ī à¦ªà¦¦
à§¬ à§¨
à¦°à¦īà¦ª à¦°à¦¹
à¦ķ à¦¨à¦¸
à¦¸ à¦ĩà¦®
à¦Ł à¦¨à¦®
à§İ à¦ªà¦°
à¦¨à¦Ĺ à¦¤
à¦¬ à¦ĵà¦ª
à¦¤ à¦ķà¦²
à¦§ à¦¯
à¦ī à§İà¦ķ
à¦°à¦Ĩ à¦°à¦ķ
à¦°à¦£ à¦Ń
à¦ķà¦¬ à¦Ľ
à¦ķ à¦ĵà¦¬
à¦¤ à¦Ĩà¦°
à¦ª à¦¸à¦®
à§Ł à¦¬à¦¨
à¦Ł à¦¸à¦°
à¦ľ à¦Ĺà¦¤
à¦ļ à¦¥
à¦ļ à¦¨à¦¨
à¦£ à¦Ĩà¦¦
à§ľ à¦ª
à¦¬à¦¨ à¦°
à¦°à¦ħ à¦®
à¦ĩà¦¸ à¦¹
à¦°à¦Ĺ à¦Ń
à¦®à¦¶ à¦¤à¦¬
à¦¤à¦ĸ à¦¨à¦¤
à¦Ĭ à¦°
à¦¸ à¦§à¦°
à¦¯ à¦®à¦¤
à¦¯ à¦Ĩà¦®à¦°
à¦¹ à¦¸à¦°à¦ķ
à¦Ĺ à¦¤à¦¸
à¦¡ à¦ļ
à¦ī à¦·
à¦ī à¦ĩà¦¸
à¦°à¦ª à¦¦à¦¤
à¦°à¦£ à¦¹
à¦¬ à¦Ĩà¦®
à¦² à¦¨à¦ª
à¦¦ à¦°à¦ª
à¦· à¦ķà¦¸
à¦£ à¦Ł
à¦°à¦ļ à¦¤
à¦¨à¦® à¦¤
à¦°à¦¯ à¦¥
à¦¨à¦Ĩ à¦¹à¦®à¦¦
à¦ĸà¦¬ à¦°à¦¨
à¦£à¦¬ à¦Ļ
à¦ķ à¦¹à¦¤
à¦® à¦¹à§Ł
à¦Ĺ à¦Ĩà¦¨
à¦ı à¦°à¦ľ
à¦· à¦ķà¦®
à¦ī à¦¶
à¦®à¦¨ à¦®
à¦īà¦ł à¦¬
à¦§à¦¨à¦ķà¦° à¦²
à¦ķ à¦ĩà¦¤
à¦¬ à¦°à¦¸à¦ķ
à¦¤ à¦°à¦¥
à¦¤ à¦ĵà¦¬
à§Ł à¦ħà¦¸
à¦ĺ à¦®
à¦°à¦ħ à¦²
à¦ıà¦ĩ à¦¡
à¦¸à¦¬ à¦Ĺ
à¦²à¦¤ à¦ª
à¦ĩà¦Ł à¦Ĺ
à¦¨à¦¹ à¦ĵà§Ł
à¦¬ à¦ıà¦ķà¦Ł
à¦Ł à¦ıà¦ķà¦Ł
à¦ķà¦° à¦¦
à¦§ à¦¨à¦¬
à¦¥ à¦¨à¦ķà¦°
à¦ħ à¦ļ
à¦°à¦® à¦ªà¦°
à¦°à¦ı à¦¦
à¦°à¦« à¦¯
à¦¦à¦² à¦Ł
à¦°à¦ĵà¦ªà¦° à¦¨
à§ĩà§Ĺ à¦ģ
à¦¦ à¦°à¦®
à¦ĩ à¦§
à¦Ĩ à¦°à¦°
à¦£ à¦¯
à¦®à¦¨ à¦¤
à¦ł à¦²
à¦Ĩà¦® à¦°à¦ĩà¦¬à¦¨
à¦¨à¦¸ à¦¡
à¦¶à¦¨ à¦®
à¦·à§Ł à¦Ĺ
à¦¬ à¦ĺ
à¦¤ à¦°à¦ľ
à¦¤ à¦®à¦¤
à¦ľ à¦ıà¦¬
à¦ĩ à¦¸à¦®à§Ł
à¦Ĩ à¦°à¦ľ
à¦ĵ à¦ķà¦®
à¦¬à¦¨ à¦¸
à¦°à¦Ĩ à¦Łà¦ķ
à¦¹à§Ł à¦¤à¦¬
à¦°à¦ĩ à¦ķ
à¦¤à¦® à¦¶
à¦ıà¦ĸ à¦¨à¦ª
à¦¤à¦¹ à¦ĵà¦¯
à¦ķ à¦ħà¦§
à¦¬ à¦°à¦Ĺ
à¦¯ à¦¤à¦¬
à¦ļ à¦¨à¦ķ
à¦¹à§Ł à¦¦
à¦ıà¦ĩ à¦¶
à¦¬ à¦°à¦ľ
à¦² à§Łà¦¬
à¦Ł à¦¬à¦°
à¦ĸ à¦¶
à¦ĵ à¦ĩà¦¨
à¦¨à¦¸ à¦¤
à§¯ à§Ń
à¦¦à¦ķ à¦ĵà¦¬
à§¨à§¦à§¦ à§©
à¦¯ à¦Ľà¦¬
à§Ł à¦¬à¦¸
à¦¶ à¦ķà¦°à¦¬
à¦ľà¦¨ à¦ķà¦°à¦¤
à¦°à¦¹ à¦¨
à¦¹à§Ł à¦¶
à¦¨à¦¸ à¦Ļ
à¦¨à¦ĵ à¦¤
à¦ķ à¦ĺ
à¦¸ à¦¬à¦²
à¦ª à§Łà¦¸
à¦¦ à¦°à¦¸
à¦· à¦Ľ
à¦ĵ à¦Ĩà¦Ľ
à¦ıà¦ķ à¦ľ
à¦°à¦¨ à¦ľ
à¦ĩà¦¨ à¦°
à§¯ à§«
à¦¨à¦ı à¦°à¦ª
à¦ıà¦® à¦ıà¦®
à¦ıà¦« à¦¸
à¦· à¦²
à¦°à¦Ĩ à¦¹à¦¬
à¦°à¦Ĩ à¦ľà¦ķ
à¦°à¦ĩ à¦ī
à¦§à¦¨ à¦Ľ
à¦ıà¦°à¦ĩ à¦®à¦§
à¦Ĺ à¦¤à¦°
à¦¬à¦¨ à¦®
à¦°à¦ħ à¦ľ
à¦ıà¦ĩ à¦«
à¦°à¦ĩ à§Ł
à¦²à¦¹ à¦ĵà§Ł
à¦²à¦¹ à¦ķà¦®
à¦ħà¦ª à¦¹à¦°à¦£
à§¯à§®à§¨à§ª à§¦à§¬
à¦¬ à¦¬à¦²
à¦¸ à¦ĺ
à¦°à¦Ĩ à§ľ
à¦ªà¦¨ à¦¸
à¦°à¦ı à¦Ĺ
à¦¦à¦ķ à¦¹
à¦·à¦£ à¦®
à¦¤à¦¸ à¦²
à¦Ĩà¦°à¦ĵ à¦ħà¦¨
à¦°à¦īà¦ª à¦°à¦¬
à¦¨ à¦²à¦ķ
à¦ķ à¦¤à¦¬
à¦¤ à¦Ĩà¦¬
à¦² à¦Ĩà¦¨
à¦¦ à¦ªà¦¤
à¦¹ à¦¨à¦ª
à¦ŀ à¦°
à¦ĩà¦¨ à¦Ĺ
à¦¤à¦® à¦ľà¦¨
à¦Łà¦¨ à¦ľ
à¦Ĩà¦ĩ à¦ıà¦¸à¦¬
à¦² à¦¨à¦¬
à¦² à¦¬à¦°
à¦¯ à¦ĵà¦¬
à§Ł à¦ķà¦°à¦²
à§Ł à¦ħà¦§
à¦ĩ à¦ħà¦Ń
à¦°à¦£ à¦¶
à¦Ŀ à¦ĸ
à¦ķà¦ª à¦¦
à¦¯à¦¤ à¦¦
à¦ħà¦ª à¦¬
à¦·à¦ĸà¦¬ à¦°à¦¬
à¦¨ à¦°à¦ķ
à¦ª à¦°à¦ķ
à§Ł à¦¹à§Ł
à¦Ĩ à¦¹à¦¸
à¦°à¦® à¦ķ
à¦¨à¦¬ à¦¬
à¦¨à¦ª à¦¶
à§¬ à§©
à¦°à¦¯ à¦¨
à¦ıà¦® à¦¡
à¦¤ à¦¶à¦°
à¦¶ à¦Ĩà¦®
à¦ħ à¦£
à¦°à¦¶ à¦¤
à¦ıà¦ĩ à¦ĺà¦Łà¦¨
à¦°à¦ĵ à¦Ń
à¦°à¦ī à§İà¦ª
à¦°à¦¸à¦® à§Łà¦®
à¦ĩà¦¬ à¦Ľ
à¦°à¦ĸ à¦°à¦ļ
à¦¸ à¦¨à¦¬
à¦® à¦®à¦¨
à¦¯ à¦īà¦¦
à§Ł à¦ı
à§ľ à¦¨
à¦°à¦£ à¦¯
à¦¨à¦ı à¦°à¦Ĩà¦Ĺ
à¦ª à¦°à¦¤
à¦· à¦ķà¦¬
à¦ĵ à¦®à¦¹
à¦°à¦¸ à¦ŀ
à¦ĩà¦® à¦¹
à¦®à¦Ĩ à¦°à¦Ľ
à¦ļà¦® à§İà¦ķ
à¦¯ à¦ıà¦Ł
à¦¶ à¦ļà¦¨
à¦Ĺ à¦ķà¦°à¦²
à¦§ à¦¨à¦ķ
à¦¶à¦¨ à¦°
à¦ķà¦¬ à¦°à¦¸
à¦ıà¦¸ à¦¡
à¦Ł à¦¹à¦²
à¦ľà¦¨ à¦Ľ
à¦°à¦ľ à¦¨à¦¸
à¦²à¦ķ à¦¦
à¦·à¦£ à¦¸
à¦¨à¦ĵ à¦¨
à¦Ĩà¦ĩ à¦ıà¦¸
à¦Ŀà§ľ à¦ľ
à¦ķ à¦Ĩà¦ªà¦¨
à¦Ĩ à¦°à¦²
à¦ĸ à¦¨à¦ķ
à¦« à¦²à¦¨
à§¬ à§¯à§¯
à¦ĸà¦¬ à¦°à¦¸
à¦²à¦¨à¦ķ à¦°à¦Ľ
à¦ķ à¦Ĩà¦ª
à¦® à¦¦à¦ķ
à¦² à¦¢
à¦°à¦® à¦¸à¦ľ
à¦¤ à¦¸à¦¨
à¦¸ à¦¦à¦¨
à¦¦ à¦Ĩà¦¬
à¦¯ à¦īà§İà¦ª
à§Ł à¦ľà¦¨
à¦Ł à¦°à¦¬
à¦Ł à¦¦à¦²
à¦· à¦·
à¦ĸ à¦ľ
à¦¸à¦® à§Łà¦¬
à¦¨à¦¤ à¦¦
à¦ĩà¦¨ à¦Ł
à¦ıà¦ĩ à¦§à¦°à¦¨
à§¯ à§¨à§¦à§¨à§§
à¦°à¦®à¦£ à¦ķà¦°
à¦ķ à¦ĩà¦¬à¦¨
à¦¸ à¦¹à¦¤
à¦¸ à¦¨à¦¦
à¦² à¦¤à¦ķ
à¦¹ à¦¤à¦¬
à¦¡ à¦ı
à¦ıà¦ķ à¦²
à¦¸à¦¬ à¦¸à¦®à¦¯
à¦ªà¦¦ à¦¬
à¦ª à¦ķà¦²
à¦· à¦ķà¦¥
à¦Ń à¦²
à¦ī à¦ĩà¦®
à§Ń à§¯à§¬
à¦ĩà¦Ł à¦Ł
à¦² à¦¨à¦¸
à¦ª à¦ıà¦¬
à¦¦ à¦°à¦¦
à§Ł à¦¶à¦°
à¦ĵ à¦ĩà¦¦
à¦¦à¦ķ à¦ª
à¦ĩà¦Ł à¦®
à¦¯à¦ª à¦¦
à§¦à§¦ à§¦
à¦Ĺ à¦ħà¦¨
à¦Ļ à¦²
à¦ķà¦¨ à¦Ń
à¦Ĩà¦¹à¦¤ à¦¹à§Ł
à¦° à¦°à¦«
à¦¨ à¦¹à¦ļ
à¦¨ à¦Ĳ
à¦ķ à¦Ĩà¦¬
à¦ķ à¦ħà¦¸
à¦¨à¦¤ à¦°
à¦¤à¦¬ à¦Ľà¦°
à¦ıà¦¸ à¦ľ
à¦²à¦¤ à¦¶
à¦ªà¦¦ à¦ª
à¦¨à¦ĵ à¦¦
à¦°à¦īà¦ª à¦¯
à¦ķ à¦ĵà¦ª
à¦¬ à¦°à¦£à¦ķà¦°
à¦¤ à¦Ĩà¦ķ
à¦² à¦Ĩà¦Ľ
à¦§ à¦¹à¦¯
à¦°à¦ķ à¦·
à¦ªà¦¨ à¦¦
à¦°à¦ħ à¦¬à¦¦
à¦°à¦² à§ľ
à¦¨à¦ı à¦¶
à¦¤ à¦°à¦Ĩ
à¦¯ à¦¸à¦¬
à¦¹ à¦ĩà¦¤
à¦ĩ à¦¯à¦¦
à¦¡ à¦ªà¦°
à¦¨à¦¤ à¦®
à¦°à¦ħ à¦ŀ
à¦ķà¦® à¦ª
à§® à§ª
à¦īà¦ľ à¦°
à¦ľ à¦ĵà§Ł
à¦Ĺ à¦®à¦°
à¦· à¦ıà¦¬
à¦ĵ à¦Ĩà¦¬
à¦£ à¦ıà¦¶
à¦£ à¦ľà§Łà¦¨
à¦¸à¦® à¦¤
à¦²à¦ķ à¦¹
à¦®à¦¤ à¦Ĩà¦ªà¦¡
à¦ķ à¦ķà¦²
à¦¸ à¦ĩà§Ł
à§Ł à¦¨à¦ķ
à¦· à¦ĸ
à¦« à¦ķà¦°
à¦°à¦ª à¦°à¦ıà¦ķ
à¦ľà¦¨ à¦Ń
à¦²à¦¨ à¦¶
à¦¨à¦Ĩ à¦ľà¦ķ
à¦¨à¦ļ à¦°
à¦ıà¦ķà¦ľà¦¨ à¦¸
à¦Ĩà¦¶ à¦Ļ
à§¨à§¯ à§¦à§Ń
à¦Īà¦¦ à¦Ĺ
à¦¨ à¦ĩà¦¸
à¦² à¦¸à¦¨
à¦¹ à¦¥
à¦¦à¦¨ à¦ĵà¦¬
à¦¨à¦ľ à¦°à¦¦
à¦¤à¦¸ à¦°à¦ķ
à¦¨à¦ļ à¦Ł
à¦¬à¦¤à¦¨ à¦ķà¦°
à¦ĩà¦ľà¦¨ à¦ķà¦¨
à¦® à¦ħà¦¬à¦¸
à¦ĩ à¦ĵà¦¯
à¦ĩ à¦ħà¦ªà¦°
à¦ļ à¦ľ
à¦ī à¦¯
à¦« à¦¬
à¦ľà¦¨ à¦¯
à¦ĺ à¦¸
à¦°à¦¸à¦® à§Łà¦ª
à¦ªà¦ķ à¦Ń
à¦ıà¦ķà¦ľà¦¨ à¦¨
à§®à§®à§¦ à§¨à§®à§ªà§©
à§®à§®à§¦à§§à§Ń à§¨à§¯à§¦à§Ń
à§®à§®à§¦à§§à§Ńà§¨à§¯à§¦à§Ń à§¬à§¯à§¯
à¦° à¦°à¦¹à¦¸
à¦¨ à¦Ŀ
à¦¬ à¦īà¦¦
à¦¤ à¦ı
à¦¹ à¦ħà¦¨
à¦¶ à§Łà¦¤
à¦ķà¦° à¦¸
à¦§ à¦°à¦²
à¦°à¦® à¦¯
à¦°à¦¦ à¦ĸà¦²
à¦¨à¦¬ à¦¦
à¦¯à¦¬ à¦¦
à¦¦à¦ķ à¦¨
à¦®à¦¦ à¦ª
à¦Ĩà¦ľ à¦¥
à§¨à§¦à§¨à§¦ à§¨à§¦à§¨à§§
à¦ķ à¦°à¦ĵà¦ª
à¦Ł à¦¬à¦¨
à¦°à¦ķ à¦¯
à¦°à¦¤ à¦¬à¦°
à¦ł à¦Ńà¦¬à¦¨
à¦°à¦Ĩ à¦¦à¦°
à¦°à¦ı à¦°à¦¸à¦¦à¦¸
à§® à§Ń
à¦Ŀ à¦²
à¦¯à¦® à¦ķ
à§©à§© à§®à§¦
à¦¬à¦ľà¦¨ à¦ķà¦¨
à¦¨ à¦¨à¦¸à¦¡
à¦¤ à¦¤à¦¬
à¦¤ à¦²à¦®
à¦¯ à¦°à¦ķ
à¦Ł à¦ķà¦ª
à¦ĸ à¦Ń
à¦ĵ à¦¢
à¦ĩà¦² à¦ĩà¦ľà¦¨à¦ķà¦¨
à¦¦à¦ķ à¦ķà¦¤
à¦¤à¦¸ à¦Ń
à¦°à¦īà¦ª à¦°à¦ķ
à¦°à¦īà¦ª à¦°à¦Ń
à§¨à§¦à§¦ à§ª
à¦Ĺà¦® à¦ĸ
à¦ĵà¦ľà¦¨ à¦ķà¦¨
à¦ķ à¦ķà¦°à¦¤
à¦Ł à¦ħà¦Ń
à¦ĩ à¦¹à¦¤
à¦ľà¦¨ à¦ľ
à¦¬à¦¨ à¦¦
à¦¨à¦Ĩ à§Ł
à¦Ĩà¦ľ à¦®
à¦¬à¦¹ à¦¨à¦ķà¦°
à¦²à¦Ĩà¦² à¦®
à¦¨ à¦§à¦¨
à¦¤ à¦¬à¦¸
à¦¤ à¦ľà¦®
à¦Ĩ à¦ªà¦²
à¦°à¦¸ à¦°à¦¬à¦°
à¦ł à¦ķà¦¦
à¦¹à§Ł à¦ľ
à¦¹à¦² à¦¸
à§¯ à§§
à¦Ĺà¦£ à¦ª
à¦Ī à¦¸
à¦ļà§Ł à¦ªà¦¤
à¦¤ à¦¸à¦®à§Ł
à¦® à¦ĵà¦®
à¦® à§Łà¦¸à¦Ń
à¦ª à¦ķà¦¬
à§Ł à¦ıà¦Ł
à¦¹ à¦Ĩà¦®
à¦Ĺ à¦¢
à¦ķà¦° à¦¨
à¦ħ à¦¹
à¦ħ à¦·
à¦°à¦¸ à¦¬à¦ķ
à¦°à¦ĵ à¦ľ
à§® à§©
à¦¦à¦ķ à¦¸à¦®
à§¨à§¦à§¨à§§ à§¦
à¦Ĺà¦£ à¦¹à¦¤
à¦Ńà¦¬ à¦ķà¦°
à§ĩ à¦Ĥ
à¦¬ à¦ĩà¦¸
à¦¤ à¦īà¦ª
à¦¸ à¦Ĩà¦®
à¦® à§İà¦¸
à¦¦ à¦ªà¦°
à¦Ĩ à¦°à¦¹
à¦· à¦¦à¦¸
à¦ĵ à¦¬à¦°
à¦°à¦ª à¦°à¦¯
à¦®à¦¨ à¦ľ
à¦ł à¦Ń
à¦ļà¦² à¦¬à¦¨
à¦Ńà¦ķ à¦®à¦¨
à¦ķ à¦°à¦¹
à¦ķ à¦īà¦ª
à¦¶ à¦¢
à¦¥ à¦¹à¦²
à¦¡ à¦ĵà§Ł
à¦°à¦ķ à¦¦
à¦°à¦¹ à¦²à¦¦
à¦Ĺà¦¤à¦¬ à¦Ľà¦°
à¦¦à¦« à¦¤à¦°
à¦¬ à¦ķà¦¬
à¦¬ à¦¦à¦¨
à¦¬ à¦ķà¦¦
à¦¯ à¦Ĩà¦Ľ
à¦¶ à¦ıà¦ķ
à¦ī à¦¶à¦¨à¦¶
à¦²à¦ª à¦®
à¦¯à¦¸ à¦ķà¦²
à¦¨à¦ıà¦ĩ à¦ª
à¦¨ à¦ĩà¦²
à¦ķ à¦ı
à¦¤ à¦ıà¦²
à¦¹ à¦ķà¦°à¦¤
à¦Ĺ à¦°à¦ª
à¦Ľ à¦®
à§§ à§§à§ª
à§§ à§§à§©
à¦ĩà¦² à¦Ĺ
à¦¨à¦Ĩ à¦ĩà¦¨
à¦ķà¦¤ à¦Ĩà¦²
à¦ķ à¦¤à¦ķ
à¦¸ à¦ĩà¦¬à¦¨
à§Ł à¦ıà¦²
à¦ļ à¦®à¦ķ
à¦¸à¦® à§Łà¦¸
à¦®à¦¨ à¦Ń
à¦¤à¦° à¦¯
à§¯ à§ª
à¦°à¦ĩ à¦°
à¦ķà¦¸ à¦¨
à¦²à¦¤ à¦¥
à¦¨à¦ıà¦ĩ à¦¸
à¦ķ à¦¶à¦ķ
à¦² à¦ŀ
à¦· à¦ķà¦¤
à¦ıà¦ķ à¦ĩà¦¸
à¦¬à¦² à¦ķ
à¦ªà¦ķ à¦¥
à¦°à¦ĵà¦ª à¦°à¦¹
à¦ķ à¦ĵà§Ł
à¦¸ à¦ļà¦²
à¦¸ à¦Ĩà¦Ĺ
à¦² à¦°à¦¹
à¦¹ à¦Ĩà¦²à¦®
à¦ľ à¦Ĩà¦¦
à¦°à¦Ĩ à¦ª
à¦¬à¦¸ à¦²
à¦ıà¦ĩ à¦¸à¦®à¦¸
à¦¸à¦¬ à¦§à¦°à¦¨
à¦·à¦£ à¦ļ
à¦°à¦¥à¦® à¦Ł
à¦¨à§Ł à¦ķà¦°
à¦Łà¦¬à¦² à¦ķ
à¦¨ à¦īà§İà¦ª
à¦¤ à¦ıà¦°à¦¸
à¦® à¦Ĩà¦¦
à¦ª à¦°à¦¸
à¦ľ à¦Ĩà¦²
à¦ı à¦¨à¦Ĩ
à¦°à¦ķ à¦ł
à¦¸à¦® à§Łà¦¨
à¦°à¦¹ à¦®à¦¤
à¦ıà¦®à¦¨ à¦ª
à¦¤à¦Ĩà¦°à¦¬ à¦Ĩà¦®
à¦¬ à¦ĩà¦®
à¦£ à¦ıà¦¬
à§§ à§§à§«
à¦°à¦£ à¦°
à¦¨à¦ª à¦ŀ
à¦Ĩà¦² à¦®à¦Ĺ
à¦¨à¦® à¦°
à§İà¦ª à¦°à¦¤
à¦° à¦°à¦Ļ
à¦® à§Łà¦²
à¦² à§Łà¦¸
à¦ĩ à¦ıà¦ĸà¦¨
à¦§ à¦¬à¦ª
à¦ĵ à¦ıà¦Ł
à§ľ à¦ķà¦¦
à¦°à¦¨ à§Ł
à¦¹à¦¤ à¦¨
à¦²à¦® à¦¹
à¦¨à¦Ĩ à¦«à¦Ĺ
à¦²à¦¸ à¦°à¦ķ
à¦¨à§Łà¦¨ à¦ķà¦°
à¦ıà¦¸à¦¬ à¦¬
à§§à§¯à§¯ à§¬
à¦¨ à§Łà¦ķ
à¦¬ à¦°à¦Ĺà¦ŀ
à¦¤ à¦°à¦Ľ
à¦² à¦¨à¦¨
à¦ĺ à¦¡
à§Ń à§ª
à¦ķ à¦ķà¦°à¦²
à§Ł à¦ķà¦¬
à¦Ĺ à¦ķà¦°à¦¬
à¦ĩ à¦Ļ
à¦®à¦¨ à¦ķà¦°
à¦®à¦¨ à¦ĸ
à¦ľà¦¨ à¦¸à¦®
à¦¨à¦¬ à¦Ľ
à¦°à¦ĩ à¦¨à¦ļ
à¦¨à¦ĸ à¦¬à¦°
à¦¨à¦ªà¦° à¦°
à¦¨ à¦ħà¦¬à¦¶
à¦¬ à¦ĵà§Ł
à¦¯ à¦ķà¦¬
à¦¹ à¦°à¦¸
à¦ķà¦® à¦ªà¦ķ
à¦ķà¦¤ à¦¦
à¦¨à¦ı à¦ª
à¦¤à¦°à¦£ à¦ķ
à¦² à¦ľà¦¬
à¦ª à¦°à¦®à¦¤
à¦Ĺ à¦ĵ
à¦· à¦¸à¦°
à¦ī à¦ıà¦ĩà¦ļ
à¦°à¦ª à¦°à¦ĩ
à¦¸à¦® à§Łà¦¤
à¦¹à§Ł à¦ªà¦°
à¦ŀ à¦¦
à¦¨à¦ľ à¦¬
à¦¸ à¦°à¦¹
à¦² à¦ĩà¦¨
à¦² à§Łà¦ķ
à¦² à¦ħà¦°
à¦¯ à¦ĩà¦¬
à¦Ł à¦Ĩà¦ķ
à¦Ł à¦ħà¦ªà¦°
à¦Ĩ à¦°à¦ļ
à¦Ĩ à¦°à¦Ń
à¦ı à¦°à¦«à¦²
à¦Ľ à¦§à¦°
à¦ļ à¦¨à¦¸
à¦°à¦ķ à¦¤
à¦°à¦¤ à¦Ń
à¦ł à¦®
à¦°à¦Ĩ à¦Ļ
à¦Ĩà¦² à¦ľ
à¦¶à¦ķ à¦¯
à¦ķ à¦§à¦°
à¦² à¦Ĩà¦ķ
à¦Ĺ à¦¨à¦¸
à¦ĩà¦² à¦ľ
à¦¤à¦ķ à¦¥
à¦²à¦¤ à¦²
à¦¨à¦Ĺ à¦£
à¦°à¦®à¦£ à¦¬
à¦°à¦¸à¦ķ à¦²à¦ķ
à¦° à§Łà¦¨
à¦ķ à¦²à¦¨
à¦¬ à¦ķà¦²
à§Ł à¦Ĺà¦¤
à¦Ĺ à¦īà¦ł
à¦ĵ à¦ħà¦¸
à¦¬à¦² à¦¦
à¦¬à¦¸ à¦īà¦¦à¦¯
à¦°à¦ı à¦¤
à¦§à¦¤ à¦¦à¦¨
à¦°à¦¬à¦¹ à¦°à¦®à¦ª
à¦ķ à¦Ĩà¦°
à¦¸ à¦¬à¦°
à¦Ł à¦¨à¦ª
à¦¶ à¦¬à¦¨
à¦¶ à¦¤à¦ķ
à¦· à¦¹à¦ĵà§Ł
à¦§ à¦ķà¦¤
à¦®à¦¨ à¦¨
à¦°à¦Ĩ à¦¸à¦²
à¦ĩà¦¸ à¦¤
à¦¹à¦¤ à¦¥
à§İ à¦«
à¦¬ à¦ĩà¦¬à¦¨
à§Ł à¦°à¦ķ
à§Ł à¦°à¦Ĩà¦¬
à¦ĩ à¦¦à¦²
à¦ı à¦®à¦®
à¦ĸ à¦¨à¦¸
à¦°à¦¸ à¦¤à¦°
à¦£ à¦¨à¦Ĺà¦°à¦¬
à¦¨à¦¤ à¦ķà¦°
à¦ĩà¦² à¦ļ
à¦·à¦£ à¦¶
à¦¬à¦Ľ à¦°à¦°
à¦¸ à¦¦à¦°
à¦¦ à¦¤à¦¥
à¦¯ à¦Ĩà¦¨
à¦¯ à¦ħà¦ª
à§Ł à¦§à¦°
à¦Ł à¦°à¦ª
à¦ı à¦¨à¦¬
à¦« à¦°à¦®
à¦°à¦ª à¦¡
à¦ıà¦ķ à¦ªà¦°
à¦ľà¦¨ à¦¡
à§Łà¦¨ à¦¡à¦²
à§® à§¬
à¦Ĩà¦¸ à¦°
à¦ªà¦ķ à¦¡
à¦¯à¦¤ à¦®à¦¸
à¦ĩà¦ľ à¦¬
à¦ªà¦°à¦®à¦¤ à¦¸à¦¹
à¦® à¦ĩà¦¨
à§Ł à¦ħà¦¬à¦¸
à¦Ł à¦®à¦¨
à¦¶ à¦¹à§Ł
à¦§ à¦ļ
à¦ĵ à¦ħà¦°
à¦°à¦¬ à¦¯
à¦ĺà¦Ł à¦Ľ
à¦ķ à¦¸à¦¬
à¦¦ à¦¸à¦°
à¦¯ à¦īà¦¨
à¦Ĺ à¦ļà¦Ł
à¦ļ à§Łà¦¤
à¦ħ à¦¬à¦ķ
à¦£ à¦¤à¦¹à§Ł
à¦°à¦Ľ à§ľ
à§® à§¦à§¦
à¦²à¦¬ à¦°à¦¹à¦®
à§Łà¦¸ à¦¨
à¦¨à¦ĵ à¦°
à¦°à¦ĺ à¦¨
à¦° à§Łà¦¬
à¦ķ à¦¸à¦¬à¦ľ
à¦® à¦ıà¦ķà¦Ł
à¦® à¦°à¦£à¦ķà¦°
à¦¯ à¦¤à¦ķ
à¦¯ à¦§à¦¨
à¦Ł à¦Ĺà¦²
à¦ľ à¦ĵ
à¦Ľ à¦¯
à¦ļ à¦²à¦¨
à¦°à¦ı à¦ĩà¦ķ
à¦¨à¦ª à¦°à¦¬à¦°
à¦°à¦ĵ à¦·
à¦ķà¦Ł à¦ķ
à¦°à¦¸à¦® à§Łà¦¤
à¦ħà¦¤ à¦ıà¦¬
à¦ıà¦®à¦¨ à¦Ń
à¦¨à§Łà¦¨ à¦¶
à¦¯à¦ĸ à¦¨à¦¬
à¦ıà¦« à¦ª
à¦ķ à¦ĩà¦¨
à¦¬ à¦Ĩà¦²à¦¹
à¦¤ à¦ĵà¦®
à¦¸ à¦¨à¦¸
à¦¦ à¦Ĩ
à§Ł à¦®à¦ķ
à¦Ł à¦¨à¦¦
à¦°à¦ª à¦¤à¦¨
à¦ıà¦ķ à¦Ĺ
à¦ľà¦¨ à¦¹
à¦°à¦Ĩ à¦¸à¦¨
à¦ªà¦¨ à¦ķ
à¦°à¦¶ à¦¸
à¦¯à¦ķ à¦¥
à¦ķà¦ª à¦¡
à§İà¦¸ à¦ķà¦°
à¦Ĩà¦ļ à¦°à¦£
à¦Ńà¦ľà¦¨ à¦ķà¦¸
à¦¨ à¦ĩà¦¬
à¦ķ à¦§à¦¨
à§Ł à¦īà¦¦
à¦¹ à¦°à¦ª
à¦Ł à¦®à¦¹
à¦ľ à¦¹à¦¬
à¦°à¦¨ à¦ª
à¦°à¦¹ à¦¨à¦ķà¦°
à¦ĵà¦ı à¦°à¦Ĺ
à¦² à¦ĩà¦¤
à¦¯ à¦®à¦¹
à¦¹ à¦¸à¦®
à¦¹ à¦ıà¦¬
à¦ĩ à¦ħà¦°
à¦ı à¦²à¦¬
à¦· à¦¹à¦¤
à¦ªà¦¨ à¦ª
à¦°à¦¶ à¦¨
à¦¶à¦¨ à¦¥
à¦ĩà¦Ł à¦ª
à§¦à§¯ à§¨à§¦à§¨à§§
à¦® à¦Ĩà¦ªà¦¨
à¦ª à¦ĺ
à¦ľ à¦ħà¦¨
à¦Ĺ à¦¦à¦ķ
à¦ļ à¦ĸ
à¦· à¦ķà¦ª
à¦¡ à¦ıà¦ķ
à¦ľà¦¨ à¦¬à¦²
à¦²à¦ķ à¦¥
à¦¨à¦ª à¦¥
à¦Ĩà¦² à¦¬
à¦°à¦Ĺ à§ľ
à¦¹à¦² à¦¬
à¦ĩà¦² à¦ħ
à¦ĩà¦² à¦¸à¦®
à¦Ĩà¦ľ à¦°
à¦¨à¦ĵ à¦¹
à¦¨ à¦ĩà§Ł
à¦ķ à¦ıà¦ķà¦Ł
à¦¬ à¦ķà¦¨
à¦¸ à¦¹à§Ł
à¦¦ à¦ķà¦°à¦¤
à¦¯ à¦īà¦ª
à¦ľ à¦ķà¦²
à¦ĩ à¦°à§Ł
à¦§ à¦ķà¦°à¦Ľ
à¦£ à¦²
à¦£ à¦ķà¦°à¦¤
à¦°à¦ĵ à¦°
à¦Ĳ à¦¬
à¦°à¦ĵà¦ªà¦° à¦¦
à¦ķ à¦ıà¦®à¦ª
à¦® à¦¸à¦®à¦°
à¦¦ à¦²à¦¬
à§Ł à¦¦à¦°
à¦¹ à¦°à¦¦
à¦¶ à¦ķà¦¸
à¦¶ à¦ķà¦¤
à¦Ĩ à¦¹à¦¬
à¦Ĩ à¦¶à¦ª
à¦ı à¦°à¦Ń
à¦ı à¦°à¦ıà¦ķà¦Ł
à¦· à¦ķà¦°à¦¤
à¦ī à¦Ńà§Ł
à¦¸à¦® à¦¬
à¦®à¦¤ à¦¹à¦ļ
à§¨à§¦à§¨à§§ à§¨à§¨
à¦® à¦ĩà¦¸à¦²
à¦ª à¦Łà¦ª
à§Ł à¦°à§Ł
à¦¶ à¦ħà¦ªà¦°
à¦Ĺ à¦°à§Ł
à¦Ĩ à¦°à¦ıà¦ķà¦Ł
à¦°à¦ķ à¦¬à¦²
à¦°à¦ª à¦°à¦ľ
à¦°à¦£ à¦Ľ
à¦°à¦ī à¦°
à§® à§¨
à¦Ĺà¦£ à¦¸
à¦¸à¦¦ à¦°à¦īà¦ªà¦ľ
à¦¤à¦°à¦£ à¦¸
à¦°à¦°à¦¸ à¦ĸ
à¦¤ à¦ĺà¦Łà¦¨
à¦¸ à¦ķà¦°à¦¬
à¦¯ à¦¨à¦¤
à¦ľ à¦ªà§ľ
à¦Ľ à¦Ĺ
à¦¬à¦² à¦ª
à¦®à¦¤ à¦¹à¦¬
à¦°à¦¥ à¦®à¦°
à¦²à¦¤ à¦¸
à¦¨à¦ı à¦ľà¦¨
à¦¨à¦ĵ à¦¶
à¦°à¦īà¦ªà¦° à¦¦
à¦¤à¦°à¦ĵ à¦¦à¦ķ
à¦ķ à¦¸à¦®à¦¯
à¦ķ à¦ľà¦¨à¦ķ
à¦ª à¦Ļ
à§Ł à¦¨à¦¨
à§Ł à¦Ĩà¦ªà¦¨
à¦£ à¦ĵà¦ª
à¦°à¦¨ à¦ķ
à¦ĺ à¦ķ
à¦ªà¦¨ à¦°
à¦ķà¦Ł à¦²
à¦ĩà¦¬ à¦Ľà¦°
à¦¨à¦ı à¦®
à§Łà¦¬ à¦Ļ
à§Łà¦¤ à¦²
à¦¦à¦² à¦Ĺ
à§¨à§« à§¦
à¦Ĩà¦Ł à¦ķà¦¸
à¦¬ à¦ĵ
à¦² à¦ħà¦Ń
à¦¦ à¦Ĩà¦ªà¦¨
à¦¯ à¦Ĩà¦°
à¦ļ à¦Ń
à¦ļ à§Łà¦¦
à¦§ à¦¨à¦®
à¦°à¦ĵ à¦¶
à¦¨à¦¦ à¦°
à¦Ĩà¦ľ à¦¸à¦ķ
à¦īà¦ľ à¦¸
à¦ĺà¦Ł à¦¤
à¦Łà¦¬à¦² à¦Ł
à¦¨ à¦ħà¦ķ
à¦² à§Łà¦¨
à¦¦ à¦¨à¦¨
à¦¹ à¦ªà¦°
à¦¨à¦ª à¦²
à§® à§§
à¦¤à¦® à¦ķ
à¦ļà¦¨ à¦ªà¦°
à¦¨à¦ľ à¦®
à¦¤à¦ª à¦ķ
à¦¤à¦ª à¦¦
à¦¨ à¦īà¦ļ
à¦² à¦¹à¦¯
à¦¯ à¦Ļ
à¦Ł à¦¨à¦ķ
à¦Ł à¦ıà¦²
à¦Ĩ à¦°à¦Ĩ
à¦ĵ à¦¨à¦¤
à¦°à¦¦ à¦ª
à¦°à¦¨ à¦ķà¦°
à¦®à¦¤ à¦¨
à¦ķà¦¨ à¦«
à¦¨à¦Ĺ à¦²
à¦ĸà¦¬ à¦°à¦Ł
à§§à§¨ à§©
à¦ķ à¦ĩà¦īà¦¨
à¦ķ à¦¸à¦®à¦¸
à¦¤ à¦¸à¦®à¦¸
à¦® à¦ıà¦ķ
à¦¯ à¦ļà¦Ł
à¦¹ à¦¬à¦¨
à§Ģ à¦ĥ
à¦ķà¦° à¦ķ
à¦§ à¦¨à¦¨
à¦¥ à¦ł
à¦ĵ à¦ķà¦²
à¦°à¦¦ à¦¶à¦ķ
à¦°à¦ĵ à¦ħà¦¨
à§Łà¦¨ à¦Ĩà¦ĵà§Ł
à§Łà¦¦ à¦®
à¦¸à¦² à¦ķà¦°
à¦Ĺà¦ł à¦¨à¦¸
à¦°à¦ĸà¦¬ à¦°à¦¬
à§¦à§¬ à§¨à§¦à§§à§¯
à¦¬ à¦ĩà¦ª
à¦¤ à¦¢
à¦¦ à¦īà¦¦
à¦Ĺ à¦Ĩà¦Ľ
à¦ĩ à¦¹à¦ļ
à¦§ à¦ªà¦°
à¦¸à¦ķ à¦°à¦Ľ
à¦ħà¦ª à¦¹
à¦¤ à¦®à¦¸à¦ľ
à¦¸ à¦ĵà¦¯
à¦¯ à¦°à¦¬
à¦¯ à¦ıà¦ĩ
à§Ł à¦ıà¦ķà¦¦
à¦¥ à¦ļ
à¦ĵ à¦¸à¦¨
à¦°à¦ķ à¦®à¦¬
à¦°à¦ª à¦¬
à¦°à¦¨ à¦¸
à¦¨à¦¤ à¦ª
à¦ªà¦¨ à¦ľ
à¦¤à¦¨ à¦Ń
à¦®à¦¦ à¦¹
à¦¨à¦Ĺ à¦¦
à¦ķà¦ķ à¦¥
à¦°à¦¥à¦® à¦¶
à¦ıà¦ķà¦ľà¦¨ à¦ª
à¦¹à¦¯à¦°à¦¤ à¦®
à¦°à¦ıà¦¸ à¦ıà¦¸à¦¸
à¦¤ à¦Ĩà¦°à¦ĵ
à¦¦ à¦°à¦¬à¦¨
à¦¯ à§Łà¦ķà¦°
à§Ł à¦īà¦¨
à¦¹ à¦ĩà¦²
à¦Ł à¦¹à¦¯
à¦Ł à¦ķà¦°à¦¬
à¦Ĺ à¦¹à§Ł
à¦ĩ à¦ıà¦ĸ
à¦« à¦¦
à¦°à¦¨ à¦ĵà¦Ĺ
à§İ à¦¤
à¦²à¦¬ à¦£
à¦¨à¦¦ à¦ķ
à¦¤à¦¨ à¦ĩà¦¤
à¦°à¦ĩ à¦ľ
à§Łà¦ķ à¦¥
à¦¨à¦ľ à¦Ł
à¦¨à¦ĵ à¦Ń
à§§à§© à§§
à¦Ĺà¦® à§Łà¦®à¦¨à¦¸
à¦Ĩà¦ĩ à¦¨à¦¸
à¦¯à¦ĸ à¦¨à¦¸
à¦°à¦Ĩà¦ĩà¦¨ à¦Ĩà¦¦
à¦¸ à¦ĩà¦¨
à¦¹ à¦ĩà¦¬
à¦Ł à¦°à¦ķ
à¦ı à¦¤à¦¬
à¦¥ à¦¸à¦®
à¦« à¦ľà¦°
à¦ıà¦ķ à¦ļ
à¦°à¦¹ à§Łà¦¨
à¦¬à¦¨ à¦Ĺ
à¦ıà¦¬ à¦Ľ
à¦ªà¦¨ à¦®
à¦°à¦ĵ à¦¶à¦¨
à¦²à¦¨ à¦ķà¦°à¦¬
à¦ķà¦¸ à¦°à¦ķ
à¦²à¦¸ à¦ķ
à§§à§® à§§à§¯
à¦ıà¦¸à¦¬ à¦ķ
à¦¤ à¦Ĩà¦ªà¦¨
à¦® à¦ĵà¦ľ
à¦ª à¦ķà¦ķ
à¦¯ à¦ĩà¦¨
à¦Ł à¦¨à¦¬
à¦Ĺ à¦¤à¦ª
à¦ĵ à¦§
à¦¡ à¦¸à¦®
à¦°à¦¸ à¦¹à¦ľ
à¦¤à¦¬ à¦ķ
à¦¸à¦¹ à¦ļ
à¦¤à¦ĸ à¦¨à¦¸
à¦Ĺà¦¤à¦¬ à¦Ľ
à¦°à¦īà§İ à¦ªà¦¤
à¦¬ à¦°à¦ĸ
à¦® à§Łà¦¦
à¦¯ à¦ĵà¦¸à¦®
à¦Ĩ à¦°à¦«
à¦ļ à¦Ĺà¦¡
à¦Ń à¦Ĺ
à¦ĸ à¦¨à¦¬
à¦°à¦ľ à¦Ĺà¦¤
à¦²à¦¨ à¦¡
à¦ĩà¦ľ à¦¤
à¦¬à¦ĩ à¦ªà¦¤
à¦¬ à¦¹à¦¤
à¦² à¦Ĩà¦ªà¦¨
à¦ª à¦¸à¦®à§Ł
à¦¯ à§Łà¦¬
à¦§ à¦¨à¦¶
à¦ĵ à¦īà¦¨
à¦°à¦® à¦¸à¦®
à¦£ à¦ĸ
à§Ń à§¦à§¦
à¦¤à¦¨ à¦¹à¦¯
à¦¨à¦Ĺ à¦¬
à¦¨à¦ı à¦Ń
à¦·à§Ł à¦Ń
à¦°à¦¡ à¦²
à¦ıà¦ĸ à¦¨à¦¨
à¦¶à¦® à¦ļ
à¦¦à¦¶ à¦¶
à¦¨ à¦ıà¦ķà¦¦
à¦ĩ à¦Ĩ
à¦Ń à¦°à¦¯
à¦ĵ à¦ĩà¦¸
à¦°à¦ª à¦°à¦Ĺ
à§§ à§§à§¯
à¦°à¦¤ à¦¸
à¦¬à¦² à¦¹
à¦°à¦£ à¦ĸ
à¦¨à¦Ĺ à¦¤à¦ķ
à¦ĩà¦ª à¦ķ
à¦¬à¦Ľ à¦°à¦ķ
à¦īà¦² à¦ķà¦°
à¦¯à¦ĸ à¦¨à¦ķ
à¦®à¦Ĩ à¦°à¦¨
à¦¨ à¦ħà¦«
à¦® à¦ĵà¦¬
à¦¯ à¦ĺ
à§Ł à¦°à¦®
à¦Ĺ à¦ķà¦®
à¦§ à¦¨à¦ª
à¦ĸ à¦ļ
à¦ĸ à¦¨à¦ª
à¦ĵ à¦¸à¦°
à¦°à¦ķ à¦¸
à§¨ à§§à§Ń
à¦®à¦¨ à¦ļ
à¦¨à¦¸ à¦¦à¦¸
à¦°à¦ĵ à¦Ĺ
à¦¹à¦¤ à¦¸
à§İ à¦¶
à¦¦à¦ķ à¦¶
à¦°à¦ĩ à¦ŀ
à¦¹à¦¨ à¦Ľà¦¬
à¦®à¦Ĩ à¦¹à¦®
à¦ıà¦¡ à¦Ń
à¦¹à¦°à¦£ à¦¸
à¦ķ à¦Ĩà¦¯
à¦¤ à¦ľà¦¨
à¦¸ à¦°à¦¬
à¦® à¦°à¦¦
à§Ł à¦īà¦ª
à¦£ à¦Ĺà¦ŀ
à¦¬à¦¨ à¦¶
à¦¬à¦¨ à¦¥
à¦¹à§Ł à¦ħà¦¨
à¦¨à¦¤ à¦¤
à¦°à¦ı à¦ľ
à¦¤à¦ķ à¦ª
à¦®à¦¦ à¦ľ
à¦¨à¦ı à¦®à¦¨à¦ķ
à¦¬à¦ķ à¦Ĺ
à¦®à¦Ĺ à§ľ
à¦²à¦ķà¦ªà¦²à¦ķà¦ª à¦²à¦ķà¦ªà¦²à¦ķà¦ª
à¦® à§İà¦ķ
à¦® à¦ĵà¦²
à¦¯ à¦¬à¦¨
à¦¶ à§Ł
à¦ł à¦¨
à¦°à¦¥ à¦®à¦¨
à¦ĩà¦² à¦¶
à¦ıà¦¸ à¦Ń
à¦°à¦¸à¦® à§Łà¦¦
à¦¨à¦¶ à¦¹
à¦ªà¦¦ à¦ľ
à¦īà¦ľ à¦ķ
à¦ĩà¦ī à¦ıà¦¸à¦¬
à¦īà§İ à¦¸à¦°
à¦¬ à¦°à¦«
à¦¬ à¦°à¦ĵà§Ł
à¦® à¦Ĩà¦°
à¦ľ à¦ķà¦°à¦²
à¦¶ à¦²à¦¬
à¦ĩ à¦ħà¦¸
à¦ļ à¦ıà¦ª
à¦°à¦® à¦Ļ
à¦¬à¦¸ à¦¹
à¦ıà¦ĩ à¦¸à¦®
à¦°à¦ļ à¦²à¦ļ
à¦¨à¦® à¦¸à¦ľ
à¦¹à¦² à¦¤
à§¬ à§¦à§¦
à¦Ŀ à¦¬
à¦Łà¦¨ à¦¡
à¦²à¦¤ à¦Ĩà¦Ľ
à¦ķà¦¤ à¦¤
à¦¨à¦ı à¦¸à¦®à§Ł
à¦¬ à¦ĩà¦Ĺ
à¦² à¦Ĩà¦¸
à¦² à¦§à¦°
à¦¯ à¦ħà¦Ń
à§Ł à¦¨à¦®
à§Ł à¦¤à¦¨
à¦¶ à¦¨à¦¤
à¦ĩ à¦ł
à¦Ń à¦¬à¦ķ
à¦ĵ à¦ĩà¦ª
à¦ī à¦ĩà¦¯
à¦ıà¦ķ à¦§à¦°à¦¨
à¦·à¦£ à¦¡
à¦ķà¦¸ à¦¹à¦¯
à¦ĩà¦Ł à¦¥
à¦Ĺà¦£ à¦ķ
à¦§à¦¨ à¦ħà¦¨
à¦ıà¦¨ à¦¡
à§§à§© à§¦
à¦ħà¦¸à¦® à¦¤
à¦¬à¦ĵà¦ª à¦¶
à¦¤ à¦¸à¦¬
à¦® à¦ķà¦¬
à¦ª à¦¬à¦²
à¦¦ à¦īà¦¤
à¦¶ à¦¶à¦¤
à¦ĩ à¦¶à¦°
à¦ĩ à¦¶à¦¤
à¦ı à¦°à¦ħà¦¨
à¦ĵ à¦ĺ
à¦°à¦® à¦¦
à¦°à¦¤ à¦¶
à¦²à¦ķ à¦¶
à¦ıà¦ĩ à¦¸à¦¬
à¦ķà¦² à¦¬
à¦¶à¦ķ à¦°à¦Ľ
à¦ķ à¦¹à¦ĵà§Ł
à¦¬ à¦ĩà¦ķ
à¦¤ à¦ĩà¦¤
à¦¤ à¦ıà¦Ł
à¦® à¦¬à¦¨
à¦² à¦īà¦²
à¦ª à¦Ĩà¦®
à¦ľ à¦°à¦ľ
à¦· à¦¡
à§§ à§¨à§ª
à¦ł à¦ķà¦°à¦¤
à¦°à¦ı à¦®
à§İ à¦¸à¦¬
à§İ à¦īà§İà¦ª
à¦°à¦ī à¦®
à¦Ĩà¦ľ à¦¶
à¦¨à§Łà¦¨ à¦¦
à¦°à¦Ī à¦¶
à¦ķ à¦ĺà¦Łà¦¨
à¦¤ à¦¤à¦¦
à¦¸ à¦¶à¦¸
à¦® à¦¹à¦¬
à¦® à§Łà¦¨
à¦¦ à¦ªà§ľ
à§Ł à¦°à¦¬
à¦¹ à¦¨à¦ħ
à¦· à¦ħà¦¨
à§§ à§¨à§¦à§¨à§§
à¦¬à¦¨ à¦ª
à¦°à¦Ĩ à¦¬à¦¦
à¦¨à¦¬ à¦¹
à¦°à¦īà¦ª à¦°à¦ª
à¦ľà¦¨à¦Ĺà¦£ à¦ķ
à¦¨ à§Łà¦¤
à¦¯ à¦ĩà¦¸
à¦ī à¦§
à¦°à¦Ĩ à¦°à¦¬
à¦°à¦ı à¦ķà¦ķ
à¦¨à¦® à¦®à¦¤
à¦Łà¦ķ à¦°à¦Ľ
à¦ħà¦¬ à¦§
à¦¶à¦¤ à¦Ń
à¦¨à§Ł à¦¨à¦ķ
à¦Ĺà¦ľ à¦ªà¦¤
à¦ķ à¦Ĩà¦¦
à¦² à¦¸à¦°
à¦ª à¦¶à¦¨
à§Ł à¦ļà¦²
à¦Ł à¦¢
à¦ľ à¦ĵà¦¸
à¦¶ à¦§
à¦¡ à¦ķà¦²
à¦ī à¦ĩà¦²
à¦£ à¦¥
à§ľ à¦¸
à§ľ à¦¹
à¦¸à¦® à§Łà¦ª
à¦ĩà¦¸ à¦¦
à¦°à¦ī à¦ł
à¦®à¦¤ à¦¸
à¦®à¦¸ à¦²
à¦ĩà¦² à¦ł
à¦¸à¦ķà¦² à¦ª
à¦¤ à¦°à¦Ĺ
à¦® à¦ļà¦¨
à¦ı à¦²à¦¸
à¦ļ à¦ªà¦°
à¦ıà¦ĩ à¦ĸ
à¦¸à¦¬ à¦¹
à¦°à¦ĩ à¦¦
à¦¯à¦¨ à¦¯
à¦ħà¦ªà¦° à¦¦
à¦¤ à¦°à¦Ł
à¦¯ à¦¸à¦°
à¦¯ à¦Ĩà¦Ĺ
à¦¯ à¦īà¦¤
à¦Ł à¦¸à¦¹
à¦Ł à¦īà¦¤
à¦ĩ à¦ĩà¦¤
à¦ĩ à¦Ĩà¦°
à¦¥ à¦Ł
à¦°à¦ķ à¦²à¦ķ
à§§ à§§à§¬
à¦°à¦¨ à¦Ĺà¦°
à¦¼à¦¾ à¦Ĥ
à¦Ĩà¦¸ à¦¸
à¦ıà¦®à¦¨ à¦¬
à¦°à¦¥à¦® à¦ªà¦°
à¦¨à¦« à¦¯
à¦¯à¦Ŀ à¦Ł
à¦¨à¦ĸà¦¬à¦° à¦ķà¦°
à¦ķ à¦°à¦¹à¦®
à¦¬ à¦°à¦Ń
à¦¤ à¦īà¦²
à¦¯ à¦ĩà¦¸à¦®
à¦¹ à¦ĩà¦¯
à¦Ĩ à¦ĸà¦¤
à¦ļ à¦¨à¦¦
à¦ĵ à¦īà¦¤
à§§ à§§à§®
à¦°à¦¶ à¦Ļ
à¦ĩà¦¨ à¦¥
à¦¦à¦¨ à¦Ĺ
à¦°à¦®à¦£ à¦¨
à¦°à¦®à¦£ à¦ª
à¦ĺà¦Ł à¦²
à§³ à§³
à¦¬à¦Ľà¦°à¦¬ à¦¯
à¦¨ à¦ıà¦ķà¦¬
à¦® à¦°à¦ķ
à¦² à¦ıà¦Ł
à¦¯ à¦ĩà¦ª
à¦¯ à¦¥à¦¬
à§Ł à¦Ĩà¦ĵà§Ł
à¦Ł à¦ĺ
à¦· à¦¦à¦°
à¦§ à¦ķà¦°à¦¬
à¦ī à¦²à¦¹
à¦°à¦® à¦ŀ
à¦°à¦¹ à¦¦
à¦ĩà¦² à¦°
à¦°à¦ĸ à¦¨
à¦®à¦¦ à¦°
à¦¤ à¦°à¦¹
à¦¤ à¦¸à¦¹
à¦¤ à¦Ĩà¦¨
à¦¦ à¦«à¦¤
à¦¥ à¦ľ
à¦« à¦¨à¦ķà¦°
à¦°à¦¨ à¦¯
à¦°à¦ľ à¦¯
à¦ĺ à¦¬
à¦ĩà¦¨ à¦²
à¦ıà¦ĩ à¦ĵà¦¯
à¦ķà¦® à¦°
à¦Ĩà¦ľ à¦¦
à¦¨à¦ĵ à¦ľ
à¦·à§Ł à¦ħà¦¨
à¦Ī à¦¨
à¦°à¦¥à¦® à¦ľ
à¦¤à¦°à¦¤ à¦ħà¦¬à¦¸
à¦ķ à¦ľà¦¨à¦ª
à¦¤ à¦²à¦ķ
à¦ª à¦°à¦¶
à¦¦ à¦°à¦Ń
à¦Ł à¦¸à¦¬
à¦ľ à¦¬à¦¨
à¦Ĩ à¦«à¦¤
à¦ĺ à¦°à¦¬
à¦¶à¦¨ à¦ħ
à¦ķà¦® à¦¦
à§® à§§à§®
à¦ıà¦¸ à¦ĩ
à¦ķà¦¸ à¦Ļ
à¦¬à¦ķ à¦¶
à¦īà¦² à¦Ĩà¦²
à¦ıà¦® à¦ı
à¦¨à§Ł à¦¨à¦¸
à¦ĩà¦Ĩà¦Ĺ à¦·
à¦ķ à¦ıà¦²
à¦® à¦ł
à¦® à¦īà¦²
à¦² à¦¨à¦®
à¦² à¦Ŀ
à¦ª à¦°à¦®
à¦¯ à¦¹à¦¯
à¦¯ à¦°à¦ķà¦®
à¦Ł à¦Ĩà¦®
à¦ĩ à¦Ĩà¦¨
à¦ĵ à¦°à¦¬
à¦ĵ à¦¹à§Ł
à¦°à¦Ĺ à¦¡
à§Łà¦¨ à¦¶
à§Ń à§¯
à¦ıà¦ĸà¦¨ à¦Ĩà¦®
à§¦à§§ à§§à§®
à¦¤ à¦¤à¦ķ
à¦² à¦ķà¦°à¦²
à¦¯ à¦ı
à§Ł à¦°à¦ľ
à§Ł à¦ĩà¦¨
à¦Ł à§Łà¦²
à¦¶ à¦¸à¦®à§Ł
à¦ļ à¦°à¦ķ
à¦· à¦¹à¦¬
à¦ıà¦ķ à¦¸à¦®à§Ł
à¦ªà¦¨ à¦ķà¦°à¦¤
à¦¨à¦ª à§ľ
à¦¤à¦¨ à¦ķà¦°à¦¤
à¦¨à¦Ĩ à¦°à¦¤
à¦²à¦¸ à¦¤
à¦ħà¦« à¦ĩà¦¨
à¦°à¦¹à¦£ à¦ķà¦°à¦²
à¦¦à¦ĸà¦² à¦ķà¦°
à¦ĵà¦ķà¦¨ à¦Ł
à¦¨ à¦ĩà¦°
à¦ķ à¦ĩà¦¸à¦²
à¦² à¦°à¦ķ
à¦² à¦ĩà¦īà¦¨
à§Ł à¦Ĩà¦¹à¦¤
à¦¶ à¦Ĩà¦ĵà§Ł
à¦Ń à¦¸à¦®
à¦ĵ à¦°à¦ķ
à¦ĵ à¦°à§Ł
à¦ĵ à¦īà¦ªà¦ľ
à¦« à¦°à¦¹
à¦°à¦ı à¦ĩà¦®
à¦¨à¦® à¦Ļ
à¦·à¦£ à¦ªà¦°
à¦¤à¦® à¦ľ
à¦¨à¦Ĺ à¦ŀ
à¦ħà¦ª à¦ª
à¦¯à¦¤à¦® à¦ª
à¦¨à¦īà¦ª à¦¦
à¦īà§İà¦ķ à¦£
à¦¨ à¦ľà¦¨à¦ª
à¦ķ à¦Ĩà¦ĩà¦¨
à¦¸ à¦ĩà¦īà¦¨
à¦¦ à¦°à¦īà¦ªà¦ľ
à§Ł à¦ĩà¦īà¦¨
à¦ĵ à¦Ĩà¦¨
à¦ī à¦¨à¦¬
à¦°à¦¬ à¦¤
à¦°à¦¨ à¦¸à¦®
à¦²à¦ķ à¦ķà¦°
à¦ıà¦ĩ à¦ħà¦¨
à¦¨à¦® à¦§
à¦ķà¦¸ à¦°
à¦Łà¦¨ à¦°
à¦®à¦ķ à¦ķ
à¦¬à¦Ľ à¦°à¦ªà¦°
à¦¯à¦ª à¦£
à¦ĸà¦¬ à¦°à¦ľ
à¦ıà¦« à¦¬
à¦·à¦ĸà¦¬ à¦°à¦¸
à¦¨ à¦ľà¦¨à¦ķ
à¦ķ à¦¹à¦¯
à¦¤ à¦Ĺà¦¤
à§Ł à¦°à¦ª
à¦Ł à¦Ĩ
à¦Ĺ à¦īà¦¤
à¦ĵ à¦°à¦¸
à¦°à¦¸ à§ľà¦ķ
à¦ī à¦¶à¦¨
à¦°à¦¬ à¦§
à¦ıà¦ķ à¦ĩà¦Ń
à¦°à¦Ĩ à¦ªà¦¤
à¦¬à¦° à¦¯
à¦¹à¦² à¦¨
à¦°à¦« à¦²à¦ª
à¦®à¦¦ à¦Ĩà¦²
à¦ĵà¦ľà¦¨ à¦ķà¦®
à¦¤ à¦°à¦¸à¦®
à¦¤ à¦ľà¦°
à¦® à¦īà¦¨
à¦® à¦ĺà¦Ł
à§Ł à¦Ĩà¦ľ
à¦ĸ à¦ķà¦¦
à§§ à§§à§Ń
à§ľ à¦°
à¦ıà¦ķ à¦¸à¦ª
à¦°à¦Ĩ à¦Ń
à¦²à¦ķ à¦¬à¦²
à¦ıà¦ĩ à¦ķà¦¥
à§¯ à§©
à¦°à¦§ à¦¨
à¦°à¦ĩ à¦¯
à¦¨à¦Ĺ à¦°à¦ª
à¦ĵà¦¸ à¦°à¦ķ
à¦°à¦Ĩà¦Ĺ à¦®à¦¨
à¦¨à¦ħ à¦²
à¦¬à§ľ à¦¬
à¦°à¦· à§ľà¦¯à¦¨
à¦° à¦²à¦¨
à¦¯ à¦ħà¦¤
à§Ł à¦Ĩà¦¦
à§Ł à¦ľà¦°
à¦ľ à¦¤à¦¨
à¦ĩ à¦ıà¦Ĺ
à¦ĸ à¦«
à¦ĵ à¦§à¦°
à¦°à¦® à¦¤à¦ķ
à¦°à¦ª à¦°à¦Ĩà¦®
à¦£ à¦¹à§Ł
à§ľ à¦Ń
à¦°à¦¤ à¦¸à¦°à¦ķ
à¦®à¦¨ à¦Ĩà¦Ľ
à¦¹à§Ł à¦Ĺ
à¦¬à¦¸ à¦Ł
à¦¨à¦ª à¦£
à¦ıà¦ĩ à¦ħ
à¦·à¦£ à¦ķà¦°à¦¤
à¦²à¦ª à¦¦
à¦ħà¦¬ à¦¤
à¦¤à¦¸ à¦¦à¦¸
à¦ĩà¦Ń à¦¸
à§İà¦¸ à¦ķà¦¨
à¦·à¦ķ à¦¶
à¦ĩà¦¡ à¦²
à¦Ĺà¦¤à¦¬ à¦ķ
à¦¨ à¦°à¦ķà¦®
à¦¬ à¦¦à¦°
à¦² à¦ł
à§Ł à¦°à¦¸
à¦°à¦ħ à¦ªà¦¬
à¦²à¦¬ à¦ª
à¦®à¦¸ à¦°
à¦ıà¦¸ à¦ı
à¦°à¦² à¦ľ
à¦²à¦® à¦Ļ
à¦°à¦« à¦ľ
à¦ĩà¦Ł à¦ķà¦°
à¦ķà¦ª à¦¥
à§¦à§§à§§à§® à§ªà§«
à¦¨ à¦Ĩà¦¬à¦¦
à¦¤ à¦ħà¦§
à¦¸ à¦ĩà¦¸à¦²
à¦¦ à¦°à¦ķà¦¥
à¦¦ à¦¬à¦Ľà¦°à¦°
à¦¯ à¦Łà¦ķ
à§Ł à¦¹à¦²
à¦¹ à¦ĩà§Ł
à¦Ĺ à¦¸à¦°à¦ķ
à¦ĩ à¦¹à§Łà¦¤
à¦Ń à¦¶
à¦§ à¦ķà¦°à¦²
à¦ĵ à¦Ĩà¦°
à¦°à¦¤ à¦ļ
à¦ł à¦¥
à¦ıà¦ĩ à¦ħà¦Ń
à¦°à¦Ń à¦ķ
à¦¤à¦¸ à¦ļ
à¦ıà¦°à¦ª à¦°à¦¤
à¦ıà¦¸à¦® à§Łà¦¤
à¦¤ à¦Ĩà¦®à¦°
à¦² à¦ıà¦¨
à¦¹ à¦¨à¦¤
à¦ľ à¦ķà¦¥
à¦ı à¦ļ
à¦§ à¦¹à¦²
à¦°à¦£ à¦ıà¦¬
à¦¨à¦¸ à¦ķà¦²
à¦°à¦ĵ à¦²
à¦°à¦ī à¦ĩà¦ķ
à¦²à¦¬ à¦Ļ
à¦®à¦¤ à¦®
à¦°à¦§ à¦°à¦¨
à¦°à¦ĩ à¦īà¦Ł
à¦®à¦¦ à¦¤
à¦¤à¦¸ à¦ķà¦²
à¦ıà¦°à¦ª à¦ķ
à¦²à¦Ĩ à¦¹à¦¸
à¦¥à¦² à¦¬à¦¨
à¦¤ à¦°à¦«
à¦¦ à¦ħà¦Ń
à§Ł à¦ħà¦¤
à§Ł à¦ıà¦ĩà¦¸
à¦¹ à¦²à¦ķ
à¦ľ à¦ħ
à¦ĩ à¦Ľà¦¬
à¦ķà¦° à¦°
à¦· à¦®à¦¨
à¦§ à¦§à¦°
à¦°à¦Ĩ à¦¬à¦¹
à¦ĩà¦² à¦¹
à¦°à¦ĩ à¦Ń
à¦¨à¦Ĩ à¦Łà¦ķ
à¦¨à¦Ĩ à¦ľà¦¸
à¦°à¦īà¦ª à¦ªà¦°
à¦¸à¦Ń à¦¬à¦¨
à¦Ńà¦¬ à¦¹à¦¬
à¦¯à¦ĸ à¦¨à¦ª
à¦¤à¦ĸ à¦¨à¦ķ
à¦¤ à¦ĵà§Ł
à¦² à¦ĩà§Ł
à¦¦ à¦²à¦¨
à¦¯ à¦®à¦¸
à¦¶ à¦¦à¦²
à¦ĩ à¦ĩ
à¦ĩ à¦¢
à¦°à¦ķ à¦ĸà¦¨
à¦°à¦£ à§Łà¦¨
à¦°à¦ļ à¦²à¦®
à¦¨à¦¨ à¦Ń
à¦¹à¦¤ à¦ķ
à§® à§¨à§¦à§¨à§§
à§§à§¨ à§«
à¦¨à¦ıà¦ĩ à¦®
à¦¨à¦ıà¦ĩ à¦¸à¦®à§Ł
à¦¬à§ľ à¦ª
à¦ĵà¦¸à¦® à¦®
à¦Ķà¦· à¦§
à¦®à¦ĩ à¦°à¦¹
à¦¸ à¦¸à¦°
à¦ª à¦ķà¦¸
à¦ª à¦®à¦§
à§Ł à¦¹à¦¤
à§Ł à¦ıà¦ķà¦ľà¦¨
à¦¹ à¦°à¦¬
à¦Ĺ à¦²à¦¸
à¦§ à¦¨à¦°
à¦« à¦²à¦¬
à§¨ à§¨à§¦
à¦¸à¦® à§Łà¦¦
à¦ıà¦ķ à¦®à¦¹
à§ª à§¨à§¦à§¨à§§
à¦ıà¦¸ à¦Ł
à¦ĵà¦¸ à¦¦à¦¸
à¦·à¦ķ à¦¸à¦®
à¦Ĳ à¦¶
à¦®à¦Ĩ à¦°à¦¦
à¦¯à¦Ł à¦ķà¦¦
à¦¤ à¦¶à¦¬
à¦¤ à¦ħà¦¤
à¦® à¦ħà¦°
à¦² à¦ªà¦¤
à¦¯ à¦ħà¦¸
à§Ł à¦ķà¦²
à¦ľ à¦Ĩà¦®
à¦Ĩ à¦°à¦Ĺ
à¦¥ à¦ªà¦¤
à¦¡ à¦ĸ
à¦°à¦¸ à¦«à¦°
à¦¨à¦¬ à¦ª
à¦ªà¦¨ à¦īà¦ªà¦²à¦ķ
à¦¨à¦¸ à¦¹à¦ķ
à¦®à¦¸ à¦¨
à¦°à¦« à¦Ł
à¦¨à¦Ĩ à¦°à¦¸
à¦¨à¦¶ à¦¬
à¦Ĩà¦°à¦ĵ à¦ķ
à¦°à¦īà¦ª à¦¸à¦°
à§¨à§¦à§§à§¬ à§¨à§¦à§§à§Ń
à¦¸à§ľà¦ķ à¦ħà¦¬à¦°
à¦¨à¦Ĩà¦°à¦ĵ à¦ªà§ľ
à¦¬ à¦®à¦¹
à¦¤ à¦°à¦Ń
à¦¯ à¦¸à¦¨
à§Ł à¦īà¦ªà¦ľ
à§Ł à¦ıà¦¤
à¦¶ à¦ĺ
à¦ĩ à¦Ĩà¦¶
à¦ļ à¦¨à¦ª
à¦Ń à¦°à¦¤
à¦ĸ à¦ªà¦°
à¦ĵ à¦ĩà¦®
à¦°à¦ı à¦ĩà¦¨
à¦ĩà¦¨ à¦¹
à¦ķà¦Ł à¦¥
à¦¦à¦¨ à¦Ł
à¦¨à¦Ĩ à¦«
à¦ĩà¦Ł à¦Ń
à§§à§¦ à§§à§§
à¦Ńà¦¬ à¦¹à§Łà¦¨
à¦¨à¦Ĩà¦ľ à¦ľà¦¨
à¦ķà¦ħ à¦ħ
à¦®à¦Ĩà¦² à¦®à¦Ĺ
à¦ķ à¦Ĺà¦²
à¦® à¦ķà¦²
à¦¦ à¦°à¦ķà¦°
à¦¦ à¦°à¦¥
à§ģ à§ģ
à§Ł à¦®à¦¸à¦ľ
à¦ĩ à¦ıà¦²
à¦· à¦¹à¦¯
à¦ĵ à¦°à¦ª
à¦ĵ à¦Ĩà¦®à¦°
à¦²à¦ķ à¦Ĺ
à§¨à§¦ à§¨à§ª
à¦ıà¦ĩ à¦Ľà¦¬
à¦ĩà¦¸ à¦°à¦ķ
à¦°à¦ī à¦ľ
à¦¤à¦¨ à¦¥
à¦¦à¦ķ à¦Ĩà¦¬
à¦¤à¦® à¦¦
à¦ĩà¦Ł à¦¹
à¦¨à¦ı à¦Ĺ
à¦¨à¦¶ à¦¹à¦°
à¦Ĩà¦°à¦ĵ à¦¸
à¦¶à¦¤ à¦¬à¦°
à¦°à¦¸à¦¬ à¦ľ
à§§à§¯à§¯ à§®
à¦·à§Łà¦ķ à¦¸à¦®
à¦¬ à¦Ĩà¦Ľ
à¦¦ à¦īà¦ªà¦¸
à¦¦ à¦°à¦Ĺà¦ŀ
à¦°à¦ Ķ
à§Ł à¦¨à¦ª
à¦¹ à¦¨à¦¨
à¦¶ à¦Ĩà¦¨
à¦Ľ à¦ļ
à¦ļ à¦²à¦ķ
à¦Ń à§Łà¦ª
à¦¡ à¦ĵà¦¯
à¦°à¦ª à¦¦à¦ķ
à¦£ à¦Ľ
à¦°à¦¦ à¦²à¦¨
à¦¶à¦¨ à¦ıà¦¬
à¦īà¦ª à¦ķà¦°à¦£
à¦®à¦¤ à¦²à¦¬
à¦ĩà¦Ł à¦ķ
à¦Ĩà¦°à¦ĵ à¦Ń
à¦ĩà¦¬à¦¨ à¦¸
à¦¯à¦¥ à¦Ń
à¦ķ à¦¨à¦ķ
à¦ķ à¦Ĩà¦¹à¦®
à¦¤ à¦°à¦Ļ
à¦ª à¦ļà¦°
à¦¯ à¦°à§Ł
à¦Ĩ à¦Ń
à¦ĵ à¦īà¦¦
à¦°à¦ķ à¦Ł
à¦£ à¦ĺ
à¦°à¦¹ à§Łà¦¤
à¦ĺ à¦²
à§¨à§¦ à§¨à§«
à¦°à¦ľà¦¨ à¦¨
à¦ıà¦¸ à¦ĩà¦¸
à¦²à¦¤ à¦ĸ
à§Łà¦ķ à¦ķà¦®
à¦²à§Ł à¦Ĺ
à§Łà¦ľ à§ľ
à¦īà¦¬ à¦ļ
à¦Ĺà¦¤à¦ķ à§Ł
à¦¨ à¦°à¦®
à¦ķ à¦ķà¦¬
à¦ķ à¦Ŀ
à¦¤ à¦Ľà¦¬
à¦¸ à§Ł
à¦¸ à¦°à¦¤
à¦® à¦ĵà§Ł
à¦² à¦²à¦ķ
à¦² à¦ıà¦¸
à¦² à¦ĩà¦®
à¦² à§Łà¦ª
à¦¦ à¦°à¦¤
à¦¯ à¦ħà¦ªà¦°
à¦¯ à¦ĵà¦ªà¦°
à¦¹ à¦Ĩ
à¦Ł à¦¸à¦ķ
à¦¥ à¦¹à¦¯
à¦ĵ à¦°à¦®
à¦ĵ à¦ķà¦°à¦¤
à¦« à§Łà¦¸
à¦°à¦ķ à¦ļ
à¦£ à¦¤à¦ķà¦°
à¦ıà¦ķ à¦¦à¦®
à¦°à¦Ĩ à¦®à¦¨
à¦°à¦ı à¦Ń
à¦¸à¦¬ à¦ĸ
à¦¨à¦¨ à¦¯
à¦¹à¦² à¦ª
à¦²à¦¨ à¦¦
à¦ıà¦ĸà¦¨ à¦¯
à¦¨à¦ħ à¦®
à§©à§© à§©
à¦¨ à¦ĺà¦Ł
à¦¬ à¦ħ
à¦¬ à¦ıà¦¶
à¦¤ à§İà¦ª
à¦® à§Łà¦ķ
à¦ª à¦®à¦¨
à¦ª à¦ĵà¦¸
à¦ı à¦ıà¦®
à¦ķà¦° à¦®
à¦ĸ à¦Ĺ
à¦¡ à¦Ľ
à¦°à¦¤ à¦ħà¦¬à¦¸
à¦°à¦Ĩ à¦ĩà¦ª
à¦ĺ à¦ª
à¦°à¦£ à¦Ĩà¦®
à§¨à§¦ à§¨à§¦à§¨à§§
à¦¨à¦ķ à§Ł
à¦¦à¦¨ à¦«
à¦°à¦īà¦ª à¦°à¦¸
à¦ıà¦ķà¦ľà¦¨ à¦¶
à¦®à¦Ĩ à¦°à¦ĸ
à¦¸à¦ķà¦² à¦¬
à¦¬à¦ľà¦¨ à¦¦
à¦¬ à¦ĩà¦¤
à¦² à¦ıà¦²
à¦¯ à¦ĩà¦®
à§Ł à¦¶à¦¨
à¦¹ à¦¸à¦ª
à¦Ĩ à¦Ĩà¦Ľ
à¦· à¦Ĩà¦®
à¦¥ à¦ħà¦¨
à¦®à¦¨ à¦²
à¦°à¦ħ à¦¬à¦°
à¦°à¦ħ à¦¨à¦¨
à¦ĩà¦¸ à¦ķ
à¦īà¦¨ à¦¶
à¦²à¦¬ à¦¦
à¦®à¦¦ à¦¶
à¦ķà¦¨ à¦Ł
à¦¨à¦ı à¦°à¦®à¦§
à§Łà¦¬ à¦ķ
à¦¨à¦ĵ à¦ªà¦°
à§§à§¨ à§§à§©
à¦²à¦Ĺ à¦ĩà¦¨
à¦ıà¦ĸà¦¨ à¦¥
à¦°à¦®à¦£ à¦°
à¦ıà¦°à¦ª à¦°à¦¥
à¦¤à¦°à¦£ à¦ķà¦°à¦²
à¦¤à¦ĸ à¦¨à¦¬
à¦ĩà¦®à¦¸ à¦ħà¦«à¦ĩà¦¨
à¦ķ à¦ĸà¦¬
à¦® à¦ķà¦°à¦¤
à¦² à¦ħà¦¬
à¦Ł à¦¸à¦¨
à¦Ĩ à¦¨à¦¬
à¦Ĩ à¦«à¦°
à¦ı à¦¤à¦ķ
à¦· à¦ľà¦¨à¦ª
à¦§ à¦ħà¦¨
à¦¥ à¦¡
à¦ī à¦¦à¦ķ
à¦ıà¦ķ à¦Ń
à¦°à¦ı à¦ķà¦¤
à¦¸à¦¬ à¦ĸà¦¬
à¦¯à¦® à¦°
à¦Ĩà¦ľ à¦¹
à§§à§¦ à§§
à¦¸à¦®à§Ł à¦²
à¦°à¦¹à¦£ à¦ķà¦°à¦¬
à§¨à§¦à§§à§® à§¨à§¦à§§à§¯
à¦² à¦°à¦¬
à¦¦ à¦¹à§Ł
à¦¯ à¦¹à¦ļ
à¦ľ à¦¹à§Ł
à¦¶ à¦ĵà¦¬
à¦ı à¦°à¦¸à¦®
à¦Ń à¦¬à¦¸
à¦¥ à¦ªà¦°
à¦ĸ à¦¨à¦¨
à¦ī à¦¸à¦¸
à¦¸à¦® à¦Ŀ
à¦ıà¦ķ à¦®à¦¤
à¦¶à¦¨ à¦«
à§Łà¦¨ à¦¦
à¦¦à¦¨ à¦°
à¦ĵà¦¯ à¦¦
à¦Ĩà¦ľ à¦¤
à¦ħà¦ª à¦°à¦ķ
à¦Ńà¦¬ à¦ĺ
à¦Īà¦¦ à¦ĩà¦¬à¦¨
à¦ķà¦ĵ à¦īà¦ļ
à¦¬ à¦ħà¦Ń
à¦Ł à¦Ĩà¦²
à¦ľ à¦ĺà¦°
à¦¶ à¦¬à¦²
à¦¶ à¦ħà¦Ń
à¦ĩ à¦Łà¦¨
à¦ĩ à¦īà¦¦
à¦ĩ à¦ħà¦¬à¦¸
à¦ĩ à¦¬à¦²à¦²
à¦ĩ à¦ļà¦²à¦Ľ
à¦Ĩ à¦ĩà¦²
à¦Ľ à¦¶
à¦¥ à¦¨à¦¦
à¦¼ à§Ĥ
à¦« à¦²à¦¤
à¦°à¦ª à¦°à¦¹
à¦ıà¦ķ à¦¬à¦Ľà¦°
à¦ľà¦¨ à¦ªà¦°
à¦°à¦ħ à¦¬à¦¨à¦¤
à¦°à¦ĵ à¦ļ
à¦¹à¦² à¦®
à¦ĩà¦² à¦¦
à¦¦à¦ķ à¦ķà¦°
à¦ļà¦² à¦²
à¦¨à¦ı à¦ĺà¦Łà¦¨
à¦ĩà¦ª à¦¥
à¦¤à¦¹à§Ł à¦¤
à¦ĸà¦² à¦ķà¦°
à¦ľà¦ª à¦¥
à¦¬ à¦ħà¦°
à¦² à¦ħà¦ķ
à¦ª à¦ĵ
à¦¯ à¦ĩà¦ķ
à¦Ĺ à¦¨à¦Ń
à¦ĩ à¦ıà¦¦
à¦Ĩ à¦°à¦¡
à¦Ĩ à¦ĩà¦«
à¦· à¦®à¦¹
à¦°à¦Ĩ à¦Ł
à¦¨à¦¸ à¦¹à¦ľ
à¦°à¦ĵ à¦¹
à¦¹à¦² à¦¦
à¦ĩà¦Ł à¦«
à¦¨à¦ı à¦°
à¦°à¦¹à¦£ à¦¶
à¦Ĺà¦ł à¦¨à¦Ĺ
à¦Ĺà¦ł à¦¨à¦Ł
à¦¯à¦ķà¦° à¦ķà¦°
à¦Łà¦® à¦¶
à§¨à§® à§¨à§¦à§¨à§§
à§§à§¯à§¯ à§¦
à¦² à¦°à¦¸
à¦ľ à¦²à¦ķ
à¦Ĩ à¦Łà¦ķà¦°
à¦§ à¦¹à¦¤
à¦ī à¦¨à¦ķ
à¦ī à¦¯à¦¦
à¦« à¦¨à¦ķ
à¦« à¦¤à¦°
à¦°à¦ª à¦°à¦ħà¦¨
à¦¸à¦® à¦¹
à¦¨à¦¬ à¦¬à¦°
à¦°à¦ı à¦¶
à¦īà¦ª à¦®à¦¹
à¦¨à¦¦ à¦ª
à¦¤à¦¨ à¦¶
à¦°à¦ĩ à¦¨à¦¸
à¦²à¦® à¦¡
à¦¨à¦Ĩ à¦ª
à¦¹à¦° à¦°à¦¸
à¦ħà¦ª à¦¶à¦¨
à¦Ńà¦¬ à¦ķà¦°à¦¤
à¦° à§Łà¦ķ
à¦¨ à¦Ĩà¦¸à¦²
à¦ķ à¦Ļ
à¦¸ à¦°à¦¡
à¦¸ à¦Ĳà¦¤
à¦® à¦°à¦¬
à§Ł à¦ıà¦¦
à¦Ł à¦¹à¦ļ
à¦ĩ à¦ĩà¦¸à¦²
à¦ļ à¦¨à¦¬
à¦ĵ à¦ıà¦ĩ
à¦ĵ à¦Ĩà¦¦
à¦ĵ à¦Ĺà¦¬
à¦« à¦Ĩà¦²
à¦°à¦¬ à¦£
à¦°à¦ª à¦°à¦ļ
à¦°à¦Ĩ à¦ĩà¦¡
à¦°à¦Ĩ à¦¶à¦ª
à¦¨à¦¤ à¦ļ
à¦°à¦ħ à¦¦
à¦°à¦§ à¦°à¦ķà¦°
à¦¦à¦¨ à¦Ń
à§Łà¦¸ à¦¹
à¦ķà¦¤ à¦¹
à¦Ĩà¦ľ à¦ĩà¦ª
à§Łà¦ª à¦¡
à¦ĩà¦ľ à¦®
à¦¸à¦®à§Ł à¦Ĩà¦ªà¦¨
à¦ıà¦ĸ à¦¨à¦®
à¦¬à¦¤ à¦¤
à¦ıà¦® à¦ľ
à§§à§® à§®à§¦
à§§à§ª à§ª
à¦¨à¦ıà¦ĩ à¦ķ
à¦°à¦¸à¦¦ à¦°à¦īà¦ªà¦ľ
à¦¸ à¦¸à¦¹
à¦¶ à¦¬à¦°
à¦ĩ à¦ªà§ľ
à¦Ĩ à¦Ĩ
à¦Ń à¦Ĺà¦¬
à¦§ à¦¶à¦¤
à¦ĵ à¦ıà¦ĸà¦¨
à¦ľà¦¨ à¦ħà¦¨
à¦¬à¦¨ à¦Ń
à¦°à¦ı à¦°
à¦°à¦ĩ à¦¶
à¦²à¦¤ à¦¦
à¦°à¦« à¦¸à¦²
à§Łà¦ķ à¦ķ
à¦°à§Ł à¦Ł
à¦¤à¦ª à¦¡
à¦ªà¦¦ à¦®à¦¨
à¦²à¦¹ à¦ľ
à¦²à¦¹ à¦ķà¦¸
à§İà¦¸ à¦ķà¦¦
à§§à§ª à§¦à§§à§§à§®à§ªà§«
à¦°à¦ĵà¦ª à¦°à¦ª
à¦°à¦¸à¦¹ à¦ª
à¦¿ à¦¾
à¦¨ à¦¨à¦ķ
à¦¨ à§Łà¦¬
à¦¬ à¦®à¦¨
à¦¬ à¦ĩà¦¨
à¦¬ à¦ĩà¦Ń
à¦ª à¦¹à§Ł
à¦¯ à¦ĵà§Ł
à§Ł à¦īà¦¤
à§Ł à¦¶à¦¹
à¦¹ à¦¨à¦¬
à¦ľ à§Łà¦¬
à¦¶ à¦¹à¦²
à¦¶ à¦ĵà¦ª
à¦ĩ à¦ħà¦ķ
à¦ļ à¦°à¦£
à¦· à¦§
à¦§ à¦¨à¦¦
à¦ĵ à¦°à¦«
à¦°à¦ķ à¦ļà¦ķ
à¦°à¦ª à¦¨
à¦°à¦¹ à¦ª
à¦°à¦Ĩ à¦¨à¦®
à¦ªà¦¨ à¦¸à¦®
à§¨à§¦ à§¨à§©
à¦ĩà¦¨ à¦¯
à¦ķà¦¬ à¦°à¦ĸ
à§İ à¦ļ
à¦²à¦¨ à¦Ĺ
à¦¤à¦¨ à¦ļ
à¦ķà¦Ł à¦ª
à¦°à¦² à¦®
à¦°à¦¸à¦® à§Łà¦¨
à§¨à§¦à§¨à§§ à§§à§¦
à§¨à§ª à§ª
à¦Łà¦¸ à¦ķà¦²
à¦ĵà¦ķ à¦ĸà¦¨
à§§à§¬ à§§à§Ń
à¦¨à¦§ à¦°à¦£
à§®à§®à§¦ à§¯à§¬
à¦ķ à¦ĵà¦°
à¦¬ à¦°à¦¢
à¦¤ à¦ħà¦¸
à¦² à¦ħà¦«
à¦ª à¦°à¦¬
à¦Ł à¦°à¦®
à¦Ł à¦Ĩà¦¬
à¦Ł à¦®à¦¸
à¦Ł à¦Ĩà¦ª
à¦ľ à¦ļà¦²à¦Ľ
à¦ĸ à¦¬à¦¨
à¦ľà¦¨ à¦ļ
à¦¬à¦¨ à¦Ĩà¦¨à¦¨
à¦ĩà¦¡ à¦¬
à¦¨à§Ł à¦¶
à¦¬à§ľ à¦¦
à¦Ĩà¦Ł à¦ķà¦¬
à¦ªà¦¦à¦ķ à¦ª
à¦ķ à¦īà¦¤
à¦¬ à¦ī
à¦¸ à¦ĵà¦¸
à¦² à¦¤à¦®
à§Ł à¦ĩà¦īà¦ª
à¦¹ à§İ
à¦¹ à¦ķà¦°à¦²
à¦Ľ à¦¦à¦¸
à¦ĵ à¦ĩà¦ķ
à¦ĵ à¦ĩà¦¤
à¦ħ à¦¬à¦¨
à¦ī à¦¬à¦¸
à¦°à¦ķ à¦¬à¦°
à¦£ à¦ħà¦¨
à¦°à¦¤ à¦¯
à¦ªà¦° à¦¦
à¦°à¦¨ à¦¶à¦¨
à¦°à¦£ à¦ĵà¦ª
à¦²à¦ķ à¦¤
à¦ĩà¦¨ à¦ļ
à¦ıà¦ĩ à¦¤à¦¥
à¦¹à¦¤ à¦¹
à¦°à¦¯ à¦¶
à¦ķà¦¸ à¦ª
à¦²à¦¤ à¦ĸà¦¨
à¦ĩà¦ľ à¦°
à¦ĩà¦Ń à¦ľ
à¦°à¦ıà¦ķ à¦¶
à§¨à§Ń à§¨à§¦à§¨à§§
à¦ĭ à¦£à¦¨
à¦¸ à¦¹à¦²
à¦® à¦ħà¦Ń
à¦² à¦ĵà¦®
à¦¯ à¦ķà¦°à¦²
à§Ł à¦«à¦²
à§Ł à¦ıà¦®à¦¨
à¦¹ à¦°à¦°
à¦ľ à¦ķà¦®
à¦¶ à¦°à¦£
à¦¶ à¦ħà¦°
à¦Ĩ à§Łà¦ķà¦°
à¦ı à¦¸à¦®à¦¯
à¦ļ à¦ķà¦ª
à¦ķà¦° à¦ķà¦®
à¦· à¦¬à¦²
à¦ī à¦«
à§¨ à§§à§¯
à§ľ à¦«
à¦ł à¦ķà¦ķà¦°
à¦°à¦¨ à¦ľà¦°
à¦°à¦Ĩ à¦¡
à¦¹à§Ł à¦Ĩà¦®
à¦°à¦£ à¦Ĺ
à¦¨à¦¤ à¦ĸà¦¨à¦¤
à¦°à¦ī à¦ķ
à¦ķà¦² à¦¸
à¦¤à¦ķ à¦°à¦£à¦ķà¦°
à¦²à¦¤ à¦¤
à¦ªà¦ķ à¦°à¦«
à¦Ĺà¦¤ à¦¤
à¦Ĩà¦°à¦ĵ à¦ıà¦ķà¦Ł
à¦²à¦¹ à¦ķà¦ļ
à¦·à§Ł à¦¬à¦¸
à¦Ĩà¦¶ à¦«
à§©à§¦ à§¨à§¦à§¨à§§
à¦Ĺà¦® à¦ľ
à¦¤ à¦²à¦¬
à¦¸ à¦°à¦¸
à¦¸ à¦°à¦®
à¦® à¦Ĩà¦¸
à¦® à¦Ŀ
à¦® à¦ĵà¦¸
à¦² à¦¶à¦¨
à¦¦ à¦ĵà¦®
à¦Ł à¦²à¦ķ
à¦Ł à¦§à¦°
à¦Ĺ à¦ķà¦°à¦Ľ
à¦ĩ à¦ķà¦°à¦¬
à¦ı à¦°à¦®à¦¤
à¦· à¦ķà¦²
à¦²à¦® à¦ľ
à¦Łà¦¨ à¦ķà¦°
à¦²à§Ł à¦ľ
à¦ıà¦ĩà¦ļ à¦ª
à¦ļà¦ª à¦ł
à¦«à¦°à¦¯ à¦Ľ
à¦¨ à¦ļà¦¨
à¦¸ à¦ªà¦¤
à¦¸ à¦ĩà¦¤
à¦² à¦ĵà¦¸
à¦² à¦Ľà¦¬
à¦¯ à¦¢
à¦¯ à¦īà¦ªà¦¯
à§Ł à¦ĵà§Ł
à§Ł à¦¯à¦¦
à¦Ł à¦¹à¦¤
à¦Ł à¦īà¦ªà¦ľ
à¦ĩ à¦¹à¦¯
à¦¬à¦¨ à¦Ł
à¦°à¦Ĩ à¦¬à¦°
à¦¨à¦ķ à¦¨
à¦Ĩà¦² à¦¤
à¦¶à¦¨ à¦ļ
à¦ĩà¦² à¦Ľà¦¬
à¦¦à¦ķ à¦¤
à¦ıà¦¸ à¦ıà¦¸
à¦ĩà¦® à¦¦
à¦¶à¦ķ à¦ķà¦°
à¦¶à¦¤ à¦ĸ
à§§à§® à§¦
à§§à§ª à§ªà§©
à¦¨à¦ħ à¦¶
à¦Łà¦¬à¦² à¦¬
à§¯à§¯ à§¯
à¦°à¦¸à¦ķà¦² à¦ªà¦°
à¦¤ à¦Ĺà¦²
à¦¸ à¦ĵà¦¬
à¦¸ à¦¶à¦°
à¦® à¦īà¦ª
à¦² à¦«à¦²
à¦² à¦®à¦¸à¦ľ
à§Ł à¦ħà¦¬
à¦Ł à¦Ĩà¦¨
à¦Ł à¦¹à¦ĵà§Ł
à¦ľ à¦ĺ
à¦¶ à¦¤à¦¬
à¦ı à¦®à¦¤
à¦Ľ à¦¦à¦®
à¦· à¦Ĩà¦ªà¦¡
à¦®à¦¨ à¦¶
à¦°à¦¦ à¦°à¦¬
à¦Ļ à¦¨
à¦¹à§Ł à¦¬à¦²
à¦¨à¦¬ à¦¸à¦®
à¦ĺ à§ľ
à¦°à¦ı à¦¡
à¦¤à¦¬ à§Łà¦¸
à¦®à¦¤ à¦Ń
à¦¨à¦Ĩ à¦°à¦¬
à¦¯à¦¦ à¦°à¦ķ
à¦Ĺà¦¤ à¦¸à¦ª
à§§à§¨ à§§à§«
à¦¬à¦¤ à¦²
à¦Ķ à¦ªà¦¨
à§¨à§¦à§§à§®à§¨à§¦à§§à§¯ à§¨à§¦à§¨à§¦à§¨à§¦à§¨à§§
à¦¨ à¦ĸà¦¬
à¦¬ à¦¹à¦¬
à¦¤ à¦ĵà¦¸
à¦® à¦Ĺà¦£
à¦² à¦®à¦¤
à¦² à¦ĵà¦¬
à¦² à§Łà¦®
à¦¯ à¦°à¦ļà¦¨
à¦Ł à¦¸à¦°à¦ķ
à¦Ĺ à¦®à¦®
à¦ĩ à¦īà¦ªà¦ľ
à¦ĩ à¦ħà¦Ĺ
à¦ļ à¦ķà¦¬
à¦ļ à¦ķà¦¦
à¦¡ à¦¢
à¦£ à¦¤à¦¹à¦¬
à§¨ à§¨à§¦à§¨à§§
à§ľ à¦Ĺ
à¦°à¦Ĩ à¦ĩà¦¸
à¦¤à¦¬ à¦¯
à¦°à¦ĵ à¦ľà¦¨
à¦Ĩà¦² à¦«
à¦¹à¦² à¦¯
à¦®à¦¸ à¦¹
à¦ļà¦² à¦¸
à¦ĩà¦® à¦¬
à¦¶à¦ķ à¦ĵà¦¸à¦®
à¦Ĩà¦ľ à¦ª
à¦Ĩà¦« à¦¸
à¦¬à§ľ à¦ķ
à§§à§¯à§¯ à§¨
à¦¨ à¦ĺà¦°
à¦ķ à¦°à¦Ĺ
à¦¤ à¦ĵà¦ľ
à¦¦ à¦¹à¦¤
à§Ł à¦¹à¦¬
à¦ĩ à¦ıà¦®à¦¨
à¦ĩ à¦ĵà¦Ń
à¦Ĩ à¦ĩà¦®
à¦Ĩ à¦°à¦ıà¦ķ
à¦Ń à¦°à¦ª
à¦¥ à¦§
à¦°à¦¸ à¦¸
à§§ à§¨à§¦à§¦
à¦ł à¦ªà¦°
à¦¬à¦¨ à¦ľ
à¦¨à¦ķ à¦ĸà¦¨
à¦ıà¦ĩ à¦Ľ
à¦ļà¦¨ à¦ħà¦¨
à¦ĩà¦¤ à¦¥
à¦¶à¦ķ à¦ª
à¦²à§Ł à¦¶
à¦·à¦¦ à¦ļ
à¦¯à¦ĸ à¦¨à¦¦
à¦¸à¦« à¦Łà¦ĵà§Ł
à¦ĭ à¦£à¦ª
à§§à§¯à§Ń à§¨
à§§à§¯à§Ń à§«
à¦°à¦Ĳ à¦ķ
à§¨à§¦à§§à§¬à§¨à§¦à§§à§Ń à§¨à§¦à§§à§®à§¨à§¦à§§à§¯à§¨à§¦à§¨à§¦à§¨à§¦à§¨à§§
à¦¬ à¦ķà¦¸
à¦® à¦§à¦¨
à¦¦ à¦Ĩà¦¹à¦®à¦¦
à¦¯ à§Łà¦¨
à¦ĩ à¦¤à¦°
à¦ĩ à¦īà¦²
à¦ĩ à¦ĺà¦Łà¦¨
à¦ĩ à¦¬à¦²à¦Ľ
à¦Ĩ à¦ĸà¦²
à¦ļ à¦ľà¦¨
à¦· à¦ħà¦Ń
à¦§ à¦¡
à¦¥ à¦¦à¦£
à¦ĵ à¦ıà¦¸
à¦£ à¦§
à¦°à¦ı à¦Ľ
à§« à§¨à§¦à§¨à§§
à¦®à¦¤ à¦¥
à¦¯à¦ķ à¦°à¦¹à¦¬
à¦¨à¦Ĩ à¦°à¦¨
à¦®à¦¹ à¦¸
à¦®à¦¦ à¦ĸ
à¦Ĩà¦ľ à¦ľ
à§§à§¦ à§¬
à¦¤à¦ª à¦¶
à¦ªà¦¦ à¦¦
à¦ĩà¦¬à¦¨ à¦¹
à¦ıà¦ĸ à¦¨à¦¦
à§§à§ª à§§à§«
à¦°à¦ĵà¦ª à¦°à¦¬
à¦°à¦ĵà¦ª à¦°à¦Ń
à¦°à¦īà§İ à¦¸à¦¬
à¦¯ à¦¯à¦¨
à¦¹ à¦°à¦®
à¦ĩ à¦¸à¦®à¦¯
à¦ı à¦°à¦Ĺ
à¦Ľ à§Łà¦®
à¦ĸ à¦ħà¦¨
à¦°à¦¬ à¦Ĺ
à¦°à¦¬ à¦²à¦¤
à¦ł à¦ķà¦°à¦²
à¦°à¦Ĩ à¦«à¦Ĺ
à¦°à¦£ à¦Ł
à¦°à¦£ à¦¹à§Ł
à¦°à¦ĵ à¦¸à¦®
à¦²à¦¨ à¦ķà¦°à¦²
à¦®à¦¤ à¦¤
à¦ıà¦¸ à¦Ĩà¦ĩà¦¬
à¦¦à¦¨ à¦ħà¦¨
à¦·à¦£ à¦Ĺ
à¦¤à¦ķ à¦¤
à¦¤à¦ķ à¦¦
à¦ķà¦¦ à¦®
à§Łà¦ª à¦ķ
à¦¤à¦°à¦£ à¦ª
à§¨à§§à§® à§¨
à¦ķ à¦¢
à¦¤ à¦Ĩà¦ªà¦¡
à¦® à¦¢
à¦² à¦ĩà¦¸
à¦¦ à¦®à¦¤
à¦Ł à¦Ĩà¦ªà¦¨
à¦Ł à¦°à¦¯
à¦¶ à¦ħà¦§
à¦ĩ à¦Ĩà¦¤
à¦ı à¦ħà¦¬à¦¸
à¦ļ à¦Ĩà¦¦
à¦· à¦«
à¦ĸ à¦ĺ
à¦°à¦¬ à¦²à¦Ľ
à¦°à¦ª à¦°à¦«
à¦°à¦Ĩ à¦ĸ
à¦¬à¦¸ à¦ķ
à¦°à¦ĵ à¦Ł
à¦°à¦Ń à¦Ĺ
à¦°à¦² à¦¡
à¦§à¦¨ à¦ķà¦°à¦¤
à¦·à¦® à¦¹à§Ł
à§¨à§© à§ªà§¬
à§¨à§© à§§à§©à§§
à¦°à¦ľà¦¨à¦ķ à¦¬à¦Ļ
à§®à§®à§¦à§¯à§¬ à§§à§¨à§§
à¦® à¦ªà¦¨
à¦ª à¦§
à¦¦ à¦Ĩà¦¨
à¦¯ à¦Ĩà§Ł
à¦¹ à¦°à¦¤
à¦Ł à¦¨à¦¸
à¦Ł à¦ĩà¦īà¦¨
à¦ľ à¦²à¦®
à¦ľ à¦Ĺà¦¨
à¦Ĩ à¦ĩà¦°
à¦ļ à¦¬à¦Ľà¦°
à¦ĸ à¦¨à¦¦
à¦°à¦® à¦®
à§ľ à¦Ł
à¦°à¦¤ à¦ķà¦°
à¦ıà¦ķ à¦ĩà¦ªà¦°
à¦°à¦ı à¦®à¦¨à¦ķ
à¦¸à¦¬ à¦¥
à§¬ à§®à§®à§¦à§§à§Ńà§¨à§¯à§¦à§Ńà§¬à§¯à§¯
à¦¦à¦¨ à¦¯
à¦·à¦£ à¦Ń
à¦¸à¦¨ à¦ķà¦°
à¦¨à¦ı à¦ľ
à¦¯à¦¸ à¦Ń
à§§à§¨ à§¨à§¯
à¦Ĺà¦ł à¦¨à¦¬
à¦¶à¦ª à¦¥
à¦²à¦ľ à¦²
à¦²à¦Ľ à§ľ
à§¨à§§à§® à§§à§®à§®à§¦
à§¨à§®à§ªà§© à§¨à§§à§®à§¨
à§®à§®à§¦à§¨à§®à§ªà§© à§¨à§©à§ªà§¬
à§®à§®à§¦à§¨à§®à§ªà§© à§¨à§§à§®à§§à§®à§®à§¦
à§®à§®à§¦à§§à§Ńà§¨à§¯à§¦à§Ńà§¬à§¯à§¯ à§¬à§®à§®à§¦à§§à§Ńà§¨à§¯à§¦à§Ńà§¬à§¯à§¯
à§®à§®à§¦à§¯à§¬à§§à§¨à§§ à§¨à§©à§§à§©à§§
à§®à§®à§¦à§¨à§®à§ªà§©à§¨à§§à§®à§§à§®à§®à§¦ à§¨à§®à§ªà§©à§¨à§§à§®à§¨
à§®à§®à§¦à§§à§Ńà§¨à§¯à§¦à§Ńà§¬à§¯à§¯à§¬à§®à§®à§¦à§§à§Ńà§¨à§¯à§¦à§Ńà§¬à§¯à§¯ à§¯
à¦° à¦°à¦¯
à¦ķ à¦ıà¦¸
à¦¬ à¦Ĩà¦¬
à¦¸ à¦ıà¦ķà¦Ł
à¦® à¦¸à¦¬
à¦² à¦¬à¦¸
à¦² à¦ĵà¦ª
à¦² à¦Ĺà¦¬
à¦Ł à¦°à¦¦
à¦Ł à¦ķà¦°à¦²
à¦Ĺ à¦¹à¦²
à¦ĩ à¦Ŀ
à¦ķà¦° à¦®à¦¨
à¦· à¦ľà¦¨
à¦°à¦® à¦¬à¦°
à¦°à¦ª à¦Ł
à¦°à¦¤ à¦«à¦¸
à¦°à¦¨ à¦ł
à¦¶à¦¨ à¦¯
à§İ à¦§
à¦ļà¦² à¦ª
à¦¤à¦ķ à¦ķ
à¦¨à¦Ĺ à¦°à¦Ĩà¦ĵà§Ł
à¦¸à¦ķ à¦ķ
à¦¸à¦®à§Ł à¦Ł
à¦¤à¦¹à§Ł à¦¬
à¦¤à¦¹à§Ł à¦ª
à¦ıà¦®à¦¨ à¦¸
à¦°à¦¥à¦® à¦¡
à¦°à¦Ĺà¦£ à¦¤à¦¨
à¦ĸà¦°à¦ļ à¦ķà¦°
à¦°à¦ıà¦ĩà¦ļ à¦ıà¦¸à¦¸
à¦°à¦ĩà¦ī à¦ı
à¦° à¦²à¦¬
à¦¤ à¦ĩà¦¨
à¦¸ à¦¨à¦®
à¦¸ à¦Ĩà¦Ľ
à¦¦ à¦¨à¦¤
à¦¶ à¦®à¦¸
à¦¶ à¦¸à¦¹
à¦ĩ à¦ªà¦¤
à¦Ĩ à¦°à¦ħà¦¨
à¦Ń à¦ľ
à¦Ń à¦ķà¦°à¦¬
à¦ĵ à¦ħà¦§
à¦°à¦¸ à¦°à¦ŀ
à¦£ à¦¹à¦¬
à§¦ à§§à§¯
à¦¬à¦² à¦¶
à¦°à¦Ĩ à¦¨à¦¹
à¦ĩà¦¨ à¦ªà¦Ľà¦¨
à¦ıà¦ĩ à¦§
à¦¶à¦¨ à¦¹
à¦¶à¦¨ à¦Ľ
à¦¶à¦¨ à¦Ń
à¦¶à¦ķ à¦ķ
à¦¤à¦ª à¦£
à¦°à¦īà¦ª à¦°à¦®
à§¨à§ª à§Ń
à¦·à¦ķ à¦¹
à¦¨à¦ıà¦ĩ à¦¦
à¦¯à¦ĸ à¦¨à¦®
à§ ±
à¦ķ à¦Ĺà¦¬
à¦¸ à¦¨à¦¨
à¦¸ à¦ķà¦¬
à¦® à¦¬à¦²à¦²
à¦² à¦īà¦¤
à¦² à¦ķà¦°à¦¬
à¦ª à¦ħ
à¦¯ à¦ıà¦¶
à§Ł à¦°à¦¤
à§Ł à¦Ŀ
à¦Ł à¦ķà¦¨
à¦ĩ à¦ıà¦ĩà¦¬
à¦§ à¦¹à¦ļ
à¦ĵ à¦īà¦ªà¦¸à¦°
à§¨ à§§à§«
à¦°à¦Ĩ à¦°à¦¸
à¦¹à§Ł à¦ıà¦¤
à¦ªà¦¨ à¦¨
à¦¶à¦¨ à¦²
à¦¹à¦¤ à¦ķà¦°
à¦ķà¦¤ à¦¸
à§¨à§§ à§¨
à¦®à¦ķ à¦ª
à¦¤à¦¸ à¦¤
à¦¬à¦¹ à¦¨à¦®
à¦¸à¦« à¦²à¦¤
à§©à§« à§¯
à¦¬ à¦ĩà¦¯
à¦¤ à¦īà¦¤
à¦² à¦Ĩà¦Ĺ
à¦¦ à¦°à¦¨
à¦¯ à¦Ĩà¦¦
à§Ł à¦ĺà¦Łà¦¨
à¦¹ à¦°à¦Ľ
à¦Ł à¦ķà¦¬
à¦Ł à¦ħà¦°
à¦Ł à¦ĵà¦®
à¦ľ à§Łà¦ķ
à¦¶ à¦ı
à¦Ĺ à¦ĺ
à¦ĩ à¦°à¦ķ
à¦ĩ à¦ħà¦§
à¦Ĩ à¦īà§Ł
à¦Ľ à¦¦à¦¬
à¦ļ à¦Ľ
à¦ļ à¦ķà¦®
à¦¥ à¦ĵà¦ªà¦°
à¦ĸ à¦«à¦ľà¦²
à¦ĵ à¦¸à¦¹
à¦ĵ à¦Ĩà¦Ĺ
à¦¡ à¦ħà¦¨
à¦ī à¦«à¦²
à¦ıà¦ķ à¦ĩà¦¬
à¦¬à¦² à¦ķà¦°
à¦¹à§Ł à¦¹
à¦¶à¦¨ à¦ķà¦°à¦¤
à¦ķà¦® à¦Ľ
à¦Ĩà¦¸ à¦ķ
à¦ıà¦¸ à¦Ĩà¦ĩ
à¦²à¦® à¦°
à¦¬à¦ķ à¦Ĩà¦Łà¦ķ
à¦Ĩà¦¨ à¦²
à¦ĵà¦¸ à¦¤
à¦ªà¦¦ à¦®
à¦ĩà¦Ń à¦Ĩà¦°
à¦Ĺà¦ł à¦¨à¦ķ
à¦ıà¦¸à¦¬ à¦ª
à¦²à¦Ĩ à¦¯
à¦¦à¦ĸ à¦²à¦®
à¦¦à¦¨à¦ª à¦¤
à¦ıà¦°à¦¦ à¦¶à¦ķ
à¦ĭà¦£ à¦ªà¦°
à¦ķ à¦ıà¦Ł
à¦¬ à¦¶à¦ķ
à¦¤ à¦Ĺà¦°
à¦ª à¦ķà¦¨
à¦ª à¦¦à¦°
à¦ª à¦ķà¦ª
à¦Ł à¦ħà¦¬
à¦¶ à¦ıà¦ĸà¦¨
à¦Ĺ à¦°à¦£
à¦Ĩ à¦°à¦ĸ
à¦· à¦Ļ
à¦Ń à¦°à¦¸
à¦« à¦²à¦¸
à¦°à¦ª à¦°à¦ıà¦¬
à¦ıà¦ķ à¦¨à¦ľà¦°
à¦°à¦¶ à¦ª
à¦°à¦ı à¦ķà¦Ń
à¦ıà¦ĩ à¦®à¦¹
à¦¨à¦® à¦ŀ
à§Łà¦¨ à¦°
à¦²à¦¨ à¦ļ
à¦ķà¦Ł à¦¸
à¦°à¦ĩ à¦īà¦°
à¦¨à¦Ĩ à¦°à¦ķ
à¦ĩà¦Ł à¦°
à¦ĩà¦Ł à¦ļ
à¦²à¦ª à¦¥
à¦ªà¦¦ à¦¥
à¦¤à¦¹à§Ł à¦¸
à¦°à¦¹à¦£ à¦ļà¦²à¦Ľ
à¦¤à¦°à¦£ à¦°
à§¨à§¬ à§¨à§Ń
à¦°à¦ıà¦ĩ à¦ªà¦°
à¦°à¦Ĩà¦¹ à¦®à¦¦
à¦¸ à¦ıà¦¸
à¦® à¦ĩà¦¤
à¦ª à¦¦à¦¨
à¦¯ à¦Ĺà¦¤
à¦¯ à¦¶à¦°
à§Ł à¦Ĩà¦¤
à¦Ł à¦¸à¦®à§Ł
à¦· à¦²à¦ķ
à¦· à§Łà¦¬
à¦¥ à¦¸à¦¹
à¦ĸ à¦¨à¦®
à¦°à¦¸ à¦¹à¦¬
à¦ī à¦¬à¦²
à¦°à¦ķ à¦®à¦²
à¦£ à¦ªà¦¶
à¦°à¦¹ à¦¶
à¦¨à¦¤ à¦ķ
à¦¨à¦¸ à§ľà¦ķ
à¦°à¦ħ à¦·
à¦¨à¦ķ à¦ķ
à§Łà¦¨ à¦Ĺ
à¦ıà¦¸ à¦ªà¦°
à§Łà¦ķ à¦¤
à¦¨à¦ı à¦¸à¦¬
à¦Ĩà¦ľ à¦®à¦Ļ
à§§à§¦ à§®
à¦Ĩà¦¤ à¦¤
à¦ĵà¦® à¦°à¦°
à¦ħà¦« à¦¬
à¦²à¦Ĺ à¦ĩà¦¨à¦ķà¦°
à¦Ľà¦¨ à¦¥
à¦¶à¦Ĺ à§ľ
à¦¤à¦ĸà¦¨ à¦Ĩà¦®
à¦¸ à¦¨à¦¤
à¦® à¦ĵà¦ķ
à¦² à¦Ĩà¦®à¦°
à¦² à¦Ĩà¦¦
à¦² à¦īà¦ªà¦ľ
à§Ł à¦ıà¦¨
à§Ł à¦ıà¦°à¦ª
à¦¡ à¦²à¦¸
à¦« à¦ļ
à¦°à¦ª à¦°à¦Ĩà¦¬
à¦£ à¦Ĩà¦®
à¦°à¦¨ à¦¬à¦¨
à¦°à¦¹ à¦ķà¦°à¦¤
à¦¹à§Ł à¦Ń
à¦°à¦£ à¦¸à¦Ń
à¦°à¦¶ à¦ªà¦¥
à¦°à¦ļ à¦°à¦®
à¦ķà¦® à¦ľ
à¦ķà¦¬ à¦Ľà¦°
à¦ĩà¦ķ à¦Ĺ
à¦ĩà¦ķ à¦ķà¦°
à¦®à¦¦ à¦ĩà¦¬à¦¨
à¦Ĩà¦Ĺ à¦®à¦¨
à¦ĵà¦¸ à¦¹à¦¯
à¦¬à¦Ľ à¦°à¦ķà¦°
à¦·à¦® à¦¹à¦¬
à¦ªà¦Ł à¦²
à¦ıà¦« à¦¡
à¦Ĺà§ľ à¦¤
à¦ķà¦ľà¦¨ à¦¬
à¦¤à¦®à¦¸ à¦ª
à¦ĵà¦ķà¦¨ à¦«
à¦¨ à¦°à¦¯
à¦ķ à¦Ĩà¦ķ
à¦¬ à¦¹à§Ł
à¦® à¦Ĺà¦¤
à¦² à¦Ĺà¦£
à¦¦ à¦ı
à¦¦ à¦ķà¦°à¦²
à§Ł à¦®à¦°
à¦¹ à¦¹à¦¬
à¦¹ à¦¨à¦ķà¦°
à¦Ł à¦ıà¦¨
à¦¶ à¦¬à¦Ľà¦°
à¦ĩ à¦¸à¦®à¦¸
à¦Ĩ à¦ķà¦¸
à¦Ĩ à¦Łà¦Ł
à¦· à¦ħ
à¦· à¦¬à¦°
à¦ĵ à¦ħà¦¬
à¦°à¦ķ à¦®à¦ª
à¦£ à¦ıà¦ķà¦Ł
à¦®à¦¨ à¦°
à¦ł à¦ķà¦¶
à¦°à¦¨ à¦ķà¦¶
à¦°à¦ħ à¦¬à¦ķ
à¦°à¦ı à¦ĩà¦Ń
à¦¶à¦¨ à¦¡
à¦°à¦ĩ à¦ķà¦¬
à¦ĩà¦® à¦ļ
à¦¸à¦ķ à¦·
à¦ªà¦¦ à¦ĸ
à¦ħà¦« à¦²
à¦ķà¦Ń à¦¬à¦¨
à¦·à¦¦ à¦¬
à¦¨à¦ıà¦ĩ à¦ļ
à¦¨à¦ħ à¦ŀ
à¦ıà¦¸à¦¬ à¦¤à¦¥
à¦·à¦ĸà¦¬ à¦°à¦ª
à¦·à¦ĸà¦¬ à¦°à¦¶
à¦¬à¦ľà¦¨ à¦°
à¦¬à¦« à¦ľà¦²
à¦ķ à¦ħà¦ªà¦°
à¦¬ à¦ı
à¦¬ à¦ĩà¦¦
à¦® à¦ķà¦¸
à¦® à¦Ĩà¦¨
à¦² à¦ıà¦ĩ
à¦¦ à¦ķà¦°à¦¬
à¦¯ à¦Ĩà¦¸
à§Ł à¦ıà¦ĸà¦¨
à¦Ĺ à¦Ńà¦°
à¦Ĩ à¦ľà¦¨
à¦ı à¦°à¦¤
à¦Ľ à¦¸
à¦ļ à¦ħà¦ªà¦°
à¦ļ à¦®à¦§
à¦¥ à¦²à¦¥
à¦ĵ à¦ľà¦²
à§ľ à¦ªà¦¤
à¦°à¦£ à¦ħà¦§
à¦īà¦ª à¦¬
à¦°à¦¯ à¦ĸà¦¨
à¦®à¦¸ à¦°à¦ķ
à¦ĩà¦ķ à¦¨
à¦°à¦² à¦¤
à¦¤à¦® à¦§
à§§à§¦ à§¨à§¦à§¨à§§
à§¨à§ª à§¨à§«
à¦īà¦² à¦ĩà¦¸à¦²
à¦·à¦ķ à¦ķà¦°
à¦°à¦ĵà¦ª à¦°à¦ķ
à§¨à§¯ à§©à§¦
à¦°à¦ªà¦°à¦ª à¦°à¦ĩ
à¦¨à¦§à¦°à¦¨ à¦ĵà¦®
à¦¤à¦ıà¦ĩ à¦ĵà¦¯
à¦¨ à§Łà¦¸
à¦¸ à¦°à¦°
à¦¸ à¦ķà¦¦
à¦² à¦°à¦ª
à¦² à¦Łà¦¨
à¦² à¦ħà¦ªà¦°
à¦¦ à¦ĵà¦¬
à¦¯ à¦®à¦¸à¦ľ
à§Ł à¦ĵà¦¬
à§Ł à¦Ĺà¦²
à¦¹ à¦¬à¦°
à¦ľ à¦Ĺà¦¦
à¦ĸ à¦ķà¦¬
à¦ĸ à¦²à¦¨
à¦°à¦¬ à¦²à¦¬
à¦°à¦® à§Łà¦²
à¦°à¦Ĩ à¦¸à¦°
à¦°à¦£ à¦ıà¦Ł
à¦¨à¦¤ à¦ľ
à¦°à¦ı à¦ķà¦°
à¦¨à¦¨ à¦¦
à¦°à¦Ĺ à¦£à¦®
à§« à§«à§¦
à¦ķà¦® à¦²à¦Ĺà¦ŀ
à¦¹à¦¤ à¦ª
à¦¤à¦¨ à¦Ĺ
à¦·à¦£ à¦¤
à§§à§¦ à§ª
à¦ĸà¦¬ à¦°à¦®
à¦Ĩà¦°à¦ĵ à¦ª
à¦Ĺà¦² à¦Ĺ
à¦²à§Ł à¦¸à¦®
à¦¨à¦ļ à¦ķ
à¦¸à¦¦ à¦°à¦¹
à¦Ĩà¦Łà¦ķ à¦ķ
à¦ķà¦Ľ à§ľ
à¦¨ à¦īà¦ªà¦²à¦ķ
à¦ķ à¦¨à¦¤
à¦¤ à¦ļà¦²
à¦¤ à¦°à¦ĸ
à¦¤ à¦«à¦²
à¦¸ à¦ĵà¦®
à¦® à¦ľà¦¨
à¦® à¦Ĩà¦®à¦°
à¦² à¦ħà¦¸
à¦² à¦¹à§Łà¦¨
à¦ª à¦ıà¦Ĺ
à§Ł à¦Ĩà¦¶
à¦¹ à¦¨à¦¸
à¦Ł à¦Ļ
à¦Ł à¦Ĩà¦Ľ
à¦¶ à¦ĵà¦¸
à¦Ĺ à¦¹à¦¤
à¦ĩ à¦¬à¦¸
à¦ı à¦²à¦ķ
à¦ı à¦°à¦²
à¦ı à¦°à¦ħà¦°
à¦ļ à¦¤à¦²
à¦¥ à¦°à¦ķ
à¦¡ à¦¹à§Ł
à¦¡ à¦²à¦ķ
à¦ī à¦¸à¦ķ
à¦°à¦® à¦Ĩà¦¨
à¦ľà¦¨ à¦ªà¦¦
à¦¬à¦² à¦ľ
à¦°à¦¹ à¦ĵà¦¯
à¦°à¦Ĩ à¦¨à¦¶à¦°
à¦°à¦£ à¦«
à¦¨à¦¤ à¦¦à¦¨
à¦¨à¦ķ à¦²à¦®
à¦°à¦ı à¦°à¦ª
à¦°à¦Ń à¦¯
à¦ķà¦² à¦ª
à¦°à¦ĩ à¦Ļ
à¦°à¦¸à¦® à§Łà¦¹
à§Łà¦¸ à¦ķ
à¦¨à¦Ĩ à¦ĩà¦¨à¦ľ
à¦¨à¦¯ à¦ĸà¦¨
à§Łà¦¤ à¦ĸà¦¨
à§¨à§¦à§¨à§§ à§§à§¨
à§Łà¦® à¦®
à¦ıà¦² à¦ľ
à¦°à¦¥à¦® à¦ļ
à¦°à¦ķà¦® à¦°à¦ª
à¦¬à§ľ à¦Ń
à¦¨à¦ıà¦ķ à¦®
à¦Łà¦¬à¦² à¦ĸ
à¦¨à¦Ĩà¦°à¦ĵ à¦¬à¦ķ
à¦¨ à¦īà¦ł
à¦¤ à¦ħà¦ª
à¦® à¦ļà¦ķ
à¦² à¦ĵà¦ķ
à¦ª à¦¹à¦²
à¦¯ à¦¸à¦®à¦¸
à¦ľ à¦¸à¦°à¦ķ
à¦ĩ à¦Ĩà¦ķ
à¦ı à¦°à¦¸à¦Ļ
à¦« à¦²à¦¹à¦ĵà§Ł
à¦®à¦¨ à¦ıà¦ķà¦Ł
à¦ł à¦ķà¦ª
à¦ľà¦¨ à¦®à¦¨
à¦°à¦ļ à¦²à¦¨
à¦¶à¦¨ à¦ªà¦°
à¦®à¦¤ à¦ľ
à¦ĩà¦² à¦¡
à¦ķà¦Ł à¦¨
à¦¬à¦ķ à¦ľà¦¨
à¦¬à¦¬ à¦ľ
à¦²à§Ł à¦°
à¦ıà¦® à¦ıà¦¸
à¦ıà¦ķà¦ľà¦¨ à¦Ń
à¦°à¦¸à¦¬ à¦ĸà¦¬à¦°à¦ª
à¦ıà¦°à¦ª à¦°à¦¬
à¦Ĩà¦Ł à¦ķà¦¦
à¦Ĩà¦°à¦ı à¦®à¦ª
à¦§à¦¨à¦ķà¦° à¦¬
à§§à§¯à§¯ à§§
à¦ķà¦Ĩ à¦ĩà¦¡
à¦°à¦¨à¦Ĺ à¦°à¦¬
à¦°à¦¥à¦®à¦¤ à¦Ł
à¦ķ à¦Ĩà¦¶
à¦¬ à¦°à¦Ĩ
à¦¤ à¦¤à¦®
à¦¤ à¦ĩà¦®
à¦² à¦ĩ
à¦ª à¦°à¦Ĺà¦£
à¦¦ à¦°à¦²
à§Ł à¦Ńà¦°
à§Ł à¦Ĳà¦ķ
à¦Ł à¦ªà§ľ
à¦Ł à¦Ĩà¦¦
à¦ľ à¦¸à¦¹
à¦ľ à¦²à¦¹
à¦ĩ à¦¬à¦²à¦¤
à¦Ľ à¦«
à¦Ń à¦ķà¦°à¦¤
à¦§ à¦«
à¦ĵ à¦ĩà§Ł
à¦°à¦® à¦¹à¦¬
à¦®à¦¨ à¦Ľ
à¦°à¦Ĩ à¦®à¦¦
à¦¬à¦¸ à¦Ĩà¦ľ
à¦ıà¦ĩ à¦ªà¦¦
à¦¤à¦° à¦°
à¦°à¦Ń à¦¬à¦¨
à¦²à¦¨ à¦Ĺà¦°
à¦ķà¦Ł à¦¬à¦°
à¦°à¦² à¦Ļ
à¦°à¦ĩ à¦¹
à¦ķà¦¸ à¦¤
à¦¯à¦¦ à¦²
à¦²à¦¸ à¦Ļ
à¦¬à¦ķ à¦ħà¦§
à§§à§¦ à§©
à¦°à¦īà¦ª à¦°à¦¤
à¦ħà¦¬à¦¸ à¦°à¦ª
à¦ıà¦ĸà¦¨ à¦ĵà¦¬
à¦¸à¦ķà¦² à¦¸
à§ªà§« à§¬à§Ń
à§¦à§§ à§¨à§¦à§§à§©
à¦¨ à¦ĩà¦ī
à¦¬ à¦°à¦¸à¦°
à¦¤ à¦ł
à¦¸ à¦°à¦ĵà¦ªà¦°
à¦² à¦ĩà¦¬à¦¨
à¦ª à¦ķà¦°à¦¤
à¦¯ à¦¡à¦¸
à§Ł à¦ł
à§Ł à¦ĩà¦¤
à§Ł à¦ĵà¦¸
à¦Ł à¦ĵà¦ª
à¦¶ à¦¹à¦¤
à¦Ĺ à¦°à¦¬
à¦ĩ à¦ĩà¦¨
à¦ĩ à¦¹à¦°
à¦· à¦¹à¦ļ
à¦· à¦Ĩà¦¹à¦¤
à¦§ à¦¨à¦Ĺ
à¦¥ à¦ķà¦ª
à¦ĵ à¦ĵ
à¦°à¦® à¦¤à¦®
à¦ł à¦Ľ
à¦°à¦ľ à¦Ļ
à¦¹à§Ł à¦ļ
à¦¨à¦¸ à¦¦
à¦¨à¦¸ à¦¹à¦¯
à¦°à¦ĵ à¦ĸ
à¦·à¦£ à¦ıà¦¬
à¦²à¦¸ à¦¸
à§Łà¦ª à¦¦
à¦Ĺà¦¤ à¦ļ
à¦¨à¦ĵ à¦²
à¦¨à¦ĵ à¦ļ
à¦¸à¦®à§Ł à¦§à¦°
à¦Ĺà¦£ à¦¶
à¦ĩà¦¬à¦¨ à¦Ĩà¦¬
à¦¤à¦¹à§Ł à¦ķ
à¦ıà¦®à¦¨ à¦ªà¦°
à¦²à¦Ĺ à¦ª
à¦Łà¦¸ à¦ľ
à¦¨à§Ł à¦¬à¦°
à¦²à¦ľ à¦¹
à¦¦à¦¶ à¦Ł
à¦ķà¦°à¦£ à¦¬
à¦ķà§Ł à¦Ł
à§§à§¯à§¯ à§Ń
à¦¸à§ľà¦ķ à¦ªà¦°
à¦¨à¦Ĩà¦°à¦ĵ à¦ªà¦¡
à¦¤à¦ķà¦°à¦£ à¦ħà¦¦
à¦·à¦ĸà¦¬à¦° à¦°
à¦¨à¦Ĩà¦ľà¦¸ à¦«à¦²à¦¹à¦ĵà§Ł
à¦ķ à¦ĵà¦¯
à¦¤ à¦ĩà¦¸à¦²
à¦¤ à¦Ĩà¦¤
à¦¤ à¦ħà¦ŀ
à¦¸ à¦Ĩ
à¦² à¦²à¦¤
à¦² à¦ħà¦¤
à¦¯ à¦ıà¦ĸ
à§Ł à¦°à¦°
à¦Ł à¦Ĩà¦Ĺ
à¦ĩ à¦¸à¦¬à¦ļ
à¦ı à¦®à¦¹
à¦ı à¦¨à¦Ł
à¦Ń à¦¤
à¦ĵ à¦ħà¦ªà¦°
à¦£ à¦¡
à¦°à¦¨ à¦¥
à¦°à¦ħ à¦Ł
à¦ıà¦ĩ à¦ħà¦¬à¦¸
à¦¨à¦® à¦¡
à§İ à¦¹
à¦¯à¦ķ à¦¨
à¦ĩà¦² à¦¨à¦®
à¦·à¦£ à¦¸à¦®
à¦Łà¦¨ à¦Ł
à¦¨à¦ľ à¦°à¦°
à¦¨à¦Ń à¦¬à¦ĺ
à¦Łà¦ķ à¦¥
à§¨à§¦à§¨à§§ à§§à§«
à¦ıà¦°à¦ª à¦°à¦¸
à¦Ĺà¦ª à¦Ľà¦¨
à¦²à¦Ĩà¦² à¦®à¦ª
à¦¬à¦ľà¦¨ à¦¸à¦®
à§ªà§¬ à§§
à¦ķ à¦īà¦²
à¦ķ à¦ļà¦ķ
à¦¬ à§Łà¦ķ
à¦¤ à¦¶à¦ķ
à¦¦ à¦°à¦Ĺ
à¦¯ à¦ĩà¦¸à¦²
à¦¯ à¦¯à¦¥
à§Ł à¦ĩà§Ł
à¦Ł à¦°à¦¡
à¦¶ à¦Ĩà¦ĵà¦¯
à¦ĩ à¦ħà¦¬
à¦ĩ à¦ħà¦¤
à¦ĩ à¦ħà¦ª
à¦Ľ à§Łà¦Ł
à¦· à¦ıà¦ķà¦Ł
à¦ĵ à¦Ĩà¦ĵà§Ł
à¦ī à¦ķà¦°
à¦ī à¦Łà¦¨
à¦°à¦ķ à¦²à¦®
à¦ıà¦ķ à¦ķà¦¥
à¦ľà¦¨ à¦¹à¦¬
à¦ľà¦¨ à¦¸à¦¨
à¦ĺ à¦¶
à¦°à¦ħ à¦¥à¦¬
à¦ĩà¦¨ à¦Ĩà¦ª
à¦ıà¦ĩ à¦ķà¦°
à¦ıà¦ĩ à¦ļà¦Ł
à¦Ĩà¦² à¦Ĩà¦®
à¦ķà¦® à¦¸
à§¬ à§¨à§¦à§§à§¯
à¦ķà¦¸ à¦ĩà¦īà¦¨
à§§à§¯ à§ªà§Ń
à¦ķà¦ķ à¦·
à§¨à§¦à§¨à§§ à§§à§Ń
à¦ĩà¦ľ à¦ķà¦°
à¦°à¦Ĩà¦Ĺ à¦ªà¦°
à¦ıà¦ĩà¦ļ à¦Ĩà¦ĩà¦Ń
à¦ıà¦¸à¦¬ à¦®
à¦Ńà§Ł à¦Ļ
à§¨à§¦à§¨ à§§à§©
à¦® à¦ħà¦¬
à¦² à¦Ĩà¦°à¦ĵ
à¦¦ à¦®à¦¹
à¦¯ à¦Ĩ
à¦Ł à¦§
à¦¶ à¦ķà¦¬
à¦ĩ à¦¶à¦ķ
à¦ı à¦°à¦¯
à¦ı à¦®à¦°
à¦· à¦ĵ
à¦· à¦¨à¦¬
à¦§ à¦®à¦¨
à¦¥ à¦īà¦ª
à¦¥ à¦ķà¦¸
à¦ĵ à¦Ĩà¦¶
à¦°à¦¸ à¦¬à¦¬
à¦ī à¦Ľ
à¦°à¦¬ à¦¦
à¦°à¦¬ à¦²à¦²
à¦°à¦ª à¦°à¦Ń
à§¨ à§¨à§§
à¦ľà¦¨ à¦«
à¦¬à¦² à¦¹à§Ł
à¦ĺ à¦Łà¦¬
à¦°à¦£ à¦ħà¦¨
à¦¨à¦¸ à§ľ
à¦¬à¦¸ à¦Ń
à¦²à¦ķ à¦²à¦ķ
à¦ķà¦® à¦ķ
à¦¯à¦ķ à¦°à¦Ľ
à¦°à¦² à¦Ń
à¦¤à¦® à¦°
à¦ķà¦¸ à¦ļ
à¦¯à¦® à¦ľ
à¦¨à¦ı à¦ĩà¦¨
à¦¬à¦ª à¦¦
à§§à§ª à§¦
à¦ľà§Ł à¦²
à§§à§¯à§Ń à§¦
à¦°à¦¸à¦¦ à¦°à¦¶
à¦°à¦¸à¦« à¦²à¦¤
à§§à§¦à§§à§§ à§§à§¨à§§à§©
à¦®à¦¤à¦²à¦¬ à¦īà¦¤
à§ªà§«à§¬à§Ń à§®à§¯
à¦¨ à¦¶à¦ķ
à¦¬ à¦¶à¦¤
à¦¤ à¦ıà¦Ĺ
à¦¸ à¦Ĩà¦¬
à¦¸ à¦Ĩà¦¦
à¦® à¦ľà¦¬
à¦® à§Łà¦ķà¦°
à¦® à¦£à¦ª
à¦² à¦ªà§ľ
à¦¯ à¦ĺà¦Łà¦¨
à§Ł à¦Ĩà¦Łà¦ķ
à§Ł à¦°à¦ªà¦¦
à¦ĩ à¦ıà¦ĩà¦¸
à¦Ĩ à¦ł
à¦Ĩ à§Łà¦¨
à¦ı à¦°à¦¹
à¦ļ à¦®à¦¤
à¦§ à¦ħà¦°
à¦¥ à¦«
à¦ĸ à¦ķà¦Ń
à¦ĵ à¦ķà¦¥
à¦« à¦¡
à¦£ à¦ħà¦°
à¦®à¦¨ à¦¹
à¦®à¦¨ à¦Ĺà¦°
à¦ıà¦ķ à¦ĩà¦¦
à¦¹à§Ł à¦ıà¦Ľ
à¦¨à¦¬ à¦¡
à¦°à¦ı à¦°à¦¬
à¦¸à¦¬ à¦Ł
à¦¶à¦¨ à¦ıà¦ķ
à¦¹à¦¤ à¦®
à§İ à¦¯
à§Łà¦¨ à¦¯
à¦·à¦£ à¦«
à¦ķà¦ª à¦£
à¦ħà¦¬ à¦¤à¦°à¦£
à¦ĩà¦ľ à¦ª
à¦Ńà¦¬ à¦¹à§Ł
à¦ĭ à¦£à¦¦
à¦°à¦ħà¦ª à¦ļ
à¦°à¦¸à¦¦ à¦°à¦¬
à¦°à¦Ĩà¦°à¦ĵ à¦ªà§ľ
à¦īà§İà¦¸à¦¬ à¦®
à§¨à§¬à§¨à§Ń à§¨à§®
à¦° à¦°à¦ļà¦¨
à¦¨ à¦¬à¦²à¦²
à¦¤ à¦¯à¦¦
à¦¤ à¦Ĩà¦ĩà¦¨
à¦® à¦¹à¦¯à¦°à¦¤
à¦¯ à¦ĵà¦ļ
à¦Ł à¦Ŀ
à¦ľ à¦¬à¦¸
à¦¶ à¦¹à¦¬
à¦¶ à¦ķà¦¨
à¦¶ à¦ıà¦Ĺ
à¦Ĺ à¦®à¦¸
à¦Ĺ à¦¸à¦¹
à¦Ĺ à¦®à¦ķ
à¦ĩ à¦®à¦¤
à¦ĩ à¦Ĩà¦¦
à¦§ à¦¨à¦¯
à¦¥ à¦¯
à¦¥ à¦¬à¦°
à¦ĵ à¦ĩà¦°
à¦¡ à¦ķà¦®
à¦°à¦ķ à¦®à¦ķ
à¦°à¦¬ à¦¬
à¦ıà¦ķ à¦¦à¦²
à¦¹à§Ł à¦ĸ
à¦ĺ à¦°à¦¥
à§Łà¦¨ à¦ķà¦°à¦¤
à¦¦à¦ķ à¦ıà¦¬
à¦ļà¦² à¦ķà¦°
à¦·à¦£ à¦ľ
à§Łà¦ķ à¦¹
à¦Ĩà¦ľ à¦¶à¦¨
à¦¬à¦Ľ à¦°à¦®
à¦Ĺà¦¤ à¦¶
à¦°à¦¡ à¦¨
à§§à§« à§¦à§¦
à¦¬à§ľ à¦¸
à¦ªà¦£ à¦¨
à§¨à§© à§¨à§ªà§¨à§«
à¦¶à¦¶ à¦¤à¦ķ
à¦°à¦ĸà¦¬ à¦°à¦ĵà¦¬
à¦¤à¦« à¦¸
à¦«à¦Ł à¦ĵà§Ł
à¦°à¦Ĺà¦ł à¦¨
à§§à§¨à§© à§ªà§«à§¬à§Ńà§®à§¯
à¦¨ à¦Īà¦¶
à¦ķ à¦ħà¦ŀ
à¦¬ à¦°à¦ı
à¦¬ à¦ķà¦¦à¦²
à¦¤ à¦°à¦¶
à¦¤ à¦ĸà¦¬
à¦¤ à¦īà¦ł
à¦¸ à¦ıà¦¨
à¦® à¦ĵà¦°
à¦ª à¦ıà¦²
à¦¦ à¦²à¦¸
à¦¦ à¦¶à¦°
à¦ľ à¦ĩà¦īà¦¨
à¦ı à¦¥
à¦ı à¦°à¦°
à¦ı à¦²à¦ª
à¦ĵ à¦Ĩà¦¸
à¦ī à¦ľà¦¨
à¦°à¦¬ à¦®
à§¨ à§¨à§«
à§ľ à¦ļ
à¦°à¦Ĩ à¦¨à¦¸
à¦¨à¦¬ à¦Ĺ
à¦°à¦£ à¦ªà¦°
à¦¨à¦¸ à¦ª
à¦¨à¦¸ à¦¹à¦¬
à¦°à¦ħ à¦¸à¦¹
à¦°à¦ħ à¦ªà¦¸
à¦¨à¦ķ à¦ĵà¦¯
à¦¯à¦ķ à¦°à¦£
à¦®à¦¸ à¦ª
à¦ķà¦Ł à¦®
à¦²à¦® à¦§
à¦¤à¦ķ à§Ł
à¦ļà¦¨ à¦ķà¦°à¦¤
à¦¨à¦Ĩ à¦¹
à¦®à¦ķ à¦Ń
à§§à§¯ à§®à§¦
à¦°à§Ł à¦¦
à§§à§¦ à§Ń
à¦Ĩà¦ĩà¦¨ à¦Ĺà¦¤à¦¬
à¦Ĺà¦¨ à¦²
à¦°à¦¥à¦® à¦¬à¦°
à§§à§Ń à§®
à¦¨à§Ł à¦¨à¦¨
à¦Ĩà¦Ł à¦ķà¦¨
à¦ľà¦ľ à¦Ĩà¦¦
à¦¨à¦¹à§Ł à¦°
à¦¬à¦°à¦£ à¦ķà¦°à¦²
à¦ıà¦ķà¦ĩ à¦¸à¦®à§Ł
à§§à§¬à§§à§Ń à§§à§®à§§à§¯
à¦ķ à¦īà¦ªà¦¸
à¦¤ à¦Ĩà¦Ĺ
à¦ª à¦ķà¦¤
à¦¶ à¦¬à¦ª
à¦Ĺ à¦§à¦°
à¦Ĩ à§Łà¦¬
à¦· à¦Ĩà¦ªà¦¨
à¦ĵ à¦ĩà¦¸à¦²
à¦°à¦ª à¦°à¦ĸ
à¦£ à¦¹à¦²
à§¨ à§¨à§ª
à§ĥ à¦Ĥ
à¦¬à¦¨ à¦¸à¦®
à¦²à¦ķ à¦ļ
à¦°à¦ı à¦ĩà¦Ĺ
à¦¨à¦ª à¦¬
à¦¸à¦¬ à¦Ń
à¦ķà¦® à¦¹à¦²
à¦²à¦¨ à¦Ń
à¦²à¦¨ à¦ħà¦¨
à¦¤à¦¨ à¦¹à§Ł
à¦¦à¦¨ à¦ļ
à¦ķà¦¸ à¦¦à¦¸
à¦¤à¦ķ à¦¨
à§§à§¯ à§¯à§¯
à¦²à¦¹ à¦ķà¦ķ
à¦ĩà¦Ń à¦¬
à¦Ĩà¦ĩà¦¨ à¦¨
à¦°à¦ıà¦ķ à¦Ĺ
à¦°à¦¥à¦® à¦¯
à¦¨à§Ł à¦¯
à§¨à§¨ à§Ń
à¦®à¦Ĩ à¦¹
à¦¸à¦ķà¦² à¦®
à¦·à¦ĸà¦¬ à¦°à¦¨
à¦Łà¦ĩ à¦ªà¦¤
à¦°à¦°à¦« à¦¹
à§§à§ªà§§à§« à§§à§¬à§§à§Ńà§§à§®à§§à§¯
à§§à§¦à§§à§§à§§à§¨à§§à§© à§§à§ªà§§à§«à§§à§¬à§§à§Ńà§§à§®à§§à§¯
à§¨à§¬à§¨à§Ńà§¨à§® à§¨à§¯à§©à§¦
à¦¨ à¦²à¦ķà¦¡
à¦ķ à¦Ĩà¦¸
à¦ķ à¦ĵà¦¦
à¦ķ à¦ĵà¦¨
à¦¬ à¦¹à¦²
à¦¤ à¦ªà¦¨
à¦¤ à¦ıà¦¸
à¦¤ à¦Ĩà¦ľ
à¦² à¦¨à¦¤
à¦ª à¦¸à¦¬
à§Ł à¦ĩà¦¸à¦²
à§Ł à¦¸à¦®à§Ł
à§Ł à¦ķà¦°à¦¬
à¦ľ à¦²à¦¸
à¦¶ à¦°à¦¬
à¦¶ à¦Ĺà¦¤
à¦ĩ à¦ıà¦¤
à¦Ľ à¦¦à¦ª
à¦· à¦Ĩà§Ł
à¦°à¦® à¦¤à¦ª
à¦°à¦® à§Łà¦®à¦¨à¦¸
à¦ľà¦¨ à¦¹à¦²
à¦ªà¦¨ à¦Ĺ
à¦ªà¦¨ à¦¡
à¦ĩà¦¨ à¦ĺ
à§¯ à§¦à§¦
à¦®à¦¤ à¦¶
à¦®à¦¦ à¦¬
à¦¨à¦Ĺ à¦°à¦¸
à¦ªà¦ķ à¦¡à¦®
à¦¨à¦ĵ à¦¸à¦®
à¦°à¦īà¦ª à¦°à¦Ĺ
à¦°à¦ĺ à¦°à¦¬
à¦ĵà¦® à¦°à¦«
à¦Ī à¦«
à¦°à¦ıà¦ķ à¦¹
à¦Ĺà¦ł à¦¨à¦¨
à¦¨à¦Ĩà¦² à¦¹
à¦·à¦ĸà¦¬ à¦°à¦®
à¦ĭ à¦£à¦Ĺ
à¦¯à¦¤à¦® à¦¬
à¦ķà¦Ĩ à¦¤à¦¸
à§¦à§¯ à§«
à¦ªà¦¦à¦¸ à§ľà¦ķ
à§¨à§¦à§¨à§§à§¨à§¨ à§¨à§©à§¨à§ªà§¨à§«
à§§à§¦à§§à§§à§§à§¨à§§à§©à§§à§ªà§§à§«à§§à§¬à§§à§Ńà§§à§®à§§à§¯ à§¨à§¦à§¨à§§à§¨à§¨à§¨à§©à§¨à§ªà§¨à§«
à¦¨ à¦ļà¦²à¦ļ
à¦ķ à¦ħà¦¤
à¦¤ à¦°à¦ıà¦¬
à¦¤ à¦ªà§ľà¦¤
à¦ª à¦ł
à¦¦ à¦¨à¦¤à¦¥
à¦¯ à§İ
à¦Ł à¦ıà¦¸
à¦Ł à¦ªà¦ķ
à¦Ł à¦¸à¦²
à¦ĩ à¦¦à¦°
à¦ĩ à¦ĺà¦°
à¦ĩ à¦ıà¦ķà¦®
à¦· à¦ķà¦°à¦²
à¦· à¦¸à¦®à¦ķ
à¦¡ à¦¸à¦¨
à¦ħ à¦¸à¦¨
à¦°à¦¸ à¦ĸ
à¦£ à¦ħ
à§¨ à§§à§¬
à¦ıà¦ķ à¦§
à¦°à¦£ à§Łà¦¨à¦ķà¦°
à§¨à§¦ à§¨à§¬
à¦ĩà¦¸ à¦¸
à¦ĩà¦² à¦Ĩà¦ĩà¦Ł
à¦ĩà¦ķ à¦¦
à¦Ŀ à¦Ĺà§ľ
à¦¦à¦¨ à¦ıà¦¬
à¦¦à¦¨ à¦ķà¦°à¦¬
à¦¸à¦¹ à¦ķà¦°
à¦¯à¦® à¦¬
à¦¯à¦® à¦Ĺ
à¦¬à¦Ľ à¦°à¦ľ
à¦Ĩà¦°à¦ĵ à¦¤
à¦ıà¦ĸà¦¨ à¦ħà¦¨
à¦®à¦® à¦§
à¦ıà¦® à¦¶
à¦ĩà¦¯ à¦¥
à¦¶à¦¹ à¦°à¦Ł
à¦°à¦¸à¦¬ à¦¥
à¦¬à§ľ à¦²
à¦Ĩà¦°à¦¬ à¦¸
à¦¤à¦°à¦£ à¦¬
à¦Ĩà¦ĩ à¦¨à¦ķ
à§§à§¯à§Ń à§©
à§¦à§Ń à§¨
à§§à§¦à§§à§§à§§à§¨à§§à§©à§§à§ªà§§à§«à§§à§¬à§§à§Ńà§§à§®à§§à§¯à§¨à§¦à§¨à§§à§¨à§¨à§¨à§©à§¨à§ªà§¨à§« à§¨à§¬à§¨à§Ńà§¨à§®à§¨à§¯à§©à§¦
à¦¾ à¦¾
à¦¨ à¦ĩà¦Ń
à¦¨ à¦°à¦¹à¦®
à¦ķ à¦ķà¦Ł
à¦¤ à¦ªà¦¤
à¦² à¦ļà¦ķ
à¦¦ à¦¬à¦¨
à¦¯ à¦°à¦¯
à§Ł à¦ıà¦Ĺ
à¦Ł à¦īà¦¦
à¦Ł à¦ıà¦¯
à¦Ĺ à¦ĵà¦ª
à¦Ĩ à¦¯à¦¹
à¦Ĩ à¦°à¦Ĩà¦ªà¦¨
à¦· à¦Ĩà¦²
à¦· à¦ĩà¦¸à¦²
à¦§ à¦¹à¦ĵà§Ł
à¦ĸ à¦ķà¦ª
à¦ĵ à¦ħà¦¤
à¦ĵ à¦ĩà¦īà¦¨
à¦°à¦ķ à¦¹
à§¨ à§§à§©
à¦ľà¦¨ à¦²
à¦ľà¦¨ à¦Ĩà¦ķ
à¦°à¦£ à¦¹à¦²
à¦¨à¦¸ à¦«
à§¨à§¦ à§©à§¦
à¦°à¦ĵ à¦ķà¦°
à¦°à¦ī à¦ĩà¦¨
à¦°à¦« à¦ķ
à¦®à¦ķ à¦¥
à¦Ĩà¦ľ à¦Ĩà¦®
à¦Ĩà¦¦ à¦®
à¦Ĺà¦£ à¦§à¦°
à¦Ĺà¦£ à¦Ńà¦¬à¦¨
à¦°à¦®à¦¤ à¦²à¦¬
à¦ĩà¦¬à¦¨ à¦®
à¦¬à¦¹ à¦¨à¦¶
à¦ıà¦®à¦¨ à¦ħà¦¨
à¦¸à¦¤ à¦¤
à¦ıà¦ĸà¦¨ à¦¶
à¦®à¦® à¦Ļ
à¦Ĺà¦ł à¦¨à¦ª
à¦ĩà¦ļ à¦²à¦¬
à¦ľà¦² à¦¢
à¦°à¦ĵà¦ª à¦°à¦¸
à¦ĭ à¦·
à¦Ĩà¦°à¦ı à¦Ł
à§§à§¯à§® à§®
à¦°à¦ıà¦ĩà¦ļ à¦¡
à¦°à¦¤à¦°à¦« à¦¥
à¦¨à¦ıà¦ĩà¦¸à¦®à§Ł à¦ħ
à¦¾ à§į
à¦ķ à¦¬à¦¸
à¦ķ à¦Ĩà¦ĵà§Ł
à¦¬ à¦ĩà¦²
à¦¬ à¦ĵà¦®
à¦¤ à¦°à¦Ĩà¦®
à¦¸ à¦Ĩà¦ķ
à¦® à¦²à¦ķ
à¦¦ à¦§
à¦ľ à¦²à¦¦
à¦ľ à¦ĸà¦¬à¦°à¦¨
à¦ĵ à¦¸à¦¬
à¦ĵ à¦īà¦²
à¦¡ à¦ĩà¦¨
à¦°à¦¸ à¦¨à¦ĸ
à¦« à¦¯
à¦« à¦®à¦¹
à¦£ à¦¬à¦¨
à¦£ à¦ĸà¦¬à¦°à¦¬
à§¨ à§§à§ª
à¦¬à¦² à¦°
à¦¬à¦² à¦Ł
à¦°à¦¹ à¦ľ
à¦ĺ à¦·
à¦ĺ à¦°à¦Ń
à¦ıà¦¬ à¦Ľà¦°
à¦¬à¦¸ à¦°
à§© à§¨à§¦à§¨à§§
à¦°à¦ĵ à¦«
à¦ĩà¦ķ à¦ļ
à¦ĩà¦ķ à¦°à¦Ľ
à¦ıà¦¸ à¦¬à¦¨
à¦°à¦² à¦Ĺ
à¦¨à¦Ĩ à¦ĸà¦¤
à¦²à¦¸ à¦ª
à¦ĵà¦ª à¦Ľà¦¨
à¦Ĺà¦¤ à¦¯
à¦¨à¦¹ à¦ĵà¦¯
à¦ıà¦® à¦ıà¦²
à¦¸à¦¦ à¦°à¦¬
à¦ĩà¦ī à¦Ĩà¦°à¦ı
à¦°à¦¥à¦® à¦Ń
à¦ĸà¦¬à¦° à¦°
à¦²à¦Ĩà¦ľ à¦¹
à¦¤à¦°à¦Ĩ à¦¹à¦¤
à¦¨ à¦īà¦ķ
à¦ķ à¦¤à¦°
à¦ķ à¦¤à¦®
à¦¬ à¦¬à¦¸
à¦¬ à¦°à¦Ł
à¦¤ à¦°à¦ļ
à¦¤ à¦ħà¦¬
à¦² à¦ľà¦¨
à¦¦ à¦¶à¦ķ
à¦¯ à¦°à¦ª
à§Ł à¦ľà¦®
à¦Ł à¦¶à¦¨
à¦Ł à¦¬à¦ķ
à¦ľ à¦¬à¦²
à¦¶ à¦ħ
à¦¶ à¦¹à¦¯
à¦¶ à¦Ĩà¦Ĺ
à¦Ĺ à¦¨à¦¤
à¦Ĺ à¦¹à¦¬
à¦Ń à¦¹
à¦Ń à¦īà¦¦
à¦¥ à¦īà¦¦
à¦ĵ à¦ıà¦²
à¦ĵ à¦Ľà¦¬
à¦ĵ à¦ĩà¦¶
à¦°à¦® à¦ļ
à¦ªà¦° à¦¨
à¦°à¦Ĩ à¦¨à¦¬
à¦¹à§Ł à¦ıà¦Ł
à¦°à¦ı à¦°à¦¸
à¦°à¦ı à¦°à¦®à¦§
à¦ıà¦ĩ à¦®à¦¨
à¦ıà¦ĩ à¦Ĩà¦ĩà¦¨
à¦ıà¦ĩ à¦°à¦ķà¦®
à¦ĩà¦¬ à¦¹
à¦¯à¦¸ à¦Ļ
à¦¯à¦¸ à¦¦à¦¸
à§¨à§¦à§¨à§§ à§§à§¬
à¦ªà¦¦ à¦Ĺ
à¦Ĺà¦² à¦¦
à¦¨à¦ĵ à¦Ł
à¦°à¦īà¦ª à¦¬
à¦ĩà¦Ń à¦ķ
à¦¬à¦¹ à¦¨à¦ĵà¦¸
à¦²à¦¦ à¦¹à¦¹
à¦ĩà¦ī à¦ıà¦¸
à¦Ĳ à¦¦
à¦¤à¦ĸ à¦¨à¦ª
à¦¯à¦ĸà¦¨ à¦Ĩà¦®
à¦ıà¦¸à¦ıà¦® à¦ıà¦¸
à§¨à§©à§¦ à§¬à§¨à§¦à§§à§¯
à§¦à§¬à§¨à§¦à§§à§¯ à§¨à§Ń
à¦ħà¦ªà¦¹ à¦°à¦£à¦ķà¦°
à¦¨ à¦¬à¦²à¦¤
à¦ķ à¦ªà¦¤
à¦ķ à¦¶à¦°
à¦ķ à¦ĵà¦ķ
à¦ķ à¦ĺà¦£
à¦¤ à¦¸à¦®à¦¯
à¦® à¦īà¦®
à¦² à¦¶à¦°
à¦¯ à¦¯à¦¦
à§Ł à¦¹à¦ļ
à§Ł à¦ļà¦Ł
à¦ľ à¦ıà¦²
à¦¶ à¦ıà¦¸
à¦ĩ à¦ıà¦®
à¦ĩ à¦Ĩà¦¸à¦²
à¦Ĩ à¦ĩà¦¯
à¦ı à¦¨à¦ķ
à¦ı à¦°à¦īà¦¦
à¦ļ à¦ĵà§Ł
à¦ĸ à¦§
à¦ĵ à¦¶à¦°
à¦ĵ à¦¤à¦¥
à¦ĵ à¦ĩà¦Ĺ
à¦ĵ à¦ħà¦¨à¦²
à¦¡ à¦Ĩà¦¬
à¦°à¦¸ à¦¬à¦ª
à¦°à¦ª à¦°à¦ıà¦ķà¦Ł
à§¨ à§¨à§®
à§¦ à§«à§¦
à¦ł à¦°
à¦ľà¦¨ à¦¹à¦¯
à¦°à¦Ĩ à¦¨à¦ĸ
à¦¹à§Ł à¦ıà¦°à¦ª
à¦ªà¦¨ à¦ķà¦°à¦Ľ
à¦°à¦ı à¦®à¦¡
à¦ıà¦ĩ à¦ľà¦¨
à¦°à¦Ĺ à¦°à¦®
à¦ķà¦² à¦¦
à¦¨à¦¦ à¦£
à§Łà¦ķ à¦¨
à¦¯à¦® à¦¯
à¦¬à¦ķ à¦ª
à¦¤à¦ª à¦Ľà¦¨
à¦¬à¦Ľ à¦°à¦¦
à¦ªà¦ķ à¦¹
à§¨à§¦à§¨à§§ à§§à§®
à¦¯à¦¤ à¦¤
à¦Ĺà¦£ à¦ľ
à¦§à¦¨ à¦«
à¦¸à¦¦ à¦°à¦¥
à¦¨à¦ıà¦ĩ à¦Ł
à¦°à¦¸à¦¬ à¦®
à¦°à¦¸à¦¬ à¦Ĺ
à¦¦à¦¶ à¦ľ
à¦ĭ à¦£à¦¬
à¦®à¦ķà¦® à¦²
à¦²à¦ķà¦ªà¦²à¦ķà¦ªà¦²à¦ķà¦ªà¦²à¦ķà¦ª à¦²à¦ķà¦ªà¦²à¦ķà¦ªà¦²à¦ķà¦ªà¦²à¦ķà¦ª
à¦¨ à¦ļà¦²à¦Ľ
à¦¨ à¦ĩà¦īà¦°
à¦ķ à¦ĩà¦ķ
à¦ķ à¦¶à¦¬
à¦ķ à¦ĵà¦¶
à¦¬ à¦¬à¦¨
à¦¬ à¦ķà¦¤
à¦¬ à¦°à¦ħà¦¨
à¦¬ à¦ļà¦¤
à¦¤ à¦ħà¦ªà¦¸
à¦¸ à¦ĵà¦¦
à¦¸ à¦Ĺà§ľ
à¦® à¦¬à¦¸
à¦® à¦Ĩà¦¶
à¦® à¦Ĩà¦¸à¦²
à¦ª à¦ıà¦ķà¦Ł
à§Ł à¦®à¦¦
à§Ł à¦īà¦ªà¦¸
à§Ł à¦ħà¦Ĺ
à§Ł à¦ħà¦ľ
à¦Ł à¦ķà¦Ł
à¦Ł à¦Ĩà¦°
à¦Ł à¦ªà¦¦
à¦¶ à¦Ĩà¦²
à¦¶ à¦®à¦¹
à¦Ĺ à¦ıà¦¨
à¦Ĩ à¦ķà¦¤
à¦ļ à¦ļ
à¦ķà¦° à¦¬à¦¨
à¦· à¦Ĩà¦¬
à¦Ń à¦ļ
à¦¥ à¦°à¦¬
à¦ĵ à¦ĵà§Ł
à¦ĵ à¦¤à¦¬
à¦ĵ à¦ħà¦²
à¦°à¦¸ à¦¬à¦¸
à¦°à¦ª à¦°à¦Ľ
à§¨ à§¨à§¦à§¦à§¦
à¦°à¦¤ à¦ĸà¦¨
à§ĥ à§ĥ
à¦®à¦¨ à¦¹à¦¬
à¦ıà¦ķ à¦ĩà¦ª
à¦ĺ à¦ľ
à¦ªà¦¨ à¦¶
à¦ĩà¦¸ à¦Ł
à¦ķà¦¬ à§ľ
à§İ à¦¸à¦°
à¦ķà¦¦ à¦²à¦Ĺ
à¦ķà¦¨ à¦Ĺ
à¦Ĩà¦Ĺ à¦·
à¦Łà¦ķ à¦ıà¦ķ
à§§à§¦ à§«
à¦·à§Ł à¦¸à¦®
à¦¤à¦¹à§Ł à¦¯
à¦ħà¦¬à¦¸ à¦°
à§§à§Ń à§¬
à§§à§© à§Ń
à¦°à¦ĸà¦¬ à¦°à¦ľ
à¦Ĩà¦¹à¦¤ à¦¦
à¦«à¦Ł à¦ĵà¦¯
à¦¯à¦¤à¦® à¦ķ
à§¦à§« à§ªà§¬à§§
à§¯à§®à§¨à§ª à§¦à§Ńà§¨
à§¯à§®à§¨à§ª à§¦à§«à§ªà§¬à§§
à§¯à§®à§¨à§ªà§¦à§¬ à§¨
à§¯à§®à§¨à§ªà§¦à§¬ à§©
à§¯à§®à§¨à§ªà§¦à§¬ à§¬
à¦¨ à¦ĩà¦¨à¦¸
à¦¨ à¦²à¦Ĺà¦ĩà¦¨
à¦ķ à¦ĩà¦®
à¦ķ à¦°à¦ĸ
à¦¬ à¦Ĩà¦°
à¦¤ à¦ıà¦ķà¦¸
à¦® à¦ıà¦Ł
à¦² à¦¹à¦ļ
à¦² à¦°à¦¹à¦¤
à¦¦ à¦ķà¦²
à¦¯ à¦ªà§ľ
à¦¹ à¦ĵà¦¤
à¦¹ à¦Łà¦¸
à¦¶ à¦ĺà¦Ł
à¦ĩ à¦ıà¦¨
à¦ĩ à¦ıà¦°à¦ķ
à¦Ĩ à¦°à¦¯à¦¦
à¦ı à¦°à¦ħà¦§
à¦§ à¦Ĩà¦Ľ
à¦¥ à¦Ľ
à¦¥ à¦ĵà¦¬
à¦¥ à¦ķà¦ķ
à¦ĸ à¦°à¦ªà¦°
à¦ĵ à¦¦à¦ķ
à¦« à¦¶
à¦²à¦ķ à¦ľ
à¦°à¦ı à¦¸à¦¬
à¦¤à¦¬ à¦Ļ
à¦¹à¦¤ à¦Ń
à¦¦à¦ķ à¦®à¦¨
à¦ĩà¦ķ à¦ª
à¦°à¦ĩ à¦ĸ
à¦°à¦ĩ à¦ıà¦ķà¦Ł
à¦·à¦£ à¦¹
à¦¤à¦® à¦ĵà¦Ń
à¦§à¦° à§Ł
à¦ĩà¦Ł à¦ĵà§Ł
à§¨à§§ à§¦
à¦²à¦¹ à¦ķà¦¬
à¦ĩà¦ľ à¦²
à¦¨à¦ĵ à¦ĸ
à¦ħà¦« à¦¸
à¦«à¦² à¦¦
à¦ıà¦ĸà¦¨ à¦ĵà¦ķ
à¦¤à¦¤ à¦¤
à§§à§ª à§¬
à¦°à¦®à¦£ à¦¸
à§ľà¦ķ à¦īà¦¨
à¦Łà¦« à§ľ
à¦·à§Łà¦ķ à¦®à¦¨
à¦°à¦ªà¦°à¦¬ à¦Ľ
à¦ĩà¦¨à¦« à¦°à¦®
à¦¯à¦Łà¦¨ à¦¶
à¦·à¦ĸà¦¬à¦° à¦ķà¦°
à¦¬ à¦Ĺà¦¤
à¦¬ à¦°à¦¸à¦¨
à¦¸ à¦°à¦¦
à¦² à¦īà¦ª
à¦² à¦ĵà¦¶
à¦¯ à¦ĵà¦¨
à¦¯ à¦ļà¦°
à§Ł à¦ħà¦ŀ
à¦Ł à¦¸à¦ª
à¦¶ à¦ĵà¦®
à¦¶ à¦ĵà¦ľ
à¦Ĺ à¦°à¦ķ
à¦Ĺ à¦¤à¦¨
à¦ı à¦¡à¦®
à¦ĸ à¦ľà¦¨à¦ķ
à¦ªà¦° à¦²
à¦ľà¦¨ à¦¶à¦¨
à¦°à¦Ĩ à¦ŀ
à¦°à¦Ĩ à¦ĵà¦¯
à¦¨à¦¸ à¦ļ
à¦¨à¦¸ à¦ŀ
à¦²à¦ķ à¦°à¦Ľ
à¦°à¦ı à¦ĩà¦°
à§Łà¦¨ à¦ľ
à§¯ à§¨
à¦®à¦¤ à¦ĸà¦¨
à¦°à¦¥ à¦®à¦ķà¦°
à§Łà¦¸ à¦Ļ
à¦ķà¦¦ à¦°
à¦¯à¦® à¦«
à¦¶à¦ķ à¦²à¦ķ
à¦°à¦īà¦ª à¦°à¦ļ
à¦²à§Ł à¦Ł
à¦°à¦¡ à¦¬
à¦²à¦¦ à¦¶
à¦®à¦® à¦Ń
à¦¨à¦ıà¦ĩ à¦Ń
à¦¤à¦¹ à¦¨
à¦¤à¦°à¦£ à¦¶
à¦¸à¦« à¦Łà¦ĵà¦¯
à¦²à¦Ĩ à¦¯à¦¹
à¦¬à¦°à¦£ à¦¸
à¦īà¦Ń à§Łà¦ªà¦ķ
à¦°à¦¬à§ľ à¦Ń
à¦°à¦°à¦® à¦®
à¦ķ à¦ĩà¦īà¦ª
à¦ķ à¦ħà¦Ļ
à¦ķ à¦Ĩà¦¹à¦®à¦¦
à¦¬ à¦īà¦¨
à¦¸ à¦ħà¦°
à¦¸ à¦Ĩà¦¨
à¦® à¦ĵà¦¯
à¦® à¦Ĳ
à¦ª à¦ĵà¦®
à¦ª à¦īà¦ªà¦¨
à¦¦ à¦¹à¦²
à¦¦ à¦ĵà¦¯
à¦¯ à¦ĵà¦ķ
à§Ł à¦ĵà¦®
à¦ľ à¦ı
à¦ľ à§Łà¦¸
à¦¶ à¦ĩà¦¤
à¦Ĺ à¦°à¦¦
à¦ĩ à¦°à¦¹
à¦ĩ à¦Ĺà¦²
à¦ĩ à¦§à¦°à¦¨
à¦Ĩ à¦¤à¦¬
à¦Ĩ à¦¦à¦¨
à¦ķà¦° à¦¯
à¦¥ à¦°à¦ĺ
à¦¥ à¦¹à¦ĵà§Ł
à¦ĸ à¦ķà¦ķ
à¦°à¦ķ à¦¡
à¦°à¦ķ à¦¤à¦Ł
à¦°à¦¬ à¦ī
à¦£ à¦īà¦ĩà¦®
à§§ à§¨à§¦à§§à§©
à§ľ à¦¥
à¦ıà¦ķ à¦Ľ
à¦¬à¦¸ à¦°à¦ķ
à¦¨à¦ķ à¦²à¦ķà¦°
à¦ĩà¦² à¦¤
à¦¦à¦ķ à¦°à¦Ľ
à¦²à¦¸ à¦Ń
à¦¨à¦Ĺ à¦°à¦īà¦¤
à¦®à¦ķ à¦ıà¦ķà¦Ł
à¦Ĩà¦¨ à¦Ľ
à¦°à§Ł à¦£à¦ª
à§¨à§¦à§¨à§§ à§¦à§¯
à¦īà¦ľ à¦Ĺ
à¦·à§Ł à¦ķà¦¬
à¦«à¦² à¦ľ
à¦²à¦Ĺ à¦ķà¦°
à§§à§« à§Ń
à¦¨à§Ł à¦¨à¦®
à¦°à¦®à¦£ à¦®
à§§à§¬ à§¦
à¦¶à¦¹ à¦°à¦Ĺ
à¦¬à§ľ à¦¬à§ľ
à¦Ĩà¦ĩ à¦ı
à¦Ĩà¦ĩ à¦ıà¦®
à¦¤à¦ĸ à¦¨à¦®
à¦¸à¦ķà¦² à¦¶
à§§à§¯à§® à§¯
à§®à§§à§® à§¯à§¯
à¦° à¦°à¦¨
à¦¨ à¦ªà¦¨
à¦ķ à¦¤à¦¨
à¦ķ à¦Ľà¦¬
à¦ķ à¦Ĩà§Ł
à¦¬ à¦¶à¦°
à¦¬ à¦ĵà¦ķ
à¦¬ à¦°à¦ĩà¦¤
à¦¤ à¦īà¦¨
à¦¤ à¦²à¦Ń
à¦¸ à¦°à¦¯
à¦¸ à¦ħà¦«
à¦® à¦ĵà¦¦
à¦² à¦ıà¦¤
à¦ª à¦²à¦ķ
à¦¦ à¦°à¦¹à¦®
à¦¯ à¦¤à¦¨
à¦¯ à¦Ĩà¦ĩà¦¨
à¦¯ à§İà¦ķ
à§Ł à¦¤à¦ķà¦°
à¦Ł à¦ĵà¦¬
à¦ľ à¦¹à¦²
à¦ľ à¦¢
à¦¶ à¦īà¦¨
à¦¶ à¦ªà¦¤
à¦Ľ à¦ķà¦°
à¦ī à¦ľà¦¶
à¦£ à¦¤à¦¹à¦¯
à§¦ à§©à§¦
à¦°à¦¤ à¦Ĺ
à¦°à¦£ à¦Ĩà¦ªà¦¨
à¦°à¦ĵ à¦Ľ
à¦°à¦Ń à¦¦
à§İ à¦¥
à§Łà¦¨ à¦Ń
à¦®à¦¸ à¦ķ
à¦¤à¦¨ à¦Ľ
à¦°à¦Ł à¦¸
à¦¨à¦Ĺ à¦°à¦¦
à¦¬à¦ª à¦°à¦¬
à¦¬à¦Ľ à¦°à¦¤
à§¨à§¦à§¨à§§ à§§à§©
à¦īà¦ľ à¦²
à¦Ĺà¦£ à¦Ł
à¦Ī à¦°
à¦Łà¦ª à¦¸
à¦°à¦ıà¦ķ à¦ªà¦°
à¦°à¦ıà¦ķ à¦ľà¦¨à¦ª
à¦¯à¦ķà¦° à¦¸
à¦ķà¦°à¦£ à¦ª
à¦²à¦Ĩ à¦¹à¦®à¦¦
à¦ķà¦ľà¦¨ à¦¤
à¦¹à¦°à¦£ à¦¦
à¦¦à¦®à¦¨ à¦ķà¦®
à¦ķà¦¬à¦Ľ à¦°à¦§à¦°
à¦ķ à¦ĩà¦¸
à¦ķ à¦īà¦ªà¦¨
à¦¬ à¦ķà¦°à¦¤
à¦¬ à¦Ĩà¦¦
à¦¤ à¦ĩà¦¸
à¦¤ à¦ħà¦ªà¦°
à¦® à¦Ĩà¦Ľ
à¦² à¦ıà¦ĸà¦¨
à¦¯ à¦ıà¦¸
à§Ł à¦°à¦¨
à§Ł à¦ħà¦ªà¦°
à§Ł à¦²à¦ķà¦¡
à¦Ł à¦²à¦®
à¦¶ à¦ĵà¦¦
à¦Ĺ à¦Ĩà¦®
à¦ĩ à¦°à¦¬
à¦ĩ à¦ĺà¦Ł
à¦ĩ à¦ıà¦ķà¦¦
à¦Ĩ à¦°à¦Ľ
à¦¥ à¦ķà¦¬
à¦ĵ à¦Ĩà¦ķ
à¦ĵ à¦ħà¦ª
à¦ī à¦¨à¦¨
à¦« à¦²à¦®
à¦« à¦°à¦ĩà¦ķà¦¬
à¦°à¦® à¦¤à¦¸
à¦°à¦ª à¦°à¦²
à§¨ à§¨à§¦à§§à§©
à§¦ à§¨à§¨
à¦°à¦ľ à¦Ł
à¦°à¦Ĩ à¦«
à¦ĺ à¦¨à¦ķà¦°
à¦¤à¦¬ à¦¹
à§Łà¦¨ à¦ħà¦Ĺ
à¦¯à¦ķ à¦²à¦ķ
à¦°à¦¥ à¦®à¦²
à¦¤à¦¨ à¦¸à¦®
à¦¦à¦ķ à¦¡
à¦°à¦¸à¦® à§Łà¦¶
à§Łà¦¸ à¦ķà¦²
à¦¨à¦Ĺ à¦°à¦īà¦ªà¦ľ
à¦¨à¦ı à¦°à¦¬
à¦®à¦ķ à¦°à¦£à¦ķà¦°
à¦ıà¦² à¦¡
à¦¦à¦² à¦¥
à¦°à¦īà¦ª à¦°à¦¥
à¦¬à¦¹ à¦¨à¦ķ
à§¨à§ª à§¦
à§¨à§ª à§©
à§§à§¨ à§®
à¦ıà¦ĸà¦¨ à¦ĵà¦ªà¦°
à¦¶à¦® à¦ľ
à¦ıà¦® à¦Ń
à§§à§§ à§§
à¦¹à¦ķ à¦¹
à§¨à§Ń à§¦
à¦ıà¦« à¦ıà¦«
à§§à§¯à§Ń à§ª
à§§à§¯à§¯ à§©
à§¯à§® à§¨à§©à§¦
à§§à§¨à§¦ à§©
à¦ıà¦¸à¦®à§Ł à¦īà¦ªà¦¸
à¦Ĺà¦®à¦¨ à¦ķà¦°
à¦°à¦Ĩà¦ļ à¦°à¦£
à§¯à§®à§¨à§©à§¦ à§Ńà§©
à¦° à¦°à¦ª
à¦¨ à¦ĩà¦īà¦ª
à¦ķ à¦ķà¦°à¦¬
à¦ķ à¦ħà¦ª
à¦¬ à¦ªà¦¤
à¦¤ à¦Ĩà¦¶
à¦¤ à¦Ĩà§Ł
à¦¤ à¦Ĳà¦¤
à¦¸ à¦°à¦²
à¦® à¦ħà¦¤
à¦® à¦ıà¦ĸ
à¦² à¦Ĺà¦°
à¦¦ à¦¸à¦¹
à§Ł à¦¦à¦ķ
à§Ł à¦¤à¦®
à§Ł à¦ħà¦ķ
à§Ł à¦īà¦ł
à§Ł à¦ıà¦ĩà¦¬
à¦Ł à¦°à¦¹
à¦Ł à¦°à¦ľà¦®
à¦¶ à¦²à¦Ĺ
à¦Ĺ à¦ķà¦²
à¦ĩ à¦ıà¦ķà¦ľà¦¨
à¦ļ à§Łà¦ķà¦°
à¦ĵ à¦Ĩ
à¦¡ à¦Ĺà§ľ
à¦« à¦ĸ
à¦« à¦²à¦ķ
à¦« à¦¨à¦¦
à§¦ à§§à§®
à¦¸à¦® à§Łà¦®
à¦¨à¦¬ à§ľ
à¦°à¦£ à¦²
à¦¨à¦¸ à¦°à¦¬à¦°
à¦¨à¦¨ à¦Ĺ
à¦¨à¦¨ à¦ľà¦°
à¦¶à¦¨ à¦ľ
à¦°à¦Ń à¦Ļ
à¦¹à¦¤ à¦¤
à¦¤à¦¨ à¦°
à¦ķà¦Ł à¦ıà¦¬
à¦ķà¦Ł à¦ķà¦¬
à¦¦à¦¨ à¦¹
à¦°à¦¸à¦® à§Łà¦¯
à¦¨à¦Ĩ à¦²à¦ķ
à¦ĩà¦Ł à¦²
à¦¨à¦Ĺ à§ľ
à¦¨à¦ı à¦°à¦ªà¦°
à¦¶à¦ķ à¦¨à¦¸
à¦ĵà¦¬ à¦¹
à¦¦à¦¸ à¦°à¦ķ
à¦Ĺà¦² à¦ħ
à¦īà¦ľ à¦®
à¦«à¦² à¦Ń
à¦°à¦¥à¦® à¦ĩà¦¨
à¦ıà¦¨ à¦ĵà¦¸
à§§à§¬ à§¬
à¦Īà¦¦ à¦°à¦¹
à¦īà¦¡ à¦ħà¦Ń
à¦¤à¦°à¦ª à¦¶
à¦ĵà¦ĩ à¦ıà¦²
à¦²à¦¹à¦ķ à¦¬à¦²
à¦ļà¦°à¦® à¦¬
à¦¨à¦Ĩà¦¤ à¦Ļ
à¦¶à¦¨à¦ħ à¦¬à¦¬
à¦¬ à¦°à¦ļ
à¦¤ à¦Ŀ
à¦¤ à¦ĺà¦Ł
à¦¤ à¦Ńà¦°
à¦¸ à¦ĵà¦ķ
à¦® à¦ĵà¦ª
à¦² à¦Ĩà¦ĩà¦¨
à¦¦ à¦ĵà§Ł
à¦¯ à¦ŀ
à¦¯ à¦ıà¦ĸà¦¨
à¦¯ à¦¹à¦ĵà§Ł
à¦ľ à¦ķà¦¬
à¦ľ à¦ķà¦¨
à¦ľ à¦®à¦¬
à¦¶ à¦®à¦¤
à¦¶ à¦ĵà¦ķ
à¦ĩ à¦ıà¦°à¦ª
à¦ĩ à¦ħà¦¬à¦¶
à¦ı à¦§à¦°à¦£
à¦ļ à¦°à¦«
à¦· à¦°à¦ķà¦°
à¦· à¦īà¦¦
à¦· à¦¤à¦¥
à¦§ à¦°à¦¬
à¦§ à¦Ĩà¦®
à¦ĸ à¦¢
à¦ĵ à¦ľà¦°
à¦ħ à¦²à¦°
à¦°à¦¸ à¦¬à¦¦
à¦°à¦¬ à¦ľ
à¦£ à¦¹à¦¯
à§§ à§¨à§¦à§§à§ª
à¦ĺ à¦°à¦¦
à¦ĺ à¦¸à¦®à¦¯
à¦°à¦£ à¦¹à¦¬
à¦°à¦£ à¦ķà¦°à¦²
à¦ªà¦¨ à¦«
à¦°à¦ħ à¦¸à¦®
à¦¤à¦¬ à¦ķà¦ħà¦°
à¦°à¦ĵ à¦¡
à¦°à¦Ĺ à¦£à¦¤
à¦¨à¦® à¦£
à¦¯à¦ķ à¦ķ
à¦ļà¦² à¦Ń
à¦ļà¦² à¦¥
à¦°à¦¸à¦® à§Łà¦Ĺ
à¦°à¦« à¦¸
à§Łà¦ķ à§Ł
à§§à§¯ à§«
à§Łà¦¦ à¦ĩà¦¬à¦¨
à¦¤à¦¸ à¦Ļ
à¦°à¦ĺ à¦Ł
à¦·à¦ķ à¦Ĩà¦¨
à§§à§« à§¯
à§§à§Ń à§¦
à¦°à¦®à¦£ à¦¶
à¦¹à¦ľ à¦°à¦¤
à¦°à¦ķà¦® à¦Ń
à¦ķà¦°à¦£ à¦ķ
à¦¬à§ľ à¦®
à¦ĩà¦Ľ à§ľ
à¦ĩà¦¨à¦¸ à¦¹
à¦°à¦¸à¦ķà¦² à¦¸
à¦°à¦Ī à¦®
à¦¨ à¦¹à§Łà¦¨
à¦¨ à¦°à¦Ļ
à¦ķ à¦ıà¦ĩ
à¦¬ à¦ªà§ľ
à¦¤ à¦¦à¦ķ
à¦¤ à¦¦à¦²
à¦® à¦Ĩà¦Ĺ
à¦® à¦ĵà¦¤
à¦® à¦ıà¦¨
à¦² à¦ļà¦¨
à¦¦ à¦°à¦ļ
à¦¦ à¦ĩà§Ł
à§Ł à¦°à¦¸à¦¹à¦¸à¦Ń
à¦¶ à¦ıà¦ķà¦Ł
à¦¶ à¦ĺà¦Łà¦¨
à¦¶ à¦ıà§Ł
à¦Ĺ à¦ľà¦¨
à¦ĩ à¦«à¦²
à¦ı à¦ıà¦¸
à¦ĸ à¦Ĩà¦Ľ
à¦ĵ à¦¦à¦°
à¦« à¦Łà¦Ĺ
à§ľ à¦¶
à¦ıà¦ķ à¦ĺà¦£
à¦°à¦¨ à¦°
à¦°à¦Ĩ à¦°à¦¤
à¦ĺ à¦°à¦ª
à¦°à¦ı à¦ĩà¦²
à§© à§©à§¦
à¦ķà¦² à¦ķà¦°
à§Ń à§¦à§Ń
à¦¦à¦¨ à¦ħà¦°
à¦·à¦£ à¦¯
à¦¤à¦® à¦°à¦¦
à§§à§¯ à§«à§¨
à¦°à§Ł à¦ª
à¦Łà¦ķ à§Ł
à¦ĵà¦ª à¦¦
à¦²à¦ª à¦²
à§§à§¦ à§¨
à¦ªà¦ķ à¦°à¦Ľ
à¦ľà¦¶ à¦°
à¦¨à¦Ł à¦°à¦¡
à¦°à¦¡ à¦Łà¦ķà¦®
à¦·à¦ķ à¦Ĺ
à§§à§¬ à§«
à¦Ĺà¦® à¦Ĺà¦ŀ
à¦¨à¦ħ à¦Ļ
à¦°à¦ĸà¦¬ à¦°à¦¸
à¦²à¦Ĩà¦² à¦®à¦®
à¦¬à¦°à¦¸ à¦¤à¦°
à§§à§¯à§¯ à§ª
à¦¤à¦¬à¦Ľ à¦°à¦¬à§Łà¦¸
à¦īà¦¥ à¦Ĩà¦«
à¦Łà¦¸à¦ķà¦² à¦¶
à¦¨ à§Łà¦®
à¦¨ à¦°à¦ļà¦¨
à¦ķ à¦ĩà¦°
à¦ķ à¦ħà¦¬
à¦¬ à¦ł
à¦¤ à¦°à¦ªà¦°
à¦¤ à¦ĵà¦¨
à¦¤ à¦ļà¦ķ
à¦¸ à¦¦à¦ķ
à¦¸ à¦ĵà¦ľ
à¦² à¦ħà¦¬à¦¸
à¦² à¦ĵà¦°
à¦² à¦ĵà¦¹
à§Ł à¦ıà¦ĺà¦Łà¦¨
à¦Ł à¦¤à¦¥
à¦ľ à¦®à¦¹
à¦ľ à¦¹à¦ļ
à¦¶ à¦°à¦ķ
à¦¶ à¦¤à¦ķà¦°
à¦ĩ à¦ĵà¦¬
à¦ĩ à¦Ĩà¦ľ
à¦Ľ à¦Ń
à¦· à¦¤à¦¬
à¦· à¦Ĩà¦Ľ
à¦· à¦¹à§Łà¦¨
à¦Ń à¦¬à¦ª
à¦ĵ à¦ķà¦¬
à¦ĵ à¦Ŀ
à¦¡ à¦Ĩà¦®
à¦¡ à¦ĩà¦īà¦¨
à¦°à¦¸ à¦¨à¦¦
à¦°à¦¬ à¦ĩà¦Ł
à¦°à¦® à¦¨à¦ľ
à¦°à¦ª à¦°à¦ªà¦°
à¦ľà¦¨ à¦¸à¦ļ
à¦°à¦ľ à¦Ĺ
à¦ŀ à¦¡
à¦¨à¦¸ à¦¬à¦ļ
à¦°à¦ħ à¦¬à¦¤
à¦²à¦¨ à¦°
à¦¤à¦¨ à¦Ĩà¦¨
à¦ĩà¦² à¦ıà¦¬
à¦·à¦£ à¦ķà¦°à¦²
à¦°à¦¸à¦® à§Łà¦ľ
à¦¨à¦Ĩ à¦¯
à¦¨à¦Ĩ à¦§
à¦®à¦¦ à¦Ĩà¦¬
à§§à§¯ à§ªà§®
à§§à§¯ à§¬à§¬
à¦¨à¦¶ à¦¤
à¦¬à¦Ľ à¦°à¦¸
à¦¨à¦®à¦¨ à¦¸
à¦ħà¦¬à¦¸ à¦°à¦¸
à¦ħà¦ª à¦ķà¦°
à¦Łà¦¸ à¦¸
à¦ĩà¦¡ à¦ª
à§§à§® à§Ń
à¦¨à¦Ĩà¦² à¦¬
à¦ħà¦¥ à¦ļà¦¤
à¦°à¦¬à¦Ľ à¦°à¦Ĩà¦Ĺ
à¦ķà¦Ĩà¦¤ à¦Ľ
à¦¨à¦«à¦² à¦Ľ
à¦·à¦¦à¦¸ à¦ļ
à§§à§¨à§©à§ªà§«à§¬à§Ńà§®à§¯ à§§à§¦à§§à§§à§§à§¨à§§à§©à§§à§ªà§§à§«à§§à§¬à§§à§Ńà§§à§®à§§à§¯à§¨à§¦à§¨à§§à§¨à§¨à§¨à§©à§¨à§ªà§¨à§«à§¨à§¬à§¨à§Ńà§¨à§®à§¨à§¯à§©à§¦
à¦¨ à¦¹à§Łà¦¤
à¦ķ à¦ıà¦ª
à¦¤ à¦ĵà¦¤
à¦¤ à¦ıà¦ķà¦¬
à¦® à¦¤à¦°
à¦® à¦ĩà¦īà¦¨
à¦® à¦ıà¦ĸà¦¨
à¦® à¦¶à¦¹
à¦² à¦¯à¦¦
à¦² à¦°à§Ł
à¦ª à¦¨à¦¤
à¦ª à¦¸à¦°
à¦ª à¦ķà¦°à¦¬
à¦¦ à¦ħ
à¦¯ à¦ĩà¦¦
à¦¯ à¦¸à¦¬à¦ļ
à§Ł à¦Ĺà¦°
à§Ł à¦Ľà¦¬
à§Ł à¦Ĩà¦¸à¦Ľ
à¦¶ à¦²à¦ķ
à¦ĩ à¦°à¦¶
à¦ĩ à¦¹à§Łà¦¨
à¦ĩ à¦ĩà¦īà¦ª
à¦ĩ à¦ıà¦®à¦¨à¦ķ
à¦ļ à¦ĺ
à¦· à¦¸à¦°à¦ķ
à¦· à¦¸à¦®à§Ł
à¦ĸ à¦ķà¦°à¦¤
à¦ĵ à¦°à¦¦
à¦¡ à¦Ĩà¦ĵà§Ł
à¦ī à¦¡à¦¸
à¦°à¦¬ à¦¸à¦¬
à¦°à¦ª à¦°à¦Ĩà¦ªà¦¨
à§¨ à§¨à§¦à§§à§ª
à¦¬à¦¨ à¦ķà¦°à¦¤
à¦°à¦Ĩ à¦¨à¦ĵà¦¹
à¦ĺ à¦°à¦ķ
à¦°à¦£ à¦ıà¦ķà¦Ł
à¦°à¦£ à¦ķà¦°à¦¬
à¦°à¦ħ à¦¯
à¦ıà¦ĩ à¦ĵà§Ł
à¦¨à¦¨ à¦ĵà¦Ĺ
à§İ à¦ļà¦¨
à¦°à¦ĩ à¦®à¦§
à¦°à¦« à¦ľà¦²
à¦ļà¦¨ à¦īà¦ªà¦²à¦ķ
à¦¨à¦Ĺ à¦£à¦®
à¦¨à¦ı à¦°à¦ªà¦°à¦¤
à§§à§¯ à§«à§¦
à§§à§¯ à§¬à§ª
à¦¬à¦¬ à¦Ļ
à§§à§¦ à§§à§¨
à¦²à¦¹ à¦ķà¦ª
à¦¨à¦ĵ à¦«
à¦ıà¦®à¦¨ à¦¨
à¦°à¦ıà¦ķ à¦ļ
à¦°à¦¥à¦® à¦¥
à¦°à¦ĵà¦ª à¦°à¦ļ
à§¨à§Ń à§Ń
à¦Ĩà¦Ł à¦ķà¦ª
à¦ķà¦ľà¦¨ à¦¨
à¦°à¦¸à¦ķà¦² à¦ª
à¦ıà¦ĩà¦¸à¦®à§Ł à¦¡
à¦¬ à¦§à¦°
à¦¤ à¦ĵà¦¯
à¦¤ à¦īà¦ļ
à¦¤ à¦ļà¦°
à¦¸ à¦°à¦£à¦ķà¦°à¦¤
à¦® à§Łà¦ª
à¦ª à¦Ĩà¦²
à¦ª à¦¸à¦¨
à¦¦ à¦§à¦°
à¦¦ à¦Ĩà¦°
à¦¯ à¦²à¦ķ
à¦¯ à¦¸à¦®à§Ł
à¦¯ à¦ĩà¦Ĩà¦®
à¦¹ à¦ı
à¦¹ à¦ķà¦¸
à¦¹ à¦ĩà¦¸à¦²
à¦ľ à¦Ĩà¦Ľ
à¦Ľ à¦Ĩà¦²
à¦ķà¦° à§Ł
à¦ĸ à§ľ
à¦ĵ à¦¹à¦¬
à¦ħ à§Ł
à¦ħ à¦®à¦¸
à§ľ à¦ķà¦®
à¦ľà¦¨ à¦Ĩà¦¹à¦¤à¦¹à§Ł
à¦Ļ à¦¤
à¦ĺ à¦°à¦¸
à¦¨à¦¤ à¦ķà¦°à¦¤
à§İ à¦¸à¦®
à§Ń à§¨à§¦à§¨à§§
à¦ķà¦Ł à¦¬
à¦ļà¦² à¦Ł
à¦ļà¦¨ à¦¶
à¦¨à¦Ĩ à¦ĵà¦¯
à¦ªà§ľ à¦ªà¦°
à¦®à¦¹ à¦®
à¦®à¦¦ à¦¶à¦¹
à¦¸à¦ķ à¦²à¦¨
à¦¬à¦Ľ à¦°à¦Ľ
à¦Ĩà¦¦ à¦®à¦Ĩ
à¦·à§Ł à¦¹à¦²
à¦°à¦ĺ à¦£
à¦°à¦¡ à¦ĵà§Ł
à¦ħà¦¬à¦¸ à¦°à¦ķ
à¦¶à¦¤ à¦¶
à¦ıà¦®à¦¨ à¦¦
à¦¸à¦¦ à¦°à¦¦
à§§à§© à§ª
à¦¨à¦« à¦ĸà¦°
à¦¨à¦ıà¦ĩ à¦²
à§¨à§« à§¨à§¦à§¨à§§
à¦¨à¦¸à¦® à¦°
à¦°à¦ĵà¦ª à¦°à¦Ĺ
à¦°à¦ĸà¦¬ à¦°à¦¨
à§¦à§Ń à§¨à§§à§Ń
à§§à§¯à§¯ à§«
à¦°à¦Ĺà¦£ à¦¹à¦¤
à¦«à¦« à¦°à¦¹
à¦°à¦ĵà¦¶à¦¨ à¦ıà¦°à¦¶
à¦¨ à¦ĩà¦ķ
à¦¨ à§Łà¦ª
à¦¨ à¦Īà¦¦
à¦ķ à¦ĩà§Ł
à¦¬ à¦°à¦ĩ
à¦¬ à¦ľà¦°
à¦¬ à¦ľà¦¨à¦ª
à¦® à§Łà¦¹
à¦² à¦¤à¦°
à¦² à¦ĵà¦¤
à¦² à¦ħà¦¶
à¦ª à¦¹à¦¬
à¦ª à¦īà¦¦
à¦ª à¦ķà¦¦
à¦ª à¦ĵà¦¬
à¦¯ à¦ĩà¦¬à¦¨
à¦¯ à¦ħà¦«
à§Ł à¦¸à¦®à¦¸
à¦¹ à¦°à¦Ń
à¦Ĺ à¦Ĩà¦Ĺ
à¦Ĩ à¦īà¦²
à¦ı à¦°à¦¥
à¦Ľ à§Ł
à¦· à§Łà¦¸
à¦Ń à¦¡
à¦§ à¦ĵà¦®
à¦ĸ à¦ķà¦¸à¦®
à¦ĵ à¦ħà¦¶
à¦°à¦¬ à§Ł
à¦°à¦¦ à¦£
à¦°à¦Ĩ à¦ķà¦°
à¦¹à§Ł à¦ıà¦ķ
à¦¹à§Ł à¦Ĩà¦ªà¦¨
à¦¬à¦° à¦²
à¦°à¦ı à¦°à¦®
à¦ĩà¦¨ à¦ıà¦¬
à¦¨à¦ª à¦ķ
à¦¶à¦¨ à¦ħà¦¨
à¦®à¦¸ à¦ļ
à¦ķà¦Ł à¦¦
à¦ıà¦¸ à¦ĩà¦¤
à¦ıà¦¸ à¦ıà¦²
à¦°à¦ĩ à¦Ľ
à¦ļà¦¨ à¦ĺà¦¡
à¦ĩà¦¬ à¦Ļ
à¦¸à¦¹ à¦¸à¦Ń
à¦¸à¦¹ à¦ľà¦ķà¦°
à¦Ĺà¦¤ à¦¤à¦¥
à¦Ĺà¦£ à¦¬
à§§à§¨ à§¯
à§§à§« à§«
à¦ĩà¦¡ à¦®
à¦°à¦ıà¦ķ à¦ľà¦¨à¦¬
à¦ªà¦¸ à¦ıà¦¨
à¦¤à¦¹ à¦¨à¦¤
à¦ķà¦ļ à¦°
à¦¨à¦¬à¦² à¦Ľ
à¦Łà¦¬à¦² à¦¦à¦²
à¦·à§Łà¦ķ à¦ª
à¦Ĩà¦ļ à¦°à¦£à¦ķà¦°
à§¦à§¬ à§©
à¦¸à¦«à¦² à¦Ń
à¦°à¦ľà¦¨à¦Ĺà¦£ à¦ķ
à¦¨ à¦°à¦¶
à¦ķ à¦ĩ
à¦ķ à¦¨à¦¬
à¦ķ à¦ķà¦¨
à¦ķ à¦¹à¦ļ
à¦¬ à¦°à¦ĵ
à¦¤ à¦°à¦ħà¦¨
à¦¤ à¦ļà¦Ł
à¦¤ à¦°à¦ŀ
à¦¸ à¦§
à¦® à¦ıà¦²
à¦® à¦łà¦¬
à¦ª à¦ļà¦²à¦ļ
à¦¦ à¦ĵà¦¸
à¦¯ à¦°à¦¹
à¦¯ à¦ıà¦ĩà¦¬
à§Ł à¦ıà¦ķà¦¬
à¦ľ à¦ıà¦ķ
à¦ľ à¦ĵà¦¯
à¦¶ à¦ĩà¦®
à¦ĩ à¦ıà¦ª
à¦Ĩ à¦°à¦ªà¦°
à¦ı à¦ħà¦Ń
à¦ļ à¦Ĩà¦¨
à¦°à¦¬ à¦ĩà§Ł
à¦°à¦® à¦¬à¦¨
à¦£ à¦¤à¦¥
à¦°à¦¤ à§İà¦ķ
à§Ĥ à¦ĥ
à¦®à¦¨ à¦Ĩà¦®
à¦ł à¦ķà¦ķ
à¦°à¦Ĩ à¦¨à¦ķ
à¦°à¦£ à¦ķà¦°à¦Ľ
à¦°à¦ħ à¦ªà¦®
à¦²à¦ķ à¦Ĩà¦²
à¦¤à¦¬ à¦¬
à¦ıà¦ĩ à¦¬à¦²
à¦°à¦ļ à¦²à¦Ľ
à¦¨à¦¨ à¦²
à§ª à§§à§©
à¦¹à¦¤ à¦¦à¦°
à§İ à¦Ĺ
à¦®à¦¤ à¦¹
à¦¤à¦¨ à§Ł
à§Łà¦¸ à¦ª
à¦°à¦ĸ à¦¸à§ľ
à¦²à¦Ĺ à¦¨
à¦ĩà¦ī à¦ļ
à¦°à¦¥à¦® à¦§
à¦ıà¦ķà¦ľà¦¨ à¦Ĺ
à¦ľà§Ł à¦ħà¦¨
à¦¤à¦°à¦£ à¦®
à¦°à¦īà¦ªà¦° à¦¯
à§§à§¯à§Ń à§¬
à¦°à¦Ĩà¦²à¦® à¦Ĺ
à¦¸à¦ĵ à¦Ĳà¦¤
à¦ľà¦¸à¦¦ à¦°à¦®
à¦®à¦¨à¦Ĺ à¦°à¦¸
à¦ķà¦¬à¦Ľ à¦°à¦Ĩà¦Ĺ
à¦ķ à¦Ĩà¦ľ
à¦¬ à¦Ĩ
à¦¬ à¦ħà¦²
à¦¸ à¦Ĩà¦ªà¦¨
à¦® à¦ıà¦¤
à¦² à¦¤à¦¨
à¦² à¦¦à¦°
à¦² à¦ĵà¦¨
à¦² à¦ĩà¦ŀ
à¦¦ à¦¹à¦¯
à¦¦ à¦ħà¦°
à§Ł à¦®à¦¬
à§Ł à¦°à¦Ĩà¦¤
à¦¹ à¦ľà¦®
à¦ľ à§Łà¦®
à¦Ĺ à¦¤à¦ķà¦°
à¦Ľ à¦ĸ
à¦°à¦® à§Łà¦¦
à¦£ à¦Ĩà¦Ľ
à§¦ à§¨à§¦
à§¦ à§®à§¦
à¦°à¦£ à¦¹à¦¤
à¦¨à¦¤ à¦¹
à¦¬à¦¸ à¦ĵà§Ł
à¦°à¦ı à¦ĩà¦¯
à¦¤à¦¬ à¦ľ
à¦ıà¦ĩ à¦§à¦°à¦£
à¦°à¦ľà¦¨ à¦Ĺ
à§« à§§à§¦
à¦²à¦¨ à¦ıà¦¬
à¦ķà¦¸ à¦ķ
à¦²à¦¤ à¦ªà¦°
à¦ĩà¦Ł à¦¯
à¦ķà¦¨ à¦¯
à¦¨à¦Ĺ à¦°à¦®
à¦¨à¦ı à§Ł
à§Łà¦¬ à¦¦
à§§à§¯ à§¦
à¦ĩà¦ª à¦¬
à§Łà¦® à¦Ļ
à¦Ĩà¦°à¦ĵ à¦¨
à¦§à¦¨ à¦¸à¦®
à¦²à§Ł à¦ķà¦°
à§§à§¨ à§Ń
à§§à§« à§¨à§¦
à¦ĩà¦ī à¦¬
à§§à§© à§¯
à¦²à¦ľ à§Ł
à¦¹à§Łà¦¤ à¦ĸà¦¨
à¦¬à§ľ à¦¹à§Ł
à§¨à§¬ à§©
à§¨à§¬ à§¨à§¦à§¨à§§
à¦°à¦ıà¦ĩ à¦¸à¦®à§Ł
à¦¨à¦ľà¦¨ à¦Ĺà¦£
à¦¦à¦ĸ à¦²à¦¦
à§Łà¦Ĩ à§ľ
à¦¨à¦¸à¦¹ à¦ħà¦¨
à§§à§¯à§® à§¨
à¦¯à¦īà¦¦ à¦ĺ
à¦°à¦ĩà¦īà¦ı à¦¨à¦ĵ
à¦¨ à¦°à¦¤
à¦¨ à¦°à¦¨
à¦¨ à¦ľà¦¨à¦¨
à¦¨ à¦ļà¦²à¦¤
à¦¨ à¦īà¦ªà¦ķ
à¦ķ à¦Ĩà¦®à¦°
à¦ķ à¦Ĳ
à¦¬ à¦Ĩà¦ªà¦¨
à¦¬ à¦°à¦¸à¦®
à¦¤ à¦ħà¦¨à¦²
à¦¤ à¦°à¦ħà¦¸
à¦¤ à¦ħà¦Ł
à¦¸ à¦¶à¦¨
à¦¸ à¦īà¦¦à¦¯
à¦² à¦ıà¦¦
à¦² à¦ıà¦°à¦ª
à¦ª à¦ħà¦°
à¦ª à¦ļà¦ķ
à¦¦ à¦ıà¦ķ
à¦¦ à¦ĵà¦ª
à¦¦ à¦°à¦ıà¦ķà¦Ł
à¦¯ à¦Ĩà¦ľ
à¦¯ à¦¤à¦ª
à¦¯ à¦ľà¦®
à§Ł à¦ħà¦ª
à§Ł à¦ħà¦¨à¦²
à¦¹ à¦°à¦Ĺ
à¦¹ à¦¹à¦²
à¦¹ à¦Ĩà¦¬
à¦Ł à¦ıà¦®
à¦Ł à¦ľà¦¨à¦ª
à¦ľ à¦ĸà¦®
à¦¶ à¦§à¦°
à¦Ĺ à¦ĵà¦¬
à¦ĩ à¦ĵà¦ķ
à¦ĩ à¦Ĩà¦ľà¦ķ
à¦ĩ à¦¸à¦¬à¦ķ
à¦Ĩ à¦ľà¦¨à¦Ń
à¦ļ à§Łà¦ª
à¦· à¦¸à¦¹
à¦Ń à¦¨à¦¥
à¦ħ à¦®à¦²
à¦ī à¦¨à¦¸
à¦°à¦ķ à§ľ
à¦°à¦¬ à¦¶
à¦°à¦® à¦¤à¦¦
à¦£ à¦Ĩà¦²
à¦£ à¦ķà¦°à¦Ľ
à§ľ à¦¹à§Ł
à¦ıà¦ķ à¦°à¦ľà¦®
à¦°à¦ľ à¦²à¦¸
à¦°à¦Ĩ à¦°à¦®
à¦°à¦Ĩ à¦¨à¦¶
à¦¹à§Ł à¦Ł
à¦ŀ à¦ļ
à¦ªà¦¨ à¦Ń
à¦¬à¦° à¦°à¦¹à¦®
à¦°à¦Ĺ à¦Ńà¦°
à¦ķà¦® à¦®
à¦ķà¦¬ à¦¹
à§İ à¦²
à¦°à¦ī à¦ĩà¦¨à¦¦
à¦²à¦¨ à¦¯
à¦°à¦« à¦²à¦¨
à¦°à¦« à¦°à¦¯
à§Łà¦¸ à§ľà¦ķ
à¦¸à¦¹ à¦ĵà§Ł
à¦¨à¦Ĩ à¦¨à¦¨
à¦ĩà¦Ł à¦¤
à¦¨à¦ı à¦°à¦®
à¦¸à¦ķ à¦Ĺ
à¦¨à¦¯ à¦¶
à¦¬à¦Ľ à¦°à¦¯
à¦Ĺà¦¤ à¦¥
à¦²à¦¹ à¦ķà¦¨
à¦ľà¦® à¦ľà¦®
à¦Ĩà¦ĩà¦¨ à¦¦
à¦¹à¦¸ à¦¦
à¦¤à¦¹ à¦¨à¦¨
à¦®à¦¶ à¦²
à¦·à¦® à¦¹à¦¯
à¦ıà¦¸à¦¬ à¦¦
à¦¤à¦°à¦£ à¦¦
à¦¯à¦ĸ à¦¨à¦¨
à¦®à¦Ĩ à¦¹à¦®à¦¦
à¦°à¦¸à¦®à§Ł à¦Ł
à¦°à¦Ŀ à§ľ
à¦¨à¦ĩà¦® à¦°
à¦ıà¦¸à¦® à§Łà¦ª
à§¨à§¦à§¨à§¨ à§¨à§¦à§¨à§©
à¦¨ à¦°à¦«
à¦¨ à¦īà¦ªà¦¸
à¦¬ à¦°à¦§
à¦¬ à¦°à¦ıà¦¬
à¦¸ à¦ĵà¦ª
à¦² à¦°à¦®
à¦² à¦Ĺà¦¤
à¦¦ à¦ıà¦ķà¦Ł
à¦¯ à¦ĩà¦ľ
à¦¯ à¦Ĩà¦«
à¦¯ à¦ħà¦ªà¦¸
à§Ł à¦īà¦²
à¦Ł à¦ķà¦¸
à¦¶ à¦ĩà¦¨
à¦Ĺ à¦ħ
à¦Ĩ à¦¤à¦ķà¦°
à¦Ľ à¦²à¦¤
à¦· à¦Ĩà¦¦
à¦Ń à¦§
à¦Ń à¦¬à¦¬
à¦§ à¦¨à¦Ń
à¦¥ à¦ķà¦Ń
à¦ĸ à¦ķà¦®
à¦ĵ à¦¨à¦¬
à¦ĵ à¦¶à¦¨
à¦¡ à¦¬à¦²
à¦¡ à¦ĵà¦®
à¦ī à¦Łà¦ķà¦°
à¦« à¦¨à¦¸à¦®
à¦°à¦ķ à¦«
à¦°à¦® à¦¤à¦ķà¦°
à¦°à¦¦ à¦¸
à¦°à¦¨ à¦¡
à¦°à¦¹ à§Łà¦ķ
à¦°à¦Ĩ à¦°à¦¶
à¦°à¦Ĩ à¦¨à¦ĵ
à¦°à¦Ĩ à¦¨à¦®à¦ľ
à¦°à¦£ à¦Ĩà¦ĩà¦¨
à¦¨à¦¸ à¦¬à¦ķ
à¦°à¦ı à¦ĩà¦¤
à¦ķà¦® à¦¸à¦ľ
à¦¨à¦® à¦¹à¦²
à¦ķà¦¬ à¦°à¦¦
à¦²à¦¨ à¦¸à¦®
à§® à§§à§¦
à¦®à¦¸ à¦¦à¦¸
à¦ıà¦¸ à¦¬à¦¸
à¦¦à¦¨ à¦ªà¦°
à¦¦à¦¨ à¦Ĺà¦°
à¦ļà¦¨ à¦²
à¦¯à¦® à¦ķà¦°
à¦ķà¦¤ à¦Ĺ
à¦ĩà¦Ł à¦¡
à¦Ĩà¦Ľ à¦°
à¦¨à¦Ń à¦Ł
à§§à§¯ à§¨à§Ń
à¦¤à¦ª à¦²
à¦·à§Ł à¦ķà¦¸
à¦°à¦īà¦ª à¦°à¦Ľ
à¦ĩà¦Ń à¦¸à¦°
à¦¤à¦¹à§Ł à¦ıà¦¬
à§¨à§ª à§¨à§¦à§¨à§§
à¦«à¦² à¦Ĩà¦ľà¦¨à¦Ń
à¦ıà¦ĸà¦¨ à¦Ń
à¦¹à¦¸ à¦¸
à¦¶à¦¸ à¦«
à¦°à¦ıà¦ķ à¦Ľ
à§§à§Ń à§«
à§§à§Ń à§Ń
à¦²à¦Ĩ à¦¹
à¦ªà¦¥ à¦¦
à¦¯à¦ĸà¦¨ à¦Ĩà¦ªà¦¨
à¦īà§İ à¦ªà¦¨
à¦ĵà¦ľà¦¨ à¦¬
à¦°à¦¥à¦®à¦¸ à¦ª
à§§à§¯à§® à§¬
à¦°à¦īà§İ à¦¸à¦®
à¦Ĩà¦®à¦¨ à¦§
à¦ıà¦¨à¦Ĩ à¦ĩà¦¡
à§¨à§¦à§§à§¬à§¨à§¦à§§à§Ńà§¨à§¦à§§à§®à§¨à§¦à§§à§¯à§¨à§¦à§¨à§¦à§¨à§¦à§¨à§§ à§¨à§¦à§¨à§¨à§¨à§¦à§¨à§©
à¦¨ à¦ī
à¦¨ à¦īà¦®
à¦ķ à¦ľà¦¨à¦¸
à¦¬ à¦¤à¦®
à¦¬ à¦Ĩà¦¨
à¦¬ à¦¤à¦¸
à¦¤ à¦ķà¦¸
à¦¤ à¦ĩà¦īà¦¨
à¦¤ à¦ıà¦ĩà¦¸
à¦¸ à¦Ĩà¦°
à¦¸ à¦ħà¦¬
à¦® à¦Ĩà¦ķ
à¦® à¦īà¦ªà¦ľ
à¦² à¦ļà¦²
à¦² à¦Ĩà¦¶
à¦¦ à¦¬à¦ª
à§Ł à¦ĩà¦®
à¦Ł à¦Ĩà¦¸
à¦Ł à¦ªà¦¤
à¦Ł à¦ªà¦¡
à¦ľ à¦ķà¦¤à¦¤
à¦¶ à¦®à¦ª
à¦ĩ à¦Ĩà¦Ĺà¦¸
à¦ļ à¦ŀ
à¦ļ à¦¨à¦¤
à¦Ń à¦Ń
à¦§ à¦ħà¦®
à¦¥ à¦²à¦ªà¦°
à¦ĵ à¦ļà¦²
à¦ĵ à¦²à¦ľ
à¦ĵ à¦ľà¦¨à¦ª
à¦¡ à¦ħà¦¬
à¦°à¦¸ à¦²
à¦°à¦¸ à¦¹à¦¸
à¦« à¦¥
à¦°à¦ķ à¦¸à¦®
à¦°à¦ķ à¦¨à¦¸
à¦°à¦ª à§ľà¦²
à§§ à§¨à§¦à§§à§«
à§ĥ à¦¼
à¦ľà¦¨ à¦®à¦¤
à¦ľà¦¨ à¦Ĩà¦Ľ
à¦¬à¦² à¦Ń
à¦°à¦Ĩ à¦¨à¦ª
à¦¹à§Ł à¦ķà¦°
à¦¹à§Ł à¦ıà¦ĩ
à¦°à¦ı à¦ĩà¦¶
à¦ıà¦ĩ à¦ħà¦ŀ
à§İ à¦Ń
à¦¨à¦¦ à¦¯
à¦®à¦¤ à¦ķà¦°
à¦¨à¦Ĩ à¦¦à¦¨
à¦¨à¦Ĩ à¦ªà¦¡
à¦ĩà¦Ł à¦ªà¦°
à¦¨à¦Ĺ à¦°à¦¨
à¦¨à¦ı à¦¸à¦®à§Łà¦¤
à¦īà¦ľ à¦«
à¦«à¦² à¦¶
à¦ħà¦ª à¦Ľà¦¨
à¦Ĩà¦ĩà¦¨ à¦ħà¦¨
à¦°à¦¥à¦® à¦Ĺ
à¦ķà¦¶ à¦¨à¦¬
à§¨à§¯ à§¨à§¦à§¨à§§
à¦ķà§Ł à¦ĩà¦¤
à¦°à¦Ĩà¦¤ à¦Ļ
à¦²à¦¨à¦ķ à¦ķ
à¦¨à¦ħà¦° à¦°à¦¶
à§§à§¨à§¦ à§®
à¦°à¦Ĩà¦Łà¦ķ à¦ķà¦°
à¦¯à¦ĩà¦¬ à¦ĩà¦Ĩà¦®
à§¨à§¦à§¨à§ª à§¨à§¦à§¨à§«
à¦¨à¦²à¦Ĺà¦ĩà¦¨ à¦¨à¦¤
à§¨à§¦à§§à§¬à§¨à§¦à§§à§Ńà§¨à§¦à§§à§®à§¨à§¦à§§à§¯à§¨à§¦à§¨à§¦à§¨à§¦à§¨à§§à§¨à§¦à§¨à§¨à§¨à§¦à§¨à§© à§¨à§¦à§¨à§ªà§¨à§¦à§¨à§«
à¦° à¦°à¦ŀ
à¦ķ à¦ħà¦Ĺ
à¦¬ à¦īà¦¤
à¦¬ à¦ĵà¦ľ
à¦¬ à¦ĩà¦ĸ
à¦¤ à¦ħà¦«
à¦¤ à¦°à¦®à¦¤à¦²à¦¬
à¦® à¦¹à¦¯
à¦® à¦¯à¦¦
à¦® à¦ķà¦¨
à¦® à¦īà¦¤
à¦® à¦ľà¦®
à¦® à¦ĩà¦ķà¦¬
à¦² à¦¦à¦²
à¦² à¦¶à¦¬
à¦ª à¦°à¦ª
à¦¦ à¦ĺ
à¦¦ à¦Ĩà¦¸
à¦¯ à¦Ĺà¦²
à¦¯ à¦īà¦ªà¦ķ
à§Ł à¦¦à¦¨
à§Ł à¦ıà¦Ľ
à¦¹ à¦¨à¦Ĺà¦ŀ
à¦ľ à¦¡à¦²
à¦¶ à¦ķà¦²
à¦ĩ à¦ıà¦ķà¦¬
à¦Ĩ à¦¨à¦ľ
à¦ı à¦°à¦¸à¦°
à¦Ľ à¦ĵà§Ł
à¦· à¦°à¦£
à¦¥ à¦¨à¦ª
à¦¥ à¦¤à¦²
à¦ĸ à¦®à¦¨
à¦°à¦¸ à¦¬à¦¶
à¦ī à¦Ĩà¦®
à¦°à¦® à¦²
à¦°à¦ª à¦°à¦ı
à¦ıà¦ķ à¦ķà¦°
à¦ľà¦¨ à¦Ĺà¦¨
à¦°à¦¨ à¦Ĺà¦¦
à¦°à¦ľ à§Łà¦¨
à¦¹à§Ł à¦ıà¦¦
à¦¨à¦¬ à§Łà¦¸
à¦¨à¦¤ à¦°à¦ª
à¦¨à¦¸ à¦ł
à¦²à¦ķ à¦¸à¦Ń
à§¨à§¦ à§«
à¦°à¦ļ à¦²à¦¤
à¦¸à¦¬ à¦¯
à¦¨à¦® à¦ķ
à¦¹à¦² à¦°
à§Ī à¦ĥ
à¦¤à¦¨ à¦§à¦°
à¦ĩà¦² à¦ĵà¦¯
à¦ĩà¦² à¦¸à¦¦
à¦Ŀ à¦°à¦¨
à¦·à¦£ à¦§à¦°
à¦²à¦¤ à¦ľ
à§Łà¦¸ à¦¤
à¦ĩà¦¬ à¦¡
à¦¸à¦¹ à¦¶
à¦¸à¦¨ à¦®à¦¨
à§Łà¦ķ à¦¶
à¦¨à¦Ń à§Ł
à§Łà¦¬ à¦¹
à§§à§¯ à§©à§Ń
à¦Łà¦ķ à¦ļ
à§¨à§¦à§¨à§§ à§¦à§®
à¦ĸà¦¬ à¦°à¦ķ
à¦¨à¦ĵ à¦¥
à¦ĩà¦Ń à¦ª
à¦īà¦² à¦Ĩà¦īà§Ł
à¦Ī à¦¦à¦¸
à¦«à¦² à¦ĺ
à¦ıà¦® à¦ıà¦ĩà¦ļ
à§§à§« à§®
à§§à§¬ à§¨à§¦à§¨à§¦
à¦°à¦¸à¦¬ à¦§à¦°à¦¨
à¦¨à¦Ľ à§ľ
à¦ĺà¦¨ à¦ĺ
à¦£à¦Ń à¦Ł
à¦īà¦ªà¦° à¦¨
à§§à§¨à§¦ à§¦à§¦
à¦¨à¦Ĺà¦¦ à¦ħà¦°
à§¦à§¨à§¨ à§¨à§©
à¦° à¦°à¦ī
à¦ķ à¦¦à¦ķ
à¦ķ à¦Ĺà¦£
à¦ķ à¦°à¦ħà¦¬à¦¸
à¦ķ à¦Ĩà¦ªà¦¡
à¦¤ à¦ħà¦®
à¦¸ à¦¢
à¦® à¦°à¦¨
à¦® à¦ħà¦¸
à¦² à¦ĵà¦¦
à¦² à¦¸à¦®à¦¸
à¦² à¦ĵà¦Ĺ
à¦¦ à¦¹à¦¬
à¦¦ à¦Ĩà¦«
à¦¯ à¦ħà¦¬à¦¦
à¦¹ à¦¹à§Ł
à¦Ł à¦°à¦¨
à¦Ł à¦°à¦°
à¦ľ à¦ļà¦²
à¦ľ à¦Ĩà¦¹à¦®
à¦Ĺ à¦ıà¦²
à¦ı à¦®à¦¦
à¦ı à¦ıà¦¸à¦ª
à¦ļ à§Łà¦¬
à¦ļ à¦®à¦¶
à¦· à¦ħà¦°
à¦Ń à¦¹à¦¬
à¦°à¦¬ à¦ĩà¦ª
à¦°à¦ª à¦°à¦Ĩà¦®à¦°
à¦£ à¦ķà¦²
à¦°à¦¤ à¦ĵà¦¬
à¦ľà¦¨ à¦¥
à¦ľà¦¨ à¦ĸ
à¦¬à¦² à¦Ĺ
à¦°à¦¦ à¦¶
à¦°à¦ľ à¦²à¦¬
à¦¹à§Ł à¦²
à¦°à¦£ à¦ļ
à¦°à¦ĵ à¦®à¦¨
à¦¹à¦² à¦ľ
à¦°à¦Ń à¦Ł
à¦°à¦¥ à¦®à¦¹
à¦¤à¦¨ à¦¹à¦¤
à¦ĩà¦² à¦²
à¦Łà¦¨ à¦¯
à¦¨à¦Ĩ à¦ļ
à¦ĩà¦® à¦²
à¦®à¦¦ à¦¨à¦®
à¦ķà¦ª à¦ķ
à¦¨à¦¶ à¦¨à¦¬
à¦¯à¦¸ à¦¤
à§§à§¦ à§¯
à¦¤à¦ª à¦¬
à¦¤à¦ª à¦¥
à¦¬à¦Ľ à¦°à¦¶
à¦Ĩà¦°à¦ĵ à¦ıà¦ķà¦¬
à¦«à¦² à¦Ľ
à¦²à¦Ĺ à¦ł
à¦ĵà¦ķ à¦²à¦ķ
à¦¤à¦¤ à¦Ł
à¦ĩà¦¡ à¦¸
à¦°à¦ıà¦ķ à¦¯
à¦¨à¦ħ à¦ľ
à¦¤à¦°à¦£ à¦ľ
à¦ĭ à¦¦
à¦ıà¦°à¦ķ à¦®à¦ķ
à¦°à¦Ĩà¦ĩà¦¨ à¦¶
à§©à§Ń à§¯
à¦ĵà¦ĩ à¦ĺà¦Łà¦¨
à¦¯à¦ĩ à¦Ĩà¦ªà¦¨
à¦ıà¦¸à¦® à§Łà¦¬
à§§à§¯à§® à§§
à¦¯à§Łà¦¬ à¦¹
à§§à§ªà§¦à§§à§§à§®à§ªà§« à§«
à§¨à§¦à§§à§¬à§¨à§¦à§§à§Ńà§¨à§¦à§§à§®à§¨à§¦à§§à§¯à§¨à§¦à§¨à§¦à§¨à§¦à§¨à§§à§¨à§¦à§¨à§¨à§¨à§¦à§¨à§©à§¨à§¦à§¨à§ªà§¨à§¦à§¨à§« à§¨à§¦à§¨à§¬
à¦¨ à¦¹à¦¯à¦°à¦¤
à¦¨ à¦ĩà¦ŀ
à¦ķ à¦°à¦¶
à¦ķ à¦¯à¦¦
à¦ķ à¦Ĺà¦°
à¦ķ à¦ĵà¦Ł
à¦¤ à¦ĩà¦¬
à¦¤ à¦²à¦ª
à¦® à¦ĸà¦²
à¦² à¦ıà¦Ľ
à¦ª à¦¹à¦¤
à¦ª à¦īà¦¨
à¦ª à¦²à¦¸
à¦¦ à¦²à¦ª
à¦¦ à¦ĩà¦īà¦¨
à¦¦ à¦ľà¦¬
à¦¯ à¦ħà¦¬
à¦¯ à¦Ĺà¦¬
à¦¯ à¦ľà¦°
à¦¯ à¦ľà¦¨à¦ķ
à§Ł à¦°à¦¦
à§Ł à¦ķà¦¦
à¦¹ à¦ķà¦ķ
à¦Ł à¦¸à¦Ń
à¦Ł à¦ħà¦ª
à¦ľ à¦®à¦¨
à¦ľ à¦ĺà¦¨
à¦¶ à¦Ĩà¦°
à¦Ĺ à¦®à¦¬
à¦ĩ à¦ķà¦°à¦²
à¦ı à¦°à¦«
à¦ı à¦ħà¦ŀ
à¦ļ à¦ıà¦¬
à¦ĵ à¦¹à¦¯
à¦ĵ à¦ªà§ľ
à¦ĵ à¦ĩà¦Ń
à¦« à¦ĵà§Ł
à¦°à¦ķ à¦¶
à¦°à¦ķ à¦Ĺ
à¦°à¦® à¦¥
à¦£ à¦¬à¦°
à¦ł à¦ķà¦°à¦¬
à¦ľà¦¨ à¦Ĩà¦®
à¦ľà¦¨ à¦ıà¦°à¦®à¦§
à¦°à¦Ĩ à¦¨à¦ªà§ľ
à¦¹à§Ł à¦¡
à¦°à¦£ à¦¥
à¦ªà¦¨ à¦ļ
à¦°à¦¶ à¦°à¦£
à¦ıà¦ĩ à¦ĺ
à¦¸à¦¬ à¦ıà¦²
à¦¨à¦¨ à¦Ĺà¦°
à¦¤à¦¨ à¦ªà¦°
à¦¦à¦¨ à¦¸à¦®
à¦¤à¦® à¦Ļ
à¦¤à¦ķ à¦Ĩà¦¸
à¦ĩà¦¤ à¦ĸà¦¨
à¦¨à¦Ń à¦¬
à¦®à¦ķ à¦°à¦£
à§§à§¯ à§¬à§¦
à¦¯à¦¸ à¦°à¦¬à¦°
à¦ªà¦ķ à¦¥à¦¨
à§Łà¦® à¦ħà¦¨
à¦īà¦ľ à¦ľ
à¦°à¦īà¦ª à¦²à¦ķ
à¦§à¦¨ à¦ļ
à¦ķà¦Ń à¦Ł
à§§à§® à§®
à§§à§® à§¯
à§§à§ª à§®
à§§à§ª à§Ń
à¦ıà¦ķà¦ľà¦¨ à¦²
à¦¬à¦²à¦² à¦Ĩà¦®
à¦Ńà¦¬ à¦¹à¦²
à¦ıà¦ĩà¦ļ à¦ıà¦ĩà¦ļ
à¦ķà¦Ĺ à§ľ
à¦¡à¦® à¦ŀ
à¦°à¦¸à¦®à§Ł à¦Ĩà¦®
à¦¯à¦Ł à¦¨à¦ķ
à¦¹à¦¯à¦°à¦¤ à¦°à¦¹
à¦ķà¦ĵ à¦ħà¦°
à§İà¦¸à¦ķ à¦ķ
à¦Ķà¦· à¦§à¦ĸ
à¦°à¦ĭ à¦£
à§Łà¦ķà¦¸ à¦°à¦ķ
à¦¤à¦°à¦®à¦¤à¦²à¦¬ à¦¦à¦ķ
à¦° à¦°à¦ļ
à¦¨ à¦ĩà¦¹
à¦ķ à¦°à¦£à¦ķà¦°
à¦¬ à¦ıà¦ķ
à¦¬ à¦¤à¦¬
à¦¬ à¦ħà¦¸
à¦¬ à¦ĩà¦ļ
à¦¬ à¦ļà¦°
à¦¤ à¦¤à¦ª
à¦¤ à¦īà¦ĩà¦ķ
à¦¤ à¦ıà¦ĩà¦¬
à¦® à¦°à§Ł
à¦® à¦ĵà¦¨
à¦² à¦ĩà¦¯
à¦ª à¦Ĩà¦ªà¦¨
à¦ª à¦ªà¦¤
à¦¦ à¦¬à¦°
à¦¦ à¦²à¦®
à¦¦ à¦ĵà¦¦
à¦¯ à¦ł
à¦¯ à¦¤à¦°
à¦¯ à¦¸à¦ª
à¦¯ à¦ıà¦²
à§Ł à¦°à¦¹
à§Ł à¦¤à¦°
à§Ł à¦ıà¦ķà¦®
à§Ł à¦Ĩà¦°à¦ĵà¦ªà§ľ
à¦¹ à¦ķà¦¬
à¦¹ à¦Ĩà¦ªà¦¨
à¦Ł à¦°à¦«
à¦Ł à¦ıà¦Ł
à¦ľ à¦¶à¦¨
à¦ľ à¦ĵà¦¬
à¦ľ à¦®à¦ķ
à¦Ĺ à¦¹à¦¯
à¦Ĺ à¦¨à¦¶
à¦ĩ à¦ĩà¦®
à¦ĩ à¦ĵà¦ª
à¦ĩ à¦ĩà¦īà¦¨
à¦ĩ à¦īà¦ł
à¦ĩ à¦ıà¦¸à¦¬
à¦Ĩ à¦°à¦ĩà¦ī
à¦ļ à¦ķà¦¸
à¦· à¦°à¦¤
à¦· à¦ļà¦¨
à¦· à¦¹à¦ĵà¦¯
à¦§ à¦ķà¦®
à¦§ à¦ļà¦²
à¦§ à¦¸à¦®à§Ł
à¦ĸ à¦ıà¦¬
à¦ĵ à¦¶à¦ķ
à¦ĵ à¦Ĩà¦ľ
à¦ĵ à¦¨à§Ł
à¦ĵ à¦ıà¦¤
à¦¡ à¦°à¦¬
à¦¡ à¦ıà¦ķà¦Ł
à¦« à¦°à¦ľ
à¦« à¦īà¦²
à§ľ à¦ľ
à¦®à¦¨ à¦·
à¦ıà¦ķ à¦ĩà¦ķ
à¦°à¦ľ à§Łà¦ª
à¦°à¦¹ à¦Ł
à¦¬à¦¨ à¦īà§İà¦¸à¦°
à¦°à¦Ĩ à¦°à¦ª
à¦¹à§Ł à¦¸à¦®
à¦°à¦£ à¦¤à¦¬
à¦²à¦ķ à¦¸à¦®
à¦¨à¦ķ à¦ª
à¦¨à¦ķ à¦ł
à¦ıà¦ĩ à¦īà¦¦
à¦°à¦ĵ à¦®à¦°
à¦¶à¦¨ à¦ķà¦°à¦²
à¦¹à¦¤ à¦¶
à§İ à¦Ĩà¦®
à¦īà¦ª à¦ļ
à¦ĩà¦² à¦¯
à¦¦à¦ķ à¦¸à¦¹
à¦²à¦® à¦²
à¦¤à¦ķ à¦¡
à¦ķà¦¦ à¦«
à¦¸à¦¨ à¦ļ
à§Łà¦ķ à¦ĸà¦¨
à¦®à¦² à¦¦
à¦¨à¦ı à¦°à¦ķ
à¦Łà¦ķ à¦¶
à¦ĵà¦¸ à¦¦à¦°à¦ª
à¦ĩà¦ª à¦¸
à¦Ĩà¦ľ à¦°à¦¬
à§Łà¦ª à¦¦à¦ķ
à¦ªà¦¦ à¦¶
à¦ĩà¦ľ à¦¦
à¦Łà¦¸ à¦¡
à¦°à¦ıà¦ķ à¦ķà¦°
à§§à§© à§©
à¦°à¦®à¦£ à¦ķà¦°à¦¤
à¦¤à¦² à¦ĵà¦ľà¦²
à¦¨à¦¡ à¦®
à§§à§¬ à§®
à¦ķà¦°à¦£ à¦¸
à¦Łà¦¬à¦² à¦«
à¦ĵà¦¸à¦® à¦°
à¦°à¦Ĩà¦¸ à¦Ľ
à¦¤à¦¸à¦® à§Łà¦ª
à¦¯à¦Ĩà¦® à¦¦
à¦°à¦Ĺà¦£ à¦ªà¦°
à¦¬à¦ªà¦¨ à¦®
à¦¨ à¦īà§İà¦¸
à¦¨ à¦īà¦ĩà¦¨
à¦ķ à¦ĩà¦²
à¦ķ à¦ªà§ľ
à¦ķ à¦ļà¦Ł
à¦ķ à¦īà§İà¦ª
à¦¬ à¦ĵà¦¸
à¦¬ à¦ħà¦¸à¦¹
à¦¤ à¦°à¦¡
à¦¤ à¦īà¦ªà¦ķ
à¦¸ à¦°à¦¶
à¦® à¦ıà¦¸
à¦® à¦ªà§ľ
à¦² à¦ıà¦ĸ
à¦² à¦ľà¦°
à¦ª à¦Ĩà¦Ľ
à¦ª à¦¸à¦ķ
à¦ª à¦¸à¦®à¦¯
à¦¦ à¦ĵà¦ķ
à¦¯ à¦ļà¦²à¦ļ
à§Ł à¦°à¦¸à¦ļ
à¦Ł à¦°à¦Ĺ
à¦ľ à¦¤à¦¬
à¦ĩ à¦«à¦°
à¦ĩ à¦ĸà¦²
à¦ı à¦ħà¦¨
à¦ı à¦°à¦ħ
à¦ı à¦ıà¦«à¦ª
à¦ĸ à¦Ĩà¦®
à¦ĸ à¦ķà¦¤
à¦¡ à¦ıà¦²
à¦¡ à¦ħà¦«
à¦ħ à¦®à¦°
à¦ħ à¦¬à¦¨à¦¤
à¦ī à¦ĩà¦ľ
à¦°à¦ª à¦°à¦ĵà¦ķ
à¦¸à¦® à¦§
à¦ıà¦ķ à¦ĸ
à¦ıà¦ķ à¦«
à¦¬à¦² à¦²à¦¹
à¦ĺ à¦¬à¦¦
à¦¨à¦ª à¦Ł
à¦°à¦Ľ à§Łà¦Ł
à¦°à¦ĩ à¦²à¦¬
à¦ĩà¦® à¦®
à¦¸à¦° à§Ł
à¦¨à¦ı à¦¸à¦®à¦¯
à¦¬à¦ª à¦¡
à¦¬à¦Ľ à¦°à¦Ĺ
à§Łà¦® à§İà¦¸
à¦ĸà¦¬ à¦°à¦¶
à¦²à¦¹ à¦°
à¦¨à¦ĵ à¦°à¦«
à¦¬à¦¹ à¦£
à¦¬à¦¹ à¦¨à¦ļ
à¦īà¦² à¦Ł
à¦Ĩà¦ĩà¦¨ à¦®
à¦°à¦¹à¦£ à¦¨
à¦¶à¦ª à¦¥à¦¨
à¦°à¦®à¦£ à¦ł
à¦¨à¦ıà¦ĩ à¦¤
à¦¬à§ľ à¦ªà¦°
à¦¤à¦°à¦£ à¦ļ
à§¨à§© à§®
à¦¸à¦« à¦²à¦®
à¦¨à¦ıà¦ķ à¦ķ
à¦Ĩà¦°à¦ķ à¦ĸà¦¨
à¦·à¦ĸà¦¬ à¦°à¦ĵà¦®
à¦¯à¦ĸà¦¨ à¦ľ
à¦¸à¦¹à¦ľ à¦¹à¦¬
à¦·à§Łà¦ķ à¦ķà¦°
à¦°à¦¦à¦² à¦ĺ
à§§à§¨à§¦ à§§à§¦
à¦ıà¦¸à¦® à§Łà¦¸
à¦®à¦°à¦£ à¦¸à¦Ń
à¦Ĩà¦ī à¦Łà¦ª
à¦ĩà¦¨à¦Ĩà¦ª à¦ķà¦°
à¦ķ à¦ļà¦²
à¦ķ à§Łà¦²
à¦¤ à¦°à¦ªà¦¤
à¦® à¦ıà¦°à¦ª
à¦² à¦ļà¦Ł
à¦ª à¦ľà§Ł
à¦¦ à¦Ĩà¦¦
à¦¯ à¦Ĩà¦ľà¦ķ
à§Ł à¦ĩ
à§Ł à¦¹à¦¸
à¦¹ à¦ªà§ľ
à¦¹ à¦ĵà¦®
à¦¹ à¦Ĺà¦£à¦¨
à¦Ł à¦®à¦¤
à¦Ł à¦ĵà¦Ń
à¦Ł à¦Ĩà¦Ĺà¦¸
à¦ľ à¦¹à¦¤
à¦ľ à¦īà¦¨
à¦ľ à¦Ĩà¦¬
à¦Ĺ à¦¬à¦¸
à¦Ĺ à¦Ŀ
à¦ĩ à§ľ
à¦ĩ à¦ĵà¦®
à¦Ĩ à¦°à¦ıà¦¬
à¦ı à¦°à¦Ł
à¦ı à¦¤à¦¸
à¦ı à¦¸à¦®à¦¸
à¦ļ à¦ľà¦¨à¦ķ
à¦· à¦¨à¦ķà¦°
à¦· à§Łà¦®
à¦· à¦ĵà¦°
à¦§ à¦Ĺà¦®
à¦¥ à¦¬à¦²
à¦¥ à¦Ĩà¦¤
à¦ĸ à¦ķà¦¸
à¦ĵ à¦²à¦ķ
à¦ĵ à¦¦à¦²
à¦ĵ à¦ıà¦¦
à¦ĵ à¦Ĩà¦°à¦¬
à¦ĵ à¦Ĩà¦ĩà¦¸
à¦¼ à¦¿à¦Ĥ
à¦¡ à¦ĺ
à¦°à¦¸ à¦«à¦²
à¦ī à¦²à¦¬
à¦ī à¦²à¦¸
à¦ī à¦°à¦ĵà§Ł
à¦« à¦¹à§Łà¦ķ
à¦°à¦¬ à§ľà¦¬
à¦°à¦ª à¦°à¦Ł
à¦°à¦ª à¦¥à¦¬
à§§ à§§à§¦à§¦
à§¨ à§¨à§¦à§§à§«
à¦°à¦¤ à¦ľ
à¦ıà¦ķ à¦ħà¦¨
à¦¹à§Ł à¦Ĩà¦®à¦°
à¦ĺ à¦¤
à¦ªà¦¨ à¦¥
à¦°à¦ħ à¦¹
à¦¨à¦ķ à¦¨à¦¸
à¦°à¦ı à¦ķà¦¥
à¦Ĩà¦² à¦Ĺ
à¦Ĩà¦² à¦Ń
à¦²à¦¨ à¦¥
à¦®à¦¤ à¦¸à¦®
à¦¤à¦¨ à¦¹
à¦°à¦² à¦ª
à¦°à¦ĩ à¦«à¦¤
à¦·à¦£ à¦īà¦ªà¦ķ
à¦¤à¦® à¦²
à¦ļà¦¨ à¦¸à¦®
à¦¨à¦Ĩ à¦°à¦®
à¦¨à¦Ĩ à¦ľà¦¬
à¦ĩà¦® à¦ľ
à¦¸à¦¨ à¦¥
à¦®à¦ª à¦ŀ
à¦ĩà¦ª à¦²
à§Łà¦¤ à¦¤
à¦Ĺà¦¤ à¦¶à¦¨
à¦Ĺà¦² à¦¥
à¦¨à¦ĵ à¦ħà¦¨
à¦°à¦¡ à¦ķ
à¦«à¦° à¦°à¦¹à¦®
à¦¶à¦¤ à¦¶à¦¤
à¦·à¦ķ à¦Ľ
à¦²à¦Ń à¦°
à§§à§« à§¨
à§§à§« à§ª
à¦ĩà¦¯ à¦ĸà¦¨
à¦°à¦¥à¦® à¦ħ
à§§à§¬ à§¯
à¦¤à¦ĸ à¦¨à¦¦
à¦¦à¦¤ à¦ķà¦¬
à¦·à¦ĸà¦¬ à¦°à¦ķ
à¦°à¦ªà¦¥ à¦ļà¦²
à¦ķà¦ĸà¦¨ à¦ĵà¦ķà¦ĸà¦¨
à¦¹à¦¯à¦°à¦¤ à¦¶
à¦ĵà¦ĩ à¦¸à¦®à§Ł
à¦¬à¦ĩ à¦ªà§ľ
à¦ķà¦¬à¦° à¦¯
à§¨à§¦à§¨ à§§à§Ń
à¦ľà¦¸à¦¦ à¦°à¦īà¦ªà¦ľ
à¦°à¦ľà¦¨à¦ķ à¦ķ
à¦¨ à¦īà¦ªà¦¨
à¦¬ à¦Ĩà¦®à¦°
à¦¬ à¦¤à¦¥
à¦¤ à¦ľà¦¬
à¦¤ à¦ĵà¦Ń
à¦¤ à¦°à¦ĩà¦īà¦¨
à¦¤ à¦Ĩà¦°à¦ĵà¦ªà§ľ
à¦¸ à¦ħà¦Ń
à¦® à¦¶à¦°
à¦® à¦ķà¦°à¦²
à¦ª à¦¬à¦¨
à¦¦ à¦¤à¦ª
à¦¯ à¦ĩà¦°
à¦¯ à¦īà¦ļ
à§Ł à¦ªà§ľà¦¤
à¦¹ à¦ľà¦¨
à¦¹ à¦Ĩà¦Ĺ
à¦Ł à¦ħà¦§
à¦ľ à¦ıà¦ķà¦Ł
à¦ľ à¦Ĩà¦¨
à¦ľ à§Łà¦ķà¦°
à¦¶ à¦īà¦¤
à¦Ĺ à¦ĵà¦¯
à¦Ĺ à¦°à¦®à¦ª
à¦§ à¦ĵà¦¸
à¦ĵ à¦Ĩà¦ĩ
à¦ĵ à¦ĩà¦¸à¦¬
à¦ħ à¦ļà¦²
à¦°à¦¸ à¦¦à¦°
à¦°à¦ķ à¦®à¦¨
à¦°à¦ķ à¦®à¦¸
à¦°à¦® à¦¨à¦ķ
à¦°à¦ª à¦°à¦Ĩ
à¦£ à¦¤à¦°
à¦£ à¦¹à¦¤
à¦£ à¦ıà¦²
à¦ł à¦Ł
à¦°à¦¨ à¦ĸ
à¦¹à§Ł à¦¬à¦°
à¦¬à¦¸ à¦¸
à¦°à¦ħ à¦¬à¦¹
à¦¨à¦ª à¦°à¦¬
à¦Ĩà¦² à¦®à¦¡
à¦ķà¦Ł à¦°
à¦°à¦ĩ à¦¸à¦°
à¦·à¦£ à¦ķà¦°à¦Ľ
à¦°à¦« à¦ĸà¦°
à¦¸à¦¨ à¦Ń
à¦®à¦¹ à¦ļ
à¦¨à¦Ĺ à¦¡
à¦ĵà¦¬ à¦¡
à¦®à¦ª à¦ķ
à¦ĩà¦° à¦°à¦¹
à¦Ĩà¦ľ à¦ªà¦°
à¦ªà¦ķ à¦ļ
à¦ľà¦¶ à¦¹à¦°
à¦Ĩà¦°à¦ĵ à¦ĸ
à¦Ĩà¦°à¦ĵ à¦ķà§Ł
à¦²à¦¹ à¦ķà¦Ĺ
à¦ĩà¦¦ à¦ĩà¦¬à¦¨
à¦Ī à¦®à¦¹
à¦·à¦ķ à¦ıà¦¬
à§§à§¨ à§§à§Ń
à¦ıà¦ĸà¦¨ à¦ľ
à¦ıà¦ĸà¦¨ à¦Ĩà¦ªà¦¨
à¦°à¦¹à¦£ à¦¬
à¦°à¦¹à¦£ à¦ª
à¦°à¦īà¦¦ à¦¯
à¦ĩà¦« à¦īà¦¦
à¦ķà¦¶ à¦¨à¦ª
à¦°à¦®à¦£ à¦ĵà¦®
à§§à§¬ à§©
à¦²à¦¥ à¦ķ
à¦ıà¦« à¦ļ
à¦ªà¦¥ à¦Ń
à¦Ĩà¦¹ à¦¤à¦¬
à¦Ĩà¦Ł à¦ĺà¦°
à¦°à¦Ĩà¦ĩà¦¨ à¦ª
à¦°à¦¸à¦ķà¦² à¦¬
à¦ķà¦Ĩ à¦īà¦Ł
à§Łà¦Ĩ à¦¨à¦¤
à¦Ĩà¦ĩà¦¡ à¦¬
à§§à§¯à§® à§ª
à¦ıà¦ķà¦ĩ à¦¸à¦®à¦¯
à¦ļà¦°à¦® à¦Ń
à¦¸à¦®à¦¤ à¦²à¦ª
à¦·à¦£à¦ļ à¦®à¦¤
à¦¨ à¦ĩà¦ª
à¦¨ à¦°à¦ĵà¦¯
à¦¬ à¦ĵà¦¤
à¦¬ à¦ĩà¦ľà¦¤
à¦¤ à¦ľà¦¨à¦ª
à¦® à¦Ĩà¦¤
à¦® à¦ĵà¦¸à¦®
à¦ª à¦®à¦¹
à¦¦ à¦¤à¦¬
à¦¦ à¦ľà¦¨à¦ª
à¦¯ à¦¨à¦¬
à¦¯ à¦°à¦¤à¦ļ
à§Ł à¦ıà¦ĸ
à§Ł à¦Ĺà¦£à¦®
à¦¹ à¦ķà¦°à¦¬
à¦ľ à¦ĩà¦¸à¦²
à¦¶ à¦ĵà§Ł
à¦¶ à¦¤à¦°
à¦Ĺ à¦¨à¦¬
à¦Ĺ à¦¨à¦ķ
à¦Ĺ à¦®à¦¤
à¦Ĺ à¦ħà¦¸
à¦ĩ à¦Ĺà¦°
à¦Ĩ à¦°à¦¸à¦®
à¦ı à¦īà¦ªà¦²à¦ķ
à¦ļ à¦ķà¦²
à¦· à¦ªà¦¥
à¦§ à¦°à¦Ľ
à¦§ à¦°à¦ĩà¦²
à¦ĸ à¦¸à¦®
à¦ĸ à¦Ĩà¦¬
à¦ĸ à¦¤à¦®
à¦ĸ à¦ķà¦¶
à¦ĵ à¦°à¦¯
à¦ĵ à¦ĩà¦¯
à¦ĵ à¦ĩà¦ļ
à¦ħ à¦¬à¦²
à¦ī à¦Łà¦¬
à¦°à¦® à¦Ĺ
à§ľ à¦ªà¦°
à¦ıà¦ķ à¦¸à¦®à¦¯
à¦¬à¦² à¦ĸ
à¦°à¦¦ à¦ĸ
à¦°à¦Ĩ à¦¦à¦²
à¦ĺ à¦¨à¦ķ
à¦ªà¦¨ à¦¯
à¦°à¦ħ à¦£
à§¨à§¦ à§ªà§§
à¦°à¦ı à¦ĩà¦Ł
à¦ıà¦ĩ à¦¨à¦¤
à¦¨à¦¨ à¦°
à¦ĩà¦¸ à¦Ĺ
à¦°à¦Ĺ à¦£à¦¸
à¦ķà¦¬ à¦°à¦¥
à¦°à¦ī à§ľ
à¦ĩà¦² à¦¥
à¦Ŀ à¦ªà¦¥
à¦¤à¦® à¦Ĺ
à¦°à¦¸à¦® à§Łà¦°
à¦¨à¦Ĩ à¦ĩà¦¡
à¦¨à¦Ĺ à¦¦à¦Ł
à¦¨à¦ı à¦°à¦¸
à¦¶à¦ķ à¦Ĩà¦¬
à¦ĵà¦¬ à¦Ļ
à§Łà¦¬ à¦Ľ
à§Łà¦¬ à¦Ľà¦°
à¦°à§Ł à¦ķà¦°à¦¤
à¦Łà¦ķ à¦ķ
à¦ķà¦ķ à¦°à¦Ľ
à§Łà¦¤ à¦¦à¦¨
à¦Ĩà¦ľ à¦ĵ
à¦¬à¦Ľ à¦°à¦ĩ
à¦°à¦®à¦¤ à¦¤
à¦ĩà¦Ń à§Ł
à¦¬à¦¹ à¦¨à¦¬
à§§à§¨ à§¨
à¦ıà¦ĸà¦¨ à¦ĵà¦ª
à¦²à¦Ń à¦¯
à§§à§ª à§©
à§¨à§« à§«
à§¨à§« à§¦à§¬à§¨à§¦à§§à§¯à§¨à§Ń
à¦°à¦ĵà¦ª à¦°à¦¤
à§¨à§¨ à§¯
à§¨à§¬ à§¯
à¦ıà¦ĩà¦¬ à¦ĩà¦Ł
à¦¨à¦ıà¦ķ à¦¥
à¦¯à¦Ł à¦¨à¦¸
à¦Ńà¦¬à¦¨ à¦¯
à¦¤à¦ĸà¦¨ à¦¥
à§©à§Ń à§¦
à§®à§®à§¦ à§§à§¯
à¦°à¦· à¦·
à§Ŀ à¦¤
à¦²à¦¹à¦² à¦Ń
à¦ıà¦°à¦ķà¦® à¦ıà¦ķà¦Ł
à¦Łà¦ħà¦« à¦«
à¦¯à¦ľà¦¨ à¦ķà¦®
à¦¨ à¦ĩà¦¦
à¦ķ à¦ī
à¦ķ à¦ĩà¦¬
à¦ķ à¦Ĩà¦«à¦Ĺ
à¦¬ à¦ķà¦°à¦¬
à¦¬ à¦£à¦Ń
à¦¸ à¦ķà¦¨
à¦¸ à¦ħà¦§
à¦¸ à¦Ĩà¦¹à¦®
à¦² à¦Ĩà¦¤
à¦² à¦ħà¦²
à¦ª à¦Ĺà¦²
à¦ª à¦īà¦¤
à¦ª à¦¨à¦¤à¦¥
à¦¦ à¦²à¦¤
à¦¦ à¦ĩà¦¸à¦²
à¦¦ à¦¶à¦¹
à¦¦ à¦ľà§Ł
à§Ł à¦®à¦¤
à§Ł à¦®à¦¸
à§Ł à¦ĵà¦¦
à§Ł à¦ħà¦¬à¦¶
à¦¹ à¦°à¦ľ
à¦¹ à¦§à¦°
à¦¹ à¦¨à¦Ń
à¦Ł à¦ĵà¦¸
à¦ľ à¦ĵà¦°
à¦¶ à¦ľà¦¨
à¦¶ à¦Ĩà¦ľ
à¦Ĺ à¦®à¦¹
à¦Ĺ à¦ĵà¦¸
à¦ĩ à¦ıà¦ĩà¦ª
à¦Ĩ à¦°à¦ķà¦°
à¦ļ à¦ħà¦¨
à¦ļ à§Łà¦ľ
à¦· à¦¦à¦ķ
à¦· à¦ĵà¦¨
à¦¥ à¦¹à¦¬
à¦¥ à¦ķà¦ķà¦°
à¦ĵ à¦Ĩà¦¤
à¦ĵ à¦ıà¦¨
à¦ĵ à¦ıà¦ĩà¦ļà¦¡
à¦ħ à¦®à¦¨
à¦ħ à¦¯à¦¥
à¦°à¦® à¦¨à¦ª
à¦£ à¦¸à¦¹
à¦£ à¦ķà¦°à¦¬
à¦¸à¦® à¦®
à¦®à¦¨ à¦«
à¦ľà¦¨ à¦ĺ
à¦¬à¦² à¦ļ
à¦°à¦¹ à¦¥
à¦°à¦Ĩ à¦ĩà¦Ł
à¦¹à§Ł à¦Ĺà¦¤
à¦¨à¦¬ à¦ľà¦®
à¦¨à¦¬ à¦®à¦¶
à¦ŀ à¦¬
à¦¬à¦° à§Ł
à¦²à¦ķ à¦«
à¦¨à¦ķ à¦¤
à¦°à¦ı à¦°à¦¯
à¦¤à¦¬ à¦¡
à¦ıà¦ĩ à¦ķà¦®
à§ª à§«à§¦
à¦°à¦Ń à¦°à¦¸
à¦īà¦ª à¦ªà¦°
à¦¨à¦¦ à¦°à¦ķ
à¦¤à¦¨ à¦ıà¦¬
à¦¤à¦ķ à¦£
à¦¤à¦ķ à¦¸à¦®
à¦°à¦¸à¦® à¦ªà¦°
à¦¨à¦Ĩ à¦īà¦Ł
à¦°à¦ĸ à¦¤
à¦¯à¦® à¦¦
à¦¨à¦ľ à§Ł
à¦¨à¦ı à¦®à¦¬
à¦¶à¦ķ à¦ķà¦®
à¦Ĩà¦Ĺ à¦°à¦¤à¦²
à§§à§¯ à§¬à§Ń
à¦Ĩà¦¦ à¦°à¦ķà¦°
à¦¨à¦ĵ à¦ĩà¦ķ
à¦īà¦ľ à¦¹
à¦ľà¦® à¦§
à¦¨à¦¹ à¦ł
à¦²à§Ł à¦ªà¦°
à¦¨à¦ļ à¦¤
à¦·à¦ķ à¦ľ
à¦ıà¦ĸà¦¨ à¦ıà¦ķà¦Ł
à¦²à¦Ń à§Ł
à¦¸à¦¦ à¦°à¦¦à¦ª
à§§à§« à§§
à§§à§« à§©
à¦°à¦ıà¦ķ à¦ľà¦¨à¦¸
à¦ĩà¦« à¦ķ
à¦ķà¦¶ à¦¨à¦¸
à¦·à¦¦ à¦ĩà¦īà¦ª
à§§à§© à§«
à§§à§© à§®
à¦°à¦®à¦£ à¦¥
à§§à§¬ à§Ń
à§¨à§« à§¦à§¦
à¦Ńà¦¬ à¦¹à¦ļ
à¦ıà¦°à¦ª à¦°à¦ª
à¦¤à¦Ń à¦Ł
à¦Ĩà¦« à¦ľ
à§¨à§¬ à§¬
à¦Ĩà¦ĩ à¦ĩà¦¡
à¦¤à¦ĸ à¦¨à¦¨
à¦®à¦Ĩ à¦¹à¦¬
à¦Ĩà¦Ł à¦ķà¦®
à¦¯à¦ĸà¦¨ à¦¯
à¦¯à¦ĸà¦¨ à¦Ĩà¦®à¦°
à¦ķà¦ľà¦¨ à¦®
à¦¨à¦¸à¦®à§Ł à¦Ł
à¦īà¦Ń à§Łà¦¦
à¦ļà¦°à¦® à¦¦
à¦°à¦¬à¦Ľ à¦°à¦§à¦°
à¦°à¦ķà¦®à¦² à¦Ĺà¦ŀ
à¦° à¦°à¦®à¦ľ
à¦¿ à§į
à¦¨ à¦īà¦ªà¦°
à¦ķ à¦¨à¦®
à¦ķ à¦ľà¦¬
à¦¬ à¦¹à¦ļ
à¦¬ à¦Ĩà§Ł
à¦¤ à¦ĩà¦īà¦ª
à¦¤ à¦ħà¦²
à¦¸ à¦ķà¦¸
à¦¸ à¦Ľà¦¬
à¦® à¦ĩà§Ł
à¦® à¦Ľà¦¬
à¦² à¦Łà¦ķ
à¦² à¦§à¦¨
à¦² à¦Łà¦ª
à¦² à¦ıà¦ª
à¦² à¦°à¦Ļ
à¦ª à§İà¦¸
à¦¦ à¦Ĩà¦Ľ
à¦¯ à¦¶à¦ķ
à¦¯ à¦ĩà¦Ń
à¦¯ à¦īà¦²
à¦¯ à¦ĵà¦¦
à§Ł à¦ī
à¦¹ à¦ķà¦¤
à¦ľ à¦ĩà¦¤
à¦¶ à¦°à¦¹
à¦¶ à¦¸à¦°
à¦¶ à¦ħà¦«
à¦Ĺ à¦°à¦¹
à¦Ĺ à¦¹à¦ļ
à¦ĩ à¦°à¦«
à¦ĩ à¦Ĩà¦ĵà§Ł
à¦Ĩ à¦·
à¦Ĩ à¦ĩà¦¸à¦²
à¦Ĩ à¦ĩà¦¹
à¦ı à¦°à¦Ľ
à¦Ľ à¦Ńà¦°
à¦ļ à¦¨à¦®
à¦ļ à¦¶à¦®
à¦· à¦ĵà¦¬
à¦· à¦ĵà¦Ń
à¦¥ à¦Ĩà¦®
à¦¥ à¦ıà¦¬
à¦¥ à¦¹à¦ļ
à¦ĵ à¦ĩà¦¹
à¦ĵ à¦Ĩà¦ļ
à¦¼ à¦ĥ
à¦¡ à¦Ĩà¦ķ
à¦°à¦¸ à¦¨à¦¬
à¦°à¦¸ à¦®à¦¤
à¦ī à¦Łà¦¸
à¦« à¦¬à¦²
à¦« à¦ħà¦¬à¦¸
à¦°à¦® à¦¨à¦®
à§¨ à§¨à§¦à§§à§§
à¦®à¦¨ à¦¬à¦²
à¦®à¦¨ à¦§à¦°
à¦ıà¦ķ à¦¡
à¦Ĩà¦® à¦¬
à¦¬à¦¨ à¦ıà¦¬
à¦°à¦Ĩ à¦ĩ
à¦°à¦Ĩ à¦ľà¦®
à¦°à¦Ĩ à¦¨à¦¥
à§§à§ ·
à¦ªà¦¨ à¦ħà¦¨
à¦ªà¦¨ à¦ķà¦°à¦¬
à¦²à¦ķ à¦Ľ
à§¨à§¦ à§§
à¦°à¦ı à¦°à¦ķ
à¦°à¦ı à¦ĩà¦ľ
à¦ĩà¦¨ à¦ķà¦°à¦¤
à¦ıà¦ĩ à¦¶à¦¬
à¦°à¦ĵ à¦ĩà¦¨
à¦°à¦ĵ à¦ıà¦ķà¦Ł
à¦¨à¦¨ à¦°à¦¸
à¦ĩà¦¸ à¦¹à¦ľ
à¦¹à¦² à¦Ń
à§İ à¦ĸ
à¦¨à¦¦ à¦¨
à¦®à¦¤ à¦®à¦¤
à¦®à¦¸ à¦Ļ
à¦¤à¦¨ à¦Ł
à¦¤à¦¨ à¦¹à¦²
à¦¤à¦¨ à¦ĺà¦Ł
à¦ĩà¦² à¦Ń
à¦ĩà¦² à¦ĵà§Ł
à¦°à¦¸à¦® à¦¬
à¦ªà§ľ à¦¦
à¦®à¦² à¦¸
à¦¨à¦Ĺ à¦°à¦¹
à¦¨à¦Ĺ à¦°à¦¶
à§§à§¯ à§¨à§¦
à§§à§¯ à§ª
à§§à§¯ à§¬
à§§à§¯ à§§à§Ń
à¦¬à¦ķ à¦·
à¦¦à¦¸ à¦Ń
à¦²à¦ª à¦°à¦¬à¦°
à§Łà¦ª à¦£
à¦¬à¦Ľ à¦°à¦¹
à¦ªà¦¦ à¦²
à¦ªà¦¦ à¦ķà¦°
à¦Ĺà¦² à¦¡
à¦¬à¦¹ à¦°
à¦Łà¦¬ à¦Ĺ
à¦ıà¦®à¦¨ à¦ıà¦ķ
à¦°à¦¹à¦£ à¦ıà¦¬
à¦ıà¦® à¦ĩà¦ı
à¦°à¦ıà¦ķ à¦ľà¦¨à¦®
à§§à§® à§«
à§§à§ª à§«
à§§à§ª à§¯
à¦Ĺà¦ł à¦¨à¦®
à¦ıà¦ķà¦ľà¦¨ à¦°
à¦²à¦¯ à¦ĸà¦¨
à¦Ńà¦¬ à¦¹à¦¯
à¦¨à¦ħà¦¨ à¦¨
à¦¨à¦ħ à¦Ĺ
à¦²à¦Ł à¦¨à¦¬
à¦¤à¦°à¦£ à¦¨
à¦¹à¦¨ à¦ļà¦²
à¦ļà¦¤ à¦°à¦®
à¦łà¦ķ à¦ħà¦¨
à¦°à¦¸à¦¹ à¦Ĩà¦Łà¦ķ
à¦°à¦ĸà¦¬ à¦°à¦¦
à¦²à¦Ĩà¦² à¦®à¦¸
à§§à§¯à§Ń à§Ń
à¦¯à¦¤à¦® à¦¶
à¦¸à§ľ à¦ķà¦¬
à¦£à¦Ĺ à¦¤à¦®
à¦¨à¦ĩ à¦ķà¦¬
à¦°à¦ıà¦ķà¦® à¦¹
à¦Ĩà¦ī à¦Łà¦ķà¦°
à¦®à¦°à¦¤ à¦Ľ
à¦°à¦Ķ à¦·
à§¦à§¨à§¨à§¨à§© à§©à§«à§¯
à¦¨ à¦ĸà¦¨
à¦¨ à§Łà¦¦
à¦¨ à¦Ĳà¦ķ
à¦¬ à¦ĩà¦¡
à¦¤ à¦ĵà¦ķ
à¦¤ à¦Ĩà¦ĵà§Ł
à¦¸ à¦ľà¦¨
à¦¸ à¦²à¦ķ
à¦¸ à¦¸à¦¬
à¦¸ à¦ľà¦®
à¦® à¦ħà¦§
à¦® à¦Ĩà§Ł
à¦² à¦¹à§Łà¦ķ
à¦¦ à¦Ĳ
à§Ł à¦°à¦¶
à§Ł à¦¶à¦¤
à§Ł à¦Ĩà¦ĩà¦¨
à§Ł à¦ıà¦ĩà¦ª
à¦Ł à¦ĩà¦®
à¦ľ à¦°à¦¸
à¦ľ à¦ķà¦¦
à¦ľ à¦ħà¦«
à¦ľ à¦ļà¦Ł
à¦ľ à¦¤à¦®à¦¹
à¦¶ à¦ıà¦Ł
à¦Ĺ à¦®à¦ª
à¦ĸ à¦ķà¦²
à¦¡ à¦ĵ
à¦¡ à¦¨à¦¬
à¦¡ à¦ħà¦°
à¦¡ à¦Ĩà¦°
à¦°à¦¸ à¦°à¦¦
à¦ī à¦ī
à¦« à¦°à¦ķ
à¦°à¦¬ à¦ª
à¦°à¦ª à§Ł
à¦°à¦¤ à¦¹à¦¬
à¦°à¦¤ à¦¸à¦«à¦°
à¦ıà¦ķ à¦ĩà¦Ĺ
à¦ł à¦ļ
à¦°à¦Ĩ à¦¸à¦¬
à¦¹à§Ł à¦ıà¦°à¦Ĩà¦Ĺ
à¦¨à¦¬ à¦®
à¦²à¦ķ à¦Ł
à¦¸à¦¬ à¦¤à¦¥
à¦ĩà¦¸ à¦ķà¦²
à¦°à¦Ĺ à¦Ļ
à¦¹à¦² à¦Ĩà¦®
à¦¹à¦¤ à¦ķà¦°à¦¤
à§İ à¦«à¦°à¦°à¦¹à¦®
à¦¯à¦¬ à¦ľ
à¦¯à¦¬ à¦Ļ
à¦®à¦¤ à¦ļ
à¦¯à¦ķ à¦ł
à¦ĩà¦² à¦ĸ
à¦¦à¦ķ à¦ªà¦¦
à¦ķà¦Ł à¦¤
à¦¸à¦¹ à¦ľà¦¸
à¦¸à¦¹ à¦Ĩà¦¹à¦¤
à¦®à¦¹ à¦°
à§Łà¦ķ à¦°à¦Ľ
à¦¯à¦® à¦ª
à¦¨à¦ľ à¦²à¦¬
à¦®à¦¦ à¦Ĩà¦®
à¦ĩà¦ª à¦¦
à¦ĩà¦ª à¦Ľà¦¨
à¦ħà¦¬ à¦ľ
à¦Ĩà¦ľ à¦Ń
à¦ĸà¦¬ à¦°à¦¤
à¦¨à¦¹ à¦°
à¦¬à¦¹ à¦¦
à¦Łà¦¬ à§ľ
à¦īà¦² à¦Ļ
à¦Ĩà¦ĩà¦¨ à¦ķà¦°
à¦ıà¦ĸà¦¨ à¦ĵà¦¸
à¦²à¦Ń à¦Ł
à§§à§ª à§§
à¦°à¦¥à¦® à¦®à¦¹
à¦°à¦®à¦£ à¦Ń
à¦ıà¦¤ à¦Ĺ
à§¨à§« à§©
à¦¬à§ľ à¦§à¦°à¦¨
à¦Ĩà¦°à¦¬ à¦²
à¦ĩà¦īà¦ª à¦ķ
à¦¨à¦ıà¦ķ à¦ª
à§§à§¯à§Ń à§®
à¦°à¦ªà¦¦ à¦¥
à¦Ĩà¦ļ à¦®à¦ķ
à§¨à§¦à§§à§ª à§¨à§¦à§§à§«
à§§à§¨à§¦ à§§à§§
à¦¯à¦ķà¦°à¦¤ à¦¥
à¦°à¦ıà¦ķà¦¬ à¦Ľ
à¦ıà¦¸à¦ıà¦® à¦ıà¦®
à¦¨ à¦ĩà¦ļ
à¦¨ à¦īà§İà¦¸à¦¬
à¦¨ à¦°à¦£à¦¬
à¦¨ à¦ıà¦¸à¦ıà¦¸à¦¸
à¦¬ à¦Ĩà¦¹à¦®
à¦¤ à§Ł
à¦¤ à¦¤à¦¸
à¦¤ à§İà¦ªà¦°à¦¤
à¦® à¦°à¦¯
à¦® à¦®à¦°
à¦² à¦¹à§Łà¦¤
à¦¦ à¦¶à¦¬
à¦¯ à¦īà¦ªà¦¸
à¦¯ à¦ħà¦¥à¦¬
à§Ł à¦Ĩà§Ł
à§Ł à¦Ĩà¦§
à§Ł à¦Ĩà¦¸à¦¤
à¦¹ à¦°à¦Ĺà¦ŀ
à¦Ł à¦ĵà¦ķ
à¦ľ à¦ıà¦°à¦¸
à¦¶ à¦ıà¦²
à¦¶ à¦ħà¦¸
à¦¶ à¦ħà¦®
à¦ĩ à¦ĵà¦°
à¦· à¦ªà¦¦
à¦Ń à¦¨à¦¦
à¦Ń à¦ľà¦¨à¦ķ
à¦§ à¦¹à§Łà¦¨
à¦¥ à¦Ĩà¦Ľ
à¦ĸ à¦ľà¦¨
à¦ĵ à¦ıà¦ĩà¦¬
à¦ĵ à¦ıà¦ĩà¦ļà¦ıà¦¸à¦¸
à¦ī à¦¨à¦ª
à¦ī à¦¨à¦®
à¦°à¦ª à¦°à¦¹à¦¤
à§¨ à§¨à§¦à§¦à§¯
à¦ľà¦¨ à¦¹à§Ł
à¦ľà¦¨ à¦¹à¦¤
à¦ľà¦¨ à¦ķà¦°à¦¬
à¦°à¦Ĩ à¦²à¦¬
à¦¹à§Ł à¦ħà¦Ń
à¦¨à¦¬ à¦°à¦Ĺ
à¦ĺ à¦¤à¦®
à¦°à¦£ à¦Ĩà¦²
à¦°à¦ı à¦¯
à¦°à¦ı à§ľ
à¦¨à¦ª à¦¡
à¦°à¦ĵ à¦ł
à¦°à¦ĵ à¦¬à¦¨
à¦°à¦ĵ à¦ķà¦®
à¦¹à¦² à¦ıà¦ķà¦Ł
à¦ķà¦¬ à¦ľ
à¦¹à¦¤ à¦ľ
à§İ à¦®à¦¨
à¦²à¦¬ à¦¡
à¦¯à¦ķ à¦°à¦Ń
à¦°à¦ĩ à¦īà¦ľ
à¦·à¦£ à¦²
à¦·à¦£ à¦ĸ
à¦·à¦£ à¦ĸà¦¬à¦°à¦ĵà¦¬
à¦ļà¦¨ à¦Ń
à¦¸à¦¹ à¦°
à¦¨à¦Ĩ à¦ĩà¦ª
à¦ªà§ľ à¦¶
à¦¸à¦¨ à¦¶
à¦®à¦¹ à¦ĵà§Ł
à§Łà¦ķ à¦«
à§Łà¦ķ à¦°à¦£
à¦ķà¦¤ à¦²
à¦ķà¦¤ à¦ĸà¦¨
à§§à§¯ à§¨
à§§à§¯ à§¬à§®
à¦¬à¦ķ à¦¹
à§Łà¦¤ à¦ĸà¦¨à¦¤
à¦Ĺà¦¤ à¦ªà¦°
à¦²à§Ł à¦ıà¦¬
à¦«à¦² à¦¸à¦®
à¦¨à¦² à¦ľ
à¦¨à¦² à¦¡
à¦°à¦ıà¦ķ à¦ľà¦¨à¦¨
à¦°à¦¸à¦¬ à¦Ł
à¦¨à¦ħ à¦¥
à§¨à§¬ à§ª
à§¨à§Ń à§©
à¦°à¦¸à¦®à§Ł à¦ļ
à¦°à¦ĸà¦¬ à¦°à¦¶
à¦Łà¦¬à¦² à¦ª
à¦°à¦īà¦ªà¦° à¦°
à¦Ĩà¦°à¦ı à¦¸
à¦°à¦ªà¦¦ à¦ļ
à¦¬à¦¦à¦² à¦Ĺ
à¦ħà¦¥ à¦ļà¦¸
à¦ķà¦Ĩà¦¤ à¦ªà§ľ
à¦¸à¦°à¦£ à¦ķà¦°à¦¬
à¦·à¦¦à¦¸ à¦¦à¦¸
à§§à§¨à§©à§ªà§«à§¬à§Ńà§®à§¯à§§à§¦à§§à§§à§§à§¨à§§à§©à§§à§ªà§§à§«à§§à§¬à§§à§Ńà§§à§®à§§à§¯à§¨à§¦à§¨à§§à§¨à§¨à§¨à§©à§¨à§ªà§¨à§«à§¨à§¬à§¨à§Ńà§¨à§®à§¨à§¯à§©à§¦ à§©à§§
à¦ķ à¦°à¦ľ
à¦ķ à¦ķà¦ª
à¦ķ à¦ĺà¦¨
à¦¬ à¦°à¦Ľ
à¦¬ à¦°à¦£à¦ķ
à¦¤ à¦ĩ
à¦¤ à§ľ
à¦¤ à¦¦à¦°
à¦¤ à¦¸à¦ķ
à¦¤ à¦ĵà¦¦
à¦¤ à¦ļà¦²à¦Ľ
à¦® à¦ıà¦°à¦¨
à¦² à¦ıà¦Ĺ
à¦² à¦ħà¦¨à¦²
à¦² à¦Ĩà¦¸à¦²
à¦ª à¦ĩà¦¤
à¦ª à¦ıà¦Ł
à¦¦ à¦¤à¦ķà¦°
à¦¦ à¦ıà¦²
à¦¯ à¦Ĺà¦°
à¦¯ à¦Ĩà¦ķ
à¦¯ à¦ĵà¦®
à¦¯ à¦ĵà¦¤
à¦¯ à¦Ĩà¦¶
à§Ł à¦ĵà¦ª
à§Ł à¦ĵà¦ķ
à§Ł à¦ĵà¦Ń
à¦¹ à¦¨à¦®
à¦¹ à¦¨à¦¦
à¦Ł à¦ľà¦¨
à¦Ł à¦¨à¦¤
à¦Ł à¦Ĺà¦¤
à¦Ł à¦Ńà¦°
à¦ľ à¦®à¦°
à¦ľ à§Łà¦Ĺ
à¦ĩ à¦¦à¦ķ
à¦ĩ à¦ĩà¦¬
à¦ĩ à¦ľà¦¨à¦ķ
à¦Ĩ à¦°à¦¥
à¦ı à¦§
à¦Ľ à¦Ľ
à¦ļ à¦°à¦¬
à¦· à¦§à¦°
à¦· à¦īà¦ªà¦²à¦ķ
à¦Ń à¦¥
à¦Ń à¦°à¦ķà¦°à¦Ľ
à¦§ à¦ķà¦¬
à¦§ à¦¬à¦¦
à¦ĵ à¦¤à¦°
à¦ĵ à¦¬à¦²à¦¤
à¦ĵ à¦īà¦ªà¦¸
à¦¡ à¦Ĩà¦Ľ
à¦¡ à¦ħà¦¨à¦²
à¦ħ à¦Ľ
à¦ħ à¦ľà¦¸
à¦ī à¦ķà¦¬
à¦ī à¦Ĩà¦¬
à¦°à¦® à¦ıà¦¬
à¦£ à¦¹à¦ĵà§Ł
à§§ à§¨à§¦à§¦à§¯
à§ľ à¦¬à§ľ
à§¦ à§ªà§¦
à¦°à¦¤ à¦®à¦¹
à¦ıà¦ķ à¦ĺ
à¦¬à¦² à¦²à¦¤
à¦°à¦Ĩ à¦°à¦¨
à¦°à¦Ĩ à¦¸à¦ķ
à¦¨à¦¬ à¦¬à¦§
à¦ĺ à¦¸à¦®à§Ł
à¦ŀ à¦¸
à¦¨à¦¸ à¦¬à¦ľ
à¦ĩà¦¨ à¦ªà¦°
à¦ıà¦ĩ à¦ıà¦²
à§© à§¬à§¦
à¦¸à¦¬ à¦ķà¦¥
à¦¨à¦¨ à¦ĵà¦¶
à¦ĩà¦¸ à¦Ń
à§Łà¦¨ à¦Ľ
à¦°à¦Ľ à¦¨
à¦¯à¦ķ à¦¤
à¦¯à¦ķ à¦¤à¦Ł
à¦¦à¦¨ à¦ķà¦°à¦²
à¦·à¦£ à¦Ł
à¦¨à¦Ĩ à¦°à¦¯
à¦¨à¦ľ à¦²
à¦¨à¦Ĺ à¦¨
à¦²à¦ª à¦£
à¦¯à¦¸ à¦¹à¦¯
à¦Ĩà¦°à¦ĵ à¦¶à¦ķ
à¦ªà¦¦ à¦¯
à¦Ĺà¦² à¦°
à§¨à§ª à§®
à§§à§¨ à§¬
à¦Łà¦¸ à¦¶
à¦¸à¦¦ à¦®
à¦ĩà¦ī à¦Ń
à¦Ĺà¦ł à¦¨à¦¸à¦Ń
à¦ıà¦ķà¦ľà¦¨ à¦ķà¦°
à¦¨à¦ıà¦ĩ à¦°
à¦ıà¦ĩà¦ļ à¦ıà¦®
à¦¤à¦°à¦£ à¦Ń
à§¨à§¬ à§®
à¦ªà¦¥ à¦ª
à¦°à¦ĸà¦¬ à¦°à¦®
à¦°à¦ªà¦¥ à¦¸
à¦¹à¦¯à¦°à¦¤ à¦Ĩà¦¬
à¦ĵà¦Ĩà¦® à¦²
à¦°à¦ĩà¦¬à¦¨ à¦®
à§®à§®à§¦ à§¨à§®
à¦²à¦¹à¦ķ à¦®à¦¨
à¦¬à¦°à¦£ à¦ª
à§«à§¦à§¦ à§¦
à¦°à¦ªà¦°à¦ĵ à¦¤
à¦²à¦¸à¦¹ à¦¦
à¦Ĩà¦ī à¦Łà¦¸
à¦¨à§Łà¦ķ à¦°à¦Ľ
à¦¨ à¦²à¦¨
à¦¨ à¦īà¦ľ
à¦¨ à¦ĩà¦¯
à¦ķ à¦¯à¦¨
à¦ķ à¦ıà¦ĸ
à¦¬ à¦®à¦¤
à¦¬ à¦Ĺà¦²
à¦¬ à¦ıà¦¨
à¦¤ à¦°à¦ı
à¦¤ à¦¶à¦¹
à¦¤ à¦ıà¦ķà¦ª
à¦¤ à¦ıà¦¹
à¦¸ à¦¦à¦²
à¦² à¦ī
à¦¦ à¦ĩà¦¬
à¦¯ à¦ħà¦¬à¦¶
à§Ł à¦®à¦ª
à¦¹ à¦¡
à¦¹ à¦®à¦¨
à¦¹ à¦ĩà¦Ľ
à¦Ł à¦ł
à¦Ł à¦¬à¦¸
à¦Ł à¦Ĺà¦£à¦¨
à¦ľ à§Łà¦¤
à¦¶ à¦ľà¦®
à¦¶ à¦ľà¦¨à¦ª
à¦Ĺ à¦°à¦¯
à¦Ĺ à¦ĺà¦°
à¦ĩ à¦ĩà¦ļ
à¦ĩ à¦ıà¦°à¦¸
à¦Ĩ à¦Łà¦ª
à¦ı à¦°à¦īà¦ªà¦°
à¦Ľ à§Łà¦ľà¦¨
à¦· à¦°à¦ķ
à¦· à¦ķà¦°à¦¬
à¦§ à¦ĵà¦¬
à¦ĸ à¦¸à§ľ
à¦ĵ à¦¬à¦¸
à¦ĵ à¦ļà¦Ł
à¦ĵ à¦¸à¦®à¦¸
à¦ī à¦ħà¦ª
à¦ī à¦Łà¦ª
à¦« à§Ł
à¦« à¦¹à¦¬
à¦°à¦ķ à¦Ļ
à¦°à¦® à¦ļà¦²à¦®
à¦£ à¦ħà¦Ń
à§¨ à§¨à§¦à§§à§¦
à¦°à¦¤ à¦¹
à¦°à¦¤ à¦®à¦ľ
à§ĥ à¦ĥ
à¦®à¦¨ à¦¥
à¦ıà¦ķ à¦¨à¦¤
à¦ł à¦ķà¦¬
à¦¬à¦² à¦¥
à¦¬à¦² à¦ıà¦¬
à¦¬à¦¨ à¦ļ
à¦¬à¦¨ à¦ªà¦°
à¦¬à¦¨ à¦¸à¦Ļ
à¦°à¦£ à¦Ĩà¦®à¦°
à¦¬à¦¸ à¦Ľ
à¦¨à¦ª à¦¦à¦ķ
à¦¨à¦ª à¦¦à¦ª
à¦ıà¦ĩ à¦¸à¦ª
à¦ıà¦ĩ à¦ªà¦£
à¦ĩà¦¸ à¦«
à¦°à¦Ĺ à¦ľ
à§« à§§à§ª
à¦¨à¦® à¦¸
à¦īà¦¨ à¦¦
à¦īà¦¨ à¦ķà¦°
à§Łà¦¨ à¦¬à¦¨
à¦ĩà¦² à¦«à¦Ł
à¦¦à¦ķ à¦Ĺ
à¦¦à¦ķ à¦ļ
à¦ļà¦² à¦°
à¦¤à¦® à¦¯
à¦¤à¦ķ à¦ĸà¦¨
à¦°à¦¸à¦® à¦ķ
à¦Łà¦¨ à¦ļ
à¦Łà¦¨ à¦Ń
à¦¨à¦Ĩ à¦Ĺà¦¸
à¦¯à¦¦ à¦®
à¦®à¦² à¦¯
à§¨à§§ à§§
à¦¨à¦ı à¦¡
à¦Ĩà¦Ĺ à¦®à¦¨à¦ķà¦°
à§§à§¯ à§¬à§¨
à¦¬à¦ķ à¦ł
à¦¬à¦ª à¦Ľà¦¨
à¦²à¦ª à¦¶
à¦ħà¦¬ à¦¤à¦°à¦£à¦ķà¦°
à¦¯à¦¸ à¦ł
à¦ĸà¦¬ à¦°à¦«
à¦Ĺà¦² à¦¹à§Ł
à¦²à¦¹ à¦ķà¦°
à¦¨à¦ĵ à¦ķà¦°
à¦·à§Ł à¦¹à¦ļ
à¦¤à¦¹à§Ł à¦®
à§İà¦¸ à¦ķà¦¤
à§İà¦¸ à¦°à¦¬à¦°
à¦ıà¦®à¦¨ à¦®
à¦ıà¦®à¦¨ à¦ħà¦¬à¦¸
à¦·à¦ķ à¦Ń
à¦ıà¦ĸà¦¨ à¦ļ
à¦ķà¦Ń à¦°
à§§à§ª à§¨
à¦ıà¦ķà¦ľà¦¨ à¦®à¦¹
à§§à§© à§¨
à§§à§¬ à§ª
à¦¶à¦Ĺ à§ľà¦¤
à¦ªà¦¬ à§Łà¦¸
à¦°à¦ĵà¦ª à¦°à¦¶
à¦°à¦Ĩà¦¨ à¦ħà¦¬à¦®
à¦ªà¦£ à¦¦
à¦Ĩà¦°à¦¬ à¦¦
à¦ıà¦« à¦Ĩà¦ĩ
à§ªà§¦ à§ª
à§ľà¦ķ à¦ªà¦°
à¦°à¦«à¦² à¦¨à¦ķ
à¦°à¦ĸà¦¬ à¦°à¦ķ
à¦°à¦Ŀ à¦¡
à§§à§¯à§Ń à§¯
à¦¯à¦¤à¦® à¦¹
à¦¸à¦¹à¦ľ à¦Ń
à¦¬à¦ķà¦° à¦¸
à¦¹à¦¯à¦°à¦¤ à¦Ĩà¦²
à¦°à¦¸à¦¦ à¦°à¦°
à§Łà¦Ĩà¦°à¦ĵ à¦ıà¦ķà¦ľà¦¨
à¦°à¦¨à¦ľ à¦°à¦¦
à¦¨ à¦ĩà¦īà¦¸
à¦ķ à¦ľà¦°
à¦ķ à¦§à¦°à¦¨
à¦¬ à¦¢
à¦¬ à¦ľà¦¨à¦¸
à¦¬ à¦°à¦ļà¦¨
à¦¤ à¦ħà¦ķ
à¦¤ à¦ıà¦¤
à¦¤ à¦ľà¦²
à¦¤ à¦ļà¦²à¦ļ
à¦¤ à¦²à¦ķà¦¡
à¦¤ à¦Ĩà¦°à¦®
à¦¤ à¦ĵà¦·
à¦¸ à¦²à¦¨
à¦¸ à¦ļà¦¨
à¦¸ à¦ıà¦Ł
à¦¸ à¦¸à¦°à¦ķ
à¦® à¦ħà¦«
à¦® à¦ıà¦Ń
à¦² à¦ıà¦ĩà¦¬
à¦² à¦ıà¦°
à¦² à¦ĵà¦¸à¦®
à¦ª à¦Ĩà¦¨
à¦¦ à¦Ĩà¦Ĺ
à¦¦ à¦ıà¦Ł
à¦¦ à¦°à¦Ĩà¦²
à¦¯ à¦ªà¦¤
à¦¯ à¦ħà¦ķ
à¦¯ à¦Łà¦ķà¦°
à¦¯ à¦īà¦ªà¦Ń
à§Ł à¦°à¦¯
à§Ł à¦ļà¦²à¦Ľ
à§Ł à¦ıà¦ĩà¦¦
à§Ł à¦¬à¦¸à¦¤
à¦¹ à¦£
à¦¹ à¦¬à¦²à¦¤
à¦Ł à¦°à¦¶
à¦Ł à¦ļà¦Ł
à¦Ł à¦ıà¦°à¦¸
à¦ľ à¦ĵà¦ª
à¦ľ à¦«à¦°
à¦Ĺ à¦¸à¦ķ
à¦ĩ à¦¶à¦¨
à¦ĩ à¦ħà¦¶
à¦ĩ à¦¬à¦²à¦¬
à¦Ĩ à¦ĩà¦¦
à¦ı à¦°à¦ħà¦Ń
à¦ı à¦°à¦Ĩà¦ĵà¦¤
à¦ļ à§Łà¦¨
à¦· à¦¬à¦¨
à¦¥ à¦¦à¦¤
à¦ĸ à¦ªà¦¤
à¦ĵ à¦ĵà¦¯
à¦ĵ à¦ĺà¦Ł
à¦ĵ à¦ħà¦¬à¦¶
à¦ħ à¦°à¦ľ
à¦°à¦® à¦¨à¦¸
à¦°à¦ª à¦°à¦ĺ
à¦£ à¦ļà¦°
à§§ à§¨à§¦à§§à§Ń
à§¦ à§§à§®à§§à§¯
à¦ľà¦¨ à¦ķà¦°à¦²
à¦¬à¦² à¦«
à¦°à¦¹ à¦ł
à¦°à¦Ĩ à¦ķà¦¸
à¦°à¦Ĩ à¦ĩà¦Ń
à¦°à¦Ĩ à¦¸à¦¤
à¦°à¦ļ à¦¬
à§ª à§¨à§©
à¦°à¦Ĺ à¦¦
à¦°à¦Ĺ à¦¤à¦ķ
à¦¶à¦¨ à¦ħà¦«
à§Łà¦¨ à¦¹à§Ł
à§Łà¦¨ à¦Ĩà¦²
à§Łà¦¨ à¦Ĺà¦°
à¦īà¦ª à¦ª
à¦ķà¦² à¦Ļ
à¦¨à¦¦ à¦²à¦Ł
à¦¯à¦ķ à¦¸
à¦®à¦¸ à¦¤
à¦Ĩà¦¸ à¦ĵà§Ł
à¦·à¦£ à¦ħà¦§
à¦Łà¦¨ à¦¥
à¦Łà¦¨ à¦ĵà¦Ĺ
à¦ĩà¦¬ à¦¦à¦²
à¦¨à¦Ĩ à¦°à¦¦
à¦¸à¦¨ à¦°
à§Łà¦ķ à¦ª
à¦ķà¦¤ à¦¦à¦¨
à¦¨à¦Ĺ à¦°à¦°
à¦¶à¦ķ à¦¥
à¦®à¦ª à¦²
à¦ªà¦ķ à¦¶
à¦ªà¦ķ à¦Ĺ
à§¨à§¦à§¨à§§ à§¦à§¬
à¦Ĩà¦°à¦ĵ à¦²
à¦²à¦¹ à¦ķà¦¶
à¦¨à¦®à¦¨ à¦ľ
à¦°à¦¡ à¦°
à¦¬à¦¦ à¦²à¦¨
à§§à§¨ à§¨à§¬
à¦¦à¦ª à¦°à¦¬à¦°
à¦°à¦ıà¦ķ à¦ľ
à§§à§ª à§¦à§¦
à¦¨à§Ł à¦Ń
à¦¨à¦« à¦ķ
à¦¶à¦¦ à¦¤
à¦¯à¦¥ à¦¸
à§¨à§® à§¦
à§«à§¦ à§«
à¦Ĩà¦ĩ à¦¨à¦¤
à¦¸à¦« à¦°à¦ķ
à§Łà¦Ń à§Ł
à¦ĵà¦ļ à¦²à¦¬
à¦²à¦Ĩ à¦ĩà¦¸
à¦¨à¦ıà¦ķ à¦¸
à¦ĸà¦ķ à¦²à¦ķ
à¦¯à¦Ł à¦¨à¦¬
à¦°à¦ıà¦ĩ à¦®à¦¨
à¦¸à¦¹à¦ľ à¦²à¦Ń
à¦°à¦ħà¦ª à¦ķà¦°
à¦¶à¦¨à¦ķ à¦°à¦Ľ
à§Łà¦ĵ à¦Ĳà¦¤
à¦°à¦Īà¦¦ à¦īà¦ªà¦¹
à¦¬à¦ªà¦¨ à¦ķ
à¦Ĩà¦Ĩ à¦Ĩà¦Ĩ
à¦¨ à¦¯à¦¨
à¦ķ à¦¨à¦ľ
à¦ķ à¦ıà¦¤
à¦ķ à¦¹à§Łà¦¨
à¦¬ à¦ĵà¦¬
à¦¬ à¦ĩà¦¸à¦²
à¦¤ à¦¶à¦¨
à¦¤ à¦ıà¦ª
à¦² à¦£
à¦² à¦¦à¦ķ
à¦² à¦ľà¦®
à¦² à¦ıà¦°à¦¬
à¦ª à¦ķà¦°à¦²
à¦¦ à¦¶à¦¨
à¦¦ à¦¢
à¦¦ à¦°à¦ıà¦¬
à¦¯ à¦ħà¦¬à¦¸
à¦¯ à¦¹à§Łà¦¤
à¦¯ à¦Ĩà¦ª
à§Ł à¦ľà¦²
à§Ł à¦ıà¦°
à§Ł à¦Ĩà¦¸à¦¬
à¦¹ à¦ķà¦®
à¦Ł à¦¨à¦¨
à¦ľ à¦¬à¦Ľ
à¦ľ à¦ĵà¦¸à¦®
à¦¶ à¦¬à¦¸
à¦¶ à¦¹à¦ĵà§Ł
à¦Ĺ à¦°à¦¸
à¦Ĺ à¦ľà¦Ł
à¦Ĺ à¦ĵà¦ł
à¦ĩ à¦ĵà¦¸
à¦ĩ à¦°à¦ķà¦®
à¦ĩ à¦ĺà¦£
à¦ĩ à¦ıà¦ĩà¦ķ
à¦ĩ à§ľà¦°
à¦Ń à¦«
à¦¡ à¦¬à¦¨
à¦¡ à¦²à¦®
à¦ħ à¦ħ
à¦ħ à¦¬à¦¬
à¦ħ à¦²à¦Ĩ
à¦°à¦¸ à¦¬à¦¨
à¦ī à¦¸à¦«
à¦°à¦ķ à¦¤à¦¦
à¦°à¦ª à¦°à¦¢
à¦£ à¦¬à¦²
à¦£ à§Łà¦ķà¦°
à¦ıà¦ķ à¦Ĩà¦²
à¦ľà¦¨ à¦¸à¦Ń
à¦ľà¦¨ à¦ıà¦Ľ
à¦°à¦¦ à¦®
à¦°à¦¨ à¦Ĩà¦¤à¦Ļ
à¦°à¦¹ à¦¨à¦ķ
à¦°à¦¹ à¦Łà¦²
à¦¬à¦¨ à¦¹
à¦ªà¦¨ à¦ķà¦°à¦²
à¦¨à¦¸ à¦¹à¦¸
à¦²à¦ķ à¦ıà¦¬
à¦°à¦ļ à¦®à§İà¦ķ
à¦°à¦ĵ à¦°à¦«
à¦¶à¦¨ à¦Ĺà¦łà¦¨
à¦¤à¦° à¦²
à¦¤à¦° à¦ķà¦°à¦¤
à¦¹à¦¤ à¦¯
à¦°à¦ī à¦Ńà§Ł
à¦īà¦¨ à¦ªà¦°
à¦ĩà¦ķ à¦ķ
à¦°à¦² à¦¸
à¦°à¦ĩ à¦¡
à¦°à¦ĩ à¦¨à¦ľ
à¦·à¦£ à¦°
à¦¨à¦Ĩ à¦¦à¦°
à¦ĩà¦® à¦Ł
à¦¸à¦¨ à¦Ĺ
à§Łà¦ķ à¦ł
à§¨à§§ à§¨à§ª
à¦²à¦¸ à¦Ł
à¦¨à¦ı à¦°à¦¦
à¦¶à¦ķ à¦ıà¦¸
à§§à§¯ à§©à§«
à¦Ĩà¦ľ à¦Ĩà¦®à¦°
à§Łà¦ª à¦¶
à¦¬à¦Ľ à¦°à¦¥
à§¨à§¦à§¨à§§ à§¦à§Ń
à§¨à§¦à§¨à§§ à§§à§§à§¨
à¦¯à¦ª à¦¶
à¦Ĺà¦¤ à¦Ĺ
à¦Ĩà¦°à¦ĵ à¦¤à¦¥
à¦ªà¦¦ à¦ļ
à¦¨à¦ĵ à¦¡
à¦¨à¦ĵ à¦īà¦¤
à¦¨à¦ĵ à¦¤à¦¥
à¦°à¦īà¦ª à¦°à¦Ĩà¦®
à¦īà¦² à¦¦
à¦¶à¦® à¦Ĺ
à¦°à¦¹à¦£ à¦ķà¦°à¦Ľ
à¦ķà¦¶ à¦¨à¦¨
à¦¨à¦ıà¦ĩ à¦Ĺ
à¦¬à§ľ à¦ħ
à¦Ĩà¦°à¦¬ à¦¬
à§¨à§¬ à§«
à§¨à§© à§¨à§¦à§¨à§§
à¦®à¦Ĩ à¦¯
à§¨à§¦à§§à§¯ à§¨à§¦
à¦¶à¦² à¦ĵà¦ª
à¦·à¦ĸà¦¬ à¦°à¦¦
à¦·à¦ĸà¦¬ à¦°à¦¡
à¦Ĺà¦ķ à¦²à¦ķ
à¦Łà¦« à¦Ł
à¦ĩà¦ĸ à¦Ĩà¦¬
à¦Ĩà¦ļ à¦°à¦£à¦¬
à¦īà§ľ à¦¨
à¦¬à¦°à¦£ à¦ķà¦°à¦¬
à§Łà¦ıà¦ķ à¦ķ
à§§à§¯à§® à§«
à¦ĩà¦īà¦ı à¦¨à¦ĵà¦®
à¦°à¦¶à¦ªà¦¥ à¦Ĺ
à¦¨ à¦ĸà¦¬à¦°à¦ª
à¦¨ à¦īà¦Ĺ
à¦¨ à¦¨à¦ķà¦¶
à¦ķ à¦īà¦ļ
à¦ķ à¦ıà¦Ĺ
à¦ķ à¦ļà¦²à¦ļ
à¦¬ à¦ħà¦§
à¦¬ à¦īà¦²
à¦¤ à¦ıà¦¦
à¦¸ à¦ıà¦²
à¦¸ à¦°à¦£à¦¨
à¦® à¦ĸà¦¨
à¦® à¦īà¦ļ
à¦® à¦Īà¦¦
à¦² à¦ıà¦Ń
à¦ª à¦ħà¦¤
à¦¦ à¦°à¦Ľ
à¦¦ à¦®à¦ķ
à¦¦ à¦ħà¦¨à¦²
à¦¯ à¦ĸà¦¬
à¦¯ à¦Ĩà¦¹
à§Ł à¦Ļ
à§Ł à¦ıà¦®à¦¨à¦ķ
à¦¹ à¦¹à¦¤
à¦¹ à¦Ĩà¦Ľ
à¦¹ à¦¶à¦¬
à¦Ł à¦ĩà¦¸à¦²
à¦ľ à¦²à¦¨
à¦ľ à¦¹à¦ĵà§Ł
à¦ľ à¦ĵà¦¹
à¦ľ à¦ªà§ľà¦¤
à¦Ĺ à¦Ĩà¦¸
à¦ĩ à¦ĩà¦ī
à¦ĩ à¦ļà¦Ł
à¦· à¦¦à¦ª
à¦§ à¦¬à¦°
à¦§ à¦¨à¦ľ
à¦ĵ à¦§à¦¨
à¦ĵ à¦īà¦ļ
à¦¡ à¦§
à¦°à¦¬ à¦ĩà¦Ĺ
à¦°à¦® à§İà¦¸
à¦£ à¦Ĩà¦ªà¦¨
à¦ªà¦° à¦¯
à¦ł à¦ľ
à¦ł à¦Ĺ
à¦ľà¦¨ à¦Ł
à¦ľà¦¨ à¦¨à¦¤
à¦ľà¦¨ à¦Ĩà¦¹à¦¤
à¦¬à¦² à¦ªà¦¦
à¦Ĩà¦® à¦¤
à¦Ļ à¦Ľ
à¦¹à§Ł à¦ıà¦¸à¦®à§Ł
à¦¬à¦¸ à¦¹à¦ķ
à¦¬à¦¸ à¦¦à¦°à¦¦
à¦°à¦ħ à¦Ľ
à¦¹à¦¬ à¦¹
à¦°à¦ı à¦²à¦¸
à¦¨à¦ª à§Ł
à¦°à¦Ĺ à¦ķ
à§« à§¨à§¦
à¦ķà¦® à¦¥
à¦¹à¦² à¦Ľ
à¦¹à¦² à¦ĩà¦ľ
à¦ķà¦¬ à¦ķ
à¦¹à¦¤ à¦¹à¦ĵà§Ł
à§İ à¦Ĩà¦ªà¦¨
à¦°à¦ī à¦·
à¦¯à¦ķ à¦ª
à¦ıà¦¸ à¦ıà¦®à¦¨
à¦¦à¦¨ à¦¥
à¦·à¦£ à¦¬à¦¨
à¦·à¦£ à¦ħà¦¨
à¦ķà¦¸ à¦ľ
à¦¸à¦¹ à¦ľà¦¨
à¦¸à¦¹ à¦Ĩà¦°
à¦¸à¦¹ à¦¨à¦¶
à¦¨à¦Ĩ à¦ĩà¦¸
à¦ĩà¦® à¦§
à¦°à¦ĸ à¦£
à¦¸à¦¨ à¦ıà¦¬
à¦¨à¦ľ à¦°à¦ķ
à¦¨à¦Ĺ à¦°à¦ķ
à§§à§¯ à§¬à§¯
à¦ħà¦¬ à¦ĩà¦¨
à¦Ĺà¦² à¦Ł
à¦²à¦¹ à¦ĵà¦¯
à¦¨à¦ĵ à¦®à¦¹
à¦°à¦īà¦ª à¦°à¦Ĩà¦²
à¦ľà¦® à¦¹à¦²
à¦²à§Ł à¦ĸ
à§¨à§ª à§¨
à¦ıà¦®à¦¨ à¦ķà¦¥
à¦Ĺà¦¨ à¦Ĩà¦²
à¦ıà¦ĸà¦¨ à¦¹
à¦¶à¦¸ à¦«à¦°
à¦ıà¦ķà¦ľà¦¨ à¦Ľ
à§§à§§ à§¨à§¦à§¨à§§
à¦ªà¦¸ à¦Ł
à¦Ĩà¦Łà¦ķ à¦¶
à¦ķà¦¹ à¦ĵà¦¯
à¦ıà¦« à¦Ł
à¦ªà¦¥ à¦ļ
à¦¸à¦ķà¦² à¦§à¦°
à¦īà¦® à¦°à¦°
à¦¯à¦Ł à¦ķà¦¬
à¦¯à¦ĸà¦¨ à¦Ń
à§¨à§¦à§§à§© à§¨à§¦à§§à§ªà§¨à§¦à§§à§«
à¦°à¦¸à¦ķà¦² à¦®
à¦²à¦¨à¦ķ à¦¶
à¦¸à§ľ à¦ķà¦¨
à§§à§¯à§® à§Ń
à¦ıà¦ķà¦ĩ à¦ıà¦²
à§¨à§¦à§¦à§¬ à§¨à§¦à§§à§¯
à§¨à§¦à§¦à§« à§¨à§¦à§¨à§§
à¦°à¦°à¦« à¦ķà¦°
à¦ķ à¦ıà¦¨
à¦ķ à¦Ĩà¦¨à¦¨
à¦ķ à¦Īà¦¶
à¦¤ à¦ıà¦ĩà¦ª
à¦¤ à¦Ĩà¦¨à¦¨
à¦¸ à¦Ĺà¦²
à¦¸ à¦ħà¦ķ
à¦® à¦ªà¦¤
à¦® à¦ķà¦¤
à¦² à¦īà¦ļ
à¦² à¦Ĩà¦«à¦Ĺ
à¦² à¦ıà¦ľ
à¦¦ à¦¹à¦ļ
à¦¦ à¦ĵà¦Ł
à¦¯ à¦ıà¦Ĺ
à¦¯ à¦¬à¦²à¦¤
à¦¯ à¦ıà¦ĩà¦ª
à¦¯ à¦ħà¦ŀ
à¦¯ à¦ĩà¦īà¦°
à§Ł à¦²à¦ķ
à§Ł à¦ľà¦¨à¦ª
à¦¹ à¦¸à¦°
à¦¹ à¦ĩà¦ļ
à¦Ł à¦¶à¦°
à¦Ł à¦īà¦²
à¦Ł à¦īà¦ļ
à¦Ł à¦²à¦ķà¦°
à¦ľ à¦°à¦¤
à¦¶ à¦¶à¦¨
à¦¶ à¦Ĩà¦ªà¦¨
à¦¶ à¦Ĩà¦¬
à¦¶ à¦ĵà¦¶
à§Ģ à¦Ĥ
à¦Ĺ à¦Ĩà¦°
à¦ĩ à¦ıà¦°
à¦ĩ à¦Ĩà¦¨à¦¨
à¦Ĩ à¦ĩà¦¤
à¦ı à¦Ĩà¦¦
à¦ı à¦°à¦¡
à¦ļ à¦¸à¦®
à¦ļ à¦ķà¦Ń
à¦ļ à¦īà¦ĩà¦ķ
à¦ļ à¦ıà¦ĩà¦ļà¦¡
à¦· à¦ĺ
à¦· à¦Ĩà¦Ĺ
à¦· à¦īà¦¦à¦¯
à¦Ń à¦ĸ
à¦Ń à¦¹à§Ł
à¦§ à¦¸à¦¤
à¦ĸ à¦¬à¦ķ
à¦ĸ à¦ķà¦¹
à¦ĵ à¦ĸà¦¨
à¦ĵ à¦ľà¦®
à¦¡ à¦¹à¦²
à¦¡ à¦¦à¦ķ
à¦ī à¦¸à¦ª
à¦« à¦Ľ
à¦°à¦¬ à¦¸à¦¤
à¦°à¦¬ à§ľà¦²
à¦°à¦® à¦¨à¦ķà¦°
à¦°à¦ª à¦°à¦Ĩà¦²
à¦°à¦ª à¦Łà¦Ń
à¦£ à¦ıà¦ķ
à¦£ à¦ķà¦®
à¦£ à¦Ĩà¦¬
à§¦ à§¬à§¦
à¦ľà¦¨ à¦Ĩà¦²
à¦°à¦¦ à¦²à¦¥
à¦°à¦¨ à¦ķà¦°à¦¤
à¦°à¦ľ à¦Ĺà¦¨
à¦°à¦Ĩ à¦¬à¦¶
à¦°à¦Ĩ à¦ĩà¦¨à¦¬
à¦¹à§Ł à¦Ľ
à¦¹à§Ł à¦«
à¦¨à¦¬ à¦ķà¦²
à¦°à¦£ à¦ĺà¦Ł
à¦¨à¦¤ à¦¸à¦®
à¦¨à¦ķ à¦¯
à¦¨à¦ķ à¦£
à¦°à¦ı à¦«
à¦¨à¦ª à¦°à¦®
à¦ıà¦ĩ à¦Ĩà¦¨
à§© à§«à§¦
à¦°à¦ĵ à¦ĩà¦®
à¦°à¦ĵ à¦ħà¦Ń
à¦¨à¦¨ à¦·
à¦¶à¦¨ à¦ĵà¦¸
à¦¨à¦® à¦¦
à¦°à¦ī à¦Ńà¦¯
à¦²à¦¬ à¦¬
à¦ļà¦¨ à¦¹à¦¬
à¦¨à¦Ĩ à¦°à¦ª
à¦ĩà¦® à¦¡
à¦°à¦ĸ à¦²
à¦®à¦¹ à¦ķ
à¦®à¦¬ à¦¦à¦²
à¦²à¦¸ à¦¦
à¦¨à¦ı à¦°à¦ķà¦®
à¦®à¦ķ à¦°à¦Ľ
à¦¨à¦¶ à¦¨à¦¸
à¦ĩà¦ª à¦ķà¦°
à¦¬à¦Ľ à¦°à¦¨
à¦ªà¦ķ à¦īà¦¨
à¦Ĺà¦¤ à¦ıà¦¬
à¦Ĺà¦¤ à¦¹à¦²
à¦¯à¦¤ à¦ĸ
à¦Ĺà¦² à¦Ĺà¦°
à¦²à¦¹ à¦ķà¦ľ
à¦¨à¦ĵ à¦ĩà¦¨
à¦¨à¦ĵ à¦ĩà¦¦
à¦¸à¦®à§Ł à¦®à¦¤
à¦°à¦īà¦ª à¦°à¦ıà¦ķà¦Ł
à¦°à¦®à¦¤ à¦²
à¦°à¦®à¦¤ à¦Ń
à¦ĩà¦¬à¦¨ à¦¯
à¦¬à¦¦ à¦®
à¦Ī à¦¨à¦īà¦¦
à¦ıà¦®à¦¨ à¦¸à¦®à§Ł
à¦ıà¦ĸà¦¨ à¦Ĩà¦®à¦°
à¦ıà¦ĸà¦¨ à¦īà¦ĩà¦ķ
à¦ĩà¦ī à¦ĩà¦ķ
à¦°à¦ıà¦ķ à¦ľà¦¨à¦ķ
à¦°à¦¥à¦® à¦«
à¦°à¦¥à¦® à¦¬à¦²
à§Łà¦Ĺ à¦¤à¦ķ
à¦¨à§Ł à¦¹
à¦¨à§Ł à¦Ĩà¦®
à¦¤à¦² à¦«
à¦¨à¦« à¦Ł
à§¨à§« à§Ń
à¦¨à§Łà¦¨ à¦ªà¦°
à¦¤à¦°à¦£ à¦¨à¦ĵà¦Ĺ
à§¨à§¬ à§§
à¦®à¦Ĩ à¦°à¦¸
à¦¥à¦ķ à¦ħà¦Ń
à¦¨à¦ıà¦ķ à¦ªà¦°
à¦°à¦¸à¦®à§Ł à¦¡
à¦¯à¦ĸà¦¨ à¦¶
à¦°à¦¸à¦¦ à¦°à¦¹
à¦°à¦Ĩà¦°à¦ĵ à¦ªà¦¡
à¦°à¦¹à¦¯ à¦°à¦¤
à¦ħà¦¥ à¦°
à§§à§¨à§¦ à§Ń
à¦ķà¦ĵ à¦Ĺà¦£à¦¶
à¦Ĩà¦¹à¦®à¦¦ à¦®
à¦®à¦°à¦£ à¦¸
à§¨à§¦à§¨ à§§à§·
à¦ıà¦ķà¦° à¦ķà¦®
à¦¹à¦¤à¦° à§Ł
à¦ľà¦¸à¦¦ à¦°à¦¶
à¦ĩà¦¦à¦¹ à¦Ŀ
à§§à§ªà§¨à§® à§·
à¦¨à¦Ĺà¦£ à¦¤à¦¨
à¦ļà¦²à¦ķ à¦°à¦Ľ
à§¨à§¦à§§à§©à§¨à§¦à§§à§ªà§¨à§¦à§§à§« à§¨à§¦à§§à§¬à§¨à§¦à§§à§Ńà§¨à§¦à§§à§®à§¨à§¦à§§à§¯à§¨à§¦à§¨à§¦à§¨à§¦à§¨à§§
à¦° à¦¯à¦¬
à¦¨ à¦ĺà¦£
à¦¨ à¦ĺà¦¨
à¦ķ à¦°à¦Ń
à¦¬ à¦ļà¦Ł
à¦¤ à¦Ĩà¦«à¦Ĺ
à¦¸ à¦ī
à¦® à§Łà¦¸
à¦® à§Łà¦¬
à¦® à¦Ĩà¦ľà¦ķ
à¦² à¦īà¦¨
à¦² à¦Łà¦¬
à¦² à¦īà§İà¦ª
à¦² à¦¸à¦®à¦°
à¦ª à¦°à¦ĸ
à¦ª à¦Ĩà¦ĩà¦ª
à¦¦ à¦¸à¦¬
à¦¦ à¦¶à¦¦
à¦¯ à¦ĩà¦²
à¦¯ à¦ĩà¦¯
à¦¯ à¦ĩà¦ļ
à¦¯ à¦ĩà¦Ĺ
à¦¯ à§İà¦ª
à§Ł à¦ķà¦Ł
à§Ł à¦Ĺà¦¬
à§Ł à¦Ĩà¦¸à¦²
à§Ł à¦ħà¦¶
à§Ł à¦ıà¦ªà¦°
à¦¹ à¦¨à¦°
à¦Ł à¦²à¦¨
à¦Ł à¦°à§Ł
à¦Ł à¦ıà¦°à¦ª
à¦ľ à¦¸à¦¨
à¦¶ à¦ĵà¦Ń
à¦Ĺ à¦ıà¦ķ
à¦Ĺ à¦ħà¦Ń
à¦Ĺ à¦¸à¦¹à¦¨
à¦ĩ à¦·
à¦ı à¦°à¦¨à¦¤
à¦ļ à¦ķà¦°à¦¤
à¦ļ à¦Ĺà¦¤
à¦· à¦¤à¦¨
à¦· à¦§à¦¨
à¦§ à¦Ĩà¦²
à¦§ à¦¸à¦°à¦ķ
à¦§ à¦ĵà¦¦
à¦¥ à¦¦à¦¨
à¦ĵ à¦Ĺà¦¤
à¦ĵ à¦ľà¦¬
à¦ĵ à¦ıà¦ĸ
à¦ĵ à¦ıà¦Ĺ
à¦¡ à¦®à¦¨
à¦¡ à¦¨à¦¤
à¦ħ à¦°à¦£
à¦°à¦¸ à¦ľ
à¦°à¦ķ à¦ĵà¦¬
à¦£ à¦ł
à§§ à§¨à§¦à§¦à§§
à§ľ à¦¬à¦Ľà¦°à¦ª
à¦ł à¦ķà¦¸
à¦¬à¦² à¦ıà¦ķà¦Ł
à¦°à¦¦ à¦«
à¦Ĩà¦® à¦²à¦ķ
à¦°à¦¹ à¦ĩà¦¬
à¦°à¦¹ à§Łà¦°
à¦¬à¦¨ à¦ĸ
à¦°à¦Ĩ à¦°à¦ĵà¦¬
à¦°à¦Ĩ à¦°à¦ĵà¦¸
à¦¨à¦¬ à¦ĩà¦Ł
à¦ĺ à¦ªà¦°
à¦ŀ à¦ķ
à¦ªà¦¨ à¦ªà¦°
à¦¬à¦¸ à¦¦
à¦°à¦ħ à¦¬à¦®
à¦°à¦ı à¦°à¦Ĩà¦Ĺ
à¦ıà¦ĩ à¦¸à¦°à¦ķ
à¦ıà¦ĩ à¦ħà¦¸
à¦ıà¦ĩ à¦ħà¦§
à¦ıà¦ĩ à¦¬à¦Ľà¦°
à¦¸à¦¬ à¦¡
à¦°à¦ĵ à¦ħà¦§
à¦ĩà¦¸ à¦ł
à¦¶à¦¨ à¦§
à¦°à¦Ń à¦°à¦£à¦ª
à¦ķà¦¬ à¦¡
à¦¹à¦¤ à¦¹à¦¯
à¦°à¦ī à¦¹
à¦²à¦¨ à¦°à¦¤à¦¶
à¦īà¦ª à¦¸à¦®
à¦ķà¦² à¦°
à¦²à¦¬ à¦¹
à¦®à¦¤ à¦ªà¦°
à¦®à¦¤ à¦Ĩà¦²
à¦¦à¦ķ à¦Ľ
à¦¦à¦¨ à¦Ĩà¦¨
à¦°à¦ĩ à¦ķà¦°
à¦°à¦ĩ à¦ħà¦¨
à¦ķà¦¸ à¦²
à¦°à¦¸à¦® à¦Ĺ
à¦²à¦¤ à¦¸à¦®
à¦°à¦« à¦°à¦®à¦ª
à§Łà¦¸ à¦¦à¦¸
à¦¨à¦Ĩ à¦°à¦ľ
à¦¨à¦Ĩ à¦¶à¦°
à¦ĩà¦® à¦ķ
à¦ªà§ľ à¦ķ
à§Łà¦ķ à¦Ń
à§Łà¦ķ à¦¡
à¦¯à¦® à¦¡
à¦°à¦Ł à¦Ļ
à¦¬à¦ķ à¦Ń
à¦ĸà¦¬ à¦°à¦ħà¦¨à¦²
à¦Ĺà¦¤ à¦ħà¦¨
à¦īà¦ľ à¦ķà¦°
à¦¨à¦¹ à¦ķ
à¦ĩà¦¦ à¦°à¦¹
à¦¬à¦¹ à¦ħà¦Ĺ
à¦Ī à¦¦à¦ª
à¦ıà¦®à¦¨ à¦²
à¦²à¦Ĺ à§ľ
à¦ĵà¦ķ à¦ł
à¦°à¦¹à¦£ à¦¸
à¦¸à¦¦ à¦¦
à¦¸à¦¦ à¦°à¦¨
à¦ĩà¦¡ à¦ķ
à¦°à¦ıà¦ķ à¦¬à¦¨
à¦Ĺà¦ł à¦¨à¦¶
à¦¦à¦® à¦¶
à¦°à¦®à¦£ à¦¹
à¦¨à¦¡ à¦ķ
à¦°à¦¸à¦¬ à¦ķà¦°
à¦¤à¦¹ à¦ĩà¦¬
à¦ľà§Ł à¦¹
à¦¤à¦°à¦£ à¦«
à¦²à¦Ĩ à¦°à¦¤
à¦ªà¦¥ à¦ļà¦²
à¦°à¦¸à¦¹ à¦Ĺ
à¦ĸà¦® à¦£
à¦¯à¦Ł à¦¨à¦ª
à¦Ńà¦¬à¦¨ à¦¨
à¦£à¦¤ à¦ķà¦°à¦¤
à¦®à¦« à¦¸
à§¦à§Ń à§§à§¨
à¦°à¦ĵà¦ªà¦° à¦°
à¦¬à¦ķà¦° à¦°
à¦°à¦¬à§Łà¦¸ à¦¸
à§©à§¬ à§«
à¦§à¦¦ à¦®à¦¨
à§©à§® à§Ń
à¦ĩà¦²à¦« à¦²à¦ķ
à¦¨à¦ħà¦ªà¦° à¦¦
à§Ŀ à¦Ń
à¦¬à¦ĩà¦¸ à¦¹à¦ľ
à¦¯à¦¤à¦®à¦¸ à¦¦à¦¸
à¦¨ à¦ĩà¦¸à¦°
à¦¨ à¦ıà¦ķà¦ľà¦¨à¦¬
à¦ķ à¦«à¦²
à¦ķ à¦ħà¦ķ
à¦ķ à¦¶à¦ª
à¦¬ à§İà¦¸
à¦¬ à¦°à¦Ĩà¦ľ
à¦¤ à¦¤à¦°
à¦¤ à¦Ĺà¦¬
à¦¤ à¦Ĩà¦¬à¦¦
à¦¸ à¦¸à¦¨
à¦¸ à¦Ĺà¦¬
à¦® à¦°à¦¸
à¦® à¦²à¦¤
à¦² à§Łà¦¦
à¦² à¦Ĩà¦ĵà§Ł
à¦² à¦Ĩà¦¬à¦¦
à¦ª à¦ĵà§Ł
à¦ª à¦īà¦ĩà¦ķ
à¦¦ à¦¤à¦°
à¦¦ à¦¤à¦ķ
à¦¦ à¦¸à¦¨
à¦¦ à¦Ĩà¦²à¦®
à¦¯ à¦ıà¦¦
à¦¯ à¦Ĩà¦°à¦®
à§Ł à¦ĵà¦¤
à§Ł à¦ľà§Ł
à¦¹ à¦°à¦ľà¦¨
à¦¹ à¦¸à¦¨
à¦ľ à¦°à¦¹
à¦ľ à¦īà¦ķ
à¦Ĺ à¦¸à¦¬
à¦Ĺ à¦ľà¦¨à¦ķ
à¦Ĺ à¦ļà¦°à¦®
à¦ĩ à¦ĩà¦¬à¦¨
à¦ĩ à¦§à¦¨
à¦ĩ à¦Ĩà¦ª
à¦Ĩ à¦¤à¦¸
à¦Ľ à¦§à¦°à¦¤
à¦· à¦¬à¦ľ
à¦Ń à¦ıà¦¬
à¦¥ à¦¸à¦ª
à¦ĵ à¦ĩà¦Ľ
à¦ĵ à¦ļà¦²à¦Ľ
à¦ĵ à¦Ĩà¦§
à¦¡ à¦¸à¦°
à¦« à¦Ĭ
à¦°à¦ķ à¦Ń
à¦°à¦¬ à¦°à¦ĸ
à¦£ à¦®à¦¤
à§¨ à§¨à§¦à§¦à§§
à§¦ à§¨à§¯
à¦°à¦¤ à¦®à¦£
à¦ıà¦ķ à¦¸à¦®
à¦ł à¦¹à§Ł
à¦ľà¦¨ à¦ĵà¦¸
à¦°à¦¨ à¦Ĩà¦®
à¦°à¦ľ à¦¨à¦¤
à¦°à¦¹ à¦¨à¦¯
à¦¬à¦¨ à¦®à¦¨
à¦°à¦Ĩ à¦¨à¦°
à¦°à¦Ĩ à¦®à¦ľ
à¦¨à¦¬ à¦¦à¦²
à¦¨à¦¤ à¦¸
à¦¨à¦¤ à¦²
à¦¬à¦¸ à¦¤à¦ĺ
à¦¨à¦¨ à¦¨
à¦ķà¦® à¦§
à¦°à¦ī à¦ĸ
à§Łà¦¨ à¦ļ
à§Łà¦¨ à¦¹à¦²
à¦²à¦¨ à¦ľ
à¦²à¦¨ à¦īà¦¦
à¦°à¦Ľ à¦²
à¦²à¦¬ à¦ĺà¦Łà¦¤
à¦¤à¦¨ à¦ľ
à¦ĩà¦ķ à¦ł
à¦¦à¦¨ à¦ľà¦®
à¦°à¦² à¦°
à¦¤à¦® à¦ªà¦°
à¦ĩà¦¬ à¦ķ
à¦¨à¦Ĩ à¦ĩà¦¨à¦¶
à¦¸à¦¨ à¦²
à¦¯à¦¦ à¦°
à§Łà¦ķ à¦ľ
à¦ķà¦¤ à¦ļ
à¦®à¦² à¦Ĺ
à¦¨à¦Ĺ à¦°à¦¯
à¦¶à¦ķ à¦§à¦°
à§§à§¯ à§ªà§«
à§§à§¯ à§ªà§¬
à§§à§¯ à§ªà§¯
à¦¬à¦ķ à¦¯
à¦ĵà¦ª à¦°à¦¬à¦°
à¦ħà¦¬ à¦Ĺà¦¤
à§Łà¦ª à¦ŀ
à¦ªà¦¦ à¦¹
à¦¨à¦ĵ à¦¸à¦®à¦¸
à¦°à¦īà¦ª à¦°à¦ľ
à¦ľà¦® à¦¡
à¦¨à¦¹ à¦ĩà¦¤
à¦²à§Ł à¦¹
à¦ħà¦¬à¦¸ à¦°à¦¨
à¦Ī à¦®à¦¶
à¦®à¦® à¦ľ
à¦°à¦ıà¦ķ à¦ĸ
à§§à§Ń à§¨
à§§à§Ń à§©
à¦ıà¦ķà¦ľà¦¨ à¦¡
à¦Ĳ à¦ª
à¦¨à¦ħ à¦¡
à¦¨à§Łà¦¨ à¦¸à¦®
à¦¬à§ľ à¦ķà¦¥
à§¨à§¬ à§Ń
à¦ķà¦¸à¦® à¦°
à¦¨à¦ıà¦ķ à¦ĩà¦¸à¦Ļ
à¦·à¦ĸà¦¬ à¦°à¦ĸ
à¦°à¦¸à¦®à§Ł à¦ħà¦¨
à¦°à¦¸à¦¹ à¦§à¦°
à¦ĭ à¦£à¦¸
à¦Łà¦¬à¦² à¦ħà¦¨
à¦¯à¦Ł à¦¨à¦®
à¦Ĩà¦¹à¦¤ à¦ķà¦°
à¦ĩà¦¸à¦¬ à¦¬
à¦¨à¦¸à¦®à§Ł à¦ıà¦ĩà¦¬
à¦¦à¦¨à¦¬ à¦Ļ
à¦¤à¦®à¦¸ à¦Ń
à¦°à¦Ĺà¦ł à¦¨à¦ķà¦°
à§§à§¯à§¨à§Ń à§Ńà§§
à¦«à¦Ĭ à¦²à¦ĩà§Ł
à¦¨ à¦Ĳà¦¤
à¦ķ à¦¨à¦ª
à¦ķ à¦ħà¦¥à¦¬
à¦ķ à¦ĩà¦īà¦°
à¦¬ à¦īà¦ª
à¦¬ à¦¤à¦ķ
à¦¬ à¦īà¦ķ
à¦¬ à¦ĩà¦Ľ
à¦¤ à¦ĩà¦²
à¦¤ à¦īà§İà¦ª
à¦¤ à¦°à¦ĩà¦īà¦Ł
à¦¸ à¦īà¦¤
à¦¸ à¦ħà¦ª
à¦¸ à¦Ĭ
à¦¸ à¦īà¦ĩà¦¨
à¦® à¦ķà¦¦
à¦® à¦Ĩà¦°à¦¬
à¦² à¦ĩà¦°
à¦² à¦¬à¦²à¦²
à¦² à¦¶à¦¹
à¦² à¦ĩà¦¨à¦¸
à¦² à§ľà¦Ľ
à¦ª à¦¥à¦¨
à¦¦ à¦°à¦°
à¦¦ à¦ħà¦§
à¦¦ à¦«à¦°
à¦¦ à¦īà¦¦à¦¯
à¦¯ à¦Ĩà¦ĩà¦¨à¦Ĩà¦¦
à§Ł à¦ħà¦«
à§Ł à¦ıà¦¸à¦®à§Ł
à¦¹ à¦īà¦ªà¦²à¦ķ
à¦Ł à¦ľà¦®
à¦Ł à¦¹à§Łà¦¨
à¦Ł à¦ħà¦¶
à¦ľ à¦®à¦¤
à¦ľ à¦Ĩà¦ķ
à¦ľ à¦īà¦²
à¦¶ à¦²à¦¨
à¦Ĺ à¦Ĩ
à¦Ĺ à¦¬à¦²
à¦Ĺ à¦°à¦¨
à¦Ĺ à¦ıà¦ķà¦Ł
à¦Ĺ à¦¸à¦®à§Ł
à¦ĩ à¦Ĩà¦¸à¦¬
à¦Ľ à¦ĵà¦®
à¦ļ à§Łà¦Ĺ
à¦§ à¦Ĩà¦°
à¦§ à¦Ĩà¦¨
à¦§ à¦ħà¦¬à¦°
à¦¥ à¦°à¦¨
à¦¥ à¦¨à¦ľ
à¦ĵ à¦°à¦¨
à¦ĵ à¦Ĺà¦²
à¦ĵ à¦¸à¦®à§Ł
à¦ĵ à¦ĵà¦®
à¦ĵ à¦ıà¦°à¦¬
à¦¡ à¦Ĩà¦ĩà¦²
à¦°à¦¸ à¦¬à¦°
à¦ī à¦ĩà¦¥
à¦« à¦ĩà¦¬à¦¨
à¦« à¦Ĩà¦¹à¦®
à§ľ à¦Ŀ
à¦°à¦¤ à¦²à¦¦
à¦°à¦¤ à¦°à¦Ļ
à¦°à¦¤ à§İà¦ªà¦°à¦¤
à¦ıà¦ķ à¦ķà¦Ń
à¦¬à¦² à¦¡
à¦°à¦¹ à¦ĩà¦¤
à¦¬à¦¨ à¦°à¦ķ
à¦¨à¦¬ à¦ĩà§Ł
à¦°à¦£ à¦¤à¦ķ
à¦ªà¦¨ à¦Ł
à¦ªà¦¨ à¦Ĺà¦°
à¦¬à¦¸ à¦¶
à¦²à¦ķ à¦¯
à¦²à¦ķ à¦ªà¦°
à¦°à¦ı à¦ªà¦°
à¦°à¦ı à¦ĩà¦«
à¦ıà¦ĩ à¦ıà¦ķà¦Ł
à¦ıà¦ĩ à¦īà¦¨
à¦ıà¦ĩ à¦ļà¦¨
à§© à§®à§¦
à§ª à§ªà§¦
à¦¶à¦¨ à¦ķà¦°à¦¬
à¦ķà¦® à¦ŀ
à¦¹à¦² à¦Ĩà¦ªà¦¨
à§İ à¦Ľ
à§İ à¦ªà¦¤
à§¬ à§§à§¦
à¦°à¦¯ à¦Ľ
à¦®à¦¤ à¦¯
à¦¤à¦¨ à¦·
à¦¦à¦ķ à¦ľà¦¹
à¦ļà¦² à¦Ĺ
à¦ļà¦² à¦ķà¦°à¦¤
à¦¦à¦¨ à¦¬à¦²
à¦¦à¦¨ à¦Ĩà¦®
à¦°à¦ĩ à¦§
à¦°à¦ĩ à¦ħ
à¦°à¦ĩ à¦®à¦°
à¦ķà¦¸ à¦¹à¦ľ
à¦Łà¦¨ à¦Ĺà¦°
à¦²à¦¤ à¦Ĩà¦¨
à¦ļà¦¨ à¦Ĩà¦²
à§Łà¦ķ à¦ĩà¦®à¦¨
à¦ķà¦¤ à¦ĸ
à¦®à¦¦ à¦«
à¦®à¦¦ à¦Ĩà¦¬à¦¦
à¦²à¦¸ à¦ħ
à¦¨à¦Ĺ à¦°à¦Ĺ
à¦¨à¦ı à¦«
à§§à§¯ à§ªà§ª
à§§à§¯ à§¬à§§
à¦¸à¦ª à¦¡
à¦ĩà¦ª à¦Ł
à¦Ĩà¦ľ à¦Ĺ
à§Łà¦® à¦ķà¦°
à¦ĸà¦¬ à¦°à¦Ĺ
à¦ĸà¦¬ à¦°à¦Ń
à¦ªà¦¦ à¦ıà¦¬
à¦Ĺà¦² à¦Ľ
à¦²à¦¹ à¦ķà¦Ń
à¦ıà¦² à¦Ł
à¦·à§Ł à¦¯
à¦°à¦īà¦ª à¦ķà¦®
à¦Ĺà¦£ à¦«
à¦¬à¦¹ à¦¨à¦§à¦°
à¦¬à¦¹ à¦¨à¦ķà¦°à¦¤
à¦§à¦¨ à¦ĵà¦¬
à¦°à¦¡ à¦Ĺ
à¦Łà¦¬ à¦¡
à¦«à¦² à¦ķà¦°
à¦ıà¦®à¦¨ à¦®à¦¨
à¦Ĩà¦ĩà¦¨ à¦ĵà¦Ĩà¦¦
à¦Ĺà¦¨ à¦¸à¦®
à¦ıà¦ĸà¦¨ à¦«
à¦ıà¦ĸà¦¨ à¦ĵà¦ľ
à¦Łà¦ª à¦°à¦¬à¦°
à¦ĵà¦ķ à§Ł
à¦ıà¦® à¦ħà¦¨
à¦¸à¦¦ à¦°à¦°
à§§à§® à§ª
à¦ķà¦¶ à¦¹
à¦ıà¦ķà¦ľà¦¨ à¦¦
à¦ıà¦ķà¦ľà¦¨ à¦ľ
à¦¨à§Ł à¦¤à¦¬
à§§à§© à§¦à§¦
à¦²à¦ľ à¦¬à¦¸
à¦Ĺà¦® à¦¬à¦²
à¦¯à¦¥ à¦ª
à¦ıà¦°à¦ª à¦°à¦ķ
à¦¨à¦¸à¦® à¦¨
à¦ıà¦ĩà¦ļ à¦¸
à¦ıà¦¸à¦¬ à¦ľ
à§¨à§© à§Ń
à¦²à¦Ĩ à¦°à¦¸
à¦²à¦ļ à¦¤
à¦łà¦ķ à¦¡
à¦·à¦ĸà¦¬ à¦°à¦Ĩà¦°à¦ĵ
à¦°à¦¸à¦®à§Ł à¦Ľ
à¦°à¦ħà¦¬à¦¸ à¦°à¦ª
à¦ĵà¦¸à¦® à¦¬
à¦ķà¦ĸ à¦¨à¦¬
à¦¤à¦ĸà¦¨ à¦°
à¦·à§Łà¦ķ à¦īà¦ªà¦¦
à¦°à¦Ĩà¦°à¦ĵ à¦ıà¦ķà¦Ł
à¦¨à¦ıà¦ĸ à¦¨à¦¤
à§§à§¯à§® à§©
à¦ļà¦°à¦® à¦§à¦°
à§Ŀ à¦¬
à¦²à¦¸à¦¹ à¦Ĺ
à§©à§¦à§¦ à§¦
à¦°à¦¬à¦¦à¦² à¦Ĺ
à¦°à¦ıà¦ĸ à¦¨à¦ķ
à¦Ĩà¦īà¦Ł à¦¹à§Ł
à¦¬à¦°à¦¶ à¦¨
à§Łà¦īà¦ª à¦¸à¦®
à¦°à¦Ķ à¦·à¦§
à¦¨ à¦ľà¦¨à¦¸
à¦ķ à¦īà¦ªà¦ķ
à¦¬ à¦Ĩà¦Ĺ
à¦¬ à¦ķà¦°à¦²
à¦¬ à§Łà¦ķà¦°
à¦¤ à¦·
à¦¤ à¦¶à¦¤
à¦¤ à¦°à¦ıà¦ķà¦Ł
à¦¤ à¦Ĺà¦¦
à¦¤ à¦ıà¦Ľ
à¦¸ à¦°à¦ļà¦¨
à¦® à¦ıà¦ķà¦¦
à¦² à¦ıà¦®à¦¨à¦ķ
à¦² à¦ļà¦²à¦¤
à¦² à¦°à¦ªà¦¦
à¦ª à¦¸à¦¹
à¦ª à¦ªà§ľ
à¦ª à¦ĵà¦¨
à¦ª à¦£à¦¬
à¦¦ à¦°à¦¶
à¦¦ à§Łà¦¦
à¦¦ à¦ľà¦®
à¦¦ à¦īà¦ªà¦ľ
à¦¯ à¦¶à¦¸
à¦¯ à¦ĵà¦ľ
à¦¯ à§İà¦¨
à§Ł à¦ıà¦¸à¦¬
à§Ł à¦¸à¦¬à¦ļ
à§Ł à¦ļà¦²à¦ļ
à¦ľ à¦ł
à¦ľ à¦ªà¦¡
à¦ľ à¦ľà§Ł
à¦Ĺ à¦Ńà¦¬à¦¨
à¦ĩ à¦°à¦¤
à¦ĩ à¦ĩà¦°
à¦ĩ à¦ħà¦«
à¦Ĩ à¦°à¦Ĩà¦²
à¦ı à¦°à¦īà¦ª
à¦ı à¦¹à¦¸
à¦ļ à¦¶à¦¤
à¦· à¦°à¦¬
à¦· à¦¨à¦¤
à¦· à¦®à¦°
à¦· à¦Ĺà¦¤
à¦¥ à¦¹à¦¤
à¦¥ à¦ķà¦¤
à¦¥ à¦¸à¦°à¦ķ
à¦¥ à¦īà¦ªà¦ľ
à¦ĸ à¦²à¦¬
à¦ĸ à¦ĺà¦°
à¦ĵ à¦¹à§Łà¦¨
à¦ĵ à¦ħà¦Ĺ
à¦ĵ à¦Ĩà¦ª
à¦ĵ à¦Ĺà¦£à¦®
à¦ħ à¦ĸ
à¦ī à¦¤à¦¬
à¦« à¦ĵà¦¯
à¦°à¦¬ à¦ĩ
à¦°à¦® à§Łà¦¨
à¦°à¦ª à¦°à¦ıà¦Ł
à¦£ à¦ªà¦¤
à¦¸à¦® à¦·
à¦ıà¦ķ à¦Ŀ
à¦ľà¦¨ à¦ķà¦°à¦Ľ
à¦°à¦¨ à¦·
à¦°à¦¨ à¦«
à¦°à¦¨ à§Łà¦¤
à¦°à¦ľ à¦²à¦ª
à¦¹à§Ł à¦Ĩà¦²
à¦¨à¦¬ à¦¯
à¦¨à¦¬ à¦§
à¦ĺ à¦°à¦Ľ
à¦ĺ à¦°à¦Ł
à¦¬à¦° à¦ķà¦°
à¦²à¦ķ à¦ĸà¦¨
à§¨à§¦ à§ª
à¦¨à¦ķ à¦ļ
à¦¨à¦ķ à¦Ļ
à¦ĩà¦¨ à¦ıà¦ķà¦Ł
à¦¨à¦ª à¦°à¦ª
à¦ıà¦ĩ à¦Ĩà¦®
à¦ıà¦ĩ à¦ħà¦°
à¦¨à¦¨ à¦ķà¦°
à§« à§§à§§
à¦¹à¦¤ à¦«
à¦²à¦¨ à¦ĸ
à¦²à¦¬ à¦¦à¦²
à¦¦à¦ķ à¦«
à¦ĩà¦ķ à§Ł
à¦ĩà¦ķ à¦·
à¦·à¦£ à¦¥
à¦·à¦£ à¦ķà¦°à¦¬
à¦ĸà¦¨ à¦ļ
à¦¤à¦ķ à¦¶
à¦°à¦¸à¦® à¦·
à¦²à¦¤ à¦Ĺ
à¦¸à¦¹ à¦ıà¦ķ
à¦¨à¦Ĩ à¦¸à¦¬
à¦ĩà¦® à¦¶
à¦°à¦ĸ à¦¬à¦°à¦°
à§Łà¦ķ à¦²à¦ķ
à¦ķà¦¤ à¦Ń
à¦¨à¦Ĺ à¦°à¦Ľ
à¦¨à¦Ń à¦¬à¦¨
à¦®à¦ķ à¦ĸà¦¨
à¦®à¦ª à¦°à¦¬à¦°
à¦¬à¦ķ à¦¸à¦®
à¦ķà¦ª à¦²
à¦ĵà¦¸ à¦Ļ
à¦Ĩà¦ľ à¦«
à¦Ĩà¦°à¦ĵ à¦®
à¦·à§Ł à¦Ľ
à¦¬à¦¹ à¦¨à¦®à¦¨
à¦¬à¦¹ à¦¨à¦¬à¦¨
à¦ħà¦¸ à¦¤
à¦¤à¦¹à§Ł à¦ľ
à¦¬à¦¦ à¦¦
à¦¬à¦¦ à¦°à¦Ĺà¦ŀ
à¦«à¦² à¦ĸ
à¦«à¦² à¦«
à¦ıà¦®à¦¨ à¦¯
à¦²à¦Ĺ à¦Ł
à¦ıà¦ĸà¦¨ à¦°
à¦ĩà¦¡ à¦¨
à§Łà¦° à¦°à¦¹
à¦¨à¦ıà¦ĩ à¦ľ
à¦¤à¦¹ à¦ĩà¦¯
à§¨à§« à§«à§¦
à¦¸à¦ļ à¦°
à¦°à¦ĵà¦ª à¦°à¦ľ
à¦Łà¦¦ à¦²à¦ķ
à¦¨à§Łà¦¨ à¦¹à§Ł
à¦ķà¦ľ à¦Ł
à§¨à§¯ à§ª
à¦¨à¦Ĩà¦² à¦®
à¦Īà¦¦ à¦ĸ
à¦ªà¦¥ à¦¹
à¦°à¦®à¦¹ à§ľ
à¦¸à¦ķà¦² à¦¦
à¦·à¦ĸà¦¬ à¦°à¦Ń
à¦·à¦ĸà¦¬ à¦°à¦Ł
à¦°à¦ªà¦¥ à¦ª
à¦°à¦Ŀ à¦Ĺà§ľ
à¦¯à¦ĸà¦¨ à¦ıà¦ķà¦Ł
à¦°à¦Ļ à¦¬
à¦īà¦¡ à¦¤
à¦¯à¦¤à¦® à¦ľà¦¨à¦ª
à§§à§¨à§¦ à§«
à§Łà¦ıà¦ķ à¦¹
à¦ªà¦Ń à¦Ł
à¦Ńà¦¬à¦¤ à¦¤
à§¨à§¦à§¨ à§§à§®
à¦¸à¦¨à¦ķ à¦²à¦®
à¦ħà¦ªà¦¹ à¦°à¦£à¦ķ
à¦¸à¦¬à¦ĸà¦¬ à¦°à¦ľà¦¨à¦ª
à¦Ĺà¦£à¦Ńà¦¬à¦¨ à¦¥
à¦«à¦īà¦² à¦ĩà§Ł
à¦·à¦¬à¦ľ à¦ŀ
à¦° à§Łà¦¸
à¦¨ à¦ıà¦ķà¦ľà¦¨à¦®
à¦¬ à¦¹à¦¯
à¦¬ à¦ĵà¦¨
à¦¬ à¦Ĺà§ľà¦¤
à¦¤ à¦ıà¦®
à¦¤ à¦ıà¦°
à¦¤ à¦ĵà¦ħà¦¨
à¦¸ à¦ĵà¦¨
à¦¸ à¦ĩà¦¨à¦¸
à¦® à¦¶à¦¬
à¦® à¦ıà¦¦
à¦® à¦¬à¦²à¦¤
à¦® à¦ıà¦ĩà¦¡
à¦² à¦®à¦¨à¦¸
à¦² à¦ĵà¦«
à¦ª à¦¸à¦ª
à¦ª à¦ħà¦¬à¦¸
à¦¦ à¦ĩà¦®
à¦¦ à¦Ĺà¦²
à¦¦ à¦ļà¦Ł
à¦¦ à¦ıà¦ĩà¦ª
à¦¯ à¦ªà¦ķ
à¦¯ à¦ıà¦¨
à¦¯ à¦ıà¦¤
à¦¯ à¦ĩà¦¶
à¦¯ à¦ĵà¦¶
à§Ł à¦¬à¦²à¦¤
à§Ł à¦ıà¦ķà¦¸
à§Ł à¦¬à¦¸à¦¬
à¦¹ à¦ıà¦ķà¦Ł
à¦Ł à¦ľà¦¨à¦¸
à¦ľ à¦§à¦°
à¦ľ à¦ĩà¦®
à¦ľ à¦ħà¦°
à¦ľ à¦ĵà¦®
à¦ľ à¦¤à¦²
à¦¶ à¦Ŀ
à¦¶ à¦ħà¦¬
à¦¶ à¦¹à¦ļ
à¦¶ à¦¨à¦ķà¦®
à¦Ĺ à¦Ĩà¦²
à¦Ĺ à¦°à¦°
à¦Ĺ à¦¸à¦°
à¦Ĺ à¦ĵà¦¸à¦¹à¦¯
à¦ĩ à¦ĵà¦¨
à¦ĩ à¦®à¦¸à¦ľ
à¦ĩ à¦ıà¦ĩà¦¨
à¦Ĩ à¦°à¦Ĩà¦®à¦°
à¦ı à¦Ĩà§Ł
à¦ļ à¦®à¦¸
à¦ļ à¦ĩà§Ł
à¦· à¦®à¦¬
à¦§ à¦ķà¦¦
à¦§ à¦ħà¦Ń
à¦§ à¦ķà¦ķ
à¦§ à¦Ĺà¦²
à¦¥ à¦ĵ
à¦ĵ à¦īà¦ª
à¦ĵ à¦ļà¦°
à¦ĵ à¦¬à¦²à¦Ľ
à¦¡ à¦ĵà¦¬
à¦¡ à¦¦à¦²
à¦¡ à¦¸à¦Ń
à¦« à¦īà¦¦
à¦°à¦¬ à¦£à¦ķà¦°
à¦°à¦® à¦®à¦¤
à¦°à¦® à¦¨à¦Ń
à¦£ à¦ĵ
à¦£ à¦īà¦¦
à¦¸à¦® à¦ľ
à¦ľà¦¨ à¦¬à¦¨
à¦Ĩà¦® à¦ľ
à¦°à¦¨ à¦°à¦¸
à¦¹à§Ł à¦ıà¦ķà¦Ł
à¦¹à§Ł à¦Ĩà¦¬
à¦¹à§Ł à¦Ĩà¦Ĺ
à¦ĺ à¦°à¦¨
à¦ĺ à¦ĺ
à¦°à¦£ à¦¹à¦ļ
à¦¨à¦¤ à§İà¦ķ
à¦ªà¦¨ à¦ıà¦¬
à¦ªà¦¨ à¦®à¦¹
à¦¨à¦¸ à¦°à¦¦
à¦²à¦ķ à¦ľà¦¬
à¦°à¦ı à§Ł
à¦°à¦ı à¦¸à¦ª
à¦°à¦ı à¦§à¦°à¦¨
à¦°à¦ı à¦ĩà¦ķà¦¥
à¦¤à¦¬ à¦¦à¦²
à¦¨à¦ª à¦°à¦¸
à¦°à¦ľà¦¨ à¦¨à¦ķ
à§© à§§à§¨
à¦¸à¦¬ à¦ªà¦°
à¦°à¦ĵ à¦Ĩà¦®
à¦¹à¦² à¦¹
à¦¹à¦² à¦Ĺ
à§İ à¦ĵà§Ł
à¦²à¦¨ à¦¬à¦¨
à¦¯à¦¬ à¦¡
à¦°à¦Ľ à¦ĵà§Ł
à¦²à¦¬ à¦Ĺ
à§Ń à§«à§¦
à¦¨à¦¦ à¦²à¦ķ
à¦¤à¦¨ à¦¹à¦¬
à¦¦à¦ķ à¦²à¦ķ
à¦Ŀ à¦Ľ
à¦¦à¦¨ à¦¡
à¦°à¦² à¦¸à¦Ń
à¦ĸà¦¨ à¦¨à¦ķ
à¦ĵà¦¯ à¦¥
à¦¯à¦® à¦Ł
à¦ĩà¦Ł à¦¶
à¦®à¦² à¦°
à¦¨à¦ı à¦°à¦«à¦²
à¦¨à¦Ń à¦¦
à¦¬à¦ķ à¦ļ
à¦ĵà¦ª à¦£
à¦ĩà¦ª à¦®
à§§à§¦ à§§à§«
à¦Ĩà¦¦ à¦¤
à¦Ĩà¦°à¦ĵ à¦¯
à¦ıà¦² à¦°
à¦īà¦ľ à¦¡à¦Łà¦ķà¦®
à¦°à¦īà¦ª à¦°à¦¶
à¦¶à¦¬ à¦Ļ
à¦ĩà¦Ń à¦°
à¦¸à¦² à¦¦
à¦¬à¦¹ à¦Ĩà¦Ĺ
à¦¬à¦¹ à¦¨à¦ĸ
à¦ĵà¦® à¦§
à¦Ĺà¦¬ à¦Ĺ
à¦Ī à¦¦à¦ķ
à¦ıà¦®à¦¨ à¦ļ
à¦·à¦ķ à¦«
à¦ıà¦ĸà¦¨ à¦ĵà¦¤
à¦¸à¦¦ à¦°à¦ª
à§§à§® à§¨à§¦à§¨à§§
à¦°à¦¥à¦® à¦ħà¦¨à¦²
à¦¯à¦ķà¦° à¦ķ
à¦ıà¦ķà¦ľà¦¨ à¦ļ
à§§à§¬ à§§
à¦¶à¦¹ à¦°à¦¥
à¦¨à¦ıà¦ĩ à¦ħà¦Ń
à¦ķà¦ļ à¦ķà¦°
à¦¸à¦ļ à¦¤
à¦ķà¦°à¦£ à¦¦
à¦¬à§ľ à¦¶
à¦¡à¦¸ à¦«à¦°
à§¨à§Ń à§ª
à¦ķà¦Ľ à¦²
à¦ĸà¦ķ à¦«
à¦ķà¦ĸ à¦¨à¦ķ
à¦¯à¦ĸà¦¨ à¦ļ
à¦¤à¦ĸà¦¨ à¦Ĩà¦®à¦°
à¦¨à¦Ĩà¦¬ à¦¹
à¦īà¦¸ à¦Ĺ
à§¯à§¯ à§¦à§«
à¦°à¦ıà¦ĩ à¦ĺà¦Łà¦¨
à¦Ĺà¦¡ à¦«
à¦°à¦¥à¦®à¦¦ à¦«
à¦ĵà¦ıà¦ķ à¦ª
à¦ķà¦¶à¦¨ à¦²
à¦¨à¦¤à¦ĸà¦¨ à¦Ĩà¦ªà¦¨
à¦Ĩà¦ī à¦¯
à¦®à¦°à¦¤ à¦ħà¦¬à¦¸
à¦ªà¦¦à¦¸ à§ľ
à¦ıà¦¸à¦ıà¦« à¦¬
à¦¤à¦°à¦Ĩ à¦¹à¦¤à¦¹à§Ł
à¦·à¦£à¦¸à¦® à¦¤à¦²à¦ĵà¦ľà¦²
à¦¥à¦ķà¦¸ à§ľà¦ķà¦¦
à§ĩ à§į
à¦ķ à¦¨à¦¨
à¦ķ à¦īà¦ªà¦ľ
à¦ķ à¦ĩà¦¨à¦¸
à¦ķ à¦ħà¦®
à¦ķ à¦Ĩà¦§
à¦¬ à¦ľà¦²
à¦¤ à¦ĵà¦¶
à¦¤ à¦Īà¦¦
à¦¤ à¦ħà¦¶
à¦¤ à¦ľà¦¨à¦¤
à¦¸ à¦ªà¦¨
à¦¸ à¦ªà§ľ
à¦® à¦ıà¦°à¦¸
à¦® à¦īà¦°
à¦® à¦Īà¦¨
à¦² à¦²à¦¬
à¦² à¦Ĩà§Ł
à¦² à¦Ĩà¦°à¦¬
à¦² à¦ıà¦ĩà¦¸
à¦² à¦ıà¦ĩà¦ª
à¦ª à¦¸à¦¦
à§Ł à¦ĵà¦¯
à§Ł à¦¬à¦²à¦²
à§Ł à¦Ĩà¦°à¦ķ
à¦¹ à¦¸à¦¬
à¦Ł à¦ĩà¦²
à¦Ł à¦ıà¦®à¦ª
à¦Ł à¦ıà¦°à¦ķ
à¦ľ à¦ķà¦ķ
à¦ľ à¦¤à¦¥
à¦ľ à¦ķà¦ļ
à¦¶ à¦¸à¦¬
à¦¶ à¦Ĩà¦¸
à¦¶ à¦¶à¦°
à¦¶ à¦ļà¦Ł
à¦Ĺ à¦§
à¦Ĺ à¦¨à¦®
à¦Ĺ à¦Ĩà¦¹à¦¬
à¦ĩ à¦¶à¦¬
à¦· à¦ıà¦ķ
à¦· à¦¸à¦¬
à¦Ń à§Łà¦¦
à¦Ń à¦²à¦ªà¦®
à¦§ à¦Ĺà§ľ
à¦¥ à¦¬à¦¨
à¦ĵ à¦°à¦Ĺ
à¦ĵ à¦Ĩà¦¨à¦¨
à¦¡ à¦°à¦®
à¦¡ à¦¶à¦°
à¦¡ à¦¡à¦ķ
à¦ħ à¦®à¦¦
à¦°à¦¸ à¦¶à¦¸
à¦ī à¦²à¦ķ
à¦°à¦ķ à¦ķà¦°
à¦°à¦¬ à¦ļ
à¦°à¦® à¦Ł
à¦°à¦ª à¦Ļ
à¦°à¦ª à¦°à¦ĵà¦ª
à¦£ à¦ªà¦¦
à¦£ à¦ħà¦¬à¦¸
à¦®à¦¨ à¦ħà¦¨
à¦°à¦¦ à¦¶à¦®
à¦Ĩà¦® à¦²à¦ķà¦°
à¦ĺ à¦®à¦¹
à¦ĺ à¦¸à¦®à§Łà¦§à¦°
à¦°à¦£ à¦¡
à¦°à¦£ à¦¤à¦ª
à¦¨à¦¸ à¦¤à¦°
à¦²à¦ķ à¦ħà¦§
à¦°à¦ı à¦¹
à¦ĩà¦¨ à¦Ĩà¦²
à¦ĩà¦¨ à¦ľà¦°
à¦ıà¦ĩ à¦¹à¦¤
à¦ıà¦ĩ à¦¸à¦¬à¦¬
à¦Ĩà¦² à¦®à¦¸
à¦Ĩà¦² à¦®à¦®
à§ª à§ªà§®
à§İ à¦ħà¦¸
à¦°à¦ī à¦¸
à§Łà¦¨ à¦Ł
à§¬ à§¨à§©
à§Ń à§©à§Ń
à§¯ à§§à§¦
à¦®à¦¸ à¦¨à¦¦
à¦¤à¦¨ à¦¹à¦ļ
à¦¤à¦¨ à¦¹à¦ĵà§Ł
à¦¤à¦¨ à¦ĵà¦Ĺ
à¦ĩà¦² à¦ĩà¦īà¦¨
à¦¦à¦ķ à¦ħ
à¦ĩà¦ķ à¦²à¦ķ
à¦ıà¦¸ à¦¨
à¦ıà¦¸ à¦«
à¦°à¦² à¦²
à¦¤à¦ķ à¦°à¦£à¦ķ
à¦ĩà¦¬ à¦¤
à¦¨à¦Ĩ à¦Ļ
à¦¨à¦Ĩ à¦°à¦Ĩà¦®
à¦ĩà¦Ł à¦ľ
à¦¨à¦Ĺ à¦£à¦ªà¦°
à¦¨à¦ı à¦ķà¦°
à¦¨à¦ı à¦§à¦°à¦¨
à§§à§¯ à§©
à¦ķà¦ª à¦¬
à¦ķà¦ķ à¦£
à¦Ĩà¦ľ à¦¯
à¦Ĩà¦°à¦ĵ à¦ļ
à¦Ĩà¦°à¦ĵ à¦īà¦ªà¦¸
à¦ĩà¦ľ à¦Ĺ
à¦īà¦ľ à¦¦à¦°
à¦¦à¦² à¦Ń
à¦°à¦īà¦ª à¦ª
à¦°à¦®à¦¤ à¦ıà¦ķà¦Ł
à¦ıà¦®à¦¨ à¦ľ
à¦ıà¦®à¦¨ à¦ĺà¦Łà¦¨
à§§à§¨ à§¨à§¦
à§§à§¨ à§©à§¦
à¦¬à¦¤ à¦¹à¦¬
à¦®à¦® à¦£
à§§à§Ń à§¯
à¦¨à§Ł à¦ľ
à§§à§© à§¬
à¦Ĳ à¦¸
à¦Ĩà¦¶ à¦Ĩà¦°
à§§à§¬ à§¨
à§§à§¬ à§¨à§¬à§©
à¦¨à¦ªà¦° à¦¦
à¦¨à¦« à¦ľà¦²
à¦¨à¦ıà¦ĩ à¦ĺà¦Łà¦¨
à¦¨à¦ıà¦ĩ à¦ļà¦¡
à¦°à¦ĵà¦ª à¦°à¦®
à§¨à§© à§«
à§¨à§© à§¯
à¦¸à¦« à¦Ł
à¦ĩà¦Ľ à¦²
à¦°à¦¸à¦®à§Ł à¦®à¦¹
à¦°à¦¸à¦¹ à¦ķà¦°
à¦°à¦ĸà¦¬ à¦°à¦ħà¦¨
à¦°à¦ĸà¦¬ à¦°à¦¸à¦¬
à¦ķà¦ľà¦¨ à¦Ĺ
à¦ķà¦ľà¦¨ à¦Ľ
à¦¯à¦¤à¦® à¦®
à¦¯à¦¤à¦® à¦ıà¦ķà¦Ł
à¦°à¦Ĩà¦ĩà¦¨ à¦Ĩà¦®
à¦¬à¦°à¦® à¦Ļ
à§¨à§¦à§¨ à§§à§«
à¦ĵà§ľ à¦¨
à¦¶à¦ĵ à¦ķà¦¤
à¦ıà¦°à¦ĩ à¦§
à¦²à¦ķà¦ªà¦²à¦ķà¦ªà¦²à¦ķà¦ªà¦²à¦ķà¦ªà¦²à¦ķà¦ªà¦²à¦ķà¦ªà¦²à¦ķà¦ªà¦²à¦ķà¦ª à¦²à¦ķà¦ªà¦²à¦ķà¦ªà¦²à¦ķà¦ªà¦²à¦ķà¦ªà¦²à¦ķà¦ªà¦²à¦ķà¦ªà¦²à¦ķà¦ªà¦²à¦ķà¦ª
à§ĩ à§ĩ
à¦¨ à¦°à¦®à¦ľ
à¦¨ à¦ĩà¦īà¦ıà¦¨à¦ĵ
à¦ķ à¦ľà¦®
à¦ķ à¦Ĩà¦°à¦¬
à¦¬ à¦ķà¦¤à¦Ł
à¦¬ à¦¶à¦¤à¦¬à¦°
à¦¤ à¦ıà¦ĸ
à¦¤ à¦ħà¦¬à¦¶
à¦¤ à¦Ĩà¦°à¦ķ
à¦¤ à¦ıà¦ĩà¦ķ
à¦¸ à¦ķà¦¦à¦²
à¦® à¦°à¦®
à¦® à¦ĩà¦Ń
à¦® à¦ĵà¦Ĺ
à¦® à¦ıà¦°à¦ķ
à¦² à¦ħà¦§
à¦² à¦ħà¦ª
à¦² à¦ıà¦®
à¦² à¦ľà¦¨à¦ª
à¦² à¦ıà¦°à¦ķ
à¦ª à¦ıà¦ķ
à¦ª à¦¸à¦¸
à¦¦ à§ľ
à¦¦ à¦°à¦¯
à¦¦ à§Łà¦¬
à¦¯ à¦¸à¦ķ
à¦¯ à¦īà¦ł
à¦¯ à§Łà¦¯
à¦¯ à¦īà¦ªà¦¨
à¦¯ à¦ħà¦Ļ
à¦¯ à¦Īà¦«
à§Ł à¦īà¦ļ
à§Ł à¦īà¦ķ
à§Ł à¦Ĩà¦ľà¦ķ
à§Ł à¦ħà¦¥à¦¬
à¦¹ à¦ĩ
à¦¹ à¦°à¦ªà¦°
à¦¹ à¦®à¦¹
à¦¹ à¦Ĩà¦¦
à¦¹ à¦°à¦Ĩà¦ķ
à¦¹ à¦°à¦¨à¦¬
à¦Ł à¦°à¦ļ
à¦Ł à¦²à¦¦
à¦Ł à¦Ľà¦¬
à¦Ł à¦Ĩà§Ł
à¦Ł à¦ļà¦²à¦Ľ
à¦¶ à¦Ĩà¦Ľ
à¦¶ à¦®à¦¬
à¦¶ à¦¬à¦ķ
à¦¶ à¦ıà¦¦
à¦Ĺ à¦¸à¦ª
à¦Ĺ à¦ľà¦¬
à¦ĩ à¦ªà¦¨
à¦ĩ à¦īà¦ªà¦¸
à¦ĩ à¦ıà¦Ľ
à¦Ĩ à§Łà¦ķ
à¦Ĩ à¦ªà¦¸
à¦Ĩ à¦ªà§ľà¦¤
à¦ı à¦°à¦ķà¦¥
à¦ı à¦ıà¦ĩà¦ļ
à¦Ľ à¦¨à¦¦
à¦ķà¦° à¦ķà¦°
à¦· à§Łà¦ª
à¦· à¦ħà¦§
à¦Ń à¦¬à¦Ľ
à¦Ń à¦ķà¦°à¦²
à¦¥ à¦°à¦¦
à¦¥ à¦ļà¦Ł
à¦ĸ à¦²à¦¤
à¦ĸ à¦ķà¦¥
à¦ĸ à¦Ĩà¦¬à¦¦
à¦ĸ à¦¡à¦²
à¦ĵ à¦°à¦ļ
à¦ĵ à¦ķà¦¤
à¦ĵ à¦ıà¦ĩà¦¸
à¦ĵ à¦ıà¦¡
à¦ĵ à¦Ĺà¦£à¦¤à¦¨
à¦¡ à¦ĩ
à¦¡ à¦°à¦¨
à¦¡ à¦Ĩà¦²
à¦¡ à¦¹à¦¤
à¦ī à¦¬à¦Ń
à¦« à¦Łà¦¬
à¦°à¦ķ à¦¬à¦¨
à¦°à¦ª à¦¥à¦¨
à¦°à¦ª à§ľà¦¤
à¦°à¦ª à¦°à¦ĵà¦¸
à§ľ à¦¯
à§ľ à¦ķà¦°à¦¤
à§ľ à¦ķà¦¨
à§ľ à¦ıà¦²
à¦®à¦¨ à¦¹à¦¯
à¦ł à¦¸à¦°à¦ķ
à¦ľà¦¨ à¦¬à¦²à¦¨
à¦¬à¦² à¦Ĩà¦®
à¦Ĩà¦® à¦Ĺ
à¦Ĩà¦® à¦°à¦°
à¦¹à§Ł à¦«à¦²
à¦ħà¦¨ à¦°
à¦¨à¦¸ à¦¹à¦ļ
à¦²à¦ķ à¦ķà¦®
à§¨à§¦ à§Ń
à¦¨à¦ķ à¦¤à¦¦
à¦°à¦ı à¦°à¦¨
à¦ĩà¦¨ à¦¸à¦®
à¦ıà¦ĩ à¦¸à¦¬à¦ķ
à¦¸à¦¬ à¦«
à¦°à¦ĵ à¦ĩà¦¬
à§ª à§©à§©
à¦īà¦¨ à¦ħà¦®
à¦Ĩà¦¬ à¦¬
à§¬ à§¨à§¦à§¨à§§
à¦¤à¦¨ à¦ķà¦°à¦²
à¦ıà¦¸ à¦¹
à¦ıà¦¸ à¦ķà¦²
à¦°à¦ĩ à¦¸à¦®
à¦¤à¦® à¦ŀ
à¦ķà¦¸ à¦¹à¦ķ
à¦²à¦® à§Łà¦®à¦¨à¦¸
à¦Łà¦¨ à¦Ĺ
à¦°à¦« à¦¨
à§Łà¦¸ à§ľà¦ķà¦¦
à¦¸à¦¹ à¦¹
à¦¸à¦¹ à¦¸à¦®
à¦¸à¦¹ à¦ľà¦¬
à¦¨à¦Ĩ à¦ĩ
à¦¨à¦Ĩ à¦°à¦¹
à¦¨à¦Ĩ à¦°à¦ĵà¦¬
à¦ĩà¦® à¦Ļ
à¦°à¦ĸ à¦°
à§Łà¦ķ à¦¤à¦¬
à¦¯à¦® à§Ł
à¦ķà¦¨ à¦¡
à¦¨à¦Ĺ à¦°à¦ľ
à¦¨à¦Ĺ à¦°à¦Ĩà¦²
à¦¨à¦ı à¦°à¦¶
à§§à§¯ à§«à§¬
à§§à§¯ à§«à§¯
à§Łà¦¦ à¦¤
à§Łà¦¦ à¦¶
à§Łà¦¦ à¦°à¦¹
à§Łà¦ª à¦²
à¦¤à¦ª à¦¦à¦ķ
à¦¬à¦Ľ à¦°à¦ªà¦°à¦ª
à¦ªà¦ķ à¦ªà¦°
à§Łà¦® à¦§
à¦Ĩà¦°à¦ĵ à¦¸à¦®
à¦Ĩà¦°à¦ĵ à¦ıà¦ķà¦ľà¦¨
à¦ªà¦¦ à¦ħà¦°
à¦Ĺà¦² à¦ķà¦°
à¦²à¦¹ à¦ķà¦¹
à¦ĩà¦ľ à¦Ļ
à¦ıà¦² à¦¥
à¦¨à¦ĵ à¦ıà¦ķà¦Ł
à¦°à¦īà¦ª à¦²à¦¬
à¦°à¦īà¦ª à¦®à¦¹
à¦ĩà¦Ń à¦¨
à¦ĩà¦Ń à¦¦
à¦¬à¦¹ à¦¨à¦ıà¦¬
à¦¨à¦ļ à¦²à¦¬
à¦Ī à¦¦à¦¬
à¦Ī à¦«à¦¹
à¦·à¦ķ à¦ĵà¦¶
à¦ħà¦ª à¦ļà§Ł
à¦²à¦Ĺ à¦«
à¦ĩà¦ī à¦®
à¦ĩà¦ī à¦ıà¦¨
à¦§à¦¬ à¦ķà¦°
à¦¨à§Ł à¦¨à¦¤
à¦Ĳ à¦®
à¦Ĳ à¦Ĺ
à¦ļà¦ķ à¦ļà¦ķ
à¦īà¦Ł à¦ħà¦¬
à¦¶à¦¹ à¦°à¦¬
à¦Ńà¦¬ à¦¤à¦¬
à¦ıà¦°à¦ª à¦°à¦®
à§¨à§® à§¨
à¦ªà¦Ł à¦¦
à¦ĩà¦¶ à¦¹à¦°
à§¨à§¨ à§¨à§¦à§¨à§§
à¦¨à¦ħ à¦ļ
à¦ªà¦£ à¦ķà¦°à¦²
à¦Ĩà¦ĩ à¦ĵà¦¯
à§¨à§© à§§
à§¨à§Ń à§«
à¦ĩà¦Ľ à¦¡
à¦²à¦Ĩ à¦°à¦ķ
à¦ıà¦° à¦°à¦ķ
à¦®à¦¯ à¦ĸà¦¨
à¦īà¦¬ à¦ĵà§Ł
à¦Ńà¦¬à¦¨ à¦Ł
à¦ıà¦°à¦¸ à¦¤
à¦īà¦¡ à¦¬à¦²
à¦ıà¦°à¦ķ à¦®à¦¬
à§¨à§¦à§§à§® à§§à§¯
à§Łà¦ĸ à¦Ĩà¦¬
à¦°à¦¸à¦¦ à¦°à¦¦
à¦ķà¦Ĩ à¦°à¦¨
à¦ĵà¦ľà¦¨ à¦¹
à¦¹à¦°à¦£ à¦¹
à¦°à¦Ĩà¦°à¦ĵ à¦¦
à¦¸à§ľ à¦ķà¦ªà¦¥
à¦¯à¦« à¦¸à¦²
à§Łà¦Ĩ à¦ĺ
à¦°à¦ªà¦°à¦ĵ à¦Ĩà¦®à¦°
à¦°à¦ıà¦ĸ à¦¨à¦¦
à¦«à¦°à¦¯ à¦Ĺ
à§§à§¨à§§ à§¨
à¦Ĩà¦ķà¦¬ à¦°à¦Ĩà¦²
à¦īà¦ĩ à¦Ļ
à¦¦à¦²à¦¬ à¦¦
à¦¬à¦°à¦Ĩ à¦ľà¦®
à¦¬à¦ĵà¦ľ à§ľà¦¤
à¦¿ à§ĩ
à¦¨ à¦īà§ľ
à¦¨ à¦ħà¦ªà¦¸
à¦ķ à¦ıà¦ĩà¦¬
à¦ķ à¦Ĳà¦¤
à¦¬ à¦Ĩà¦ķ
à¦¤ à¦ĵà¦¹
à¦¸ à¦ĩà¦¬
à¦® à¦²à¦¬
à¦® à¦ļà¦°
à¦² à¦ĵà¦Ł
à¦ª à¦¬à¦°
à¦¦ à¦īà¦ľ
à¦¦ à¦ħà¦¸
à¦¦ à¦¶à¦¸
à¦¦ à¦ªà§ľà¦¤
à¦¯ à¦ĩà¦īà¦¨
à¦¯ à¦ľà¦¬
à¦¯ à¦Ĩà¦§
à¦¯ à¦Ĺà¦£à¦®
à§Ł à¦¹à¦°
à§Ł à¦ľà¦¬
à§Ł à¦Ĩà¦«à¦Ĺ
à§Ł à¦Ĺà¦£à¦¹à¦¤
à¦¹ à¦Łà¦²
à¦Ł à¦Ĩà¦ĩà¦¨
à¦ľ à¦ķà¦¤
à¦ľ à¦ĩà¦¬à¦¨
à¦ľ à¦ħà¦§
à¦¶ à¦¤à¦¥
à¦¶ à¦ħà¦ķ
à¦Ĺ à¦²à¦¤
à¦Ĺ à¦ĵà¦¦
à¦Ĺ à¦¹à¦¨
à¦Ĺ à¦Ĺà¦łà¦¨
à¦ĩ à¦°à¦®
à¦ĩ à¦¶à¦¹
à¦ĩ à¦Ĩà¦°à¦¸
à¦ı à¦¨à¦Ĺ
à¦ļ à¦Ĩà¦¸
à¦ļ à¦īà¦¦à¦¯
à¦· à¦¨à¦ķ
à¦· à¦Ĩà¦°
à¦· à¦¤à¦¸
à¦· à¦ħà¦¸
à¦§ à¦¨à¦Ł
à¦¥ à¦ĸ
à¦¥ à¦ĵà§Ł
à¦¥ à¦Ĩà¦¦
à¦¥ à¦ħà¦§
à¦ĸ à¦¹à§Ł
à¦ĵ à¦¨à¦®
à¦ĵ à¦ħà¦«
à¦ĵ à¦ıà¦¶
à¦¡ à¦ĺà¦Ł
à¦¡ à¦¨à¦¥
à¦¡ à¦ķà¦¨à¦Ń
à¦ī à¦Łà¦ķ
à¦ī à¦°à¦ĵà¦¯
à¦°à¦ķ à¦®à¦¤
à¦°à¦ķ à¦®à¦¦
à¦°à¦¬ à¦°à¦Ĺ
à¦°à¦® à¦ħà¦¨
à§¨ à§¨à§¦à§§à§Ń
à§¦ à§¨à§§
à¦®à¦¨ à¦¡
à¦ł à¦¡
à¦ł à¦¸à¦®
à¦ł à¦¬à¦¨
à¦ľà¦¨ à¦ıà¦¦
à¦ľà¦¨ à¦ıà¦ªà¦°
à¦°à¦¦ à¦²à¦ķ
à¦°à¦¦ à¦²à¦¸
à¦°à¦¨ à§Łà¦ķ
à¦°à¦ľ à¦¹
à¦°à¦¹ à¦Ľ
à¦¬à¦¨ à¦«
à¦¬à¦¨ à¦ĵà¦¬
à¦°à¦Ĩ à¦ĩà¦ķ
à¦°à¦Ĩ à¦¦à¦¬
à¦°à¦Ĩ à¦°à¦ĵà¦ª
à¦°à¦Ĩ à¦Łà¦Ł
à¦°à¦£ à¦ĵ
à¦°à¦£ à¦ĵà¦°
à¦ªà¦¨ à¦¹
à¦¨à¦¸ à¦¹à¦¨
à¦²à¦ķ à¦ħà¦¨
à§¨à§¦ à§¬
à§¨à§¦ à§¨à§¦à§¦
à¦¨à¦ķ à¦¸
à¦ĩà¦¨ à¦ĸ
à¦ıà¦ĩ à¦ļà¦ķ
à¦¸à¦¬ à¦¸à¦®à§Łà¦¸
à¦Ĩà¦² à¦®à¦¶
à¦¨à¦¨ à§Ł
à¦¨à¦¨ à§ľ
à§ª à§ªà§Ń
à¦ĩà¦¸ à¦ŀ
à¦¹à¦¤ à¦Ĩà¦¹à¦¤
à§İ à¦Ĩà¦²
à¦īà¦¨ à¦Ł
à¦²à¦¨ à¦¹
à¦īà¦ª à¦ķà¦®
à¦ķà¦² à¦ķà¦°à¦¤
à¦°à¦¯ à¦¤à¦Ł
à¦¯à¦ķ à¦¯
à¦Ĩà¦¸ à¦¨à¦¥
à¦ĩà¦² à¦īà¦ªà¦ľ
à¦¦à¦ķ à¦ĵà¦®
à¦¦à¦ķ à¦¸à¦¹à¦Ĩà¦Łà¦ķ
à¦ļà¦² à¦¸à¦®
à¦Ŀ à§ľà¦¬
à¦ıà¦¸ à¦ĩà¦ĵ
à¦¦à¦¨ à¦ıà¦ķ
à¦¦à¦¨ à¦ĩà¦¸à¦²
à¦°à¦ĩ à¦Ĩà¦®
à¦ķà¦¸ à¦°à¦ŀ
à¦Łà¦¨ à¦ĸ
à¦²à¦¤ à¦ļ
à¦¸à¦¹ à¦ľà¦ª
à¦¸à¦¹ à¦ľà¦ķ
à¦¨à¦Ĩ à¦¨à¦Ń
à¦ªà§ľ à¦ªà§ľ
à¦¸à¦¨ à¦¹
à¦ĩà¦Ł à¦ıà¦¬
à¦®à¦² à¦ª
à¦¨à¦ı à¦®à¦ı
à¦¨à¦Ń à¦ķ
à¦®à¦ª à¦¦
à§§à§¯ à§«à§®
à¦¬à¦ķ à¦°à¦Ľ
à¦¨à¦¯ à¦ĸà¦¨à¦¤
à¦²à¦ª à¦ŀ
à§¨à§¦à§¨à§§ à§§à§ª
à§¨à§¦à§¨à§§ à§§à§§
à¦Ĺà¦¤ à¦ħà¦°
à¦Ĩà¦°à¦ĵ à¦Łà¦ĩà¦ªà¦¤
à¦ıà¦² à¦ĸ
à¦¨à¦ĵ à¦¨à¦¨
à¦¸à¦®à§Ł à¦¯
à¦¨à¦Ł à¦ª
à¦ĩà¦Ń à¦®
à¦ĩà¦¦ à¦¶à¦ķ
à¦¬à¦¹ à¦¸
à¦Ī à¦°à¦¹
à¦²à¦Ń à¦ª
à¦¸à¦¦ à¦°à¦ĩà¦īà¦¨
à§§à§® à§¦à§¦
à§§à§® à§¦à§¬à§¨à§¦à§§à§¯
à¦¶à¦ª à¦°à¦Ĺà¦¨
à¦·à¦¦ à¦¤
à¦·à¦¦ à¦¶à¦ķ
à¦ıà¦ķà¦ľà¦¨ à¦¯
à¦¨à¦Ĩà¦® à¦²
à¦¨à§Ł à¦¬à¦²
à§§à§© à§¨à§¦à§¨à§§
à§©à§¦ à§©
à¦¤à¦¹ à¦¨à¦¬
à§¨à§« à§®
à¦Ĩà§Ł à¦ķà¦°à¦¤
à¦ıà¦¸à¦¬ à¦Ń
à¦ıà¦¸à¦¬ à¦ħà¦Ń
à¦ıà¦¸à¦¬ à¦ĺà¦Łà¦¨
à¦¬à§ľ à¦ľ
à¦Ĩà¦°à¦¬ à¦Ĩà¦®
à§¨à§Ń à§¨
à¦¸à¦« à¦°à¦ħà¦¬à¦¸
à¦²à¦Ĩ à¦¬à¦°
à¦¨à¦ıà¦ķ à¦¨
à¦¨à¦ıà¦ķ à¦¤
à¦Ĺà¦łà¦¨ à¦ķà¦°à¦¤
à¦Ĩà¦¹à¦¤ à¦¨
à¦ıà¦®à¦ª à¦°à¦¬à¦°
à§©à§© à§¬
à¦Ĩà¦°à¦ı à¦¤
à¦²à¦Ĩà¦² à¦®à¦ļ
à¦¬à¦§ à¦²
à¦Ĩà¦ĩà¦¸ à¦ķ
à¦°à¦ĩà¦¬à¦¨ à¦¸
à¦¦à¦¶à¦® à¦¶
à¦¨à¦īà¦ª à¦¹
à¦¦à¦ĩà¦¬à¦¨ à¦®
à¦īà¦Ń à§Łà¦ķ
à¦°à¦ħà¦ªà¦° à¦¨
à¦°à¦ıà¦®à¦¨ à¦ıà¦ķà¦Ł
à¦°à¦Ĩà¦²à¦® à¦ķ
à¦Ķà¦· à¦§à¦¬
à¦Ĺà¦°à¦® à¦ķ
à¦Ĺà¦¤à¦® à¦Ļ
à¦°à¦ĭ à¦£à¦¦
à¦°à¦ªà¦¤à¦¨ à¦ĺà¦Ł
à¦¹à¦°à¦¦ à¦°à¦¬
à¦° à¦°à¦ľ
à¦¨ à¦°à¦ĩ
à¦ķ à¦ĵà¦¤
à¦ķ à¦°à¦ĺà¦Łà¦¨
à¦ķ à¦ıà¦ĩà¦ª
à¦ķ à¦¤à¦¬à¦Ľà¦°à¦¬à§Łà¦¸
à¦¬ à¦ıà¦¸
à¦¬ à¦ĸà¦¨
à¦¬ à¦°à¦Ĩà¦²
à¦¤ à¦ķà¦Ł
à¦¸ à¦ĩ
à¦¸ à§İ
à¦¸ à¦Ĩà¦ĩà¦¨
à¦® à¦ļà¦²
à¦² à¦ĩà¦ķ
à¦² à¦ıà¦®à¦¨
à¦² à¦ħà¦¬à¦¶
à¦² à¦ıà¦°à¦®à¦§
à¦ª à¦°à¦Ń
à¦ª à¦Ŀ
à¦ª à¦ĵà¦¯
à¦ª à¦¢
à¦¦ à¦°à¦«
à¦¦ à¦Ĺà¦£à¦®
à¦¯ à¦°à¦¸
à§Ł à¦ıà¦ª
à§Ł à¦Īà¦¦
à§Ł à¦īà§İà¦¸à¦¬
à¦¹ à¦ħà¦°
à¦Ł à¦¬à¦²à¦²
à¦Ł à¦ıà¦°à¦®
à¦ľ à¦°à¦¯
à¦¶ à§Łà¦¨
à¦¶ à¦¤à¦¦
à¦¶ à¦ĵà¦¤
à¦¶ à¦°à¦ıà¦²à¦¸
à¦Ĺ à¦ĩà¦¨
à¦Ĺ à¦¹à¦ĵà§Ł
à¦ĩ à¦Ĺà¦¤
à¦ĩ à¦ļà¦²à¦¤
à¦ĩ à¦Ĩà¦°à¦¤
à¦Ĩ à¦°à¦Ĩà¦Ĺ
à¦Ĩ à¦°à¦¬à¦°
à¦ı à¦²à¦®
à¦ı à¦°à¦ĸ
à¦ı à¦°à¦ħà¦¬à¦¸
à¦Ľ à¦Ĩà¦®
à¦ļ à¦¶à¦¨
à¦ļ à¦ķà¦°à¦²
à¦· à¦¯à¦¦
à¦§ à¦ĵà¦¨
à¦¥ à¦¬à¦¸
à¦ĸ à¦¸à¦°
à¦¡ à¦ķà¦°à¦¬
à¦°à¦¸ à§ľ
à¦°à¦¸ à¦¹à¦¨
à¦« à¦²à¦¹
à¦°à¦ķ à¦¬à¦°à¦¸
à¦°à¦¬ à¦ĩà¦¬
à¦°à¦¬ à§ľà¦Ľ
à¦°à¦® à¦¹à¦²
à¦°à¦ª à¦°à¦¡
à¦°à¦ª à¦°à¦¯à¦¦
à¦°à¦ª à¦°à¦ħà¦¬à¦¶
à¦°à¦¤ à¦ĩà¦¨
à¦®à¦¨ à¦Ĩà¦²
à¦®à¦¨ à¦Ĩà¦ªà¦¨
à¦ıà¦ķ à¦ĩà¦¨
à¦ıà¦ķ à¦ıà¦ķà¦Ł
à¦ł à¦ħà¦Ń
à¦ł à¦Ĺà§ľ
à¦ľà¦¨ à¦¬à¦°
à¦ľà¦¨ à¦ªà§ľ
à¦ľà¦¨ à¦¸à¦¦à¦¸
à¦¬à¦² à¦¬à¦¨
à¦°à¦¨ à¦²
à¦°à¦¹ à¦ķà¦¦
à¦¬à¦¨ à¦ķà¦°à¦²
à¦¨à¦¤ à¦ĸà¦¨à¦ķ
à¦°à¦ħ à¦¥
à¦°à¦¶ à¦«
à¦¨à¦ķ à¦Ł
à¦°à¦ı à¦¸à¦®à§Ł
à¦°à¦ı à¦ĩà¦ķà¦°
à¦ĩà¦¨ à§Ł
à¦ĩà¦¨ à§Łà¦¸
à¦ĩà¦¨ à¦īà¦¦
à¦ıà¦ĩ à¦ıà¦ķ
à¦ıà¦ĩ à¦Ĩà¦²
à¦°à¦ļ à¦ķà¦°
à¦¸à¦¬ à¦ķà¦Ł
à¦°à¦Ĺ à¦ª
à¦¶à¦¨ à¦ıà¦²
à¦°à¦Ń à§Łà¦¦
à¦ķà¦¬ à¦°à¦ķ
à¦¹à¦¤ à¦ıà¦¬
à§Łà¦¨ à¦¥
à§Łà¦¨ à¦¹à¦¬
à§¬ à§«à§¦
à¦¨à¦¦ à¦¶à¦ķ
à¦¯à¦ķ à§Ł
à¦¯à¦ķ à¦¶
à¦¦à¦ķ à¦¬à¦²
à¦¦à¦ķ à¦ĵà¦¸
à¦¦à¦ķ à¦ħà¦§
à¦°à¦§ à¦°à¦£
à¦ķà¦Ł à¦¯
à¦°à¦ĩ à¦¥
à¦¤à¦® à¦Ń
à¦¤à¦ķ à¦ł
à¦ļà¦¨ à¦ľà¦Ļ
à¦¨à¦Ĩ à¦ĸ
à¦¨à¦Ĩ à¦«à¦¸
à¦¯à¦® à¦®
à¦¨à¦ľ à¦¸
à¦®à¦¦ à¦²
à¦®à¦² à¦¹
à¦²à¦¸ à¦°à¦¬à¦°
à¦ĵà¦¬ à¦¦à¦²
à¦¢ à¦²
à¦®à¦ª à¦¶
à§§à§¯ à§©à§¦
à§§à§¯ à§«à§«
à§§à§¯ à§«à§ª
à¦ĵà¦¸ à¦²
à¦ĵà¦¸ à¦ļ
à¦²à¦ª à¦¡
à¦ĩà¦ª à¦¡
à¦ĩà¦ª à¦£
à§¨à§¦à§¨à§§ à§¦à§¦
à¦ĸà¦¬ à¦°à¦ļ
à¦Ĺà¦¤ à¦Ĩà¦ķ
à¦Ĩà¦°à¦ĵ à¦ıà¦ķà¦®
à¦¨à¦ĵ à¦ħ
à¦īà¦ľ à¦¦
à¦¦à¦² à¦¦
à¦²à§Ł à¦Ń
à¦¹à¦° à¦°à¦¹à¦®à¦¤
à¦«à¦² à¦Ł
à§§à§¨ à§©à§¨
à¦Łà¦¸ à¦«
à¦Ĺà¦¨ à¦«à¦²
à¦¬à¦¤ à¦¶
à§§à§« à§¨à§¦à§¨à§§
à§§à§® à§©
à§§à§® à§¬
à§§à§Ń à§ª
à¦Łà¦® à¦§
à¦ªà¦¸ à¦¡
à¦¨à¦ıà¦ĩ à¦¯
à¦¨à¦ıà¦ĩ à¦ªà¦°
à¦¤à¦¹ à¦ĩà¦²
à¦¤à¦¹ à¦¨à¦ıà¦¬
à¦Ĩà¦Łà¦ķ à¦Ĺ
à¦ªà¦¬ à¦¯
à§Łà¦¶ à¦¹à¦°
à¦°à¦ĵà¦ª à¦°à¦¥
à§¨à§¨ à§©
à¦¨à§Łà¦¨ à¦ļ
à¦¡à¦² à¦ħà¦°
à¦¤à¦ļ à¦²à¦¬
à¦ķà¦Ľ à¦¡
à¦¤à¦ĸà¦¨ à¦¯
à¦ķà¦ľà¦¨ à¦¦
à¦ķà¦ľà¦¨ à¦¶
à¦®à¦Ł à¦°à¦¸
à¦ĵà¦« à¦¯
à¦¬à¦ĩ à¦ķà¦®
à§Łà¦ıà¦ķ à¦¥
à§Ńà§¦ à§®à§¦
à¦Ĩà¦¹à¦®à¦¦ à¦¬
à¦Ĩà¦¹à¦®à¦¦ à¦Ľà¦«
à¦īà§İà¦¸ à¦¥
à¦ļà¦« à¦²à¦¨à¦¶
à¦¤à¦¨à¦¸ à¦¹à¦¬
à¦ıà¦ĸà¦¨à¦ķ à¦°à¦£
à¦«à¦°à¦¯ à¦ķ
à¦¦à¦¨à¦® à¦¤
à§¦à§¦à§¦à§¦ à§¦à§¦
à¦ķà¦Ĩà¦ª à¦Ń
à¦ħà¦¤à¦ıà¦¬ à¦¤
à¦°à¦ķà¦®à¦¬ à§Łà¦¸
à¦°à¦¸à¦¹à¦ľ à¦īà¦ª
à¦Ńà¦¬à¦ķ à¦°à¦Ľ
à¦¶à¦®à¦ª à¦£
à¦Ĩà¦¤à¦¸ à¦°à¦¬
à¦¨ à¦°à¦ª
à¦¨ à¦ļà¦²à¦®
à¦ķ à¦ĺà¦°
à¦ķ à¦ħà¦¬à¦¶
à¦ķ à¦ĵà¦Ĺ
à¦ķ à¦ĵà¦ľ
à¦ķ à¦ħà¦¶
à¦ķ à¦ĵà¦ªà¦°
à¦ķ à¦ıà¦¡
à¦ķ à¦ĩà¦¨à¦ķ
à¦¬ à¦ĵà¦¯
à¦¬ à¦ħà¦¬à¦¸
à¦¬ à¦Ĩà¦ĩà¦¨
à¦¬ à¦°à¦Ŀ
à¦¬ à¦°à¦ĵà¦¯
à¦¤ à¦ĩà¦¬à¦¨
à¦¤ à¦ıà¦®à¦¨
à¦¤ à¦īà¦ªà¦ľ
à¦¤ à¦Ĩà¦§
à¦¤ à¦¸à¦¬à¦ķ
à¦¸ à¦¤à¦¨
à¦¸ à¦¶à¦¬
à¦¸ à¦ıà¦ª
à¦² à¦ħà¦ŀ
à¦² à¦°à¦Ĩà¦®à¦ľ
à¦ª à¦ı
à¦ª à¦¬à¦¸
à¦ª à¦¹à¦¯
à¦ª à¦¸à¦¤
à¦ª à¦Ľà¦¬
à¦¯ à¦Ĩà¦¤
à¦¯ à¦ħà¦¨à¦²
à¦¯ à¦¬à¦²à¦Ľ
à¦¯ à¦Ĩà¦°à¦ķ
à¦¯ à¦Ĩà¦¨à¦¨
à§Ł à¦ļà¦ķ
à§Ł à¦¯à¦¥
à§Ł à¦Ĩà¦ļ
à§Ł à¦ľà¦¨à¦Ĺà¦£
à§Ł à¦ħà¦¸à¦¹
à¦¹ à¦°à¦Ĩà¦²
à¦¹ à¦Ĩà¦¬à¦¦
à¦Ł à¦ī
à¦Ł à¦ļà¦²
à¦Ł à¦°à¦²
à¦Ł à¦¶à¦ķ
à¦Ł à¦®à¦°
à¦Ł à¦Ĩà¦ľ
à¦Ł à¦¶à¦¬
à¦Ł à¦ĵà¦¡
à¦ľ à¦ľà¦¨
à¦ľ à¦Ĩà¦¹à¦®à¦¦
à¦¶ à¦ĩà¦¸
à¦¶ à¦¬à¦²à¦Ľ
à¦Ĺ à¦¨à¦ª
à¦Ĺ à¦ªà¦¦
à¦Ĺ à¦ĵà¦ķ
à¦Ĺ à¦¸à¦®à¦¯
à¦ĩ à¦ıà¦°à¦¬
à¦ĩ à¦ıà¦ĩà¦®
à¦Ľ à¦ĺà¦Łà¦¨
à¦ļ à¦ķà¦ķ
à¦ļ à§Łà¦®
à¦ļ à¦ĩà¦ŀ
à¦· à¦ĵà¦®
à¦· à¦ĵà¦ľ
à¦· à¦ħà¦®
à¦§ à¦ĩà¦¤
à¦§ à¦¬à¦ķ
à¦§ à¦Ĩà¦ķ
à¦§ à¦ľà¦¨à¦¤
à¦¥ à¦¨à¦¨
à¦¥ à¦®à¦ķ
à¦¥ à¦²à¦ľ
à¦ĸ à¦Ĩà¦²
à¦ĸ à¦īà¦ªà¦¸
à¦ĵ à¦¹à¦²
à¦ĵ à¦¸à¦ķ
à¦ĵ à¦ĩà¦ľ
à¦ĵ à¦ĩà¦¸à¦®
à¦¡ à¦ıà¦¨
à¦¡ à¦ªà¦²
à¦¡ à¦ıà¦«
à¦ī à¦ĩà¦¦
à¦ī à¦¡à¦¬
à¦« à¦ı
à¦°à¦¬ à¦Łà¦¬
à¦°à¦ª à¦°à¦Ĩà¦°
à¦°à¦ª à¦°à¦ĵà¦®
à¦£ à§Ł
à¦£ à¦ĵà¦¬
à¦£ à¦ħà¦¬à¦¦
à§¦ à§§à§¬
à¦°à¦¤ à¦«
à¦°à¦¤ à¦ıà¦¬
à¦ľà¦¨ à¦ł
à¦ľà¦¨ à¦¸à¦¹à¦ķ
à¦¬à¦² à¦¯
à¦¬à¦² à¦Ĩà¦²
à¦°à¦¨ à§ľ
à¦°à¦¨ à¦²à¦ķ
à¦°à¦ľ à¦ĵà§Ł
à¦°à¦Ĩ à¦ĩà¦ľ
à¦¹à§Ł à¦ıà¦ĺà¦Łà¦¨
à¦¨à¦¬ à§Ł
à¦ħà¦¨ à¦¸
à¦ĺ à¦°à¦Ĺ
à¦¨à¦ķ à¦«
à¦°à¦ı à¦¤à¦¥
à¦ıà¦ĩ à¦¬à¦¨
à¦ıà¦ĩ à¦Ĩà§Ł
à¦ıà¦ĩ à¦¡à¦¸
à§© à§§à§¦
à¦¸à¦¬ à¦®à¦¨
à¦¸à¦¬ à¦§à¦°
à¦¨à¦¨ à¦ľ
à§ª à§ªà§©
à¦ĩà¦¸ à¦°à¦ŀ
à¦¶à¦¨ à¦ı
à¦¹à¦² à¦ļ
à¦¹à¦¤ à¦Ĺ
à¦¹à¦¤ à¦¡
à¦¹à¦¤ à¦¸à¦®à¦°
à¦°à¦ī à¦ĩà¦Ń
à¦²à¦¨ à§Ł
à§Ń à§§à§¦
à¦¨à¦¦ à¦¨à¦¦
à¦®à¦¸ à¦¸
à¦¤à¦¨ à¦¬à¦¨
à¦ķà¦Ł à¦Ĺ
à¦¦à¦¨ à¦Ľ
à¦°à¦² à¦ŀ
à¦°à¦ĩ à¦Ł
à¦°à¦ĩ à¦¨à¦Ń
à¦·à¦£ à¦ħà¦¥à¦¬
à¦·à¦£ à¦¸à¦®à¦¤à¦²à¦ª
à¦¤à¦® à¦£
à¦°à¦¸à¦® à§Łà¦²
à¦Łà¦¨ à¦¹
à¦°à¦« à¦¦
à¦¸à¦¹ à¦Ń
à¦¨à¦Ĩ à¦ķà¦°
à¦¨à¦Ĩ à¦ĩà¦Ł
à¦¸à¦¨ à¦ľ
à¦¸à¦¨ à¦ĸ
à¦¯à¦® à¦Ĩà§Ł
à¦¨à¦ľ à¦Ļ
à¦®à¦¦ à¦¦
à¦²à¦¸ à¦«
à¦¨à¦ı à¦¤à¦¥
à¦¨à¦ı à¦°à¦ªà¦°à¦¸
à¦¸à¦ķ à¦ª
à§§à§¯ à§§à§¯
à§§à§¯ à§ªà§¨
à§§à§¯ à§¬à§«
à¦ķà¦ª à¦¦à¦ķ
à¦°à§Ł à¦ķà¦°à¦²
à¦Łà¦ķ à¦¹
à¦²à¦ª à¦Ł
à§Łà¦¦ à¦¹
à¦¤à¦ª à¦ŀ
à¦¤à¦¸ à¦ŀ
à§¨à§¦à§¨à§§ à§§à§¨à§¦à§¦
à¦¯à¦ª à¦¦à¦ª
à¦Ĺà¦¤ à¦¹
à¦¯à¦¤ à¦Ĺ
à¦Ĺà¦² à¦«
à¦²à¦¹ à¦ķà¦¦
à¦²à¦¹ à¦ķà¦¤
à¦²à¦¹ à¦ķà¦ĸ
à¦²à¦¹ à¦ķà¦ł
à¦¨à¦ĵ à¦·
à¦°à¦īà¦ª à¦°à¦¸à¦¨
à¦Ĺà¦£ à¦¦
à¦ĩà¦¦ à¦¹à¦ľ
à¦°à¦¡ à¦®
à¦ľà¦¸ à¦ľ
à§¨à§ª à§«
à¦·à¦ķ à¦ĸ
à¦·à¦ķ à¦°à¦Ľ
à¦²à¦Ĺ à¦Ļ
à¦Łà¦¸ à¦ļ
à¦Łà¦¸ à¦Ļ
à¦¶à¦® à¦ĵà¦°
à¦Łà¦ª à¦ľ
à¦°à¦¹à¦£ à¦ħà¦¨
à¦ķà¦Ń à¦¬
à¦¸à¦¦ à¦°à¦¸
à¦ķà¦¶ à¦¨à¦ķ
à¦·à¦¦ à¦¶
à¦Łà¦® à¦¡
à¦Łà¦® à¦Ļ
à¦Ĳ à¦¯
à¦¨à¦ªà¦° à¦ķà¦°
à¦ĩà¦Ĺ à§ľ
à¦Ńà¦¬ à¦¯
à¦¶à¦Ĺ à¦¡
à¦ľà¦² à¦¦à¦¸
à¦¨à¦¸à¦® à§Łà¦¸
à¦ķà¦Ĺ à¦¡
à¦ľà¦¨à¦ķ à¦ħà¦¬à¦¸
à¦²à¦« à¦ľà¦²à¦¬
à¦ĵà¦ľ à¦Ļ
à¦¡à¦¸ à¦ıà¦¨
à¦¸à¦« à¦²à¦ķ
à¦²à¦Ĩ à¦¨à¦¨
à¦ªà¦¥ à¦¶
à¦ªà¦¥ à¦Ĺ
à¦ĩà¦¨à¦¸ à¦¹à¦Ĺ
à¦°à¦ĸà¦¬ à¦°à¦Ń
à¦ķà¦ĸà¦¨ à¦¥
à¦¯à¦ĸà¦¨ à¦°
à¦¯à¦ĸà¦¨ à¦ıà¦Ł
à¦«à¦Ł à¦Ń
à¦«à¦Ł à¦¡
à¦Ĩà¦¹à¦® à¦®
à§ªà§« à§¬
à¦¯à¦² à§ľ
à¦¯à¦¤à¦® à¦Ĺ
à¦Ĺà¦¤à¦ķ à¦¯
à¦Ĺà¦Ń à¦Ļ
à§¦à§Ń à§ª
à¦°à¦Ĩà¦¦ à¦®à¦¦
à¦¦à¦ĸ à¦²à¦ķ
à¦ļà¦¸ à¦¤à¦°
à¦°à¦· à¦¡
à§©à§® à§ª
à¦ĩà¦ķà¦® à¦¬
à¦°à¦ªà¦°à¦ĵ à¦¨
à¦¶à¦ĵ à¦ķà¦¤à¦Ĩà¦²
à¦¯à¦Łà¦¨ à¦ĸ
à¦¸à¦¨à¦¦ à¦¨
à¦ıà¦¨à¦Ĩ à¦°à¦¸
à¦¶à¦ķà¦¤ à¦¦à¦¨
à¦¤à§İà¦ª à¦°à¦®à¦¹
à¦¨à¦ıà¦ĩà¦ļ à¦ıà¦¸à¦¸
à¦ªà¦²à¦ķ à¦ªà¦Ł
à¦°à¦ĩà¦īà¦ıà¦¨à¦ĵ à¦ķà¦²
à¦ľà¦¬à¦Ľ à§ľ
à¦¨ à¦°à¦¹à¦¸
à¦ķ à¦ĩà¦¦
à¦ķ à¦ıà¦®à¦¨
à¦ķ à¦ĵà¦Ń
à¦ķ à¦°à¦¹à¦¤
à¦ķ à¦ĩà¦īà¦ķ
à¦¤ à¦«à¦°
à¦¤ à¦¬à¦²à¦¤
à¦¤ à¦ľà¦¨à¦ķ
à¦¤ à¦ıà¦ķà¦®
à¦¤ à¦īà¦ªà¦¨
à¦¸ à¦ļà¦Ł
à¦® à¦°à¦«
à¦² à¦ĩà¦²
à¦² à¦²à¦®
à¦² à¦«à¦°
à¦² à¦ıà¦ķà¦¦
à¦² à¦Īà¦¶
à¦ª à¦°à¦ľ
à¦ª à¦Łà¦¨
à¦ª à¦§à¦°
à¦ª à¦ħà¦Ń
à¦ª à¦ļà¦Ł
à¦ª à¦°à¦ªà¦°à¦¦
à¦¦ à¦Ĩà¦®à¦°
à¦¦ à¦ĵà¦¤
à¦¯ à¦īà¦ĩà¦ķ
à¦¯ à¦ĵà¦°
à¦¯ à¦ıà¦ĩà¦¸
à¦¯ à¦Ĩà¦¸à¦Ľ
à¦¯ à¦ĩà¦²à¦Ĺ
à§Ł à¦¶à¦ķ
à¦¹ à¦Ĩà¦°
à¦¹ à¦ĵà¦¦
à¦¹ à§İà¦¬
à¦Ł à¦¤à¦¬
à¦ľ à¦ıà¦¸
à¦ľ à¦¸à¦°
à¦ľ à¦Ĩà¦°
à¦ľ à¦ĵà¦¶
à¦¶ à¦Ĩà¦®à¦°
à¦¶ à¦¸à¦®à¦¸
à¦¶ à¦¸à¦®à¦¯
à¦Ĺ à¦ı
à¦Ĺ à¦Ĩà¦ªà¦¨
à¦Ĺ à¦ĩà¦¤
à¦ĩ à¦Īà¦¦
à¦ĩ à¦ıà¦Ń
à¦ĩ à¦Īà¦¶
à¦Ĩ à¦°à¦§
à¦Ĩ à§Łà¦¤
à¦Ĩ à¦°à¦ĺ
à¦ı à¦²à¦¨
à¦ı à¦°à¦§
à¦ı à¦¤à¦®
à¦ı à¦¨à¦ıà¦Ł
à¦Ľ à¦¦à¦¶
à¦ļ à¦®à¦¬
à¦ķà¦° à¦²à¦¸
à¦ķà¦° à¦¬à¦ķ
à¦Ń à¦®à¦¤
à¦Ń à¦²à¦Ń
à¦Ń à¦°à¦ķà¦°à¦¬
à¦§ à¦ıà¦ķ
à¦§ à¦¬à¦²
à¦§ à¦²à¦ķ
à¦§ à¦®à¦ķ
à¦§ à¦ħà¦¸
à¦ĵ à¦°à¦¹
à¦ĵ à¦ĩà¦²
à¦ĵ à¦«à¦°
à¦ĵ à¦īà¦ķ
à¦ĵ à¦ļà¦²à¦ļ
à¦¡ à¦¨à¦ª
à¦¡ à¦ķà¦°à¦²
à¦ī à¦¨à¦¤
à¦« à§Łà¦ľ
à¦°à¦ķ à¦¨à¦Ł
à¦°à¦ķ à¦¨à¦«
à¦°à¦® à¦ķà¦°à¦¤
à¦°à¦ª à¦°à¦ĵà¦¬
à¦£ à¦ļà¦¨
à¦£ à¦¶à¦ķ
à¦£ à¦ķà¦°à¦²
à¦°à¦¤ à¦Ľ
à¦°à¦¤ à¦¬à¦¨
à¦°à¦¤ à¦Ĩà¦¸
à¦ł à¦¯
à¦ľà¦¨ à¦ĵ
à¦ľà¦¨ à¦°à¦¸
à¦ľà¦¨ à¦Ĺà¦°
à¦¬à¦¨ à¦¡
à¦¬à¦¨ à¦¦à¦°
à¦Ļ à¦¦
à¦°à¦Ĩ à¦ľà¦¬
à¦°à¦Ĩ à¦īà¦Ł
à¦ħà¦¨ à¦¶à¦¨
à¦ĺ à¦°à¦ªà¦°
à¦ĺ à¦ĩà¦īà¦°
à¦°à¦£ à¦ķà¦®
à¦°à¦£ à¦Ĩà¦Ľ
à¦°à¦£ à¦ľà¦¨à¦Ĺà¦£
à¦¨à¦¤ à¦¯
à¦¨à¦¸ à¦²
à¦¨à¦¸ à¦°à¦ŀ
à¦¬à¦¸ à¦¤à¦¬
à¦°à¦¶ à¦¤à¦¬à¦°
à¦²à¦ķ à¦§
à¦²à¦ķ à¦¬à¦ķ
à¦°à¦ı à¦¨à¦¸
à¦ĩà¦¨ à¦Ľ
à¦ĩà¦¨ à¦ħà¦¨
à¦ĩà¦¨ à§Łà¦ķ
à¦¤à¦¬ à§ľ
à¦¨à¦ª à¦°à¦ķ
à¦¨à¦ª à¦°à¦¶
à¦¸à¦¬ à¦¤
à¦¸à¦¬ à¦Ľ
à¦Ĩà¦² à¦¸
à§ª à§ªà§¬
à¦°à¦Ĺ à¦£à¦¨
à¦ķà¦® à¦¡
à¦¹à¦¤ à¦²
à¦īà¦ª à¦¤
à¦¯à¦¬ à§Łà¦¸
à¦°à¦Ľ à¦¡
à§® à§©à§©
à§¬ à§®à§¦
à¦¨à¦¦ à¦®
à§¯ à§«à§¦
à¦ĩà¦² à¦Łà¦¨
à¦ĩà¦² à¦ªà¦Ł
à¦¦à¦ķ à¦ĩà¦²
à¦ĩà¦ķ à¦¯
à¦°à¦« à¦²à¦¶
à¦¨à¦Ĩ à¦¹à¦¤
à¦¨à¦Ĩ à¦ľà¦®
à¦ķà¦¤ à¦ª
à¦¨à¦Ĺ à¦Ń
à¦¨à¦Ĺ à¦£à¦¤
à¦¨à¦ı à¦¤à¦¦
à¦ķà¦ª à¦Ł
à¦Łà¦ķ à¦²à¦ķ
à¦ĵà¦ª à¦¶
à¦ĵà¦ª à¦°à¦ķ
à¦Ĩà¦ľ à¦ĵà¦¸
à¦¨à¦ĵ à¦ĩà¦¬
à¦¨à¦ĵ à¦¸à¦¨
à¦¦à¦² à¦ľ
à¦°à¦īà¦ª à¦°à¦Ł
à¦°à¦ĺ à¦°à¦ª
à¦¸à¦² à¦ĸ
à¦ħà¦¤ à¦Ł
à¦īà¦² à¦Ĺ
à¦ıà¦®à¦¨ à¦¤à¦¥
à¦·à¦ķ à¦ªà¦°
à¦Łà¦¸ à¦°à¦ŀ
à¦Ĩà¦ĩà¦¨ à¦ĵà¦¬
à¦ıà¦ĸà¦¨ à¦ĵà¦®
à¦¹à¦¸ à¦ķà¦°
à¦¬à¦¤ à¦²à¦¬
à¦ıà¦® à¦ĸ
à¦ĩà¦¡ à¦ķà¦°
à¦Ĺà¦ł à¦¨à¦¦
à¦°à¦¥à¦® à¦ıà¦ķ
à¦°à¦¥à¦® à¦ıà¦¬
à§Łà¦Ĺ à¦Ń
à§§à§§ à§¨à§¦à§¨à§¦
à¦ıà¦¨ à¦īà¦¦
à§§à§© à§¨à§¦à§¦à§®
à¦°à¦®à¦£ à¦¦
à¦¨à¦« à¦¸à¦²
à¦¨à¦ıà¦ĩ à¦ł
à¦°à¦¸à¦¬ à¦¸à¦®à§Ł
à¦¤à¦¹ à¦¨à¦¸
à¦Ńà¦¬ à¦¬à¦²
à¦¦à¦¶ à¦¶à¦¤
à¦¤à¦Ľ à¦¡
à§¨à§® à§¬
à¦¸à¦ļ à¦®à§İà¦ķ
à¦¨à§Łà¦¨ à¦ħà¦§
à¦ıà¦¸à¦¬ à¦ķà¦°
à¦²à¦« à¦ķ
à¦²à¦¶ à¦¹à¦°
à¦¤à¦ĸ à¦¬à¦°
à¦¨à¦ıà¦ķ à¦²
à¦Łà¦¬à¦² à¦®
à¦ĸà¦ķ à¦ıà¦¬
à¦ªà¦® à¦ŀ
à§©à§© à§«
à§ªà§« à§«
à¦®à¦Ń à¦Ļ
à§§à§¦à§¦ à§Ń
à¦¬à¦°à¦ħ à¦Ĺ
à¦ļà§Ł à¦¶à¦¨
à¦¬à¦°à¦£ à¦¦
à¦ħà¦¥ à¦ļà¦¬
à¦ħà¦¥ à¦ļà¦ª
à¦ķà¦ħ à¦¬à¦ķ
à¦¨à¦§à¦°à¦¨ à¦¶à¦¨
à¦¨à¦ıà¦ĸ à¦¨à¦ª
à¦°à¦¬à§ľ à¦ª
à§¨à§¦à§¨ à§§à§¬
à¦ľà¦ĸ à¦®à¦ķà¦°
à¦¯à¦Ĩà¦¬ à¦¶
à¦°à¦ıà¦ķà¦¸ à¦Ļ
à¦¸à¦®à§Łà¦¨ à¦·
à¦°à¦Ĩà¦¨à¦ĸ à¦¤à¦®
à¦¨ à¦²à¦¤
à¦¨ à¦ĩà¦®à¦¨
à¦¨ à¦Īà¦¸
à¦ķ à¦¶à¦¤
à¦ķ à¦ıà¦ĸà¦¨
à¦ķ à¦Ĩà¦ľà¦ķ
à¦ķ à¦ĵà¦¡
à¦ķ à¦Ĩà¦ļ
à¦ķ à¦īà§İà¦¸à¦¬
à¦¬ à§İ
à¦¬ à¦ķà¦Ł
à¦¬ à¦°à¦ħà¦Ń
à¦¬ à¦ĵà¦¦
à¦¤ à¦°à¦ľà¦¨
à¦¤ à¦ĩà¦°
à¦¤ à¦ļà¦¤
à¦¤ à¦ªà§ľà¦²
à¦¸ à¦Ĩà¦®à¦°
à¦¸ à§İà¦®
à¦® à¦ıà¦ĩ
à¦® à¦Ĺà¦°
à¦® à¦Ĺà¦¬
à¦® à¦¯à¦ľ
à¦² à¦ĸà¦¨
à¦² à¦ıà¦ķà¦¬
à¦² à¦Ĩà¦ľà¦ķ
à¦² à§ľà¦¤
à¦² à¦ħà¦¸à¦®
à¦² à¦ĸà¦¬à¦°à¦ĵà¦¬
à¦ª à¦®à¦ľ
à¦ª à¦Ľà§ľ
à¦¦ à¦°à¦ªà¦°
à¦¦ à¦²à¦¹
à¦¦ à¦īà¦ªà¦¨
à¦¦ à¦¨à¦ķà¦°à¦Ľ
à¦¯ à¦Ĩà¦°à¦ĵ
à¦¯ à¦ıà¦ķà¦¦
à¦¯ à¦ħà¦¶
à¦¯ à¦¸à¦¬à¦ķ
à§ģ à§Ĥ
à§Ł à¦ıà¦®
à§Ł à¦ħà¦²
à§Ł à¦Ĩà¦¨à¦¨
à§Ł à¦¨à¦ķà¦°à¦Ľ
à¦¹ à¦Ĩà¦¨
à¦¹ à¦°à¦¸à¦¨
à¦¹ à¦°à¦ªà¦¥
à¦Ł à¦°à¦Ł
à¦Ł à¦ĵà¦¦
à¦Ł à¦īà§İà¦ª
à¦ľ à¦°à¦¬
à¦ľ à¦ĩà¦¨
à¦ľ à¦Ĩà¦¸
à¦ľ à¦ıà¦ª
à¦ľ à¦¹à§Łà¦¨
à¦ľ à¦®à¦¤à¦²à¦¬à¦īà¦¤
à¦¶ à¦°à¦¤
à¦¶ à¦ĩà¦ķ
à¦Ĺ à¦ıà¦¸
à¦Ĺ à¦ĵà¦¨
à¦Ĺ à¦ľà¦¦
à¦Ĺ à¦¨à¦¤à¦¨
à¦ĩ à¦°à¦ĩà¦¬à¦¨
à¦Ĩ à¦°à¦ķà¦¥
à¦Ĩ à¦¹à¦ķ
à¦Ĩ à¦ĵà¦«
à¦ı à¦¹à¦¤
à¦ı à¦¨à¦Ń
à¦ı à¦°à¦īà¦¤
à¦Ľ à¦ıà¦¬
à¦Ľ à¦ªà¦¦
à¦ļ à¦Łà¦ķ
à¦ļ à¦°à¦£à¦ķà¦°
à¦ļ à¦¦à¦«
à¦· à¦¸à¦ª
à¦· à¦ĵà¦¸
à¦· à§Łà¦¤
à¦· à¦®à¦ķà¦°
à¦· à¦¸à¦®à¦°
à¦Ń à§Łà¦Ń
à¦§ à¦Ĩà¦¦
à¦§ à¦ªà¦¥
à¦¥ à¦ķà¦¨
à¦ĵ à¦²à¦¨
à¦ĵ à¦¨à¦²
à¦ĵ à¦ĩà¦ªà¦°
à¦ĵ à¦Ĩà¦ĩà¦¨à¦¶
à¦¡ à¦²à¦¬
à¦¡ à¦®à¦¹
à¦¡ à¦²à¦ª
à¦ħ à¦¤à¦ª
à¦ī à¦®à¦¨
à¦ī à¦°à¦¨
à¦ī à¦Ĩà¦²
à¦« à¦°à¦¸
à¦°à¦ķ à¦¹à¦¬
à¦°à¦¬ à¦ĩà¦®
à¦°à¦¬ à¦īà¦ķ
à¦°à¦¬ à§Łà¦¸à¦¬
à¦°à¦ª à¦¯
à¦°à¦ª à¦°à¦Ĺà¦¤
à¦£ à¦¹à¦ļ
à§ľ à¦¶à¦¤
à§ľ à¦ĺà¦£
à¦°à¦¤ à¦¸à¦®
à¦ıà¦ķ à¦ĩà¦®
à¦ł à¦ĸ
à¦ľà¦¨ à¦ıà¦ķà¦Ł
à¦ľà¦¨ à¦Ĺà¦¤
à¦¬à¦² à§Ł
à¦°à¦¦ à§Ł
à¦°à¦¦ à¦²à¦¤
à¦°à¦¨ à¦¬à¦ľ
à¦°à¦ľ à§Łà¦ľ
à¦°à¦¹ à¦ķà¦°à¦Ľ
à¦°à¦¹ à¦¨à¦ķà¦°à¦¤
à¦°à¦Ĩ à¦²à¦¤
à¦¹à§Ł à¦Ĩà¦°
à¦¹à§Ł à¦¸à¦Ń
à¦¨à¦¸ à¦«à¦°
à¦¨à¦ķ à¦®à¦²
à¦ıà¦ĩ à¦¬à¦Ľ
à¦ıà¦ĩ à¦Ĺà¦²
à¦°à¦ļ à¦¶à¦®
à§© à§§à§®
à¦¸à¦¬ à¦§à¦°à¦£
à¦¶à¦¨ à¦Ĩà¦®
à¦¹à¦² à¦ĩà¦¬à¦¨
à§İ à¦ĺ
à§İ à¦īà¦¦
à¦īà¦ª à¦®
à¦īà¦ª à¦¸à¦¹à¦ķ
à¦°à¦Ľ à¦¯
à¦²à¦¬ à§ľ
à¦¨à¦¦ à¦ĸà¦²à¦ķà¦°
à§¯ à§§à§§
à¦®à¦¤ à¦®à¦¹
à¦®à¦¸ à¦«
à¦®à¦¸ à¦¹à¦¬
à¦ĩà¦² à¦ħà¦¨
à¦ĩà¦² à¦ĩà¦®
à¦ĩà¦ķ à¦¨à¦¤
à¦°à¦ĩ à¦«
à¦·à¦£ à¦ĵà¦¨
à¦ķà¦¸ à¦¸
à¦ĸà¦¨ à¦Ń
à¦ĸà¦¨ à¦¥
à¦Łà¦¨ à¦ķà¦°à¦¤
à¦²à¦¤ à¦ħà¦¬à¦®
à¦ļà¦¨ à¦Ĺ
à§Łà¦¸ à¦¡
à¦ĩà¦¬ à§ľ
à¦¨à¦Ĩ à¦ĩà¦ľ
à¦°à¦ĸ à¦ª
à¦¯à¦¦ à¦ª
à¦¨à¦Ń à¦°
à§§à§¯ à§§à§¦
à§§à§¯ à§¨à§¯
à§§à§¯ à§©à§®
à¦ķà¦ª à¦Ľà¦¨
à¦ĩà¦ª à¦Ĺ
à¦ªà¦ķ à¦ľ
à§Łà¦® à¦¯
à§Łà¦® à¦ľ
à¦ªà¦¦ à¦Ł
à¦ªà¦¦ à¦īà¦¨
à¦īà¦ľ à¦ĸ
à¦·à§Ł à¦ıà¦¬
à¦°à¦īà¦ª à¦Ń
à¦°à¦ĺ à§ľ
à¦°à¦ĺ à¦°à¦¥
à¦¬à¦¹ à¦ªà¦°
à¦§à¦¨ à¦ĵà¦ª
à¦°à¦¡ à¦¸
à¦¨à¦ļ à¦°à¦¥
à§¨à§ª à§§
à§İà¦¸ à¦ķà¦¬
à¦ĵà¦¤ à¦¦à¦¨
à¦ħà¦ª à¦ļ
à¦Łà¦¸ à¦Ł
à¦¶à¦® à¦Ĺà¦¬
à¦Łà¦ª à¦ħà¦°
à¦ıà¦® à¦ħà¦¨à¦²
à¦°à¦¥à¦® à¦ĵà¦Ń
à¦·à¦¦ à¦®
à¦¦à¦® à¦ľà¦¹
à¦¨à§Ł à¦ıà¦Ł
à¦ļà¦ķ à¦ªà¦°
à¦ļà¦ķ à¦®à¦¨
à§§à§¬ à§¦à§§à§¨à§¦à§§à§©
à¦¤à¦¹ à¦¨à¦®
à¦ıà¦°à¦ª à¦°à¦¦
à¦ıà¦°à¦ª à¦°à¦¨
à§¨à§® à§¨à§¦à§¨à§¦
à§¨à§¨ à§¨
à¦¨à§Łà¦¨ à¦ľ
à¦ıà¦¸à¦¬ à¦Ĺ
à¦¬à§ľ à¦¹
à¦Ĩà¦ĩ à¦ªà¦°
à¦Ĩà¦ĩ à¦¨à¦¸à¦Ń
à§¨à§© à§ª
à§¨à§¯ à§§
à§¨à§¯ à§¯
à¦°à¦¸à¦®à§Ł à¦Ĩà¦¸
à¦°à¦ªà¦¥ à¦§à¦°
à¦Łà¦¬à¦² à¦ħ
à¦ķà¦ĸà¦¨ à¦ĵà¦ķ
à¦ķà¦ľà¦¨ à¦¯
à§¬à§¦ à§¬
à¦Ĺà¦ľ à¦¦à¦¨
à¦¦à¦ķà¦® à¦£
à¦¯à¦¸à¦® à¦¨
à¦¯à¦¤à¦® à¦¦
à¦°à¦ĵà¦ªà¦° à¦¯
à¦°à¦ıà¦¸ à¦ıà¦®
à¦°à¦Ĩà¦°à¦ĵ à¦Ń
à¦ıà¦¸à¦® à§Łà¦®
à¦¨à¦¸à¦¹ à¦¸à¦Ń
à¦ıà¦ķà¦ĩ à¦°à¦ķà¦®
à¦²à¦¸à¦¹ à¦Ĩà¦Łà¦ķ
à¦°à¦ıà¦®à¦¨ à¦ª
à§©à§¦à§¦ à§¦à§¦
à¦¨à¦ıà¦®à¦¨ à¦Ł
à§¦à§¨ à§¨à§¦à§§à§¬
à§§à§§à§¦ à§Ń
à¦Ĩà¦īà¦Ł à¦¡
à¦¯à¦ķà¦°à¦¬ à¦¹
à¦§à¦¨à¦¸ à¦¨à¦¦
à§Łà¦¨à¦¸ à¦²
à¦ĩà¦¬à¦Ľ à¦°à¦Ĩà¦Ĺ
à¦ķà¦Ŀ à¦ķ
à¦ªà¦ĵà¦® à¦§
à§Łà¦ī à¦ĩà¦¸à¦²
à¦¯à¦ĩà¦²à¦Ĺ à¦ĩà¦¨à¦ķà¦°à¦¤
à¦ĩà¦²à¦Łà¦¨ à¦ĵà¦¶
à¦¨ à¦Łà¦¨
à¦¨ à¦ĭà¦¤
à¦ķ à¦°à¦«
à¦ķ à¦ħà¦¨à¦²
à¦ķ à¦ħà¦ľ
à¦ķ à¦°à¦ĩà¦¬à¦¨
à¦ķ à¦Ĺà¦£à¦®
à¦ķ à¦īà¦ªà¦¦
à¦¬ à¦Ĩà¦¸
à¦¬ à¦®à¦ľ
à¦¬ à¦°à¦ķà¦¨
à¦¤ à¦ī
à¦¤ à¦£
à¦¤ à¦īà¦ķ
à¦¤ à¦ıà¦®à¦ª
à¦¤ à¦Īà¦¶
à¦¤ à¦ıà¦ĩà¦®
à¦¤ à¦Ĩà¦¸à¦¨
à¦¸ à¦ĵà¦¹
à¦¸ à¦¸à¦¹à¦ķ
à¦¸ à¦Ĺà¦£à¦®
à¦® à¦²à¦®
à¦® à¦¶à¦ķ
à¦² à¦°à¦¦
à¦² à¦ļà¦°
à¦² à¦ıà¦ķà¦®
à¦² à¦īà§İà¦¸
à¦ª à¦²à¦¬
à¦¦ à§Łà¦¸
à¦¦ à¦ĩà¦¤
à¦¦ à¦ļà¦°
à¦¯ à¦ĺà¦°
à¦¯ à¦¸à¦®à¦¯
à§Ł à¦ĩà¦¸
à§Ł à¦ĵà¦¨
à§Ł à¦īà¦ªà¦¨
à§Ł à¦ĩà¦¸à¦°
à¦¹ à¦ĵà¦¸
à¦¹ à¦Łà¦ļ
à¦Ł à¦¸à¦®à¦¯
à¦Ł à¦ħà¦²
à¦ľ à¦¦à¦ķ
à¦ľ à¦°à§Ł
à¦ľ à¦Ĺà¦łà¦¨
à¦¶ à¦ĩ
à¦¶ à¦Ĩ
à¦¶ à¦°à¦¦
à¦Ĺ à¦¸à¦Ļ
à¦ĩ à¦ļà¦ķ
à¦ĩ à¦Ĩà§Ł
à¦ĩ à¦ħà¦¨à¦²
à¦ĩ à¦Ĩà¦°à¦ı
à¦Ĩ à¦ĩà¦ļ
à¦ı à¦ħ
à¦ı à¦ŀ
à¦Ľ à¦Ĩà¦Ľ
à¦Ľ à¦¦à¦¹
à¦ļ à¦Ŀ
à¦ļ à§Łà¦ķ
à¦ļ à¦¸à¦¦à¦¸
à¦· à¦°à¦ľ
à¦· à¦¨à¦¯
à¦· à¦ľà¦¨à¦ķ
à¦· à¦°à¦¹à¦®à¦¤
à¦Ń à¦°à¦¬
à¦Ń à¦¬à¦°
à¦§ à¦ıà¦ķà¦Ł
à¦§ à¦ķà¦²
à¦§ à¦¸à¦¨
à¦§ à¦ķà¦°à¦£
à¦¥ à¦ħà¦¬à¦¸
à¦ĸ à¦°à¦¬
à¦ĵ à¦®à¦ķ
à¦ĵ à¦¬à¦²à¦²
à¦ĵ à¦ıà¦ķà¦®
à¦ĵ à¦Ĳà¦¤
à¦ĵ à¦ĵà¦ıà¦ķ
à¦ĵ à¦īà¦ĩà¦¨
à¦¡ à¦¬à¦°
à¦¡ à¦¹à¦¬
à¦¡ à¦¬à¦ķ
à¦ħ à¦¤à¦¨
à¦ħ à¦Ĺà¦¸
à¦°à¦¸ à¦Ĺ
à¦« à¦°à¦ľà¦¨
à¦« à¦Łà¦«
à¦°à¦¬ à¦ŀ
à¦°à¦® à¦īà¦¦
à¦°à¦ª à¦ľ
à¦£ à¦¤à¦¬
à¦£ à¦ľà¦¨à¦ªà¦¦
à§ľ à¦ľà¦®
à¦ıà¦ķ à¦§à¦°à¦£
à¦ıà¦ķ à¦ĩà¦ķà¦¥
à¦ľà¦¨ à¦Ĩà¦¸
à¦ľà¦¨ à¦¢
à¦¬à¦² à¦ħà¦ª
à¦°à¦¦ à¦²à¦¬
à¦°à¦¹ à§Łà¦¸
à¦°à¦Ĩ à¦¨à¦ħà¦¨
à¦°à¦Ĩ à¦®à¦¤à¦²
à¦°à¦Ĩ à¦ĩà¦ıà¦¸
à¦¹à§Ł à¦ıà¦ĸ
à¦ĺ à¦Ń
à¦¨à¦¤ à¦¹à¦¬
à¦¨à¦¤ à¦ĸà¦¨à¦¸
à¦¬à¦° à¦°à¦¬
à¦°à¦ħ à¦ªà¦ª
à¦²à¦ķ à¦¨à¦Ń
à¦²à¦ķ à¦ĵà¦ª
à¦°à¦ı à¦ķà¦²
à¦ĩà¦¨ à¦ħ
à¦ĩà¦¨ à¦ĵà§Ł
à§© à§ªà§¦
à¦¸à¦¬ à¦ł
à¦¸à¦¬ à¦ĩà¦¤
à¦¸à¦¬ à¦¦à¦²
à¦°à¦ĵ à¦Ĩà¦Ľ
à¦°à¦ĵ à¦Ĩà¦Ĺ
à¦ķà¦® à¦¤à¦¬
à¦ķà¦® à¦²à¦¨à¦Ĺà¦°
à¦¹à¦² à¦¶
à¦ķà¦¬ à¦°à¦ª
à§İ à¦¬à¦²
à§İ à¦ıà¦¬
à§İ à¦¸à¦¬à¦¶
à§Łà¦¨ à¦ķà¦°à¦¬
à¦²à¦¨ à¦ĩà¦¤
à¦¯à¦¬ à¦ķ
à¦°à¦¯ à¦¤à¦¬
à¦¤à¦¨ à¦°à¦¸
à¦ĩà¦² à¦ħà¦ª
à¦¦à¦ķ à¦Ń
à¦Ŀ à§ľà¦¤
à¦°à¦ĩ à¦Ĺ
à¦¨à¦Ĩ à¦¬à¦°
à¦¨à¦Ĩ à¦°à¦¶
à¦¨à¦Ĩ à¦¶à¦ª
à¦¯à¦® à¦£
à¦®à¦¦ à¦ıà¦°à¦¶
à¦ķà¦¨ à§Ł
à¦ĵà¦¸ à¦¤à¦°
à§Łà¦¦ à¦Ĩà¦²
à¦Ĩà¦ľ à¦Ĩà¦ªà¦¨
à§¨à§¦à§¨à§§ à§¨à§¦
à¦¯à¦ª à¦Ľà¦¨
à¦Ĩà¦¦ à¦®à¦¶
à¦Ĩà¦°à¦ĵ à¦Ĺ
à¦ªà¦¦ à¦Ľ
à¦ªà¦¦ à¦°à¦ķ
à¦Ĺà¦² à¦ľ
à¦Ĺà¦² à¦Ĩà¦®
à¦Ĺà¦² à¦īà¦ªà¦ľ
à¦ĩà¦ľ à§Ł
à¦ĩà¦ľ à¦Ł
à¦ĩà¦ľ à¦Ń
à¦¨à¦ĵ à¦Ĩà¦®
à¦¨à¦ĵ à¦°à¦ķà¦®
à¦ľà¦® à¦ħ
à¦¶à¦¬ à¦¹à¦¨à¦ķ
à¦°à¦®à¦¤ à¦¶
à¦ĩà¦¦ à¦«
à¦¬à¦¹ à¦ĵà§Ł
à¦¨à¦ļ à¦®à§İà¦ķ
à¦¤à¦¹à§Ł à¦¦
à¦¶à¦¤ à¦¦à¦¨
à¦«à¦² à¦¯
à¦«à¦² à¦Ĺ
à¦«à¦² à¦¹à¦¬
à¦ıà¦ĸà¦¨ à¦ĸ
à¦²à¦Ń à¦ķ
à¦ıà¦® à¦Ĩà¦®
à¦ıà¦® à¦ķà¦²
à¦ıà¦® à¦Ĩà¦¬à¦¦
à¦¸à¦¦ à¦®à¦¨
à§§à§« à§¬
à¦°à¦ıà¦ķ à¦¸à¦®à§Ł
à§§à§ª à§§à§®
à¦°à¦¥à¦® à¦Ľà¦¬
à¦°à¦¥à¦® à¦ĵà¦¦
à§§à§Ń à§¨à§¦à§¨à§§
à§§à§§ à§¨à§¦
à¦ļà¦ķ à¦Ĩà¦®
à¦°à¦®à¦£ à¦ļ
à¦°à¦®à¦£ à¦ķà¦°à¦²
à¦īà¦Ł à¦°
à¦ıà¦¤ à¦Ń
à¦ľà¦ª à¦²
à¦¨à¦ıà¦ĩ à¦¸à¦®
à¦Ńà¦¬ à¦®
à¦Ńà¦¬ à¦ļ
à¦·à¦® à¦¹à¦²
à¦Ĺà¦ª à¦ŀ
à¦¨à¦ħ à¦¥à¦ļ
à¦¨à§Łà¦¨ à¦«
à¦ıà¦ĩà¦ļ à¦°
à§«à§¦ à§Ń
à¦¬à§ľ à¦ķà¦°
à§¨à§¯ à§©
à§¨à§¯ à§¬
à¦ıà¦« à¦ı
à¦¨à¦Ĩà¦² à¦®à¦Ĺ
à¦Īà¦¦ à¦ľ
à¦¤à¦ĸ à¦°à¦ļ
à§ªà§¦ à§¨
à¦·à¦ĸà¦¬ à¦°à¦¢
à¦°à¦¸à¦¹ à¦ħà¦¨
à¦°à¦¸à¦ķ à¦²à¦¨
à¦ĸà¦ķ à¦·
à¦ķà¦ĸ à¦¬à¦°
à¦Ĩà¦¹à¦¤ à¦¹
à¦Ĩà¦¹à¦¤ à¦ħà¦¬à¦¸
à§©à§© à§Ń
à¦£à¦¤ à¦¹à¦¤
à¦¯à¦ĸà¦¨ à¦¹
à¦¤à¦¸à¦® à§Łà¦ķ
à¦°à¦ıà¦ĩ à¦¨à¦¤
à¦°à¦ıà¦ĩ à¦ħà¦¬à¦¸
à¦¦à¦¸à¦® à¦ķ
à¦¸à¦¡ à¦ĵà¦¯
à¦°à¦Ĩà¦°à¦ĵ à¦ĸà¦¬
à¦¯à¦ĩ à¦ıà¦ķà¦Ł
à§«à§« à§Ń
à§«à§« à§¯
à§ªà§Ń à§¦
à¦ķà¦ĵ à¦Ĩà¦°
à¦Ĩà¦¹à¦®à¦¦ à¦¶à¦«
à¦ļà¦ª à¦¦à¦¸
à¦¨à¦ĩ à¦īà¦ľ
à¦Ĭ à¦·
à¦¦à¦®à¦¨ à¦ķà¦°
à¦¯à¦ľà¦¨ à¦ķà¦Ń
à¦²à¦ľà¦¬ à¦Ń
à¦°à¦ªà¦°à¦ĩ à¦¦
à¦¨ à¦ĩà¦¶
à¦ķ à¦¨à¦°
à¦ķ à¦ıà¦°à¦¸
à¦ķ à¦ıà¦¶
à¦¬ à¦°à¦¹à¦®
à¦¬ à¦ħà¦¤
à¦¬ à¦ľà§Ł
à¦¬ à¦ĵà¦¹
à¦¬ à¦īà¦ªà¦ķ
à¦¤ à¦Ĺà¦£
à¦¸ à¦¤à¦¥
à¦¸ à¦Łà¦¬
à¦¸ à¦ıà¦°à¦®
à¦¸ à¦ľà¦¨à¦¸à¦¨
à¦® à¦«à¦°
à¦® à¦ĺà¦°
à¦® à¦ĵà¦¶
à¦® à¦ıà¦°
à¦² à¦°à¦°
à¦² à¦ļà¦²à¦ļ
à¦² à¦īà¦Ĺ
à¦ª à¦¹à¦ĵà§Ł
à¦ª à¦°à¦Ĩà¦®
à¦¦ à¦Ľà¦¬
à¦¦ à¦ıà¦°à¦ª
à¦¦ à¦°à¦¨à¦Ĺà¦°
à¦¯ à¦ĵà¦Ń
à¦¯ à¦ıà¦®à¦¨à¦ķ
à§Ł à¦Ĳ
à§Ł à¦ĺà¦£
à§Ł à¦ĺà¦¨
à§Ł à¦Ĩà¦ª
à§Ł à¦ıà¦Ń
à§Ł à¦ļà¦²à¦¤
à§Ł à¦¸à¦¬à¦ķ
à§Ł à¦°à¦Ĩà¦ĩà¦Ń
à¦Ł à¦°à¦¤
à¦Ł à¦ħà¦ŀ
à¦Ł à¦ħà¦Ļ
à¦Ł à¦ıà¦ĩà¦ļà¦ıà¦¸à¦¸
à¦ľ à¦ħà¦¬
à¦ľ à¦ªà¦¦
à¦ľ à¦²à¦ľ
à¦ľ à§Łà¦¶
à¦ľ à¦Ĩà¦ª
à¦ľ à¦īà§İà¦ª
à¦¶ à¦ķà¦Ł
à¦¶ à¦¯à¦¦
à¦¶ à¦ıà¦¶
à¦Ĺ à¦ħà¦«
à¦Ĺ à¦ĩà¦īà¦¨
à¦Ĺ à¦ıà¦ĸà¦¨
à¦ĩ à¦ķà¦Ł
à¦ĩ à¦ĵà¦¦
à¦ĩ à¦ĺà¦¨
à¦Ĩ à¦ķà¦°à¦¤
à¦Ĩ à¦ªà§ľ
à¦Ĩ à§Łà¦®
à¦ı à¦Ļ
à¦ı à¦ĺ
à¦ı à¦°à¦ħà¦¸
à¦Ľ à§Łà¦¦
à¦ļ à¦¶à¦ķ
à¦· à¦¤à¦°
à¦Ń à¦²à¦ķ
à¦§ à¦ħà¦¬à¦¸
à¦¥ à¦ĩà¦¸
à¦¥ à¦®à¦¹
à¦¥ à¦²à¦¸
à¦ĸ à¦ĵà¦¦
à¦ĵ à¦®à¦¤
à¦ĵ à¦«à¦²
à¦ĵ à¦ĺà¦Łà¦¨
à¦ĵ à¦ıà¦®à¦ª
à¦ĵ à¦ħà¦ľ
à¦ĵ à¦ħà¦¡
à¦¡ à¦°à¦ķ
à¦¡ à¦Ĩà¦ªà¦¨
à¦¡ à¦Ĩà¦¨
à¦¡ à¦¹à¦ļ
à¦¡ à¦«à¦°
à¦¡ à¦ıà¦®
à¦¡ à¦ĵà¦Ń
à¦ħ à¦ķà¦²
à¦ħ à¦Ĺà¦£
à¦ħ à¦¦à¦®
à¦ī à¦£
à¦ī à¦ħà¦ªà¦°
à¦ī à¦¡à¦¨
à¦« à¦°à¦Ĩà¦²
à¦°à¦¬ à¦ĩà¦¯
à¦°à¦® à¦°à¦®
à¦°à¦ª à¦°à¦ĩà¦®
à¦°à¦ª à¦°à¦ĵà¦¯
à¦£ à¦¬à¦¸
à¦£ à¦ĵà¦¸
à¦£ à¦ļà¦Ł
à§§ à§¨à§¦à§§à§¬
à¦¸à¦® à¦¶
à¦ľà¦¨ à¦¸à¦¹
à¦ľà¦¨ à¦¶à¦ķ
à¦¬à¦² à¦²à¦¸
à¦°à¦¦ à¦ĸà¦²à¦¨
à¦°à¦¨ à¦ķà¦°à¦²
à¦°à¦ľ à§Łà¦¬
à¦°à¦ľ à¦Ĺà¦¦
à¦Ļ à¦°
à¦¹à§Ł à¦ıà¦ķà¦ªà¦°
à¦¨à¦¬ à¦¶
à¦¨à¦¬ à¦ĩà¦ª
à¦¬à¦¸ à¦¦à¦¸
à¦°à¦¶ à¦®
à¦¨à¦ķ à¦¡
à¦°à¦ı à¦°à¦ªà¦°
à¦°à¦ı à¦ĺà¦Łà¦¨
à¦°à¦ı à¦ĩà¦¸à¦®
à¦ĩà¦¨ à¦¨à¦®
à¦¨à¦ª à§ľà¦¤
à¦ıà¦ĩ à¦²à¦ķ
à¦ıà¦ĩ à¦ļà¦²à¦ļ
à§© à§§à§¯
à¦°à¦ĵ à¦ĩà¦ª
à¦¨à¦¨ à¦¥
à§ª à§§à§ª
à§« à§®à§¦
à§« à§©à§®
à¦¶à¦¨ à¦ĵà¦ķ
à¦¹à¦¤ à¦Ĩà¦Ľ
à§Łà¦¨ à¦¹
à¦®à¦¤ à¦Ĺ
à¦®à¦¤ à¦ĸ
à¦®à¦¸ à¦Ń
à¦¤à¦¨ à§Łà¦¤
à¦°à¦§ à¦¨à¦¬
à¦ļà¦² à¦¶
à¦Ŀ à¦²à¦¸
à¦¦à¦¨ à¦¢
à¦ªà¦¤ à§İà¦ªà¦°à¦¤
à¦°à¦² à¦ĺ
à¦°à¦ĩ à¦ķà¦¥
à¦·à¦£ à¦Ĩà¦ĩà¦¨
à¦ĸà¦¨ à¦ľ
à¦°à¦« à¦¹
à¦ļà¦¨ à¦°
à§Łà¦¸ à¦ŀ
à¦ĩà¦® à¦«
à§Łà¦ķ à¦Ľ
à¦¯à¦® à¦ļ
à¦¨à¦ľ à¦¯
à¦Ĩà¦Ľ à§ľ
à¦²à¦¸ à¦¡
à¦²à¦¸ à¦¹à¦¬
à¦¨à¦Ĺ à¦°à¦¦à¦ķ
à¦¨à¦ı à¦°à¦ľà¦¨
à¦¨à¦ı à¦°à¦¹à¦®
à¦¨à¦ı à¦«à¦¬
à¦¨à¦ı à¦°à¦ĩà¦®à¦§
à§§à§¯ à§¦à§«
à§§à§¯ à§«à§Ń
à¦¬à¦ķ à¦¥
à¦ķà¦ª à¦°à¦¤
à¦¤à¦ķà¦° à§Ł
à¦Ĩà¦®à¦° à¦°à¦¹
à¦¨à¦¶ à¦«
à¦ĵà¦ª à¦¡
à¦¤à¦ª à¦°à¦¬à¦°
à¦¬à¦Ľ à¦°à¦ļ
à¦¬à¦Ľ à¦°à¦ħà¦¨
à¦ªà¦ķ à¦Ĩà¦²
à¦ªà¦ķ à¦Ĩà¦¬
à§Łà¦® à¦Ĺ
à¦ľà¦¶ à¦¹
à¦Ĺà¦¤ à¦ıà¦ķà¦¦
à¦Ĺà¦¤ à¦Ĩà¦¯
à¦Ĩà¦°à¦ĵ à¦ıà¦Ĺ
à¦Ĺà¦² à¦¹
à¦¨à¦ĵ à¦ıà¦ķ
à¦¨à¦ĵ à¦ħà¦Ń
à¦¨à¦ĵ à¦®à¦°
à¦¸à¦®à§Ł à¦¶
à¦¸à¦®à§Ł à¦Ĩà¦®
à¦ľà¦® à¦ĩà¦¨à¦¡
à¦ħà¦¸ à¦ļ
à¦Ĩà¦¤ à¦¶
à¦°à¦¡ à¦¶
à§¨à§ª à§¯
à¦Ī à¦²
à¦Ī à¦¦à¦°
à¦·à¦ķ à¦Ĩà¦¬
à¦ħà¦ª à¦°à¦Ł
à¦Łà¦¸ à¦¦
à¦Łà¦¸ à¦ıà¦¬
à¦Łà¦¸ à¦¦à¦¸
à¦°à¦ħà¦Ń à§Łà¦¨à¦Ĺ
à¦¶à¦® à¦Ļ
à¦¸à¦¦ à¦°à¦®
à¦ĩà¦ī à¦¡
à¦¶à¦ª à¦ŀ
à¦¶à¦ª à¦¥à¦¬
à¦ĩà¦« à¦¹
à§§à§Ń à§§
à¦·à¦¦ à¦Ń
à§§à§§ à§§à§¦
à¦Ĳ à¦°
à¦°à¦®à¦£ à¦ıà¦¬
à¦¯à¦¥ à¦®à¦°
à§¨à§« à§¬
à¦¦à¦¶ à¦¬à¦Ľà¦°
à¦¤à¦Ľ à§ľ
à¦ıà¦°à¦ª à¦°à¦ĩ
à§¨à§® à§¨à§¦à§¨à§§à§¦
à¦¨à¦¸à¦® à§Łà¦¬
à¦ªà¦Ł à¦ĸ
à¦¨à¦ħ à¦¦
à¦ķà¦°à¦£ à¦Ł
à¦¬à§ľ à¦ħà¦°
à¦ªà¦£ à¦ķ
à¦¤à¦°à¦£ à¦Ĺ
à§¨à§¬ à§¨
à¦ķà¦¸à¦® à¦ķà¦°
à¦ķà¦¸à¦® à§Łà¦ķ
à¦Ĺà¦¸ à¦¦à¦¸
à§®à§¦ à§ª
à¦²à¦Ĩ à¦°à¦¨
à¦¶à¦² à¦ħà¦§
à¦Łà¦« à¦°à¦®
à¦°à¦Ŀ à¦°
à¦¶à¦« à¦Ł
à¦¡à¦Ł à¦ķà¦®à¦¬
à¦¤à¦ĸà¦¨ à¦Ĩà¦ªà¦¨
à¦·à§Łà¦ķ à¦ķ
à¦°à¦¸à¦ķà¦² à¦¦
à¦ĵà¦ĩ à¦«à¦¤
à§©à§ª à§¨
à¦¯à¦ĩ à¦Ĩà¦®à¦°
à§©à§¬ à§ª
à¦¦à¦°à¦¬ à¦¨à¦¸
à¦°à¦Ī à¦¦à¦¶
à¦īà§İà¦¸à¦¬ à¦ª
à¦ľà¦¨à¦Ĺ à¦¨à¦ķ
à§¨à§¦à§§à§¨ à§¨à§¦à§§à§©à§¨à§¦à§§à§ªà§¨à§¦à§§à§«à§¨à§¦à§§à§¬à§¨à§¦à§§à§Ńà§¨à§¦à§§à§®à§¨à§¦à§§à§¯à§¨à§¦à§¨à§¦à§¨à§¦à§¨à§§
à¦ıà¦¸à¦ıà¦® à¦ıà¦¸à¦ª
à¦ĩà¦®à¦¸ à¦¸
à¦Ĺà¦« à¦°à¦Ĺ
à§§à§¦à§¦à§¦ à§¦
à¦°à¦ıà¦ĸ à¦¨à¦¬
à¦®à¦¨à¦Ĺ à¦°à¦¥
à¦¯à¦Łà¦¨ à¦®à¦¨
à¦Ĺà¦²à¦ª à¦¦
à¦¤à¦¨à¦¦ à¦®à¦¨à¦Ł
à¦°à¦ĭ à¦¤
à§§à§¨à§§ à§¦
à¦°à¦Ĩà¦ļ à¦°à¦£à¦ķ
à¦¨à¦Ĩà¦ĩà¦¨ à¦®à¦¨
à¦²à¦¬à¦£ à¦ĵà¦ļ
à¦¨à¦¸à§ľ à¦ķà¦ª
à¦¡à¦Ĩà¦ĩà¦² à¦ħà¦¬à¦®
à¦¨ à¦īà¦°
à¦¨ à¦īà¦¦à¦¯
à¦ķ à¦°à¦ıà¦¬
à¦ķ à¦ĩà¦Ľ
à¦ķ à¦Īà¦¦
à¦ķ à¦īà¦¸
à¦ķ à¦ĩà¦¬à¦²
à¦¬ à¦ĵà¦Ĺ
à¦¬ à¦°à¦Ĩà¦¬
à¦¬ à¦Ĩà¦¨à¦¨
à¦¬ à¦ĩà¦īà¦°
à¦¬ à¦īà¦²à¦Ĩà¦²
à¦¤ à¦°à¦ħ
à¦¤ à¦ļà¦¨
à¦¤ à¦ıà¦¨
à¦¤ à¦ıà¦ķà¦¦
à¦¤ à¦ħà¦¥à¦¬
à¦¤ à¦°à¦¢
à¦¤ à¦ħà¦Ļ
à¦¤ à¦ıà¦ĩà¦¨
à¦¤ à¦¸à¦ķà¦²à¦ķ
à¦¸ à¦Ĩà¦ľ
à¦¸ à¦īà¦²
à¦¸ à¦ĵà¦¤
à¦¸ à¦Ĩà§Ł
à¦¸ à¦ĵà¦°
à¦¸ à¦ıà¦°à¦¬
à¦® à¦ħà¦ª
à¦² à¦ĩà¦¬
à¦² à¦ĺà¦°
à¦² à¦²à¦ľ
à¦² à¦ĵà¦Ń
à¦² à¦ıà¦°à¦Ĩà¦Ĺ
à¦² à¦ĩà¦ķà¦¬
à¦ª à¦°à¦Ľ
à¦ª à¦Łà¦¬
à¦ª à¦Łà¦®
à¦ª à¦²à¦°
à¦¦ à¦ħà¦ªà¦°
à¦¦ à¦°à¦ıà¦²
à¦¯ à¦¹à§Łà¦¨
à¦¯ à¦Ĩà¦ªà¦¡
à¦¯ à¦ĵà¦«
à§Ł à¦ĩà¦°
à§Ł à¦īà¦ĩà¦ķ
à§Ł à¦ļà¦¤
à§Ł à¦ıà¦°à¦ķ
à§Ł à¦ħà¦Ł
à§Ł à¦¨à¦ķà¦¬
à§Ł à¦ıà¦¸à¦ıà¦¸à¦¸
à§Ł à¦ĵà¦·
à¦Ł à¦īà¦ª
à¦Ł à¦ħà¦¸
à¦Ł à¦ħà¦ķ
à¦Ł à¦ıà¦ª
à¦Ł à¦ĵà¦¸à¦®
à¦Ł à¦ıà¦¡
à¦ľ à¦¹à¦¯
à¦ľ à¦ķà¦¸
à¦ľ à¦Ĺà§ľ
à¦ľ à¦Ĩà¦®à¦¦
à¦¶ à¦ĩà¦ª
à¦¶ à¦Ĩà¦¦
à¦¶ à¦Ĩà¦ķ
à¦¶ à¦¸à¦¦à¦°à¦¦à¦ª
à¦Ĺ à¦¸à¦¨
à¦Ĺ à¦®à¦ķà¦°
à¦ĩ à¦ľà¦¨à¦ª
à¦ĩ à¦®à¦¨à¦ķ
à¦Ĩ à¦¨à¦®
à¦Ĩ à¦°à¦®à¦¨
à¦Ĩ à¦ĩà¦¶
à¦ļ à§Łà¦¸
à¦ļ à¦¢
à¦· à¦°à¦¦
à¦· à¦ĩà¦¤
à¦· à¦ħà¦¬à¦¸
à¦· à¦¸à¦®à¦¯
à¦Ń à¦°à¦¦
à¦§ à¦¤à¦¬
à¦§ à¦Ĩà¦ĩà¦¨à¦Ĩà¦¦
à¦§ à§ľà¦ķà¦®
à¦¥ à¦ĺ
à¦¥ à¦ħà¦Ń
à¦¥ à¦ªà¦¥
à¦ĸ à¦°à¦§
à¦ĵ à¦ıà¦°
à¦ĵ à¦ıà¦ĩà¦ª
à¦ĵ à¦Īà¦¶
à¦ĵ à¦ªà§ľà¦¤
à¦ĵ à¦ħà¦¸à¦®
à¦¡ à¦Ļ
à¦¡ à¦¸à¦¬
à¦¡ à¦¨à¦®
à¦¡ à¦¡à¦²
à¦°à¦¸ à¦ªà¦ķ
à¦ī à¦ħ
à¦°à¦ķ à¦²à¦¬
à¦°à¦ķ à¦®à¦°
à¦°à¦ķ à¦®à¦®
à¦°à¦¬ à¦¬à¦²
à¦°à¦¬ à¦²à¦ª
à¦°à¦¬ à¦ķà¦¶
à¦°à¦® à¦Ń
à¦°à¦ª à¦¦à¦ª
à¦°à¦ª à¦°à¦¸à¦¬
à¦°à¦ª à¦°à¦ıà¦ĩà¦ª
à¦£ à¦Ĩà¦°
à¦£ à¦ķà¦¥
à§ľ à¦§
à¦°à¦¤ à¦ķà¦®
à¦ªà¦° à§Ł
à¦®à¦¨ à¦ªà¦°
à¦®à¦¨ à¦Ĩà¦ĩà¦¨
à¦ıà¦ķ à¦ķà¦¨
à¦ľà¦¨ à¦ħà¦¬
à¦ľà¦¨ à¦ķà¦¹
à¦ľà¦¨ à¦¸à¦®à¦ķ
à¦¬à¦² à¦ħà¦¨
à¦°à¦¦ à¦¨
à¦Ĩà¦® à¦ª
à¦°à¦ľ à¦¬à¦®
à¦¬à¦¨ à¦²
à¦°à¦Ĩ à¦¹à¦²
à¦°à¦Ĩ à¦ĩà¦¸à¦²
à¦°à¦Ĩ à¦ĩà¦¨à¦®
à¦¹à§Ł à¦¸à¦°à¦ķ
à¦¨à¦¬ à¦¸à¦Ń
à¦°à¦£ à¦¤à¦°
à¦°à¦£ à¦¤à¦¦
à¦ŀ à¦¹
à¦¨à¦¤ à¦®à¦¬
à¦¨à¦¸ à¦¬à¦¶
à¦°à¦ħ à¦«à¦¸
à¦°à¦¶ à¦ĸ
à¦²à¦ķ à¦ªà¦¦
à¦°à¦ı à¦ľà¦¨
à¦°à¦ı à¦ĩà¦ĸ
à¦¤à¦¬ à¦Ĺ
à¦¤à¦¬ à¦¸à¦®
à¦¨à¦ª à¦¦à¦¤
à¦ıà¦ĩ à¦ķà¦²
à§© à§§à§©
à§© à§ªà§©
à¦°à¦ĵ à¦¥
à¦°à¦ĵ à¦ĩà¦ļ
à¦°à¦ĵ à¦ľà¦¨à¦¬
à¦Ĩà¦² à¦ĩà¦®à¦°
à§ª à§©à§¦
à§« à§©à§©
à§« à§¬à§¦
à¦¶à¦¨ à¦ĩà¦¸
à¦¶à¦¨ à¦ĩà¦¨à¦¸
à¦¨à¦® à¦ľà¦²
à¦īà¦¨ à¦ľ
à§Łà¦¨ à¦ıà¦¬
à§Łà¦¨ à¦¹à¦ļ
à¦²à¦¨ à¦Ł
à¦°à¦Ľ à¦¤
à§¬ à§©à§¦
à¦¤à¦¨ à¦®à¦¨
à¦¤à¦¨ à¦Ĩà¦¦
à¦ıà¦¸ à¦²
à¦·à¦£ à¦¬à¦°
à¦ĸà¦¨ à¦Ĩà¦®
à¦Łà¦¨ à¦¢
à¦²à¦¤ à¦¬à¦²
à¦°à¦« à§Łà¦¸
à¦ļà¦¨ à¦ħà¦«
à¦ĩà¦® à¦ĩà¦īà¦¨
à¦¸à¦¨ à¦¯
à§Łà¦ķ à¦¹à¦¬
à¦°à¦Ł à¦¨
à¦¨à¦Ĺ à¦°à¦ıà¦²
à¦¨à¦ı à¦¯
à¦¨à¦Ń à¦Ļ
à¦ĵà¦¬ à¦ķ
à§Łà¦¬ à§ľ
à¦®à¦ķ à¦¯
à¦¸à¦ķ à¦¹
à§§à§¯ à§¨à§¦à§¨à§§
à§§à§¯ à§§à§©
à§§à§¯ à§ªà§©
à§§à§¯ à§©à§¯
à¦¨à¦¯ à¦¤à¦¦
à¦¤à¦¸ à¦«
à¦ªà¦ķ à¦ıà¦¬
à§¨à§¦à§¨à§§ à§§à§§à§©
à¦¯à¦ª à¦ŀ
à¦Ĺà¦¤ à¦¸à¦®à§Ł
à¦Ĺà¦¤ à¦¸à¦®à¦¸
à¦ªà¦¦ à¦¸à¦®
à¦Ĺà¦² à¦¶
à¦²à¦¹ à¦ķà¦«
à¦ĩà¦ľ à¦¸
à¦ľà¦® à¦¯
à¦°à¦ĺ à¦°à¦¨
à¦¬à¦¹ à¦¨à¦¨
à¦ħà¦¸ à¦Ń
à¦ħà¦¸ à¦Ļ
à¦²à§Ł à¦¡
à§İà¦¸ à¦ķà¦®
à¦īà¦² à¦Ĩà¦īà¦¯
à¦ıà¦®à¦¨ à¦ķà¦°
à¦ħà¦ª à¦¶à¦ķ
à¦Łà¦¸ à¦¦à¦°à¦ķ
à¦Ĩà¦ĩà¦¨ à¦Ł
à¦ıà¦ĸà¦¨ à¦Ĩà¦°à¦ķ
à¦Łà¦ª à¦Ł
à¦¤à¦¤ à¦ıà¦ķà¦Ł
à¦¤à¦¤ à¦¦à¦¨
à¦ıà¦® à¦Ł
à¦¸à¦¦ à¦¬
à¦°à¦ıà¦ķ à¦ľà¦¨à¦¶
à¦¯à¦ķà¦° à¦ķà¦°à¦¤
à¦ıà¦ķà¦ľà¦¨ à¦¹
à¦Ĳ à¦Ł
à¦Ĳ à¦ļ
à¦Ĳ à¦ķà¦®à¦¤
à¦¦à¦¬ à¦¡
à§©à§¦ à§©à§«
à¦¤à¦² à¦¶
à¦¨à¦« à¦ľ
à¦¨à¦« à¦²à¦¨
à¦®à¦ľ à¦²
à¦ªà¦¸ à¦ľ
à¦¨à¦ıà¦ĩ à¦¶
à¦°à¦¸à¦¬ à¦ķà¦Ł
à¦Ĩà¦Łà¦ķ à¦¡
à¦ľà¦² à¦ĸ
à¦°à¦ķà¦® à¦ıà¦ķà¦Ł
à¦¨à¦ħ à¦¸à¦®
à¦°à¦Ĩà¦¨ à¦Ľ
à¦ªà¦£ à¦ª
à¦¤à¦°à¦£ à¦ħà¦¨
à§¨à§¬ à§¦
à§¨à§Ń à§¬
à¦¸à¦ľ à¦Ļ
à¦¨à¦Ĩà¦² à¦Ĩà¦ľ
à¦Īà¦¦ à¦īà¦¦à¦¯
à§ªà§¦ à§«à§¦
à¦¸à¦ķà¦² à¦§à¦°à¦¨
à¦¥à¦ķ à¦Ľ
à¦¨à¦ıà¦ķ à¦¯
à¦°à¦ªà¦¥ à¦¦
à¦Ńà¦¬à¦¨ à§Łà¦ķ
à¦°à¦īà¦ªà¦° à¦²
à¦ķà¦ľà¦¨ à¦ľ
à§¬à§¦ à§«
à¦ıà¦°à¦ķ à¦¬à¦°
à¦īà¦¸ à¦ĵà§Ł
à¦·à§Łà¦ķ à¦ªà¦°
à¦ĩà¦ªà¦° à¦°
à¦¬à¦¦à¦² à¦ķà¦°
à¦°à¦¬à§Łà¦¸ à¦¹à§Ł
à¦¹à¦¯à¦°à¦¤ à¦¸
à¦°à¦¸à¦¦ à¦°à¦ĩà¦īà¦¨
à¦°à¦¸à¦ķà¦² à¦¶
à¦¬à§Ł à¦¸à¦¬
à¦¸à§ľà¦ķ à¦Ľ
à¦ħà¦¥ à¦ļà¦ķ
à¦°à¦ħà¦¬ à¦Ĺà¦¤
à¦ĩà¦ı à¦ĵà¦¸
à¦¦à¦Ĩà¦² à¦ľ
à¦ķà¦¶à¦¨ à¦®
à¦ıà¦ķà¦ĩ à¦§à¦°à¦¨
à§Ŀ à¦ª
à¦®à¦°à¦¤ à¦¸
à¦ķà¦ķà¦² à¦¹
à¦°à¦Ĩà¦Ł à¦ĺà¦°
à¦¸à¦°à¦¡ à¦®
à¦ªà¦ħ à¦¬à¦ª
à¦ĩà¦®à¦ļ à¦°à¦¶
à¦Ĩà¦¤à¦¬ à¦¦
à¦¨à¦ĵà¦¨à¦¨ à¦°à¦ĵà¦¯
à¦° à¦°à¦¥
à¦° à¦°à¦ķà¦®
à¦¨ à¦ĩà¦ľ
à¦¨ à¦²à¦Ĺ
à¦¨ à¦ĸà¦²
à¦¨ à§Łà¦Ĺ
à¦¨ à¦Ĩà¦¸à¦¤
à¦¨ à¦ħà¦¬à¦¦
à¦ķ à¦°à¦Ĩ
à¦ķ à¦¨à¦¦
à¦ķ à¦Ĺà¦¨
à¦ķ à¦ıà¦®à¦¨à¦ķ
à¦ķ à¦ĵà¦ķà¦°
à¦¬ à¦°à¦¬à¦°
à¦¬ à¦ħà¦ªà¦°
à¦¬ à¦ĩà¦¹
à¦¬ à¦ĺà¦Ł
à¦¬ à¦°à¦¸à¦¬
à¦¬ à§İà¦ª
à¦¬ à¦°à¦Ĩà¦¨
à¦¬ à¦°à¦®à¦¹
à¦¤ à¦Ļ
à¦¤ à¦¤à¦¨
à¦¤ à¦ĩà§Ł
à¦¤ à¦§à¦¨
à¦¤ à¦Ĺà¦¨
à¦¤ à¦°à¦īà¦¦
à¦¤ à¦°à¦Ĩà¦²
à¦¤ à¦Ĩà¦ª
à¦¸ à¦²à¦¬à¦£à¦ĵà¦ļ
à¦® à§Łà¦¶
à¦® à§Łà¦ļ
à¦® à¦īà¦ªà¦ķ
à¦® à¦¶à¦¤à¦¬à¦°
à¦² à¦ĩà¦ľ
à¦² à¦īà¦ł
à¦² à¦Ĩà¦ĩ
à¦² à¦ĩà¦īà¦ª
à¦² à¦īà¦®
à¦² à¦¸à¦¬à¦ļ
à¦ª à¦Łà¦ķ
à¦ª à¦Ĩà§Ł
à¦¦ à§Łà¦ķ
à¦¯ à¦¦à¦ķ
à¦¯ à§Łà¦ª
à¦¯ à¦«à¦°
à¦¯ à¦«à¦²
à¦¯ à¦ĩà¦¹
à¦¯ à¦Ĩà¦ĵà§Ł
à¦¯ à¦ĩà¦ķà¦°
à¦¯ à¦ĩà¦¥
à¦¯ à¦Ĩà¦¦à¦°
à§Ł à¦²à¦¬
à§Ł à¦Ĩà¦¯
à§Ł à¦¸à¦¬à¦ľ
à§Ł à¦ıà§Ł
à¦¹ à¦·
à¦¹ à¦Ĩà¦ľ
à¦¹ à¦°à¦Ĩà¦°à¦¶
à¦Ł à¦ıà¦Ń
à¦ľ à¦®à¦¸
à¦ľ à¦ħà¦Ń
à¦ľ à¦Ĩà¦Ĺ
à¦ľ à¦ıà¦Ł
à¦ľ à¦ĩà¦īà¦ª
à¦¶ à¦ħà¦ŀ
à¦Ĺ à¦ĩà¦ª
à¦Ĺ à¦ľà¦®
à¦ĩ à¦Ĩà¦¯
à¦ĩ à¦ľà¦¨à¦¨
à¦ĩ à¦ħà¦ľ
à¦Ĩ à¦¹à¦°
à¦Ĩ à¦Łà¦®
à¦Ĩ à¦°à¦ħà¦°
à¦ı à¦Ĩà¦ªà¦¨
à¦ı à¦ıà¦«à¦¸
à¦Ľ à¦ħà¦¨
à¦Ľ à¦¦à¦°
à¦Ľ à¦ħà¦¬à¦®
à¦ļ à¦°à¦ľ
à¦ļ à¦®à¦¦
à¦ķà¦° à¦ªà¦°
à¦· à¦¨à¦ª
à¦Ń à¦Ľ
à¦§ à¦§
à¦§ à¦ĵà¦ª
à¦§ à¦¤à¦¥
à¦§ à¦Ĩà¦ĩà¦¨
à¦¥ à¦°à¦®
à¦¥ à¦²à¦¤
à¦ĸ à¦¹à¦¤
à¦ĸ à¦«à¦ľ
à¦ĵ à¦°à¦ľà¦¨
à¦ĵ à¦¨à¦Ń
à¦ĵ à¦ıà¦®
à¦ĵ à¦Ľà§ľ
à¦¡ à¦ī
à¦¡ à¦¸à¦ª
à¦ħ à¦°à¦¬
à¦ħ à¦ĺ
à¦°à¦¸ à¦¹à¦ļ
à¦ī à¦ĺ
à¦« à¦ĩà¦¤
à¦« à¦Ĺà¦¨
à¦« à¦°à¦¤à¦ħà¦¬à¦¸
à¦« à§İà¦ĵà§Ł
à¦°à¦ķ à¦¬à¦ķ
à¦°à¦ķ à§Łà¦Ł
à¦°à¦¬ à¦¦à¦¨
à¦°à¦¬ à¦ĩà¦¤
à¦£ à¦¤à¦¸
à¦°à¦¤ à¦ķà¦°à¦¤
à¦ıà¦ķ à¦¸à¦¨
à¦ł à¦¹
à¦ľà¦¨ à¦ķà¦²
à¦ľà¦¨ à¦°à§Ł
à¦ľà¦¨ à¦ıà¦¨
à¦ľà¦¨ à¦¸à¦¹à¦®
à¦°à¦¨ à¦Ł
à¦°à¦¨ à¦¸à¦¦à¦¸
à¦°à¦¨ à¦ķà¦²à¦®
à¦°à¦¨ à¦«à¦²à¦Ľ
à¦°à¦ľ à§Łà¦§
à¦°à¦¹ à¦¨à¦¨
à¦°à¦¹ à¦²à¦°
à¦¬à¦¨ à¦ķà¦¥
à¦°à¦Ĩ à¦°à¦ıà¦ķà¦Ł
à¦°à¦Ĩ à¦²à¦ĩà¦¸à¦²
à¦°à¦Ĩ à¦ªà¦²
à¦¹à§Ł à¦ħà¦°
à¦¼à¦¾ à§ĩ
à¦ħà¦¨ à¦Ń
à¦ĺ à¦¯
à¦ĺ à¦°à¦®
à¦ĺ à¦°à¦¬à¦¨
à¦°à¦£ à¦¹à¦¯
à¦ªà¦¨ à¦ĵà¦¸
à¦¨à¦¸ à¦¹à¦ª
à¦¨à¦¸ à¦¬à¦¸à¦®
à¦¬à¦¸ à¦Ĩà¦ľà¦¨
à¦²à¦ķ à¦ħà¦Ń
à§¨à§¦ à§©
à¦¨à¦ķ à¦·
à¦°à¦ı à¦ĩà¦¹
à¦ĩà¦¨ à¦¬à¦²
à¦ĩà¦¨ à¦Ĩà¦¬
à¦ıà¦ĩ à¦¶à¦°
à¦¸à¦¬ à¦¶à¦°
à¦°à¦ĵ à¦ĩà¦¸
à¦¨à¦¨ à§Łà¦°
à§ª à§¬à§¦
à¦ķà¦® à¦¶
à¦¨à¦® à¦¯
à§İ à¦ıà¦ķà¦Ł
à§İ à¦¨à¦Ń
à¦°à¦ī à§İà¦ķ
à¦īà¦¨ à¦ĺ
à§Łà¦¨ à¦¹à¦ĵà§Ł
à¦°à¦Ľ à¦¦
à§® à§«à§¦à§¦
à¦²à¦¬ à¦Ľ
à§Ń à§ªà§¦
à¦®à¦¤ à¦ħà¦¨
à¦¯à¦ķ à¦ķà¦°
à¦¯à¦ķ à¦°à¦¥
à¦¤à¦¨ à¦²à¦ķ
à¦¤à¦¨ à¦Ĺà¦°
à¦ĩà¦² à¦ıà¦ķ
à¦ļà¦² à¦¦
à¦Ŀ à¦Ĺà¦¡
à¦°à¦² à¦Ł
à¦°à¦ĩ à¦ªà¦°
à¦¤à¦® à¦¡
à¦¤à¦® à¦Ĩà¦²
à¦¤à¦® à¦ħà¦§
à¦¤à¦ķ à¦ļ
à¦¤à¦ķ à¦·
à¦Łà¦¨ à¦ħà¦ķ
à¦²à¦¤ à¦¹
à¦²à¦¤ à¦ħà¦¨
à¦¸à¦¹ à¦¡
à¦¸à¦¹ à¦ªà¦°
à¦¸à¦¹ à¦ķà§Ł
à¦īà¦¦ à¦¹
à¦¨à¦Ĩ à¦«à¦¤
à¦¨à¦Ĩ à¦¤à¦¤
à¦¨à¦Ĩ à¦¦à¦®
à¦ªà§ľ à¦Ĺ
à¦ķà¦¦ à¦²à¦ķ
à¦¯à¦® à¦Ĺà¦£
à¦¯à¦® à¦¯à¦®à¦ķ
à¦ĩà¦Ł à¦¬à¦¨
à¦°à¦Ł à¦®
à¦®à¦² à¦¶
à¦ķà¦¨ à§Łà¦¸
à¦®à¦¬ à¦ķ
à¦®à¦¬ à¦¹
à§¨à§§ à§¨à§¦à§¨à§§
à¦¨à¦ı à¦°à¦ªà¦°à¦¥
à¦¶à¦ķ à¦¹
à¦ĵà¦¬ à§ľ
à§§à§¯ à§¦à§¦
à§§à§¯ à§©à§¬
à§§à§¯ à§«à§§
à¦¸à¦ª à¦°à¦¸
à¦¬à¦ķ à¦ıà¦¬
à¦Łà¦ķ à¦ķà¦°
à¦ĵà¦ª à¦ŀ
à¦ķà¦ķ à¦ķ
à§¨à§¦à§¨à§§ à§¦à§«
à¦Ĺà¦¤ à¦¸à¦®
à¦ĩà¦ľ à¦ıà¦¨
à¦¦à¦² à¦°
à¦¦à¦² à¦¯
à¦¦à¦² à¦Ľ
à¦¸à¦®à§Ł à¦ľ
à¦¸à¦®à§Ł à¦Ľ
à¦·à§Ł à¦§à¦°
à¦°à¦īà¦ª à¦°à¦ĸ
à¦¨à¦¹ à¦ľ
à¦ĩà¦Ń à¦°à¦¸
à¦ĩà¦Ń à¦ıà¦¬
à¦°à¦ĺ à¦°à¦¦
à¦¬à¦¹ à¦¨à¦¸
à¦ľà¦¸ à¦«à¦Łà¦¡
à¦¤à¦¹à§Ł à¦ħà¦¨
à§¨à§ª à§¬
à§İà¦¸ à¦ķà¦¸
à¦īà¦² à¦¬à¦²
à¦¶à¦¤ à¦ħà¦®
à¦«à¦² à¦ķà¦°à¦¤
à¦«à¦² à¦Ĩà¦ľà¦ķ
à¦ıà¦®à¦¨ à¦¤
à¦·à¦ķ à¦Ĩà¦²
à¦ħà¦ª à¦°à¦ª
à¦²à¦Ĺ à¦ıà¦¬
à¦ıà¦ĸà¦¨ à¦Ĺ
à¦°à¦¹à¦£ à¦¦
à¦²à¦Ń à¦¬à¦¨
à¦ıà¦® à¦Ĩà¦¬
à¦¸à¦¦ à¦°à¦¸à¦°
à¦ĩà¦¡ à¦¶
à§§à§ª à§¨à§ª
à¦¶à¦ª à¦¥à¦Ĺ
à¦¯à¦ķà¦° à¦¨
à¦¦à¦® à¦§
à¦ļà¦ķ à¦¡
à¦¨à¦ĸ à¦¸à¦°
à§©à§¦ à§¯
à¦®à¦ľ à§Łà¦¨
à¦¶à¦¹ à¦°à¦®
à¦°à¦¸à¦¬ à¦Ń
à¦¤à¦¹ à¦¨à¦¯
à§¨à§® à§¦à§«
à¦¨à¦¸à¦® à§Łà¦ª
à¦°à¦ĵà¦ª à¦°à¦Ĩà¦ķ
à¦ľà§Ł à¦ļà¦ķ
à¦ıà¦¸à¦¬ à¦¶
à§«à§¦ à§¨
à¦¬à§ľ à¦ļ
à¦ķà¦Ĺ à¦Ńà¦°
à¦ªà¦£ à¦ķà¦°à¦¤
à¦ªà¦£ à¦¢
à¦¤à¦°à¦£ à¦¹
à¦ıà¦« à¦ĩà¦īà¦ľ
à¦¦à¦¤ à¦¬à¦¨
à¦°à¦¸à¦¹ à¦¦
à¦ĭ à¦·à¦Ń
à¦Ĩà¦°à¦ı à¦ĸ
à¦¯à¦ĸà¦¨ à¦«
à§¬à§¦ à§©
à¦ıà¦°à¦ķ à¦¬
à¦°à¦ıà¦ĩ à¦īà¦¦
à¦°à¦ħà¦ª à¦¹à¦°à¦£
à¦²à¦Ĩà¦® à¦¦
à¦Łà¦¸à¦® à§Łà¦¬
à¦ĩà¦¸à¦¬ à¦®
à¦°à¦¸à¦¦ à¦ĩà¦ķ
à¦īà¦ªà¦° à¦¦
à¦°à¦¬à¦¸ à¦¤à¦¬
à§§à§¨à§¦ à§ª
à¦²à¦¸à¦® à§Łà¦¦
à¦°à¦Ī à¦ķ
à¦¯à§Ł à¦§
à¦¯à§Ł à¦¹à¦¬
à¦ĩà¦ı à¦§à¦°à¦¨
à¦ķà¦ħ à¦¬à¦°
à¦¨à¦Ĩà¦°à¦ĵ à¦¬à¦²
à¦°à¦ıà¦ķà¦ľà¦¨ à¦¸à¦¦à¦¸
à¦ľà¦« à¦²à¦®
à¦°à¦ıà¦®à¦¨ à¦¬
à¦ıà¦¸à¦ıà¦® à¦¶à¦«
à¦ĩà¦®à¦¸ à¦ħà¦¬à¦ĩà¦¨
à¦¸à¦ıà¦ķ à¦®à¦¹
à¦¨à¦ıà¦®à¦¨ à¦ª
à§Łà¦ĵ à¦Ĩà¦¨
à¦Ĩà¦®à¦¨ à¦ļ
à¦°à¦¨à¦Ĺ à¦°à¦¨
à¦°à¦ĭ à¦£à¦ªà¦°
à¦°à¦īà¦ªà¦°à¦Ń à¦°à¦¸
à¦°à¦Ĩà¦Ĺà¦®à¦¨ à¦ĺà¦Ł
à¦°à¦§à¦°à¦¨ à¦ħà¦¨
à¦ĩà¦®à¦ļ à¦°à¦¹
à¦¤à¦¤à¦® à¦¸à¦®à§Ł
à¦²à¦Ĩà¦ĩà¦¨ à¦ĩà¦¤
à¦ıà¦¸à¦ıà¦² à¦ıà¦¸à¦ıà¦²
à§¨à§«à§«à§¦ à§§à§¨à§«
à¦«à¦Łà¦« à¦°à¦Ń
à¦¨ à¦¨à¦¸
à¦¨ à¦ĩà¦¸à¦®
à¦ķ à¦°à¦Ł
à¦ķ à¦«à¦°
à¦ķ à¦Ĺà¦ł
à¦ķ à¦ıà¦¦
à¦ķ à¦Ĩà¦¸à¦¨
à¦ķ à¦ĩà¦ŀ
à¦¬ à¦ħà¦¬
à¦¬ à¦°à¦ıà¦ķ
à¦¬ à¦°à¦ķà¦²
à¦¬ à¦°à¦Ĩà¦¸
à¦¬ à¦Ĳà¦¤
à¦¤ à¦ĩà¦¦
à¦¤ à¦Ľà¦¨
à¦¤ à¦ıà¦ķà¦ľà¦¨
à¦¤ à¦ĺà¦°
à¦¤ à¦Ĩà¦ľà¦ķ
à¦¤ à¦Ĺà¦£à¦ªà¦°
à¦¤ à¦¶à¦¤à¦¬à¦°
à¦¸ à¦¤à¦¬
à¦¸ à¦ľà¦¬
à¦¸ à¦ıà¦Ĺ
à¦¸ à¦ĩà¦ķà¦°
à¦¸ à¦ħà¦²
à¦¸ à¦ĵà¦«
à¦® à¦ħà¦¨à¦²
à¦® à¦ħà¦®
à¦® à¦ħà¦¥à¦¬
à¦® à¦ħà¦ŀ
à¦² à¦ĵà¦ľ
à¦² à¦ĵà¦¡
à¦ª à¦¤à¦¬
à¦ª à¦®à¦¸
à¦ª à¦Ĩà¦°
à¦¦ à¦°à¦ĵ
à¦¦ à¦ªà¦¡
à¦¦ à¦¨à¦ķà¦®
à¦¯ à¦¯à¦¤
à¦¯ à¦¬à¦²à¦²
à¦¯ à¦ıà¦ª
à¦¯ à¦Ĩà¦Łà¦ķ
à¦¯ à¦ľà¦¨à¦ª
à¦¯ à¦¸à¦¹à¦ķ
à¦¯ à¦Ĩà¦¹à¦¬
à§Ł à¦ĸà¦¨
à§Ł à¦Ĺà¦£
à§Ł à¦ļà¦°
à§Ł à¦ıà¦®à¦ª
à§Ł à¦¨à¦ķà¦®
à§Ł à¦ıà¦°à¦Ĩà¦Ĺ
à§Ł à¦ıà¦ľ
à§Ł à¦Ĩà¦¹à¦¤à¦¹à§Ł
à¦¹ à¦¸à¦¹
à¦¹ à¦°à¦ħà¦¨
à¦¹ à¦°à¦¸à¦Ļ
à¦Ł à§Ł
à¦Ł à¦°à¦ľ
à¦Ł à¦ĩà¦¸
à¦Ł à¦Ĩà¦¤
à¦Ł à¦Ĺà¦¬
à¦Ł à¦¸à¦¤
à¦Ł à¦ľà¦¬
à¦Ł à¦°à¦®à¦¨
à¦Ł à¦ĵà¦Ĺ
à¦Ł à¦ľà¦¨à¦¦
à¦Ł à¦Ĩà¦¶à¦°
à¦ľ à¦°à¦ķ
à¦ľ à¦Ŀ
à¦ľ à¦¬à¦ķ
à¦ľ à§Łà¦°
à¦ľ à¦ķà¦¹
à¦ľ à¦Ĩà¦ĸ
à¦¶ à¦°à¦®
à¦¶ à¦ļà¦²
à¦¶ à¦²à¦¸
à¦¶ à¦²à¦ª
à¦¶ à¦ıà¦¨
à¦¶ à¦¦à¦¬
à¦¶ à¦ĵà¦°
à¦¶ à¦ħà¦¥à¦¬
à¦¶ à¦ıà¦ĩà¦ļà¦ıà¦¸à¦¸
à¦¶ à¦Ĩà¦®à¦²
à¦Ĺ à¦¦à¦²
à¦Ĺ à¦ĵà¦¤
à¦Ĺ à¦«à¦²
à¦Ĺ à¦¨à¦ĵà¦Ĺ
à¦ĩ à¦¹à¦¸
à¦ĩ à¦¹à¦ĵà§Ł
à¦ĩ à¦ħà¦²
à¦ĩ à¦Ĩà¦§
à¦ĩ à¦ıà¦ķà¦¸
à¦Ĩ à¦¹à¦¯
à¦Ĩ à¦ĵà¦¤
à¦Ĩ à¦¯à¦°
à¦Ĩ à¦Łà¦²
à¦ı à¦°à¦Ĩà¦¨
à¦ı à¦ĵà¦ľ
à¦ı à¦°à¦ĵà¦¬
à¦Ľ à¦Łà¦«
à¦ļ à¦ļà¦²
à¦· à¦¸à¦¨
à¦· à¦¢
à¦· à¦ķà¦¸à¦¹
à¦Ń à¦¬à¦²
à¦Ń à¦¶à¦ķ
à¦Ń à§İà¦¸
à¦§ à¦°à¦ª
à¦§ à¦¨à¦ĵ
à¦§ à¦¨à¦¹
à¦¥ à¦¸à¦ķà¦°
à¦¥ à¦°à¦¹à§Ł
à¦ĸ à¦«à¦°
à¦ĵ à¦Ĺà¦°
à¦ĵ à¦ķà¦°à¦¬
à¦ĵ à¦ıà¦ĩà¦ļ
à¦ĵ à¦ıà¦ķà¦¦
à¦ĵ à¦Ĩà¦ľà¦ķ
à¦ĵ à¦°à¦Ļ
à¦ĵ à¦ıà¦Ń
à¦ĵ à¦Ĩà¦ĸ
à¦¡ à¦¸à¦¹
à¦¡ à¦ĵà¦ª
à¦¡ à¦ħà¦ª
à¦¡ à¦²à¦°
à¦ħ à¦¨à¦¬
à¦ī à¦ħà¦¨
à¦ī à¦ıà¦¬
à¦ī à¦¬à¦²à¦Ľ
à¦ī à¦²à¦¹à¦ķ
à¦°à¦ķ à¦ıà¦¬
à¦°à¦¬ à¦¸à¦¨
à¦°à¦® à¦¹à¦¤
à¦°à¦® à¦¶à¦®
à¦°à¦ª à¦°à¦Ĩà¦°à¦ķ
à¦£ à¦¨à¦¤
à¦£ à¦¸à¦°
à¦£ à¦ħà¦ŀ
à§ľ à¦ķà¦ª
à¦¸à¦® à¦Ń
à¦ıà¦ķ à¦ħà¦Ń
à¦ıà¦ķ à¦ĩà¦ľ
à¦ł à¦¤à¦²
à¦ľà¦¨ à¦ķà¦¬
à¦ľà¦¨ à¦ĵà¦®
à¦°à¦¨ à¦ªà¦°
à¦°à¦¨ à¦¦à¦ķ
à¦°à¦¹ à¦¸à¦¨
à¦°à¦¹ à§Łà¦¬
à¦¹à§Ł à¦ıà¦°à¦®à¦§
à¦¨à¦¬ à¦¸à¦¤
à¦°à¦£ à¦¦à¦°
à¦°à¦£ à¦ıà¦¤
à¦°à¦£ à¦ĵà¦īà¦¨
à¦¨à¦¤ à¦ıà¦¬
à¦ªà¦¨ à¦Ľ
à¦ªà¦¨ à¦ķà¦¥
à¦¨à¦¸ à¦ľ
à¦¨à¦¸ à¦¬à¦®
à¦¨à¦¸ à¦¦à¦°à¦īà¦ªà¦ľ
à¦¬à¦¸ à¦Ĩà¦ľà¦¸
à¦°à¦ħ à¦¸à¦¨
à¦²à¦ķ à¦ıà¦ķà¦Ł
à¦°à¦ı à¦°à¦¦
à¦°à¦ı à¦ĩà¦®à¦¹
à¦ĩà¦¨ à¦·
à¦ĩà¦¨ à¦ªà¦¤
à¦ĩà¦¨ à§Łà¦¤
à¦ıà¦ĩ à¦®à¦°
à¦ıà¦ĩ à¦ķà¦²à¦ķ
à¦ıà¦ĩ à¦¸à¦®à§Łà¦ķ
à¦¸à¦¬ à§ľ
à§ª à§§à§«
à§« à§§à§¨
à¦ķà¦® à¦¯
à¦¹à¦¤ à¦ĵ
à§İ à¦ħà¦¨
à¦īà¦ª à¦§
à¦ķà¦² à¦ľ
à¦®à¦¤ à¦Ľ
à¦ĩà¦² à¦¸à¦°
à¦¦à¦ķ à¦¯
à¦¦à¦ķ à¦ĸ
à¦°à¦§ à¦°à¦£à¦«
à¦ļà¦² à¦¨à¦¬
à¦ıà¦¸ à¦ıà¦®à¦®
à¦¦à¦¨ à¦Ĩà¦Ľ
à¦·à¦£ à¦ıà¦ķ
à¦¤à¦® à¦Ł
à¦¤à¦® à¦ļà¦°
à¦ķà¦¸ à¦Ĺ
à¦²à¦® à¦¹à¦²à¦ĩà¦ľ
à¦ļà¦¨ à¦ķà¦°à¦¬
à¦¸à¦¹ à¦ľà¦¶à¦°
à¦¨à¦Ĩ à¦ľà¦°
à¦¯à¦¨ à§Ł
à¦¯à¦¨ à¦Ĺ
à¦ķà¦¤ à¦¬à¦¨
à¦¨à¦ľ à¦¹
à¦®à¦¦ à¦Ľ
à¦®à¦¦ à¦°à¦«
à¦®à¦² à¦®à¦¤
à¦²à¦¸ à¦²
à¦¨à¦Ĺ à¦°à¦ªà¦°
à¦¨à¦ı à¦ªà¦°
à¦®à¦ķ à¦ļ
à¦¸à¦ķ à¦Ń
à§§à§¯ à§§à§ª
à§§à§¯ à§ªà§¦
à¦Ĩà¦¨ à¦«
à¦¬à¦¬ à¦Ľà¦°
à¦°à§Ł à¦®
à¦°à§Ł à¦²
à¦¬à¦ª à¦ķ
à¦Ĩà¦ľ à¦°à¦«
à§Łà¦ª à¦°à¦¬à¦°
à§Łà¦® à¦Ĩà¦Ľ
à¦Ĺà¦¤ à¦Ĺà¦¤
à¦Ĩà¦°à¦ĵ à¦īà¦¨
à¦Ĩà¦°à¦ĵ à¦ķà¦ł
à¦Ĩà¦°à¦ĵ à¦¸à¦¹à¦ľ
à¦ªà¦¦ à¦Ń
à¦¶à¦° à§İà¦ļà¦¨
à¦²à¦¹ à¦ł
à¦ĩà¦ľ à§ľ
à¦¨à¦®à¦¨ à¦·
à¦īà¦ľ à¦¸à¦®
à¦¸à¦®à§Ł à¦ªà¦°
à¦·à§Ł à¦¹à§Ł
à¦°à¦īà¦ª à¦°à¦ªà¦°
à¦ĩà¦Ń à¦¸à¦®
à¦ĩà¦¬à¦¨ à¦ĸ
à¦¶à¦¤ à¦²
à¦«à¦² à¦ļ
à¦·à¦ķ à¦ĸà¦¨
à§§à§¨ à§§à§¬
à¦ıà¦ĸà¦¨ à¦ĵà¦ħà¦¨
à¦²à¦¦ à¦¤
à¦Łà¦Ĺ à¦ł
à¦®à¦® à¦¦à¦ķ
à¦ĩà¦¡ à¦Ĺ
à¦·à¦¤ à¦°à¦Ļ
à¦°à¦ıà¦ķ à¦¨à¦®
à¦ĩà¦« à¦Ł
à¦ĩà¦« à¦ĩà¦¨
à§§à§Ń à§¦à§§à§¨à§¦à§§à§©
à¦¯à¦ķà¦° à¦ª
à¦ķà¦¶ à¦¹à¦°
à¦Łà¦® à¦¹à¦²
à¦ļà¦ķ à¦¹
à¦ļà¦ķ à¦ķà¦®
à¦°à¦®à¦£ à¦ķà¦®
à¦°à¦®à¦£ à¦®à¦¤
à¦°à¦®à¦£ à¦§à¦°
à¦ªà¦¸ à¦Ĺ
à¦ªà¦¸ à¦Ļ
à¦ªà¦¸ à¦°à¦¬à¦°
à¦ĩà¦ļ à¦°
à¦¶à¦¹ à¦°à¦¤à¦²
à¦¨à¦ıà¦ĩ à¦«
à¦°à¦¸à¦¬ à¦¸à¦®à¦¯
à¦ĵà¦Ń à¦°à¦¸
à¦¤à¦¹ à¦ĩà¦¤
à§¨à§« à§¨
à¦¶à¦Ĺ à¦Ļ
à¦¹à¦ľ à¦°à¦¤à¦®
à¦¤à¦Ń à§Ł
à¦ĩà¦¶ à¦Ļ
à§¨à§¨ à§¬
à¦¨à§Łà¦¨ à¦ľà¦®
à§«à§¦ à§¬
à¦¬à§ľ à¦Ĺ
à¦¤à¦°à¦£ à¦¨à¦°à¦¸
à¦ķà¦ľ à¦¹
à§¨à§Ń à§§
à§ªà§¦ à§¯
à¦¸à¦ķà¦² à¦°
à¦īà¦® à¦°à¦ĩà¦¬à¦¨
à¦ħà¦® à¦°à¦ıà¦ķ
à¦·à¦ĸà¦¬ à¦°à¦ıà¦¬
à¦·à¦ĸà¦¬ à¦°à¦Ĩà¦®
à¦Ĩà¦¹ à¦°à¦£
à¦°à¦¸à¦®à§Ł à¦¥
à¦°à¦ĸà¦¬ à¦°à¦¡
à¦Ĩà¦°à¦ı à¦ĩà¦¬
à¦¶à¦ľ à¦²à¦¬
à¦°à¦ıà¦ĩ à¦Ľà¦¬
à¦īà§İ à¦ĸ
à¦¬à¦°à¦¸ à§ľà¦ķ
à§©à§« à§¦à§¦
à¦¥à¦ª à¦ŀ
à¦ĩà¦¸à¦¬ à¦¦
à¦°à¦¸à¦¦ à¦°à¦ķ
à¦Ĩà¦ĩà¦¸ à¦Ń
à§¦à§¯ à§¨à§¦à§§à§Ń
à§ªà§Ń à§«
à¦¦à¦ĩà¦¬à¦¨ à¦¸
à§İà¦¸à¦ķ à¦ĵà¦¸
à¦°à¦ħà¦¬ à¦ķà¦®
à¦Ĩà¦¹à¦®à¦¦ à¦¸
à¦Ĩà¦¹à¦®à¦¦ à¦¶
à¦¬à¦°à¦ķ à¦£
à¦ĸà¦°à¦ļ à¦ķà¦°à¦¤
à§«à§¬ à§¬
à§Ŀ à¦ķà¦°
à¦¬à¦°à¦¹ à¦ļ
à¦²à¦¸à¦¹ à¦¨
à¦¤à¦Ĩ à¦¹à¦²
à¦Ķà¦· à¦§à¦ķ
à¦Ķà¦· à¦§à¦¦
à¦¸à¦¬à¦¸à¦®à§Ł à¦¯
à¦¬à¦¸à¦¤ à¦ĺà¦°
à§Ńà§® à§¬
à¦¸à¦°à¦£ à¦ķà¦°à¦²
à¦®à¦¨à¦Ĺ à¦°à¦īà¦ªà¦ľ
à§Ńà§Ń à§Ń
à¦Łà¦ĵ à¦ħà¦¡
à¦¸à¦īà¦¦ à¦°
à¦®à¦ĩ à¦°à¦¶
à¦°à¦¸à¦« à¦°à¦¸à¦Ļ
à¦°à¦¨à¦ľ à¦°à¦ķ
à¦ıà¦¨à¦Ĩ à¦°à¦¬
à¦Ĩà§Łà¦ķà¦° à¦°
à¦°à¦Ĩà¦ĸ à§ľ
à¦¨à¦ĩà¦ī à¦ıà¦¨
à¦° à¦°à¦¤
à¦¿ à§ģ
à¦¨ à¦ĩà¦īà¦Ł
à¦¨ à¦ĩà¦¸à¦ª
à¦ķ à¦¨à¦ķà¦°
à¦ķ à¦¯à¦¤
à¦ķ à¦°à¦Ĩà¦²
à¦ķ à¦ıà¦°à¦®
à¦ķ à¦Ĩà¦ĩà¦¨à¦Ĩà¦¦
à¦ķ à¦īà¦·
à¦ķ à¦ıà¦°à¦ľ
à¦¬ à¦¯à¦¦
à¦¬ à¦¤à¦ķà¦°
à¦¬ à¦ĩà¦°
à¦¬ à¦ĩà¦īà¦¨
à¦¬ à¦ıà¦ª
à¦¬ à¦ıà¦°
à¦¤ à¦ĩà¦ª
à¦¤ à¦¯à¦¤
à¦¤ à¦²à¦Ĺ
à¦¤ à¦¯à¦¶
à¦¤ à¦ıà¦®à¦¨à¦ķ
à¦¤ à¦¸à¦¬à¦ļ
à¦¤ à¦ıà¦Ń
à¦¤ à¦ĵà¦ĸ
à¦¤ à¦Ĺà¦£à¦¤à¦¨
à¦¤ à¦Ĩà¦ĩà¦¨à¦®à¦¨
à¦¸ à¦°à¦ª
à¦¸ à¦¸à¦ķ
à¦¸ à¦¸à¦ª
à¦¸ à¦ıà¦ĸ
à¦¸ à¦īà¦ļ
à¦¸ à¦¶à¦¹
à¦¸ à¦Ĩà¦Ĺà¦¸
à¦® à¦ķà¦°à¦¬
à¦® à¦īà¦ĩà¦¨
à¦² à¦ĺà¦Łà¦¨
à¦² à¦ıà¦ķà¦ľà¦¨
à¦² à¦īà¦ªà¦¨
à¦² à§ľà¦¬
à¦ª à¦ĩà¦¨
à¦ª à¦°à¦«
à¦ª à¦ĩà§Ł
à¦ª à¦īà§İà¦ª
à¦¦ à¦ł
à¦¦ à¦®à¦¸
à¦¦ à¦°à¦®à¦¨
à¦¦ à¦ıà¦ª
à¦¦ à¦¤à¦¹
à¦¦ à¦ªà§ľà¦²
à¦¯ à¦ħà¦®
à§Ł à¦¦à¦¸
à§Ł à¦ĺà¦°
à§Ł à¦¹à¦ľ
à¦¹ à¦°à¦¶
à¦¹ à¦ķà¦°à¦Ľ
à¦¹ à¦°à¦Ĩà¦¦
à¦¹ à¦£à¦ķà¦°
à¦¹ à¦°à¦Ĩà¦Ľ
à¦Ł à¦¤à¦°
à¦Ł à¦²à¦¸
à¦Ł à¦ıà¦¤
à¦Ł à¦¹à§Łà¦¤
à¦Ł à¦ĵà¦ľ
à¦Ł à¦Ĩà¦ķà¦°
à¦ľ à¦¬à¦°
à¦ľ à¦°à¦¶
à¦ľ à¦®à¦²
à¦ľ à¦Ĩà¦ľ
à¦ľ à¦ĵà¦¦
à¦¶ à¦¦à¦ķ
à¦¶ à¦ĩà¦¸à¦²
à¦¶ à¦®à¦°
à¦¶ à¦ĩà¦ľ
à¦¶ à¦ıà¦ĸ
à¦¶ à¦ĵà¦¨
à¦¶ à¦Ĩà¦°à¦ª
à¦Ĺ à¦¨à¦¦
à¦Ĺ à¦ĸà¦¤
à¦ĩ à¦ĩà¦¸
à¦ĩ à¦Ĩà¦ĩà¦¨
à¦Ĩ à¦¤à¦ķ
à¦Ĩ à¦īà¦ľ
à¦Ĩ à¦°à¦§à¦°
à¦Ľ à¦¦à¦¦
à¦ļ à¦Ĩà¦²
à¦ļ à¦¨à¦ªà¦°à¦¬à¦°
à¦ķà¦° à¦²à¦ª
à¦· à¦°à¦¨
à¦· à§Łà¦¦
à¦· à¦īà¦²
à¦· à¦ĵà¦¶
à¦Ń à¦¹à¦²
à¦Ń à¦ķà¦°à¦Ľ
à¦Ń à§Łà¦ķà¦°
à¦§ à¦¸à¦¹
à¦§ à¦ķà¦¹
à¦§ à¦īà¦ªà¦¸
à¦¥ à¦Ĩà¦²
à¦¥ à¦ķà¦®
à¦¥ à¦¢
à¦ĸ à¦°à¦ķ
à¦ĸ à¦ĩà¦®
à¦ĸ à¦°à§Ł
à¦ĵ à¦®à¦¦
à¦ĵ à¦ķà¦ķ
à¦ĵ à¦ıà¦°à¦ª
à¦ĵ à¦¹à§Łà¦¤
à¦ĵ à¦ľà¦¨à¦¸
à¦ĵ à¦īà¦ªà¦ķ
à¦¡ à¦¹à¦¯
à¦¡ à¦¸à¦ķ
à¦¡ à¦ħà¦¸
à¦¡ à¦Ĩà¦¹à¦®
à¦ħ à¦¸à¦®à§Ł
à¦°à¦¸ à¦¡
à¦ī à¦ĩà¦¬
à¦ī à¦¬à¦¦
à¦ī à¦ħà¦ªà¦¶à¦¨
à¦« à¦ķà¦°à¦¬
à¦°à¦ķ à¦ľ
à¦°à¦ķ à¦ħà¦¨
à¦°à¦¬ à¦ĩà¦¡
à¦£ à¦īà¦ª
à§¨ à§¨à§¦à§§à§¬
à§ľ à¦ĸ
à§ľ à¦ĺ
à§¦ à§§à§¦
à¦°à¦¤ à¦ĵà¦ª
à¦®à¦¨ à¦§
à¦ľà¦¨ à¦ķà¦¸
à¦¬à¦² à¦²à¦®
à¦°à¦¨ à¦Ľ
à¦°à¦ľ à¦Ń
à¦°à¦ľ à¦¸à¦¨
à¦°à¦Ĩ à¦¶à¦°
à¦¹à§Ł à¦ħ
à¦¹à§Ł à¦¯à¦¦
à¦¹à§Ł à¦¸à¦°
à¦¹à§Ł à¦ªà¦°à¦¬à¦°
à¦ħà¦¨ à¦¤
à¦ħà¦¨ à¦ħ
à¦°à¦£ à¦¬à¦²
à¦°à¦£ à¦¤à¦®
à¦°à¦£ à¦¤à¦¸
à¦ŀ à¦¨
à¦¨à¦¤ à¦¹à§Ł
à¦¨à¦¤ à¦Ĩà¦¬
à¦ªà¦¨ à¦¢
à¦°à¦ħ à¦ªà¦ķ
à¦²à¦ķ à¦®à¦¨
à¦²à¦ķ à¦Ĩà¦®
à¦²à¦ķ à¦ıà¦®à¦¡
à§¨à§¦ à§§à§§à§¦
à¦°à¦ı à¦°à¦ľà¦¨
à¦ĩà¦¨ à¦Ĩ
à¦ıà¦ĩ à¦Ĺà¦¬
à¦ıà¦ĩ à¦¶à¦¹à¦°
à§© à§¨à§§
à¦¸à¦¬ à¦ķà¦°
à¦¸à¦¬ à§Łà¦¸
à¦¸à¦¬ à¦ħà¦Ń
à¦°à¦ĵ à¦¸à¦Ļ
à¦Ĩà¦² à¦ĩà¦¸à¦²
à¦ĩà¦¸ à¦ľ
à§« à§¨à§¨
à¦¶à¦¨ à¦ħà¦¬
à¦¨à¦® à¦¤à¦¬
à¦°à¦Ń à¦¨
à§İ à¦¬à¦¨
à§İ à¦¹à§Ł
à§İ à¦Ĩà¦Ĺ
à¦°à¦ī à¦¡
à§Łà¦¨ à¦¸à¦®
à¦īà¦ª à¦®à¦¨
à¦¯à¦¬ à§Ł
à¦°à¦Ľ à¦ķà¦Ĩà¦ªà¦¨
à§® à§«à§¦
à§¬ à§¨à§«
à§¬ à§ªà§¦
à§¬ à§¦à§¦à§¦à§¦
à¦²à¦¬ à¦¯
à¦®à¦¤ à¦ıà¦¬
à¦®à¦¤ à¦ħà¦°
à¦¤à¦¨ à¦ĸ
à¦¤à¦¨ à§Łà¦¶
à¦ĩà¦² à¦®à¦¤
à¦¦à¦ķ à¦Ĩà¦®
à¦¦à¦ķ à¦Ĩà¦¬à¦¦
à¦ķà¦Ł à¦ļ
à¦ıà¦¸ à¦¦
à¦¦à¦¨ à¦īà¦¤
à¦·à¦£ à¦Ľ
à¦·à¦£ à¦Ĩà¦®
à¦·à¦£ à¦ĵà¦¬
à¦¤à¦® à¦¬à¦°
à¦²à¦® à¦£
à¦²à¦® à¦ŀ
à¦¤à¦ķ à¦²à¦ķ
à¦°à¦¸à¦® à§Łà¦Ń
à¦ĵà¦¯ à¦¨
à¦²à¦¤ à¦¢
à¦ļà¦¨ à¦ļà¦²à¦Ľ
à¦¨à¦Ĩ à¦ŀ
à¦¨à¦Ĩ à¦ªà¦¤
à¦¯à¦® à¦¶
à¦ķà¦¤ à¦ľ
à¦¨à¦ľ à¦Łà¦¸
à¦®à¦¦ à¦¶à¦«
à¦¨à¦Ĺ à¦¤à¦°
à¦¨à¦Ĺ à¦¤à¦®
à¦¨à¦Ĺ à¦°à¦ĸ
à¦¨à¦ı à¦¸à¦®
à¦®à¦ª à¦Ł
à§§à§¯ à§«à§©
à¦¬à¦ª à¦¶
à¦ĵà¦¸ à¦ł
à¦²à¦ª à§Ł
à§§à§¦ à§¨à§¦à§¨à§¦
à¦¬à¦Ľ à¦°à¦ªà¦°à¦¸
à¦Ĺà¦¤ à¦ıà¦ķà¦¸à¦ª
à¦Ĺà¦² à¦ĸ
à¦²à¦¹ à¦ľà¦®
à¦¨à¦ĵ à¦ł
à¦¦à¦² à¦ķà¦°
à¦¸à¦®à§Ł à¦¥
à¦·à§Ł à¦¹
à¦·à§Ł à¦¶
à¦·à§Ł à¦¥
à¦·à§Ł à¦ªà¦°
à¦°à¦īà¦ª à¦°à¦Ĩà¦ķ
à¦°à¦īà¦ª à¦°à¦ħà¦¤
à¦¤à¦¦ à¦¬
à¦°à¦®à¦¤ à¦¯
à¦ĩà¦Ń à¦¹
à¦¹à¦® à¦ĸà¦¦
à¦ĵà¦® à¦ľ
à¦ĵà¦® à§İà¦¸
à¦¤à¦¹à§Ł à¦ıà¦¤
à¦¶à¦¤ à¦Ł
à§§à§¨ à§«à§¦
à¦²à¦Ĺ à¦°à¦¬
à¦Ĺà¦¨ à¦ĸ
à¦ıà¦ĸà¦¨ à¦ĵà¦¦
à¦Ľà¦¨ à¦«
à¦°à¦®à¦¨ à¦ĸ
à¦ĵà¦ķ à¦°à¦Ľ
à¦°à¦¹à¦£ à¦¹
à¦®à¦® à¦ŀ
à¦«à¦¤ à¦ĵà§Ł
à¦«à¦¤ à¦Ĩà¦²
à¦¸à¦¦ à¦°à¦ķ
à¦¸à¦¦ à¦ħà¦§
à¦°à¦ıà¦ķ à¦ľà¦¨à¦ķà¦°
à¦ļà¦Ł à¦ĸ
à§§à§® à§§
à§§à§® à§¨
à¦Ĺà¦ł à¦ķà¦®
à¦Ĺà¦ł à¦¨à¦¹
à¦°à¦¥à¦® à¦Ľ
à§§à§Ń à§§à§¨
à¦ıà¦ķà¦ľà¦¨ à¦¤
à¦¥à¦¨ à¦ķà¦°à¦¤
à¦ıà¦¨ à¦ıà¦¸
à¦¨à§Ł à¦Ľ
à¦Ĳ à¦¨
à¦²à¦ľ à¦¯
à¦ĵà¦Ń à¦¬
à¦Ĩà§Ł à¦ķà¦°à¦¬
à¦¨à¦ħ à¦¸à¦¹
à¦¨à§Łà¦¨ à¦¦à¦ķ
à¦ľà¦¨à¦ķ à¦£
à¦¤à¦°à¦£ à¦¤
à¦ĵà¦ľ à¦²à¦¬
à¦·à¦¸ à¦¤à¦°
à§¨à§¯ à§«
à§¨à§¯ à§¨à§¦à§¨à§¦
à¦²à¦Ĩ à¦ķà¦¸
à¦²à¦Ĩ à¦ĩà¦ª
à§Łà¦¹ à¦ł
à¦·à¦¬ à§Łà¦¸
à¦·à¦ĸà¦¬ à¦°à¦ªà¦°
à¦°à¦ĸà¦¬ à¦°à¦Ł
à¦ķà¦ĸ à¦Ĺà¦ĺ
à¦ķà¦ĸà¦¨ à¦ĵà¦¬
à¦Ĩà¦¹à¦¤ à¦ļ
à¦²à¦Ĩà¦² à¦®à¦¬
à¦²à¦Ĩà¦² à¦®à¦¬à¦²
à¦¤à¦ĸà¦¨ à¦ĸ
à§Łà¦« à¦¸à¦²
à§ªà§« à§ª
à¦ĩà¦¸à¦® à§Łà¦ķ
à¦°à¦ıà¦ĩ à¦ħà¦Ń
à¦ļà§Ł à¦ĩà¦¤
à§¦à§Ń à§¨à§¦à§¨à§¦
à¦¨à¦ľà¦¨ à¦®
à¦¸à¦¹à¦ľ à¦īà¦ª
à§©à§« à§¬
à¦ĩà¦¸à¦¬ à¦ª
à§¨à§¦à§§à§« à§§à§¬
à§©à§ª à§ª
à¦°à¦Ĩà¦°à¦ĵ à¦ķ
à¦²à¦¹à¦ķ à¦ĩà¦¨
à¦¨à¦Ĩà¦¹à¦® à¦¦à¦ķ
à¦¨à¦Ĩà¦¹à¦® à¦¦à¦¨
à§ľà¦² à¦ıà¦ķà¦®
à¦¦à¦ĩà¦¬à¦¨ à¦¹
à¦°à¦Ī à¦¦à¦¸
à¦ıà¦¸à¦® à§Łà¦ķ
à¦¨à¦ĩ à¦¬à¦°
à¦Ķ à¦¦
à¦¨à¦¸à¦¹ à¦Ĩà¦Łà¦ķ
à¦Ĭ à¦¨
à¦²à¦ĵ à¦ķà¦²
à¦®à¦ĵ à¦Ĩà¦²
à§ªà§ª à§ª
à§©à§¯ à§ªà§Ń
à¦²à¦ħ à¦¡
à¦ķà¦¸à¦¹ à¦¸à¦Ń
à¦°à¦¬à§ľ à¦ħ
à§¨à§¦à§¨ à§§à§ª
à¦Ľà¦¦ à¦Ĩà¦¨
à¦°à¦ıà¦ķà¦¬ à¦Ľà¦°
à¦°à¦īà§İ à¦¸à¦°
à§° à¦¯
à¦Ĺà¦°à¦® à¦¬
à¦Ĺà¦°à¦® à¦®
à¦¨à¦ıà¦®à¦¨ à¦ıà¦ķà¦Ł
à§¦à§§à§Ń à§§à§¬
à¦ħà¦¥à¦ļ à¦Ĩà¦®
à¦ªà¦¦à¦¸ à¦¡
à¦°à¦ĭ à¦£à¦¬
à¦īà¦¥ à¦ĵà§Ł
à¦Ĩà¦ķà¦¬ à¦°à¦¹
à¦īà¦ıà¦ĩà¦ļ à¦ĵà¦¸
à¦ıà¦¤à¦¬ à¦¡
à§®à§§à§® à§¯
à¦ķà¦ħà¦ħ à¦ħà¦ª
à¦²à¦¨à¦Ĺ à¦°à¦°
à¦°à¦ķà¦®à¦ª à¦ķ
à¦°à¦ªà¦°à¦¬à¦Ľ à¦°à¦§à¦°
à¦¤à¦²à¦Ń à¦¬à¦¨
à§Łà¦¸à¦ķà¦² à¦¶
à§Łà¦¦à¦¨ à¦ľà¦°
à§¦à§¨à§¨à§¨à§©à§©à§«à§¯ à§ªà§¦à§ª
à§¦à§¨à§¨à§¨à§©à§©à§«à§¯ à§©à§¯à§ªà§Ń
à¦ħà¦²à¦Ĩ à¦īà¦Ł
à¦°à¦ľà§Łà¦ľ à§Łà¦ķ
à¦° à¦°à¦Ĺà¦ķ
à§ĩ à§Ģ
à¦¨ à¦ĩà¦Ĩà¦®
à¦ķ à¦ıà¦Ń
à¦ķ à¦ħà¦Ł
à¦ķ à¦īà¦ªà¦°
à¦ķ à¦Ĩà¦ĩà¦¨à¦¶
à¦¬ à¦ļà¦¨
à¦¬ à¦°à¦ıà¦ķà¦Ł
à¦¬ à¦°à¦®à¦¨
à¦¬ à¦ĵà¦ķà¦°
à¦¬ à¦°à¦ĩà¦Ń
à¦¬ à¦ĩà¦ľà¦°
à¦¤ à¦°à¦ħà¦Ń
à¦¤ à¦°à¦®à¦¨
à¦¤ à¦°à¦ķà¦®
à¦¤ à¦Ĩà¦«
à¦¤ à¦ĵà¦°
à¦¤ à¦ħà¦Ĺ
à¦¤ à¦®à¦¤à¦²
à¦¸ à¦¸à¦¤
à¦¸ à¦ļà¦ķ
à¦¸ à¦ıà¦°à¦ª
à¦¸ à¦ıà¦ķà¦¦
à¦¸ à¦°à¦¹à¦¸
à¦¸ à¦ıà§Ł
à¦® à¦®à¦¬
à¦® à§Łà¦¤
à¦® à§Łà¦®
à¦® à¦ıà¦ķà¦¬
à¦² à¦ªà¦¨
à¦² à¦ĩà¦ª
à¦² à¦Ĳ
à¦² à¦Ĩà¦°à¦ĵà¦ªà§ľ
à¦ª à¦ĩà¦¸à¦²
à¦ª à¦¥à¦¬
à¦ª à¦Ĺà§ľ
à¦¦ à¦°à¦¸à¦®
à¦¦ à¦°à¦ĸ
à¦¦ à¦°à¦ĺ
à¦¦ à¦°à¦ħà¦°
à¦¦ à¦ıà¦ĩà¦®
à¦¦ à¦ªà¦¦à¦¤
à¦¯ à§Łà¦¸
à¦¯ à§Łà¦ķ
à¦¯ à¦ĩà¦Ł
à¦¯ à§Łà¦¦
à¦¯ à¦Ĩà¦¸à¦²
à¦¯ à¦ĩà¦¨à¦¸
à¦¯ à¦ħà¦¬à¦¹
à¦¯ à¦īà¦ªà¦²à¦¬
à§Ł à¦°à¦«
à§Ł à¦ĩà¦¦
à§Ł à¦Ĩà¦¸à¦¨
à§Ł à¦¨à¦ªà¦¦
à§Ł à¦ľà¦¨à¦¦
à§Ł à¦ķà¦²à¦®
à§Ł à¦ıà¦ķà¦°
à§Ł à¦ıà¦ĸà¦¨à¦ªà¦°
à¦¹ à¦Ĩà¦¸
à¦¹ à¦ĩà¦®
à¦¹ à¦¢
à¦¹ à¦¨à¦¡
à¦¹ à¦¨à¦ķà¦²
à¦Ł à¦²à¦¬
à¦Ł à¦®à¦ª
à¦Ł à¦Ĺà¦°
à¦Ł à¦ĺà¦Łà¦¨
à¦ľ à¦ªà¦¤
à¦ľ à¦ľà¦®
à¦ľ à¦²à¦°
à¦¶ à¦°à§Ł
à¦¶ à¦ħà¦ª
à¦¶ à¦Ĩà¦°à¦¤
à¦Ĺ à¦ķà¦¥
à¦Ĺ à¦Ĺà¦łà¦¨à¦ķà¦°
à¦ĩ à¦ļà¦¨
à¦ĩ à¦Ĺà¦¨
à¦ĩ à¦Ĩà¦¸à¦Ľ
à¦ĩ à¦Ĩà¦°à¦ķ
à¦ĩ à¦Ĳà¦¤
à¦ĩ à¦ıà¦¸à¦ª
à¦Ĩ à¦¤à¦¨
à¦Ĩ à¦°à¦¬à¦¨
à¦ı à¦ıà¦ķà¦Ł
à¦ı à¦īà¦¦
à¦ı à¦°à¦ıà¦ķ
à¦ı à¦ıà¦®à¦¬
à¦Ľ à¦¬à¦²
à¦· à¦ĩà¦¨
à¦· à¦Ĩà¦¶
à¦Ń à¦ī
à¦§ à¦ĵ
à¦§ à¦¨à¦¤
à¦§ à¦īà¦ª
à¦§ à¦¸à¦ª
à¦§ à¦ıà¦²
à¦§ à¦¹à§Łà¦¤
à¦¥ à¦ķà¦°à¦¤
à¦¥ à¦Ĩà§Ł
à¦ĸ à¦Łà¦¨
à¦ĸ à¦Ĩà¦®à¦°
à¦ĸ à¦¸à¦¡
à¦ĵ à¦ĩà¦Ł
à¦ĵ à¦ıà¦®à¦¨
à¦ĵ à¦¸à¦¬à¦ľ
à¦ĵ à¦ķà¦¤à¦Ĩà¦²
à¦¡ à¦²à¦¤
à¦¡ à¦ĩà¦¤
à¦¡ à¦¨à¦°
à¦¡ à¦ĵà¦¸
à¦¡ à¦²à¦ľ
à¦¡ à¦ıà¦°à¦®
à¦¡ à¦ıà¦¸à¦ıà¦¸à¦¸
à¦°à¦¸ à¦¶
à¦ī à¦¸à¦¬
à¦ī à¦¬à¦²à¦¤
à¦« à¦¨à¦¬
à¦« à¦¤à¦®
à¦« à¦ķà¦ķ
à¦« à¦°à¦®à¦ª
à¦°à¦ķ à¦Ľ
à¦°à¦ķ à¦°à¦ĩà¦īà¦¨
à¦°à¦¬ à¦Ł
à¦°à¦® à¦¦à¦¨
à¦°à¦® à¦ķà¦°à¦Ľ
à¦°à¦ª à¦°à¦ħ
à¦°à¦ª à¦°à¦¸à¦®
à¦°à¦ª à¦°à¦¬à¦²
à¦°à¦ª à¦°à¦ıà¦ĸà¦¨
à§ľ à¦ıà¦¬
à§ľ à¦ķà¦°à¦Ľ
à§ľ à¦Ĺà§ľ
à¦®à¦¨ à¦Ĩà¦Ĺ
à¦ıà¦ķ à¦®à¦¨
à¦ıà¦ķ à¦¬à¦¨
à¦ıà¦ķ à¦ķà¦²
à¦ł à¦ķà¦®
à¦ľà¦¨ à¦ĩà¦¨
à¦ľà¦¨ à¦Ĩà¦¬
à¦ľà¦¨ à¦®à¦¹
à¦ľà¦¨ à¦¹à§Łà¦¨
à¦¬à¦² à¦²à¦¬
à¦°à¦¦ à¦²à¦Ł
à¦°à¦¨ à¦¶
à¦°à¦¨ à§Łà¦¬
à¦°à¦¨ à¦¬à¦¬à¦°
à¦°à¦¨ à¦ĸà¦¬à¦°à¦¬
à¦°à¦ľ à§ľ
à¦°à¦ľ à§Łà¦¯
à¦°à¦ľ à¦¨à¦¸à¦Ń
à¦°à¦¹ à¦¹
à¦°à¦¹ à¦¨à¦¬
à¦°à¦¹ à¦¨à¦ª
à¦Ļ à¦¬
à¦°à¦Ĩ à¦°à¦¦
à¦¨à¦¬ à¦ĩà¦¤
à¦ĺ à¦ļ
à¦°à¦£ à¦ĺ
à¦°à¦£ à¦ªà¦¦
à¦°à¦£ à¦¬à¦®
à¦¨à¦¤ à¦¶
à¦¨à¦¤ à¦ĸ
à¦ªà¦¨ à¦ĵà¦ľ
à¦°à¦¶ à¦¯
à¦²à¦ķ à§Ł
à¦°à¦ı à¦Ĩà¦ªà¦¨
à¦°à¦ı à¦®à¦¬
à¦°à¦ı à¦¨à¦Ń
à¦°à¦ı à¦ĸà¦¤
à¦°à¦ı à¦ĩà¦¡
à¦°à¦ı à¦ĩà¦Ľ
à¦ĩà¦¨ à¦¶à¦ª
à¦ıà¦ĩ à¦ķà¦¬
à¦ıà¦ĩ à¦īà¦ª
à¦°à¦ľà¦¨ à¦¦
à¦¸à¦¬ à¦¸à¦®à¦¸
à¦¸à¦¬ à¦¸à¦®à§Łà¦ķ
à¦°à¦ĵ à¦¸à¦¨
à¦Ĩà¦² à¦ª
à§« à§©à§¦
à¦ķà¦® à¦ķà¦°
à¦ķà¦® à¦¹à¦¬
à¦¨à¦® à¦²
à¦¨à¦® à¦°à¦¹
à¦¨à¦® à¦ķà¦¬
à¦¨à¦® à§İà¦¸
à¦¹à¦² à¦Ł
à¦¹à¦² à¦«
à¦¹à¦² à¦«à¦¨
à¦°à¦Ń à¦®
à¦¹à¦¤ à¦ĸ
à§İ à¦¡
à§İ à¦ķà¦°à¦²
à¦°à¦ī à¦Ń
à¦īà¦¨ à¦Ĺ
à¦īà¦ª à¦¶
à¦īà¦ª à¦°à¦ª
à¦¯à¦¬ à¦ĩà§Ł
à§® à§§à§§
à¦®à¦¤ à¦¹à§Ł
à¦¯à¦ķ à¦·
à¦¯à¦ķ à¦°à¦¹à§Ł
à¦®à¦¸ à¦ħ
à¦¤à¦¨ à¦¨à¦¤
à¦¤à¦¨ à¦Ĩà¦¸
à¦¦à¦ķ à¦¥
à¦ķà¦Ł à¦¹à¦¤
à¦ķà¦Ł à¦¤à¦®à¦ª
à¦ĩà¦ķ à¦¸
à¦ıà¦¸ à¦°
à¦ıà¦¸ à¦ıà¦¸à¦ķ
à¦ıà¦¸ à¦ıà¦®à¦ªà¦°à¦¬à¦°
à¦°à¦² à¦¸à¦ķ
à¦°à¦ĩ à¦®à¦¨
à¦°à¦ĩ à¦īà¦ķ
à¦°à¦ĩ à¦ľà¦¤
à¦·à¦£ à¦ĵà¦¹à¦¤
à¦¤à¦® à¦ıà¦¬
à¦¤à¦® à¦¤à¦¬
à¦¤à¦® à¦īà¦¤
à¦ķà¦¸ à¦Ł
à¦ķà¦¸ à¦¹à¦¬
à¦²à¦¤ à¦ħà¦ªà¦°
à¦²à¦¤ à¦ĸà¦¨à¦¤
à¦¸à¦¹ à¦ıà¦ķà¦®
à¦ĩà¦® à¦¸à¦®
à¦ĩà¦¤ à¦²
à¦ĩà¦¤ à¦¦à¦¨
à¦ªà§ľ à¦¨
à¦°à¦ĸ à¦¸à¦°
à¦¸à¦¨ à¦«
à§Łà¦ķ à¦Ĺ
à¦¯à¦® à¦§
à¦®à¦¦ à¦ĩà¦īà¦¨
à¦ķà¦¨ à¦¹
à¦ķà¦¨ à¦·
à¦¨à¦Ĺ à¦¤à¦¬à¦Ľ
à¦¶à¦ķ à¦¡
à¦¶à¦ķ à¦ł
à¦®à¦ķ à¦¹
à§§à§¯ à§¨à§§
à§§à§¯ à§§à§¨
à§§à§¯ à§¨à§¨
à§§à§¯ à§©à§ª
à¦¬à¦ķ à¦«
à¦¨à¦¯ à¦¤
à¦Łà¦ķ à¦°à¦£à¦ĵà¦°
à¦ĵà¦ª à¦¬
à¦²à¦ª à¦Ľà¦¨
à¦²à¦ª à¦¥à¦®à¦¨
à¦ĩà¦ª à¦¶
à¦ĩà¦ª à¦°à¦¬à¦°
à¦ķà¦ķ à¦ł
à§Łà¦¤ à¦¯
à¦ħà¦¬ à¦Ĺà¦¤à¦ķà¦°
à¦Ĩà¦ľ à¦ļ
à¦¤à¦ª à¦Ł
à¦¤à¦¸ à¦¹à¦¯
à¦ªà¦ķ à¦¸à¦®
à¦ĸà¦¬ à¦°à¦¡
à¦Ĩà¦°à¦ĵ à¦ĸà¦¬
à¦²à¦¹ à¦¸à¦ª
à¦ĩà¦ľ à¦ķ
à¦ĩà¦ľ à¦ķà¦°à¦¤
à¦¨à¦ĵ à¦§à¦°
à¦¨à¦ĵ à¦ĩà¦ª
à¦¨à¦ĵ à¦ħà¦¸
à¦·à§Ł à¦°
à¦°à¦īà¦ª à¦°à¦īà¦ł
à¦¶à¦¬ à§ľ
à¦Ĺà¦£ à¦¯
à¦°à¦®à¦¤ à¦ļ
à¦ĩà¦¬à¦¨ à¦ķ
à¦°à¦ĺ à¦¨à¦¤
à¦ĩà¦¦ à¦¹à¦¸
à¦ĩà¦¦ à¦¹à¦¸à¦¦
à¦¬à¦¹ à¦¨à¦¥
à¦§à¦¨ à¦¹à¦ļ
à¦¨à¦ļ à¦¬
à¦¤à¦¹à§Ł à¦¶
à¦ħà¦« à¦®
à¦¬à¦¦ à¦°à¦¬
à¦Ī à¦·
à¦«à¦² à¦°
à¦ıà¦®à¦¨ à¦¶
à¦·à¦ķ à¦¯
à¦Łà¦¸ à¦ĸ
à¦ıà¦ĸà¦¨ à¦¢
à¦°à¦®à¦¨ à¦¥
à¦°à¦¹à¦£ à¦®
à¦¸à¦¦ à¦Ńà¦¬à¦¨
à¦¸à¦¦ à¦°à¦¦à¦ķ
à§§à§« à§¬à§¦
à¦¸à¦¸ à¦°à¦¬à¦°
à¦¨à¦² à¦ĸ
à¦¨à¦² à¦ŀ
à¦ĩà¦ī à¦¶
à¦ĩà¦ī à¦«
à¦Ĺà¦ł à¦¨à¦ıà¦¬
à¦°à¦¥à¦® à¦ħà¦¨
à§§à§Ń à§®à§ª
à¦¯à¦ķà¦° à¦ªà¦¦à¦ķ
à¦¨à§Ł à¦Ł
à¦ļà¦ķ à¦ļ
à¦°à¦Ĩà¦² à¦Ĩà¦®
à¦¶à¦¦ à¦²à¦ķ
à¦¶à¦¹ à¦°à¦ķ
à¦£à¦¬ à§Łà¦¸
à¦Ńà¦¬ à¦¹à¦¤
à¦Ĩà¦Łà¦ķ à¦Ń
à¦²à¦Ľ à¦¡
à¦ıà¦°à¦ª à¦°à¦°
à§¨à§® à§ª
à¦°à¦ĵà¦ª à¦°à¦Ľ
à¦°à¦ĵà¦ª à¦°à¦ıà¦ķà¦Ł
à¦¨à¦ħ à¦¯
à¦ľà§Ł à¦¯
à¦ķà¦°à¦£ à¦ıà¦ĩà¦¬
à¦¤à¦¶ à¦¹à¦°
à¦°à¦Ĩà¦® à¦²à¦¨
à¦ķà¦Ĺ à¦Ń
à¦¤à¦°à¦£ à¦ķà¦°à¦¤
à¦®à¦ļ à¦¤
à§¨à§¯ à§®à§©
à¦ıà¦« à¦ķ
à¦²à¦Ĩ à¦§
à¦²à¦Ĩ à¦īà§Ł
à¦ıà¦ĩà¦¸ à¦ķà¦²
à¦®à¦Ĩ à¦°à¦ķ
à¦¨à¦ıà¦ķ à¦ļ
à¦Łà¦¬à¦² à¦°
à¦ĸà¦® à¦Ļ
à¦ĸà¦ķ à¦ĵà¦ª
à¦Łà¦¹ à¦ĵà¦¯
à¦®à§Ł à¦Ĩà¦²
à§©à§© à§¨
à¦Ĩà¦°à¦ı à¦ľà¦¨
à¦²à¦Ĩà¦² à¦®à¦ĸ
à¦¯à¦ĸà¦¨ à¦Ĺ
à¦ķà¦ľà¦¨ à¦²
à¦īà¦¡ à¦«
à§¯à§¯ à§¦
à¦°à¦ıà¦ĩ à¦ħà¦¨
à¦¯à¦¤à¦® à¦Ĩà¦ķà¦°
à§¦à§Ń à§¦à§«
à§¨à§¦à§§à§Ń à§§à§®
à¦¸à¦¹à¦ľ à¦¹à§Ł
à¦¬à¦ľà¦¨ à¦¹
à¦·à§Łà¦ķ à¦Ĩà¦²
à§Łà¦ªà¦° à¦°
à¦°à¦¸à¦¦ à¦°à¦®
à¦¯à¦ĩ à¦ıà¦Ł
à¦¬à¦°à¦£ à¦ķà¦°à¦¤
à¦¯à§Ł à¦¹à§Ł
à§İà¦¸à¦ķ à¦ªà¦°
à¦¨à¦ĩà¦¬à¦¨ à¦¸
à§Łà¦Ĩ à¦¨à¦¸
à¦¸à¦¹à¦¬ à¦¹
à¦°à¦¥à¦®à¦¸ à¦¨
à¦ľà§Łà¦¨ à¦Ĺà¦°à¦¬
à¦°à¦¬à§ľ à¦®
à¦ĭà¦£ à¦ĸ
à§¨à§¦à§¦à§¯ à§¨à§¦à§¨à§§
à¦°à¦īà§İ à¦¸à¦ª
à§©à§¦à§¦ à§®à§¨à§¦à§¨à§§
à¦Ķà¦· à¦§à¦¨
à¦¤à¦ķà¦°à¦£ à¦ıà¦¬
à¦¤à¦¨à¦¦ à¦®à¦¨à¦Ĩà¦ĩà¦¨
à¦¸à¦ļà¦² à¦°
à§İà¦« à¦°à¦ľà§Łà¦§
à¦¨à¦Ĺà¦¤à¦ķ à§Ł
à¦¨à¦ıà¦¸à¦®à§Ł à¦īà¦ªà¦¸
à§¨à§¦à§¨à§§à§§à§¦ à§¨à§Ń
à¦ľà¦ķà¦® à¦®
à¦ľà¦²à¦® à¦Ĺ
à¦¶à¦ıà¦ĸà¦¨ à¦īà¦¨
à¦¤à¦ĸà¦¬ à¦°à¦¶
à¦Ĩà¦Łà¦ķà¦¨ à¦ĵà¦Ĺ
à¦ĩà¦ıà¦® à¦ĵà¦¡
à¦°à¦®à¦¨à¦ľ à§Łà¦ķà¦°
à§¦à§¨à§¦ à§¯à§¨à§¦à§¨à§§
à¦īà¦ħà¦ª à¦¶à¦¨à¦Ł
à¦«à¦¤à¦® à¦ľà¦²
à§İà¦«à¦°à¦ľà§Łà¦§ à¦°à¦ĸ
à¦ķ à¦ªà¦¨
à¦ķ à¦°à¦ĺ
à¦ķ à¦īà¦ķ
à¦ķ à¦Ĩà¦¸à¦²
à¦ķ à¦ĵà¦¹
à¦ķ à¦ĵà¦ħà¦¨
à¦ķ à¦Ĩà¦°à¦¸
à¦ķ à¦ĩà¦īà¦Ł
à¦¬ à¦ļà¦²
à¦¬ à¦Ĩà¦ľ
à¦¬ à¦ĸà¦¤
à¦¬ à¦®à¦§
à¦¬ à¦Ĩà¦°à¦¬
à¦¬ à¦ĩà¦¸à¦®
à¦¬ à§Łà¦ªà¦°
à¦¤ à¦ĩà¦ķ
à¦¤ à¦ĩà¦ļ
à¦¤ à¦°à¦¬à¦²
à¦¤ à¦°à¦ħà¦¬à¦¸
à¦¤ à¦Ĩà¦¯
à¦¤ à¦Ĩà¦ļ
à¦¤ à¦ıà¦ĸà¦¨à¦¨
à¦¸ à¦°à¦¨
à¦¸ à¦ıà¦ĩ
à¦¸ à¦īà¦ª
à¦¸ à¦ĩà¦¯
à¦¸ à¦ħà¦¨à¦²
à¦¸ à¦Ĩà¦ª
à¦® à¦²à¦¨
à¦® à¦®à¦¸
à¦® à¦īà¦ł
à¦® à¦ıà¦¸à¦¬
à¦® à¦ĩà¦¨à¦¸
à¦® à¦ıà¦°à¦®
à¦® à¦ħà¦Ļ
à¦® à¦Ĩà¦¸à¦¸
à¦² à¦°à¦¯
à¦² à¦¬à¦²à¦Ľ
à¦² à¦ĵà¦ĸ
à¦ª à¦¤à¦¨
à¦ª à¦ħà¦¬
à¦ª à¦ħà¦¸
à¦ª à¦Ĩà¦ļ
à¦¦ à¦ĩà¦¦
à¦¦ à¦¬à¦¹
à¦¦ à¦¹à§Łà¦¨
à¦¦ à¦°à¦ªà¦¤
à¦¦ à¦Ĩà¦°à¦¨
à¦¦ à¦Ĩà¦¨à¦¸
à¦¯ à¦¤à¦¸
à¦¯ à¦¸à¦ķà¦²à¦ķ
à§Ł à¦ĩà¦²
à§Ł à¦¹à¦ĵà§Ł
à§Ł à¦ĵà¦¶
à§Ł à¦ľà¦¨à¦ķ
à§Ł à¦ĵà¦ľ
à§Ł à¦Ĩà¦°à¦¤
à§Ł à¦Ĩà¦ĩà¦¸
à§Ł à¦°à¦ĩà¦¬à¦¨
à§Ł à¦Ĩà¦ĩà¦ª
à§Ł à¦Ĺà¦£à¦¤à¦¨
à¦¹ à¦¹à¦¯
à¦¹ à¦ķà¦ª
à¦¹ à¦Ĩà¦ķ
à¦¹ à¦¨à¦ıà¦¬
à¦Ł à¦ªà¦¨
à¦Ł à¦ķà¦¦
à¦Ł à¦ķà¦¤
à¦Ł à¦Ĩà¦®à¦°
à¦Ł à¦ĩà§Ł
à¦Ł à¦ĩà¦ľ
à¦Ł à¦ħà¦¤
à¦Ł à¦ıà¦ĸ
à¦Ł à¦Ĩà¦ªà¦¡
à¦Ł à¦ıà¦°à¦¦
à¦ľ à¦ī
à¦ľ à¦ķà¦Ł
à¦ľ à¦ľà¦ķ
à¦¶ à¦²à¦¹
à¦¶ à¦¯à¦¶
à¦¶ à¦ļà¦²à¦Ľ
à¦¶ à¦ĵà¦ªà¦°
à¦¶ à¦īà¦ªà¦ķ
à¦Ĺ à¦ħà¦¬
à¦Ĺ à¦¸à¦®à¦°
à¦ĩ à¦°à¦¯
à¦ĩ à¦ħà¦Ļ
à¦ĩ à¦Ĩà¦ĩà¦¨à¦®à¦¨
à¦Ĩ à¦°à¦ħ
à¦Ĩ à¦ĵà¦²
à¦ı à¦ı
à¦ı à¦°à¦¬à¦°
à¦ı à¦¨à¦²
à¦ı à¦ľà¦²
à¦Ľ à¦¦à¦ķ
à¦ļ à¦°à¦Ńà¦¦
à¦ķà¦° à¦¬à¦²
à¦· à¦ıà¦Ł
à¦· à¦Ĩà¦ķ
à¦Ń à¦®à¦¨à¦Ĺ
à¦§ à¦°à¦¦
à¦§ à¦Ĩà¦¬
à¦§ à¦īà¦¦
à¦§ à¦¬à¦¬
à¦§ à¦ļà¦²à¦Ľ
à¦¥ à¦¨à¦¯
à¦¥ à¦®à¦¸à¦ľ
à¦ĸ à¦¶à¦¨
à¦ĸ à¦¶à¦¹
à¦ĵ à¦¨à¦¯
à¦ĵ à¦ĺà¦°
à¦ĵ à¦ıà¦ķà¦¬
à¦ĵ à¦ĩà¦ĸ
à¦ĵ à¦ıà¦ĩà¦ķ
à¦ĵ à¦ħà¦Ļ
à¦¡ à¦¨à¦¯
à¦¡ à¦®à¦°
à¦¡ à¦Ĺà¦¤
à¦¡ à¦¸à¦¦
à¦¡ à¦²à¦²
à¦ħ à¦°à¦ķ
à¦ħ à¦¤à¦¸
à¦ħ à¦ľà¦Ĺ
à¦°à¦¸ à§ľà¦ķà¦¦
à¦ī à¦°à¦«
à¦« à¦Ĩ
à¦« à¦°à¦ª
à¦°à¦¬ à¦ĩà¦¨
à¦°à¦® à¦¨à¦¬
à¦°à¦® à¦¶à¦¬
à¦°à¦ª à¦ļ
à¦°à¦ª à¦²à¦ķ
à¦°à¦ª à¦°à¦ıà¦ķà¦¬
à§ľ à¦ĩà¦īà¦¨
à§ľ à¦¬à¦Ľà¦°
à¦°à¦¤ à¦®à¦¨
à¦°à¦¤ à¦ķà¦°à¦¬
à¦®à¦¨ à¦¸à¦®
à¦®à¦¨ à¦¹à¦¤
à¦ł à¦ķà¦¤
à¦°à¦¦ à¦¦
à¦Ĩà¦® à¦ľà¦¨à¦¤
à¦¬à¦¨ à¦Ľ
à¦¬à¦¨ à¦²à¦¤
à¦¬à¦¨ à¦ķà¦°à¦¬
à¦¬à¦¨ à¦¸à¦¦à¦¸
à¦°à¦Ĩ à¦°à¦ľ
à¦°à¦Ĩ à¦°à¦¹
à¦°à¦Ĩ à¦²à¦ķ
à¦°à¦Ĩ à¦²à¦¹
à¦°à¦Ĩ à¦ĩà¦«
à¦¹à§Ł à¦ı
à¦ĺ à¦Ľ
à¦ĺ à¦°à¦¤
à¦ĺ à¦°à¦ľ
à¦ĺ à¦°à¦ħà¦Ń
à¦°à¦£ à¦¬à¦¨
à¦°à¦ħ à¦²à¦°
à¦°à¦¶ à¦¤à¦ķà¦°
à¦²à¦ķ à¦®à¦¹
à§¨à§¦ à§«à§¦
à¦°à¦ı à¦¤à¦¦
à¦°à¦ı à¦¡à¦®
à¦¤à¦¬ à¦ª
à¦ıà¦ĩ à¦Ĩà¦¦
à¦ıà¦ĩ à¦ħà¦«
à¦°à¦ļ à¦®à¦ķ
à§© à§¨à§ª
à§© à§¨à§¬
à§© à§¨à§Ń
à¦¸à¦¬ à¦¸à¦®
à¦¸à¦¬ à¦ħà¦¨
à¦¸à¦¬ à¦Ľà¦¬
à¦°à¦ĵ à¦ĩ
à¦°à¦ĵ à¦¹à¦¤
à¦°à¦ĵ à¦ĩà¦īà¦¨
à¦Ĩà¦² à¦ĸ
à§« à§¯à§¯
à§« à§©à§Ń
à¦¶à¦¨ à¦ĸ
à¦¶à¦¨ à¦Ĩà¦²
à¦ķà¦® à¦ĸà¦°à¦ļ
à¦ķà¦® à¦¬à§Łà¦¸
à¦¨à¦® à¦¶
à¦¹à¦² à¦ıà¦ĩà¦ļà¦ıà¦¸à¦¸
à¦¹à¦¤ à¦¹à¦²
à§İ à¦īà¦¨
à¦°à¦ī à¦ĩà¦²
à¦°à¦ī à¦¸à¦ķ
à¦¯à¦¬ à¦ļ
à¦°à¦Ľ à¦ķ
à§® à§¨à§¦
à§® à§ªà§¦
à§¬ à§¨à§¨
à§Ń à§§à§Ń
à¦¨à¦¦ à§Ł
à¦¨à¦¦ à¦ĸà¦²
à§¯ à§©à§¦
à¦®à¦¸ à¦¹à¦¸
à¦¹à¦¯ à¦¦
à¦¤à¦¨ à¦²
à¦¤à¦¨ à§Łà¦ķ
à¦ĩà¦² à¦¬à¦¨
à¦¦à¦ķ à¦Ł
à¦¦à¦ķ à¦īà¦¦
à¦¦à¦ķ à¦ħà¦Ń
à¦ķà¦Ł à¦¸à¦®
à¦Ŀ à¦®
à¦°à¦² à¦¯
à¦°à¦² à¦ĺà¦Łà¦¨
à¦¤à¦® à¦Ĩà¦¨
à¦²à¦¤ à¦ĩà¦¤
à¦ļà¦¨ à¦ľ
à§Łà¦¸ à¦ľ
à§Łà¦¸ à¦¤à¦°
à¦ĩà¦¬ à¦ĩà¦Ł
à¦īà¦¦ à¦ĺ
à¦¨à¦Ĩ à¦°à¦ıà¦¸
à¦ķà¦¦ à¦®à¦¤à¦²
à¦¸à¦¨ à¦ħà¦§
à¦®à¦¦ à¦ĩà¦¬
à¦ĩà¦Ł à¦ĩà¦®
à¦ķà¦¨ à¦²
à§¨à§§ à§¨à§¦à§¨à§¦
à¦¨à¦ı à¦°à¦ªà¦°à¦¬
à¦¨à¦Ń à¦°à¦¸
à¦¬à¦ķ à¦§à¦°
à¦¦à¦¸ à¦¤
à¦ķà¦ª à¦¶
à¦ĵà¦¸ à¦¦
à¦ħà¦¬ à¦ĩà¦¨à¦Ń
à¦¯à¦¸ à¦¤à¦°
à¦ĸà¦¬ à¦°à¦ı
à¦Ĺà¦¤ à¦«
à¦¯à¦¤ à¦®à¦¨
à¦ªà¦¦ à¦¦à¦²
à¦Ĺà¦² à¦¯
à¦ıà¦² à¦ıà¦²à¦¬
à¦¨à¦ĵ à¦¬à¦¨
à¦¨à¦ĵ à¦ĩà¦¸
à¦¨à¦ĵ à¦¸à¦®à¦¯
à¦¨à¦ĵ à¦ľà¦¨à¦®à¦¤
à¦¦à¦² à¦ıà¦¬
à¦·à§Ł à¦ķà¦®
à¦°à¦īà¦ª à¦¸à¦ļ
à¦°à¦īà¦ª à¦°à¦¬à¦¸
à¦°à¦īà¦ª à¦°à¦«à¦°à¦¯
à¦°à¦®à¦¤ à¦ľ
à¦ĩà¦¦ à¦Ĩà¦¹à¦®
à¦ħà¦¸ à¦¹à¦¯
à¦²à§Ł à¦ĵà¦¬
à¦ľà¦¸ à¦Ļ
à¦ľà¦¸ à¦¦à¦°
à¦īà¦² à¦«
à¦ıà¦®à¦¨ à¦Ĺ
à¦Łà¦¸ à¦ķà¦®
à¦Ĩà¦ĩà¦¨ à¦°
à¦Ĩà¦ĩà¦¨ à¦¹à¦ļ
à¦ıà¦ĸà¦¨ à¦ĵà¦¶
à¦ıà¦ĸà¦¨ à¦ĵà¦ļ
à¦¹à¦¸ à¦ľ
à¦Łà¦ª à¦²
à¦Łà¦ª à¦£
à¦¸à¦¦ à¦°à¦Ĺ
à§§à§« à§§à§¬
à¦ĩà¦¡ à¦¦
à¦ĩà¦ī à¦ıà¦¸à¦ı
à¦¶à¦¸ à¦¹à¦¬
à¦°à¦ıà¦ķ à¦ıà¦ķà¦Ł
à¦°à¦¥à¦® à¦ħà¦Ń
à¦ĩà¦« à¦¬
à§Łà¦Ĺ à§ľ
à¦ıà¦ķà¦ľà¦¨ à¦ĸ
à¦¨à§Ł à¦ħà¦¨
à¦¨à§Ł à¦ĵà¦¬
à¦°à¦®à¦£ à¦ħà¦¨
à§©à§¦ à§«à§«à§Ń
à¦¨à¦¡ à¦¶
à¦¨à¦¡ à¦Łà¦ķà¦®
à¦°à¦Ĩà¦² à¦®à¦¸
à¦¨à¦ıà¦ĩ à¦¹
à¦°à¦¸à¦¬ à¦ªà¦°
à¦®à¦¶ à¦¹à¦°
à¦Ńà¦¬ à¦Ń
à¦¦à¦¶ à¦Ń
à¦¤à¦ľ à¦Ł
à§İà¦ª à¦¥
à¦¨à¦ħ à¦Ľ
à¦¨à§Łà¦¨ à¦ĵà¦¸à¦®à¦¬
à¦ªà¦¶ à¦¨à¦¬
à¦ķà¦°à¦£ à¦¨
à¦ķà¦°à¦£ à¦®
à¦ķà¦°à¦£ à¦¸à¦®
à¦¬à§ľ à¦°
à¦¸à¦Ł à¦²à¦ķà¦°
à¦Ĩà¦ĩ à¦ıà¦¸à¦ª
à¦¨à¦Ĩà¦² à¦®à¦ĸ
à¦Īà¦¦ à¦Ĩà¦²à¦®
à¦²à¦Ĩ à¦°à¦ıà¦®à¦ª
à¦¯à¦Ĺ à¦Ń
à§Łà¦² à¦ĩà¦¬à¦¨
à¦®à¦Ĩ à¦°à¦¤
à¦¯à¦¯ à¦ĸà¦¨
à¦°à¦«à¦² à¦ĺ
à¦ĩà¦¨à¦¸ à¦ķ
à¦ĩà¦¨à¦¸ à¦Ń
à¦¨à¦ıà¦ķ à¦¦à¦®
à¦·à¦ĸà¦¬ à¦°à¦«
à¦ķà¦ªà¦° à¦°
à¦ħà¦² à¦ĩà¦¨
à¦Ĩà¦¹ à¦¤à¦°
à¦£à¦¸ à¦¨à¦¦à¦ª
à¦īà¦¬ à¦¥
à¦Ńà¦¬à¦¨ à¦¥
à¦Ĩà¦°à¦ı à¦Ń
à¦£à¦¤ à¦¹à¦ĵà§Ł
à¦²à¦Ĩà¦² à¦®à¦Ĺ
à¦²à¦Ĩà¦² à¦®à¦¶
à¦ķà¦ľà¦¨ à¦Ĩà¦®
à¦°à¦ıà¦ĩ à¦§à¦°à¦¨
à¦īà§İ à¦ķà¦°
à§¦à§Ń à§©
à§©à§« à§¨
à¦°à¦ħà¦ª à¦°à¦ª
à¦°à¦Ĩà¦¦ à¦¬à¦ķ
à¦¹à¦¯à¦°à¦¤ à¦ĸ
à¦¹à¦¯à¦°à¦¤ à¦°à¦¹à¦ķ
à¦°à¦¸à¦¦ à¦°à¦¥
à¦¯à¦Ľ à¦¡
à§©à§ª à§Ń
à¦ĵà¦ľà¦¨ à¦®à¦¤
à¦¨à¦īà¦ª à¦Ń
à¦¦à¦ĩà¦¬à¦¨ à¦¶
à¦¬à¦ĸ à¦¶
à¦¨à¦ıà¦ĸ à¦¨à¦ķ
à¦ħà¦¸à¦¹ à¦¨
à¦®à¦ĵ à¦°à¦«
à¦¨à¦¸à¦¬ à¦¥
à¦¨à¦¸à¦¬ à¦¸à¦®à¦¯
à¦¨à¦· à¦·
à¦ļà¦°à¦® à¦ķ
à§«à§Ń à§©
à¦Ķà¦· à¦§à¦ª
à¦°à¦¬à¦Ľ à¦°à¦ª
à§¨à§¦à§§à§¦ à§§à§¯
à§Ńà§¨ à§§à§Ńà§Ń
à¦°à¦Ńà§Ł à¦Ļ
à§®à§® à§§à§¨
à§§à§§à§¦ à§©à§¦à§«à§«à§Ń
à¦ªà¦¦à¦¸ à§ľà¦ķà¦¦
à¦°à¦ıà¦ķà¦¸ à¦¦à¦¸
à¦ķà¦¬à¦Ľ à¦°à¦Ĺ
à¦°à¦¦à¦ĸà¦² à¦ķà¦°
à¦¨à¦Ĩà¦ĩà¦¨ à¦ĵà¦ľà¦¨à¦®à¦¤
à¦ļà¦®à¦ķ à¦ª
à¦ªà¦Łà¦ª à¦¸
à¦²à¦¤à¦ĸà¦¨ à¦Ĩà¦®
à¦²à§Łà¦® à¦ŀ
à¦¶à¦ªà¦¥ à¦ªà§ľ
à§«à§«à§¦ à§¨à§¯à§®à§©
à¦¶à¦¤à¦¶ à¦¤à¦®
à¦ĩà¦²à¦¸à¦¦ à¦°à¦ķ
à§®à§®à§¦à§§à§¯ à§§à§«à§¬à§¦
à§®à§®à§¦à§§à§¯ à§§à§§à§¦à§©à§¦à§«à§«à§Ń
à¦¬à¦¸à¦¦à¦°à¦¦ à¦ª
à§Ńà§¨à§§à§Ńà§Ń à§©à§«à§¯
à§«à§«à§¦à§¨à§¯à§®à§© à§¨à§©à§®
à§®à§®à§¦à§§à§¯à§§à§«à§¬à§¦ à§®à§®à§§à§¨
à§®à§®à§¦à§§à§¯à§§à§§à§¦à§©à§¦à§«à§«à§Ń à§®à§®à§¦à§§à§¯à§§à§«à§¬à§¦à§®à§®à§§à§¨
à¦¨ à¦ĩà¦¨à¦ķ
à¦¨ à¦ĩà¦īà¦ıà¦¨à¦ĵà¦®
à¦ķ à¦Ĺà¦¤
à¦ķ à¦°à¦¡
à¦ķ à¦ıà¦ķà¦¬
à¦ķ à¦°à¦ļà¦¨
à¦ķ à¦°à¦Ĩà¦¦
à¦ķ à¦Ĩà¦ķà¦°
à¦¬ à¦¦à¦ķ
à¦¬ à¦¤à¦ª
à¦¤ à¦ıà¦°à¦ª
à¦¤ à¦°à¦¸à¦°
à¦¤ à¦°à¦īà¦¤
à¦¤ à¦ľà¦¨à¦¸
à¦¤ à¦ĵà¦ªà¦°
à¦¤ à¦¨à¦ķà¦®
à¦¤ à¦ıà¦ĩà¦¦
à¦¤ à¦īà¦ªà¦°
à¦¤ à¦ħà¦¦
à¦¤ à¦¸à¦¹à¦ķ
à¦¤ à¦īà¦ªà¦¸à¦°
à¦¤ à¦¤à¦®à¦®
à¦¸ à¦īà¦¨
à¦¸ à¦²à¦¸
à¦¸ à¦¸à¦Ń
à¦¸ à¦ħà¦¤
à¦¸ à¦Ĩà¦Łà¦ķ
à¦¸ à¦ľà¦²
à¦¸ à¦ıà¦°
à¦¸ à¦Ľà§ľ
à¦¸ à¦ıà¦ĩà¦Ł
à¦® à¦·
à¦® à¦ĺà¦Łà¦¨
à¦® à¦ħà¦ķ
à¦® à¦ħà¦¬à¦¶
à¦® à¦Ľà§ľ
à¦® à¦°à¦ĩà¦®
à¦® à¦Ĩà¦²à¦¹
à¦² à¦°à¦¶
à¦² à¦°à¦²
à¦² à¦°à¦¹à¦®
à¦² à¦²à¦°
à¦² à¦¬à¦²à¦¤
à¦² à¦ĵà¦ļ
à¦² à¦ıà¦°à¦®
à¦² à¦ıà¦ĩà¦¦
à¦² à¦ĩà¦īà¦¸
à¦² à¦ıà¦¸à¦ıà¦®à¦¶à¦«
à¦ª à¦Ĩà¦¬
à¦ª à¦°à¦Ł
à¦ª à¦Ĩà¦®à¦°
à¦ª à¦ªà¦¦
à¦ª à¦ľà¦²
à¦ª à¦Ĩà¦ľà¦ķ
à¦ª à¦ħà¦²
à¦¦ à¦°à¦Ł
à¦¦ à¦®à¦²
à¦¦ à¦Ĩà¦Ĺà¦¸
à¦¦ à¦°à¦Ļ
à¦¦ à¦īà¦ªà¦Ń
à¦¦ à¦Ĩà¦¹à¦¸
à¦¯ à¦ªà¦¨
à¦¯ à¦ļà¦²
à¦¯ à¦¶à¦¹
à¦¯ à¦ıà¦ķà¦¬
à¦¯ à¦ĩà¦ĸ
à¦¯ à§Łà¦ħà¦¨
à¦¯ à¦Ĩà¦ĩà¦Ł
à§Ł à¦°à¦Ń
à§Ł à¦ĵà¦°
à§Ł à¦īà¦ªà¦ķ
à§Ł à¦ľà¦¨à¦¤
à§Ł à¦Ĩà¦ĩà¦¨à¦¶
à§Ł à¦ıà§ľ
à¦¹ à¦ĵ
à¦¹ à¦°à¦«
à¦¹ à¦ķà¦¶
à¦¹ à¦ħà¦¬à¦¶
à¦Ł à¦²à¦Ł
à¦Ł à¦ĩà¦¨à¦¸
à¦ľ à¦°à¦ª
à¦ľ à¦ŀ
à¦ľ à¦²à¦¤
à¦ľ à¦Ĩà¦®à¦°
à¦ľ à¦¬à¦ª
à¦ľ à¦ıà¦°à¦¨
à¦¶ à¦¦à¦°
à¦¶ à¦ĩà¦īà¦¨
à¦¶ à¦ļà¦²à¦ļ
à¦¶ à¦¨à¦¸à¦Ń
à¦¶ à¦¬à¦Ľà¦°à¦Ĩà¦Ĺ
à¦Ĺ à¦īà¦¨
à¦Ĺ à¦Ĩà¦¬
à¦Ĺ à¦°à¦¥
à¦Ĺ à¦ħà¦°
à¦Ĺ à¦ļà¦²à¦Ľ
à¦Ĺ à¦Ĩà¦ķà¦°
à¦Ĺ à¦ĵà¦Ľ
à¦ĩ à¦Ĩà¦°à¦ĵ
à¦ĩ à¦ĵà¦¤
à¦ĩ à¦ĩà¦¹
à¦ĩ à¦ıà¦ĩà¦¦
à¦ĩ à¦Ĩà¦ĩà¦¸
à¦ĩ à¦§à¦°à¦£
à¦ĩ à¦ıà¦ĸà¦¨à¦¸
à¦ĩ à¦ıà¦ĸà¦¨à¦¬
à¦Ĩ à¦¨à¦ķ
à¦Ĩ à¦°à¦ł
à¦ı à¦°à¦¸à¦Ń
à¦ı à¦Ńà¦°
à¦ı à¦ĩà¦¨à¦®
à¦ı à¦ĸà¦¬à¦°à¦ľ
à¦ļ à¦ı
à¦ļ à¦ĩà¦¨à¦¸
à¦ķà¦° à¦¬à¦¸
à¦· à¦¨à¦¨
à¦· à¦¨à¦ļ
à¦· à¦¸à¦¤
à¦· à¦Ńà¦°
à¦· à¦§à¦°à¦¨
à¦· à¦ļà¦²à¦Ľ
à¦· à¦°à¦ļà¦¨
à¦· à¦Ĩà¦°à¦ĵà¦ªà§ľ
à¦· à¦Ĩà¦ķà¦°
à¦· à¦ıà¦ľà¦¨
à¦Ń à¦£
à¦Ń à¦°à¦¨
à¦Ń à¦§à¦°
à¦§ à¦ł
à¦§ à¦ķà¦¨
à¦§ à¦ļà¦ķ
à¦¥ à¦¶à¦°
à¦ĸ à¦¸à¦¹
à¦ĸ à¦²à¦¸
à¦ĸ à¦²à¦¦
à¦ĸ à¦²à¦Ń
à¦ĸ à¦ķà¦Ľ
à¦ĵ à¦ħà¦ķ
à¦ĵ à¦¹à¦ľ
à¦ĵ à¦īà¦ĩà¦ķ
à¦ĵ à¦Ĩà¦«à¦Ĺ
à¦ĵ à¦Ĩà¦ĩà¦ª
à¦ĵ à¦ķà¦®à¦¬
à¦¡ à¦ĩà¦¸à¦²
à¦¡ à¦²à¦¶
à¦ħ à¦§à¦°
à¦ħ à¦²à¦¸
à¦ħ à¦ªà¦ķ
à¦ħ à¦¸à¦®à¦°
à¦ħ à¦Ĺà¦£à¦¤
à¦ħ à¦¨à¦¬à¦¦
à¦°à¦¸ à¦¤à¦¤
à¦ī à¦ķà¦°à¦¤
à¦ī à¦ĩà¦¤
à¦ī à¦ķà¦¨
à¦« à¦ħà¦¨
à¦« à¦°à¦¶
à¦« à¦ķà¦°à¦¤
à¦« à¦¨à¦ªà¦°
à¦« à¦°à¦Ĩà¦¹à¦®
à¦°à¦ķ à¦¦à¦®
à¦°à¦ķ à¦®à¦¶
à¦°à¦ķ à¦¬à¦ľ
à¦°à¦¬ à¦¦à¦°
à¦°à¦® à¦Ĩà¦ĩà¦¨
à¦£ à¦ħà¦§
à¦£ à¦ħà¦ķ
à§ľ à¦¸à¦®
à§ľ à¦¬à¦Ľ
à¦°à¦¤ à¦ħà¦¨
à§ĥ à§į
à¦ł à¦ħà¦¨
à¦ł à¦ķà¦¨
à¦ł à¦ľà§Łà¦¨
à¦ľà¦¨ à¦¤à¦¬
à¦ľà¦¨ à¦Ĩà¦¨
à¦ľà¦¨ à¦ķà¦ķ
à¦ľà¦¨ à¦¬à¦¹
à¦°à¦¨ à¦¹
à¦°à¦¨ à¦§à¦°à¦¨
à¦°à¦ľ à¦¸
à¦°à¦¹ à¦ıà¦¬
à¦°à¦¹ à¦²à¦¨
à¦¬à¦¨ à¦Ĩà¦®
à¦Ļ à¦Ĺ
à¦¹à§Ł à¦Ĩà¦¸
à¦¹à§Ł à¦ĩà¦¤
à¦¹à§Ł à¦īà¦²
à¦ĺ à¦¨à¦¤
à¦°à¦£ à¦¸à¦°à¦ķ
à¦¨à¦¸ à¦¹à¦¦
à¦°à¦ħ à¦¬à¦²à¦®
à¦²à¦ķ à¦ħ
à¦²à¦ķ à¦ķà¦°à¦Ľ
à§¨à§¦ à§®
à¦°à¦ı à¦°à¦īà¦¦
à¦°à¦ı à¦²à¦¡
à¦°à¦ı à¦ķà¦¸à¦Ń
à¦°à¦ı à¦ĸà¦¨à¦¤
à¦ĩà¦¨ à¦«à¦°
à¦ıà¦ĩ à¦§à¦°
à§© à§§à§«
à§© à§¨à§¨
à¦°à¦ĵ à¦ĺ
à¦°à¦ĵ à¦ħà¦Ĺ
à¦Ĩà¦² à¦®à¦ĸ
à§ª à§¨à§¦
à§ª à§¨à§¨
à¦ĩà¦¸ à¦¹à¦¯
à¦°à¦Ĺ à¦¹
à§« à§ªà§¦
à§« à§¯à§®
à¦¶à¦¨ à¦°à¦¸
à¦¶à¦¨ à¦ĩà¦¨
à¦¶à¦¨ à¦ĩà¦²
à¦¶à¦¨ à¦Ĩà¦°
à¦ķà¦® à¦Ł
à¦ķà¦® à¦ĸ
à¦¨à¦® à¦¹à¦®
à¦ķà¦¬ à¦ĩ
à§İ à¦Ł
à¦²à¦¨ à¦īà¦ªà¦²à¦ķ
à¦ķà¦² à¦¨à¦ª
à¦¯à¦¬ à¦¶
à§® à§¨à§¦à§§à§¯
à§¬ à§©à§§
à§Ń à§©à§¦
à¦¨à¦¦ à¦²à¦¸
à¦®à¦¤ à¦Ĩà¦®
à¦®à¦¤ à¦Ĩà¦ľà¦¬
à¦¯à¦ķ à¦°à¦ĸ
à¦®à¦¸ à¦¦
à¦°à¦¥ à¦²
à¦¤à¦¨ à¦ķà¦°à¦¬
à¦ĩà¦² à¦§
à¦ĩà¦² à¦ĩà¦¨
à¦ĩà¦² à¦Ĩà¦°
à¦¦à¦ķ à¦Ĩà¦¨
à¦¦à¦ķ à¦ıà¦®
à¦Ŀ à¦²à¦ķ
à¦ıà¦¸ à¦¤
à¦ıà¦¸ à¦Ĩà¦ĩà¦°
à¦¦à¦¨ à¦ĵà¦Ĺ
à¦¦à¦¨ à¦ļà¦²à¦¤
à¦°à¦ĩ à¦®à¦¤
à¦°à¦ĩ à¦¨à¦¬à¦ķ
à¦·à¦£ à¦Ĩà¦Ĺ
à¦ķà¦¸ à¦¸à¦«à¦Łà¦ĵà§Ł
à¦¤à¦ķ à¦ľ
à¦²à¦¤ à¦ħà¦°
à¦²à¦¤ à¦ĵà¦Ĩà¦®à¦²
à¦ļà¦¨ à¦¥
à¦ļà¦¨ à¦ħà¦¬
à¦¸à¦¹ à¦¸à¦¬
à¦¨à¦Ĩ à¦ķà¦¨
à¦ĩà¦¤ à¦¸
à¦ªà§ľ à¦ļ
à¦ķà¦¦ à¦®à¦¥
à¦¸à¦¨ à¦ıà¦ķ
à¦¯à¦¦ à¦¯
à¦ķà¦¤ à§İà¦ªà¦°à¦¤
à¦¨à¦ľ à§Łà¦¨
à¦®à¦¦ à¦Ĺ
à¦ĩà¦Ł à¦ħà¦«
à¦°à¦Ł à§Łà¦²
à¦¨à¦ı à¦°à¦īà¦¤
à¦¦à¦° à§Ł
à¦®à¦ķ à¦ªà¦°
à§§à§¯ à§¨à§®
à¦¸à¦ª à¦Ľà¦¨
à¦¬à¦ª à¦°à¦¬à¦°
à¦ĵà¦¸ à¦Ń
à§Łà¦¦ à¦Ĩà¦®
à¦ķà¦ķ à§Ł
à§§à§¦ à§§à§Ń
à¦¤à¦¸ à¦¤à¦°
à¦Ĺà¦¤ à¦īà¦¦
à¦Ĺà¦¤ à¦¦à¦²
à¦²à¦¹ à¦ķà¦Ĩ
à¦īà¦ľ à¦ļ
à¦¸à¦®à§Ł à¦¡
à¦·à§Ł à¦ľ
à¦ķà¦°à¦² à¦¯
à¦Ĺà¦£ à¦Ĩà¦¨
à¦°à¦®à¦¤ à¦ħà¦¨
à¦¬à¦¹ à¦ķ
à¦¬à¦¹ à¦Ń
à¦§à¦¨ à¦¡
à¦§à¦¨ à¦¹à¦¬
à¦ĵà¦® à¦¡
à¦²à§Ł à¦Ľ
à¦²à§Ł à¦ļà¦Ł
à¦²à§Ł à¦Ńà¦°
à¦¸à¦Ń à¦°
à¦¬à¦¦ à¦°à¦ķ
à¦Ī à¦Ľ
à¦Ī à¦®à¦ķ
à¦ıà¦®à¦¨ à¦¹
à¦ıà¦®à¦¨ à¦ħà¦Ń
à¦Łà¦¸ à¦ķà¦°
à¦Łà¦¸ à¦¦à¦°à¦īà¦ªà¦ľ
à¦ľà¦¬ à¦ķà¦°
à¦¸à¦¦ à¦°à¦ľ
à¦ĩà¦¡ à¦«
à¦ĩà¦ī à¦¹
à¦°à¦ıà¦ķ à¦¸à¦®
à¦°à¦¥à¦® à¦ĩà¦Ń
à§Łà¦Ĺ à¦¤à¦¬à¦Ľà¦°
à§¨à§¦à§¦ à§®à§¦
à¦°à¦®à¦£ à¦¸à¦®
à¦Ĺà¦® à¦¯
à¦¨à¦« à¦°à¦®
à¦¶à¦¹ à¦°à¦ľ
à¦°à¦¸à¦¬ à¦ĸà¦¬
à¦Ńà¦¬ à¦¤à¦ª
à¦Ńà¦¬ à¦¤à¦¸
à¦Ńà¦¬ à¦ķà¦°à¦²
à¦¶à¦Ĺ à¦¤à¦ķ
à¦ıà¦°à¦ª à¦°à¦ĵ
à¦ıà¦°à¦ª à¦°à¦Ĩà¦®
à§¨à§® à§§
à§¨à§® à§¯
à¦ªà¦Ł à¦Ń
à¦Ĩà¦« à¦¨
à¦¬à§ľ à¦ıà¦ķà¦Ł
à¦¬à§ľ à¦¸à§ľ
à¦¸à¦Ł à¦¡
à¦Ĩà¦°à¦¬ à¦¯
à§Łà¦ľ à¦Ļ
à§¨à§© à§¬
à¦¡à¦¸ à¦«
à§¨à§Ń à§®
à¦¸à¦« à¦°à¦ķà¦°
à¦ıà¦« à¦Ń
à¦¹à¦¨ à¦ķà¦°à¦¤
à¦Īà¦¦ à¦¯
à§ªà§¦ à§§
à¦¡à¦ª à§Ł
à¦¨à¦ıà¦ķ à¦¸à¦®à§Ł
à¦¯à¦¹ à¦ĩà¦¬
à¦¶à¦² à¦ıà¦¬
à¦°à¦¸à¦®à§Ł à¦ªà¦°
à¦°à¦ĸà¦¬ à¦°à¦¹
à¦°à¦ĸà¦¬ à¦°à¦ļ
à¦°à¦ªà¦¥ à¦ĸ
à¦Łà¦¬à¦² à¦¨
à¦Łà¦¬à¦² à¦ķà¦®
à¦¯à¦Ł à¦¨à¦¦
à¦Ĩà¦¹à¦¤ à¦¶
à¦¤à¦ĸà¦¨ à¦ħà¦¨
à¦ıà¦°à¦ķ à¦®à¦®
à¦°à¦Ĩà§Ł à¦¤à¦¨
à¦§à¦ª à¦°à¦¬à¦°
à¦¸à¦¹à¦ľ à¦Ľ
à¦¸à¦¹à¦ľ à¦ıà¦¬
à¦¨à¦¹à§Ł à¦¯
à¦·à§Łà¦ķ à¦ľ
à¦°à¦¸à¦¦ à¦°à¦ľ
à¦°à¦¸à¦ķà¦² à¦¸à¦¦à¦¸
à¦ıà¦ĩà¦¨ à¦¦
à¦ħà¦¥ à¦ļà¦¦
à§«à§« à§®
à§Łà¦¸à¦® à§Łà¦¬
à¦ĩà¦²à¦¸ à¦¨à¦¸
à§¯à§¦ à§§
à§İà¦¸à¦ķ à¦¡
à¦īà§İà¦¸à¦¬ à¦¶
à¦°à¦ªà¦°à¦® à¦¸à¦ľ
à§¦à§§ à§¨à§¦à§¨à§§
à¦Ŀà§ľ à¦¦
à¦ľà¦¨à¦Ĺ à¦°à¦¬
à¦ĸà¦°à¦ļ à¦¬
à¦ĸà¦°à¦ļ à¦¹à¦¬
à§«à§® à§®
à¦¨à¦ĵà¦® à¦°à¦«
à¦°à¦īà§İ à¦¸à¦¬à¦¬
à¦²à¦§ à¦¨à¦¸
à¦¨à¦ħà¦¬à¦¸ à¦°
à¦¡à¦Łà¦ķà¦® à¦¢
à¦Ĩà¦īà¦Ł à¦²
à¦ĩà¦¦à¦¹ à¦ĸ
à¦ĩà¦ıà¦¸ à¦Ń
à¦ĵà¦ĩà¦¬ à¦Ľà¦°
à¦£à¦ļ à¦°à¦¸
à¦¨à¦ıà¦ķà¦ľà¦¨ à¦¨
à¦¨à¦ıà¦ķà¦ľà¦¨ à¦¸
à¦¨à¦ıà¦ķà¦ľà¦¨ à¦ª
à¦Ĺà¦²à¦® à¦¹à¦²
à¦ıà¦ĩà¦¸à¦®à§Ł à¦Ł
à¦°à¦Ĺà¦ł à¦¨à¦¤à¦¨
à¦²à¦¹à¦ķà¦® à¦£
à¦¡à¦ı à¦¨à¦¬
à¦¯à¦¸à¦ķà¦² à¦²
à¦§à¦¨à¦¨ à¦ĵà¦Ĺ
à¦ıà¦¤à¦¬ à§ľ
à¦°à¦ĵà¦¶à¦¨ à¦ľ
à¦ĺà¦°à¦¬ à¦Łà¦Ĺ
à¦ıà¦¸à¦ĩ à¦ĵà¦¸
à¦¯à¦ı à¦°à¦¸à¦°
à¦ķà¦ħà¦ħ à¦ħ
à¦ķà¦ĸà¦¬ à¦°à¦¸à¦ł
à¦°à¦Ĩà¦¨à¦ĵ à¦Ľà¦¹
à¦Łà¦ªà¦¤ à¦Ļ
à¦¶à¦ĵà¦ķà¦¤ à¦ĵà¦¸à¦®
à§¦à§Ńà§¦à§« à§¨à§¦à§§à§©
à¦®à¦¤à¦Ĩà¦ľà¦¬ à¦ĸà¦¬à¦°à¦¸
à¦¨ à¦ĩà¦Ľ
à¦¨ à¦Īà¦®
à¦¨ à¦ıà¦¸à¦ª
à¦¨ à¦īà¦łà¦¤
à¦ķ à¦°à¦Ĩà¦®
à¦ķ à¦ĵà¦ļ
à¦ķ à¦ıà¦°
à¦ķ à¦ıà¦ľ
à¦ķ à¦Ĳà¦ķ
à¦¬ à¦°à¦Ĩà¦®
à¦¬ à¦Łà¦Ł
à¦¬ à¦°à¦Ĩà¦¦
à¦¬ à¦ªà§ľà¦¬
à¦¤ à¦ıà¦ĸà¦¨
à¦¤ à¦°à¦¨à¦¤
à¦¤ à¦Ĩà¦°à¦ı
à¦¤ à¦¸à¦®à¦°
à¦¤ à¦ıà¦ĩà¦°
à¦¸ à¦ĩà¦²
à¦¸ à¦¯à¦¦
à¦¸ à¦ĵà¦¶
à¦¸ à¦īà¦ªà¦¨
à¦¸ à¦Ĩà¦°à¦ļ
à¦® à¦®à¦ķ
à¦® à¦Ĺà¦²
à¦® à¦¹à§Łà¦¨
à¦® à¦ĵà¦¹
à¦® à¦Ĺà¦¤à¦Ń
à¦² à¦ĵà¦²
à¦² à¦ıà¦®à¦ª
à¦² à¦ıà¦°à¦¸
à¦² à¦ħà¦¥à¦¬
à¦² à¦ľà¦¨à¦Ĺ
à¦² à¦Ĩà¦¸à¦°
à¦ª à¦īà¦ª
à¦ª à¦¹à¦ļ
à¦ª à¦¸à¦®à¦Ĺ
à¦¦ à¦¬à¦¸
à¦¦ à¦īà¦¨
à¦¦ à¦Ŀ
à¦¦ à¦¬à¦ķ
à¦¦ à¦ħà¦¬
à¦¦ à¦ıà¦®
à¦¦ à¦¡à¦¸
à¦¦ à¦īà§İà¦¸à¦¬
à¦¦ à¦īà¦¸à¦¸
à¦¯ à¦¤à¦ķà¦°
à¦¯ à¦Ĩà¦¬à¦¦
à¦¯ à¦Ĺà§ľ
à¦¯ à¦ıà¦ĩà¦ķ
à¦¯ à§İà¦¬
à¦¯ à¦Ĺà¦£à¦¤
à¦¯ à¦Ĺà¦¤à¦Ń
à¦¯ à¦Īà¦«à¦¹
à§Ł à¦°à¦ı
à§Ł à¦ħà¦®
à§Ł à¦Ľà§ľ
à§Ł à¦ıà¦ĩà¦®
à§Ł à¦°à¦¹à¦²
à§Ł à¦°à¦Īà¦¶
à§Ł à¦ħà¦¬à¦¤
à¦¹ à¦°à¦ļ
à¦¹ à¦īà¦ķ
à¦Ł à¦°à¦ıà¦¬
à¦Ł à¦°à¦ķà¦®
à¦Ł à¦ıà¦Ľ
à¦Ł à¦Ńà¦¬à¦¨
à¦Ł à¦Ĩà¦°à¦¸
à¦Ł à¦¸à¦¹à¦Ĩà¦Łà¦ķ
à¦ľ à¦¤à¦ķà¦°
à¦ľ à¦¦à¦²
à¦¶ à¦ĩà¦¬
à¦¶ à¦¶à¦ķ
à¦¶ à¦¸à¦Ń
à¦¶ à¦Ĩà¦ĩà¦¨
à¦¶ à¦ıà¦¤
à¦¶ à¦²à¦ķà¦°
à¦¶ à¦¸à¦¹à¦¨
à¦¶ à¦Ĩà¦ĩà§Ł
à¦Ĺ à§Ł
à¦Ĺ à¦ľà¦°
à¦Ĺ à¦ľà¦²
à¦Ĺ à¦ħà¦¬à¦¶
à¦Ĺ à¦°à¦®à¦¹
à¦Ĺ à¦ĩà¦¨à¦¸
à¦Ĺ à¦¸à¦¹à¦ķ
à¦ĩ à¦°à¦¨
à¦ĩ à¦°à¦°
à¦ĩ à¦¤à¦¨
à¦ĩ à¦¤à¦®
à¦ĩ à¦²à¦ķà¦®
à¦ĩ à¦Ĩà¦¤à¦Ļ
à¦ĩ à¦Ĩà¦¬à¦¹
à¦ĩ à¦ªà§ľà¦¬
à¦Ĩ à¦£
à¦Ĩ à¦ĩà¦īà¦¨
à¦ı à¦¨à¦®
à¦ı à¦ıà¦«
à¦Ľ à¦¦à¦²
à¦ļ à¦ħ
à¦ļ à¦ķà¦¤
à¦ļ à¦¨à¦ķà¦°à¦Ľ
à¦ķà¦° à¦¬à¦°
à¦· à¦ĵà¦¯
à¦· à¦¦à¦²
à¦· à¦ħà¦¬à¦¦
à¦Ń à¦¶à¦¨
à¦§ à¦°à¦®
à¦§ à¦¹à¦ĵà¦¯
à¦§ à¦ħà¦ªà¦¸
à¦§ à¦¨à¦¨à¦®
à¦¥ à¦Ĩà¦²à¦ķ
à¦¥ à¦ķà¦®à¦¸à¦ľ
à¦ĸ à¦²à¦ķ
à¦ĸ à¦ķà¦°à¦²
à¦ĵ à¦°à¦Ń
à¦ĵ à¦¨à¦¦
à¦ĵ à¦®à¦¸
à¦ĵ à¦īà¦ł
à¦ĵ à¦°à¦īà¦¦
à¦ĵ à¦ĩà¦ķà¦°
à¦ĵ à¦ľà¦¨à¦¨
à¦ĵ à¦ıà¦ĩà¦¦
à¦ĵ à¦ıà¦ĩà¦Ń
à¦ĵ à¦ķà¦²à¦®
à¦¡ à¦Ŀ
à¦¡ à¦§à¦°
à¦¡ à¦ıà¦Ł
à¦¡ à¦²à¦Ĺ
à¦ħ à¦¹à¦°à¦¹
à¦°à¦¸ à§İà¦ķ
à¦ī à¦°à¦¸
à¦ī à¦ķà¦®
à¦ī à¦Ĩà¦ªà¦¨
à¦ī à¦Ĩà¦¸
à¦ī à¦ıà¦¸
à¦ī à¦¸à¦¨
à¦ī à¦ıà¦²
à¦ī à¦¥à¦¬
à¦« à§ľ
à¦« à¦ıà¦¬
à¦« à¦¨à¦¸
à¦« à¦ķà¦®
à¦°à¦¬ à¦Ĺà¦²
à¦°à¦® à¦®à¦¨
à¦°à¦® à¦¨à¦Ł
à¦°à¦ª à¦°à¦®à¦¨
à¦°à¦ª à¦°à¦¨à¦¤
à¦°à¦ª à¦°à¦Ĩà¦¸
à¦°à¦ª à¦°à¦ĩà¦¸
à¦£ à¦ħà¦¤
à¦£ à¦ļà¦ķ
à¦£ à¦ľà¦¯
à¦£ à¦²à§ľ
à§ľ à¦¤à¦²
à§ľ à¦ķà¦Ĺ
à¦°à¦¤ à¦ĺ
à¦°à¦¤ à¦ĵà¦¯
à¦®à¦¨ à¦ħ
à¦ıà¦ķ à¦¨à¦®
à¦ıà¦ķ à¦ĩà¦°
à¦ıà¦ķ à¦Ĳà¦¤
à¦ľà¦¨ à¦Ĩ
à¦ľà¦¨ à¦ħà¦«
à¦¬à¦² à¦²à¦ķ
à¦¬à¦² à¦²à¦¨
à¦Ĩà¦® à¦ķ
à¦°à¦¨ à¦ķà¦²
à¦°à¦ľ à¦¡
à¦°à¦ľ à§Łà¦ķ
à¦°à¦¹ à¦¬à¦²
à¦°à¦¹ à¦°à¦£
à¦¬à¦¨ à¦§à¦°
à¦¬à¦¨ à¦ħà¦¤
à¦Ļ à¦ķ
à¦°à¦Ĩ à§Łà¦¨
à¦°à¦Ĩ à¦¨à¦²
à¦°à¦Ĩ à¦«à¦¸
à¦°à¦Ĩ à¦ĩà¦¨à¦ķ
à¦¹à§Ł à¦ıà¦ľà¦¨
à¦¨à¦¬ à¦¸à¦¨
à¦ĺ à¦°à¦¶
à¦°à¦£ à¦¤à¦¤
à¦°à¦£ à¦Ĩà¦«à¦Ĺ
à¦ŀ à¦®
à¦ŀ à¦ıà¦¬
à¦¨à¦¤ à¦ªà¦°
à¦¨à¦¸ à¦¹à¦¤
à¦¨à¦¸ à¦¬à¦¬
à¦¨à¦¸ à¦¬à¦¦
à¦°à¦¶ à¦¤à¦¶
à¦²à¦ķ à¦Ĩà¦Łà¦ķà¦¸
à§¨à§¦ à§¯
à¦¨à¦ķ à¦¤à¦Ł
à¦¨à¦ķ à¦Ĩà¦īà¦Ł
à¦ıà¦ĩ à¦¤à¦°
à¦ıà¦ĩ à¦¦à¦²
à¦ıà¦ĩ à¦®à¦¡
à¦°à¦ļ à¦°à¦¬
à¦°à¦ļ à¦°à¦¤
à¦¸à¦¬ à¦§
à¦ĩà¦¸ à¦¤à¦°
à¦¶à¦¨ à¦ħà¦°
à¦¶à¦¨ à¦Ĺà¦łà¦¨à¦ķà¦°
à¦¨à¦® à¦¤à¦ª
à¦¹à¦² à¦¥
à¦¹à¦² à¦ħà¦¨
à¦¹à¦² à¦ıà¦¬
à§İ à¦ķà¦°à¦¤
à§İ à¦ħà¦¤
à§Łà¦¨ à¦ĵà¦Ĺ
à¦Ĩà¦ªà¦¨ à¦ľà¦¨à¦¡
à¦īà¦ª à¦Ĺ
à¦īà¦ª à¦¶à¦®
à§¬ à§§à§Ń
à¦°à¦¯ à¦®
à§Ń à§¨à§¦à§§à§ª
à¦¨à¦¦ à¦°à¦ľ
à¦®à¦¤ à¦¹à¦²
à¦®à¦¤ à§İà¦ªà¦°à¦¤
à¦¯à¦ķ à¦°à¦ıà¦¬
à¦®à¦¸ à¦¶
à¦®à¦¸ à¦°à¦¬à¦°
à¦®à¦¸ à¦¹à¦ķ
à¦ĩà¦² à¦¸à¦²
à¦¦à¦ķ à¦ı
à¦ļà¦² à¦ıà¦¬
à¦Ŀ à¦°à¦²
à¦Ŀ à¦²à¦®à¦²
à¦ıà¦¸ à¦°à¦ķ
à¦¦à¦¨ à¦¨à¦¤
à¦°à¦ĩ à¦ķà¦®
à¦¤à¦® à¦ļà¦ķ
à¦ķà¦¸ à¦ķà¦²
à¦ĸà¦¨ à¦¶
à¦¤à¦ķ à¦Ĺ
à¦¤à¦ķ à¦Ľ
à¦²à¦¤ à¦Ĩà¦®
à¦°à¦« à¦²à¦¸
à¦¸à¦¹ à¦ħà¦°
à¦¸à¦¹ à¦Ĩà¦°à¦ĵ
à¦¨à¦Ĩ à¦ĩà¦¨à¦ª
à¦ªà§ľ à¦®
à§Łà¦ķ à§ľ
à¦¯à¦¨ à¦Ń
à¦¯à¦® à¦¥
à¦¯à¦® à¦ĵà¦¸
à¦¨à¦ľ à¦Ĺ
à¦®à¦¦ à¦Ń
à¦®à¦¦ à¦«à¦ľà¦²
à¦®à¦¦ à¦Ńà¦Ĺà¦¬
à¦ĩà¦Ł à¦¸à¦¨
à¦°à¦Ł à¦ª
à¦¨à¦Ĺ à¦ł
à¦¨à¦Ĺ à¦¤à¦¬à¦Ľà¦°
à¦ĵà¦¬ à¦Ł
à§Łà¦¬ à¦®
à¦®à¦ķ à¦ĸ
à¦®à¦ķ à¦²à¦ķà¦¡
à¦¸à¦ķ à¦¶
à§§à§¯ à§¨à§©
à§§à§¯ à§ªà§§
à¦¸à¦ª à¦¶
à¦¦à¦¸ à¦ĩà¦Ĺ
à¦ķà¦ª à¦°à¦¬à¦°
à¦°à§Ł à¦¶
à¦¬à¦ª à¦Ł
à¦ĵà¦¸ à¦¹à¦¬
à¦ĵà¦ª à¦²
à§Łà¦ª à¦¦à¦¤
à¦¤à¦¸ à¦°à¦ŀ
à¦ªà¦ķ à¦¯
à¦ªà¦ķ à¦īà¦ªà¦¸
à§Łà¦® à¦¶
à§Łà¦® à¦®à¦¤
à¦ľà¦¶ à¦¬
à¦ĸà¦¬ à¦°à¦ĸ
à¦Ĺà¦¤ à¦²
à¦Ĺà¦¤ à¦°à¦¬
à¦¯à¦¤ à¦ĩà¦ļ
à¦ªà¦¦ à¦Ĩà¦¶
à¦ªà¦¦ à¦¬à¦£
à¦ıà¦² à¦ı
à¦¨à¦ĵ à¦§
à¦¨à¦ĵ à¦ĩà¦¸à¦²
à¦ķà¦¥ à¦ķà¦¤
à¦°à¦īà¦ª à¦°à¦¬à¦°
à¦ľà¦® à¦ľ
à¦¶à¦¬ à¦¹
à¦ĩà¦Ń à¦¯
à¦ĩà¦¬à¦¨ à¦īà¦¬
à¦°à¦ĺ à¦°à¦ªà¦°
à¦¸à¦² à¦ľ
à¦§à¦¨ à¦ªà¦°
à¦²à§Ł à¦²
à¦°à¦Ĩà¦Ĺ à¦®
à¦ħà¦§ à¦¸
à¦ľà¦¸ à¦Ń
à¦¤à¦¹à§Ł à¦ıà¦ĸ
à¦·à¦ķ à¦®à¦¨
à¦²à¦Ĺ à¦¡
à¦Łà¦¸ à¦ĵà§Ł
à¦Łà¦¸ à¦¦à¦°à¦¹
à¦Łà¦¸ à¦¦à¦°à¦®
à¦Ĩà¦ĩà¦¨ à¦Ĩà¦¨
à¦Ĺà¦¨ à§ľ
à¦ıà¦ĸà¦¨ à¦ĵà¦¨
à¦¤à¦¤ à¦ĸà¦¨
à¦¦à¦ª à¦ª
à¦ıà¦® à¦Ĩ
à¦¸à¦¦ à¦°à¦«
à¦¸à¦¦ à¦°à¦Ĩà¦¦à¦®à¦¦
à¦ĩà¦¡ à¦°
à¦ĩà¦¡ à¦Ł
à¦ĩà¦¡ à¦ĵà§Ł
à¦°à¦ıà¦ķ à¦ħà¦¨
à¦°à¦ıà¦ķ à¦ĩà¦¸
à¦°à¦ıà¦ķ à¦ĩà¦¸à¦®à§Ł
à§§à§ª à§§à§ª
à¦Ĺà¦ł à¦¨à¦ľ
à¦Ĺà¦ł à¦¨à¦¤à¦¨
à§§à§Ń à§¦à§¦
à§§à§Ń à§§à§®
à¦¯à¦ķà¦° à¦¦
à¦Łà¦® à¦¹à¦²à¦¬
à¦ıà¦ķà¦ľà¦¨ à¦«
à¦ıà¦ķà¦ľà¦¨ à¦Ĩà¦®
à¦Ĳ à¦¹
à¦°à¦®à¦£ à¦ªà¦°
à§©à§¦ à§¬
à¦¨à¦¡ à¦¬
à¦¶à¦¹ à¦ķ
à¦¶à¦¹ à¦°à¦¦
à¦¯à¦¥ à¦ªà¦°
à¦¨à¦ıà¦ĩ à¦ķà¦¥
à¦¤à¦¹ à¦ľ
à§¨à§« à§ª
à§¨à§« à§©à§¦
à¦¦à¦¶ à¦«
à§¨à§® à§©
à§¨à§® à§®à§¦
à¦°à¦ķà¦® à¦ªà¦°
à¦°à¦ķà¦® à¦¹à¦²
à§¨à§¨ à§¨à§¦
à¦ķà¦°à¦£ à¦ıà¦¬
à¦ıà¦ĩà¦ļ à¦ıà¦ķ
à¦ıà¦¸à¦¬ à¦¹
à¦ıà¦¸à¦¬ à¦ļ
à§«à§¦ à§§
à¦¹à§Łà¦¤ à¦ĸà¦¨à¦¤
à¦ªà¦£ à¦Ĩà¦¦
à¦ķà¦¸à¦® à¦¤
à¦ķà¦¸à¦® à§Łà¦¸
à§Łà¦ľ à¦²à¦¬
à¦¯à¦ĸ à¦°à¦ļ
à¦²à¦¶ à¦¯
à¦¸à¦« à¦°à¦®
à¦¸à¦« à¦²à¦¬
à¦¨à¦Ľ à¦¡
à¦²à¦Ĩ à¦Łà¦Ł
à¦²à¦Ĩ à¦°à¦Ĩà¦°
à¦ļà¦® à¦ķà¦¦
à¦¸à¦ķà¦² à¦¸à¦°à¦ķ
à¦ĩà¦¨à¦¸ à¦¹à¦®
à¦¨à¦ıà¦ķ à¦ĩà¦¸
à¦¨à¦ıà¦ķ à¦¸à¦Ļ
à¦°à¦¸à¦®à§Ł à¦ıà¦¸
à¦°à¦¸à¦®à§Ł à¦Ĩà¦Łà¦ķ
à¦¤à¦« à¦°à¦¯
à¦¬à¦Ń à¦Ł
à¦Ĩà¦Ł à¦ľà¦¨
à¦Ĩà¦¹à¦¤ à¦®
à¦Ĩà¦¹à¦¤ à¦¹à¦¯
à§©à§© à§§
à¦£à¦¤ à¦¹à¦ļ
à¦Ĩà¦§ à¦Ł
à§ªà§« à§¯
à§ªà§« à§¦à§¦
à§ªà§© à§ª
à¦¤à¦¸à¦® à§Łà¦¸
à¦·à¦ľ à¦ļ
à§§à§¦à§¦ à§§à§§
à¦°à¦ıà¦ĩ à¦§
à¦°à¦ıà¦ĩ à¦ħ
à¦°à¦ıà¦ĩ à¦¸à¦®à¦¸
à¦°à¦¥à¦®à¦ª à¦¦à¦ķ
à¦¨à¦ľà¦¨ à¦Ĺ
à¦°à¦¸à¦ķà¦² à¦Ĺ
à§©à§Ń à§Ń
à¦ĸà¦¬à¦° à¦²
à¦¬à¦ĩ à¦ªà§ľà¦Ľ
à¦°à¦ªà¦°à¦ª à¦°à¦ĩà¦¤
à¦°à¦Ĩà¦°à¦ĵ à¦ħà¦¨
à§«à§« à§«
à§ªà§® à§©
à§Łà¦ıà¦ķ à¦ª
à¦¦à¦ĩà¦¬à¦¨ à¦¯
à¦¯à§Ł à¦¨à¦¬
à¦¯à§Ł à¦ķà¦°à¦¤
à¦°à¦¬à¦¹ à¦¨à¦ķà¦°
à¦īà¦Ń à¦®
à¦ĩà¦ı à¦ķà¦°
à¦ĩà¦ıà¦ķ à¦¤
à¦ĩà¦ıà¦ķ à¦¥
à¦°à¦Ĺà¦£ à¦ħà¦Ń
à¦ıà¦¨à¦ı à¦«
à¦ıà¦¸à¦®à§Ł à¦¶
à¦°à¦£à¦¤ à¦Ĩà¦®
à¦°à¦£à¦¤ à¦Ĩà¦®à¦°
à¦¨à¦ıà¦ĸ à¦¨à¦¬
à¦ıà¦°à¦¨ à¦¯
à¦²à¦ĵ à¦Ĩà¦Ł
à¦ĸà¦°à¦ļ à¦¹à§Ł
à¦ķà¦¶à¦¨ à¦«
à§«à§¬ à§®
à§¨à§¦à§§à§§ à§§à§¨
à¦Ľà¦¦ à¦ıà¦ķ
à¦°à¦ıà¦®à¦¨ à¦Ń
à¦ıà¦ķà¦¤ à¦°à¦«
à¦Ĺà¦°à¦® à¦ķà¦°
à¦ķà¦¬à¦² à¦¨
à¦°à¦Ĩà¦¹à¦® à¦¦à¦ķ
à¦°à¦¶à¦¹ à¦°à¦¶
à§¬à§® à§¯
à¦Ĩà¦®à¦² à¦ķà¦°à¦²
à¦ľà¦¸à¦¦ à¦°à¦Ĺ
à¦ľà¦¸à¦¦ à¦°à¦Ĩà¦ľà¦®
à¦¨à¦ıà¦ĸà¦¨ à¦ĩà¦Ń
à¦ķà¦Ĩà¦¤ à¦Ĩà¦¦
à¦ıà¦ĸà¦¨à¦ĵ à¦¸à¦¬
à¦Ĩà¦ĩà¦Ń à¦°
à¦ļà¦Ĺà§ľ à¦¸à¦¦
à¦¤à¦®à¦¤ à¦¸
à¦°à¦ĩà¦ī à¦Ĩà¦°à¦ı
à¦ĩà¦¬à¦Ľ à¦°à¦§à¦°
à¦Ĩà¦ĩà¦ıà¦¸ à¦ıà¦²
à¦¨à¦¬à¦Ľ à¦°à¦®
à¦¦à¦Ĩ à¦¤à¦ķ
à§Łà¦īà¦ª à¦®à¦¹
à§Łà¦Ĩà¦¦ à¦®à¦¹
à¦ķà¦¬à¦°à¦ĸ à¦¨à¦¨à¦ķà¦°
à§Łà¦°à¦¤ à¦¨à¦ķ
à¦¦à¦¶à¦ķ à¦¥
à¦·à¦°à¦£ à¦¹à¦ļ
à¦ĩà¦²à¦¸à¦¦ à¦°à¦²
à§§à§¯à§¨à§Ńà§Ńà§§ à§§à§Ńà§®
à¦¨à¦Ĩà¦¦à¦® à¦Ĩ
à¦¨ à¦²à¦®
à¦¨ à¦ĩà¦Ł
à¦¨ à¦Ī
à¦¨ à¦Ĩà¦¸à¦Ľ
à¦¨ à¦īà¦ĸ
à¦¨ à¦īà¦łà¦Ľ
à¦¨ à¦ħà¦ªà¦Ł
à¦¨ à¦īà¦Ńà¦¯
à¦ķ à¦ĩà¦¯
à¦ķ à¦ĩà¦¹
à¦ķ à¦Ĺà¦¦
à¦ķ à¦Ĩà¦¬à¦¦
à¦ķ à¦¬à¦²à¦Ľ
à¦ķ à¦ıà¦ķà¦®
à¦ķ à¦ıà¦°à¦¦
à¦¬ à¦¤à¦¦
à¦¬ à¦ħà¦ª
à¦¬ à¦ļà¦ķ
à¦¬ à¦¬à¦²à¦²
à¦¬ à¦ĵà¦¶
à¦¬ à¦°à¦¬à¦¨
à¦¬ à¦ħà¦¶
à¦¬ à¦Ĩà¦²à¦®
à¦¬ à¦ıà¦ĩà¦¡
à¦¤ à¦°à¦ĩ
à¦¤ à¦ĩà¦Ń
à¦¤ à¦Ĳ
à¦¤ à¦Ĩà¦Ĺà¦¸
à¦¤ à¦Ĺà§ľ
à¦¤ à¦°à¦¹à§Ł
à¦¤ à¦Ĩà¦¹
à¦¤ à¦ıà¦°à¦Ĩà¦Ĺ
à¦¸ à¦ĩà¦¸
à¦¸ à¦°à¦Ł
à¦¸ à¦ĺà¦Łà¦¨
à¦¸ à¦ĩà¦«
à¦¸ à¦Ĳ
à¦¸ à¦¯à¦ľ
à¦¸ à¦ıà¦°à¦¸
à¦® à¦°à¦²
à¦® à¦«à¦²
à¦® à¦Ĩà¦ĵà§Ł
à¦® à¦ıà¦Ĺ
à¦® à¦Ĩà¦«
à¦® à§Łà¦ľ
à¦® à¦ıà¦¸à¦ª
à¦® à¦Ĩà¦ĩà¦¨à¦Ĩà¦¦
à¦® à¦Ĩà¦ĩà¦¨à¦®
à¦² à¦°à¦¨
à¦² à¦ħà¦®
à¦² à¦īà¦¡
à¦² à¦ıà¦¸à¦®à§Ł
à¦² à¦ıà¦°à¦ªà¦°
à¦² à¦ĩà¦«à¦¤
à¦ª à¦Ĩà¦¸
à¦ª à¦Ĩà¦Ĺ
à¦ª à¦ªà¦¡
à¦ª à¦īà¦ļ
à¦ª à¦ĵà¦¶
à¦¦ à¦®à¦¦
à¦¦ à¦ĵà¦¨
à¦¯ à¦°à¦ľà¦¨
à¦¯ à¦ļà¦¨
à¦¯ à¦ıà¦°
à¦¯ à¦ĵà¦¹
à¦¯ à¦ĵà¦ł
à¦¯ à¦ıà¦ķà¦®
à¦¯ à¦¹à§Łà¦ķ
à¦¯ à¦ıà¦ĩà¦®
à¦¯ à¦Ĩà¦°à¦¤
à¦¯ à¦īà§İà¦¸
à§Ł à¦Ĩà¦°à¦¬
à§Ł à¦¬à¦²à¦Ľ
à§Ł à¦Ĩà¦Ł
à§Ł à¦ľà¦¨à¦¸
à§Ł à¦ıà¦°à¦®à¦§
à§Ł à¦¸à¦¬à¦¬
à§Ł à¦°à¦¤à¦ħà¦¬à¦¸
à§Ł à¦Ĩà¦¹à¦¤à¦¬
à¦¹ à¦ĵà¦¬
à¦¹ à¦¨à¦¶
à¦¹ à§İà¦¸
à¦¹ à¦Ĩà§Ł
à¦¹ à¦°à¦ªà¦ķ
à¦¹ à¦ıà¦°à¦¨
à¦Ł à¦°à¦ı
à¦Ł à¦°à¦Ń
à¦Ł à¦¯à¦¦
à¦Ł à¦Ĩà¦¶
à¦Ł à¦®à¦¸à¦ľ
à¦Ł à¦ĵà¦°
à¦Ł à¦ıà¦°à¦¬
à¦ľ à¦¸à¦¬
à¦ľ à¦ĵà¦¤
à¦ľ à¦ļà¦ķ
à¦ľ à¦°à¦¸à¦¸
à¦¶ à¦ł
à¦¶ à¦Łà¦¨
à¦¶ à¦Ľà¦¬
à¦¶ à¦¸à¦¦
à¦¶ à¦ĺà¦°
à¦¶ à¦ıà¦Ľ
à¦¶ à¦Ĩà¦ľà¦ķ
à¦¶ à¦īà§İà¦ª
à¦Ĺ à¦ĺà¦Ł
à¦Ĺ à¦ĵà¦¹
à¦Ĺ à¦°à¦£à¦®
à¦ĩ à¦ĩà§Ł
à¦ĩ à¦Ĺà¦£
à¦ĩ à¦¶à¦¦
à¦ĩ à¦ļà¦²à¦ļ
à¦ĩ à¦Ĩà¦«à¦Ĺ
à¦ĩ à¦ªà§ľà¦¤
à¦ĩ à¦ħà¦¦
à¦Ĩ à¦īà¦¨
à¦Ĩ à¦¤à¦ķà¦°à¦¬
à¦ı à¦¬à¦²
à¦ı à¦¤à¦°
à¦ı à¦īà¦²
à¦ı à¦°à¦ķà¦²
à¦ı à¦ªà¦¸
à¦ı à¦°à¦ľà¦¬
à¦ı à¦°à¦«à¦°à¦®
à¦Ľ à¦¸à¦®
à¦ļ à¦¸à¦¨
à¦ļ à¦®à¦°
à¦ļ à¦ĵà¦¸
à¦ļ à¦¶à¦¬
à¦ļ à¦¸à¦®à¦ķ
à¦ļ à¦¡à¦ľ
à¦ķà¦° à¦¨à¦¬
à¦· à¦Ĩ
à¦· à¦ļà¦²
à¦· à¦ĩà¦®
à¦· à¦ĵà¦ª
à¦· à¦ıà¦ĸà¦¨
à¦· à¦ĵà¦¦
à¦· à¦¨à§Ł
à¦· à¦¸à¦Ļ
à¦· à¦ĵà¦®à¦¹
à¦Ń à¦ĺ
à¦Ń à¦²à¦¬
à¦§ à¦¬à¦¸
à¦§ à¦Ĩà¦ªà¦¨
à¦§ à¦ıà¦ª
à¦§ à¦¹à§Łà¦¬
à¦¥ à¦°à¦ª
à¦¥ à¦°à¦Ľ
à¦¥ à¦¸à¦Ń
à¦¥ à¦ķà¦ľ
à¦¥ à¦°à¦ļà¦¨
à¦ĸ à¦¬à¦¸
à¦ĸ à¦°à¦Ĺ
à¦ĸ à¦ķà¦ªà¦°
à¦ĵ à¦ħà¦¬à¦¸
à¦ĵ à¦Ĩà¦ĩà¦¨
à¦ĵ à¦Īà¦¦
à¦ĵ à¦¸à¦¬à¦ļ
à¦Ĥ à¦ĥ
à¦¡ à¦²à¦¨
à¦¡ à¦ķà¦¨
à¦¡ à¦¤à¦¥
à¦¡ à¦¸à¦ļ
à¦¡ à¦ıà¦°à¦¸
à¦¡ à¦Ĺà¦¡
à¦ħ à¦¦à¦ķ
à¦°à¦¸ à¦Ł
à¦°à¦¸ à¦°à¦¹à¦¯
à¦ī à¦°à¦¬
à¦ī à¦ĩà¦°
à¦« à¦¤à¦ª
à¦°à¦¬ à¦Ń
à¦°à¦¬ à¦ĭà¦¦
à¦°à¦® à¦°à¦¸
à¦°à¦® à¦°à¦¶
à¦°à¦® à¦ħà¦¬
à¦°à¦® à¦łà¦¶
à¦°à¦ª à¦°à¦Ĩà¦Ĺ
à¦°à¦ª à¦¦à¦¬
à¦°à¦ª à¦¥à¦ķ
à¦°à¦ª à¦°à¦ļà¦²
à¦°à¦ª à¦°à¦ıà¦ķà¦¦
à¦£ à¦ªà§ľ
à¦£ à¦®à¦¹
à¦£ à¦¢
à¦£ à¦ıà¦ª
à¦£ à¦ĵà¦ľ
à§ľ à¦²à¦ķ
à¦°à¦¤ à¦Ł
à¦¸à¦® à¦£
à¦ıà¦ķ à¦¤à¦°
à¦ıà¦ķ à¦ķà¦¦
à¦ıà¦ķ à¦ħà¦¦
à¦ıà¦ķ à¦Ĩà¦¡
à¦ł à¦ķà¦¹
à¦ł à¦ķà¦¸à¦®
à¦ľà¦¨ à¦ķà¦®
à¦ľà¦¨ à¦ĩà¦¤
à¦ľà¦¨ à¦ħà¦°
à¦ľà¦¨ à¦Ĩà¦°
à¦¬à¦² à¦ªà¦°
à¦°à¦¦ à¦²à¦Ń
à¦°à¦¦ à¦¶à¦Ł
à¦°à¦¹ à¦¬à¦ķ
à¦¬à¦¨ à¦ĵà¦ľ
à¦°à¦Ĩ à¦¸à¦®
à¦°à¦Ĩ à¦¨à¦¦
à¦¹à§Ł à¦¸à¦¨
à¦¹à§Ł à¦Ĺà¦¤à¦ķ
à¦ĺ à¦Łà¦ķ
à¦°à¦£ à¦§
à¦ŀ à¦²
à¦¨à¦¤ à¦®à¦¸
à¦¨à¦¸ à¦ķà¦²à¦ķ
à¦¨à¦¸ à¦ľà¦²à¦®
à¦¬à¦¸ à¦ķà¦°
à¦°à¦ħ à¦¬à¦§
à¦°à¦¶ à¦¤à¦Ń
à¦¨à¦ķ à¦Ń
à¦°à¦ı à¦ļ
à¦¤à¦¬ à¦®
à¦ıà¦ĩ à¦¥
à¦ıà¦ĩ à¦¬à¦°
à¦ıà¦ĩ à¦ķà¦ł
à¦ıà¦ĩ à¦¨à¦ķà¦¶
à¦°à¦ļ à§ľ
à¦°à¦ļ à¦°à¦Ĺ
à¦°à¦ľà¦¨ à¦ľ
à¦¸à¦¬ à¦¬à¦²
à¦¸à¦¬ à¦Ĺà¦²
à¦¸à¦¬ à¦¸à¦®à§Łà¦¬
à¦°à¦ĵ à¦ıà¦ķ
à¦°à¦ĵ à¦§à¦°
à¦°à¦ĵ à¦Ĩà¦¨
à§« à§©à§«
à§« à§©à§¬
à¦¶à¦¨ à¦ĵà¦¯
à¦ķà¦® à¦Ļ
à¦ķà¦® à¦¢
à¦ķà¦® à¦¸à¦®à§Ł
à¦¨à¦® à§Łà¦®à¦¨à¦¸
à¦ķà¦¬ à¦°à¦®à¦¸à¦ľ
à¦īà¦¨ à¦°
à¦īà¦¨ à¦¸à¦®
à¦īà¦¨ à¦ļà¦²à¦Ľ
à¦ķà¦² à¦Ł
à¦¯à¦¬ à¦Ľ
à¦¯à¦¬ à§ľ
à¦¯à¦¬ à¦¦à¦²
à¦Ĩà¦¬ à¦Ľà¦°
à§® à§ªà§®
à§¬ à§¨à§¦
à§¬ à§¨à§ª
à§¬ à§©à§¨
à¦²à¦¬ à¦°à¦Ĺ
à¦²à¦¬ à¦¹à¦¨à¦ķà¦°
à§Ń à§Ńà§«
à§¯ à§¬à§¦
à¦®à¦¸ à¦²à¦ķ
à¦®à¦¸ à¦¹à¦ľ
à¦®à¦¸ à¦¦à¦°à¦ļ
à¦Ĩà¦¸ à¦¨à¦¬
à¦Ĩà¦¸ à¦²à¦ķ
à¦Ĩà¦¸ à¦¨à¦Ł
à¦¤à¦¨ à§Łà¦¬
à¦¤à¦¨ à¦ħà¦§
à¦¤à¦¨ à¦ıà¦¨
à¦ĩà¦² à§ľ
à¦¦à¦ķ à¦Ĩà¦°
à¦¦à¦ķ à¦¡à¦¹
à¦ķà¦Ł à¦ĸ
à¦ķà¦Ł à¦ķà¦Ń
à¦ĩà¦ķ à¦¹
à¦Ŀ à¦¦
à¦Ŀ à¦ķà¦®
à¦ıà¦¸ à¦ĩà¦¬
à¦ıà¦¸ à¦ĩà¦ıà¦ķ
à¦ķà¦¸ à¦ĩà¦¤
à¦²à¦® à§Łà¦¦
à¦¤à¦ķ à¦¤à¦°
à¦¤à¦ķ à¦¥à¦¨
à¦¤à¦ķ à¦°à¦£à¦¸
à¦²à¦¤ à¦Ń
à¦²à¦¤ à¦ıà¦¬
à¦²à¦¤ à¦ıà¦ķà¦Ł
à¦°à¦« à¦°à¦¹
à¦°à¦« à¦²à¦ķ
à¦ļà¦¨ à¦ĸ
à¦ļà¦¨ à¦Ĩà¦Ĺ
à§Łà¦¸ à¦ļ
à¦¸à¦¹ à¦ıà¦ķà¦Ł
à¦¸à¦¹ à¦ħà¦¸
à¦¨à¦Ĩ à§ľ
à¦¨à¦Ĩ à¦ĩà¦¨à¦¬
à¦¨à¦Ĩ à¦°à¦¯à¦¦
à¦ªà§ľ à¦Ŀ
à¦®à¦¹ à§ľ
à¦ķà¦¤ à¦ľà¦¨
à¦¨à¦ľ à¦Łà¦¨
à¦®à¦¦ à¦¨à¦¬
à¦®à¦¦ à¦®à¦¹à¦¸
à¦ĩà¦Ł à¦ĸ
à¦ĩà¦Ł à¦ħà¦¨
à¦°à¦Ł à¦°
à¦®à¦² à¦Ĺà¦ŀ
à¦®à¦² à¦Ĺà¦Ļ
à§¨à§§ à§¦à§¯à§¨à§¦à§¨à§§
à¦²à¦¸ à¦¹à¦¯
à¦²à¦¸ à¦¦à¦°à¦®
à¦¨à¦Ĺ à¦°à¦¥
à¦¨à¦Ĺ à¦°à¦ĩà¦īà¦¨
à¦¨à¦Ĺ à¦°à¦ĩà¦¨
à¦®à¦ķ à§Łà¦Ł
à¦¸à¦ķ à¦£
à¦®à¦ª à¦Ľà¦¨
à§§à§¯ à§§
à§§à§¯ à§§à§§
à§§à§¯ à§©à§©
à§§à§¯ à§¦à§¨
à¦¸à¦ª à¦£
à¦ķà¦ª à¦ŀ
à¦Łà¦ķ à¦¨à¦¸
à¦¨à¦¶ à¦¨à¦ķ
à¦²à¦ª à¦ķà¦°
à¦ĩà¦ª à¦ł
à¦¬à¦Ľ à¦°à¦Ł
à¦¬à¦Ľ à¦°à¦Ĩà¦®
à§¨à§¦à§¨à§§ à§¨à§¦à§¨à§¨
à§Łà¦® à¦Ń
à§Łà¦® à¦¡
à§Łà¦® à¦¤à¦¬
à¦Ĩà¦¦ à¦®à¦¸à¦¨
à¦ĸà¦¬ à¦°à¦¹
à¦ĸà¦¬ à¦°à¦¸à¦®
à¦Ĺà¦¤ à¦Ľ
à¦Ĺà¦¤ à¦¸à¦¹
à¦ªà¦¦ à¦§
à¦īà¦ľ à¦¯
à¦¦à¦² à¦ļ
à¦·à§Ł à¦¬à¦²
à¦·à§Ł à¦Ĩà¦Ľ
à¦°à¦®à¦¤ à¦Ĺ
à¦ķà¦°à¦¬ à¦Ĩà¦®
à¦¨à¦¹ à¦¨
à¦¨à¦¹ à¦¸
à¦ĩà¦Ń à¦Ĺ
à¦¸à¦² à¦ķà¦°à¦¤
à¦ĩà¦¦ à¦°à¦ķ
à¦Ĩà¦¤ à¦ķà¦°à¦¤
à¦²à§Ł à¦¹à¦¤
à¦²à§Ł à¦ķà¦²
à¦ħà¦« à¦ª
à¦ıà¦®à¦¨ à¦ĸà¦¬à¦°
à¦·à¦ķ à¦Ĩà¦®
à§§à§¨ à§¨à§¦à§¨à§§
à¦Łà¦Ĺ à¦¹à¦¨
à¦ıà¦® à¦ĩà¦®à¦°
à¦¸à¦¦ à¦°à¦ĺ
à¦¸à¦¦ à¦°à¦Ĩà¦¨
à¦ĩà¦¯ à¦¤à¦°
à¦¶à¦¸ à¦¶à¦¸
à§§à§ª à§¨à§¦
à§§à§ª à§©à§¦
à¦ĩà¦« à¦ĩà¦¨à¦¸
à¦·à¦¦ à¦¦
à¦·à¦¦ à¦¥
à¦Łà¦® à§Łà¦®à¦¨à¦¸
à§§à§§ à§§à§§
à¦¨à§Ł à¦ķà¦°à¦¤
à¦¨à§Ł à¦ķà¦°à¦¬
à¦Ĩà¦¶ à¦¶
à¦ļà¦ķ à¦¯
à¦ļà¦ķ à¦ľ
à¦¨à¦ĸ à¦ķ
à¦²à¦¯ à¦¥
à¦°à¦®à¦£ à¦Ĩà¦¬
à§©à§¦ à§ªà§¦
à¦¤à¦² à¦ıà¦¬
à¦°à¦Ĩà¦² à¦ľ
à§§à§¬ à§¨à§¦à§¨à§§
à¦¨à¦« à¦Łà¦ķ
à¦īà¦Ł à¦°à¦¹
à¦®à¦ľ à¦Ł
à¦ĩà¦ļ à¦®à¦¨
à¦°à¦¸à¦¬ à¦ĸà¦¬à¦°à¦¬
à¦Ńà¦¬ à¦Ĩà¦ªà¦¨
à¦Ńà¦¬ à¦ķà¦°à¦¬
à¦Ńà¦° à¦ķà¦°à¦¤
à¦Ĩà¦Łà¦ķ à¦ļ
à¦ķà¦¹ à¦Łà¦¶
à¦¨à¦¸à¦® à§Łà¦ķ
à§Łà¦¶ à¦Ļ
à¦ĵà¦² à¦Łà¦ª
à¦°à¦ĵà¦ª à¦°à¦Ĩà¦¸
à¦ľà§Ł à¦ľ
à¦ªà¦¶ à¦¨à¦¸
à¦²à¦Ł à¦Ľ
à¦ıà¦ĩà¦ļ à¦¬
à¦ıà¦ĩà¦ļ à¦¦
à¦ıà¦ķà¦¦ à¦¶à¦ķ
à¦¯à¦¶ à¦Ļ
à¦¬à¦ľ à¦Ĺà¦¤
à¦²à¦Ĩ à¦Ł
à¦²à¦Ĩ à¦ĩà¦¡
à¦ıà¦ĩà¦¸ à¦¬à¦¸
à¦®à¦Ĩ à¦ĩà¦¸
à§ªà§¦ à§Ń
à¦¨à¦ıà¦ķ à¦Ĺ
à¦°à¦ĸà¦¬ à¦°à¦Ĺ
à¦°à¦ĸà¦¬ à¦°à¦¸à¦®
à¦°à¦Ĩà¦¶ à¦«
à¦¦à¦¹ à¦¸à¦°
à¦ķà¦ĸà¦¨ à¦ĵà¦¤
à¦Ńà¦¬à¦¨ à¦Ĺ
à¦°à¦īà¦ªà¦° à¦ķà¦°
à¦¯à¦ĸà¦¨ à¦ĸ
à¦«à¦Ł à¦¶
à¦°à¦Ĩà¦¸ à¦²à¦ķ
à§ªà§« à§§
à§ªà§© à§¯
à¦Łà¦Ń à§Ł
à¦ĩà¦¸à¦® à§Łà¦ª
à§§à§¦à§¦ à§©
à§§à§¦à§¦ à§¯à§¨à§¦à§¨à§§
à¦īà§İ à¦¸à¦¬à¦ķ
à§Łà¦ħà¦¨ à¦¨
à¦Łà¦¶ à¦¹à¦°
à¦·à§Łà¦ķ à¦¨
à¦ķà¦Ĩ à¦¤à¦¬
à¦¬à§Ł à¦ķà¦Ł
à¦ĵà¦ĩ à¦¤à¦°
à§©à§ª à§§
à¦ĵà¦Ľ à¦®
à¦°à¦Ĩà¦°à¦ĵ à¦¬à¦²
à§§à§¨à§¦ à§¬
à§Łà¦ıà¦ķ à¦¨
à§Łà¦ıà¦ķ à¦ĩà¦ªà¦°
à¦ķà¦ĵ à¦®à¦°
à§İà¦¸à¦ķ à¦Ĩà¦¨
à¦ıà¦¸à¦® à§Łà¦¨
à¦ıà¦¨à¦ı à¦ªà¦°
à¦Ŀà§ľ à¦ª
à¦¨à¦Ĩà¦°à¦ĵ à¦ľ
à¦²à¦¹à§Ł à¦²
à¦ľà¦¨à¦Ĺ à¦°à¦ķà¦®à¦²à¦Ĺà¦ŀ
à¦²à¦ĵ à¦·
à¦²à¦ĵ à¦Ĩà¦²
à§ªà§ª à§§
à¦ľà§Łà¦¨ à¦Ĺà¦°
à¦ĸà¦°à¦ļ à¦Ł
à¦ķà¦¶à¦¨ à¦¦
à¦ķà¦¶à¦¨ à¦ħ
à¦¨à¦ĵà¦¯ à¦®
à¦ıà¦ķà¦ĩ à¦ħà¦¬à¦¸
à§«à§¦à§¦ à§¦à§¦
à¦ĭà¦£ à¦¸à¦°à¦ķ
à¦¨à¦ĺ à¦°à¦ª
à¦®à¦°à¦¹ à¦¬à¦²
à¦ıà¦¸à¦ıà¦® à¦ıà¦¸à¦®
à¦°à¦¤à¦ķ à¦°à¦ħà¦¬à¦¸
à¦ļà¦ķà¦° à¦¦
à¦¶à¦ĵ à¦Ĩà¦¨
à¦ľà¦¸à¦¦ à¦°à¦ħà¦·
à¦¨à¦ıà¦ĸà¦¨ à¦ªà¦°
à¦«à¦°à¦¯ à¦ĩà¦¬
à§¦à§§à§Ń à§§à§§à§©
à¦Ĩà¦ī à¦Łà¦¬
à¦®à¦ĺ à¦Łà¦¸
à§¦à§¦à§¦à§¦ à§¦
à§¦à§¦à§¦à§¦ à§§à§§à§¦
à¦«à¦¸à¦² à¦īà§İà¦ª
à¦®à¦ĩ à¦Łà¦¨
à¦°à¦Ĩà¦®à¦² à¦ķà¦°
à§ªà§¦à§¦ à§¦
à¦ĵà¦ķà¦® à¦Ľ
à§Łà¦¬à¦¸ à¦¤à¦¬
à¦¸à¦ĺ à§ľ
à¦«à¦²à¦¨ à¦¦
à¦¡à¦ı à¦¨à¦ķ
à¦¡à¦ı à¦¨à¦Ń
à¦°à¦ķà¦¦ à¦®à¦¤à¦²
à¦°à¦¹à¦®à¦¤ à¦Ĩà¦²
à¦°à¦¨à§Ł à¦īà¦¨
à¦īà¦ıà¦ĩà¦ļ à¦ĵà¦¨
à¦®à¦ĩà¦¨ à¦¹
à¦°à¦ķà¦¬à¦² à¦¥
à¦¨à¦ıà¦® à¦ĩà¦¦
à¦ĩà¦ıà¦ĸ à¦¨à¦¦
à¦¦à¦«à¦¤ à¦°à¦¸
à¦īà¦²à¦Ĩà¦² à¦®à¦²
à¦ķà¦¨à¦ķ à¦²à¦®à¦¨
à§©à§©à§© à§¨à§¨
à¦²à¦Ĺà¦ĩà¦¨ à¦ķà¦°à¦¤
à¦ªà¦ĵ à¦ĩà¦¨à¦¸
à¦¤à¦²à¦¬ à¦ķà¦°
à¦®à¦īà¦ª à¦Ĺ
à§¦à§§à§¯ à§©à§Ń
à¦°à¦¶à¦ª à¦¥à¦¨
à¦ĵà¦ĵ à¦ĵà¦ıà¦ķ
à¦ķà¦¤à¦® à¦£
à¦¹à¦ľà¦°à¦¤ à¦Ĩà¦¬
à¦¸à¦ĵà¦ľ à¦Ĺà¦Ł
à¦ļà¦ĺ à¦¨à¦¤
à§¦à§Ńà§¨à§§à§Ń à§Ńà§«
à¦°à¦¨à¦Ĺà¦¦ à¦ħà¦°
à§§à§¯à§©à§Ń à§¦à§¦à§¦à§¦à§§à§§à§¦
à¦²à¦Ĺà¦ł à¦¨à¦ķà¦°
à¦²à¦Łà¦ķ à¦ĵà¦Ĩà¦ļ
à¦ıà¦¸à¦ıà¦®à¦ıà¦® à¦ĩà¦ī
à¦¬à¦¸à¦¦à¦°à¦¦ à¦«à¦¤à¦°
à¦īà¦¸à¦ª à§Ł
à¦¸à¦Ĭ à¦¦
à¦īà¦ĩà¦¥ à¦²
à§§à§¯à§ªà§ª à§©à§©à§©à§¨à§¨
à§Łà¦Ĳ à¦ªà¦¶
à¦¨à¦Ĩà¦°à¦ıà¦¸ à¦ıà¦¸à¦«
à§§à§¯à§¨à§Ńà§Ńà§§à§§à§Ńà§® à§«à§¦
à¦¨ à¦īà¦¬
à¦¨ à¦īà¦¸à¦®
à¦ķ à¦°à¦ļ
à¦ķ à¦°à¦īà¦¦
à¦ķ à¦ıà¦®
à¦ķ à¦¬à¦²à¦¤
à¦ķ à¦ıà¦ĩà¦¸
à¦ķ à¦Ĩà¦°à¦ķ
à¦ķ à¦ĵà¦¸à¦®
à¦ķ à¦ıà¦ĩà¦ķ
à¦ķ à¦°à¦ħà¦¤
à¦ķ à¦ıà¦ķà¦¸
à¦¬ à¦¤à¦°
à¦¬ à¦ıà¦Ł
à¦¬ à¦§à¦¨
à¦¬ à¦¸à¦®à¦¸
à¦¬ à¦¡à¦®
à¦¬ à¦ħà¦®
à¦¬ à¦Ĩà¦§
à¦¬ à¦°à¦ļà¦Ł
à¦¤ à¦²à¦¨
à¦¤ à¦ĵà¦Ł
à¦¤ à¦Ĩà¦°à¦¸
à¦¤ à¦īà§İà¦¸
à¦¤ à¦ľà¦¨à¦Ĺ
à¦¤ à¦ħà¦¡
à¦¸ à¦Ĩà¦¸
à¦¸ à¦ķà¦¤
à¦¸ à¦ħà¦¸
à¦¸ à¦ĵà¦Ń
à¦¸ à¦¬à¦²à¦Ľ
à¦¸ à¦ĩà¦¨à¦«
à¦® à¦°à¦ľ
à¦® à¦ĩà¦¦
à¦® à¦ıà¦ª
à¦® à¦ĵà¦Ń
à¦® à¦Ĺà¦£à¦¤
à¦² à¦¶à¦ķ
à¦² à§Łà¦¤
à¦² à¦¸à¦®à§Ł
à¦² à¦ĵà¦ĩ
à¦² à¦īà¦ªà¦¹
à¦ª à¦ļà¦²
à¦ª à¦«à¦Ł
à¦ª à¦°à¦ªà¦°à¦¬
à¦¦ à¦ĩ
à¦¦ à¦Ĩà¦ķ
à¦¦ à¦ħà¦¤
à¦¦ à¦Ĩà¦¬à¦¦
à¦¦ à¦ĵà¦°
à¦¦ à§Łà¦Ń
à¦¦ à¦ĩà¦īà¦ª
à¦¦ à¦Ĩà¦¸à¦Ľ
à¦¦ à¦ħà¦ľ
à¦¦ à¦¨à¦¬à¦°
à¦¦ à¦ĩà¦ķà¦¬
à¦¦ à¦°à¦Ĩà§ľ
à¦¦ à¦Ńà¦¬à¦ĺ
à¦¦ à¦¸à¦¬à¦¸à¦®à§Łà¦¯
à¦¯ à¦īà¦ªà¦ľ
à¦¯ à¦ıà¦ķà¦ľà¦¨
à¦¯ à¦Ńà¦°
à¦¯ à¦ħà¦²
à¦¯ à¦Ľà§ľ
à¦¯ à¦ĩà¦¬à¦²
à¦¯ à¦ıà¦°à¦®
à¦¯ à¦Ĩà¦ķà¦°
à§Ł à¦°à¦Ĺ
à§Ł à¦°à¦ĸ
à§Ł à¦Ĺà¦¨
à§Ł à¦ĩà¦ļ
à§Ł à¦ıà¦ĩà¦ķ
à§Ł à¦ħà¦¦
à§Ł à¦ıà¦°à¦ªà¦°
à§Ł à¦°à¦¸à¦¹à¦ķ
à¦¹ à¦§
à¦¹ à¦ĩà¦¨
à¦¹ à¦ķà¦²
à¦¹ à¦¨à¦Ĺ
à¦¹ à¦Ĩà¦®à¦°
à¦¹ à¦ĵà¦²
à¦¹ à¦Ĩà¦«
à¦¹ à¦¨à¦¤à¦¬
à¦¹ à¦°à¦ħà¦¸
à¦¹ à¦°à¦ĩà¦¬
à¦¹ à¦īà¦²à¦Ĩà¦²à¦®à¦²
à¦Ł à¦ıà¦ĩ
à¦Ł à¦¦à¦ķ
à¦Ł à¦¯à¦®
à¦Ł à¦ħà¦¬à¦¸
à¦Ł à¦¸à¦®à¦¸
à¦Ł à¦Ĩà¦ĩà¦¨à¦ľ
à¦¶ à¦£
à¦¶ à¦ĩà¦Ń
à¦¶ à¦ĵà¦Ĺ
à¦¶ à¦°à¦ŀ
à¦Ĺ à¦¶à¦¨
à¦Ĺ à¦ĩà¦®
à¦Ĺ à¦Ĩà¦®à¦°
à¦Ĺ à¦ıà¦Ł
à¦Ĺ à¦¶à¦°
à¦Ĺ à¦ħà¦§
à¦Ĺ à¦Ĩà¦¶
à¦Ĺ à¦ľà¦ª
à¦Ĺ à¦ħà¦¨à¦²
à¦Ĺ à¦ħà¦®
à¦Ĺ à¦Ĩà¦Ļ
à¦ĩ à¦¯à¦¤
à¦ĩ à¦¥à¦¨
à¦ĩ à¦°à¦¹à¦°
à¦Ĩ à¦ªà¦ķ
à¦Ĩ à¦°à¦¸à¦¬
à¦ı à¦Ĩà¦®
à¦ı à¦°à¦Ĩ
à¦ı à¦§à¦°
à¦ı à¦Ĩà¦¨
à¦ı à¦ıà¦²
à¦ı à¦Ĩà¦ĩà¦¨
à¦ı à¦Ľà¦¬
à¦ı à¦°à¦²à¦ķ
à¦Ľ à¦ľ
à¦Ľ à¦Ĩà¦¨
à¦ļ à¦¬à¦²
à¦ļ à¦¬à¦Ľà¦°à¦Ĩà¦Ĺ
à¦ķà¦° à¦²à¦ķ
à¦· à¦ĵà§Ł
à¦· à¦°à¦¯
à¦· à¦¨à¦¦
à¦· à¦Ľà¦¬
à¦· à¦¹à¦ľ
à¦Ń à¦ªà¦°
à¦Ń à¦¨à¦¬
à¦Ń à§Łà¦¨
à¦Ń à¦Ĩà¦¸
à¦Ń à¦¬à¦¦
à¦Ń à¦ļà¦Ł
à¦§ à¦°à¦¯
à¦§ à¦¸à¦°
à¦§ à¦ĺà¦°
à¦§ à¦Ĩà¦ļ
à¦§ à¦¨à¦Ĩà¦°
à¦¥ à¦ıà¦ķ
à¦¥ à¦¨à¦¬
à¦¥ à¦²à¦¨
à¦¥ à¦¸à¦¨
à¦¥ à¦ļà¦ķ
à¦¥ à¦ĵà¦Ń
à¦¥ à¦ªà¦²
à¦¥ à¦¨à¦ķà¦°à¦Ľ
à¦ĸ à¦ıà¦ķà¦Ł
à¦ĸ à¦ķà¦¯
à¦ĸ à§İà¦¨
à¦ĸ à¦ıà§ľ
à¦ĵ à¦°à¦Ł
à¦ĵ à¦°à¦¸à¦Ļ
à¦ĵ à¦¸à¦®à¦¯
à¦ĵ à¦Ĩà§Ł
à¦ĵ à¦ĩà¦īà¦°
à¦ĵ à¦ıà¦ĩà¦®
à¦ĵ à¦¨à¦ľà¦°à¦¦
à¦ĵ à¦Ĺà¦£à¦ª
à¦¡ à§Łà¦¨
à¦¡ à¦¸à¦¸
à¦¡ à¦ıà¦°à¦ª
à¦¡ à¦¸à¦Ļ
à¦¡ à¦ıà§Ł
à¦ħ à¦ªà¦¤à§İà¦ªà¦°à¦¤
à¦°à¦¸ à¦¨à¦ķ
à¦°à¦¸ à¦ļà¦²
à¦°à¦¸ à¦«à¦Łà¦ĵà¦¯
à¦ī à¦°à¦ī
à¦ī à¦īà¦²
à¦ī à¦Łà¦Ĺ
à¦ī à¦Ľà¦®
à¦« à¦ħ
à¦« à¦£
à¦« à¦Ĩà¦ľ
à¦« à¦ĩà¦¯
à¦« à¦ıà¦ĩà¦ķ
à¦« à¦¨à¦ķà¦°à¦²
à¦°à¦ķ à¦®à¦ķà¦°
à¦°à¦¬ à¦Ĩà¦®
à¦°à¦¬ à¦īà§Ł
à¦°à¦® à¦ªà¦¨
à¦°à¦® à¦²à¦®
à¦°à¦® à¦¶à¦ķ
à¦°à¦® à¦¹à¦ķ
à¦£ à¦ªà¦£
à§ľ à¦²à¦¯
à§¦ à§©à§§
à¦°à¦¤ à¦¤à¦¬
à¦°à¦¤ à¦ĵà¦ļ
à¦®à¦¨ à¦Ĩà¦®à¦°
à¦ıà¦ķ à¦ıà¦ķà¦ķà¦°
à¦ł à¦ł
à¦ł à¦Ĩà¦®
à¦ľà¦¨ à¦¬à¦¸
à¦ľà¦¨ à¦ªà¦¡
à¦ľà¦¨ à¦ķà¦Ń
à¦°à¦¦ à¦°à¦Ĺ
à¦°à¦¦ à¦«à¦¤
à¦°à¦¦ à¦«à¦¤à¦°
à¦Ĩà¦® à¦¤à¦²
à¦°à¦¨ à¦¨à¦¤
à¦°à¦¹ à¦ķà¦°à¦¬
à¦°à¦¹ à¦Łà¦¸
à¦¬à¦¨ à¦ļà¦²
à¦¬à¦¨ à¦¸à¦¶
à¦¬à¦¨ à¦¨à¦Ĺà¦°à¦¦
à¦¹à§Ł à¦ł
à¦¹à§Ł à¦ĵà§Ł
à¦¹à§Ł à¦Ĩà¦°à¦ĵà¦ªà§ľ
à¦°à¦£ à§Ł
à¦°à¦£ à¦²à¦ķ
à¦°à¦£ à¦¯à¦¨
à¦°à¦£ à¦ıà¦ĸ
à¦¬à¦¸ à¦¯
à¦¬à¦¸ à¦ķà¦²
à¦°à¦¶ à¦¶
à¦²à¦ķ à¦ħà¦°
à¦²à¦ķ à¦ıà¦®
à¦ĩà¦¨ à¦ıà¦¨
à¦ĩà¦¨ à¦ĵà¦«
à¦¨à¦ª à¦°à¦¤
à¦¨à¦ª à¦¦à¦¸
à¦ıà¦ĩ à¦Ĩà¦¬
à¦ıà¦ĩ à¦ħà¦¤
à¦ıà¦ĩ à¦Ĩà¦¶
à¦¸à¦¬ à¦¸à¦®à§Łà¦¤
à¦¨à¦¨ à§Łà¦¤
à§ª à§¨à§®
à§ª à§¨à§¯
à§« à§§à§«
à¦¶à¦¨ à¦¬à¦¨
à¦¶à¦¨ à¦§à¦°
à¦¶à¦¨ à¦ĵà¦¬
à¦¨à¦® à¦Ĺ
à¦¨à¦® à¦¤à¦¸
à¦¹à¦¤ à¦ļ
à§İ à¦¸à¦¨
à§Łà¦¨ à¦·
à§Łà¦¨ à¦¡
à§Łà¦¨ à¦ĺ
à§Łà¦¨ à¦Ĺà¦ŀ
à¦Ĩà¦ªà¦¨ à¦ķà¦°
à¦Ĩà¦ªà¦¨ à¦®à¦¨
à¦²à¦¨ à¦ĺà¦Ł
à¦īà¦ª à¦°à¦¬
à¦īà¦ª à§ľ
à¦°à¦Ľ à¦¹
à§® à§©à§¦
à§¬ à§ªà§Ń
à§¬ à§Ńà§¦
à¦¨à¦¦ à¦¬
à¦¨à¦¦ à¦Ń
à§¯ à§¨à§¦
à§¯ à§¨à§¯
à§¯ à§«à§«
à¦®à¦¤ à¦ĩà¦¸à¦²
à¦®à¦¤ à¦ĸà¦¨à¦¤
à¦¯à¦ķ à¦ªà¦°
à¦¯à¦ķ à¦°à¦¹
à¦®à¦¸ à¦¡
à¦¤à¦¨ à¦ıà¦ķà¦Ł
à¦ĩà¦² à¦ı
à¦ĩà¦² à¦ªà¦°
à¦°à¦§ à¦°à¦¤
à¦°à¦§ à¦°à¦¶
à¦ļà¦² à¦ķà¦°à¦¬
à¦ĩà¦ķ à¦Ĩà¦°
à¦¦à¦¨ à¦ħà¦Ń
à¦¦à¦¨ à¦«à¦°à¦®
à¦°à¦² à¦¬à¦¨
à¦°à¦ĩ à¦¨à¦¬
à¦°à¦ĩ à¦Ĩà¦Ľ
à¦°à¦ĩ à¦Ĩà¦°
à¦°à¦ĩ à¦²à¦Ń
à¦·à¦£ à¦¸à¦¹
à¦¤à¦® à¦«
à¦¤à¦ķ à¦Ń
à¦¤à¦ķ à¦°à¦£à¦ª
à¦ĵà¦¯ à¦®
à¦Łà¦¨ à¦ıà¦²
à¦ļà¦¨ à¦¡
à§Łà¦¸ à¦¶à¦¸
à§Łà¦¸ à¦¹à¦ķ
à¦¸à¦¹ à¦Ĩà¦®
à¦¨à¦Ĩ à¦°à¦°
à¦¨à¦Ĩ à¦ľà¦¹
à¦¨à¦Ĩ à¦°à¦Ĩà¦ªà¦¨
à¦ĩà¦® à¦ļà¦°
à¦ĩà¦® à¦Łà¦°à¦¸
à¦ªà§ľ à¦²à¦¬
à¦ķà¦¦ à¦¤
à¦¸à¦¨ à¦¸à¦®
à¦¯à¦¨ à¦ľ
à¦¯à¦¨ à§Łà¦¤
à¦¨à¦ľ à§Łà¦ª
à¦®à¦¦ à¦¯
à¦Ĩà¦Ľ à¦¹
à¦ķà¦¨ à§ľ
à¦ķà¦¨ à¦®à¦¨
à¦®à¦¬ à¦ĩà§Ł
à¦²à¦¸ à§ľà¦ķ
à¦¨à¦Ĺ à¦°à¦¨à¦ĵà¦Ĺ
à¦¨à¦ı à¦°à¦Ń
à¦¨à¦ı à¦¤à¦¨
à¦¨à¦ı à¦ľà¦¬
à¦¨à¦ı à¦¸à¦®à§Łà¦¬
à¦¶à¦ķ à¦«à§Łà¦¸
à¦¸à¦ķ à¦«
à¦®à¦ª à¦£
à§§à§¯ à§§à§¬
à§§à§¯ à§¨à§¬
à§§à§¯ à§¬à§©
à¦¸à¦ª à¦¦
à¦¦à¦¸ à¦¹à¦¬
à¦¨à¦¯ à¦¤à¦ķ
à¦Łà¦ķ à¦Ĺ
à¦¨à¦¶ à¦°à¦£
à¦ĵà¦¸ à¦°à¦¬à¦°
à§Łà¦¦ à¦Ĩà¦¬
à§Łà¦¤ à¦¸à¦®
à§Łà¦¤ à¦ĸà¦¨à¦¸
à¦Ĩà¦ľ à¦²
à¦Ĩà¦ľ à¦ħà¦¨
à¦Ĩà¦ľ à¦¸à¦¨
à¦Ĩà¦ľ à¦®à¦ĸ
à§Łà¦ª à¦¥à¦ļ
à¦¬à¦Ľ à¦°à¦ªà¦°à¦®
à¦¬à¦Ľ à¦°à¦īà¦¦à¦¯
à¦ªà¦ķ à¦«
à§¨à§¦à§¨à§§ à§¨à§§
à¦Ĩà¦¦ à¦¦
à¦Ĺà¦¤ à¦īà¦¨
à¦Ĺà¦¤ à¦®à¦¤
à¦Ĩà¦°à¦ĵ à¦Ĩà¦®
à¦ıà¦² à¦ĩà¦¡
à¦ıà¦² à¦ıà¦¨à¦ľ
à¦¨à¦ĵ à¦Ľ
à¦īà¦ľ à¦¤
à¦īà¦ľ à¦Ń
à¦¦à¦² à¦ħ
à¦°à¦īà¦ª à¦°à¦«
à¦¨à¦Ł à¦§
à¦°à¦®à¦¤ à¦Ľ
à¦°à¦®à¦¤ à¦¨à¦¬
à¦ķà¦°à¦¬ à¦¤
à¦ĩà¦Ń à¦Ń
à¦¬à¦¹ à¦¬à¦¨
à¦¬à¦¹ à¦¨à¦Ĺ
à¦¬à¦¹ à¦Ĩà¦ķ
à¦ħà¦¸ à¦¦
à¦§à¦¨ à¦ıà¦¬
à¦§à¦¨ à¦¹à¦²
à¦ĵà¦® à¦¯
à¦²à§Ł à¦¯
à¦ľà¦¸ à¦¹à¦¬
à§¨à§ª à§®à§©
à¦ħà¦¬à¦¸ à¦°à¦Ĺ
à¦Ī à¦¶à¦«à¦Ł
à¦¶à¦¤ à¦¤
à¦¶à¦¤ à¦ªà¦°
à¦ªà¦¡ à¦ķ
à¦·à¦ķ à§Ł
à¦²à¦Ĺ à¦¬à¦²
à¦²à¦Ĺ à¦¤à¦ķ
à¦²à¦Ĺ à¦¹à¦°
à¦Łà¦¸ à¦°à¦¬à¦°
à¦Łà¦¸ à¦¦à¦°à¦ľ
à¦Ĩà¦ĩà¦¨ à¦ħà¦®
à¦ıà¦ĸà¦¨ à¦Ł
à¦ıà¦ĸà¦¨ à¦ıà¦Ł
à¦²à¦¦ à¦¹
à¦²à¦¦ à¦ĸà¦²à¦¨
à¦¶à¦® à§Łà¦¨
à¦¹à¦¸ à¦¦à¦°à¦¤
à¦īà¦ł à¦²à¦ķ
à¦¤à¦¤ à¦ļ
à¦ıà¦® à¦®à¦¹
à¦ıà¦® à¦ıà¦¸à¦ª
à¦¸à¦¦ à¦°à¦§
à¦¸à¦¦ à¦°à¦ĸ
à¦¸à¦¦ à¦°à¦¡
à¦¸à¦¦ à¦°à¦¸à¦¦
à¦¸à¦¦ à¦°à¦«à¦°
à¦¸à¦¦ à¦°à¦®à¦¨à¦ª
à¦¸à¦¦ à¦°à¦Ĩà¦®à¦¤à¦²
à§§à§« à§¦à§¯à§¨à§¦à§¨à§§
à¦ĩà¦ī à¦ªà¦¨
à¦¶à¦¸ à¦ļ
à¦·à¦¤ à¦¯
à¦°à¦ıà¦ķ à¦ĺ
à¦°à¦ıà¦ķ à¦§à¦°à¦¨
à¦°à¦ıà¦ķ à¦°à¦ľà¦®
à§§à§® à§¦à§¨
à§§à§® à§¦à§§à§¨à§¦à§§à§©
à¦Ĺà¦ł à¦¨à¦Ľ
à¦°à¦¥à¦® à¦Ĩà¦®
à¦°à¦¥à¦® à¦ªà¦¤
à¦¯à¦ķà¦° à¦°
à¦·à¦¦ à¦ªà¦°
à¦¦à¦® à¦¯
à¦¦à¦® à¦Ļ
à¦ĩà¦¹ à¦ł
à¦§à¦¬ à¦ľ
à§· à§¨
à¦¨à§Ł à¦ĸ
à¦Ĳ à¦ľ
à¦Ĳ à¦Ľ
à§©à§¦ à§§
à§©à§¦ à§§à§¯à§ªà§ªà§©à§©à§©à§¨à§¨
à¦¤à¦² à¦ľ
à¦°à¦Ĩà¦² à¦«
à¦¨à¦ªà¦° à¦¨
à¦Ĺà¦® à¦ķà¦°à¦¤
à¦īà¦Ł à¦ħà¦«
à¦®à¦ľ à§Łà¦®
à¦¨à¦ıà¦ĩ à¦Ľ
à¦¤à¦¹ à¦¨à¦ª
à¦¤à¦¹ à¦ĩà§Ł
à¦¤à¦¹ à¦Łà¦²
à¦ıà¦°à¦ª à¦°à¦Ĺ
à¦¨à¦¸à¦® à§Łà¦¦
à¦°à¦ķà¦® à¦ļ
à¦°à¦ĵà¦ª à¦°à¦ħà¦¤
à¦¨à¦ħ à¦¹
à¦¨à§Łà¦¨ à¦ıà¦¬
à¦ķà¦°à¦£ à¦¶
à¦ıà¦¸à¦¬ à¦Ł
à§«à§¦ à§©
à§«à§¦ à§®
à§Łà¦¯ à¦ĸà¦¨
à¦¬à§ľ à¦¨
à¦¬à§ľ à¦«
à¦¬à§ľ à¦Ĩà¦ķ
à¦¤à¦°à¦£ à¦²à¦ķ
à¦ķà¦¸à¦® à§Łà¦¬
à¦ķà¦¸à¦® à§Łà¦¦
à¦Ĩà¦ĩ à¦ıà¦«
à¦ķà¦ľ à¦²à¦¦
à¦²à¦¶ à¦°à¦£à¦ĸ
à¦¯à¦¶ à¦¹à¦°
à¦®à¦ļ à¦®
à¦ıà¦« à¦ıà¦®à¦°
à¦¨à¦Ĩà¦² à¦ľ
à¦£à¦¨ à¦·
à¦²à¦Ĩ à¦ª
à¦²à¦Ĩ à¦ĩà§Ł
à¦¤à¦ĸ à¦¨à¦¸à¦¬
à¦ıà¦ĩà¦¸ à¦¬à¦¨
à¦®à¦Ĩ à¦°à¦ı
à¦®à¦Ĩ à¦ªà¦¡
à§ªà§¦ à§§à§ªà§¦à§§à§§à§®à§ªà§«
à¦ĩà¦īà¦ª à¦¹
à¦¥à¦® à¦£
à¦Ĩà¦°à¦ķ à¦¸
à¦·à¦ĸà¦¬ à¦°à¦¬à¦°
à¦°à¦¸à¦¹ à¦Ĩà¦¬
à¦°à¦ĸà¦¬ à¦°à¦Ĩà¦®
à¦°à¦ĸà¦¬ à¦°à¦¸à¦ł
à¦ĸà¦ķ à¦¹à¦¬
à¦Ńà¦¬à¦¨ à§Ł
à§©à§© à§©à§¦à§§à§¯à§ªà§ªà§©à§©à§©à§¨à§¨
à¦Ĩà¦°à¦ı à¦¦
à¦Ĩà¦°à¦ı à¦ĩà¦¸
à¦¯à¦ĸà¦¨ à¦²
à¦¤à¦ĸà¦¨ à¦Ń
à¦°à¦Ĩà¦¸ à¦°à¦¥
à§¬à§¦ à§§à§ªà§¦à§§à§§à§®à§ªà§«à§«
à¦ıà¦°à¦ķ à¦®à¦¸
à¦ıà¦°à¦ķ à¦®à¦ª
à¦ĩà¦¸à¦® à§Łà¦¤
à¦°à¦Ĩà¦¹ à¦®à¦¦à¦®
à¦¯à¦¤à¦® à¦¹à¦²
à¦°à¦¥à¦®à¦ª à¦Ľà¦¨
à¦¨à¦ľà¦¨ à¦°
à§©à§« à§«
à¦·à§Łà¦ķ à¦īà¦ªà¦ķà¦®
à¦¡à¦Ń à¦£
à¦¹à¦¯à¦°à¦¤ à¦°
à¦¹à¦¯à¦°à¦¤ à¦Īà¦¸
à¦°à¦¸à¦¦ à¦°à¦Ń
à¦°à¦¸à¦¦ à¦°à¦¡
à¦°à¦¸à¦¦ à¦°à¦¨à¦¬
à¦°à¦¸à¦¦ à¦°à¦¦à¦ª
à¦°à¦¸à¦¦ à¦°à¦ķà¦ļ
à¦°à¦¸à¦ķà¦² à¦ľ
à§©à§Ń à§ª
à§¦à§¯ à§¬
à§¦à§¯ à§¦à§¯à§¨à§¦à§¨à§§
à§¨à§¦à§§à§ª à§¦à§§à§§à§®à§ªà§«
à¦¬à¦ļ à¦°à¦ķ
à§©à§ª à§®
à¦°à¦Ĩà¦°à¦ĵ à¦ĸà¦¬à¦°
à¦¯à¦ĩ à¦ıà¦®
à¦ħà¦¥ à¦ļà¦¨
à¦ħà¦¥ à¦ļà¦®
à¦¦à¦°à¦¬ à¦¨à¦¸à¦¦
à¦¡à¦¹ à¦¸à¦ª
à§¯à§¦ à§§à§ªà§¦à§§à§§à§®à§ªà§«
à§İà¦¸à¦ķ à¦ľ
à§İà¦¸à¦ķ à¦¶
à¦īà§İà¦¸à¦¬ à¦Ń
à¦¨à¦ĩà¦¬à¦¨ à¦¹
à¦ıà¦¨à¦ı à¦Ń
à¦ıà¦¸à¦®à§Ł à¦°
à¦ĵà¦ıà¦ķ à¦ĩà¦Ń
à§ªà§ª à§¨
à¦ľà§Łà¦¨ à¦Ĺà¦°à¦¹
à§©à§¯ à§§
à§©à§¯ à§¨
à§©à§¯ à§©
à§«à§® à§Ń
à§Ŀ à¦ļ
à¦°à¦ħà¦ªà¦° à¦¦
à¦Ľà¦¦ à¦Ĩà¦ľà¦ķ
à¦°à¦ªà¦°à¦ĵ à¦¦
à¦°à¦ªà¦°à¦ĵ à¦¯à¦¦
à¦¬à§Łà¦¸ à¦Ń
à¦¯à¦ĵ à¦ļà¦¨
à¦ķà¦Ĩà¦® à¦²
à¦²à¦¸à¦¹ à¦ħà¦¨
à¦ĩà¦ıà¦ĩ à¦¯
à¦Ĺà¦Ł à¦ĩà¦ªà¦¤
à¦°à¦Ĩà¦²à¦® à¦ľ
à¦°à¦¬à¦Ľ à¦°à¦¤
à¦®à¦ķà¦® à¦¤
à§° à¦¸
à¦°à¦¶à¦¹ à¦°à¦Ĺ
à¦¤à¦¨à¦¸ à¦¹à¦ķ
à¦ĩà¦²à¦Ł à¦īà¦ļ
à¦ľà¦¸à¦¦ à¦°à¦°
à¦ľà¦¸à¦¦ à¦°à¦¬à¦¨
à¦ľà¦¸à¦¦ à¦°à¦Ĺà¦ľ
à¦¨à¦ıà¦ĸà¦¨ à¦Ĩà¦®
à¦¬à¦Ĩà¦² à¦®à¦ľà§Łà¦®
à§§à§§à§¦ à§¨
à¦°à¦ĸà¦¬à¦° à¦²
à¦ıà¦ĸà¦¨à¦ĵ à¦§à¦°
à¦®à¦ĺ à¦Łà¦ª
à¦ĩà¦ıà¦¸ à¦ıà¦¸
à¦Ĩà¦ĩà¦ķ à¦¨
à¦ļà¦Ĺà§ľ à¦ª
à¦¨à¦Ĩà¦¹à¦®à¦¦ à¦¶à¦®
à¦²à§Łà¦¬ à¦Ļ
à§§à§§à§« à§Ń
[...]
